▁antec
▁iat
▁correspondingly
▁skeletal
▁confirming
ithi
plasty
▁coordination
▁keto
▁Veterans
▁tiss
▁Centers
AFP
▁dermal
▁sensi
▁Americ
odop
tism
hydration
▁Smoking
TSH
▁pneumococcal
▁labial
otent
▁sedation
erating
▁avail
▁Sulf
vian
hetamine
▁vigorous
▁acros
▁ultrason
gus
▁metast
ulose
roat
▁serology
▁identifiable
▁suprac
▁glut
ronch
restricted
▁continuation
fatal
aric
▁foc
versity
ophilic
▁contiguous
▁nig
▁decreased
▁exer
▁lumbar
▁solit
▁symptom
▁duc
tical
▁carvedilol
erable
lyb
kine
▁initiating
ffin
▁duodenal
ustained
▁tas
▁proximal
▁hypothyroidism
uretic
ulant
▁acutely
▁untrained
▁multis
▁PCR
▁glucocortic
▁parac
cad
▁flora
▁seb
▁surgeon
triglycer
▁differe
tivity
▁lesion
oglobin
▁substitution
▁diminished
▁pleural
rosemide
▁incom
qui
▁compares
▁cann
▁quin
▁intensive
▁concordance
▁nephropathy
titute
▁stimulation
dil
hep
▁extensor
▁furosemide
▁distal
sors
▁cholest
ilization
EI
▁bacteriuria
gents
▁Nineteen
▁bicarbonate
▁Sensitivity
▁antic
▁modalities
▁Factor
▁osmotic
▁infertility
ocl
▁Prel
▁excision
▁ineffective
▁valve
▁stenosis
opulation
▁nominal
▁bir
aminop
▁Hb
opril
estion
▁Calc
rates
▁recr
lusion
▁advan
tiary
eptin
eclampsia
opam
▁fetuses
▁postoperatively
▁chloride
Ig
▁uniformly
▁contaminated
ureas
treated
▁scalp
udation
tention
▁excretion
▁conditioning
▁beha
▁atyp
oconazole
ults
▁bowel
ochrome
itonin
brile
▁acetaminophen
▁sonographic
LV
▁endocrine
▁Mild
bral
anat
aryng
▁plasminogen
ytes
▁exud
▁occupational
▁stratification
opathic
▁ank
▁abscesses
muscle
pore
▁interleukin
▁subsets
oten
imethyl
ominant
Bs
▁Examination
▁hydrolys
▁mL
iscal
gated
▁intran
▁titers
▁ach
generation
▁dopamine
odium
▁mildly
emin
urate
▁emphasized
▁UT
▁inhibit
▁Failure
▁gynec
▁Comparison
hene
LU
▁filtration
▁throm
zine
▁competence
▁hepat
ariate
▁adrenal
▁cef
▁Progesterone
▁criter
uprofen
▁interventions
▁monotherapy
▁daytime
▁steroid
CRP
establ
▁blot
▁correlated
▁endoscopic
tion
▁lymphocytes
▁Lipid
▁hyponatremia
LISA
ithium
oplasty
emia
dominal
▁prognostic
▁progres
▁deterior
▁ovaries
▁nonf
▁favorable
▁radiograph
iline
▁lax
enal
▁somatic
pran
▁hysterectomy
▁persisting
▁promptly
▁Caucas
assi
romycin
▁asymmetric
▁deterioration
▁cardiac
▁artifact
inol
▁Ade
▁ESR
▁chorionic
▁retur
▁clinically
▁bronchitis
azolam
▁conception
potential
▁Interestingly
thmia
▁dias
aline
▁analgesia
▁cancers
indolol
thrombotic
▁nonpregnant
psych
▁fluoride
▁NP
▁aro
oselective
▁wee
▁metoclopramide
▁obstetric
imin
▁quinolones
▁devi
phen
medicated
▁graft
▁HB
▁antenatal
odies
▁deem
rowing
▁chronically
emetic
esia
▁corticosteroid
▁deleterious
▁nasal
▁spikes
osomal
▁epidural
▁endoc
▁hereditary
▁pathology
▁TM
▁vomiting
oride
▁anticoagulant
▁adjus
blood
molec
within
▁microbi
▁twofold
▁gases
▁Improvement
▁Suc
aternal
▁practic
▁resuscitated
ortal
obronchial
atab
alic
ration
▁neomycin
▁lor
▁thir
▁abdominal
▁eighth
enyl
erge
threatening
▁Seventeen
▁hydrogen
estim
▁Consequently
▁persisted
▁accid
▁impairment
zation
▁ketoconazole
▁overlapped
▁minus
formin
▁trig
▁choles
din
▁supple
▁yielding
olamine
▁titration
orated
▁inconsistent
acycl
osclerotic
▁DBP
hap
▁amphetamine
▁Tiss
▁spacer
▁colpos
▁waking
coated
▁postnatal
▁dye
▁limb
▁azathioprine
▁sedative
▁scanning
▁anemia
oprost
▁corticosteroids
azone
▁mono
▁glyc
▁concentrations
▁donors
▁auditory
▁restraint
tiv
▁potent
avir
▁Subjec
▁biopsies
tinu
troph
▁subcutaneous
▁calorie
▁clus
iotensin
rele
▁hormone
▁smears
▁ejac
▁Absolute
lives
▁validity
▁optimum
▁MH
▁HL
▁OD
▁enroll
▁dihydro
▁saphenous
hyd
▁decarboxylase
▁laparoscopy
▁detectable
▁revised
tipation
operatively
▁unusually
chid
▁offspring
▁splenomegaly
NB
olones
blocker
inesterase
▁thre
▁Eleven
ported
enem
▁washout
letion
▁LM
drome
▁Nine
illi
▁adhering
▁malignancy
uality
▁cep
ocar
▁scans
▁sedimentation
erebral
▁jaundice
ignific
▁cartilage
▁meperidine
rals
▁identif
▁intrauterine
▁CN
ostic
▁hypocalcemia
diagnosis
▁reversing
idin
▁retinoids
resist
azoline
olesterolemia
▁evacuation
▁Relative
▁testicular
▁estrogen
tinguish
uin
▁exceptionally
▁cutaneous
▁Epid
▁resul
▁newborns
▁Extensive
▁underwent
oxyl
▁predominant
nec
ingers
▁warr
iatric
▁reflecting
▁migraine
surgical
▁placent
oprim
melan
arate
▁cortisol
prandial
▁Ventricular
▁Highly
uting
▁kinase
ocytosis
▁yeast
▁TI
crib
▁lumbosacral
▁ultrasonography
▁synthesize
orbid
trac
▁EG
▁resol
▁reversed
assium
▁resection
▁weighed
▁systematically
▁hep
▁benign
▁differen
▁prognosis
odiazepine
▁initiate
rane
▁hydrocortisone
containing
esting
▁sampl
▁unselected
junction
▁cervical
▁predisposition
▁Increases
▁contex
vating
▁provid
etoprotein
▁TS
ophen
enicillin
reness
econd
▁Statistical
▁RS
▁bladder
▁CDC
▁classifications
▁sickness
isters
amol
▁chec
▁Exercise
▁paral
▁drip
▁assessments
plasia
▁tic
▁Respiratory
▁conservatively
▁prescriptions
▁hyperthyroid
otre
▁assay
▁subdural
notic
ritten
▁antibody
sively
olytic
irc
rologic
▁Conventional
▁thems
▁scientif
otox
tained
trum
▁cohort
▁validated
▁endotracheal
▁cohorts
▁suppressed
▁chewing
motic
thyl
▁Individuals
▁Alz
▁Clinic
▁preschool
▁hairy
▁fracture
▁doses
▁interferon
▁exploratory
hydrop
▁asymptomatic
▁bronchodil
▁capsules
iasis
▁systemic
▁diaz
dered
▁fixation
▁simplex
adily
EMG
▁Sodium
cessive
▁lowers
▁ischemia
▁nosocomial
▁fibrillation
monary
reactivity
▁insoluble
lood
▁gentamicin
▁hyperlipidemia
▁CIN
dural
ronate
amphetamine
▁lipoprotein
▁uniquely
atell
iteal
▁valpro
▁standardized
initi
▁Addition
▁atenolol
invasive
▁physiology
▁antipsychotic
▁extrap
▁serological
itone
▁contracep
ylated
▁membran
▁topically
▁verte
cellent
adjusted
rosis
▁hypercal
thmias
achn
▁secreted
tensity
tox
▁genit
xual
ochrom
odil
▁Hyp
▁lipids
▁intraepithelial
▁doxazosin
▁weakly
▁Acet
ithm
etal
▁manifested
mediately
orbent
icine
▁uncom
▁exaggerated
▁vertebral
▁outbreaks
▁Treatment
▁substantially
▁argues
trates
▁nasopharyngeal
administration
duction
amus
▁incid
▁gonadotropin
▁adenomas
▁regimen
▁nylon
▁endoscopy
▁abduc
▁hypog
responders
obl
▁hepatocellular
ensitivity
▁sucralfate
adequ
ducing
esity
▁coh
▁cerebrovascular
▁fetal
▁evaluating
▁recurrences
▁codeine
▁celiac
▁epidemiological
▁blinded
leb
oracic
ystag
ocomial
ausea
▁stools
▁arti
▁histopath
▁Dental
vac
ochem
▁conclusive
▁genital
▁birthweight
xiety
▁transplant
▁hyperplasia
vus
▁diastolic
▁Magnetic
igl
lox
▁sti
▁dehydrated
alian
pecific
▁graf
terase
▁operative
▁indications
traum
▁Viral
▁divertic
▁inflammation
▁elevation
▁Higher
▁limbs
▁DCA
lysis
▁Prac
▁satis
▁systolic
▁Injury
produc
▁immunity
amphen
▁succes
▁concurrent
mL
▁reser
▁neoplasia
ficial
▁strokes
▁necro
albumin
▁averaged
▁dementia
MH
▁heterogene
▁Depending
ealand
usively
▁hyperlipid
▁kidne
▁plas
embry
▁myopathy
tive
lamin
▁percutaneous
hers
▁repro
feren
▁satisfactorily
▁Recurrent
▁malabsorption
▁inflamm
▁wk
abd
difference
LR
yses
SAID
▁carcinomas
ecre
▁Chronic
▁inadequate
▁mell
▁refractory
▁capsaicin
salt
▁GE
umably
tition
▁ductus
idne
achol
iol
ischemic
ranial
▁citrate
▁suppressive
otyp
▁premature
diagnosed
▁sulfoxide
▁autosomal
▁surrog
▁alcoholic
protein
ergic
▁quantit
▁revascular
▁mmol
▁cerebro
▁electrom
▁births
epsia
omatic
▁occl
▁matur
elic
▁tomography
adian
▁headaches
pharyngeal
eliac
▁benzyl
oporotic
▁evaluations
ignant
▁Multiple
tensive
▁surgically
otransferase
▁hyperch
oglobulin
azep
▁clinician
farction
ipit
▁Acad
▁lidocaine
▁Bacterial
▁swit
oretically
▁Leuk
▁noncom
ectom
toc
▁exposures
azin
teroidal
▁appropriately
▁Systolic
▁covari
oligo
ysts
▁thyroxine
▁endometrial
drug
▁cuff
bearing
ureth
▁pyrid
▁implying
▁placenta
▁complication
▁thromboemb
otypes
▁aggression
▁neonates
ductive
adrenergic
▁dissection
▁chor
▁tibia
roscop
▁dosing
▁overweight
anine
aldosterone
▁IU
▁irritant
ruc
▁inges
portant
▁erythema
▁quotient
▁soluble
▁Urine
▁Hypertension
▁oxym
itively
▁drin
▁morb
▁infarctions
▁controver
▁ison
▁summ
disciplinary
▁Complications
iotics
antibody
▁glycol
▁hypothe
osacral
▁streptococci
▁correlating
▁otitis
enec
plemented
▁infec
ophys
iphene
▁descriptive
eared
▁saturated
▁AFP
▁postpartum
▁prostatic
▁unrelated
▁discontinuation
cancer
▁exce
▁polys
taining
▁anxio
▁angina
spective
eal
▁lact
▁nocturnal
▁tymp
▁glycemic
gluc
▁OA
dose
sied
▁markedly
ofl
BMI
▁chan
▁Findings
oung
▁stren
▁Estimates
emide
▁caregi
▁aneurysms
▁addic
▁theore
▁Ultras
▁lymph
ordial
▁nore
▁mellitus
▁fulfilled
associated
▁intake
ophren
ogenicity
▁drainage
athioprine
▁microscopic
oprolol
▁hemat
▁consul
▁isolates
▁effic
yro
▁sput
otrexate
micro
▁HSV
▁multin
▁surrogate
▁DMP
geal
▁sugars
ipheral
▁albumin
▁peroxide
▁diclofenac
▁ipratropium
▁Functional
▁autoimmune
▁bypass
▁disturbances
abdominal
▁predic
▁precur
▁mann
▁eradicated
ffeine
▁microb
▁Rout
▁sepsis
▁glutamic
▁detec
inopril
ovascular
▁unipolar
▁endo
▁infancy
tency
▁loos
▁amputation
uestion
▁varicella
▁carpal
▁Injection
▁communic
▁HPV
▁Increased
▁functionally
▁immun
acid
▁subfractions
ocrine
▁melan
▁heterogeneity
tiguous
estions
▁adenoid
▁modeled
▁sutures
▁critically
▁immunoblot
▁progression
ocin
▁hypokal
oxetine
▁Scale
retion
▁unrel
▁inten
▁musculoskeletal
ographically
idis
▁psychomotor
▁fung
anding
ocaine
Rs
▁Diagn
▁eccentric
▁assessed
▁CVD
trimester
amphenicol
▁decreasing
▁Finnish
fetoprotein
zymes
entif
▁Combin
tron
▁fertility
stem
lude
ervations
▁hygi
trop
butamol
▁hypoglycemia
▁extracorporeal
▁deoxyrib
▁rheumatic
▁embry
enic
teral
roscopic
ucle
▁cosmetic
ocellular
▁quinacrine
▁unrecognized
▁eradication
▁onset
ereb
▁tenderness
▁voluntary
▁anticonvulsant
▁Optimal
tiveness
▁gastroenteritis
▁weighted
▁Afric
sants
▁diarrhea
blockers
▁bronchial
glycoprotein
▁absorptiometry
uria
▁cytochrome
▁cryp
▁Depression
▁anhydrase
▁concomitant
▁Ure
inamide
apid
▁esters
▁scarring
respective
cemic
▁Medicare
gesterone
▁MM
▁squamous
clin
▁gradual
arachnoid
▁glucosamine
attern
▁lumb
positive
▁Hib
▁oxygenation
vity
▁hairs
eptic
▁Mortality
▁prospective
▁hypot
onstric
▁potenti
▁glands
▁infectious
▁paternal
teroid
otri
illar
▁hir
▁backgrounds
▁practitioner
▁analgesic
▁thromb
▁Specificity
scher
ognition
▁nodule
▁dairy
trol
tors
▁infarction
▁Bronch
▁pell
▁evol
▁lipid
▁phleb
▁retinal
▁aspiration
▁Thirty
▁sclerotherapy
▁antigen
▁atropine
siveness
▁ingestion
▁parox
gestrel
atally
▁cylinder
▁practitioners
▁tric
▁HLA
▁restric
genic
▁atrial
▁venti
▁Intr
▁appra
urgical
ostatic
▁statistically
ighted
▁chemically
SMR
▁Assess
aryn
▁RA
▁objec
opause
edle
▁questionnai
▁unil
▁observational
▁schizophrenia
pH
▁Caucasian
disc
▁retrospective
▁aspirin
otriene
udin
▁colorectal
anking
uracy
rosy
▁immunized
vice
ographies
▁latex
▁diffus
▁gluc
▁comprised
▁expectancy
▁intermedi
merc
epine
etus
ergy
ventil
scherichia
sparing
▁Invent
▁cefaclor
entified
▁contraceptive
thickness
▁fibr
▁transfusion
▁dors
tigo
▁ibuprofen
▁incub
▁affinities
jective
alsy
oxygen
ophag
ocrom
▁Patients
▁anatomic
osac
▁intramuscular
▁lithium
▁cutoff
▁irregular
▁unreliable
agonist
ergenic
▁induc
▁PV
▁calor
urrence
▁predictive
▁arth
▁atten
▁inappropriate
▁rigorous
razole
▁acupuncture
▁abd
controlled
▁antioxidants
effectiveness
▁fluc
DNA
▁ipr
meas
▁accep
▁clinicians
▁responsiveness
▁intub
▁biased
▁goiter
▁unin
▁commerc
tified
erance
tance
▁anat
uric
▁Therapy
imens
▁crom
smokers
TCA
▁characteris
▁sequelae
deficient
▁intra
▁bacteri
▁Nit
▁instruc
▁EI
▁Symptom
gestation
cyst
▁previ
▁experim
▁spleens
acetic
▁tubercul
reported
ionic
clic
▁efficac
quid
▁examining
strual
▁identi
MW
oretic
iagn
▁dissemin
onor
▁infar
ifedipine
ypro
▁polycystic
▁multim
▁demonstrates
vival
umulative
edding
trogen
cture
▁colic
▁antis
▁ecological
▁clinics
▁hered
▁pancre
▁examinations
▁kinases
▁confir
▁fla
▁androgenic
▁respiratory
▁encephal
▁undergone
▁manu
▁premenopausal
hormonal
▁fulf
▁fertile
▁hypon
obac
gulation
atif
tro
▁hypotonic
▁PEG
▁Gluc
oagulation
▁adip
▁lep
▁hyperp
▁cumulative
▁effusion
olism
osterone
azepam
▁ppm
▁nifedipine
endix
▁Survival
onam
average
▁enhances
▁radiographic
▁contractions
▁calcified
Ly
▁cartil
opausal
AO
▁durations
sequent
ohns
▁duplex
▁imaged
tiz
▁allergic
ept
▁pancreatitis
apsulated
elan
▁esophag
ximum
▁lability
▁UTI
▁insulin
acute
▁Clinical
lux
ologic
chool
▁pyridoxine
tenti
▁arthritis
▁omega
▁acet
ocyst
▁ADA
▁Approximately
▁agglutination
asone
tively
▁appendicitis
veness
iminary
▁zoster
▁enlargement
▁hypothyroid
lamyd
▁promin
ziness
urred
▁unex
▁indefinite
▁Pneum
▁contraceptives
▁retrospectively
luding
▁embolism
▁internally
▁Hep
azol
▁normalization
atosis
▁adul
allium
▁diets
▁noninvasive
▁adulthood
lym
▁Nutrition
omyces
▁nicotine
▁substanti
acin
▁cic
▁Hyd
plenic
converting
urban
▁reliability
▁linearly
▁favoring
▁phenyl
▁nonsmokers
▁IgA
▁Staphylococcus
opre
▁hypotension
weighted
▁cysts
▁serolog
▁venography
▁treadmill
▁allergens
amet
yrid
▁drinkers
ancomycin
▁lifest
▁sati
▁mice
idney
▁interpretations
molecular
▁ramipril
tioned
▁adjustment
▁referral
orh
idase
▁longus
▁ventilator
▁Cardiovascular
iplinary
▁desaturation
▁contrib
▁articular
▁Extr
▁ventil
oluble
▁recurred
▁cate
gic
iotic
▁confirms
elvic
▁infants
▁assays
▁Inventory
▁angi
onegative
deficiency
▁physici
▁overestimated
▁Successful
▁bronchodilator
ergency
▁AO
osocial
oratory
▁positively
▁thiazide
▁leakage
mature
▁naf
sue
oscop
▁gestational
▁factorial
▁Arter
▁markers
▁calcium
▁differed
▁etiology
ospitals
cys
▁Retrospective
itus
▁metabolism
orac
▁helical
hips
▁predominantly
▁methadone
titis
▁Caucasians
ithromycin
posure
entia
llate
▁investigator
▁obstruction
▁malignant
aminophen
compared
▁aids
▁insufficiency
▁bip
pation
▁hydrox
▁antibodies
gative
▁incision
▁decreases
▁admissions
▁shorten
sia
▁shortened
▁ischemic
▁Behavioral
▁magnesium
▁perioperative
▁simplified
regulation
astric
arial
cents
▁swabs
tility
▁Rates
lyl
▁neuroleptic
individual
▁elimin
epithelial
▁cephalosporins
ygen
▁cardio
▁thresholds
ods
▁edema
astatin
▁sten
▁newborn
▁chol
▁Hyper
▁transverse
▁amo
▁occult
▁IVC
▁Stro
▁echocardiogram
▁hypercalcemia
ventilation
▁Breast
▁microscop
▁nondiabetic
▁Ninety
▁ablation
visc
ilic
SDS
urnal
rocyte
Ra
▁examin
uretics
amycin
years
▁adolescence
▁derm
▁Streptococcus
▁exclusion
ocysteine
ilateral
calor
idating
ositive
▁adenocarcinoma
idazole
▁glucocorticoids
▁placental
▁cromoglycate
thood
▁stepwise
actam
mum
▁resistant
▁phenotype
▁ascertain
▁polysaccharide
▁aberrant
▁positives
orec
▁mEq
▁testosterone
ffec
roph
▁EB
▁fractures
▁anesthesia
▁saphen
azepine
▁cereb
▁puncture
enters
▁deform
▁anticoagulation
▁duoden
▁Abnormalities
olitis
▁FD
▁Significantly
▁preventive
amid
▁rheumatoid
▁paroxysmal
▁alcoh
▁lisinopril
erad
encephal
sul
▁myc
▁injur
▁adequ
amines
▁TMP
▁diphen
androgen
nons
▁abdomen
▁neoplasm
▁eczema
▁therapeu
▁neutralizing
▁halves
irds
ylic
▁opioid
median
trast
achial
▁Exc
▁socio
▁rhy
▁inversion
▁ceftriaxone
immun
tric
cus
▁inversely
▁unnecess
▁antioxid
▁asymp
▁HBs
▁airway
▁salivary
strain
▁intest
▁orally
▁averaging
iclovir
▁Prevalence
▁traction
omies
▁penicillin
▁rotavirus
▁iatrogenic
▁aspec
uestionnaire
▁promp
▁acetic
mia
idate
▁consis
▁MRSA
▁amph
perature
▁randomized
▁mortality
roxen
▁caries
dine
▁Measure
▁secretagogues
▁deox
▁pancreatic
▁struc
aturated
opr
▁Feeding
sulf
glucosidase
▁quinine
▁preexisting
entral
▁favorably
flammatory
tually
gthen
▁chorion
uitable
▁prodrug
gestin
asses
▁capillary
tene
▁colonization
ocys
enol
▁Doppler
osteroid
▁triglycerides
molar
▁infertile
▁sediment
▁gout
▁zinc
▁favored
▁ae
▁Screening
▁ambulatory
▁chlorpromazine
▁cerv
hydramine
onine
▁anomaly
▁erythromycin
▁invasive
traction
▁psychophysical
chol
releasing
ameter
▁pts
gressive
▁postmortem
ller
ioid
jun
ervative
▁glucose
gA
▁Transient
anin
▁clind
▁deli
▁dyspnea
buterol
specificity
▁unclear
▁triglycer
▁encompass
tite
▁sorbitol
▁deoxy
▁strains
▁mobilization
▁grading
▁favors
▁fasting
▁electr
▁measurable
▁Bacter
▁predis
▁suppres
idespread
▁subarachnoid
▁amput
rox
▁staging
▁Vitamin
ressing
arrh
▁stu
▁rupture
▁Barrett
tension
lax
▁Tissue
▁electroly
nisolone
▁bran
▁protr
▁Escherichia
▁tetrac
▁naproxen
ococci
▁physiological
▁exhaus
▁reac
haled
▁cholesterol
ivary
viral
▁EE
quisition
▁ventilation
▁gum
▁hypo
imus
methyl
▁empir
otoxicity
▁aerosol
▁coenzyme
Fs
tur
Gs
ocomp
▁tolerate
Cer
▁indicators
PV
▁diagnoses
▁anticholinergic
▁poorer
onidine
▁arteriosus
▁felodipine
▁Thirteen
eeding
ogenous
▁regained
ipril
▁bipolar
osom
armac
▁sci
erum
▁neutrophil
occal
▁masked
ophyll
▁Leu
▁infrared
seud
zard
either
▁bradycardia
▁chloramphenicol
▁aspartate
albuminuria
▁trichloroacetic
▁psor
▁compartment
initiated
ysm
▁Meas
▁nip
vastatin
alp
topril
▁eradic
▁localized
▁synthesized
▁fecal
enia
▁desatur
oskeletal
rease
▁biopsy
uncture
opi
▁gon
erving
▁torsion
▁gels
amilies
esophageal
measured
essive
▁predictor
▁fatty
sistent
▁yielded
▁detecting
ervical
severe
glycerin
dial
▁carcinoma
▁enal
IH
trib
ludes
ints
▁HI
xime
adm
▁recurrent
opa
▁acces
▁histology
loxacin
▁specificity
▁luteinizing
▁nonsteroidal
▁Initi
▁estrogenic
▁carbonate
utaneous
ressive
▁neuropathy
▁lovastatin
▁equivalents
▁ane
▁tach
▁FEV
▁intermittent
▁transaminase
ycin
▁adop
▁extre
▁manifestations
▁consecu
olol
HDL
oxic
▁membranes
▁heterosexual
▁glomerular
▁Neuro
▁hypogonad
tib
pecies
▁pregnancies
▁embol
ystolic
▁musc
tituted
astolic
carbohydrate
▁suture
▁interf
admill
▁shedding
▁breaths
▁amplification
▁Diabetes
▁successive
tens
exin
hexidine
▁Hg
▁computerized
▁orthoped
▁induction
▁stimulant
bac
▁compositions
▁progn
uplex
yridine
▁tran
ypass
tam
IgM
▁selective
fir
▁acidic
▁headache
▁unexplained
▁rats
▁discriminate
▁acute
▁prescribing
▁dextro
▁Increas
▁oss
hydroxyp
▁categorized
▁preceding
atitis
throm
tential
▁lesions
▁fenoterol
▁gestation
thre
▁ureter
▁ferrous
organic
BH
tents
▁gonadotrophin
▁methionine
ionine
▁modif
▁hematologic
▁Reduc
▁oxy
cyt
▁hypers
▁scre
▁gastro
▁modifying
ylase
▁resonance
▁carc
kets
▁coli
▁antagonist
▁intracranial
▁mcg
▁investigations
▁metastases
▁relaxant
▁neph
▁blocker
spectrum
enzyme
▁suggestive
ipid
amuscular
▁aureus
stimulating
▁pneum
oplasia
▁excised
▁attenuation
gag
▁dehydration
tisol
▁insignificant
▁brom
▁atypical
pharmac
tering
▁immunotherapy
▁ester
rocy
erative
april
▁prednis
▁elec
▁multic
ositi
▁arousal
mented
▁statis
▁hypertensive
▁respir
▁buc
▁coping
umping
ALT
▁unchanged
blind
itriptyline
echn
▁vaccin
▁instrumented
hypertensive
▁perip
Tu
▁cessation
▁Surgical
▁exhibited
omethacin
▁iso
▁clu
▁fluoro
▁discharged
▁attributable
▁Bac
▁diuretics
▁incompetence
▁ecz
iloride
▁infarct
▁amitriptyline
▁abl
▁tolerated
▁anaerobic
▁decreas
▁coag
tensin
potassium
▁proton
rays
indol
ucas
lob
ilol
▁neurologic
▁LD
urgery
menopausal
Ba
▁audi
▁BV
▁summarized
▁undetected
andida
rhy
▁expres
▁subjective
mol
loid
▁eryth
organism
tory
vul
▁arrhythmias
tran
▁Levels
▁bic
▁preterm
▁anemic
▁Infection
tivation
▁weighing
▁routinely
vic
▁hemorrhagic
▁malign
▁Angiotensin
▁polym
roma
▁reduc
xyl
▁osteoporotic
▁Calcium
ortic
echanical
▁imaging
▁Subcutaneous
▁outpatient
▁synovial
organisms
lobin
▁endoscop
thma
promoting
convul
▁efficacious
▁worsening
▁piroxicam
▁Transi
OH
tide
yclic
mokers
▁PCO
ubs
ospor
▁spor
▁undergo
▁metastatic
▁fumarate
wk
▁carriers
itamin
oscopy
neumon
▁Statistically
▁Replacement
urin
▁bilirubin
▁Ps
▁reflux
▁dextrose
▁noc
avail
gesia
centr
▁fossa
yste
till
▁detrimental
▁antidepressant
yrib
▁alb
osal
▁stimul
ospasm
xate
▁incis
mentation
▁discon
▁seroton
ASA
▁sampled
▁hydrochloride
carotene
▁tol
▁biochemical
edocromil
▁immunogenicity
▁fatigue
yclo
▁brainstem
▁ultim
concentration
▁spon
tensives
onyl
▁IgG
opo
▁anomalies
acids
▁pec
▁modestly
▁endemic
▁demonstrating
▁CG
tual
ediatric
▁postmenopausal
▁aqueous
tia
▁ligation
▁reactivity
▁Nons
▁bromocriptine
▁susceptibility
▁fas
▁methotrexate
▁neurop
▁sulfate
aryngeal
▁cardi
▁epidemiologic
tivities
▁prescrib
omegaly
molality
▁melanomas
▁excre
▁analgesics
havioral
piratory
omotor
▁NSAID
▁serum
▁euth
▁micros
reas
▁immunos
▁Evidence
▁indeterminate
parathyroidism
▁benzodiazepines
▁tet
▁LMW
▁decarbox
▁seronegative
▁analogue
▁vitro
▁Prevention
▁postural
▁oils
▁Pregn
ejection
otonic
▁thrombo
administered
▁echocardi
▁Abnormal
▁saturation
aminated
▁formulation
ectin
iability
▁satur
antoin
▁perfor
acr
razolam
▁implants
oprotein
acental
▁augmentation
▁circulatory
▁extrac
idated
▁shor
▁posth
▁incontin
uterine
arean
gol
▁nutritional
▁emulsion
▁cyclo
▁calculi
creatinine
apamil
fiber
▁antif
▁optimally
▁tablets
▁agonist
▁ulnar
▁hyperg
particularly
thyroid
▁injected
▁simult
▁mening
▁trac
spar
vaccin
epti
inase
▁Disease
▁kidneys
▁cran
▁qualitatively
▁phon
▁titr
sibly
pine
etan
faction
▁estrogens
▁vesicle
▁diabe
pecially
▁skinfold
▁sorb
▁autoantibodies
iae
▁thrombocyt
otoxic
▁anticoag
▁obstructive
cribed
▁endogenous
otrop
▁parat
estis
▁adolescent
luc
adone
▁experimentally
▁epilepsy
uminal
▁antipsych
▁antiarrhythmic
▁trich
POA
coronary
▁administered
orrh
TG
sive
keletal
▁amiloride
▁suscepti
▁jaund
▁ruptured
▁normo
mittent
turb
cephalic
istal
therapeutic
▁Stress
▁studi
utin
izine
omiting
▁urtic
▁delaying
GH
▁thyroiditis
▁undetermined
▁superf
▁voiding
▁perit
utable
▁transmitted
▁regulating
▁angioplasty
▁ionized
expressed
NIDDM
acil
▁pati
▁insufficient
▁tamoxifen
oconstric
▁retic
▁nonfatal
dent
▁oste
▁congen
▁airflow
▁saliv
▁Assessment
▁predictors
▁extracts
▁Fourteen
▁coronary
▁PSA
▁suction
thick
osamine
peptide
othal
HF
▁hypertrophy
▁econ
lamp
▁reflex
▁stent
▁amenorrhea
▁maternal
▁lute
▁crossover
▁adipocytes
traumatic
▁Lactobacillus
▁sputum
▁resis
▁ultrasound
▁pneumoniae
▁serotypes
clinical
▁Cumulative
tionally
▁cured
▁spre
▁fulminant
▁ket
▁allele
▁Epidemi
▁esophagus
articular
endazole
▁soy
▁vascular
▁symp
imodipine
nish
angl
▁bismuth
▁substances
roscopically
uling
▁symptomatic
▁EMA
ordin
▁solitary
idic
ethylene
tative
▁complications
▁arter
▁RR
plen
effec
▁enzymes
continu
▁prostatectomy
romes
kage
▁hypoxic
▁enrolled
dic
▁SG
ventive
oneph
trover
▁gluten
▁carbohydrate
amethasone
▁Compared
▁enzyme
▁fluor
▁accounted
Ls
▁heavier
▁hydrop
▁definite
▁acyclovir
▁progesterone
ropathy
▁respec
asal
▁Tolerance
toxic
Ta
▁gastric
▁Secondary
▁cla
Ds
▁metabolic
Hg
▁cellul
jected
plas
atrop
aturation
▁pathologic
▁rifampin
▁cyt
ometrial
▁maneuvers
▁rati
▁endometrium
ocortic
▁rigor
▁urine
▁chlamydial
▁polyc
orption
tant
▁teratogenic
▁menstrual
LN
quine
▁leukocyte
▁lapa
ymptom
chlorothiazide
▁incompletely
▁psychosis
▁spas
ensi
atient
▁sedim
sA
▁memb
▁enl
▁fluoxetine
▁intracerebral
▁intrac
▁bladders
ughter
▁leuk
▁glycoprotein
bran
aicin
▁cyclical
patients
▁mite
▁erg
▁pelvic
▁MMS
deriv
▁LT
▁regurgitation
▁femoral
pli
examin
▁dor
▁tubes
▁electrodes
▁uncommon
▁Swed
ovastatin
ticularly
▁enteral
▁nif
▁microvascular
▁whey
tosis
▁uptake
heat
eclamp
inyl
▁pep
▁deposition
▁dysplasia
▁cesarean
▁posi
umerous
etine
gm
▁inhaled
▁incomp
earance
▁pharmacokine
▁postin
▁ocular
▁formulations
▁discom
▁pneumon
ophageal
▁CHD
▁conductance
▁thereafter
▁underg
odipine
▁psoriasis
▁CHF
▁acetate
▁CAD
▁hypothalamic
▁dus
acet
▁Physicians
▁serotoninergic
olysis
tis
viron
▁graded
illary
floxacin
ogl
titutes
▁correlate
itidine
▁ranitidine
sensitivity
▁sut
ociated
▁lis
▁caloric
▁norfloxacin
tec
regn
cis
thmic
risk
▁underst
▁doxycycline
atropium
▁gyn
izin
▁methodology
ayed
▁undere
OA
▁severity
orpor
▁causal
▁nitro
cellular
rography
▁inducer
▁renal
▁syncope
▁prolactin
▁muscul
▁CRP
▁Trial
Ts
▁lowering
▁constipation
atation
▁dosage
▁retinopathy
▁juven
BV
vant
▁dihyd
thirds
odopa
ceptive
urther
▁dysfunction
idine
▁verapamil
dip
▁erythrocyte
▁CAL
teria
▁colitis
ecretory
▁Oste
▁regimens
▁Effic
▁remo
▁sulf
▁Oral
▁attainment
uled
▁methodological
▁cranial
ymptomatic
▁paren
increased
▁antid
▁fum
▁multicenter
natal
▁inducing
▁febrile
▁hypox
▁Infants
▁dysp
omal
odds
enteric
▁pretreatment
thi
▁worsened
apine
versely
▁calcitonin
pir
▁lymphadenopathy
▁antim
aminases
▁Investig
▁luteal
DV
▁encomp
▁albuminuria
▁margins
▁tec
▁nebul
▁genotypes
▁calf
opro
oxazole
▁pharmacy
▁gonococcal
▁hemoglobin
tices
▁nipple
▁Adverse
othiaz
▁adherence
opramide
hydropyridine
▁propensity
affec
▁pertussis
economic
agonists
▁desm
▁responsive
▁indo
tening
▁digoxin
▁differentiate
eded
▁focal
▁excluding
▁histologic
▁smokers
olig
iatic
assessed
▁Serum
▁modality
▁provoke
▁ow
▁ECGs
▁Thyroid
yel
▁arterial
LDL
▁Sixty
▁neutroph
▁schiz
▁atherosclerotic
▁marginally
bacco
▁bacterial
baseline
adin
PCR
▁Positive
bodies
▁estimating
▁hypnotic
▁effec
conver
▁PMS
resistant
▁preserving
roxic
▁cultured
ritish
adine
▁comprising
▁injec
conduc
▁propionate
acrine
nine
▁bacteremia
upus
▁dipyridamole
▁bronchoscopy
amilton
arcin
sion
erop
▁familial
ometh
▁hyperb
xia
oxicillin
▁hazard
▁Steroid
▁reticulocyte
▁tes
sodium
reduced
▁uncomplicated
▁rheum
▁CAP
▁Whereas
▁diffic
▁visualization
ths
▁palpable
▁concurrently
▁cavity
consuming
jec
ichia
casein
▁persis
▁TSH
▁abnormality
▁enteric
PaO
ternational
▁expressing
▁Histologic
tious
embran
▁immunoglobulin
▁Dys
▁absorp
▁Subjects
▁Insulin
ctive
▁ery
osid
▁secrete
▁remission
▁progest
▁morbidity
icides
▁vein
▁differenti
▁Beta
lamy
erican
vaginal
bic
▁molecule
▁malformations
▁iden
imination
▁radiological
omerular
erate
coh
tinent
▁physi
olesterolemic
ocarcinoma
▁repor
fusion
▁questionnaire
▁influenzae
▁hetero
omat
unctional
▁undergoing
▁Significant
▁Haemophilus
▁titrated
▁plateau
▁absorpti
estrogen
▁cystitis
mental
▁elastic
sies
▁thrombus
rotein
▁arteri
tum
▁conjunction
▁interacted
omial
certain
▁ejection
▁neon
▁sple
▁paired
uran
▁adequately
ovirus
▁endpoints
▁usefulness
onas
meter
▁supr
roxyprogesterone
arrhythmic
ipr
eptide
▁monitored
▁Fifty
▁immunocompetent
acterial
▁ulc
aerobic
▁pim
▁vasoconstric
▁palp
▁neurolep
illin
amethoxazole
omann
▁peripheral
▁termination
tel
ontal
amisole
▁protec
▁nonresponders
▁electromy
openia
▁MRI
▁uncontrolled
▁hexa
pressing
▁plaques
erb
▁asthma
reasing
entricular
▁proportions
▁neurotrans
rein
valent
▁multiv
▁carotid
▁electrolytes
insulin
▁coated
▁pathophysiology
▁prophyl
▁osteoporosis
▁heterozygous
▁derangement
▁supplementation
▁Myocardial
▁sensitiz
▁quoti
▁Maximum
▁unres
▁enrol
lowering
▁hepatotoxic
▁hypertension
NH
prising
vedilol
determined
▁ventricular
▁acetyl
▁HS
▁unsuitable
▁alcoholics
ordance
ecu
cepti
fec
▁relapses
▁regression
▁exhibiting
▁dosages
ovarian
opian
▁Comparative
▁ect
▁enamel
sess
lytic
▁inflamed
▁elicits
▁nonspecific
ampl
opsy
aceous
▁irrig
genital
iazide
▁clot
▁prevalence
▁ABR
inflammatory
mend
▁assessing
▁casein
▁Concentrations
▁generalized
▁Sixteen
PPP
alc
▁PGA
lactam
tebral
retin
▁vaccinated
▁LR
lyce
osus
▁eliminating
▁standardization
iuria
▁subgroup
▁lacks
▁Thir
▁kits
▁dentures
▁nontoxic
▁doubled
▁psychosocial
reening
▁paroxys
▁ratios
▁Fifteen
▁triad
▁carbam
▁polymyxin
▁murmur
lyc
plants
▁clom
▁Dip
▁ascorbic
▁nodules
▁compartments
▁efficacy
▁lupus
ytoin
▁retention
▁recruited
▁lacked
▁opioids
▁granul
itoring
▁rhe
icep
▁chlorhexidine
▁peritoneal
gression
▁polyp
▁hyperbil
▁polyethylene
illus
odular
osts
roscopy
cine
▁Raynaud
▁cytologic
▁transi
havi
histamine
▁lutein
▁stres
▁herni
contrast
cysteine
isolated
odic
acting
▁incidence
▁circumference
owel
ylene
▁CI
tural
▁smear
▁vegetable
▁TC
opathological
ventricular
angiotensin
▁pylori
▁enti
▁antidepressants
▁prednisone
▁melanoma
▁comple
hydrox
▁acne
▁defects
▁malignancies
▁gonadotroph
▁grise
ectomies
arrhy
farin
propanol
▁pharmacologic
▁miti
▁direc
usp
▁readings
▁differentiated
▁urea
▁milder
pig
▁heavi
▁tendons
entile
▁precordial
spectively
▁sinusitis
rine
▁psychiatric
▁uteri
vely
ogens
promazine
terol
opathology
▁fric
asic
▁interfer
▁contamin
aturia
▁tuber
▁colonoscopy
▁frac
ungal
▁antithrombotic
▁acids
▁conduc
▁equivocal
tested
▁ure
taz
▁avoidance
yroid
▁thyroid
▁cerebral
▁semen
dihyd
▁ulcer
▁leu
tense
etent
▁ack
▁persistently
▁anesthetic
fractions
▁SPL
stim
▁flexor
edema
availability
▁postprandial
▁bactere
▁discharge
▁vesicles
▁exhaustion
isol
Hb
▁steroids
▁Duc
▁regurg
▁enlarged
imentation
cinolone
alb
▁behavioral
▁preeclampsia
ulsive
inally
ymp
▁glycosyl
terin
mortem
▁psoriatic
▁inhal
▁hospitalization
ophysical
▁Holter
▁presentations
▁smo
▁glycosylated
moderate
▁veins
▁clomiphene
amole
▁medically
irub
sych
▁Coronary
ertion
▁Laser
▁microorganisms
▁insertion
▁choline
▁hemorrh
▁spi
acial
▁dorsal
tically
olus
▁immunobl
▁converting
parative
▁randomization
▁prophylactic
valence
▁challen
▁reversible
▁orthostatic
▁receptive
▁sero
▁ankle
▁traumatic
▁derange
▁discontinued
▁verbal
resis
itrate
▁carcin
plementation
▁obstetr
▁trimester
▁acad
▁abstin
▁resear
▁introduc
▁TCA
valvular
▁analyses
▁tricyclic
▁proteinuria
▁bloc
▁biphasic
▁radiography
▁RAS
▁LV
▁solids
▁arrhythm
▁poisoning
esium
▁singlet
vertebral
▁unstable
▁disclosed
▁discontinu
▁doubling
▁topical
▁clon
urea
uates
▁ciprofloxacin
▁antimicrobial
▁transformations
amicin
▁PEF
▁ligament
onad
operative
▁uric
▁distorted
▁fibros
▁emerg
▁transluminal
▁Risk
▁intolerance
▁triam
ycline
▁antifungal
▁intrav
ected
▁endocrin
▁tac
▁glycos
▁nonp
▁incomplete
race
duce
arynx
ococcus
▁inflammatory
cholesterol
▁unaffected
venty
▁qualit
tial
lip
pregn
▁occlusive
oxyrib
meth
▁penile
▁parental
▁impairs
ithin
icillin
▁prophylaxis
▁definitive
▁confound
brom
▁competent
▁selec
▁leukotri
diabetic
achnoid
tte
▁menopause
▁fati
buride
▁antagon
rachial
apride
▁prenatal
▁Subsequent
ucl
▁menopausal
enil
▁GAD
▁poten
▁LN
olerance
immune
reatine
▁Prospective
essation
Pa
▁bouts
▁granulomas
▁uterine
▁suppression
eak
mega
▁uterus
▁aerob
tally
ofil
athy
▁junction
Hyp
rogenic
▁attemp
retic
odon
▁sequentially
osyl
▁tuberc
▁Subsequently
WB
thromb
ometers
▁presumed
torchid
leu
CHD
▁exten
zyme
naud
▁disseminated
▁TDI
▁blockers
▁scl
▁construc
▁obesity
▁antibiotic
▁hypop
vices
▁Patient
eces
▁impaired
▁eti
▁cortic
▁anomal
▁algor
▁Alzheimer
▁LDL
venous
▁stringent
endi
irone
▁suicidal
▁buspirone
▁anxiolytic
heum
▁rehabil
▁outlet
FSH
▁Ear
▁niacin
apanese
▁coagulation
▁xyl
ociation
▁certainty
inic
ogenic
▁adolescents
plast
▁Myc
atural
▁peaked
▁genotype
▁intercourse
▁probes
▁calcification
▁triceps
▁immunization
▁pituitary
tage
andard
▁ethn
▁omeprazole
▁Increasing
▁capsule
inemia
▁intranasal
▁metformin
▁enlarge
intensity
onset
▁repres
▁infusion
induc
▁nicot
absorption
▁gland
onary
struc
▁hygiene
vular
oderm
ermal
istar
tronic
▁injections
▁deficiency
esin
erver
▁agonists
▁whee
infection
▁hemorrhages
▁depressive
ronchial
oxide
▁propor
▁counseling
quired
▁stool
▁salbutamol
abies
irubin
anad
ethyl
omized
leukin
▁Seventy
▁overt
▁physicians
▁recordings
▁lar
▁regulate
▁analges
▁tended
onvul
▁cen
▁preparations
▁pooled
▁defic
parathyroid
▁reinforcement
queous
▁surgeons
▁Surgery
▁folate
▁hypothetical
▁quantified
▁hydroly
timal
▁Computed
tations
reast
▁lavage
▁DF
▁Tran
▁valu
▁reliably
▁diarrh
▁grouped
IgA
▁aerosolized
▁plasm
▁allergy
▁antibiotics
▁histamine
opathy
▁perinatal
▁aerobic
robial
ulitis
▁deliveries
atible
▁contraception
▁adjustments
tomy
inj
titution
dens
▁latency
ithelial
obenz
ecal
▁hyperactivity
▁contraction
inum
▁expiratory
ectomy
▁Delayed
▁reductions
vivors
▁osm
epines
▁prescribed
glycer
dL
▁reti
tics
▁immunosorbent
ocor
▁covariates
▁nonselective
igaret
▁wors
▁ICU
onin
ranolol
quit
▁protoc
FEV
▁gonad
arbonate
tissue
rogesterone
kelihood
▁vitamin
▁colectomy
▁angiogram
fraction
▁pem
adders
rati
▁nitroglycerin
ovis
▁emboli
olated
▁caro
▁blin
choles
▁Engl
▁aluminum
nai
▁estradiol
▁retin
ections
tizing
uris
osteroids
▁angiotensin
▁isch
thoracic
▁benzodiazepine
▁BCG
ocyte
tured
▁evid
▁gonadotrop
▁bilateral
omatosis
lycer
opres
▁epidemi
vents
tine
▁inhibitor
▁Benz
ctomy
▁COPD
▁mononucle
▁morphine
oag
▁flashes
▁elas
▁combin
ritin
▁secretagog
dition
aind
▁comparative
omycin
▁quanti
▁heparin
▁pate
▁homogeneity
▁improves
▁erythematosus
DH
▁influenz
tigu
▁cytology
acted
responding
▁possi
gment
▁ferritin
▁requi
▁IgM
aginal
rents
ongest
otine
▁colos
arous
▁hypoglycemic
▁cyclosporine
▁deficit
▁expec
▁captopril
▁hepatotoxicity
vaccinated
▁lactation
▁tremor
corrected
▁accessibility
▁longitudinal
uble
▁leukotriene
okine
phosphon
ffer
gth
cious
▁curric
avage
▁amlodipine
stro
▁arrhythmic
▁fluids
onit
icin
▁targeting
▁increments
fat
HB
greater
umbers
▁elevations
▁perone
▁Combined
cortisone
▁hazards
aemic
otting
▁Bec
onazole
▁Evaluation
lep
terone
osol
▁nonc
▁specificities
radi
▁Few
▁infrequently
atectomy
▁activator
▁rhabdomy
uscular
▁cytoch
formations
isole
ipine
▁exag
▁adren
opar
owever
▁Atrial
▁nonin
▁elective
romal
▁myocardial
relaxation
▁relieve
anate
▁abnormally
▁sham
▁enalapril
▁etiologies
▁progressed
▁oximetry
▁CAH
othi
▁inhibitory
▁parathyroid
▁diazepam
▁preven
indings
▁attenu
tropine
▁thirds
▁nadir
▁diagnos
▁socioeconomic
ureus
orbidity
iological
tif
anic
▁Severe
▁intestinal
▁Elevated
neph
▁arose
coun
pain
atical
▁perin
acchar
▁fluconazole
treatment
ocyt
valine
▁SPF
▁cyst
oxine
▁appendic
▁pellets
▁vaccination
▁inherent
▁levodopa
trial
etaz
▁glomerul
▁inguinal
▁abnormalities
nee
oporosis
▁Ib
▁cephal
▁angiography
tropin
▁ingu
▁chl
dia
romy
▁dehyd
▁inver
▁Haem
elves
onucle
▁vulgaris
▁compounds
Ni
ystic
▁proce
▁traum
ipolar
ostomy
tate
urys
temperature
ocardial
▁initiation
antibodies
▁serogroup
opus
pirone
motor
itant
▁pharmac
▁prostaglandin
▁Diabetic
▁cyclospor
▁hypokalemia
▁Candida
itro
▁minimally
▁abnormal
▁lorazepam
oterol
▁symptomatology
▁glucocorticoid
▁uv
▁hemo
▁correlates
▁acqui
ometri
▁radionuclide
▁interc
▁theoretically
▁benz
rance
tero
luded
▁mU
Cs
▁carbohyd
▁autoantibody
▁manipulation
▁supra
▁tertiary
▁inadequ
▁maturity
inoc
vaccination
▁comparisons
adren
ulla
▁monit
estive
▁thyroidectomy
▁palsy
okinetic
▁angio
▁pH
▁implicated
yzed
▁succin
ayers
▁ovarian
▁normotensive
▁vaginal
▁BMI
▁simultaneous
▁deviations
lac
▁subf
umbar
urrent
▁carbohydrates
▁hyperthyroidism
▁diverged
▁enrollment
fate
oprol
▁endarterectomy
▁isoniazid
lora
▁irrigation
▁herpes
▁cortisone
▁supplemented
osage
▁receptor
▁transient
responsive
ulants
▁attenuating
▁reproduc
rotal
unar
▁biopsied
▁splenectomy
hea
▁infrequent
▁splenic
▁deviation
▁elemental
▁hematoma
▁prospectively
tially
▁terfenadine
odine
algia
ocusing
▁produc
▁amn
daily
▁resolving
▁spasm
▁ND
▁cyclooxygenase
astatic
imeth
bumin
▁homocysteine
ocytes
▁adhesive
▁suppor
▁assis
▁ultr
▁clamping
timulus
Gy
parous
▁gly
▁metronidazole
▁investigators
lycemia
retro
EG
exposed
▁recom
troduction
uresis
sions
idone
▁dox
▁Eighty
tolerated
▁persists
▁peri
oprostol
▁confers
▁yearly
sives
orectal
Ca
▁ascorb
cence
amide
renal
▁Twelve
erant
▁surgical
▁Ace
▁infections
▁hydrophilic
▁confounding
▁benzo
elec
odia
orin
ergen
▁tendon
raine
▁positioning
▁pulmonary
▁pretreated
▁arous
uted
tingu
arying
▁nec
trical
▁cyc
loro
gia
otassium
▁intravenous
▁evaluates
▁maneu
ferrin
amn
Ep
▁juvenile
atoid
ticle
▁canc
eric
▁hepatic
▁untreated
▁reproducible
leuk
▁restenosis
▁bathing
▁attrib
olam
ilin
▁diagnose
caro
▁serotonergic
vitamin
amel
feron
cutaneous
▁atrophy
▁elevate
▁creatine
▁transthoracic
Gi
sibility
▁elimination
▁perc
▁pulmon
umetanide
ulence
▁numb
▁affec
pirin
▁ranged
ocytopenia
Ox
▁Doses
ograms
▁judged
▁wheezing
▁bony
▁metoprolol
▁fibrosis
utions
induced
▁condensed
▁screened
ifferen
distal
esti
▁esophagitis
▁bumetanide
umented
▁Gonad
early
ardized
▁distinguishing
kely
stin
▁quantitative
chlor
▁SIDS
horm
▁nonsur
▁chemotherapy
▁superiority
▁Ig
▁anoxic
▁attain
▁lith
cyte
phine
▁clues
oscopic
▁hemorrhage
orrhea
galy
▁Lymph
▁moderately
▁clonidine
▁techniqu
atrial
▁augmenting
▁influenza
trin
▁aden
▁posttreatment
tact
dle
▁hypothesize
▁hypoth
▁compressive
aryl
▁Reduction
tise
▁hepatitis
▁warts
iplin
▁defec
tures
▁stimulants
omn
▁discriminant
▁erosion
▁pectin
ucose
▁cys
▁trimethoprim
▁induce
tral
isal
tic
agic
▁chlor
▁fulmin
▁antimic
coag
▁IB
▁ofloxacin
▁Surve
▁Preliminary
▁DSM
▁irritation
▁precursors
charged
▁postinjection
olesterol
▁electrolyte
▁plantar
▁tonsillar
▁tumors
▁bronch
▁beats
gely
▁discomfort
▁resec
▁perox
▁Mast
▁pigment
▁lumen
▁obese
▁mucosa
▁cephalosporin
ropath
▁conges
yocardial
sant
▁NSAIDs
▁arrhythmia
▁Specifically
▁Combination
▁impair
rowth
ffe
▁glomer
lamydia
▁retard
▁venous
fine
▁amp
▁dermatitis
▁syphilis
stab
otroph
▁criterion
▁allevi
▁unpredictable
idation
▁alopecia
▁progestin
▁actin
▁tox
▁fetus
oidal
▁sodium
▁questionnaires
▁ana
▁horiz
▁euthyroid
oreal
▁seropositive
▁withdrawn
wes
▁immunogenic
ystitis
▁adversely
antial
▁couns
▁neutrop
ticular
▁depres
moking
selec
▁recor
▁hypertro
otropin
▁amin
▁biop
reased
▁colonic
▁hypothal
▁sonography
mur
ditions
▁subgroups
repres
▁unfractionated
aturity
lovir
▁thromboembolic
tisone
▁bolus
jury
▁ampicillin
▁compli
▁granuloma
▁occurrence
▁recipients
opamine
partic
▁pharmacists
injection
▁differing
▁exis
▁congestive
▁sequenced
eration
oyl
▁cystic
fal
▁intrap
▁inconclusive
▁exercising
▁pulses
LH
lier
athyroid
▁predicting
lated
trated
▁clindamycin
▁splen
▁positional
vated
ture
ximal
▁carbonic
▁receptors
▁establ
▁thromboembolism
yx
▁CABG
▁bism
ophilus
▁syndromes
erence
▁vitamins
tions
lys
itudinal
▁exceeded
▁dex
adication
▁thrombotic
▁transferrin
▁nausea
▁pressures
▁Regarding
▁therapeutic
▁intractable
▁dermat
▁decayed
ocated
atients
▁abstinence
▁chorio
atches
▁paradox
▁agon
▁Apgar
▁elic
▁creatinine
hig
▁instrum
▁streptococcal
▁pediatric
▁panc
tation
oppler
▁alternating
▁oxytocin
crip
acerb
▁unresponsive
hydr
pregnant
jac
reactive
▁Factors
▁insom
▁antidepress
imazole
tyl
▁androgen
▁basal
ophila
▁guinea
odal
ilus
▁mucos
▁antagonists
▁dilatation
▁diuretic
otor
ocalization
orsal
▁therapies
onatal
predic
▁thi
arbox
▁HBsAg
▁duct
tracted
▁fractions
▁plasmin
▁pyr
▁compart
erated
accharide
echan
▁poin
▁idiopathic
ococcal
▁dietary
▁residual
▁sheath
atology
▁Thy
entical
▁sexually
▁kidney
▁menstr
▁Chlamydia
ituit
etence
▁psycho
▁exacerb
lact
duced
▁reactive
chloride
▁neurogenic
weekly
acquired
▁spontaneous
▁osteoarthritis
▁outpatients
▁spinal
▁candidiasis
▁pla
▁renovascular
▁Hear
lipid
ifed
adic
▁abor
enin
▁reinfection
▁tolerability
▁caffeine
▁muc
oic
xone
▁mammography
▁Milk
▁triglyceride
upuncture
▁perfusion
▁tracts
▁rehabilitation
hydro
bility
▁anteced
▁uter
▁thrombosis
▁fathers
▁referrals
comitant
▁demonstrable
onc
ophy
vail
▁carp
ritic
uccess
▁percentile
▁MCV
went
▁prolonged
▁islet
▁diabetic
▁INH
teric
actin
aund
oxin
orphine
tin
sectional
▁clamp
▁Neu
▁esophageal
▁serologically
lodipine
athic
phal
ffinities
olec
▁spirometry
▁Comparing
tives
▁necrotizing
▁toxicity
▁stric
▁Lact
▁exacerbations
▁logistic
▁nonex
▁retardation
ignificant
ionate
▁apnea
▁proceeded
▁viral
▁tuberculosis
▁obser
▁ech
▁conflicting
▁allergen
oplasm
romised
▁methyl
▁reas
▁discus
IU
▁hospitalized
▁quantif
erally
▁incontinence
▁dimethyl
iparous
hion
▁Estrogen
▁wards
directed
tional
osclerosis
opharynx
scop
▁tubercle
▁indus
▁neutropenia
▁subjec
hemo
fib
enteritis
ipramine
▁nitrogen
ipro
▁leukocytosis
▁datab
oil
▁hyperglycemia
▁relapse
▁neonatal
▁pyel
eprazole
▁resour
▁encompassing
yroxine
▁concep
▁slowing
▁phosphate
HN
roxy
▁Estim
▁unilateral
▁propranolol
azole
▁postoperative
ecia
▁reflec
anide
▁endoscopically
sus
ispanic
usually
odiaz
erin
orotic
tir
▁prevalences
ailure
▁amniotic
vation
▁dexamethasone
▁rebound
LTS
▁Phen
significant
▁pharmacokinetic
▁classify
▁artery
partate
chers
▁encephalopathy
▁Lyme
onephritis
agin
▁WHO
▁urinary
▁damaging
▁Incidence
Cu
proven
▁superficial
▁TP
▁individualized
▁endometri
phor
▁DVT
▁inh
▁awak
▁prednisolone
▁perforation
ardias
▁illnesses
botic
yrox
uppression
oxif
▁emo
▁asthmatic
timate
▁triazolam
aminase
herence
▁adap
usate
▁pyl
▁reticul
▁parity
▁infusions
▁percentages
▁vancomycin
sible
▁congenital
▁bac
partum
▁OC
▁sulfonyl
tection
▁potassium
tration
▁ulcers
▁balloon
▁specialty
placebo
▁LVH
feeding
▁histological
flamm
phosph
▁Registry
▁subc
itin
▁ECG
▁GER
▁nonsignificant
▁apne
rofen
roin
▁rhin
▁prematurity
▁cholinesterase
▁abscess
▁serologic
ulcer
▁toge
▁identically
ventional
▁concom
onography
biotic
▁surveyed
▁detects
▁radiologic
▁constituted
dor
▁lipophilic
▁pulsed
▁perce
▁hematuria
ectable
▁Neurop
athiop
poor
▁mIU
▁hepatomegaly
olone
welling
onate
▁variability
▁rup
▁amoxicillin
▁qualitative
▁gonorrh
▁preoperative
rometry
▁bup
▁reproductive
phic
▁Fib
oste
edic
▁pea
▁singleton
tice
▁uro
▁adhered
▁developmental
▁elevated
osition
stress
▁renin
ameters
ocardi
▁atopic
▁ultras
▁intram
erent
ducts
▁mep
ibrate
▁contradictory
▁antich
▁underestimated
bacter
opecia
tein
▁imipramine
tus
▁terat
▁intraven
Cy
▁cis
▁adjusting
phil
▁tibial
▁lateral
▁rash
▁warfarin
sian
▁latent
▁ovulation
▁elevating
vascular
▁emesis
▁psychotherapy
▁tetracycline
ameth
esic
▁schedules
eryth
▁specifying
▁PPD
▁detrusor
▁HbA
mmol
▁viruses
rected
▁testis
▁abr
facturing
▁disadvantage
▁hypocal
ardia
▁supplements
▁inhibitors
▁fec
intestinal
▁adverse
hospital
▁rectal
▁inspiratory
▁cros
posable
athered
limb
▁crosso
▁HDL
ilep
urine
▁cardiovascular
effects
▁outflow
ypical
SBP
onide
▁meningitis
▁inser
▁scars
ochemical
piration
▁ELISA
timulation
▁prol
otom
tig
▁relap
exercise
epam
▁MIC
▁stratif
▁paradoxical
▁anhydr
▁indi
▁adi
▁carbamazepine
▁ascer
diagn
▁increas
lobulin
▁ori
loride
▁placebo
lec
▁bioavailability
▁transcription
ophil
▁urticaria
▁persist
triglycerid
▁phosph
atum
▁PLP
▁fungus
teroids
▁immunocomp
▁mec
leural
lies
▁characterizes
▁stimulus
▁alanine
▁unexpectedly
▁inpatients
▁excretory
tussis
tent
ulatory
▁VV
oxid
▁multivariate
roxicam
cyclic
▁indomethacin
thmatic
porting
▁esterase
hyp
▁subclinical
osin
cemia
reases
bladder
ritis
▁commercially
▁cruc
▁neuropsych
oxifen
▁sugges
▁tumor
▁BMD
cycline
adder
▁grains
inergic
▁disturbance
▁pneumonia
▁Gyn
▁glycer
ofib
▁alp
▁tib
▁rhinitis
▁Diagnostic
▁gradi
Ti
▁prolongs
▁Identif
bly
▁protracted
▁quadrup
▁threefold
▁recurrence
▁renders
▁Likewise
▁congestion
anol
▁sensitivities
onomic
▁postnatally
▁mitral
▁Forty
▁deformities
▁dizziness
▁stratified
▁diagnosing
ralfate
