▁reperfusion
▁Retrospective
▁neonatal
▁ultrasonography
▁schizophrenia
▁serum
▁transfusion
▁invasive
▁laboratories
▁questionnaires
▁PET
▁ischemic
▁ventilation
▁inflammatory
▁tumors
▁incidence
▁hazard
transplantation
▁obesity
▁enteral
differentiated
▁psychotic
▁gluten
▁pancreatic
▁bronchiectasis
▁prophylactic
▁ventricular
▁spontaneous
▁gastrointestinal
▁predictive
▁necrosis
▁therapeutic
▁renal
▁metastasis
carcinoma
▁gestation
▁metastases
▁specificity
▁anatomic
▁prolonged
▁antibiotics
▁prognostic
▁cancers
▁artery
▁valve
venous
▁questionnaire
▁ultrasound
▁respondents
▁thyroid
▁physicians
▁pneumonia
▁abnormal
▁biopsy
▁atrophy
▁needles
▁progression
perfusion
▁airway
symptom
▁metformin
▁acupuncture
▁gastric
▁resonance
▁biopsies
▁offspring
▁unchanged
▁scans
▁tumor
▁decelerations
▁metastatic
▁carcinoma
▁relapse
▁severity
▁elevated
▁residual
thyroid
▁concordance
▁arthritis
▁cycloplegic
▁transplantation
▁Patients
▁inflammation
▁placebo
▁cues
▁insertion
▁fetal
▁inhibitors
▁rectal
▁diagnoses
▁vascular
▁angiography
▁hospitalization
▁Median
▁bowel
▁prospective
▁differentiated
▁perfusion
▁pulmonary
▁histology
▁stratified
▁hormone
▁discharge
▁resection
▁infants
▁tumour
▁leukocyte
▁laparotomy
▁preoperative
▁cardiac
▁rupture
▁vaginal
▁lesion
▁tomography
▁expectancy
▁antibiotic
arthritis
▁appendicitis
▁clinics
▁urine
cystectomy
▁retrospective
▁menopausal
▁specimens
▁recurrence
▁contralateral
▁reflux
▁examinations
▁headache
▁radiographs
▁aureus
▁mortality
▁complication
▁expenditures
▁VAS
morbidity
▁mucosa
▁parity
▁deformity
▁myomas
▁abdominal
▁categorized
▁peripheral
▁postoperative
▁onset
▁tibial
▁laparoscopic
▁antigen
▁fracture
▁recurrent
▁gland
▁coronary
▁ovarian
▁cohort
▁multivariate
▁parotid
▁diabetic
▁LOS
menopausal
▁imaging
▁spinal
▁kidney
▁pelvic
▁resistant
▁morbidity
▁contamination
▁palsy
▁pregnancies
▁Statistical
▁bypass
▁impairment
▁intraoperative
▁binge
▁prostate
▁scintigraphy
▁amputation
▁intensive
gastric
▁seizure
▁Patient
▁Medicare
▁fentanyl
▁urinary
▁pressures
▁graft
▁aortic
▁longitudinal
▁deprivation
vascular
▁initiation
▁Treatment
stenosis
▁lymph
▁vitamin
▁infections
▁aneurysm
▁Mosaic
▁cervical
symptomatic
▁admissions
▁paediatric
▁surgical
▁systolic
▁rats
▁insulin
▁tertiary
▁axillary
▁flexion
▁creatine
▁stenosis
▁prevalence
▁pancreas
▁cardiovascular
▁obese
▁arterial
▁toxicity
▁patella
▁saline
▁malignant
▁cTnI
▁infarction
▁cystectomy
▁prosthesis
▁implantation
▁hCG
▁carriers
▁socioeconomic
▁venous
▁tailored
▁acute
▁demographics
▁adjustment
▁atrial
▁staging
creatine
▁clinician
▁mutation
▁ratios
▁residency
▁symptom
▁logistic
▁aspiration
▁anticoagulation
▁radiotherapy
▁fatigue
▁sectional
▁mediated
▁influenza
▁dissection
toxicity
▁pelvis
▁psychiatric
▁fixation
▁bilateral
▁catheter
▁ischemia
▁carotid
▁intravenous
▁mice
▁epinephrine
▁migraine
▁fasting
lateral
▁hypoxia
▁impaired
▁GERD
▁remission
▁GDM
▁Compared
▁secretion
▁Significant
▁maternal
▁decreased
▁cholecystectomy
▁hemorrhage
▁tumours
▁myocardial
▁hypertensive
▁biochemical
▁mmHg
▁fractures
▁Cox
▁pyloric
▁asthma
▁gestational
rectal
▁susceptibility
▁Scale
▁untreated
▁elective
▁hypertension
▁benign
▁demographic
▁percutaneous
▁Doppler
▁uptake
▁lateral
▁chemotherapy
▁receptor
▁regression
▁limb
▁practitioner
▁infusion
▁isolates
▁concentrations
▁Questionnaire
▁mellitus
▁lesions
▁hospitalized
▁glucose
▁vaccination
▁symptomatic
▁caregivers
▁complications
▁arteries
▁thresholds
▁Clinical
▁adenocarcinoma
▁interventions
