achid
▁dehyd
▁suggestive
▁onc
lyc
▁VO
▁IBD
amide
▁glucagon
▁intravenous
▁Plasma
▁scin
▁adenocarcinoma
▁complemented
▁physiologic
▁Doppler
sue
▁glucocorticoid
bumin
▁persisted
▁inhibited
▁intrag
andard
▁comparisons
▁ionic
faction
▁fmol
bacter
ologous
cardi
▁undergone
4)
▁neoplas
104
▁ischemia
▁1.1
▁paren
▁neurons
ilization
16
ellar
▁methionine
ylchol
▁seropositivity
▁TRH
▁posi
▁ions
▁laminin
▁overdose
▁spati
▁67
▁spike
▁Therapeutic
morph
affinity
centr
▁linearly
▁migraine
▁morphology
▁polym
▁sensi
▁fibroblasts
▁focal
▁PMN
▁anomal
▁gels
MIC
▁irradiated
asone
▁macrophage
▁hepat
orotic
▁subunit
iliac
▁antibiotics
▁68
▁deduced
acrylamide
▁indomethacin
▁clones
iciencies
▁atrial
▁anaesthesia
▁excitatory
▁Physicians
uncture
vating
▁gon
▁dendri
▁10(-8)
oactive
▁External
▁8,
▁accumulation
▁(15
▁urine
▁40%
▁HLA
▁fructose
certain
▁cDNA
insulin
▁epidemic
ylcholine
atab
▁18
sors
plate
▁Swed
▁EEG
▁disparity
▁fluores
aptic
▁annulus
went
▁theophylline
▁thrombin
▁(11
tance
▁Emergency
▁aldosterone
▁mutation
▁56
tidine
SCC
▁ach
▁undoubtedly
iotics
-11
Ca
▁hydroxy
▁creatine
▁adhesions
▁Incubation
orectal
▁Immun
▁frog
▁interleukin
▁adi
▁hemorrh
▁mutations
▁kidne
GH
▁3-
▁choline
▁oxidase
astatic
keletal
elvic
lycer
▁NMR
▁95
increased
astolic
▁discrimin
▁lymphocytes
▁motility
▁spectroscopy
thym
▁discon
40
▁virtu
ometr
osom
▁73
▁randomized
seud
.5%
▁keratin
relations
▁phosphatid
▁Exposure
▁deoxy
▁sequencing
▁irreversible
▁correlated
urium
▁30,
▁seizures
▁ery
tively
▁artery
.9
▁debridement
-4
idney
▁cytoplasm
▁clus
▁10
riched
▁injec
undibular
ritis
▁fibre
▁aerobic
ece
▁thrombo
producing
▁amputation
▁SG
▁7-
▁staining
▁injections
virus
rophenyl
▁rigor
▁PVR
▁oligonucleotide
▁cholecystectomy
▁ultrasound
▁trophoblastic
acchar
▁tracheal
gene
▁albumin
▁postin
ritin
▁mediating
▁selec
▁24-
▁SEM
▁subsp
▁succin
▁psychosocial
▁monit
▁cyto
▁irregular
roscopic
▁0.01)
▁membrane
▁antic
▁0.01).
contrast
▁corticosterone
▁MAb
eration
▁graft
▁pharmacological
oride
▁micros
rected
econd
▁propor
▁adherence
▁dismut
▁derivatives
either
▁0.01
ocor
thma
▁10(-5)
▁mono
-30
▁bloc
atment
ocardi
▁surgical
▁disrup
▁acceptor
▁Radi
▁postsynaptic
ulph
tection
echanical
▁lumb
heum
▁pacemak
▁derangement
▁facilitated
/2
44
▁transcript
▁nutritional
otypic
▁Blockade
▁errone
▁ACL
▁transplantation
rein
▁strom
▁perin
cepti
▁cla
▁cessation
▁Bone
ygo
▁longitudinal
ulla
▁angi
▁thre
erum
▁33
▁enti
uron
▁adhesion
▁homologous
▁12-
▁predicts
▁nude
▁leukemic
▁thiol
▁regen
▁pregnancies
▁equivocal
▁0.001
▁decreases
90
▁(0
dies
▁LHRH
Phe
▁phosphorylated
▁stromal
arrhy
▁nonc
xia
▁1000
▁implicated
8.
▁tiss
anking
▁serotonin
▁occl
otoxin
▁87
▁EA
acetate
reness
▁inges
ditions
▁incubated
▁catheter
▁eradication
▁nodules
cyt
▁epileptic
▁acyclovir
▁Nine
▁plasm
▁blot
▁strepto
▁carcinomas
ipit
▁extensively
.3
omycin
▁calmodulin
▁41
▁cues
▁obstruction
▁90
▁medial
floxacin
▁lithotrip
▁rebound
▁EBV
▁herpes
rophob
▁yielded
▁sequelae
▁optic
▁microns
▁12%
keleton
genital
hospital
▁15-
▁RA
▁hemoglobin
olateral
▁favorable
ressive
▁characteris
▁CFU
▁nonspecific
cutaneous
▁tomography
▁fibrosis
▁RV
▁individualized
▁tach
▁31-
▁deficiency
▁PAF
▁basal
eptid
▁oro
▁TP
▁mann
-14
▁macrom
▁laparo
▁MEP
▁37
phenyl
▁HC
oscopic
3%
▁Chemical
▁amines
▁exogenous
▁histone
graft
▁macropha
▁metabol
▁coronal
▁tumors
▁organism
▁terminals
11
▁64
ocortical
▁1-
▁esters
rever
oplastic
▁(54
otox
▁valu
▁69
▁trypsin
tak
▁episodic
resist
anyl
▁clinically
▁PCP
▁mitogenic
▁complications
nucle
▁hypertro
▁RNA
-100
▁89
itus
▁concom
▁oxygenation
60
▁anomalies
urea
vices
▁hydrophobic
▁sickness
▁prostatectomy
▁LT
▁underwent
▁questionnaire
sA
▁mucos
▁IVF
ofluores
▁vegetable
/6
▁consecu
▁neurom
osus
▁antagonists
▁Greater
▁plantar
▁24
▁correlates
▁hepatocellular
tyl
ialysis
lasses
▁94
ectin
▁3.2
thle
irradi
▁(14
-3
▁kappa
aturated
▁verapamil
scher
▁docum
▁disapp
▁sediment
chol
iminary
sible
▁2)
▁Lym
▁regeneration
ministration
▁electrophoresis
▁malign
tioned
▁EF
▁neutroph
▁secretory
▁testicular
▁suppression
▁hemat
ulfonyl
ellum
▁CSF
▁96
▁unclear
24
ecu
olarization
tinu
▁0.03
▁assurance
eak
▁palp
▁concentrations
▁medulla
ococcal
▁4.1
▁conduc
▁EDTA
▁impairment
▁sulfate
▁identically
iotic
race
AIDS
▁thymidine
turally
▁lam
entary
erations
attern
▁sero
ffinities
▁algor
▁obese
54
tetr
Hu
▁duoden
PTH
▁compressed
▁provocation
▁glomerul
▁gangl
▁engraftment
▁coh
ceptive
▁communic
▁infarction
▁splen
▁FV
ophilic
▁gynec
truction
trated
erative
ucle
▁pleural
dent
▁follicular
rosis
▁cystic
▁prophylactic
▁lithotripsy
oreceptor
▁chemotherapy
▁poten
▁ultrason
oplasmic
▁favourable
estim
▁dopamine
riton
▁hemorrhagic
▁deterioration
amn
▁stained
▁4.
▁predominantly
▁glycoproteins
▁multim
▁markedly
▁ANF
▁aort
▁regar
8)
ylic
ogens
▁HPLC
hap
tamine
▁supernatant
tering
terone
Kd
▁indicators
▁geriatric
-19
resistant
ocortic
embrane
▁oxide
▁VP
oresis
▁13-
▁10(
▁cardiomy
▁alleles
▁arachidonic
▁utilization
reased
▁difficul
▁Tumor
ameth
▁immunode
▁Stu
▁CMV
▁utero
▁MRC
▁erg
aginal
continu
▁currents
▁chl
ulae
acetic
▁prolactin
atest
▁Lys
bic
trate
.9%
▁pharmacy
▁ultras
▁gait
irubin
▁steroids
▁atmospheric
kele
inol
▁prostagland
▁pylori
▁apical
▁Kup
illation
▁tert
▁asymme
ervical
▁disper
thanol
ortal
▁sci
▁iod
▁fixation
▁sensory
▁subgroup
onor
▁ppm
trial
▁OC
▁insertion
cine
▁dissection
▁sequential
ochrome
▁concurrently
atase
▁injur
▁biosynthe
▁Americ
▁osmotic
▁smokers
drome
▁intermedi
educed
▁vesicles
▁sham
iferation
▁RIA
▁unde
▁creatinine
yrid
omiting
▁diffuse
cessive
▁AGE
▁nicot
▁analogues
anavalin
▁crude
rowth
kDa
coh
ogenesis
osomal
▁CEA
amet
▁symptom
▁undetectable
▁fibr
▁disruption
39
responding
▁vesic
▁IgG
tetra
▁ile
▁physici
-5-
▁hernia
thrombin
▁islet
posure
10
▁Regarding
invasive
▁cannulae
▁Neurop
▁abdominal
alian
▁bran
tate
gm
▁oxytocin
▁codon
▁NaCl
▁VIP
▁anion
▁inoculated
79
olamine
versus
titution
▁stimulates
▁bronchoscopy
▁replication
▁newborns
▁glycine
▁striated
▁erythrocy
▁preferentially
▁Percutaneous
▁.05)
▁warranted
gely
oneph
crip
tub
▁78
.1
ranolol
FV
▁peroxidase
+/-
▁hemo
▁mimic
▁lumbar
gmental
▁envelop
-2,
▁traum
▁ech
▁2.7
tox
▁hypotension
opa
TK
▁0.000
clin
▁solubilized
38
rehen
lood
othermic
▁mediation
▁cohort
▁transurethral
18
▁phosphodies
▁injected
▁clearance
minis
mittent
▁puber
▁recurrence
▁colonization
▁pec
▁(0.5
▁arteries
▁10,
▁milieu
treated
atid
oru
lix
▁modif
▁Ear
implantation
▁palpation
▁61
▁tyrosine
ylline
▁hormone
ucleation
▁adop
▁consol
▁molecules
▁Strep
▁Plas
▁10(-7)
▁tumor
▁sph
▁insertions
▁viruses
▁repetitive
▁prospectively
▁ana
guided
TG
▁6
arbox
alanine
▁66
opi
▁thyroid
▁centr
bodies
▁hydrolysis
▁unresectable
▁ambient
eroxide
▁arter
▁AMP
ocaine
▁chond
ergency
▁zinc
blast
odic
tron
▁acyl
-17
phal
▁plas
▁elastic
▁enrolled
venth
▁vulnerability
Cs
▁saline
▁heparinized
▁trigg
idazole
▁RI
▁Conversely
▁slices
▁endarte
filtration
▁dimethyl
receptor
entral
▁7,
▁(20
▁cytotoxicity
phyloc
▁NGF
▁cadaver
rine
▁produc
▁metastasis
rectomy
▁hospitalized
siology
▁Patient
▁severity
tif
▁psychotropic
▁depressive
urine
idis
ocar
▁chloroquine
▁galact
▁assessed
▁8
hern
▁uro
severe
▁Inte
▁resol
▁consequently
▁pathologically
▁endothelium
onol
uvate
clerotic
▁amo
▁proliferative
tric
▁conges
▁augmented
▁epinephrine
▁nasal
patients
▁transpor
tig
▁collagen
trast
▁parental
tries
saccharide
▁hydrox
▁(95%
▁glands
▁exercised
coup
▁Muc
icep
▁chan
ositive
▁gradi
tebral
▁monolayers
-0
▁(0.1
clerosis
▁homogenates
▁rotated
▁adaptive
▁oligo
▁HCMV
lax
Dawley
▁intracranial
▁preparations
otoxic
▁fetal
enzyme
▁0.05).
ortic
▁substantially
MH
▁epidermis
▁aneurys
omal
▁esophagitis
▁carbox
▁microc
▁TB
imide
▁moderately
athione
▁Alcohol
▁cardiac
sych
essential
atial
omial
▁0.5
ducts
▁anesthetized
hyde
55
▁deem
▁therapies
▁rectal
kine
▁carboxy
▁tissues
▁colonic
▁IgA
▁Adverse
1%)
▁immunore
▁saturated
▁deple
▁donor
▁immature
▁tec
tures
ylate
▁fron
▁mitochondria
▁chori
▁CGRP
essel
▁depletion
▁asymptomatic
▁BALB
iatic
lead
approximately
▁epithelium
▁predictors
▁saturation
roin
▁genotype
▁modulation
▁antibiotic
▁HI
iasis
▁93
▁ACE
ochondr
Tyr
amethasone
▁muta
▁thickening
▁cavity
▁ADP
▁PCR
chrom
▁VL
▁oste
stim
▁15%
▁Acute
sulf
▁outward
▁21
▁5%
ADP
▁antigen
till
▁antigens
▁surfactant
▁3
IgM
▁axons
▁unres
▁acetyl
7)
▁scinti
siveness
▁fractions
▁dissec
▁Serum
▁predictor
agit
▁mammography
rotein
▁tymp
selec
▁cholest
ogenetic
sus
▁somatostatin
▁interacted
▁contrac
▁pedig
immunization
ifol
gents
▁bac
onucle
▁34
▁cytos
earance
▁homogen
discharge
▁supplementation
aline
▁determinant
agic
▁morphological
▁upstream
▁intensive
lier
otyp
▁amph
4,
▁interrup
ACS
carinic
▁Estrogen
▁pneumon
▁degen
▁inhal
▁Subjec
kground
▁Experim
48
▁45
▁pigmented
▁islets
▁vesicle
▁commerc
▁coexistence
valent
▁adjunct
▁syngeneic
▁mandibular
piratory
▁norepinephrine
monstr
▁synchronous
vae
IDDM
▁biop
▁extre
▁flexion
etal
▁Escherichia
49
cious
▁muscarinic
IH
▁MG
esting
▁rigidity
lobin
itoneal
▁silicone
▁melatonin
▁reductions
estis
▁influx
veolar
▁judged
tagland
▁cohorts
▁conservatively
▁mening
etan
▁adducts
entan
isol
▁pediatric
▁neurological
▁deformity
▁evid
▁spectroscop
▁catecholamine
▁amino
hemo
ociated
▁limb
▁lyso
olysis
micro
ergen
oag
onuclear
▁alterations
▁Significant
▁SLE
▁luminal
▁reagents
▁(12
▁46
osynthe
▁hepatic
lectomy
olipid
▁analysed
28
5%)
▁natriuretic
▁70%
IgG
▁isoforms
cyclic
▁defective
diagn
▁uncontrolled
▁hypothalamus
Leu
▁determinants
▁strand
iol
▁ranged
▁conduction
▁glycogen
▁basolateral
▁glutamine
▁reproduction
56
▁supple
▁intrauterine
phen
▁heroin
▁inducing
phot
▁79
▁PB
OH
▁inser
ilateral
tis
erox
▁inositol
▁Accordingly
▁removes
▁rehabilitation
▁urinary
iatum
▁aqueous
▁behavioral
kines
protein
▁196
▁precursors
▁Tran
onset
olone
▁vancomycin
▁triti
lyce
itin
▁proteolysis
▁subpop
▁polypeptides
infected
ionine
▁defec
▁0.02
ecal
▁adequ
75
CDD
duce
▁radicals
▁bronchial
cephal
entanyl
lysis
rane
▁Intra
inephrine
▁immunoprecipit
▁Rats
▁rabbits
ubation
▁extrac
▁hypoxic
rectal
▁Treatments
▁quantif
▁trophob
anine
▁genomic
▁referrals
▁ischemic
▁respec
▁corpus
ilic
tructive
▁1987
▁blockers
▁vaginal
▁embryonic
▁pulses
▁(4
ospor
stimulating
▁sulph
▁tetr
-18
gluc
essation
aceous
▁pulmonary
▁transcription
▁adjuvant
▁infants
respective
▁inhalation
▁jejun
▁divalent
▁limbs
▁coronary
▁0.8
▁excreted
▁amiloride
▁dyst
immun
ancre
▁omega
▁degeneration
13
▁comprised
-1),
▁demonstrating
partate
▁perip
▁prono
▁ethanol
omethacin
▁modestly
▁postnatal
▁preferable
▁qualit
ventricular
▁thresholds
▁establ
5),
oscop
▁vacu
▁hyperp
cysteine
▁invasive
▁examinations
phragm
threatening
occus
▁dele
ovascular
▁donors
▁acupuncture
▁cocaine
▁reper
▁0.3
▁differed
regn
▁uncom
▁maternal
enhanced
▁physiology
FG
reported
▁bedside
▁pelvic
romed
▁immunos
assay
ologic
risk
ineph
-1)
▁sequenced
-2)
▁MH
uppres
oracic
▁induc
▁arti
▁measurable
▁contrib
apeutic
▁strains
▁IB
▁demographic
monella
estions
▁liposomes
▁15
▁socioeconomic
▁adolescents
▁heavi
▁symptomatic
▁microscope
▁acqui
igel
lux
entical
-80
▁conductance
▁dodecyl
ectomy
▁responsive
▁Preoperative
▁variants
▁beha
▁perce
-16
▁elucidate
ocyan
asic
▁45%
▁sequentially
▁immig
▁monol
▁tryptophan
geal
tially
mobil
▁acetate
▁dihydro
▁cytometry
▁transplant
▁fung
▁biochemical
oung
▁autologous
▁stroma
▁intravenously
▁membranes
▁synthase
▁controver
+,
▁births
▁subc
▁Previous
▁fibrob
rologic
loon
olipoprotein
1)
▁COS
(5
orrhagic
▁diaz
idine
▁gluc
▁oxy
▁ceased
▁glu
pecially
▁cephal
▁canc
▁10(-6)
ulant
kephal
▁androgen
▁SHR
HF
▁abnormality
▁radiograph
▁foc
LF
▁epidermal
methyl
▁elast
agin
▁fluorescence
▁19
▁resec
▁predictive
▁300
▁recor
▁nonadherent
EG
▁similarity
▁4.5
▁pineal
▁dentists
▁forskolin
▁obesity
▁aggregates
pir
▁initiating
unctions
ventional
▁microbiological
brain
▁satis
anic
antigen
▁tubule
ondr
-6
▁reag
derly
▁sple
▁underlie
▁localization
▁carcin
1).
athy
▁induction
▁TC
▁endoscop
▁cerebellar
▁1.5
▁tumour
activation
▁surgeon
▁spermatozo
ogenous
▁72
orrh
ffec
▁3'
▁81
▁workload
carb
▁ELISA
▁Biochemical
▁demonstrates
onit
▁stillbirth
pecific
▁transferrin
▁monophosphate
▁electroly
▁localized
▁empir
obarbital
▁instrum
▁alk
▁microM
▁presynaptic
▁subtypes
▁diluted
▁85
▁skeletal
▁BV
ints
▁ANP
▁LS
mediately
▁prazosin
▁exposures
▁hepatocytes
▁expiratory
▁WHO
▁myocytes
8).
▁bilateral
▁effector
directed
▁caregi
▁180
▁plaque
▁Clinical
erent
▁employing
▁Purkinje
▁usefulness
aneously
▁parathyroid
.3%
▁12
▁expressing
▁[125
embr
▁platelet
▁lamina
▁statistically
iosis
▁underst
▁catheters
▁gyn
fib
ococcus
gland
atoid
▁ow
hion
▁modulates
▁59
▁UL
▁Inhibition
yste
▁allergic
▁embryo
tened
▁cancellous
▁blocker
▁VS
▁(3
inic
▁periodontal
▁IFN
▁5.5
▁mediates
▁pituitary
▁phosphatidyl
3).
▁LVH
▁unevent
▁derange
▁cytochrome
5)
-5
ocin
▁inhibitors
sia
▁1)
▁Cushing
▁metastatic
obarb
omyel
▁Chan
opsy
▁(+/-
otor
entricular
ipolar
ertion
▁pla
▁lymphomas
▁baro
▁98
tious
▁BP
▁gastro
▁inward
titu
subs
otom
▁quantitatively
openia
7%
▁differentially
onography
▁Dopamine
▁polymorphism
urate
1%
▁immunosuppres
omat
▁pene
flamm
ergic
licular
▁selective
▁tertiary
▁simult
▁Contr
▁0.00
▁compli
7).
leb
hepatic
chicine
▁(13
▁pH
▁spon
tence
▁lysine
otomies
rotic
▁phi
aldehyde
▁Cardi
▁51
▁bile
▁recessive
▁venous
alc
tryptamine
iplin
▁intestinal
▁HPV
▁deliveries
oten
▁quantified
▁prolonged
▁calcified
ameter
▁unstable
▁HN
▁improves
ffinity
ipramine
▁resusc
▁streptococcal
▁overd
ogeneic
▁SCH
▁vein
chloride
▁pati
▁cirrhosis
tradiol
APC
▁uptake
▁OSA
▁enhances
▁superficial
▁cytokines
urin
▁capsule
▁allogeneic
▁deform
▁52
▁endot
otides
▁pertussis
mL
▁gastric
silon
▁degradation
NK
0,
▁filtration
▁Thromb
▁yr
▁carcinoma
tured
osts
)2
▁estimating
ymme
▁hemorrhage
oplasty
chymal
▁UTI
▁rotational
▁CK
tected
urrence
▁Differen
▁LN
2/
tum
tents
▁rabbit
▁reacted
cells
tility
▁impair
▁extraction
▁electr
▁unilateral
▁esophag
idated
▁undertaken
▁withdrawn
▁carriers
▁FEV
▁stimul
▁addi
▁Sprague
▁glut
adrenoceptors
▁49
0%
phth
▁necrosis
▁cyclase
heximide
▁histologic
▁histopathology
opia
▁nucleotides
oprotein
ediatric
▁prescribing
TB
chemical
▁lactate
adder
stro
angi
▁tidal
▁(0.0
▁PEEP
estig
▁ACh
▁Treatment
▁anesthe
▁neurones
▁subsets
▁hypothalamic
angl
▁bovine
▁glucose
cad
amines
▁elong
▁reproducible
▁inapp
▁conclu
itone
crib
▁immunodef
▁tas
▁cortic
▁Surgery
urse
acted
Tc
▁laparoscopic
functional
ectomized
osocial
▁operative
saturated
▁arterial
AO
▁strep
▁transloc
▁immunity
▁7.5
arean
▁differentiation
umbar
▁diges
▁medullary
▁implantable
ropha
itoneum
▁afferents
itonin
trous
▁transi
▁elevation
▁amp
tration
▁spontaneously
▁onset
tions
▁accep
▁sut
▁acin
▁detecting
▁60%
▁clinician
ucine
▁loci
▁theore
▁simultaneous
▁CAM
rocy
▁reticul
▁estradiol
(2+)-
▁MBC
ffer
rological
▁proteinase
▁acetab
▁acidosis
responsive
▁Respon
coated
cellulose
+)-
▁precur
isomer
▁2.5
orax
▁intragastric
▁necro
▁kinetic
▁binds
▁modulated
▁Insulin
▁throm
enin
idation
▁dysfunction
▁wk
PSP
▁intake
urally
jun
▁responsiveness
acrine
▁granules
▁tubercul
▁tol
▁discharge
▁cAMP
▁60
▁differen
▁hypertrophied
▁transcripts
cence
▁shor
myc
mTc
▁regimen
▁angioplasty
▁indications
anding
▁regulating
'-
atonin
▁metabolites
▁minerals
▁eliciting
orac
▁(6
toxin
▁regis
▁hygiene
ithms
▁0.01),
▁attenuated
▁2.4
scop
▁activating
▁apop
▁inflammatory
▁phosphor
plas
▁tended
▁accumulated
asal
▁exhibited
▁lipase
oxin
diabe
gans
▁angiography
▁synaptic
▁glomer
▁neuronal
▁glycos
▁lymphadenectomy
▁sepsis
▁synovial
▁glutathione
▁DF
▁deletion
4.
othane
▁bowel
▁mM
gesia
▁distinctly
namic
atif
olip
▁preterm
olgi
ipid
acetyl
restric
▁NADH
ygdal
▁stellate
▁discus
▁testosterone
operoxidase
▁.00
tial
idne
▁chromosome
▁allogra
▁idiopathic
▁tRNA
6.
▁36
clamp
▁dox
graftment
▁blin
onine
▁endoscopic
aventricular
relevant
atell
▁termination
-24
stab
▁BW
pig
ineal
tivities
▁acces
ensities
▁ester
methionine
▁surrog
regulated
osine
Ta
trover
optic
cture
▁overestimated
▁embry
▁irradi
▁Fc
▁progest
▁antigenic
▁sev
▁Comparisons
thymidine
▁ald
.8
▁anae
▁8%
▁202
▁spind
-2-
▁benign
▁umb
▁molec
GV
▁insufficient
35
▁Systolic
▁chec
▁olfactory
ociation
▁selectivity
▁alp
icin
imens
▁(17
tion
produc
▁Protein
▁pancreatic
ivariate
2+]
▁shunt
acet
tophan
▁ganglia
▁retention
Hb
▁carotid
idin
fat
Hg
▁connec
FU
▁endoplasmic
tur
▁amylase
▁awa
▁bp
▁glial
facial
▁TA
▁transient
▁rhy
ozo
eptides
▁alanine
▁pressor
▁impaired
▁32%
▁scintigraphy
▁(18
▁synapt
▁mL
▁biosynthesis
acial
vac
▁thal
▁fentanyl
▁undo
▁80%
▁differs
▁PV
▁autosomal
odialysis
450
▁Fifty
▁kidneys
▁tonsil
deficient
▁autoanti
▁bene
ivoc
▁preservation
tional
▁locus
dition
▁eosinophilic
▁isot
imin
▁lymphoma
onyl
▁distal
▁proteoglycan
tive
▁immunobl
ifedipine
▁gp
▁peripheral
▁subjected
14
▁uter
orubicin
molec
▁Chronic
ognition
tives
-8)
▁mitotic
vul
▁appendicitis
▁3.
78
tice
▁0.001)
treatment
▁masked
▁microvascular
tages
IFN
trical
▁ventilation
glutination
phosphor
▁superoxide
▁LC
▁melanoma
▁morphine
▁MCP
▁eluted
isture
eal
▁chromatography
▁infections
benz
lec
▁apex
▁Vac
4),
▁aeruginosa
yrox
HIV
acerb
▁numb
labeled
▁cellular
▁glucocortic
▁extracts
uria
▁inh
▁implants
▁depic
▁ferritin
▁intram
arcin
▁manu
urons
▁PSA
▁substrates
opulmonary
oclonal
7,
▁ultrasonography
▁exo
▁ovari
▁adenosine
▁thorac
▁proteoglyc
▁counteract
acental
retro
alp
▁placent
osyl
sensitive
▁predominant
omatous
▁placental
▁neonates
▁lis
sion
NB
▁sodium
▁fibroblast
▁Vitamin
▁bypass
▁deviation
▁particulate
▁diaphragm
▁mug
▁aden
assi
▁luteal
▁viral
▁NAD
containing
.7%
IU
▁neutrophilic
▁4%
minal
▁affinity
tural
atural
▁agar
LB
▁encoun
▁14,
istrib
▁leukemia
piration
rents
▁thromb
ograms
aminop
urys
▁cyclic
▁(16
clim
▁chewing
erop
rease
▁manifestation
trac
electro
▁clamp
▁DP
tific
obl
BW
▁phage
▁paradigm
itre
ocardial
iary
▁Pregnancy
▁42
▁ouabain
▁resemb
▁cation
▁ventricular
▁myoepithelial
▁filaments
keto
▁suppor
▁coex
▁biphasic
ostasis
▁undergo
ilep
▁Phy
lys
KA
▁granulocyte
▁TT
orepinephrine
▁10%
▁reproductive
30
rometry
arer
▁hypoglycaemia
RH
▁optimum
▁70
▁.0
▁microsomal
▁adhesive
▁duodenal
taining
▁6)
▁monolayer
accharide
▁HDL
ophils
reatine
▁functionally
▁metabolism
▁pathways
MN
opamine
▁prevalent
▁transcrip
ylated
aminergic
▁scans
▁proce
▁inactiv
▁catalytic
▁multicenter
▁secreted
-2.
▁phosph
▁HU
▁Kd
olol
▁retic
▁vascular
▁divertic
▁fas
▁Thir
▁[3
▁fulf
jected
▁decreas
▁spi
timulation
▁dib
uptake
▁viability
▁projec
▁nucleotide
athe
▁immunofluores
▁myocardial
▁mammary
▁3.3
▁hematopoietic
▁Bec
▁coeliac
▁conserved
▁hydrogen
▁adrenergic
▁199
▁positively
▁polyp
▁suppressor
opulation
hydroxylase
▁Dil
▁yiel
onuclease
ogenicity
odynam
▁circulating
▁disappearance
▁mmol
hips
▁fatality
oic
polyacrylamide
atible
▁abd
▁repres
odal
associated
36
▁anastomotic
▁satur
▁familial
▁asthma
0.5
▁menopausal
▁splic
▁carcinogens
▁(30
.2
▁deprivation
▁inhibition
▁antagonist
/3
26
opoietic
▁Considering
▁Whereas
▁granul
▁autopsy
omerular
ietic
onatal
ipitation
▁dosing
▁hemodynamics
▁(10
▁pathological
2),
▁peptides
▁disparate
▁hetero
▁moiety
▁enhancing
Tn
▁reflecting
▁lipids
▁lar
▁(10(
▁soybean
▁1,25
▁GnRH
▁adequately
▁unexpl
natal
onc
9)
iological
▁CTL
▁80-
▁deterior
▁trig
omies
▁quanti
immuno
▁neurotrans
▁anat
▁perfor
▁21-
▁symp
▁adjustments
▁potentiation
urgical
▁LD
▁oes
▁IgM
▁TSH
▁complexes
tic
erine
▁exten
azole
▁Multiple
idym
▁concurrent
▁differentiated
uscular
▁anatomical
▁cathe
▁ubiqu
▁cyt
▁connective
▁cholestasis
atheter
▁arginine
▁sial
▁RNAs
▁DST
▁specialty
▁aggregation
▁reduc
▁77
▁Tc
▁nitrogen
oprote
▁evaluations
ynthe
adm
8+
illin
loid
▁defects
▁Rout
tingu
▁Removal
▁restric
birth
▁scre
DG
▁cultured
▁EGF
nitro
icardi
▁granular
▁synthesized
umably
CRP
odg
▁adenocarcin
▁warr
antial
▁linkage
▁chloro
▁cytoch
▁potency
mitter
76
▁polyclonal
hydrox
diastolic
Fs
▁homogene
▁colonies
erper
▁phospho
otomy
▁surrogate
▁unaffected
▁Evidence
▁isometric
▁excision
▁stenosis
▁porcine
▁resis
okine
▁10-
▁glycoprotein
▁intercostal
▁pHi
▁diastolic
▁Inclusion
anish
▁unlabeled
▁Compared
▁chamb
▁dilatation
▁filament
▁coated
▁grading
dominal
ffin
▁acceleration
▁labelling
qui
igaret
▁91
▁messen
8,
▁contralateral
▁eryth
rins
▁conceptual
▁enzymes
▁noradrenaline
▁mediators
▁tryp
rene
eliac
▁OT
lycemic
▁sedation
▁scl
▁techniqu
▁coli
nthe
wes
▁syndromes
▁lipid
▁TNF
▁instability
▁contractility
ocl
▁brady
▁expon
aminase
▁preoperative
▁colloid
▁prostaglandin
▁testis
anav
▁newborn
▁perc
▁traumatic
idase
▁mmHg
ariate
iotensin
▁anatomy
▁termed
▁Neu
▁HL
▁tet
▁serine
▁elimin
▁MM
▁minimally
ophys
▁mice
MDA
chers
▁metoclopramide
hig
ollicular
▁shorten
otrexate
trip
▁corne
▁parasite
▁phenylephrine
▁lax
▁clarify
▁confined
▁chronically
lesion
▁monocytes
▁wee
loxacin
opro
otropic
▁insuff
imination
▁discusses
▁benz
▁femur
▁outpatient
▁indi
ustif
▁protoc
▁pathologists
actin
9,
▁residue
▁bip
▁irradiation
operative
▁83
▁platelets
▁trough
▁53
▁smo
▁markers
-7
ulose
▁bacterial
ifferenti
▁repro
▁advancement
▁SNP
▁evidenced
▁1.2
▁oligonucle
ronchial
acylglycerol
▁identifies
▁unrel
▁compe
▁sedimentation
▁tracers
▁residues
greater
legia
phosphonate
▁rCBF
osin
.7
▁leukocytes
%).
▁facilit
adication
▁previ
50
▁MHC
ococci
▁cytokine
▁distrib
esthe
▁39
▁oxidation
▁97
▁adenomas
acyl
▁eluc
▁plasminogen
tization
ducing
▁exer
oconstric
dimethyl
▁substitution
Gi
▁gad
▁regulated
▁(4)
regulation
ibi
▁ineffective
▁aorta
FH
vents
▁cereb
▁triglycerides
▁overweight
0%,
▁subunits
▁colorectal
▁VLDL
▁multic
▁parag
▁synthe
MRI
inesterase
ginine
gative
adian
▁2.6
▁hyperplasia
▁noncom
-9,
HN
▁coval
▁radiotherapy
rested
4).
ressing
▁embryos
ophil
▁soluble
▁consolidation
▁chlor
▁7
roximately
ths
▁mumol
▁organs
▁prognosis
vaginal
2-
iably
▁histidine
▁detachment
▁stimulate
▁multifactorial
rals
▁veins
▁microm
illar
▁tran
▁saliv
▁ketamine
▁0.6
▁metastases
nee
▁astro
▁osteoporosis
meth
herence
olones
▁immobilized
▁ultr
▁Operative
▁eosin
▁emphasizes
▁exchan
▁membran
▁hemisp
▁variability
▁accounted
▁3'-
▁preventive
▁intrac
▁axonal
▁Failure
▁contributes
leukin
▁PMA
▁infused
▁amplification
▁phospholip
5%
bral
▁schiz
▁arachid
▁Phen
▁Mucosal
fts
oskeletal
▁Atropine
▁vasopressin
exis
rague
▁overlapping
▁cycloheximide
▁immunological
fine
thmic
▁MRI
▁MAP
21
▁100%
▁athe
▁illustrate
▁stimulation
▁neurolog
renol
feren
ulitis
rele
ubicin
tiveness
80
ylation
▁lact
▁clon
▁reac
▁fluctu
toxic
▁myelin
▁Triton
▁cows
▁ESR
▁immunomod
▁epidemi
alact
▁acetylcholine
▁olig
▁hydroxyl
▁ventil
▁polyacrylamide
▁thrombolysis
▁depr
ometrial
▁drainage
▁isolates
ygous
▁colonoscopy
▁hep
▁6.5
▁Km
ogenic
▁heme
▁hemodialysis
▁follic
▁streptococci
otone
▁manifestations
▁inactive
▁microscopy
▁TG
aminob
esti
▁RB
vascular
▁lobectomy
opolysaccharide
▁carbohyd
▁hamster
▁retrospective
▁coexist
▁dialysis
▁DH
▁400
▁outflow
lob
▁plexus
▁interv
traction
▁4.2
duction
▁splenic
1/
▁35
▁0.9
▁distinguishing
-2
▁0.06
▁circumferen
▁LF
▁RBC
vely
▁-0.5
coun
27
vival
ophore
▁hCG
2%
▁Hz
▁oocytes
▁Cells
ignant
▁prostate
yroid
▁exis
▁toge
▁immunoreactive
▁stimulated
▁confir
▁probes
▁electrodes
▁supra
▁collateral
▁Vmax
▁seroton
▁Golgi
subunit
▁paired
consuming
▁(5-
▁libr
▁enhancer
▁cirrhotic
▁underg
trition
67
cele
▁diarrhea
ranial
phyl
▁assayed
▁1.6%
▁vasomotor
cholesterol
atient
▁carc
jective
▁gly
identical
▁prel
▁1.
▁laboratories
ifferentiated
▁3.1
▁hypertensive
▁anticoagulation
▁objec
▁contraction
epine
eptin
toph
uginosa
tant
▁27
adequ
▁deficits
▁supplemented
oretic
▁85%
▁mononuclear
ocyte
▁phagocy
▁virul
▁kerat
electric
45
iversity
▁(24
▁140
▁reagent
/1
▁additive
▁surfact
phil
ept
▁heparin
▁uncomplicated
▁neutrophils
▁apparatus
▁weakly
▁inherent
omod
▁BAL
▁chemo
amus
▁predic
▁striatal
▁ascer
▁+/-
rotid
▁GSH
adily
oA
▁structurally
tension
▁mediate
29
500
▁nuclei
▁anemia
titial
trating
▁identi
▁infec
▁OA
(+)-
edle
tention
uminal
▁stimulatory
▁incom
fal
.6%
EGF
▁pneumonia
ypical
▁recombination
▁causative
▁radioactivity
▁developmental
ithiasis
osidase
▁subcellular
▁atrophy
hemia
aryn
eric
▁2.8
glutinin
▁retrograde
▁progn
▁Bac
endorphin
▁enl
▁([
wenty
linking
ofl
▁autoradiography
▁cyclospor
ardia
▁excimer
▁inappropriate
echn
▁hypertension
▁reser
▁ACTH
▁eyel
▁cardiovascular
▁BMI
ervative
▁inten
3),
orphic
▁APC
▁strips
uting
▁tau
▁NADPH
▁-1
▁coagulation
orec
ohyd
mend
▁NK
▁phosphatase
▁differentiate
▁xen
▁inflammation
▁arteri
-12
sibly
▁congenital
▁lysis
onin
▁30
▁systemic
ergy
▁38
▁subtype
razosin
▁attrib
ositol
▁reliably
▁neoplasms
▁maturation
▁diagnos
▁ATP
rangement
labelled
▁implant
▁specificity
▁validated
▁ae
▁precedes
▁macrophages
owel
▁resorption
▁inserts
luc
▁2-
▁0,
sies
▁illustrates
tabl
▁depleted
ichia
ethyl
pinephrine
agal
▁cloned
osides
▁opioid
9-
▁CG
▁Severe
▁cervix
▁alcoh
ipient
▁melan
▁intrav
▁neph
▁0.
▁gout
ophag
▁sucrose
trum
▁deposits
▁titers
siologic
▁ventricle
▁inhibitor
▁cava
utin
▁adrenaline
arrhythmic
▁surgically
▁mutants
▁hepatoma
-8
▁GI
▁plex
▁leukocyte
▁toxin
vian
farct
▁unexplained
eclampsia
physiologic
▁0.7
osome
olecular
▁dosage
▁parie
▁proportions
▁fetuses
teroids
▁solub
▁calor
ronectin
▁immuno
▁circumference
omedullary
▁noc
loride
ternational
▁aortic
▁catecholamines
▁50
▁5'-
9%
▁1.6
.0
▁atherosclerosis
intestinal
years
rozen
▁quantitative
bular
▁metabolite
tel
▁kb
▁cysteine
adenosine
TPA
▁Paget
▁initiation
mentation
▁reflec
adherent
▁detrimental
▁perceptions
renaline
avage
▁detec
▁collec
▁regulate
▁enucleation
▁endometr
ensory
motic
▁disadvantages
▁ulc
▁vaccination
economic
▁fetus
▁reperfusion
oradi
▁secretion
▁9
▁analogue
uble
ults
itance
opathy
▁DG
▁ascorb
▁catab
▁leakage
▁quin
▁CRF
▁physi
apamil
▁immun
sistent
▁uterus
▁aspartate
▁feasible
▁vitamins
▁atres
aterally
▁correcting
ycin
▁diagnose
▁isoform
tituted
125
▁sti
▁micrograms
▁airway
▁seb
ullary
▁implanted
platin
▁toxicity
▁visually
▁sedentary
▁adolescent
▁overlying
vity
▁microv
▁compartment
▁dietary
8-
▁diame
▁substances
▁relap
▁antibodies
▁elevated
-3,
▁Pregn
▁apo
ubted
edded
▁nmol
▁hapl
▁cirrh
lycerol
▁hemodynamic
6)
▁chemically
kinje
▁dextran
▁iso
▁gland
ionic
▁CsA
▁Ras
▁readings
hers
ucose
▁circumferential
icardial
gesterone
jec
ivary
▁cutaneous
▁capillary
phosphamide
▁potenti
▁thi
▁gradual
▁ultim
▁atresia
▁substanti
▁pathway
▁110
▁drin
▁neurologic
▁acco
mature
▁autop
▁coincidence
▁beats
▁conformational
▁cancers
▁crystall
trative
▁Biochem
▁immunoprec
▁remission
semin
▁myo
▁pyramidal
▁homogeneous
abies
etitive
achol
prising
▁Continu
▁exacerbations
sively
mented
ographs
lusion
▁92
▁adduc
▁ALT
0.
epam
▁potent
activated
fron
aminidase
▁deletions
urethral
▁ewes
▁purification
▁14
occi
▁degrad
▁retur
▁hippocampal
▁intermediates
tro
ensitivity
▁monkeys
▁phagocytosis
▁prospective
aturation
▁haem
▁needles
0,000
▁evoked
hydr
▁labelled
othel
▁dissociation
orative
lowering
▁reactive
▁mixtures
▁antagonized
▁malignant
oxid
▁heterogeneity
▁emerg
▁combin
ovirus
▁resuscitation
cold
romes
34
olism
icine
▁sperm
▁underestimated
oea
▁disulfide
▁HTLV
bred
▁centrifugation
enia
ubiqu
lapping
ethylene
oagulation
▁fluoride
ositi
ymptomatic
▁depolar
▁NADP
-3-
▁recordings
valence
▁requi
orbol
▁VC
BV
mixed
▁hypertrophy
terase
▁clonidine
deple
▁cleavage
pine
oreactive
adrenergic
yel
▁evol
▁negatively
tability
mur
perfusion
▁monomer
clic
▁GV
▁shortening
terologous
▁sclerosis
▁intrarenal
ileptic
▁alveolar
wk
planted
▁neutrophil
pendent
▁birthweight
▁DN
immune
4%
sities
vic
▁FD
amino
Ia
nine
▁PET
▁discontinued
▁dye
▁HCO
RNA
ospitals
▁calves
encl
▁complication
▁oxidized
quit
▁2.3
istal
▁(40
▁reflux
bacco
▁PKC
▁0.05),
uterine
▁elec
▁hypo
usate
▁cerebrovascular
▁prednis
▁refrac
duced
▁CABG
▁NF
robic
20
▁iatrogenic
plasia
▁appropriately
▁terminus
▁deformities
70
12.
▁supernat
▁conformation
▁120
tran
▁leuc
▁cen
▁alve
▁10.
glutin
dimer
oprec
▁3,
▁12,
ected
▁(197
▁2.2
▁correlations
esia
ayed
▁cruc
▁interpre
moid
▁morphologic
xone
urgery
▁antiserum
galact
-15
▁definite
tach
oglobulin
▁juvenile
resses
▁synov
▁regurg
azem
▁inoculation
▁subjec
titis
▁postoperatively
▁lute
▁HM
▁parietal
siological
▁endoc
▁NMDA
uctose
▁cataly
▁citrate
tent
ropyl
▁doses
▁genotypes
▁pancre
▁radiolabeled
▁ori
generation
▁3.7
▁LDL
kinin
▁excitation
▁polyps
brom
aluation
▁encodes
ocusing
▁nitro
inergic
▁5
▁mitral
▁curative
▁tumours
emia
▁(1
▁rash
ctive
▁atropine
yses
▁perone
▁sympathetic
▁constitutes
▁dilution
▁intra
▁3.4
romycin
▁elimination
▁assessing
rophic
▁penetration
sul
.2%)
▁endothelin
▁stratification
▁benzodiaz
roscop
▁heteroz
▁80
▁Samples
phthal
erence
▁comprehen
rogenase
ections
▁infiltration
▁plasmin
▁prolif
veness
▁periodon
itrate
▁abolishes
▁follicles
▁acids
▁balloon
▁lethal
▁pall
▁hydroxylase
blind
▁cerebral
uccessful
▁intervertebral
▁TBI
eradish
▁250
bloc
▁cardiomyopathy
▁cortical
▁conjunction
ayers
▁repaired
▁encephal
teine
▁mucosa
hemical
▁assemb
▁prolongation
mia
stranded
▁proteolytic
▁allele
▁mutant
-20
▁quantit
▁decarbox
olus
tual
quid
arcoma
opres
▁GBS
Ly
ximal
oluble
▁promoter
vice
▁500
-1
.1%
▁gradients
▁62
▁susceptible
▁selectively
▁stimulating
▁Hep
▁vitamin
▁bronch
urred
ystolic
▁topical
▁6,
▁respiratory
razole
▁HCM
▁Leu
▁Medicare
▁polymorph
▁contex
▁concomitant
vation
operatively
▁prostatic
▁umbilical
▁demonstration
▁insufficiency
▁Hyp
NH
ophylline
ulatory
▁epilep
depleted
▁attenu
▁74
▁Forty
orin
▁spinal
▁interstitial
▁proximal
▁aromatic
anthine
▁adip
tracellular
maximal
▁morb
▁tuber
ocomp
▁gestation
▁irrever
▁thereafter
elec
▁chemot
▁pharmacists
ncy
▁adap
trop
oplast
plantation
▁HS
▁79%
formin
▁subtraction
dor
▁RP
▁fatigue
mediated
▁latency
▁thoracic
▁replic
erican
gth
hydrop
erally
▁aerob
tisol
▁4-
tensin
▁isolate
▁2.0
atients
▁corrective
▁suppressing
▁mortality
▁19%
erance
▁msec
ophageal
▁synap
jug
▁modulate
▁43
▁leucine
iae
▁pathogenesis
▁6-
diabetic
responder
itro
▁infusion
▁attemp
▁urea
mega
▁3.8
▁assay
▁intraven
▁5'
▁retinal
udin
▁Addition
▁opi
▁aspiration
▁continence
▁dismutase
tens
▁consultations
▁linkages
ynaptic
▁erythrocytes
▁rostr
▁projections
▁reversal
▁epitopes
▁adhering
▁characterize
resting
▁1.0
▁kinase
yridine
osterone
versely
▁spor
▁postmenopausal
▁leu
▁hydroly
▁44
ituitary
▁menstr
▁rIL
glyc
▁lith
▁standardized
oate
edullary
ecre
▁splenectomy
▁Alternatively
-[
ysm
tabol
▁reproduc
evaluated
1-
hei
owever
▁phenotypic
▁suppres
omers
▁epitope
▁monke
▁bir
▁histamine
▁100
▁tympanic
▁chemotactic
▁dorsal
oprol
▁HG
▁captopril
66
kage
▁promo
▁immunized
▁consis
dihydroxy
▁arrhy
oxone
hea
secre
▁isoproterenol
▁deposition
armac
46
▁physiological
▁PHA
▁bipolar
▁thrombosis
nRH
▁inhibit
▁ultrastructural
▁Throm
▁1:
▁APD
▁Increas
ipr
▁IGF
▁infusions
▁spre
▁hormonal
▁Effec
▁canine
▁constric
▁inotropic
gia
▁accelerated
tained
▁PF
▁blockade
▁0.04
▁GE
derived
▁20
▁afferent
▁lateral
▁3.6
▁warrants
▁fatty
aryngeal
▁phy
trol
LISA
testinal
▁0.4
menopausal
abain
▁enzymatic
▁naltrexone
▁incubation
▁interf
▁supine
teral
odgkin
▁1989
omatic
▁evolving
▁palli
▁(19
▁71
▁LPS
▁affec
▁mAb
▁undes
▁innervation
▁moles
▁perox
acting
31
69
atibility
▁AMI
▁enrol
kelet
crimin
▁tox
luent
esic
▁infar
▁statis
HM
▁degraded
orphism
▁overexpression
▁carboxyl
▁investigations
helium
▁myc
▁retard
▁topographic
▁electrophoretic
dehyde
9%)
-25
▁15,
▁solvent
tryp
▁trac
itudinal
▁tric
▁dimer
oxide
Tu
oblasts
▁frontal
kely
LU
phasic
▁tibial
fused
▁lipoproteins
▁gestational
▁proct
▁WK
▁myocardi
▁10(-4)
tative
▁RH
▁monitored
▁neonatal
▁memb
▁Increased
▁predicting
trexone
▁collagenase
3+
▁EMG
rox
▁prednisone
elan
65
▁gallst
▁aor
▁125
embran
▁papillary
▁Engl
▁GABA
▁minus
▁proliferation
▁tubes
▁concordance
:1
ureus
illaries
illic
plastic
▁antitumor
kephalin
aemia
taken
stem
▁normo
▁intermittent
otroph
▁molar
4%)
▁guinea
.4
lycemia
-50
▁ruptured
monary
,000
opus
ochemically
roph
▁hypother
▁pressures
▁antegrade
phosph
▁efflux
▁psychiatric
5-
▁adenine
▁elicited
▁electroph
utable
▁implantation
onomic
▁gluten
▁2,
terminal
▁0.05
▁inpatient
ellosis
2+.
tage
▁fluc
▁progen
▁devi
▁manipulations
7.
▁tachycardia
▁agonists
bac
▁uremia
ostatin
▁trache
▁rejection
▁mucosal
▁resear
▁feasibility
tiazem
▁synthetase
▁discomfort
▁diffic
▁sugges
▁197
▁genic
▁perfused
32
▁ethyl
▁analyses
cis
▁eti
▁interferon
▁alkyl
DH
▁radioimmuno
▁phorbol
▁evaluating
▁Phe
angli
▁typh
▁pate
▁depres
grees
▁6%
▁lamb
luding
istar
retion
enteric
8%)
▁antagon
plants
▁20.
▁thyro
▁recom
otropin
diol
▁cryp
▁construc
▁duc
▁myeloid
▁17
▁thymocytes
▁heterogeneous
▁4.0
zard
▁exon
▁avascular
stolic
▁Effective
▁hipp
▁Pseud
bladder
nai
▁recurrent
oplas
▁accel
▁16
▁perme
▁prescrib
Daw
▁progression
▁(0.
tocin
▁adhere
▁congen
-5)
▁adjustment
▁methyl
effec
▁precipit
.8%
▁loosening
▁prevalences
19
▁inadequate
▁cytosolic
▁immobil
▁cervical
▁chromosomes
liters
▁lutein
▁cys
lasting
ropriate
raine
uran
dose
▁CPAP
ithelial
▁hap
▁hamsters
aminated
▁resected
▁amput
terol
▁promin
3)
▁adenylate
▁musculoskeletal
▁assessments
▁obser
▁allevi
ocrine
affected
▁Glu
utions
▁0.001).
chym
▁TK
opo
rogenic
▁(50
▁(2
▁halothane
▁cortisol
lac
▁600
uric
4+
effectiveness
▁3.5
luded
otent
independent
▁BD
▁pulp
tally
uccess
rants
hesive
5).
aemic
-4-
urrent
▁dissociated
▁5.0
▁immunization
000
+.
▁isoelectric
▁develops
▁ADH
ontal
vated
rogra
eded
▁rheumatoid
▁Concomitant
▁4,
.2%
▁reversed
▁IU
▁prosthe
ourable
CoA
▁Intravenous
-7)
▁acad
▁keratinocytes
▁Improvement
tribution
▁biopsy
▁histologically
▁(1)
-1.
ochem
OA
▁ionophore
▁alcoholic
▁5,
occal
▁Measure
▁aspec
absorption
kinase
37
▁cytoplasmic
-40
sectional
responders
ecan
▁calcification
renal
urane
▁thir
▁standardi
▁sampl
▁65
ilibr
▁clinicians
▁modality
thase
▁fluorescent
▁entero
trypsin
000.
▁cyclo
▁squamous
▁Staphyloc
ancement
reast
▁Twelve
/100
▁aureus
▁ole
▁decisive
employ
▁kine
ropriately
ompan
▁abnormal
▁phenotypes
▁pmol
▁correlate
illary
▁misleading
trimental
▁6.0
itively
▁repor
▁malignancy
irc
▁AIDS
▁exclusion
HB
▁fractures
▁Asp
erad
athetic
▁adhe
▁oils
▁interventions
▁vertebr
▁retin
▁graf
enzymatic
▁ascertained
▁complementary
ronch
▁caud
thyroid
otting
▁selen
▁neoplastic
▁fati
▁analogs
▁transmembrane
▁casein
▁pulmon
/10
▁muscul
▁lobe
25
▁1/
▁extensor
rospinal
▁amyloidosis
osamine
▁IgE
▁phon
▁CCK
▁endothelial
▁illus
▁accessory
tead
▁Surgical
adiol
▁acet
-1-
▁2.
Glc
▁metformin
▁ulcer
97
roma
▁vaccin
▁GFR
lateral
tam
▁biom
▁causal
▁unchanged
parative
43
▁interfere
▁mitochondrial
▁1%
▁NP
▁cef
▁prognostic
▁fibers
▁0.0
▁foci
▁PAS
▁averaged
fos
▁82
▁CI
▁deficit
▁struc
▁hybridization
▁discern
▁resour
▁autonomic
timal
▁RM
▁cisplatin
1-2
omized
neumon
▁cigarettes
▁translocation
7%)
▁Chest
▁diabetic
▁indicative
ylephrine
▁ventral
▁compartments
▁oligos
▁arthritis
▁pharmac
otassium
▁isomer
▁allergen
amate
atical
▁subf
▁discriminative
▁osteoporotic
▁adolescence
▁neo
▁1/2
▁lymphocyte
ivation
oxia
▁fasting
▁dendritic
▁GMP
▁anaesthe
▁placenta
CSF
▁hemisphere
adrenaline
totic
nec
▁11,
▁intest
▁(9
ereb
▁mutagen
▁natri
▁debr
▁corresponded
▁99
▁dehydrogenase
NAc
▁anatomic
ields
pation
▁lymph
▁pelvis
▁chor
lip
▁PTH
▁actu
▁haemorrh
▁dors
▁shortened
0%)
▁grafts
▁Cd
uted
lep
▁transduction
▁CRP
atrial
ectomies
▁occlusion
▁cartil
▁anaerobic
uresis
▁Initi
▁insulin
▁cytotoxic
▁microtubules
▁muscular
▁7.4
▁reabsorption
median
▁reticular
▁therapeutic
▁normotensive
▁motone
▁hippocampus
▁analges
incubation
▁endpoints
▁psychotic
▁13
▁pathologies
▁studi
▁decreased
▁1.7
▁relapse
▁rati
▁endarterectomy
▁peroneal
▁5-
▁advisable
spective
▁enlarged
▁reas
▁residual
modulin
▁EMS
▁allo
▁mV
▁somatic
▁endemic
▁Wistar
▁overe
stress
▁stimuli
▁5.
▁CNS
▁4
▁renal
▁esophageal
Ds
ostic
opha
quine
▁NB
▁stric
▁empirical
▁contractions
▁28
▁54
lact
▁aggres
99
ectom
▁uncommon
▁rheum
tomy
phic
glut
adic
ocamp
81
PAP
ofol
ithi
▁rhe
▁analgesia
trin
▁salivary
idate
▁(7
-6)
17
▁monocyte
atation
phosphorylation
▁metabolic
▁junction
transferase
▁fractional
▁endocrine
▁transplants
▁hormones
▁hypog
▁respondents
ophren
lyl
▁agonist
▁200
▁proton
osition
▁transmitter
▁sequel
▁etiology
▁pancreas
▁laparotomy
▁radiol
arginine
1,
romy
acr
▁induce
▁resonance
▁PRL
▁speculated
▁peritoneal
▁thym
▁bolus
ropine
edic
▁0
odial
▁differing
▁chole
▁cis
▁Kupffer
otri
anuary
6%
▁purified
▁guan
mol
ximide
▁47
▁hypox
▁potassium
omical
▁prophylaxis
BK
▁pools
tation
▁sarc
▁orally
trogen
▁amin
▁mell
▁tamoxifen
tics
▁20%
▁confound
▁recipients
▁preceding
▁microcirc
▁microscop
▁premature
▁epit
▁guanine
▁highl
53
itally
▁84
▁neoplasm
▁intrap
essive
▁pT
▁reflex
tin
erving
▁inhibitory
▁Taken
▁messenger
ameters
inhib
▁kD
▁31
▁oxidative
tically
5.
▁nifedipine
▁haemorrhage
▁caffeine
▁neuron
umulation
▁supervision
sess
▁5)
▁poorer
▁VE
idium
▁chorio
▁1
▁identif
▁substituted
▁Tum
oderm
▁electrode
▁indeterminate
▁intraoperative
olec
inj
▁75
▁palsy
▁routinely
▁Ia
▁Cox
▁chel
ilized
olesterol
▁glycerol
▁elic
▁imaging
esity
ximum
▁fertil
▁discom
▁inversely
▁brom
▁recombin
tact
▁0.02).
▁ure
▁scanning
TNF
unctional
LN
+/
▁FH
tory
▁cyclosporine
▁contamin
▁grouped
oxidation
▁Meas
▁abdomen
▁cytosol
ranged
▁anastomosis
▁GTP
▁counseling
▁genome
ylase
erable
▁worsened
▁sigma
▁restenosis
▁carbachol
▁cerv
▁Mg
▁pretreated
▁extracellular
pregn
asive
▁Evid
inemia
▁pter
▁caudal
fec
ylamide
▁iliac
▁transfusion
▁30%
▁ribosomal
▁echocardi
oglobin
urc
▁specimens
▁subpopulations
▁swelling
ATP
ration
Nase
▁horiz
▁pancreatitis
▁examin
▁kcal
▁Prospective
▁intestine
▁rabb
immunoreactive
▁crest
amel
▁synapses
▁prol
▁tubules
▁resto
▁Hb
▁redund
▁radiographic
▁acidic
▁genetically
WB
▁geniculate
acid
▁qualitative
▁leukotri
▁phosphate
▁kDa
pH
▁fragile
▁contractile
▁aberr
dic
▁reticulum
▁potentiated
trus
hypertensive
▁lesion
84
▁2
▁Steady
stimulated
▁lumen
ignificant
▁mRNA
▁phe
ighted
toc
ovine
▁isop
▁inhibin
-6-
▁surgeons
▁influenza
trib
▁endoscopy
ophy
icidal
▁0.001),
▁systematically
▁tib
▁effec
tero
▁untreated
▁Findings
▁lysosomal
▁detergent
ostat
▁suscepti
▁residency
▁cumulative
lated
▁perfusion
mental
▁ureth
▁gallstones
▁arth
ochemical
oblastic
▁increas
rae
Ti
othelial
▁Inhib
▁reproducibility
ithin
▁versa
evaluation
organic
▁oxid
▁Mn
oproterenol
lore
▁reactivation
puts
▁valve
▁fri
▁interc
otypes
tolerated
▁substitu
epithelial
▁57
tase
▁striatum
▁mitochondr
▁Biol
▁preferen
2+-
enkephalin
▁panc
oceptor
▁ileum
-4)
ivered
▁inactivated
▁hospitalization
tral
adex
▁29
▁tubular
▁3%
▁restorative
▁shif
▁transforming
▁labial
odium
▁sexes
▁pK
irub
▁microscopic
▁phenyl
▁rats
alsy
▁appreciably
erals
onate
globulin
adren
▁hypers
▁suppressed
▁murine
leu
tus
▁erythrocyte
tiz
▁(100
▁thromboembolic
▁incorporation
▁aspirin
terolog
phrag
▁thymus
lobulin
▁2.1
injured
queous
▁phagocytic
▁pathologic
atories
▁serum
▁steroid
▁ane
▁poin
▁caro
6-
▁dex
▁(3)
▁neurob
▁motif
▁mutagenesis
▁ocul
otoxicity
12
cents
▁scoliosis
▁adrenal
▁carbohydrates
-1).
▁marrow
▁inhibits
▁vasodil
ceptual
clinical
MV
ifed
▁incub
deoxy
bly
-1,
seal
hyd
▁turnover
88
Ts
▁symme
▁circadian
olated
▁TGF
▁AO
atinine
▁amyl
amyl
▁peptic
▁anesthesia
▁7%
induced
▁densities
alues
15
▁desensitization
▁multivariate
bility
ureth
▁consequent
▁incidence
oxic
ods
▁conclusive
IGF
▁inoc
versity
▁1988
otin
▁axon
etween
pies
▁granule
▁magnesium
▁agon
▁1,
▁fragility
▁FS
6%)
▁preven
▁ischem
feron
▁phospholipid
estive
hydroxy
▁linoleic
▁exert
/-
▁patellar
ifferen
▁Alter
▁IH
epti
▁90%
▁ovulation
▁administered
aicin
orption
▁mesen
▁cations
▁radioactive
1/2
▁ablation
▁displacement
genesis
-10
▁reductase
2%)
▁supernatants
▁TCR
▁lys
▁AVP
ocarcin
ulmonary
▁tonic
Glu
▁remo
orpor
transplantation
86
▁Pseudomonas
▁chloride
iability
▁enteral
lox
ipine
LV
▁PCT
▁efficacy
▁precursor
ocele
-60
85
thmatic
venous
operated
▁advan
▁ovarian
▁pharmacokine
▁Cyt
▁rostral
▁Comparison
▁satisfactory
-9)
zymes
▁calcitonin
epit
▁retina
▁DSM
▁morbidity
isqu
▁chromatin
▁plasmids
irrh
▁11
chlor
▁tracer
▁competi
odiaz
▁reconstituted
▁spermatozoa
phosphate
▁microgram
▁potentials
enic
▁effic
▁gamma
▁dexamethasone
▁investigating
roxim
gments
▁hazard
▁organisms
▁ascertain
▁gallbladder
23187
▁paradig
xiety
▁epi
▁followup
radi
-3)
▁sulphate
▁autoradi
▁synthesis
tussis
▁proportional
▁cytology
▁nicotine
▁diminished
▁thromboemb
▁ket
(2+
▁IIb
▁TPA
▁rigorous
▁ligand
astric
▁infectious
entif
▁prophyl
erator
▁mellitus
noise
▁propensity
▁ventilatory
ochle
▁hemis
sAg
oside
-9
▁ICS
▁labeling
▁nec
▁percutaneous
▁PDGF
assium
▁perfusate
▁proteins
▁kidney
ailure
▁8.
▁glutamate
▁HCC
▁hypoth
▁recons
▁intrinsic
6,
▁spikes
ulcer
unced
▁catechol
▁immunohist
▁parame
▁sarcoma
▁compounds
▁hepar
▁homology
▁clinics
▁tuberculosis
macropha
acil
▁lesions
▁hippocamp
FGF
▁regimens
▁parotid
▁atheros
▁anticoag
▁susceptibility
turb
▁ammon
2+,
IIIa
illus
ifugation
odil
23
quisition
nutrition
.5%)
▁detectable
oratory
▁ambulatory
fected
phadex
xual
▁behavioural
▁adren
▁88
ogenes
▁vomiting
fusion
▁86
▁metastas
▁cyst
▁hams
▁fibronectin
▁MV
enol
truc
▁vivo
▁hypothal
ocytosis
▁wt
Ki
▁acute
▁sulf
▁sciatic
▁phosphorylation
▁desm
▁0.25
▁practic
ATPase
▁validity
▁appendic
▁Tn
▁conjug
▁plur
▁definitive
▁0.2
2318
▁congestive
▁sphincter
otide
sorb
▁angina
▁10(6)
▁ect
▁discordant
▁1.8
▁calf
▁HB
▁actin
▁cholinergic
▁bronchi
▁estrogen
oxygen
▁permeability
▁1986
▁influenz
ewish
reactive
acin
▁ageing
clonal
▁corneal
▁lavage
5,
7-
▁sten
▁LOS
▁occlusal
▁25%
▁rup
ocellular
▁pharmacokinetic
▁LV
▁biliary
▁lambs
▁torsion
▁0.05)
▁polymer
cein
oglyc
hering
▁150
▁[14
rati
▁incomplete
▁amplified
▁disks
tec
▁recr
▁postoperative
controlled
teroid
▁respiration
▁regression
▁innerv
▁antec
▁peri
▁exhibits
▁evacuation
kade
ioid
▁Magnetic
▁overlaps
▁somat
▁sulfonyl
▁antiser
▁ovary
▁systolic
▁inters
thmias
viron
▁homogeneity
▁lectin
▁myof
ocular
atitis
ivocal
gic
▁chol
▁pacing
ocarcinoma
hydro
opathic
▁heterogene
▁stren
▁schizophrenia
erated
eptidase
▁cue
▁32
opausal
00
oleic
▁radiological
onary
odon
erents
▁generalized
▁rationale
▁livers
▁coag
peptide
anin
▁fluor
oscopy
ustained
xate
zation
▁hypothyroidism
echan
ught
▁4)
▁sacr
ACh
▁radiolab
▁diets
▁endotoxin
iloride
-13
erate
▁diabe
▁paraventricular
din
▁persis
▁edema
▁50%
▁putative
▁7.0
▁pigment
▁Hear
▁buccal
.5
mide
▁isch
▁(5
tib
+)
ocyt
▁Thirty
umulative
▁exerted
▁restor
▁intracellular
▁inactivation
iciently
ropo
▁thromboxane
2+
yro
▁electrocardi
▁abor
▁directional
▁targe
▁1.9
▁ECG
▁sinus
▁dislocation
▁digestion
▁ips
▁catheterization
lective
▁poisoning
▁progres
sial
▁23
▁pigs
▁abl
ymp
tructural
▁discontinu
▁inheritance
▁immunoglobulin
usp
▁athle
▁inhibiting
cus
▁seizure
▁KCl
▁phospholipase
rocytes
▁experim
▁vasoconstric
▁suture
▁Ket
0-
▁regurgitation
▁axillary
▁buc
teric
▁septum
▁MN
spectively
100
uoden
utyr
ensitization
▁thems
▁spleen
osomes
▁nig
▁160
▁Experiments
hep
Cy
▁triglycer
▁junctions
rone
▁lymphoid
▁63
▁[(
▁graded
▁papill
▁dendrites
▁gonad
4-
lytic
▁visc
▁glomerular
zyme
▁glyc
▁hepatitis
▁nm
▁spontaneous
ocytic
opam
tality
ocrit
▁55
▁transplanted
0.0
vail
scherichia
▁plasmid
▁resection
cribed
Cer
ampl
onad
▁phag
▁granulosa
▁elu
divid
.6
▁progestin
▁assays
▁pyram
▁pretreatment
▁(2)
oxif
▁pylorus
▁intramuscular
itant
3%)
-450
throm
quired
▁triglyceride
▁preceded
▁reactivity
▁peptide
▁ration
▁alteration
gression
ometh
▁VD
henyl
ectable
▁overex
▁occurrence
▁palliative
▁implicate
▁inflamm
▁summ
▁gastrin
hyp
▁Contrary
▁ligation
▁preliminary
1-3
receptors
reas
arial
▁unil
athyroid
▁novo
adrenoceptor
▁lec
▁cardio
▁contaminated
▁molecule
▁conjugates
▁wean
lue
.2%).
▁FSH
▁cytotox
sequent
illi
▁latent
▁dilated
vertebral
▁amyloid
ogra
▁ipsilateral
▁soy
obacter
▁biochemistry
KD
▁activator
pinal
dibular
ticular
▁cuff
ANP
%),
▁disturbances
tein
]-
▁dischar
uvant
affec
▁subun
opressin
▁stu
▁equilibr
▁induces
ographically
▁exacerb
cyst
▁anastom
▁multiv
▁hazards
▁inver
▁hypothyroid
▁Cys
onstric
▁SDS
▁physicians
▁RAR
▁peroxidation
▁pneum
▁naloxone
▁prenatal
▁desirable
▁endometrial
▁staging
▁nosocomial
▁neon
▁amn
heres
▁hygi
▁preoperatively
▁compart
▁implic
▁deli
transformed
▁merits
unar
▁progressively
▁calcium
atine
▁unrelated
▁GVHD
▁differe
▁Pretreatment
▁Histologic
▁irritation
▁kinetics
▁phenotype
CMV
▁comparative
▁-0.
▁unselected
asses
PV
▁pyr
pT
▁arrhythmias
▁persist
esium
▁Hg
▁lamin
▁atten
▁mediated
▁verteb
operox
▁aneurysm
▁LH
▁screened
▁resul
▁adverse
3-
uretic
▁cGMP
LH
ecyl
▁PRP
▁enzyme
▁antibody
▁diarr
▁cochlear
▁inducer
ficial
▁bradykinin
evoked
▁prevalence
rocal
2,
▁PCO
loro
idol
▁excre
▁40%,
▁chromat
onium
▁7.
▁abnormalities
lymph
phrine
▁hypothe
▁CSA
▁defic
▁adminis
▁ATPase
ropathy
▁migrated
▁expres
oidal
▁venti
▁vitro
phosphon
▁vascul
▁PAN
▁20-
▁fracture
▁pyro
▁perinatal
▁histopath
urther
diagnosed
▁epsilon
▁deficient
utaneous
▁autoimmune
▁transported
gment
▁22
▁cigaret
genic
▁cholesterol
tumor
BH
luores
▁undetected
▁protease
▁cardiopulmonary
SPECT
▁TAA
-67
▁volumetric
▁(25
▁fibrin
▁6.
▁IA
▁fibrillation
▁carbohydrate
▁corticos
▁micron
▁substrate
▁auditory
sibility
▁septal
▁58
5,000
oplasm
▁affinities
(1
▁melanomas
▁laparoscopy
jejun
▁femoral
▁cros
▁socio
▁19-9
▁Patients
▁catalase
▁epiderm
▁exce
▁ingestion
▁transfected
▁ASA
dered
▁conditioned
▁audi
▁forsk
thyl
▁muc
erin
▁headache
▁uterine
▁fibrinogen
▁201
ifug
utroph
ocul
opramide
▁microsomes
▁hypoxia
▁lowering
▁depolarization
▁hypot
growth
azol
▁monkey
▁undergoing
▁thyroidectomy
▁nM
▁Tyr
▁questionnaires
▁cerebellum
hydroxyp
ilical
▁UT
omonas
ervations
▁40
itamin
▁PGF
ffeine
▁95%
dle
glucose
▁0.1
▁Sixty
ochemistry
22
tracted
oyl
arous
▁metast
helial
▁dete
▁2%
Ala
eptide
▁synerg
ocompatibility
▁mec
rophy
ymptom
Mg
astom
eces
ercul
Ig
amycin
▁ejection
otrop
▁possi
clo
▁enriched
▁pS
ventive
+]
bearing
▁cholec
▁atmosp
▁Binding
▁abolished
enicillin
▁unin
▁vena
▁25
▁phospholipids
▁polymerase
▁Staphylococcus
▁198
▁exceeded
ritish
lasts
olytic
▁cesarean
▁pathogen
▁plateau
rosine
▁sphinc
accharides
▁(198
▁pleomorphic
▁GH
▁direc
▁Afric
▁propranolol
▁polypeptide
cAMP
▁radiography
DNA
▁unex
Pa
tensive
▁alkaline
hetamine
▁Trial
▁apolipoprotein
▁Calc
ostomy
0)
▁juven
pyr
▁ventric
Ba
▁cartilage
▁Elec
tivation
▁RS
▁pathology
overed
omotor
▁ganglion
▁diagnoses
atectomy
▁HeLa
anol
▁preclude
tors
physiological
▁nucleus
▁eosinophil
▁3)
▁segmental
odynamic
▁comple
▁tolerated
▁fibres
▁Ara
▁3.0
▁indetermin
tectable
otre
▁enzym
2).
rhy
▁homoz
▁margins
▁tris
sive
Gly
dial
▁paralle
▁progesterone
▁musc
▁GER
2.
▁myocardium
CAT
▁intraper
▁challen
olenic
▁asthmatic
▁deficiencies
▁verte
▁cyan
tical
▁parap
lym
▁pyruvate
▁HBV
rophyl
orphin
vant
▁lipoprotein
erb
▁receptors
lastoma
ellular
orbent
Cu
sions
▁biopsies
▁IHD
1),
umerous
ffe
▁postulated
helin
▁cardi
▁transcriptional
selective
arate
ocytes
▁practitioners
▁depar
▁76
estion
▁ratios
tized
▁10(5)
▁cann
▁heavier
rates
▁spectro
elves
▁chromosomal
▁coel
▁unsuccessful
idement
▁experimentally
dine
atum
▁astrocy
▁26
▁vaccines
▁resistant
▁EG
▁apprec
inally
ostatic
▁leuk
ostal
sorption
▁infarct
▁avail
▁disulf
uin
▁neurop
odies
▁mesenteric
▁clonal
inositol
april
pharose
▁bic
thel
▁48
▁silic
▁1.3
▁mammalian
▁cG
▁75%
▁intraperitoneal
tiv
▁contral
tivity
▁ascending
iferol
iatric
▁attributable
▁criter
mig
uclear
endri
▁stimulus
▁abundant
▁Streptococcus
weighted
▁excretion
▁microtub
▁pyl
carcin
▁tachyc
▁Delayed
▁adenoma
ctomy
ygen
▁adipose
▁HSV
chloro
molecular
▁hydrophob
eared
ejun
▁pep
▁subcutaneous
▁promoters
▁tes
▁omitted
glycerol
▁infil
dents
▁astrocytes
yroxine
positive
▁myosin
sian
entists
dia
▁vagal
▁inadequ
▁ligands
oxane
▁(8
▁bladder
▁duct
altered
▁spermat
▁yeast
osal
8%
▁follicle
comitant
5'-
fir
ogl
▁refractory
▁placebo
tition
thre
uality
geneic
apeu
3.
▁receptor
▁referral
▁renin
1.
itic
etus
Ka
▁widening
lastic
ensi
▁provid
phe
LDL
oxygenase
emak
▁ossification
▁synergistic
▁myel
▁angiotensin
▁fluids
glum
heric
57
topril
▁frac
▁Analy
▁cortex
▁35%
▁oss
heal
3,
▁monoclonal
▁mRNAs
opoly
▁distin
▁1.4
▁streptoc
▁mitogen
▁PGE
▁reversible
▁assis
Ra
▁-2
▁endogenous
.4%
arbonate
▁synthesize
▁cate
▁capillaries
▁atri
▁histological
releasing
encephal
▁substitutions
▁gonadotropin
▁recombinant
ithm
taz
▁2.9
▁confron
tine
opathological
▁AE
gulation
▁30-
▁nal
▁polyethylene
▁descending
▁linole
▁microb
▁questionnai
▁positioning
▁PEG
▁Salmonella
erating
▁decreasing
▁dopaminergic
▁wors
fluoro
▁hyperg
▁8-
▁bicarbonate
▁subgroups
▁NH
ubtedly
▁Ig
▁epithelial
ture
▁Medicaid
▁antisera
▁differenti
▁NPC
CBF
▁occupational
ignific
2)
