<unk>	0
<s>	0
</s>	0
<0x00>	0
<0x01>	0
<0x02>	0
<0x03>	0
<0x04>	0
<0x05>	0
<0x06>	0
<0x07>	0
<0x08>	0
<0x09>	0
<0x0A>	0
<0x0B>	0
<0x0C>	0
<0x0D>	0
<0x0E>	0
<0x0F>	0
<0x10>	0
<0x11>	0
<0x12>	0
<0x13>	0
<0x14>	0
<0x15>	0
<0x16>	0
<0x17>	0
<0x18>	0
<0x19>	0
<0x1A>	0
<0x1B>	0
<0x1C>	0
<0x1D>	0
<0x1E>	0
<0x1F>	0
<0x20>	0
<0x21>	0
<0x22>	0
<0x23>	0
<0x24>	0
<0x25>	0
<0x26>	0
<0x27>	0
<0x28>	0
<0x29>	0
<0x2A>	0
<0x2B>	0
<0x2C>	0
<0x2D>	0
<0x2E>	0
<0x2F>	0
<0x30>	0
<0x31>	0
<0x32>	0
<0x33>	0
<0x34>	0
<0x35>	0
<0x36>	0
<0x37>	0
<0x38>	0
<0x39>	0
<0x3A>	0
<0x3B>	0
<0x3C>	0
<0x3D>	0
<0x3E>	0
<0x3F>	0
<0x40>	0
<0x41>	0
<0x42>	0
<0x43>	0
<0x44>	0
<0x45>	0
<0x46>	0
<0x47>	0
<0x48>	0
<0x49>	0
<0x4A>	0
<0x4B>	0
<0x4C>	0
<0x4D>	0
<0x4E>	0
<0x4F>	0
<0x50>	0
<0x51>	0
<0x52>	0
<0x53>	0
<0x54>	0
<0x55>	0
<0x56>	0
<0x57>	0
<0x58>	0
<0x59>	0
<0x5A>	0
<0x5B>	0
<0x5C>	0
<0x5D>	0
<0x5E>	0
<0x5F>	0
<0x60>	0
<0x61>	0
<0x62>	0
<0x63>	0
<0x64>	0
<0x65>	0
<0x66>	0
<0x67>	0
<0x68>	0
<0x69>	0
<0x6A>	0
<0x6B>	0
<0x6C>	0
<0x6D>	0
<0x6E>	0
<0x6F>	0
<0x70>	0
<0x71>	0
<0x72>	0
<0x73>	0
<0x74>	0
<0x75>	0
<0x76>	0
<0x77>	0
<0x78>	0
<0x79>	0
<0x7A>	0
<0x7B>	0
<0x7C>	0
<0x7D>	0
<0x7E>	0
<0x7F>	0
<0x80>	0
<0x81>	0
<0x82>	0
<0x83>	0
<0x84>	0
<0x85>	0
<0x86>	0
<0x87>	0
<0x88>	0
<0x89>	0
<0x8A>	0
<0x8B>	0
<0x8C>	0
<0x8D>	0
<0x8E>	0
<0x8F>	0
<0x90>	0
<0x91>	0
<0x92>	0
<0x93>	0
<0x94>	0
<0x95>	0
<0x96>	0
<0x97>	0
<0x98>	0
<0x99>	0
<0x9A>	0
<0x9B>	0
<0x9C>	0
<0x9D>	0
<0x9E>	0
<0x9F>	0
<0xA0>	0
<0xA1>	0
<0xA2>	0
<0xA3>	0
<0xA4>	0
<0xA5>	0
<0xA6>	0
<0xA7>	0
<0xA8>	0
<0xA9>	0
<0xAA>	0
<0xAB>	0
<0xAC>	0
<0xAD>	0
<0xAE>	0
<0xAF>	0
<0xB0>	0
<0xB1>	0
<0xB2>	0
<0xB3>	0
<0xB4>	0
<0xB5>	0
<0xB6>	0
<0xB7>	0
<0xB8>	0
<0xB9>	0
<0xBA>	0
<0xBB>	0
<0xBC>	0
<0xBD>	0
<0xBE>	0
<0xBF>	0
<0xC0>	0
<0xC1>	0
<0xC2>	0
<0xC3>	0
<0xC4>	0
<0xC5>	0
<0xC6>	0
<0xC7>	0
<0xC8>	0
<0xC9>	0
<0xCA>	0
<0xCB>	0
<0xCC>	0
<0xCD>	0
<0xCE>	0
<0xCF>	0
<0xD0>	0
<0xD1>	0
<0xD2>	0
<0xD3>	0
<0xD4>	0
<0xD5>	0
<0xD6>	0
<0xD7>	0
<0xD8>	0
<0xD9>	0
<0xDA>	0
<0xDB>	0
<0xDC>	0
<0xDD>	0
<0xDE>	0
<0xDF>	0
<0xE0>	0
<0xE1>	0
<0xE2>	0
<0xE3>	0
<0xE4>	0
<0xE5>	0
<0xE6>	0
<0xE7>	0
<0xE8>	0
<0xE9>	0
<0xEA>	0
<0xEB>	0
<0xEC>	0
<0xED>	0
<0xEE>	0
<0xEF>	0
<0xF0>	0
<0xF1>	0
<0xF2>	0
<0xF3>	0
<0xF4>	0
<0xF5>	0
<0xF6>	0
<0xF7>	0
<0xF8>	0
<0xF9>	0
<0xFA>	0
<0xFB>	0
<0xFC>	0
<0xFD>	0
<0xFE>	0
<0xFF>	0
in	-0
re	-1
▁t	-2
▁a	-3
ti	-4
on	-5
en	-6
▁s	-7
er	-8
ed	-9
▁o	-10
al	-11
▁w	-12
▁c	-13
▁th	-14
▁p	-15
at	-16
it	-17
▁of	-18
▁in	-19
es	-20
or	-21
nd	-22
▁d	-23
ro	-24
▁f	-25
ati	-26
▁m	-27
ent	-28
as	-29
ar	-30
is	-31
ic	-32
▁the	-33
an	-34
om	-35
▁b	-36
▁re	-37
▁and	-38
ing	-39
▁h	-40
ith	-41
▁(	-42
ve	-43
ec	-44
▁with	-45
▁e	-46
▁to	-47
▁n	-48
▁st	-49
▁l	-50
ce	-51
▁1	-52
os	-53
▁r	-54
ud	-55
ou	-56
ly	-57
th	-58
id	-59
ol	-60
ents	-61
ere	-62
et	-63
ul	-64
▁A	-65
▁for	-66
▁g	-67
ation	-68
▁con	-69
tion	-70
▁pati	-71
▁stud	-72
ri	-73
▁T	-74
if	-75
ig	-76
ac	-77
us	-78
▁patients	-79
ter	-80
ow	-81
le	-82
▁2	-83
up	-84
▁an	-85
▁Th	-86
il	-87
▁no	-88
▁or	-89
ys	-90
▁com	-91
ts	-92
ur	-93
im	-94
reat	-95
tive	-96
ver	-97
ity	-98
0.	-99
tro	-100
▁as	-101
ment	-102
▁were	-103
▁was	-104
ad	-105
ll	-106
▁v	-107
).	-108
ut	-109
am	-110
red	-111
op	-112
ag	-113
▁study	-114
tic	-115
▁C	-116
res	-117
ear	-118
uc	-119
iz	-120
od	-121
5%	-122
▁The	-123
▁that	-124
▁comp	-125
▁3	-126
ir	-127
rial	-128
ate	-129
si	-130
▁treat	-131
em	-132
and	-133
ap	-134
ff	-135
oc	-136
ort	-137
roup	-138
▁wh	-139
▁trial	-140
ase	-141
um	-142
▁on	-143
ated	-144
▁I	-145
ant	-146
ical	-147
▁9	-148
ies	-149
▁group	-150
ine	-151
▁inc	-152
▁at	-153
ific	-154
ign	-155
▁pro	-156
vi	-157
la	-158
ound	-159
▁4	-160
ized	-161
▁ch	-162
el	-163
st	-164
igh	-165
▁di	-166
▁eff	-167
rom	-168
year	-169
ew	-170
▁ex	-171
ure	-172
▁not	-173
qu	-174
pec	-175
ain	-176
andom	-177
ab	-178
00	-179
▁5	-180
ence	-181
un	-182
▁found	-183
▁contro	-184
est	-185
▁be	-186
▁6	-187
og	-188
▁random	-189
ep	-190
lin	-191
ore	-192
▁sign	-193
▁P	-194
▁is	-195
isk	-196
▁ad	-197
ess	-198
▁randomized	-199
val	-200
▁res	-201
ared	-202
▁had	-203
ren	-204
▁signific	-205
▁we	-206
▁sh	-207
bo	-208
duc	-209
ose	-210
▁0.	-211
lace	-212
▁year	-213
yp	-214
▁than	-215
▁effec	-216
▁compared	-217
▁significant	-218
▁treatment	-219
lled	-220
▁S	-221
erap	-222
▁risk	-223
▁In	-224
▁dis	-225
omen	-226
▁da	-227
mp	-228
▁us	-229
▁per	-230
▁place	-231
▁studies	-232
▁mon	-233
ary	-234
ten	-235
▁al	-236
reas	-237
▁trials	-238
one	-239
▁placebo	-240
▁CI	-241
ef	-242
▁ag	-243
▁women	-244
▁sc	-245
oth	-246
tom	-247
ven	-248
▁im	-249
▁pre	-250
▁inf	-251
erapy	-252
view	-253
▁ne	-254
▁95%	-255
ard	-256
eren	-257
▁years	-258
),	-259
▁from	-260
idence	-261
▁me	-262
iff	-263
▁review	-264
lud	-265
▁diff	-266
▁by	-267
▁ac	-268
▁O	-269
ymp	-270
▁7	-271
ild	-272
ne	-273
end	-274
we	-275
▁inter	-276
ia	-277
orm	-278
ip	-279
▁controlled	-280
ymptom	-281
0%	-282
▁low	-283
▁reduc	-284
▁le	-285
▁differen	-286
sion	-287
▁month	-288
owed	-289
▁8	-290
▁[	-291
▁su	-292
▁bet	-293
ong	-294
▁more	-295
pro	-296
▁who	-297
▁vs	-298
▁rec	-299
1.	-300
ood	-301
ek	-302
age	-303
ast	-304
▁high	-305
▁therapy	-306
ch	-307
▁N	-308
▁rep	-309
pective	-310
▁H	-311
▁ass	-312
ous	-313
ative	-314
ist	-315
▁ha	-316
ost	-317
ers	-318
io	-319
all	-320
alys	-321
ved	-322
fter	-323
▁child	-324
atic	-325
▁months	-326
▁anti	-327
▁symptom	-328
ion	-329
▁met	-330
.0	-331
ke	-332
▁week	-333
se	-334
▁hyp	-335
yst	-336
▁R	-337
ular	-338
alysis	-339
reased	-340
ted	-341
ality	-342
ease	-343
▁ev	-344
▁but	-345
▁have	-346
oll	-347
str	-348
▁clin	-349
▁ab	-350
vel	-351
▁disease	-352
hy	-353
ally	-354
▁children	-355
▁pres	-356
▁am	-357
▁dec	-358
act	-359
ran	-360
▁showed	-361
▁un	-362
ther	-363
▁mg	-364
ween	-365
luded	-366
spective	-367
▁between	-368
ection	-369
▁out	-370
▁after	-371
▁co	-372
ates	-373
iti	-374
▁foll	-375
ations	-376
▁1.	-377
ants	-378
▁over	-379
ber	-380
com	-381
▁he	-382
cy	-383
▁de	-384
ide	-385
aus	-386
▁bl	-387
▁those	-388
ay	-389
tr	-390
▁sm	-391
▁rate	-392
▁pain	-393
ors	-394
vention	-395
▁report	-396
ory	-397
▁med	-398
▁days	-399
▁did	-400
▁sur	-401
▁impro	-402
▁syst	-403
az	-404
ight	-405
▁sub	-406
▁rece	-407
▁groups	-408
ial	-409
▁are	-410
ge	-411
out	-412
itive	-413
ese	-414
ined	-415
RR	-416
tiv	-417
agn	-418
ever	-419
▁ser	-420
▁conf	-421
are	-422
▁recei	-423
valu	-424
▁difference	-425
▁non	-426
▁clinical	-427
hort	-428
▁10	-429
▁ind	-430
▁system	-431
▁all	-432
▁test	-433
▁evalu	-434
ox	-435
ied	-436
ual	-437
▁B	-438
▁F	-439
osis	-440
ults	-441
yc	-442
king	-443
tivity	-444
▁weeks	-445
▁po	-446
gh	-447
ach	-448
ily	-449
▁12	-450
tim	-451
olog	-452
▁ben	-453
▁blood	-454
▁cohort	-455
▁control	-456
▁reduction	-457
ld	-458
con	-459
▁ap	-460
▁symptoms	-461
8%	-462
NT	-463
▁dur	-464
▁age	-465
▁level	-466
▁reported	-467
▁(9	-468
▁An	-469
▁need	-470
▁L	-471
▁li	-472
ensi	-473
▁sup	-474
▁M	-475
-0.	-476
cis	-477
▁diagn	-478
pl	-479
▁D	-480
oci	-481
▁dem	-482
▁rates	-483
tal	-484
▁u	-485
▁meta	-486
▁outcom	-487
so	-488
ue	-489
amin	-490
onstr	-491
▁hyper	-492
▁ph	-493
rease	-494
analysis	-495
ating	-496
▁follow	-497
2.	-498
6%	-499
▁E	-500
ond	-501
atis	-502
▁cons	-503
te	-504
our	-505
▁benef	-506
▁systematic	-507
ice	-508
▁qu	-509
umber	-510
▁conc	-511
▁associ	-512
=0.	-513
ance	-514
ortality	-515
▁demonstr	-516
ery	-517
▁One	-518
▁other	-519
▁effect	-520
▁interval	-521
ail	-522
ble	-523
sive	-524
▁this	-525
ot	-526
▁se	-527
ving	-528
▁cor	-529
▁rel	-530
▁tim	-531
▁these	-532
▁increased	-533
▁mortality	-534
able	-535
▁effective	-536
CT	-537
ute	-538
ough	-539
▁end	-540
▁needed	-541
7%	-542
▁comb	-543
▁only	-544
▁levels	-545
▁significantly	-546
ult	-547
ction	-548
vas	-549
▁it	-550
ause	-551
reen	-552
▁det	-553
▁pos	-554
▁rati	-555
▁surg	-556
4%	-557
-1.	-558
ron	-559
cular	-560
▁(95%	-561
▁confidence	-562
▁benefit	-563
ib	-564
rim	-565
atin	-566
atistic	-567
ici	-568
▁ta	-569
lind	-570
▁can	-571
▁both	-572
▁among	-573
▁antib	-574
▁sensi	-575
ass	-576
ath	-577
▁use	-578
owever	-579
▁statistic	-580
▁sp	-581
ormal	-582
▁spec	-583
▁higher	-584
▁included	-585
▁demonstrated	-586
3%	-587
CI	-588
inal	-589
roid	-590
▁par	-591
▁lower	-592
9%	-593
▁k	-594
▁RCT	-595
▁mean	-596
▁meas	-597
▁small	-598
erg	-599
▁ob	-600
ither	-601
▁also	-602
▁daily	-603
▁press	-604
▁total	-605
.00	-606
ency	-607
▁less	-608
▁intervention	-609
=1	-610
],	-611
oun	-612
azol	-613
▁sim	-614
▁without	-615
▁prospective	-616
2%	-617
▁def	-618
iotic	-619
urren	-620
rh	-621
ens	-622
enti	-623
▁mod	-624
▁und	-625
▁ratio	-626
ulation	-627
▁evidence	-628
▁pressure	-629
NNT	-630
▁tr	-631
line	-632
▁min	-633
▁care	-634
▁effects	-635
▁U	-636
eli	-637
och	-638
tin	-639
eart	-640
etes	-641
yroid	-642
▁pred	-643
▁used	-644
▁improve	-645
ill	-646
▁ar	-647
ould	-648
ures	-649
▁val	-650
▁card	-651
▁case	-652
1%	-653
ges	-654
vascular	-655
acy	-656
rel	-657
ting	-658
▁men	-659
azole	-660
▁RCTs	-661
▁phys	-662
oid	-663
▁en	-664
irst	-665
term	-666
very	-667
epres	-668
▁decreased	-669
3.	-670
ogr	-671
▁cr	-672
eral	-673
▁man	-674
ition	-675
▁This	-676
▁long	-677
▁number	-678
▁screen	-679
▁associated	-680
ex	-681
cur	-682
oph	-683
tis	-684
▁medic	-685
trospective	-686
▁W	-687
ased	-688
▁diab	-689
▁heal	-690
▁first	-691
▁retrospective	-692
ha	-693
eri	-694
ome	-695
▁2.	-696
gest	-697
rane	-698
atory	-699
▁results	-700
▁antibiotic	-701
cer	-702
ium	-703
ord	-704
ple	-705
ves	-706
▁has	-707
▁ins	-708
▁int	-709
econd	-710
contro	-711
▁compar	-712
▁either	-713
▁positive	-714
mon	-715
▁dr	-716
ilar	-717
ital	-718
▁sco	-719
▁Coch	-720
▁infants	-721
▁Cochrane	-722
1).	-723
jec	-724
▁cl	-725
▁dat	-726
▁been	-727
▁predic	-728
▁treated	-729
▁outcomes	-730
▁infection	-731
▁>	-732
erm	-733
▁19	-734
▁may	-735
▁their	-736
▁received	-737
▁200	-738
▁cal	-739
▁lar	-740
ercis	-741
▁post	-742
▁alone	-743
▁heart	-744
unction	-745
▁specific	-746
cop	-747
ases	-748
havi	-749
▁oral	-750
▁effic	-751
▁scores	-752
▁statistically	-753
=1.	-754
ack	-755
pos	-756
▁gl	-757
▁ma	-758
▁ro	-759
oles	-760
blind	-761
▁exercis	-762
▁reduced	-763
▁analysis	-764
OR	-765
ug	-766
ich	-767
old	-768
ered	-769
▁prim	-770
▁compl	-771
atients	-772
▁second	-773
▁patient	-774
▁hyperten	-775
▁sensitivity	-776
art	-777
nal	-778
▁pl	-779
atal	-780
▁most	-781
▁resp	-782
▁when	-783
andard	-784
▁There	-785
ination	-786
▁duration	-787
▁recurren	-788
erv	-789
omm	-790
▁es	-791
▁id	-792
▁suc	-793
▁sug	-794
▁data	-795
▁weight	-796
▁similar	-797
▁diabetes	-798
▁exercise	-799
▁evaluated	-800
sy	-801
ub	-802
ces	-803
▁(1	-804
▁oc	-805
▁fail	-806
▁great	-807
▁using	-808
▁incidence	-809
ric	-810
vid	-811
▁fre	-812
▁reg	-813
eding	-814
▁events	-815
osp	-816
▁dos	-817
▁ref	-818
entif	-819
ograp	-820
ommend	-821
▁assess	-822
▁15	-823
▁ear	-824
ments	-825
▁calc	-826
▁taking	-827
▁primary	-828
▁standard	-829
▁recommend	-830
▁screening	-831
ok	-832
▁"	-833
rop	-834
cent	-835
form	-836
▁dou	-837
▁time	-838
havior	-839
▁which	-840
ational	-841
▁cardio	-842
▁diagnos	-843
lu	-844
ale	-845
rac	-846
▁No	-847
▁St	-848
▁sam	-849
▁health	-850
▁surgery	-851
▁efficacy	-852
▁improvement	-853
me	-854
yl	-855
ish	-856
ism	-857
oin	-858
▁op	-859
<.00	-860
itis	-861
reast	-862
▁aged	-863
▁sing	-864
▁However	-865
▁Patients	-866
▁cardiovascular	-867
4.	-868
5.	-869
gn	-870
▁y	-871
▁11	-872
orrh	-873
gative	-874
▁under	-875
▁includ	-876
▁partic	-877
▁subjec	-878
▁identif	-879
▁increase	-880
▁concluded	-881
af	-882
▁bi	-883
▁mm	-884
tain	-885
onary	-886
verse	-887
▁single	-888
med	-889
imit	-890
ious	-891
port	-892
▁add	-893
▁head	-894
▁stro	-895
iter	-896
olic	-897
▁diet	-898
arin	-899
tein	-900
vent	-901
▁100	-902
▁bec	-903
▁siz	-904
tensive	-905
▁hypertension	-906
qui	-907
▁20	-908
▁3.	-909
leep	-910
▁few	-911
▁gen	-912
▁str	-913
▁dose	-914
▁drug	-915
▁hist	-916
▁horm	-917
▁show	-918
▁acute	-919
▁initi	-920
▁large	-921
▁double	-922
▁greater	-923
▁hormone	-924
▁coronary	-925
ds	-926
ea	-927
=.0	-928
gen	-929
ness	-930
ours	-931
▁sel	-932
ensity	-933
▁cases	-934
▁frequ	-935
▁breast	-936
▁during	-937
5).	-938
<.0	-939
ite	-940
ral	-941
ancy	-942
▁pop	-943
▁sleep	-944
▁decrease	-945
▁improved	-946
-1	-947
tra	-948
ange	-949
▁any	-950
▁inh	-951
▁rem	-952
erate	-953
treat	-954
▁exam	-955
though	-956
verage	-957
▁limit	-958
▁there	-959
ography	-960
▁normal	-961
▁stroke	-962
▁negative	-963
ile	-964
ind	-965
iven	-966
▁col	-967
velop	-968
▁early	-969
▁least	-970
▁pregn	-971
havioral	-972
▁develop	-973
▁thyroid	-974
▁followed	-975
▁function	-976
=2	-977
uth	-978
▁(2	-979
kely	-980
ycin	-981
▁typ	-982
action	-983
▁hours	-984
ospital	-985
▁cancer	-986
▁disord	-987
otherapy	-988
▁adverse	-989
▁diagnosis	-990
mun	-991
▁tw	-992
rans	-993
ress	-994
▁day	-995
acter	-996
timul	-997
▁meth	-998
▁adults	-999
▁failure	-1000
▁antibiotics	-1001
▁G	-1002
jor	-1003
pir	-1004
ulf	-1005
ycl	-1006
▁24	-1007
erior	-1008
▁fact	-1009
▁gluc	-1010
▁death	-1011
▁likely	-1012
▁overall	-1013
▁particip	-1014
7.	-1015
▁<	-1016
oss	-1017
ram	-1018
▁ur	-1019
athy	-1020
copy	-1021
orts	-1022
▁abs	-1023
▁hem	-1024
ately	-1025
▁prop	-1026
▁occur	-1027
ization	-1028
▁recent	-1029
▁headach	-1030
▁hospital	-1031
▁combination	-1032
ms	-1033
cep	-1034
ife	-1035
ogn	-1036
▁el	-1037
fore	-1038
▁lip	-1039
▁mul	-1040
▁tes	-1041
▁vag	-1042
ility	-1043
other	-1044
▁given	-1045
▁major	-1046
▁medication	-1047
▁differences	-1048
7;	-1049
av	-1050
ced	-1051
lam	-1052
▁18	-1053
▁fr	-1054
▁ir	-1055
hood	-1056
▁ble	-1057
ician	-1058
terol	-1059
▁auth	-1060
▁loss	-1061
▁prog	-1062
▁size	-1063
▁well	-1064
▁subjects	-1065
▁participants	-1066
50	-1067
6.	-1068
lev	-1069
vol	-1070
ffec	-1071
poin	-1072
ulin	-1073
▁car	-1074
▁exp	-1075
oking	-1076
▁based	-1077
▁because	-1078
▁density	-1079
▁prevent	-1080
controlled	-1081
▁different	-1082
co	-1083
ie	-1084
ake	-1085
ety	-1086
ody	-1087
thm	-1088
uri	-1089
▁14	-1090
▁ep	-1091
risk	-1092
▁hep	-1093
▁les	-1094
▁base	-1095
▁find	-1096
▁appro	-1097
▁fewer	-1098
▁indic	-1099
▁lesion	-1100
ognitive	-1101
▁history	-1102
▁suggest	-1103
epression	-1104
▁bleeding	-1105
▁moderate	-1106
4;	-1107
5)	-1108
ene	-1109
ive	-1110
tig	-1111
xim	-1112
▁30	-1113
▁adm	-1114
▁des	-1115
▁tre	-1116
▁prot	-1117
▁detec	-1118
▁times	-1119
astatin	-1120
ological	-1121
▁authors	-1122
▁outcome	-1123
▁perform	-1124
pectively	-1125
▁disorder	-1126
▁physical	-1127
▁relative	-1128
▁specificity	-1129
to	-1130
4).	-1131
cet	-1132
ech	-1133
jus	-1134
▁Al	-1135
irth	-1136
opro	-1137
ured	-1138
▁abn	-1139
▁new	-1140
▁var	-1141
▁average	-1142
▁baseline	-1143
▁respectively	-1144
ai	-1145
pt	-1146
oma	-1147
▁em	-1148
tens	-1149
vere	-1150
▁lab	-1151
▁one	-1152
▁red	-1153
ology	-1154
ronic	-1155
▁coun	-1156
▁deli	-1157
▁self	-1158
▁sulf	-1159
▁birth	-1160
▁score	-1161
▁twice	-1162
▁series	-1163
▁statin	-1164
▁within	-1165
▁present	-1166
▁quality	-1167
olesterol	-1168
▁population	-1169
▁interventions	-1170
-2	-1171
dL	-1172
ob	-1173
ete	-1174
orb	-1175
ros	-1176
uce	-1177
▁13	-1178
▁av	-1179
tinu	-1180
usion	-1181
▁such	-1182
▁they	-1183
▁trans	-1184
▁criter	-1185
▁respon	-1186
▁chronic	-1187
▁superior	-1188
▁cognitive	-1189
▁comparing	-1190
▁including	-1191
1;	-1192
000	-1193
ons	-1194
▁(4	-1195
▁4.	-1196
▁At	-1197
dose	-1198
neum	-1199
earch	-1200
inary	-1201
vestig	-1202
▁doses	-1203
▁invol	-1204
▁insulin	-1205
▁combined	-1206
▁receiving	-1207
▁identified	-1208
of	-1209
▁5.	-1210
▁ed	-1211
itor	-1212
keli	-1213
▁app	-1214
▁dep	-1215
▁exc	-1216
▁inj	-1217
enter	-1218
igned	-1219
ities	-1220
▁biop	-1221
▁type	-1222
cision	-1223
▁fract	-1224
▁pneum	-1225
▁renal	-1226
▁value	-1227
▁bacter	-1228
kelihood	-1229
▁testing	-1230
▁pregnancy	-1231
ell	-1232
hen	-1233
▁(3	-1234
▁16	-1235
▁my	-1236
aren	-1237
eous	-1238
uria	-1239
▁NNT	-1240
▁acet	-1241
▁cult	-1242
▁elev	-1243
tention	-1244
valence	-1245
▁before	-1246
▁intake	-1247
▁reduce	-1248
▁studied	-1249
▁headache	-1250
▁surgical	-1251
2;	-1252
ID	-1253
ov	-1254
abl	-1255
lax	-1256
ock	-1257
ool	-1258
ree	-1259
▁if	-1260
onia	-1261
▁0.2	-1262
▁flu	-1263
▁sus	-1264
▁war	-1265
▁Stud	-1266
▁anal	-1267
▁cure	-1268
stimul	-1269
▁aspir	-1270
▁serum	-1271
▁hypoth	-1272
▁longer	-1273
▁hemorrh	-1274
▁percent	-1275
stimulating	-1276
▁likelihood	-1277
▁predictive	-1278
1)	-1279
DL	-1280
]=	-1281
ix	-1282
-2.	-1283
▁Am	-1284
▁Tw	-1285
▁do	-1286
eter	-1287
icil	-1288
▁50%	-1289
▁ang	-1290
▁mic	-1291
▁obs	-1292
sions	-1293
▁plus	-1294
▁side	-1295
▁index	-1296
▁tests	-1297
icillin	-1298
▁however	-1299
▁medical	-1300
▁abnormal	-1301
▁response	-1302
▁frequency	-1303
▁performed	-1304
▁behavioral	-1305
▁evaluation	-1306
▁prevalence	-1307
▁cholesterol	-1308
SA	-1309
ct	-1310
ra	-1311
ues	-1312
▁(5	-1313
▁40	-1314
▁sy	-1315
▁ul	-1316
lder	-1317
tomy	-1318
▁off	-1319
aging	-1320
amine	-1321
duced	-1322
▁life	-1323
aneous	-1324
▁about	-1325
▁class	-1326
blinded	-1327
itional	-1328
romycin	-1329
▁common	-1330
ications	-1331
relative	-1332
▁calcium	-1333
▁initial	-1334
▁smoking	-1335
▁asymptom	-1336
▁measured	-1337
▁depression	-1338
▁recurrence	-1339
▁asymptomatic	-1340
3;	-1341
5;	-1342
6).	-1343
ade	-1344
arm	-1345
cle	-1346
day	-1347
its	-1348
sis	-1349
▁(7	-1350
▁(8	-1351
▁It	-1352
ateg	-1353
ater	-1354
emia	-1355
ivid	-1356
▁0.7	-1357
▁1.1	-1358
eryth	-1359
orbid	-1360
ution	-1361
▁form	-1362
istent	-1363
tained	-1364
▁labor	-1365
ability	-1366
▁prophy	-1367
▁severe	-1368
▁should	-1369
▁urinary	-1370
▁criteria	-1371
▁investig	-1372
ry	-1373
▁=	-1374
▁j	-1375
3).	-1376
ang	-1377
cin	-1378
nea	-1379
ork	-1380
▁US	-1381
cess	-1382
ists	-1383
▁0.4	-1384
▁0.5	-1385
farin	-1386
group	-1387
ocard	-1388
▁elec	-1389
▁mild	-1390
▁neon	-1391
▁nons	-1392
▁pers	-1393
aining	-1394
▁estim	-1395
▁immun	-1396
▁would	-1397
agement	-1398
control	-1399
ividual	-1400
ression	-1401
▁better	-1402
▁biopsy	-1403
▁method	-1404
oprotein	-1405
▁general	-1406
▁measure	-1407
▁delivery	-1408
▁occurred	-1409
▁bacterial	-1410
▁recurrent	-1411
▁recommended	-1412
6;	-1413
8)	-1414
9.	-1415
yt	-1416
7).	-1417
rib	-1418
▁(6	-1419
▁Hg	-1420
▁lo	-1421
▁up	-1422
]=0.	-1423
aled	-1424
emic	-1425
mean	-1426
rome	-1427
▁top	-1428
▁ver	-1429
ished	-1430
ophen	-1431
▁bone	-1432
▁cost	-1433
▁main	-1434
▁poly	-1435
epress	-1436
itamin	-1437
▁eryth	-1438
▁inhib	-1439
▁noted	-1440
▁requi	-1441
▁confir	-1442
▁defined	-1443
▁glucose	-1444
▁limited	-1445
aminophen	-1446
▁assessed	-1447
▁controls	-1448
▁neonatal	-1449
▁warfarin	-1450
10	-1451
60	-1452
8;	-1453
ni	-1454
▁V	-1455
cal	-1456
ger	-1457
▁17	-1458
▁50	-1459
▁6.	-1460
ings	-1461
isod	-1462
utes	-1463
▁For	-1464
▁pul	-1465
▁vis	-1466
▁whe	-1467
based	-1468
ffici	-1469
▁caus	-1470
▁diar	-1471
oscopy	-1472
ration	-1473
▁range	-1474
ication	-1475
▁agents	-1476
▁determ	-1477
▁episod	-1478
▁therap	-1479
▁breastf	-1480
▁hypothyroid	-1481
NH	-1482
=2.	-1483
ret	-1484
til	-1485
▁LR	-1486
=.00	-1487
enop	-1488
medi	-1489
week	-1490
▁0.0	-1491
▁All	-1492
▁Com	-1493
▁dys	-1494
▁fam	-1495
▁sol	-1496
▁youn	-1497
estion	-1498
number	-1499
ologic	-1500
▁After	-1501
▁adjus	-1502
▁asthm	-1503
▁throm	-1504
▁trend	-1505
arction	-1506
onazole	-1507
ticular	-1508
▁lesions	-1509
▁excision	-1510
▁treatments	-1511
▁association	-1512
▁lipoprotein	-1513
12	-1514
PD	-1515
yd	-1516
ema	-1517
rox	-1518
,000	-1519
lamm	-1520
ococ	-1521
omet	-1522
▁1.0	-1523
▁saf	-1524
inist	-1525
▁body	-1526
▁educ	-1527
▁enro	-1528
▁iron	-1529
▁peri	-1530
▁seen	-1531
▁synd	-1532
erence	-1533
▁accur	-1534
▁diver	-1535
depress	-1536
idazole	-1537
▁provid	-1538
▁factors	-1539
▁topical	-1540
▁activity	-1541
▁intensive	-1542
▁pneumonia	-1543
▁individual	-1544
▁management	-1545
▁acetaminophen	-1546
8.	-1547
9;	-1548
8).	-1549
iaz	-1550
now	-1551
tus	-1552
ubl	-1553
ule	-1554
▁1%	-1555
▁25	-1556
-0.9	-1557
oids	-1558
▁10%	-1559
quent	-1560
struc	-1561
ually	-1562
▁cell	-1563
▁each	-1564
▁mass	-1565
▁reli	-1566
▁tech	-1567
▁Study	-1568
▁cause	-1569
related	-1570
▁examin	-1571
▁remain	-1572
▁result	-1573
ocardial	-1574
vastatin	-1575
▁aspirin	-1576
▁preterm	-1577
▁vaginal	-1578
▁vitamin	-1579
▁question	-1580
▁reaction	-1581
▁diagnostic	-1582
▁infarction	-1583
▁medications	-1584
▁hypothyroidism	-1585
80	-1586
zy	-1587
9).	-1588
erb	-1589
ian	-1590
nai	-1591
▁Of	-1592
iber	-1593
odds	-1594
rhea	-1595
sych	-1596
umin	-1597
▁10-	-1598
▁20%	-1599
▁Two	-1600
▁adv	-1601
▁its	-1602
▁ses	-1603
▁tol	-1604
ritis	-1605
▁back	-1606
ically	-1607
▁contr	-1608
▁cough	-1609
▁intra	-1610
▁paren	-1611
▁scale	-1612
▁short	-1613
▁white	-1614
ailable	-1615
▁period	-1616
▁underw	-1617
earchers	-1618
▁healthy	-1619
▁serious	-1620
lammatory	-1621
▁Although	-1622
▁diarrhea	-1623
▁reducing	-1624
▁syndrome	-1625
ronidazole	-1626
▁developed	-1627
▁physician	-1628
▁clinically	-1629
9)	-1630
arg	-1631
dds	-1632
ful	-1633
orn	-1634
urg	-1635
▁5-	-1636
▁Ch	-1637
ages	-1638
asal	-1639
eric	-1640
ream	-1641
tras	-1642
▁0.6	-1643
▁due	-1644
▁hal	-1645
▁mal	-1646
▁ven	-1647
astro	-1648
ausal	-1649
bumin	-1650
oster	-1651
tenti	-1652
▁beta	-1653
▁home	-1654
▁prac	-1655
▁rest	-1656
▁same	-1657
▁some	-1658
▁tend	-1659
erican	-1660
tussis	-1661
▁tract	-1662
▁while	-1663
▁asthma	-1664
▁consid	-1665
▁continu	-1666
▁electro	-1667
▁endpoin	-1668
mentation	-1669
▁although	-1670
▁examined	-1671
▁available	-1672
▁prophylax	-1673
▁underwent	-1674
▁prevention	-1675
1,	-1676
bl	-1677
2).	-1678
eth	-1679
int	-1680
lor	-1681
opp	-1682
par	-1683
sel	-1684
ste	-1685
▁27	-1686
niqu	-1687
uter	-1688
ward	-1689
▁gel	-1690
▁gly	-1691
▁tri	-1692
ified	-1693
olute	-1694
vival	-1695
▁cont	-1696
▁odds	-1697
▁publ	-1698
▁ster	-1699
pected	-1700
▁These	-1701
▁blind	-1702
▁event	-1703
▁media	-1704
▁resol	-1705
▁sever	-1706
sequent	-1707
▁adoles	-1708
▁ultras	-1709
▁imaging	-1710
▁minutes	-1711
▁potenti	-1712
▁statins	-1713
▁benefits	-1714
▁complete	-1715
▁measures	-1716
▁techniqu	-1717
▁involving	-1718
▁myocardial	-1719
▁antidepress	-1720
▁prophylaxis	-1721
▁statistical	-1722
▁metronidazole	-1723
4)	-1724
ph	-1725
ty	-1726
air	-1727
def	-1728
hyd	-1729
low	-1730
vic	-1731
▁IU	-1732
▁gu	-1733
SAID	-1734
acin	-1735
anti	-1736
etic	-1737
▁-0.	-1738
▁199	-1739
▁rad	-1740
▁set	-1741
▁vir	-1742
anges	-1743
ature	-1744
ption	-1745
▁appl	-1746
▁cros	-1747
▁gain	-1748
▁half	-1749
tracep	-1750
weight	-1751
▁cream	-1752
▁expos	-1753
▁fiber	-1754
▁micro	-1755
treated	-1756
▁gastro	-1757
▁morbid	-1758
▁regard	-1759
fficient	-1760
lacement	-1761
ximately	-1762
▁mineral	-1763
▁monitor	-1764
▁reports	-1765
▁strateg	-1766
▁whether	-1767
enopausal	-1768
▁assigned	-1769
▁elevated	-1770
▁sessions	-1771
▁training	-1772
▁confirmed	-1773
▁contracep	-1774
▁pertussis	-1775
▁complications	-1776
3)	-1777
40	-1778
EV	-1779
▁-	-1780
acc	-1781
eph	-1782
hyp	-1783
inc	-1784
inf	-1785
iss	-1786
per	-1787
set	-1788
tur	-1789
uch	-1790
upt	-1791
▁22	-1792
▁CO	-1793
aged	-1794
hold	-1795
ited	-1796
tics	-1797
▁0.8	-1798
▁LDL	-1799
▁Res	-1800
▁imp	-1801
▁neu	-1802
ision	-1803
naire	-1804
sible	-1805
titis	-1806
▁cycl	-1807
▁isch	-1808
▁pool	-1809
▁poor	-1810
▁supp	-1811
ective	-1812
veness	-1813
▁antic	-1814
▁drugs	-1815
▁emerg	-1816
▁stopp	-1817
ervical	-1818
linical	-1819
quality	-1820
tensity	-1821
▁formul	-1822
▁multic	-1823
▁observ	-1824
▁toward	-1825
▁Another	-1826
▁dietary	-1827
▁increas	-1828
▁obstruc	-1829
▁receive	-1830
▁support	-1831
▁American	-1832
▁administ	-1833
▁multicenter	-1834
30	-1835
ak	-1836
bul	-1837
cem	-1838
eld	-1839
hie	-1840
lay	-1841
▁28	-1842
▁1.5	-1843
▁Pre	-1844
azone	-1845
▁They	-1846
▁prob	-1847
dition	-1848
eeding	-1849
▁NSAID	-1850
▁achie	-1851
▁cardi	-1852
▁diast	-1853
▁older	-1854
▁refer	-1855
▁shown	-1856
▁allerg	-1857
▁experi	-1858
▁pooled	-1859
▁sample	-1860
▁thromb	-1861
tiveness	-1862
▁counsel	-1863
▁culture	-1864
▁endomet	-1865
▁success	-1866
▁contrast	-1867
▁enrolled	-1868
▁subgroup	-1869
▁survival	-1870
menopausal	-1871
▁diastolic	-1872
▁education	-1873
▁fractures	-1874
▁injection	-1875
▁secondary	-1876
▁monitoring	-1877
▁replacement	-1878
MD	-1879
bA	-1880
he	-1881
arr	-1882
ets	-1883
ids	-1884
lit	-1885
lox	-1886
rou	-1887
umb	-1888
wal	-1889
▁5%	-1890
▁7.	-1891
▁On	-1892
▁Sc	-1893
enic	-1894
etal	-1895
ield	-1896
ixed	-1897
nown	-1898
ocal	-1899
ript	-1900
▁0.1	-1901
▁0.9	-1902
▁acc	-1903
▁ann	-1904
▁att	-1905
▁cry	-1906
▁kne	-1907
artum	-1908
month	-1909
ronch	-1910
ticul	-1911
▁When	-1912
▁harm	-1913
▁into	-1914
▁thir	-1915
cinoma	-1916
urther	-1917
▁affec	-1918
▁again	-1919
▁apnea	-1920
▁stage	-1921
▁surve	-1922
▁toler	-1923
▁withd	-1924
loxacin	-1925
mediate	-1926
▁calcul	-1927
▁clinic	-1928
▁safety	-1929
▁supple	-1930
litazone	-1931
▁inhibit	-1932
▁various	-1933
▁findings	-1934
▁reviewed	-1935
▁emergency	-1936
▁morbidity	-1937
▁published	-1938
▁hemorrhage	-1939
▁symptomatic	-1940
▁approximately	-1941
-9	-1942
26	-1943
7)	-1944
yz	-1945
NNH	-1946
rol	-1947
ury	-1948
▁2-	-1949
▁Un	-1950
]=1.	-1951
ably	-1952
bral	-1953
ecox	-1954
ines	-1955
ints	-1956
ovir	-1957
pect	-1958
tern	-1959
▁0.3	-1960
▁FEV	-1961
▁fib	-1962
▁occ	-1963
▁sex	-1964
ators	-1965
effec	-1966
ulted	-1967
▁cere	-1968
▁equi	-1969
▁fall	-1970
▁food	-1971
▁good	-1972
▁insu	-1973
▁look	-1974
▁rupt	-1975
▁spon	-1976
▁vacc	-1977
▁work	-1978
ecoxib	-1979
inosis	-1980
lusion	-1981
▁arter	-1982
▁could	-1983
▁every	-1984
▁model	-1985
▁multi	-1986
▁signs	-1987
▁yield	-1988
ressive	-1989
ropathy	-1990
▁change	-1991
▁depart	-1992
▁office	-1993
▁otitis	-1994
▁sulfon	-1995
▁tested	-1996
▁venous	-1997
▁changes	-1998
▁program	-1999
▁setting	-2000
▁younger	-2001
treatment	-2002
ventional	-2003
▁absolute	-2004
▁adjusted	-2005
▁frequent	-2006
▁resulted	-2007
▁treating	-2008
▁attention	-2009
▁estimated	-2010
▁vaginosis	-2011
▁considered	-2012
▁counseling	-2013
▁infections	-2014
▁inhibitors	-2015
▁ultrasound	-2016
▁examination	-2017
▁significance	-2018
=.	-2019
LR	-2020
li	-2021
-3.	-2022
ace	-2023
aro	-2024
ave	-2025
gly	-2026
iph	-2027
uto	-2028
▁21	-2029
▁6-	-2030
▁80	-2031
▁Ne	-2032
▁ec	-2033
▁gr	-2034
▁kg	-2035
▁sk	-2036
bove	-2037
elan	-2038
ince	-2039
ised	-2040
sing	-2041
ties	-2042
tivi	-2043
▁1.3	-2044
▁150	-2045
▁ces	-2046
▁equ	-2047
▁ill	-2048
▁pri	-2049
▁vol	-2050
<.000	-2051
arean	-2052
compl	-2053
enced	-2054
epend	-2055
vious	-2056
▁lead	-2057
▁male	-2058
▁open	-2059
▁term	-2060
▁very	-2061
<.05).	-2062
atitis	-2063
ission	-2064
luding	-2065
ockers	-2066
opathy	-2067
vement	-2068
▁above	-2069
▁creat	-2070
▁diure	-2071
▁regim	-2072
▁spont	-2073
▁third	-2074
ococcal	-2075
▁NSAIDs	-2076
▁resist	-2077
▁sugges	-2078
ticoster	-2079
▁adolesc	-2080
▁another	-2081
▁blinded	-2082
▁equival	-2083
▁illness	-2084
▁cervical	-2085
▁cesarean	-2086
▁comparis	-2087
▁exposure	-2088
ensitivity	-2089
ithromycin	-2090
▁condition	-2091
▁diagnosed	-2092
▁endpoints	-2093
▁following	-2094
▁additional	-2095
▁department	-2096
▁subsequent	-2097
▁cryotherapy	-2098
▁endometrial	-2099
▁spontaneous	-2100
);	-2101
90	-2102
CA	-2103
ax	-2104
eg	-2105
amp	-2106
ecu	-2107
gth	-2108
hol	-2109
ise	-2110
lex	-2111
the	-2112
▁35	-2113
▁60	-2114
▁8.	-2115
▁IV	-2116
▁Ig	-2117
▁ox	-2118
ator	-2119
atus	-2120
less	-2121
ones	-2122
zyme	-2123
▁1.2	-2124
▁1.4	-2125
▁90%	-2126
▁HbA	-2127
▁hip	-2128
▁mus	-2129
▁nec	-2130
hyper	-2131
icial	-2132
odium	-2133
okers	-2134
ourse	-2135
▁Only	-2136
▁does	-2137
▁gest	-2138
▁outp	-2139
▁subc	-2140
▁took	-2141
asting	-2142
iotens	-2143
report	-2144
▁ambul	-2145
▁fetal	-2146
▁heter	-2147
▁minim	-2148
▁onset	-2149
▁reach	-2150
▁where	-2151
▁wound	-2152
<.001).	-2153
defined	-2154
ecutive	-2155
thritis	-2156
ulative	-2157
▁discon	-2158
▁import	-2159
ependent	-2160
iotensin	-2161
▁against	-2162
▁cardiac	-2163
▁protein	-2164
▁withdra	-2165
oxicillin	-2166
▁identify	-2167
▁ischemic	-2168
▁presence	-2169
▁previous	-2170
▁required	-2171
▁suggests	-2172
ephropathy	-2173
▁indicated	-2174
▁suspected	-2175
▁diverticul	-2176
▁evaluating	-2177
▁preventing	-2178
▁consecutive	-2179
▁conventional	-2180
▁contraceptive	-2181
▁effectiveness	-2182
▁questionnaire	-2183
▁postmenopausal	-2184
-3	-2185
-8	-2186
SR	-2187
be	-2188
▁x	-2189
ann	-2190
ark	-2191
asm	-2192
eal	-2193
emb	-2194
ias	-2195
ick	-2196
iop	-2197
isc	-2198
omn	-2199
rof	-2200
ung	-2201
▁2%	-2202
▁29	-2203
▁3-	-2204
▁48	-2205
▁55	-2206
▁90	-2207
▁Ad	-2208
▁et	-2209
▁go	-2210
▁pe	-2211
crib	-2212
oper	-2213
test	-2214
turn	-2215
yzed	-2216
▁60%	-2217
▁cap	-2218
▁est	-2219
▁fat	-2220
▁fav	-2221
▁tak	-2222
amide	-2223
ected	-2224
esity	-2225
ester	-2226
etine	-2227
point	-2228
quate	-2229
utine	-2230
▁Both	-2231
▁acid	-2232
▁once	-2233
▁tabl	-2234
▁take	-2235
▁then	-2236
ectomy	-2237
iction	-2238
monary	-2239
strual	-2240
trogen	-2241
▁liver	-2242
▁often	-2243
▁prior	-2244
▁psych	-2245
duction	-2246
iciency	-2247
yclovir	-2248
▁annual	-2249
▁bronch	-2250
▁causes	-2251
▁family	-2252
▁infant	-2253
▁return	-2254
▁healing	-2255
▁heparin	-2256
▁include	-2257
▁routine	-2258
andomized	-2259
buminuria	-2260
▁analyzed	-2261
▁episodes	-2262
▁excluded	-2263
▁fracture	-2264
▁provided	-2265
▁breastfed	-2266
▁potential	-2267
▁pulmonary	-2268
▁ambulatory	-2269
▁equivalent	-2270
▁presenting	-2271
▁techniques	-2272
▁withdrawal	-2273
hypertensive	-2274
20	-2275
=9	-2276
HD	-2277
yn	-2278
5%)	-2279
der	-2280
for	-2281
irc	-2282
itt	-2283
not	-2284
ray	-2285
ril	-2286
rog	-2287
▁As	-2288
▁PC	-2289
▁RR	-2290
▁py	-2291
icit	-2292
ored	-2293
ples	-2294
spec	-2295
▁30%	-2296
▁40%	-2297
▁88%	-2298
▁adh	-2299
▁agg	-2300
▁arm	-2301
▁emp	-2302
▁leg	-2303
▁mil	-2304
▁nod	-2305
▁sch	-2306
▁tom	-2307
ageal	-2308
artan	-2309
ogram	-2310
olism	-2311
▁100%	-2312
▁alco	-2313
▁drop	-2314
▁hous	-2315
▁lack	-2316
▁radi	-2317
▁reco	-2318
▁reve	-2319
orrhea	-2320
urrent	-2321
ycline	-2322
ypical	-2323
▁colle	-2324
▁esoph	-2325
▁lipid	-2326
▁melan	-2327
▁nasal	-2328
▁valid	-2329
ificant	-2330
▁appear	-2331
▁conduc	-2332
▁factor	-2333
▁looked	-2334
▁practi	-2335
▁proble	-2336
▁relief	-2337
▁respir	-2338
▁status	-2339
function	-2340
tivities	-2341
▁absence	-2342
▁inhaled	-2343
▁predict	-2344
▁rupture	-2345
▁computer	-2346
▁severity	-2347
ignificant	-2348
randomized	-2349
▁detection	-2350
▁endoscopy	-2351
▁reactions	-2352
▁therapies	-2353
albuminuria	-2354
▁functional	-2355
▁tomography	-2356
▁adolescents	-2357
▁amoxicillin	-2358
▁nephropathy	-2359
▁researchers	-2360
▁investigated	-2361
▁observational	-2362
▁antidepressants	-2363
-6	-2364
-7	-2365
2)	-2366
mL	-2367
als	-2368
ans	-2369
col	-2370
ern	-2371
icl	-2372
▁23	-2373
▁II	-2374
▁OR	-2375
▁fe	-2376
▁mo	-2377
-0.7	-2378
-1.0	-2379
asty	-2380
ding	-2381
iety	-2382
otic	-2383
rect	-2384
rept	-2385
resp	-2386
ural	-2387
▁gon	-2388
▁lat	-2389
▁tet	-2390
atisf	-2391
cause	-2392
ethyl	-2393
iting	-2394
▁Most	-2395
▁Over	-2396
▁circ	-2397
▁intr	-2398
▁knee	-2399
▁oste	-2400
▁part	-2401
▁rare	-2402
▁rule	-2403
aginal	-2404
cribed	-2405
icated	-2406
ortion	-2407
ressed	-2408
tility	-2409
▁Other	-2410
▁Women	-2411
▁count	-2412
▁house	-2413
▁virus	-2414
aternal	-2415
induced	-2416
itation	-2417
▁artery	-2418
▁commun	-2419
▁points	-2420
▁satisf	-2421
▁strong	-2422
▁tetrac	-2423
▁underg	-2424
▁weekly	-2425
activity	-2426
reported	-2427
utaneous	-2428
▁concern	-2429
▁formula	-2430
▁highest	-2431
▁yielded	-2432
▁accuracy	-2433
▁atypical	-2434
▁cultures	-2435
▁detected	-2436
▁revealed	-2437
behavioral	-2438
▁detecting	-2439
▁important	-2440
▁sensitive	-2441
▁suggested	-2442
▁consistent	-2443
▁discontinu	-2444
▁recommends	-2445
▁resolution	-2446
▁dysfunction	-2447
▁probability	-2448
▁respiratory	-2449
▁tetracycline	-2450
▁administration	-2451
▁supplementation	-2452
24	-2453
6)	-2454
6,	-2455
=3	-2456
Cs	-2457
Is	-2458
PV	-2459
eu	-2460
ez	-2461
sc	-2462
7),	-2463
8%)	-2464
8),	-2465
]=1	-2466
cri	-2467
iat	-2468
ify	-2469
lab	-2470
lux	-2471
tit	-2472
▁26	-2473
▁42	-2474
▁70	-2475
▁Ex	-2476
▁Re	-2477
▁er	-2478
▁ov	-2479
▁pi	-2480
▁sw	-2481
▁ve	-2482
-0.8	-2483
agne	-2484
atch	-2485
oing	-2486
omas	-2487
ople	-2488
tile	-2489
time	-2490
ules	-2491
▁(1.	-2492
▁1.6	-2493
▁10.	-2494
▁15%	-2495
▁25%	-2496
▁300	-2497
▁80%	-2498
▁act	-2499
▁anx	-2500
▁cle	-2501
▁cur	-2502
▁emb	-2503
▁hel	-2504
▁her	-2505
▁hyd	-2506
▁lev	-2507
▁pan	-2508
▁tub	-2509
afine	-2510
azine	-2511
cemia	-2512
ching	-2513
clear	-2514
ifest	-2515
ipine	-2516
odies	-2517
pared	-2518
stage	-2519
▁COPD	-2520
▁clar	-2521
▁deep	-2522
▁even	-2523
▁many	-2524
▁path	-2525
▁skin	-2526
▁whom	-2527
▁wide	-2528
alyses	-2529
amycin	-2530
formin	-2531
glycer	-2532
onance	-2533
▁Child	-2534
▁cross	-2535
▁defin	-2536
▁delay	-2537
▁hypog	-2538
▁invas	-2539
▁known	-2540
▁manip	-2541
▁physi	-2542
▁spine	-2543
▁units	-2544
▁usual	-2545
agnetic	-2546
oxetine	-2547
poscopy	-2548
section	-2549
▁combin	-2550
▁expect	-2551
▁failed	-2552
▁glycol	-2553
▁people	-2554
▁produc	-2555
▁ratios	-2556
▁reflux	-2557
▁sodium	-2558
▁strept	-2559
▁values	-2560
ervative	-2561
ethylene	-2562
rimester	-2563
▁deficit	-2564
▁episode	-2565
▁methods	-2566
▁progest	-2567
▁respond	-2568
▁stopped	-2569
▁unclear	-2570
agulation	-2571
including	-2572
▁approach	-2573
▁lowering	-2574
▁supports	-2575
▁acyclovir	-2576
▁carcinoma	-2577
▁household	-2578
▁menstrual	-2579
▁resonance	-2580
▁increasing	-2581
▁protection	-2582
▁corticoster	-2583
▁experienced	-2584
▁obstructive	-2585
▁computerized	-2586
▁erythromycin	-2587
▁inflammatory	-2588
▁polyethylene	-2589
▁breastfeeding	-2590
▁clarithromycin	-2591
25	-2592
70	-2593
AB	-2594
DA	-2595
MI	-2596
OA	-2597
kg	-2598
7%,	-2599
dom	-2600
ect	-2601
gan	-2602
mol	-2603
orp	-2604
ull	-2605
▁31	-2606
▁57	-2607
▁65	-2608
▁75	-2609
▁Af	-2610
▁ju	-2611
▁te	-2612
agon	-2613
cell	-2614
cers	-2615
coat	-2616
ecal	-2617
ened	-2618
iric	-2619
ocus	-2620
quam	-2621
ymph	-2622
▁500	-2623
▁75%	-2624
▁Inf	-2625
▁OCs	-2626
▁Sub	-2627
▁len	-2628
▁pel	-2629
▁sal	-2630
▁sep	-2631
▁son	-2632
▁spl	-2633
antib	-2634
erbin	-2635
ergic	-2636
erved	-2637
idine	-2638
inine	-2639
issue	-2640
ooled	-2641
opram	-2642
oring	-2643
oscop	-2644
rogen	-2645
rough	-2646
tical	-2647
▁ages	-2648
▁benz	-2649
▁gold	-2650
▁mark	-2651
▁milk	-2652
▁repe	-2653
▁targ	-2654
▁will	-2655
enzyme	-2656
ograph	-2657
retory	-2658
tebral	-2659
▁Afric	-2660
▁Heart	-2661
▁artic	-2662
▁cells	-2663
▁chlor	-2664
▁clind	-2665
▁famil	-2666
▁fecal	-2667
▁mixed	-2668
▁polys	-2669
▁postp	-2670
▁restr	-2671
▁users	-2672
▁weigh	-2673
ception	-2674
odipine	-2675
osamine	-2676
verting	-2677
▁accoun	-2678
▁advice	-2679
▁circum	-2680
▁conges	-2681
▁correl	-2682
▁course	-2683
▁detect	-2684
▁having	-2685
▁inform	-2686
▁injury	-2687
▁length	-2688
▁lowest	-2689
▁pelvic	-2690
▁proced	-2691
▁visual	-2692
▁anxiety	-2693
▁further	-2694
▁reduces	-2695
▁samples	-2696
▁smokers	-2697
▁steroid	-2698
▁tablets	-2699
ification	-2700
operative	-2701
▁decision	-2702
▁magnetic	-2703
▁produced	-2704
erbinafine	-2705
oglitazone	-2706
▁clinician	-2707
▁determine	-2708
▁immediate	-2709
▁predicted	-2710
▁sustained	-2711
▁Prevention	-2712
▁assessment	-2713
▁calculated	-2714
▁colposcopy	-2715
▁diagnosing	-2716
▁maintained	-2717
▁persistent	-2718
▁reductions	-2719
▁resistance	-2720
▁strategies	-2721
▁thrombosis	-2722
inflammatory	-2723
▁clindamycin	-2724
▁progression	-2725
▁subclinical	-2726
▁sulfonamide	-2727
▁conservative	-2728
▁hypertensive	-2729
▁insufficient	-2730
▁nonrandomized	-2731
▁diverticulitis	-2732
-4	-2733
-5	-2734
2,	-2735
3,	-2736
5,	-2737
=6	-2738
uk	-2739
-5.	-2740
1),	-2741
=3.	-2742
adm	-2743
fer	-2744
ina	-2745
ked	-2746
rav	-2747
rit	-2748
thl	-2749
▁36	-2750
▁54	-2751
▁If	-2752
▁so	-2753
-1.6	-2754
alse	-2755
aryn	-2756
aser	-2757
born	-2758
erec	-2759
eted	-2760
icle	-2761
long	-2762
obal	-2763
olol	-2764
owel	-2765
oxic	-2766
rele	-2767
rill	-2768
teen	-2769
vers	-2770
with	-2771
▁12%	-2772
▁12-	-2773
▁96%	-2774
▁98%	-2775
▁III	-2776
▁Pap	-2777
▁Sim	-2778
▁air	-2779
▁amp	-2780
▁bed	-2781
▁bup	-2782
▁gum	-2783
▁kin	-2784
▁mac	-2785
armac	-2786
asone	-2787
ittle	-2788
lamyd	-2789
ogene	-2790
ripty	-2791
weigh	-2792
yster	-2793
▁Some	-2794
▁athl	-2795
▁cess	-2796
▁char	-2797
▁late	-2798
▁lung	-2799
▁much	-2800
▁none	-2801
▁plac	-2802
▁prof	-2803
▁reas	-2804
▁remo	-2805
▁role	-2806
▁star	-2807
▁swit	-2808
▁unit	-2809
▁weak	-2810
active	-2811
arring	-2812
iazide	-2813
iogram	-2814
isting	-2815
ogenic	-2816
▁Among	-2817
▁avoid	-2818
▁equal	-2819
▁exper	-2820
▁false	-2821
▁focus	-2822
▁hepat	-2823
▁liter	-2824
▁lymph	-2825
▁overt	-2826
▁risks	-2827
▁squam	-2828
▁taken	-2829
ipheral	-2830
ressing	-2831
▁United	-2832
▁active	-2833
▁buprop	-2834
▁cycles	-2835
▁establ	-2836
▁parent	-2837
▁stimul	-2838
▁tissue	-2839
blockers	-2840
ifically	-2841
ogeneity	-2842
ulations	-2843
▁African	-2844
▁decreas	-2845
▁sulfate	-2846
▁uncompl	-2847
riptyline	-2848
▁Children	-2849
▁addition	-2850
▁behavior	-2851
▁creatine	-2852
▁erythema	-2853
▁estrogen	-2854
▁maternal	-2855
▁melanoma	-2856
▁multiple	-2857
▁randomly	-2858
▁referred	-2859
▁squamous	-2860
▁systolic	-2861
converting	-2862
▁cessation	-2863
▁diuretics	-2864
▁intensity	-2865
▁metformin	-2866
▁reference	-2867
▁beneficial	-2868
▁comparable	-2869
▁comparison	-2870
▁congestive	-2871
▁determined	-2872
▁literature	-2873
▁peripheral	-2874
▁protective	-2875
▁angiotensin	-2876
▁glucosamine	-2877
▁improvements	-2878
▁pioglitazone	-2879
▁abnormalities	-2880
▁sensitivities	-2881
▁uncomplicated	-2882
▁hospitalization	-2883
14	-2884
8,	-2885
89	-2886
MS	-2887
NR	-2888
RB	-2889
TS	-2890
aw	-2891
ci	-2892
cl	-2893
di	-2894
-4.	-2895
WMD	-2896
bro	-2897
cus	-2898
min	-2899
ner	-2900
pri	-2901
reg	-2902
tip	-2903
uit	-2904
ume	-2905
use	-2906
wed	-2907
yle	-2908
▁2,	-2909
▁34	-2910
▁38	-2911
▁4-	-2912
▁44	-2913
▁45	-2914
▁47	-2915
▁7%	-2916
▁7-	-2917
▁9.	-2918
▁Ac	-2919
▁Cl	-2920
▁Wh	-2921
▁aw	-2922
▁sl	-2923
▁tu	-2924
-1.9	-2925
=.04	-2926
=0.6	-2927
=2.0	-2928
aily	-2929
arms	-2930
eine	-2931
fold	-2932
icot	-2933
ifen	-2934
ipol	-2935
ogic	-2936
onuc	-2937
rate	-2938
such	-2939
till	-2940
trop	-2941
unct	-2942
▁(0.	-2943
▁(2.	-2944
▁14%	-2945
▁77%	-2946
▁85%	-2947
▁93%	-2948
▁Bec	-2949
▁Nin	-2950
▁SSR	-2951
▁ant	-2952
▁aug	-2953
▁cel	-2954
▁cyt	-2955
▁hom	-2956
▁mig	-2957
▁spr	-2958
▁sun	-2959
▁tit	-2960
agues	-2961
ental	-2962
fatal	-2963
hythm	-2964
ising	-2965
label	-2966
uring	-2967
usive	-2968
vered	-2969
▁1000	-2970
▁2002	-2971
▁Thir	-2972
▁ator	-2973
▁best	-2974
▁cold	-2975
▁erad	-2976
▁lumb	-2977
▁magn	-2978
▁rang	-2979
▁vary	-2980
atient	-2981
atives	-2982
earing	-2983
iatric	-2984
ipolar	-2985
lderly	-2986
onucle	-2987
razole	-2988
▁Three	-2989
▁added	-2990
▁adult	-2991
▁agent	-2992
▁antis	-2993
▁bowel	-2994
▁chest	-2995
▁clear	-2996
▁exten	-2997
▁incon	-2998
▁juice	-2999
▁laser	-3000
▁local	-3001
▁maxim	-3002
▁nicot	-3003
▁since	-3004
▁sizes	-3005
▁whose	-3006
average	-3007
genital	-3008
inergic	-3009
respond	-3010
uncture	-3011
vaginal	-3012
ysterec	-3013
▁anemia	-3014
▁depend	-3015
▁differ	-3016
▁direct	-3017
▁dosage	-3018
▁dosing	-3019
▁intern	-3020
▁methyl	-3021
▁occult	-3022
▁sexual	-3023
▁spinal	-3024
▁target	-3025
▁tender	-3026
▁though	-3027
▁wounds	-3028
cription	-3029
ifestyle	-3030
lodipine	-3031
positive	-3032
▁Overall	-3033
▁allergy	-3034
▁analges	-3035
▁concent	-3036
▁constip	-3037
▁current	-3038
▁elderly	-3039
▁empiric	-3040
▁obesity	-3041
▁reviews	-3042
▁through	-3043
▁towards	-3044
▁vaccine	-3045
effective	-3046
intensity	-3047
sectional	-3048
▁abortion	-3049
▁achieved	-3050
▁antibody	-3051
▁athletes	-3052
▁diabetic	-3053
▁evaluate	-3054
▁invasive	-3055
▁nicotine	-3056
▁possible	-3057
▁recovery	-3058
▁regimens	-3059
▁remained	-3060
▁scarring	-3061
▁steroids	-3062
▁strategy	-3063
▁continued	-3064
▁headaches	-3065
▁hepatitis	-3066
▁inhibitor	-3067
▁pathology	-3068
▁tolerance	-3069
▁transamin	-3070
▁triglycer	-3071
sensitivity	-3072
▁colleagues	-3073
▁conclusion	-3074
▁congenital	-3075
▁deficiency	-3076
▁developing	-3077
▁overweight	-3078
▁particular	-3079
▁postpartum	-3080
▁subjective	-3081
▁testicular	-3082
▁undergoing	-3083
▁Researchers	-3084
▁effectively	-3085
▁gestational	-3086
▁simvastatin	-3087
▁terbinafine	-3088
▁atorvastatin	-3089
▁manipulative	-3090
▁standardized	-3091
▁investigators	-3092
/1	-3093
15	-3094
16	-3095
2-	-3096
HR	-3097
MA	-3098
OS	-3099
SV	-3100
mg	-3101
oh	-3102
▁z	-3103
3),	-3104
6%,	-3105
95%	-3106
RCT	-3107
ink	-3108
kle	-3109
lac	-3110
les	-3111
luc	-3112
ype	-3113
▁1-	-3114
▁32	-3115
▁33	-3116
▁37	-3117
▁Di	-3118
▁HA	-3119
▁Se	-3120
abil	-3121
amic	-3122
atif	-3123
card	-3124
ecti	-3125
erob	-3126
free	-3127
idel	-3128
ilol	-3129
ioid	-3130
ocin	-3131
ocol	-3132
ocyt	-3133
onic	-3134
ower	-3135
teri	-3136
unch	-3137
utri	-3138
▁115	-3139
▁400	-3140
▁70%	-3141
▁73%	-3142
▁97%	-3143
▁Con	-3144
▁HSV	-3145
▁Imp	-3146
▁Ind	-3147
▁Med	-3148
▁PPD	-3149
▁abl	-3150
▁ade	-3151
▁bil	-3152
▁byp	-3153
▁fem	-3154
▁fer	-3155
▁led	-3156
▁myc	-3157
▁nur	-3158
▁pen	-3159
▁rot	-3160
▁tem	-3161
▁vas	-3162
adjus	-3163
ealth	-3164
ening	-3165
eutic	-3166
iness	-3167
isted	-3168
ospor	-3169
ribut	-3170
sover	-3171
ument	-3172
years	-3173
▁Anti	-3174
▁More	-3175
▁Swed	-3176
▁acne	-3177
▁aden	-3178
▁amit	-3179
▁area	-3180
▁aten	-3181
▁bias	-3182
▁extr	-3183
▁fair	-3184
▁free	-3185
▁gast	-3186
▁grad	-3187
▁help	-3188
▁moth	-3189
▁note	-3190
▁oxyt	-3191
▁quin	-3192
▁vari	-3193
<.001)	-3194
acious	-3195
erally	-3196
erobic	-3197
essary	-3198
itored	-3199
owered	-3200
priate	-3201
▁Eight	-3202
▁Scale	-3203
▁While	-3204
▁antip	-3205
▁categ	-3206
▁edema	-3207
▁fever	-3208
▁fluor	-3209
▁hydro	-3210
▁intro	-3211
▁macro	-3212
▁plasm	-3213
▁still	-3214
▁stric	-3215
▁tuber	-3216
▁until	-3217
▁volun	-3218
▁young	-3219
ectious	-3220
release	-3221
rologic	-3222
taining	-3223
urgical	-3224
vedilol	-3225
ventive	-3226
▁Health	-3227
▁altern	-3228
▁antico	-3229
▁append	-3230
▁attack	-3231
▁bypass	-3232
▁deaths	-3233
▁kinase	-3234
▁little	-3235
▁malign	-3236
▁muscle	-3237
▁person	-3238
▁record	-3239
▁slight	-3240
▁survey	-3241
▁visits	-3242
specific	-3243
▁applied	-3244
▁bipolar	-3245
▁cerebro	-3246
▁chlamyd	-3247
▁finding	-3248
▁gastric	-3249
▁largest	-3250
▁mothers	-3251
▁newborn	-3252
▁prolong	-3253
▁related	-3254
rillation	-3255
▁atenolol	-3256
▁movement	-3257
▁observed	-3258
▁polysomn	-3259
▁practice	-3260
▁products	-3261
▁referral	-3262
▁screened	-3263
▁systemic	-3264
holinergic	-3265
onucleosis	-3266
ravastatin	-3267
▁analgesic	-3268
▁bupropion	-3269
▁celecoxib	-3270
▁character	-3271
▁community	-3272
▁completed	-3273
▁conducted	-3274
▁crossover	-3275
▁generally	-3276
▁intention	-3277
▁lifestyle	-3278
▁procedure	-3279
▁untreated	-3280
▁vertebral	-3281
ysterectomy	-3282
▁Depression	-3283
▁amlodipine	-3284
▁carvedilol	-3285
▁conditions	-3286
▁households	-3287
▁infectious	-3288
▁injections	-3289
▁laboratory	-3290
▁physicians	-3291
▁successful	-3292
▁efficacious	-3293
▁independent	-3294
▁individuals	-3295
▁information	-3296
▁monotherapy	-3297
▁populations	-3298
▁restriction	-3299
▁measurements	-3300
▁pneumococcal	-3301
▁satisfaction	-3302
▁amitriptyline	-3303
▁heterogeneity	-3304
▁hyperactivity	-3305
▁mononucleosis	-3306
▁nonsignificant	-3307
▁cerebrovascular	-3308
."	-3309
.)	-3310
22	-3311
36	-3312
44	-3313
66	-3314
92	-3315
=5	-3316
AS	-3317
EE	-3318
IA	-3319
IU	-3320
IV	-3321
VT	-3322
mm	-3323
no	-3324
2%,	-3325
6%)	-3326
7%)	-3327
=12	-3328
=4.	-3329
]=2	-3330
anc	-3331
ban	-3332
bur	-3333
enz	-3334
fed	-3335
han	-3336
hem	-3337
inn	-3338
led	-3339
mes	-3340
oar	-3341
oly	-3342
ori	-3343
pes	-3344
rap	-3345
rin	-3346
▁0%	-3347
▁3%	-3348
▁4%	-3349
▁46	-3350
▁6%	-3351
▁8%	-3352
▁94	-3353
▁<1	-3354
▁Ap	-3355
▁ca	-3356
▁wa	-3357
-1.5	-3358
asia	-3359
atig	-3360
eful	-3361
enac	-3362
fact	-3363
hist	-3364
hour	-3365
ides	-3366
imin	-3367
inea	-3368
itol	-3369
lier	-3370
most	-3371
oler	-3372
phen	-3373
rade	-3374
rine	-3375
▁1.8	-3376
▁11.	-3377
▁13%	-3378
▁14.	-3379
▁28%	-3380
▁3.5	-3381
▁31%	-3382
▁44%	-3383
▁47%	-3384
▁600	-3385
▁>60	-3386
▁IUD	-3387
▁New	-3388
▁PID	-3389
▁PMS	-3390
▁Six	-3391
▁TIA	-3392
▁amn	-3393
▁dig	-3394
▁ech	-3395
▁mid	-3396
▁nor	-3397
▁rof	-3398
▁sit	-3399
▁sum	-3400
▁tum	-3401
▁uni	-3402
ather	-3403
berry	-3404
daily	-3405
early	-3406
entia	-3407
iance	-3408
iazep	-3409
iclof	-3410
inant	-3411
issed	-3412
lasty	-3413
ollow	-3414
rated	-3415
riage	-3416
tions	-3417
utoff	-3418
yclic	-3419
▁100-	-3420
▁2000	-3421
▁Five	-3422
▁[95%	-3423
▁appe	-3424
▁arms	-3425
▁atop	-3426
▁auto	-3427
▁band	-3428
▁cyst	-3429
▁derm	-3430
▁expl	-3431
▁lact	-3432
▁last	-3433
▁lost	-3434
▁meet	-3435
▁scal	-3436
▁seem	-3437
▁them	-3438
▁tric	-3439
enosis	-3440
everal	-3441
mental	-3442
moking	-3443
ording	-3444
screen	-3445
▁Those	-3446
▁Treat	-3447
▁Using	-3448
▁ankle	-3449
▁assay	-3450
▁curve	-3451
▁fatig	-3452
▁inade	-3453
▁influ	-3454
▁oppos	-3455
▁pulse	-3456
▁relap	-3457
▁relax	-3458
▁resid	-3459
▁shave	-3460
▁stool	-3461
▁subst	-3462
▁thres	-3463
▁upper	-3464
cellent	-3465
density	-3466
eration	-3467
estinal	-3468
haviors	-3469
ickness	-3470
odiazep	-3471
osporin	-3472
umption	-3473
ystatin	-3474
ysteine	-3475
▁Review	-3476
▁States	-3477
▁affect	-3478
▁analog	-3479
▁caused	-3480
▁center	-3481
▁cutoff	-3482
▁diclof	-3483
▁guidel	-3484
▁herpes	-3485
▁lumbar	-3486
▁modest	-3487
▁rating	-3488
▁school	-3489
▁stones	-3490
▁useful	-3491
adjusted	-3492
agonists	-3493
ecretory	-3494
ologists	-3495
ophageal	-3496
reactive	-3497
utrition	-3498
▁Because	-3499
▁Infants	-3500
▁Neither	-3501
▁Several	-3502
▁Studies	-3503
▁ability	-3504
▁albumin	-3505
▁appears	-3506
▁delayed	-3507
▁earlier	-3508
▁esophag	-3509
▁hypogly	-3510
▁minimal	-3511
▁monthly	-3512
▁osteoar	-3513
▁parents	-3514
▁practic	-3515
▁remains	-3516
▁require	-3517
▁several	-3518
upuncture	-3519
▁Compared	-3520
▁National	-3521
▁ablation	-3522
▁accurate	-3523
▁adequate	-3524
▁commonly	-3525
▁dementia	-3526
▁embolism	-3527
▁endoscop	-3528
▁families	-3529
▁greatest	-3530
▁oxytocin	-3531
▁pregnant	-3532
▁problems	-3533
▁protocol	-3534
▁shoulder	-3535
▁stopping	-3536
▁vascular	-3537
responding	-3538
▁Americans	-3539
▁adherence	-3540
▁admission	-3541
▁assessing	-3542
▁behaviors	-3543
▁expectant	-3544
▁gonorrhea	-3545
▁increases	-3546
▁intervals	-3547
▁regarding	-3548
▁reporting	-3549
▁responded	-3550
▁rofecoxib	-3551
▁switching	-3552
▁threshold	-3553
▁trimester	-3554
▁ampicillin	-3555
▁antibodies	-3556
▁aspiration	-3557
▁continuous	-3558
▁diclofenac	-3559
▁fluoxetine	-3560
▁miconazole	-3561
▁radiograph	-3562
▁regardless	-3563
▁revascular	-3564
▁sufficient	-3565
▁correlation	-3566
▁eradication	-3567
▁mycological	-3568
▁vaccination	-3569
▁constipation	-3570
▁diverticular	-3571
▁fibrillation	-3572
▁transvaginal	-3573
▁international	-3574
▁antidepressant	-3575
▁osteoarthritis	-3576
▁anticholinergic	-3577
▁corticosteroids	-3578
▁discontinuation	-3579
35	-3580
64	-3581
69	-3582
75	-3583
95	-3584
=4	-3585
=8	-3586
AL	-3587
PL	-3588
ST	-3589
VD	-3590
sp	-3591
tt	-3592
ye	-3593
0%)	-3594
1%)	-3595
5%;	-3596
9%;	-3597
=5.	-3598
CAs	-3599
abs	-3600
ame	-3601
ays	-3602
des	-3603
erf	-3604
kes	-3605
mal	-3606
nis	-3607
oke	-3608
opa	-3609
rep	-3610
rig	-3611
row	-3612
vul	-3613
▁(<	-3614
▁52	-3615
▁68	-3616
▁85	-3617
▁89	-3618
▁>3	-3619
▁DM	-3620
▁Ob	-3621
▁br	-3622
▁mL	-3623
-1.2	-3624
0%).	-3625
3-0.	-3626
=.02	-3627
=0.3	-3628
=0.8	-3629
=0.9	-3630
RCTs	-3631
acts	-3632
ains	-3633
angu	-3634
azep	-3635
care	-3636
done	-3637
ects	-3638
edoc	-3639
ergy	-3640
imus	-3641
ipid	-3642
irub	-3643
itus	-3644
life	-3645
osed	-3646
pite	-3647
prom	-3648
quir	-3649
umed	-3650
▁(10	-3651
▁110	-3652
▁12.	-3653
▁16%	-3654
▁17%	-3655
▁19%	-3656
▁2.6	-3657
▁21%	-3658
▁30-	-3659
▁68%	-3660
▁Bar	-3661
▁DVT	-3662
▁Dat	-3663
▁HPV	-3664
▁Man	-3665
▁Out	-3666
▁PCR	-3667
▁Pro	-3668
▁cip	-3669
▁deg	-3670
▁doc	-3671
▁ele	-3672
▁haz	-3673
▁lax	-3674
▁nap	-3675
▁oil	-3676
▁sed	-3677
▁tib	-3678
▁vom	-3679
abase	-3680
acity	-3681
aired	-3682
ampin	-3683
andid	-3684
annel	-3685
apine	-3686
arous	-3687
cemic	-3688
chlor	-3689
ergot	-3690
holic	-3691
hydro	-3692
icult	-3693
ights	-3694
izers	-3695
lling	-3696
ocial	-3697
ocker	-3698
olate	-3699
organ	-3700
orter	-3701
ranul	-3702
reath	-3703
romil	-3704
round	-3705
roxen	-3706
sored	-3707
tingu	-3708
tinue	-3709
tment	-3710
ylure	-3711
zymes	-3712
▁0.1%	-3713
▁Comb	-3714
▁Long	-3715
▁PCOS	-3716
▁able	-3717
▁amen	-3718
▁devi	-3719
▁dist	-3720
▁epid	-3721
▁goal	-3722
▁made	-3723
▁memb	-3724
▁misc	-3725
▁neck	-3726
▁room	-3727
▁safe	-3728
▁shed	-3729
▁suic	-3730
▁uter	-3731
<.01).	-3732
ameter	-3733
assess	-3734
aturia	-3735
ferred	-3736
icitis	-3737
inatal	-3738
irubin	-3739
lactic	-3740
minute	-3741
rhythm	-3742
ronate	-3743
terior	-3744
terone	-3745
tinine	-3746
umbers	-3747
venous	-3748
ylitol	-3749
▁Class	-3750
▁Since	-3751
▁Trial	-3752
▁chart	-3753
▁endoc	-3754
▁falls	-3755
▁fatal	-3756
▁fixed	-3757
▁guide	-3758
▁later	-3759
▁nedoc	-3760
▁obese	-3761
▁optim	-3762
▁punch	-3763
▁separ	-3764
▁shock	-3765
▁smear	-3766
▁split	-3767
▁terms	-3768
▁tinea	-3769
▁water	-3770
anguage	-3771
centric	-3772
dominal	-3773
ifampin	-3774
jective	-3775
ocation	-3776
ominant	-3777
oxazole	-3778
powered	-3779
quiring	-3780
rations	-3781
rolimus	-3782
tinence	-3783
▁Follow	-3784
▁angina	-3785
▁angiop	-3786
▁atopic	-3787
▁atrial	-3788
▁breath	-3789
▁ciprof	-3790
▁compon	-3791
▁compos	-3792
▁design	-3793
▁global	-3794
▁granul	-3795
▁height	-3796
▁larger	-3797
▁median	-3798
▁nights	-3799
▁opioid	-3800
▁plasma	-3801
▁reason	-3802
▁regurg	-3803
▁repeat	-3804
▁solids	-3805
▁strict	-3806
▁tendon	-3807
▁volume	-3808
<.0001).	-3809
▁Further	-3810
▁Similar	-3811
▁aerobic	-3812
▁alcohol	-3813
▁article	-3814
▁contact	-3815
▁enzymes	-3816
▁fasting	-3817
▁managed	-3818
▁nursing	-3819
▁regimen	-3820
▁special	-3821
▁started	-3822
▁stratif	-3823
▁thrombo	-3824
▁volunte	-3825
▁whereas	-3826
dependent	-3827
onography	-3828
▁Clinical	-3829
▁affected	-3830
▁analyses	-3831
▁anterior	-3832
▁appeared	-3833
▁capacity	-3834
▁comorbid	-3835
▁cotinine	-3836
▁cyclical	-3837
▁cytology	-3838
▁distingu	-3839
▁gastroes	-3840
▁involved	-3841
▁nystatin	-3842
▁programs	-3843
▁vomiting	-3844
▁weakness	-3845
cardiogram	-3846
ergotamine	-3847
intestinal	-3848
▁alcoholic	-3849
▁childhood	-3850
▁described	-3851
▁difficult	-3852
▁disorders	-3853
▁eccentric	-3854
▁inclusion	-3855
▁induction	-3856
▁monitored	-3857
▁prolonged	-3858
▁resection	-3859
▁stimulant	-3860
▁technique	-3861
▁tricyclic	-3862
▁validated	-3863
armacologic	-3864
▁correlated	-3865
▁malignancy	-3866
▁nedocromil	-3867
▁outpatient	-3868
▁preventive	-3869
▁streptococ	-3870
▁suggesting	-3871
▁tenderness	-3872
▁angioplasty	-3873
▁application	-3874
▁appropriate	-3875
▁characteris	-3876
▁consumption	-3877
▁identifying	-3878
▁intravenous	-3879
▁obstruction	-3880
▁outpatients	-3881
▁potentially	-3882
▁pravastatin	-3883
▁administered	-3884
▁appendicitis	-3885
▁combinations	-3886
▁hysterectomy	-3887
▁intermediate	-3888
▁prescription	-3889
▁prophylactic	-3890
▁specifically	-3891
▁ciprofloxacin	-3892
▁corresponding	-3893
▁physiotherapy	-3894
▁regurgitation	-3895
▁specificities	-3896
▁anticoagulation	-3897
▁polysomnography	-3898
34	-3899
38	-3900
4,	-3901
58	-3902
79	-3903
=7	-3904
As	-3905
CG	-3906
CU	-3907
DC	-3908
ER	-3909
HS	-3910
▁%	-3911
▁0	-3912
4%)	-3913
4%;	-3914
5%.	-3915
6%;	-3916
8%;	-3917
9%)	-3918
=7.	-3919
OAb	-3920
amm	-3921
ash	-3922
ats	-3923
bes	-3924
cue	-3925
ean	-3926
hip	-3927
imb	-3928
inj	-3929
ins	-3930
let	-3931
lob	-3932
lol	-3933
mia	-3934
ocl	-3935
opl	-3936
pre	-3937
sch	-3938
ses	-3939
ugh	-3940
ump	-3941
und	-3942
uts	-3943
xic	-3944
yre	-3945
zid	-3946
▁64	-3947
▁79	-3948
▁9%	-3949
▁Ab	-3950
▁Ev	-3951
▁MI	-3952
▁Ph	-3953
▁TP	-3954
▁UT	-3955
▁az	-3956
▁cm	-3957
▁du	-3958
▁ej	-3959
▁mU	-3960
▁os	-3961
▁rh	-3962
3-1.	-3963
4-0.	-3964
<.05	-3965
=0.5	-3966
=1.3	-3967
=1.4	-3968
apid	-3969
aste	-3970
atur	-3971
back	-3972
enty	-3973
esin	-3974
head	-3975
iant	-3976
ible	-3977
idne	-3978
list	-3979
msel	-3980
ocar	-3981
ocom	-3982
ocor	-3983
odil	-3984
ogen	-3985
oint	-3986
olid	-3987
omal	-3988
oman	-3989
onad	-3990
only	-3991
opor	-3992
oral	-3993
rett	-3994
spon	-3995
vice	-3996
▁(3.	-3997
▁(4.	-3998
▁(5.	-3999
▁198	-4000
▁2.9	-4001
▁250	-4002
▁32%	-4003
▁64%	-4004
▁74%	-4005
▁78%	-4006
▁Ach	-4007
▁IgA	-4008
▁IgG	-4009
▁alp	-4010
▁beg	-4011
▁bel	-4012
▁cho	-4013
▁coh	-4014
▁cys	-4015
▁don	-4016
▁ice	-4017
▁ket	-4018
▁oxy	-4019
▁ped	-4020
▁unk	-4021
▁ure	-4022
acorp	-4023
aifen	-4024
ameth	-4025
aryng	-4026
athic	-4027
cised	-4028
ectin	-4029
elial	-4030
ented	-4031
epith	-4032
eterm	-4033
iasis	-4034
idate	-4035
iment	-4036
itted	-4037
izing	-4038
lipid	-4039
meter	-4040
molec	-4041
oglob	-4042
olone	-4043
onide	-4044
oreal	-4045
osure	-4046
raphy	-4047
uling	-4048
uture	-4049
vices	-4050
vings	-4051
▁0.36	-4052
▁0.70	-4053
▁1200	-4054
▁2004	-4055
▁2005	-4056
▁2006	-4057
▁Diab	-4058
▁Each	-4059
▁adip	-4060
▁cran	-4061
▁done	-4062
▁draw	-4063
▁heat	-4064
▁herb	-4065
▁lith	-4066
▁live	-4067
▁loop	-4068
▁make	-4069
▁mmol	-4070
▁must	-4071
▁norm	-4072
▁prov	-4073
▁read	-4074
▁tube	-4075
▁wave	-4076
▁wors	-4077
amines	-4078
ancies	-4079
atched	-4080
ematic	-4081
ensive	-4082
fusion	-4083
lusive	-4084
paring	-4085
pooled	-4086
ramine	-4087
teroid	-4088
ulsion	-4089
urgery	-4090
▁TPOAb	-4091
▁being	-4092
▁colon	-4093
▁compr	-4094
▁depth	-4095
▁digox	-4096
▁favor	-4097
▁final	-4098
▁foods	-4099
▁forms	-4100
▁homoc	-4101
▁infer	-4102
▁inges	-4103
▁instr	-4104
▁males	-4105
▁metab	-4106
▁minor	-4107
▁nodes	-4108
▁panel	-4109
▁phase	-4110
▁point	-4111
▁power	-4112
▁rapid	-4113
▁refus	-4114
▁relie	-4115
▁rules	-4116
▁shows	-4117
▁sites	-4118
▁smoke	-4119
▁solid	-4120
▁tooth	-4121
▁toxic	-4122
▁tubes	-4123
▁urine	-4124
▁viral	-4125
illance	-4126
meterol	-4127
mselves	-4128
oconstr	-4129
oniazid	-4130
oprolol	-4131
regular	-4132
ricular	-4133
rogenic	-4134
tension	-4135
umented	-4136
uscular	-4137
▁During	-4138
▁Outcom	-4139
▁Screen	-4140
▁Thirty	-4141
▁abnorm	-4142
▁actual	-4143
▁adding	-4144
▁advant	-4145
▁cannot	-4146
▁compla	-4147
▁flutic	-4148
▁hazard	-4149
▁highly	-4150
▁immedi	-4151
▁magnes	-4152
▁metocl	-4153
▁miscar	-4154
▁nearly	-4155
▁rather	-4156
▁rescue	-4157
▁search	-4158
▁stress	-4159
▁superf	-4160
▁tibial	-4161
▁varied	-4162
assessed	-4163
besartan	-4164
designed	-4165
negative	-4166
opramide	-4167
oprazole	-4168
rography	-4169
▁Barrett	-4170
▁cancers	-4171
▁confirm	-4172
▁decline	-4173
▁dihydro	-4174
▁fatigue	-4175
▁immunos	-4176
▁induced	-4177
▁latency	-4178
▁lithium	-4179
▁maximum	-4180
▁mention	-4181
▁neither	-4182
▁numbers	-4183
▁prednis	-4184
▁problem	-4185
▁profile	-4186
▁reached	-4187
▁records	-4188
▁regular	-4189
▁relapse	-4190
▁removal	-4191
▁shorter	-4192
▁univers	-4193
▁unknown	-4194
aifenesin	-4195
ationship	-4196
epressive	-4197
fficiency	-4198
gesterone	-4199
molecular	-4200
phenidate	-4201
sponsored	-4202
▁Evidence	-4203
▁actually	-4204
▁adenocar	-4205
▁antihist	-4206
▁antipyre	-4207
▁blockers	-4208
▁designed	-4209
▁diagnose	-4210
▁diameter	-4211
▁diuretic	-4212
▁endpoint	-4213
▁impaired	-4214
▁naproxen	-4215
▁newborns	-4216
▁nonfatal	-4217
▁provides	-4218
▁pyogenic	-4219
▁quintile	-4220
▁reliably	-4221
▁residual	-4222
▁returned	-4223
▁rifampin	-4224
▁settings	-4225
▁shedding	-4226
▁solution	-4227
▁stenosis	-4228
acorporeal	-4229
epithelial	-4230
▁Neosporin	-4231
▁chlamydia	-4232
▁composite	-4233
▁criterion	-4234
▁elevation	-4235
▁esophagus	-4236
▁estimates	-4237
▁excellent	-4238
▁gestation	-4239
▁ingestion	-4240
▁isoniazid	-4241
▁necessary	-4242
▁objective	-4243
▁perinatal	-4244
▁practices	-4245
▁preferred	-4246
▁presented	-4247
▁remission	-4248
▁requiring	-4249
▁substanti	-4250
▁sunscreen	-4251
▁unblinded	-4252
odiazepines	-4253
▁aggressive	-4254
▁completely	-4255
▁compliance	-4256
▁components	-4257
▁differenti	-4258
▁esophageal	-4259
▁excisional	-4260
▁experience	-4261
▁inadequate	-4262
▁percentage	-4263
▁prescribed	-4264
▁relatively	-4265
▁salmeterol	-4266
▁themselves	-4267
▁volunteers	-4268
▁comparisons	-4269
▁demonstrate	-4270
▁distinguish	-4271
▁fluticasone	-4272
▁immediately	-4273
▁progressive	-4274
▁sulfonylure	-4275
▁therapeutic	-4276
▁augmentation	-4277
▁circumcision	-4278
▁formulations	-4279
▁homocysteine	-4280
▁hospitalized	-4281
▁immunization	-4282
▁incontinence	-4283
▁oppositional	-4284
▁pretreatment	-4285
▁relationship	-4286
▁surveillance	-4287
▁uncontrolled	-4288
▁underpowered	-4289
▁antisecretory	-4290
▁insufficiency	-4291
▁psychological	-4292
▁triglycerides	-4293
▁adenocarcinoma	-4294
▁concentrations	-4295
▁metoclopramide	-4296
▁intraepithelial	-4297
,8	-4298
23	-4299
45	-4300
67	-4301
94	-4302
GA	-4303
OP	-4304
PP	-4305
SM	-4306
bi	-4307
my	-4308
wn	-4309
-6.	-4310
/0.	-4311
/24	-4312
3%,	-4313
=10	-4314
=6.	-4315
EET	-4316
INR	-4317
add	-4318
alg	-4319
ask	-4320
avy	-4321
but	-4322
ded	-4323
den	-4324
eak	-4325
ert	-4326
eti	-4327
gar	-4328
get	-4329
inP	-4330
laf	-4331
leb	-4332
mer	-4333
oft	-4334
oot	-4335
oqu	-4336
sib	-4337
sus	-4338
uff	-4339
ulv	-4340
way	-4341
wor	-4342
zhe	-4343
▁(>	-4344
▁41	-4345
▁43	-4346
▁51	-4347
▁6,	-4348
▁86	-4349
▁>2	-4350
▁>6	-4351
▁AS	-4352
▁By	-4353
▁Li	-4354
▁ST	-4355
▁We	-4356
▁hr	-4357
▁ng	-4358
▁pa	-4359
▁ps	-4360
▁ra	-4361
▁sn	-4362
20).	-4363
3%).	-4364
5%).	-4365
=0.2	-4366
ABHS	-4367
agic	-4368
amil	-4369
amip	-4370
assi	-4371
avir	-4372
ctur	-4373
ecia	-4374
enta	-4375
epez	-4376
hand	-4377
hydr	-4378
ices	-4379
igor	-4380
ills	-4381
imec	-4382
imer	-4383
ison	-4384
iton	-4385
itud	-4386
leph	-4387
pret	-4388
reak	-4389
rest	-4390
ring	-4391
rous	-4392
sies	-4393
stet	-4394
stit	-4395
uble	-4396
udes	-4397
utum	-4398
ynec	-4399
yond	-4400
yrox	-4401
zema	-4402
▁106	-4403
▁13.	-4404
▁166	-4405
▁17.	-4406
▁18%	-4407
▁24-	-4408
▁29%	-4409
▁3.9	-4410
▁35%	-4411
▁36%	-4412
▁37%	-4413
▁42%	-4414
▁59%	-4415
▁71%	-4416
▁72%	-4417
▁CHD	-4418
▁CIN	-4419
▁Dis	-4420
▁Inc	-4421
▁Met	-4422
▁Rec	-4423
▁Ten	-4424
▁Top	-4425
▁bas	-4426
▁eti	-4427
▁hum	-4428
▁lig	-4429
▁mis	-4430
▁mit	-4431
▁nit	-4432
▁pur	-4433
▁rev	-4434
▁ten	-4435
▁ter	-4436
▁too	-4437
▁tor	-4438
▁two	-4439
▁wor	-4440
<.001	-4441
<.01)	-4442
abies	-4443
acerb	-4444
alled	-4445
anced	-4446
appro	-4447
arily	-4448
creat	-4449
eliac	-4450
ensus	-4451
entox	-4452
grade	-4453
idney	-4454
ifyll	-4455
illes	-4456
itary	-4457
lying	-4458
odopa	-4459
ogens	-4460
ories	-4461
oxide	-4462
plete	-4463
raine	-4464
ranes	-4465
ransi	-4466
stein	-4467
times	-4468
uited	-4469
ulose	-4470
▁0.12	-4471
▁Mean	-4472
▁With	-4473
▁alop	-4474
▁arth	-4475
▁born	-4476
▁cent	-4477
▁conj	-4478
▁crus	-4479
▁deri	-4480
▁dysp	-4481
▁foot	-4482
▁grow	-4483
▁hair	-4484
▁hypo	-4485
▁item	-4486
▁know	-4487
▁leuk	-4488
▁mamm	-4489
▁mont	-4490
▁oint	-4491
▁perc	-4492
▁pill	-4493
▁prem	-4494
▁pren	-4495
▁quit	-4496
▁step	-4497
▁summ	-4498
▁unex	-4499
▁vals	-4500
▁york	-4501
acking	-4502
acting	-4503
admill	-4504
assium	-4505
atript	-4506
avirus	-4507
emical	-4508
epezil	-4509
ertain	-4510
ession	-4511
icians	-4512
inPrep	-4513
injury	-4514
inning	-4515
iotomy	-4516
istant	-4517
itonin	-4518
otoxic	-4519
plasty	-4520
ritish	-4521
tional	-4522
uation	-4523
▁Alzhe	-4524
▁GABHS	-4525
▁Inter	-4526
▁SSRIs	-4527
▁allow	-4528
▁below	-4529
▁black	-4530
▁colic	-4531
▁doubl	-4532
▁heavy	-4533
▁irrit	-4534
▁itrac	-4535
▁joint	-4536
▁leads	-4537
▁normo	-4538
▁order	-4539
▁parox	-4540
▁parti	-4541
▁patch	-4542
▁pimec	-4543
▁progn	-4544
▁rever	-4545
▁rough	-4546
▁sched	-4547
▁state	-4548
▁sugar	-4549
▁tight	-4550
▁woman	-4551
airment	-4552
amipril	-4553
concent	-4554
cturnal	-4555
hensive	-4556
iparous	-4557
issions	-4558
lephone	-4559
ologies	-4560
ositive	-4561
raction	-4562
sparing	-4563
yroxine	-4564
▁Ninety	-4565
▁Pooled	-4566
▁Rating	-4567
▁Second	-4568
▁Statin	-4569
▁Twenty	-4570
▁airway	-4571
▁alarms	-4572
▁almost	-4573
▁anomal	-4574
▁became	-4575
▁beyond	-4576
▁celiac	-4577
▁concus	-4578
▁degree	-4579
▁eczema	-4580
▁elimin	-4581
▁enough	-4582
▁herbal	-4583
▁hyster	-4584
▁incons	-4585
▁instit	-4586
▁intram	-4587
▁missed	-4588
▁mitral	-4589
▁neurop	-4590
▁nodule	-4591
▁occurs	-4592
▁prepar	-4593
▁recept	-4594
▁ruling	-4595
▁simple	-4596
▁sputum	-4597
▁stabil	-4598
▁stable	-4599
▁temper	-4600
▁toothp	-4601
▁ulcers	-4602
▁valpro	-4603
administ	-4604
analyses	-4605
atriptan	-4606
enopathy	-4607
existing	-4608
ifylline	-4609
osterone	-4610
piratory	-4611
teroidal	-4612
▁100,000	-4613
▁British	-4614
▁Obesity	-4615
▁Swedish	-4616
▁Symptom	-4617
▁Topical	-4618
▁abscess	-4619
▁acetate	-4620
▁casting	-4621
▁classes	-4622
▁compare	-4623
▁defiant	-4624
▁despite	-4625
▁digoxin	-4626
▁hearing	-4627
▁leading	-4628
▁meeting	-4629
▁persons	-4630
▁pharyng	-4631
▁provide	-4632
▁ranging	-4633
▁smaller	-4634
▁snoring	-4635
▁sprains	-4636
▁strokes	-4637
▁thought	-4638
▁torsion	-4639
▁uterine	-4640
▁varying	-4641
endronate	-4642
etermined	-4643
italopram	-4644
lipidemia	-4645
oidectomy	-4646
othiazide	-4647
ovastatin	-4648
rhythmias	-4649
umulative	-4650
▁Achilles	-4651
▁Diabetes	-4652
▁Investig	-4653
▁allergic	-4654
▁alopecia	-4655
▁attribut	-4656
▁cerebral	-4657
▁deterior	-4658
▁dressing	-4659
▁effusion	-4660
▁electros	-4661
▁extended	-4662
▁glucocor	-4663
▁incision	-4664
▁infusion	-4665
▁language	-4666
▁levodopa	-4667
▁migraine	-4668
▁myopathy	-4669
▁ointment	-4670
▁placenta	-4671
▁prenatal	-4672
▁sediment	-4673
▁services	-4674
▁slightly	-4675
▁studying	-4676
▁thiazide	-4677
▁toxicity	-4678
antibiotic	-4679
creatinine	-4680
luconazole	-4681
▁Alzheimer	-4682
▁Similarly	-4683
▁Treatment	-4684
▁abdominal	-4685
▁according	-4686
▁amniotomy	-4687
▁arthritis	-4688
▁autoantib	-4689
▁combining	-4690
▁cranberry	-4691
▁decreases	-4692
▁donepezil	-4693
▁establish	-4694
▁irregular	-4695
▁lactulose	-4696
▁membranes	-4697
▁nocturnal	-4698
▁nutrition	-4699
▁ofloxacin	-4700
▁ovulation	-4701
▁progestin	-4702
▁resistant	-4703
▁retention	-4704
▁rotavirus	-4705
▁selective	-4706
▁telephone	-4707
▁therapist	-4708
▁therefore	-4709
▁treadmill	-4710
▁valsartan	-4711
cholesterol	-4712
gestational	-4713
▁adolescent	-4714
▁bronchodil	-4715
▁classified	-4716
▁concerning	-4717
▁containing	-4718
▁creatinine	-4719
▁decreasing	-4720
▁definition	-4721
▁definitive	-4722
▁depressive	-4723
▁documented	-4724
▁guidelines	-4725
▁penicillin	-4726
▁practition	-4727
▁prediction	-4728
▁predictors	-4729
▁progressed	-4730
▁thromboemb	-4731
▁colonoscopy	-4732
▁compression	-4733
▁conclusions	-4734
▁development	-4735
▁established	-4736
▁generalized	-4737
▁guaifenesin	-4738
▁hemorrhagic	-4739
▁indications	-4740
▁infertility	-4741
▁involvement	-4742
▁mammography	-4743
▁pharyngitis	-4744
▁stabilizers	-4745
▁superficial	-4746
concentration	-4747
entoxifylline	-4748
oconstriction	-4749
▁gastroplasty	-4750
▁hypoglycemia	-4751
▁inconsistent	-4752
▁introduction	-4753
▁itraconazole	-4754
▁nonsteroidal	-4755
▁particularly	-4756
▁pimecrolimus	-4757
▁radiographic	-4758
▁Investigators	-4759
▁deterioration	-4760
▁intramuscular	-4761
▁randomization	-4762
▁sedimentation	-4763
▁streptococcal	-4764
▁transaminases	-4765
▁antihistamines	-4766
▁extracorporeal	-4767
▁methodological	-4768
▁methylphenidate	-4769
",	-4770
,5	-4771
-)	-4772
11	-4773
37	-4774
41	-4775
43	-4776
47	-4777
61	-4778
9,	-4779
98	-4780
BP	-4781
CR	-4782
CS	-4783
DI	-4784
ES	-4785
NG	-4786
PH	-4787
TE	-4788
TG	-4789
cg	-4790
iv	-4791
-12	-4792
-7.	-4793
1%;	-4794
2%)	-4795
2%.	-4796
4),	-4797
44;	-4798
6),	-4799
60)	-4800
67;	-4801
9%,	-4802
ARR	-4803
BMI	-4804
DHD	-4805
HDL	-4806
ISA	-4807
IUD	-4808
]),	-4809
]).	-4810
ady	-4811
alt	-4812
arb	-4813
ari	-4814
bri	-4815
cul	-4816
deg	-4817
dle	-4818
eed	-4819
eft	-4820
eic	-4821
emp	-4822
gel	-4823
hex	-4824
iew	-4825
ipr	-4826
ize	-4827
lel	-4828
met	-4829
mic	-4830
mod	-4831
mop	-4832
nin	-4833
ocy	-4834
oti	-4835
oxy	-4836
pid	-4837
rad	-4838
rec	-4839
rip	-4840
sig	-4841
swe	-4842
ton	-4843
▁1,	-4844
▁3,	-4845
▁58	-4846
▁62	-4847
▁69	-4848
▁74	-4849
▁82	-4850
▁>1	-4851
▁AF	-4852
▁CA	-4853
▁Es	-4854
▁GA	-4855
▁MR	-4856
▁Mc	-4857
▁PE	-4858
▁cc	-4859
▁fl	-4860
▁sa	-4861
-0.2	-4862
-1.3	-4863
-1.8	-4864
-10.	-4865
-14.	-4866
-2.7	-4867
1.2%	-4868
26),	-4869
50).	-4870
=.03	-4871
=0.1	-4872
=0.7	-4873
=2.3	-4874
OAPP	-4875
]=2.	-4876
]=3.	-4877
abap	-4878
arge	-4879
ceed	-4880
ctal	-4881
cyte	-4882
edle	-4883
etry	-4884
face	-4885
fate	-4886
ffic	-4887
five	-4888
flow	-4889
fort	-4890
land	-4891
ners	-4892
obac	-4893
olus	-4894
omer	-4895
omic	-4896
oney	-4897
open	-4898
peci	-4899
pred	-4900
rant	-4901
ries	-4902
roat	-4903
room	-4904
tene	-4905
ters	-4906
type	-4907
uled	-4908
ustr	-4909
were	-4910
wise	-4911
▁(20	-4912
▁101	-4913
▁2.1	-4914
▁2.5	-4915
▁2.8	-4916
▁26.	-4917
▁27.	-4918
▁3.3	-4919
▁33%	-4920
▁4.6	-4921
▁41%	-4922
▁48%	-4923
▁5.3	-4924
▁53%	-4925
▁7.7	-4926
▁94%	-4927
▁>10	-4928
▁AMA	-4929
▁ARB	-4930
▁Ass	-4931
▁BMI	-4932
▁FDA	-4933
▁Fif	-4934
▁HIV	-4935
▁Hyp	-4936
▁INH	-4937
▁Sur	-4938
▁UTI	-4939
▁VTE	-4940
▁aPL	-4941
▁aud	-4942
▁bal	-4943
▁ban	-4944
▁bio	-4945
▁bot	-4946
▁cos	-4947
▁cow	-4948
▁dye	-4949
▁enl	-4950
▁fil	-4951
▁fla	-4952
▁ipr	-4953
▁lis	-4954
▁log	-4955
▁mcg	-4956
▁nar	-4957
▁old	-4958
▁ord	-4959
▁oss	-4960
▁oth	-4961
▁own	-4962
▁pal	-4963
▁pap	-4964
▁pla	-4965
▁pot	-4966
▁reh	-4967
▁som	-4968
▁sud	-4969
▁uro	-4970
▁wal	-4971
▁wet	-4972
4-0.9	-4973
ables	-4974
accin	-4975
adder	-4976
ailed	-4977
ained	-4978
allel	-4979
anged	-4980
anned	-4981
april	-4982
aster	-4983
atrop	-4984
ausea	-4985
brile	-4986
ender	-4987
entin	-4988
ering	-4989
eteen	-4990
ezing	-4991
hypop	-4992
ients	-4993
iling	-4994
inate	-4995
iones	-4996
ledge	-4997
ocyte	-4998
omiph	-4999
omnia	-5000
onate	-5001
oride	-5002
pidem	-5003
pirin	-5004
stetr	-5005
sweet	-5006
tives	-5007
ttage	-5008
ufact	-5009
utery	-5010
▁(2.5	-5011
▁1500	-5012
▁ADHD	-5013
▁Cent	-5014
▁DEET	-5015
▁Data	-5016
▁Four	-5017
▁High	-5018
▁Phys	-5019
▁SSRI	-5020
▁carb	-5021
▁cast	-5022
▁duke	-5023
▁face	-5024
▁four	-5025
▁hand	-5026
▁iden	-5027
▁isol	-5028
▁lans	-5029
▁liqu	-5030
▁marg	-5031
▁mell	-5032
▁mill	-5033
▁mood	-5034
▁nevi	-5035
▁oper	-5036
▁orig	-5037
▁phen	-5038
▁play	-5039
▁prod	-5040
▁pump	-5041
▁quar	-5042
▁recr	-5043
▁rhin	-5044
▁scar	-5045
▁sequ	-5046
▁slow	-5047
▁soft	-5048
▁stim	-5049
▁tear	-5050
▁tool	-5051
▁view	-5052
▁wait	-5053
▁what	-5054
▁zinc	-5055
=.01).	-5056
ateral	-5057
atures	-5058
biotic	-5059
course	-5060
degree	-5061
ifying	-5062
imited	-5063
levant	-5064
mokers	-5065
needle	-5066
normal	-5067
ocytes	-5068
olytic	-5069
ometry	-5070
onsill	-5071
plasia	-5072
quired	-5073
rength	-5074
ressin	-5075
retion	-5076
rocyte	-5077
ternal	-5078
▁Apgar	-5079
▁adhes	-5080
▁alpha	-5081
▁antif	-5082
▁bioch	-5083
▁budes	-5084
▁drink	-5085
▁force	-5086
▁fruit	-5087
▁gabap	-5088
▁goals	-5089
▁gynec	-5090
▁honey	-5091
▁human	-5092
▁incom	-5093
▁inhal	-5094
▁neopl	-5095
▁neuro	-5096
▁never	-5097
▁night	-5098
▁postn	-5099
▁prost	-5100
▁queti	-5101
▁quoti	-5102
▁renin	-5103
▁rosig	-5104
▁scalp	-5105
▁simpl	-5106
▁sonoh	-5107
▁sound	-5108
▁splin	-5109
▁takes	-5110
▁tumor	-5111
▁types	-5112
▁union	-5113
▁veget	-5114
apartum	-5115
areness	-5116
certain	-5117
cessive	-5118
channel	-5119
fficacy	-5120
iazolid	-5121
igorous	-5122
ingitis	-5123
malonic	-5124
obacill	-5125
onadism	-5126
onectin	-5127
orectal	-5128
orrheic	-5129
ralfate	-5130
tenance	-5131
uestion	-5132
▁10,000	-5133
▁Combin	-5134
▁attemp	-5135
▁become	-5136
▁candid	-5137
▁choice	-5138
▁commer	-5139
▁compre	-5140
▁desmop	-5141
▁energy	-5142
▁enzyme	-5143
▁glomer	-5144
▁kidney	-5145
▁living	-5146
▁making	-5147
▁middle	-5148
▁minute	-5149
▁mostly	-5150
▁mother	-5151
▁neural	-5152
▁others	-5153
▁oxygen	-5154
▁poorly	-5155
▁possib	-5156
▁proper	-5157
▁ranged	-5158
▁rarely	-5159
▁sepsis	-5160
▁smears	-5161
▁subset	-5162
▁sudden	-5163
▁throat	-5164
▁transi	-5165
▁triple	-5166
▁versus	-5167
▁widely	-5168
▁workup	-5169
atropium	-5170
compared	-5171
elective	-5172
hypopnea	-5173
ipramine	-5174
olerance	-5175
omiphene	-5176
oporotic	-5177
pecially	-5178
weighted	-5179
▁Aspirin	-5180
▁Disease	-5181
▁Results	-5182
▁Smoking	-5183
▁Surgery	-5184
▁account	-5185
▁achieve	-5186
▁antigen	-5187
▁certain	-5188
▁classic	-5189
▁clinics	-5190
▁college	-5191
▁comment	-5192
▁conclud	-5193
▁consult	-5194
▁daytime	-5195
▁defects	-5196
▁dosages	-5197
▁dyspnea	-5198
▁equally	-5199
▁exacerb	-5200
▁experts	-5201
▁febrile	-5202
▁femoral	-5203
▁ferrous	-5204
▁focused	-5205
▁hepatic	-5206
▁hypocal	-5207
▁inverse	-5208
▁lacking	-5209
▁lateral	-5210
▁lowered	-5211
▁million	-5212
▁minimum	-5213
▁offered	-5214
▁periods	-5215
▁protect	-5216
▁refusal	-5217
▁removed	-5218
▁roughly	-5219
▁section	-5220
▁simplex	-5221
▁soiling	-5222
▁utility	-5223
▁version	-5224
▁weighed	-5225
▁workers	-5226
accinated	-5227
amination	-5228
articular	-5229
essionals	-5230
hematuria	-5231
inediones	-5232
oconazole	-5233
promazine	-5234
resistant	-5235
sequently	-5236
sweetened	-5237
trimester	-5238
ystematic	-5239
▁Nineteen	-5240
▁Outcomes	-5241
▁ThinPrep	-5242
▁admitted	-5243
▁advanced	-5244
▁articles	-5245
▁biopsies	-5246
▁blinding	-5247
▁category	-5248
▁continue	-5249
▁database	-5250
▁detailed	-5251
▁directly	-5252
▁distress	-5253
▁echocard	-5254
▁expected	-5255
▁external	-5256
▁favoring	-5257
▁indicate	-5258
▁infected	-5259
▁insomnia	-5260
▁ischemia	-5261
▁laxative	-5262
▁location	-5263
▁majority	-5264
▁mellitus	-5265
▁modified	-5266
▁occurren	-5267
▁original	-5268
▁outweigh	-5269
▁partners	-5270
▁peroxide	-5271
▁ramipril	-5272
▁receptor	-5273
▁relevant	-5274
▁repeated	-5275
▁requires	-5276
▁resolved	-5277
▁strength	-5278
▁stronger	-5279
▁students	-5280
▁titrated	-5281
▁tubercle	-5282
▁variable	-5283
entricular	-5284
formations	-5285
othyroxine	-5286
ulliparous	-5287
▁awareness	-5288
▁beginning	-5289
▁bilirubin	-5290
▁breathing	-5291
▁calculate	-5292
▁comprised	-5293
▁countries	-5294
▁deviation	-5295
▁diagnoses	-5296
▁elemental	-5297
▁exclusive	-5298
▁immunocom	-5299
▁improving	-5300
▁initially	-5301
▁initiated	-5302
▁knowledge	-5303
▁pediatric	-5304
▁pressures	-5305
▁recovered	-5306
▁recruited	-5307
▁remaining	-5308
▁resulting	-5309
▁serologic	-5310
▁similarly	-5311
▁splinting	-5312
▁tolerated	-5313
▁worsening	-5314
angiotensin	-5315
▁Antibiotic	-5316
▁accurately	-5317
▁adjustment	-5318
▁admissions	-5319
▁advantages	-5320
▁aggression	-5321
▁amenorrhea	-5322
▁analgesics	-5323
▁budesonide	-5324
▁calcitonin	-5325
▁citalopram	-5326
▁clomiphene	-5327
▁colorectal	-5328
▁complaints	-5329
▁cumulative	-5330
▁disability	-5331
▁elevations	-5332
▁frequently	-5333
▁gabapentin	-5334
▁granulomas	-5335
▁hydrochlor	-5336
▁impairment	-5337
▁indicating	-5338
▁initiating	-5339
▁lovastatin	-5340
▁metoprolol	-5341
▁neurologic	-5342
▁predicting	-5343
▁quetiapine	-5344
▁relaxation	-5345
▁reversible	-5346
▁sonohyster	-5347
▁surgically	-5348
uestionnaire	-5349
▁abnormality	-5350
▁acupuncture	-5351
▁adiponectin	-5352
▁biochemical	-5353
▁coagulation	-5354
▁educational	-5355
▁erythrocyte	-5356
▁fluconazole	-5357
▁hepatotoxic	-5358
▁ipratropium	-5359
▁limitations	-5360
▁maintenance	-5361
▁measurement	-5362
▁miscarriage	-5363
▁pregnancies	-5364
▁proteinuria	-5365
▁stimulation	-5366
▁superiority	-5367
▁complication	-5368
▁desmopressin	-5369
▁hysteroscopy	-5370
▁lansoprazole	-5371
▁streptococci	-5372
▁subcutaneous	-5373
▁successfully	-5374
▁testosterone	-5375
▁tolerability	-5376
▁transaminase	-5377
▁undetermined	-5378
▁comprehensive	-5379
▁demonstrating	-5380
▁methylmalonic	-5381
▁nonantibiotic	-5382
▁postoperative	-5383
▁prescriptions	-5384
▁rosiglitazone	-5385
cholesterolemia	-5386
▁contraceptives	-5387
▁corticosteroid	-5388
▁diverticulosis	-5389
▁pentoxifylline	-5390
iazolidinediones	-5391
▁ultrasonography	-5392
.3	-5393
17	-5394
32	-5395
42	-5396
55	-5397
97	-5398
BC	-5399
BR	-5400
BS	-5401
BT	-5402
CE	-5403
FI	-5404
GR	-5405
HT	-5406
IB	-5407
OM	-5408
])	-5409
aR	-5410
de	-5411
pm	-5412
uv	-5413
ws	-5414
-65	-5415
2),	-5416
26.	-5417
3%;	-5418
5),	-5419
50;	-5420
7.2	-5421
9),	-5422
9);	-5423
9.4	-5424
ASH	-5425
CAP	-5426
CDC	-5427
CHD	-5428
CUS	-5429
DAb	-5430
LDL	-5431
MDI	-5432
OPE	-5433
RRR	-5434
URB	-5435
aft	-5436
apa	-5437
bal	-5438
bil	-5439
cor	-5440
cyt	-5441
dyn	-5442
efl	-5443
eil	-5444
emy	-5445
eta	-5446
ewh	-5447
flu	-5448
fre	-5449
ibe	-5450
lla	-5451
lys	-5452
man	-5453
men	-5454
mur	-5455
mus	-5456
nec	-5457
nel	-5458
oca	-5459
ohn	-5460
ole	-5461
oon	-5462
osh	-5463
oyl	-5464
ped	-5465
pet	-5466
pla	-5467
rex	-5468
rus	-5469
sia	-5470
tif	-5471
tle	-5472
tor	-5473
uct	-5474
▁-1	-5475
▁39	-5476
▁61	-5477
▁66	-5478
▁67	-5479
▁76	-5480
▁77	-5481
▁8-	-5482
▁84	-5483
▁<6	-5484
▁Eu	-5485
▁Gl	-5486
▁Op	-5487
▁eg	-5488
-0.4	-5489
-1.7	-5490
-2.9	-5491
-20.	-5492
-3.0	-5493
0%),	-5494
01).	-5495
5%),	-5496
8%),	-5497
9%).	-5498
9.6%	-5499
=1.0	-5500
=1.2	-5501
=1.5	-5502
=5).	-5503
=8).	-5504
ABAs	-5505
acer	-5506
acit	-5507
adir	-5508
airs	-5509
alid	-5510
amis	-5511
amox	-5512
atar	-5513
barr	-5514
book	-5515
burn	-5516
calc	-5517
cept	-5518
cour	-5519
disc	-5520
enef	-5521
enza	-5522
etim	-5523
ghai	-5524
heum	-5525
ifth	-5526
imal	-5527
iron	-5528
ives	-5529
lact	-5530
nias	-5531
opid	-5532
orce	-5533
oric	-5534
otor	-5535
oxid	-5536
ract	-5537
rang	-5538
rief	-5539
rium	-5540
romy	-5541
ross	-5542
stin	-5543
thes	-5544
trol	-5545
urer	-5546
uvaR	-5547
vuls	-5548
▁(11	-5549
▁(12	-5550
▁1.7	-5551
▁1.9	-5552
▁102	-5553
▁104	-5554
▁105	-5555
▁135	-5556
▁14-	-5557
▁16.	-5558
▁2.0	-5559
▁2.2	-5560
▁23.	-5561
▁24%	-5562
▁26%	-5563
▁27%	-5564
▁35.	-5565
▁4.0	-5566
▁4.9	-5567
▁43%	-5568
▁46%	-5569
▁49%	-5570
▁5.4	-5571
▁51%	-5572
▁65%	-5573
▁66%	-5574
▁67%	-5575
▁76%	-5576
▁79%	-5577
▁86%	-5578
▁99.	-5579
▁<0.	-5580
▁>40	-5581
▁BCG	-5582
▁But	-5583
▁CVD	-5584
▁Cal	-5585
▁Can	-5586
▁EMA	-5587
▁End	-5588
▁INR	-5589
▁IVP	-5590
▁IgM	-5591
▁Ins	-5592
▁LNG	-5593
▁Not	-5594
▁Reg	-5595
▁SCS	-5596
▁Suc	-5597
▁bar	-5598
▁bic	-5599
▁cri	-5600
▁dex	-5601
▁dry	-5602
▁eat	-5603
▁ess	-5604
▁ful	-5605
▁jud	-5606
▁lid	-5607
▁lin	-5608
▁lor	-5609
▁mIU	-5610
▁mem	-5611
▁nas	-5612
▁ppm	-5613
▁pyr	-5614
▁ran	-5615
▁sec	-5616
▁spi	-5617
▁syn	-5618
▁tTG	-5619
▁toe	-5620
▁tra	-5621
▁veh	-5622
▁ves	-5623
▁via	-5624
/1000	-5625
5-0.7	-5626
5-0.9	-5627
=0.4;	-5628
]=0.2	-5629
]=0.4	-5630
]=0.5	-5631
]=0.6	-5632
]=0.8	-5633
ademy	-5634
adine	-5635
after	-5636
algia	-5637
allen	-5638
altep	-5639
arged	-5640
arian	-5641
axine	-5642
copro	-5643
eases	-5644
echan	-5645
erest	-5646
eries	-5647
etely	-5648
eters	-5649
iable	-5650
ident	-5651
inion	-5652
inite	-5653
iplin	-5654
ister	-5655
itour	-5656
itude	-5657
iuria	-5658
jects	-5659
lavic	-5660
metic	-5661
ocell	-5662
oline	-5663
oling	-5664
onset	-5665
opril	-5666
osity	-5667
osmol	-5668
ostic	-5669
place	-5670
posed	-5671
ptive	-5672
racin	-5673
rofur	-5674
roids	-5675
total	-5676
troph	-5677
ulvov	-5678
uming	-5679
ungal	-5680
uries	-5681
ustry	-5682
usual	-5683
vided	-5684
worst	-5685
▁(500	-5686
▁(92%	-5687
▁0.58	-5688
▁0.71	-5689
▁0.72	-5690
▁0.9%	-5691
▁1.04	-5692
▁1.11	-5693
▁1.25	-5694
▁1966	-5695
▁1980	-5696
▁1991	-5697
▁1999	-5698
▁2.5%	-5699
▁2.8%	-5700
▁2003	-5701
▁3.6%	-5702
▁60%.	-5703
▁98%,	-5704
▁Also	-5705
▁CURB	-5706
▁DASH	-5707
▁Many	-5708
▁None	-5709
▁Oral	-5710
▁Prog	-5711
▁Shan	-5712
▁Test	-5713
▁agon	-5714
▁alle	-5715
▁aver	-5716
▁bact	-5717
▁ball	-5718
▁caps	-5719
▁chem	-5720
▁coll	-5721
▁cone	-5722
▁cuff	-5723
▁dual	-5724
▁echo	-5725
▁enal	-5726
▁enti	-5727
▁fine	-5728
▁flex	-5729
▁full	-5730
▁gent	-5731
▁gout	-5732
▁hour	-5733
▁impl	-5734
▁lapa	-5735
▁limb	-5736
▁meat	-5737
▁mefl	-5738
▁nuts	-5739
▁orch	-5740
▁phot	-5741
▁refl	-5742
▁sham	-5743
▁sore	-5744
▁task	-5745
▁thor	-5746
▁toge	-5747
▁trad	-5748
=.04).	-5749
=0.99;	-5750
allerg	-5751
amicin	-5752
antoin	-5753
ariate	-5754
associ	-5755
attern	-5756
azepam	-5757
breast	-5758
buride	-5759
cepted	-5760
cially	-5761
ducing	-5762
enting	-5763
eremia	-5764
ionate	-5765
iotrop	-5766
linked	-5767
lysate	-5768
naires	-5769
ocaine	-5770
ongest	-5771
onomic	-5772
onvuls	-5773
ophile	-5774
ophleb	-5775
oquine	-5776
orbent	-5777
oterol	-5778
otrans	-5779
ources	-5780
ourses	-5781
produc	-5782
quency	-5783
respon	-5784
roscop	-5785
severe	-5786
tinoin	-5787
ulated	-5788
within	-5789
▁100%.	-5790
▁ASCUS	-5791
▁Evalu	-5792
▁NuvaR	-5793
▁Paren	-5794
▁Rates	-5795
▁SABAs	-5796
▁SOAPP	-5797
▁Short	-5798
▁atten	-5799
▁bever	-5800
▁brief	-5801
▁close	-5802
▁conce	-5803
▁diets	-5804
▁disch	-5805
▁drawn	-5806
▁enhan	-5807
▁enter	-5808
▁exams	-5809
▁fifth	-5810
▁flaws	-5811
▁fluid	-5812
▁grade	-5813
▁harms	-5814
▁items	-5815
▁might	-5816
▁nadir	-5817
▁nebul	-5818
▁organ	-5819
▁panic	-5820
▁plain	-5821
▁rated	-5822
▁recur	-5823
▁reinf	-5824
▁rheum	-5825
▁satur	-5826
▁serop	-5827
▁serot	-5828
▁spray	-5829
▁tamox	-5830
▁therm	-5831
▁unnec	-5832
▁urban	-5833
▁visit	-5834
▁whoop	-5835
=.001).	-5836
agnosed	-5837
agonist	-5838
amilton	-5839
arotene	-5840
blocker	-5841
clusive	-5842
cussion	-5843
cytosis	-5844
dynamic	-5845
eilitis	-5846
etimibe	-5847
ference	-5848
oglobin	-5849
opharyn	-5850
organic	-5851
orption	-5852
plained	-5853
ranasal	-5854
roscopy	-5855
tically	-5856
uterine	-5857
walking	-5858
xylitol	-5859
▁Adoles	-5860
▁Compar	-5861
▁Eighty	-5862
▁Global	-5863
▁Sevent	-5864
▁Severe	-5865
▁Sweden	-5866
▁arrest	-5867
▁benign	-5868
▁bicarb	-5869
▁births	-5870
▁bottle	-5871
▁called	-5872
▁caries	-5873
▁cereal	-5874
▁chance	-5875
▁cohosh	-5876
▁daltep	-5877
▁define	-5878
▁dermat	-5879
▁device	-5880
▁distur	-5881
▁drinks	-5882
▁encour	-5883
▁entire	-5884
▁exists	-5885
▁expert	-5886
▁fluids	-5887
▁folate	-5888
▁fourth	-5889
▁future	-5890
▁gender	-5891
▁growth	-5892
▁hypers	-5893
▁immune	-5894
▁intent	-5895
▁lacked	-5896
▁limits	-5897
▁liquid	-5898
▁marker	-5899
▁mechan	-5900
▁memory	-5901
▁models	-5902
▁myomas	-5903
▁nausea	-5904
▁perfor	-5905
▁proton	-5906
▁quanti	-5907
▁ranges	-5908
▁recall	-5909
▁rectal	-5910
▁reflex	-5911
▁repres	-5912
▁scales	-5913
▁scored	-5914
▁somewh	-5915
▁spacer	-5916
▁sports	-5917
▁states	-5918
▁strang	-5919
▁suicid	-5920
▁tablet	-5921
▁tended	-5922
▁transl	-5923
▁transm	-5924
▁tumors	-5925
▁unless	-5926
▁venlaf	-5927
▁vulvov	-5928
absolute	-5929
approved	-5930
athyroid	-5931
fluoride	-5932
hexidine	-5933
iplinary	-5934
orcement	-5935
oriented	-5936
oxidants	-5937
possible	-5938
standard	-5939
stinence	-5940
ulopathy	-5941
▁0.04-0.	-5942
▁Academy	-5943
▁Centers	-5944
▁Control	-5945
▁Notably	-5946
▁Statins	-5947
▁airflow	-5948
▁allowed	-5949
▁attacks	-5950
▁augment	-5951
▁balloon	-5952
▁benzoyl	-5953
▁bladder	-5954
▁cautery	-5955
▁caution	-5956
▁central	-5957
▁challen	-5958
▁closure	-5959
▁conduct	-5960
▁contrib	-5961
▁courses	-5962
▁derived	-5963
▁diaries	-5964
▁divided	-5965
▁dropout	-5966
▁epstein	-5967
▁essenti	-5968
▁evening	-5969
▁helical	-5970
▁helpful	-5971
▁hernias	-5972
▁inhaler	-5973
▁lymphad	-5974
▁massage	-5975
▁matched	-5976
▁maximal	-5977
▁metered	-5978
▁migrans	-5979
▁obstetr	-5980
▁optimal	-5981
▁ordered	-5982
▁ossicle	-5983
▁partner	-5984
▁reasons	-5985
▁rehabil	-5986
▁relieve	-5987
▁screens	-5988
▁soluble	-5989
▁subject	-5990
▁summary	-5991
▁surveys	-5992
▁typical	-5993
▁underst	-5994
▁usually	-5995
▁vehicle	-5996
▁weights	-5997
▁xylitol	-5998
acitracin	-5999
asalazine	-6000
coprotein	-6001
hemolytic	-6002
iotropium	-6003
lavicular	-6004
ocellular	-6005
ominantly	-6006
romyalgia	-6007
ufacturer	-6008
▁Analysis	-6009
▁NuvaRing	-6010
▁Shanghai	-6011
▁Subgroup	-6012
▁Subjects	-6013
▁Thirteen	-6014
▁accepted	-6015
▁accounts	-6016
▁annually	-6017
▁arterial	-6018
▁consider	-6019
▁contacts	-6020
▁contents	-6021
▁cosmetic	-6022
▁diseases	-6023
▁doubling	-6024
▁ejection	-6025
▁elective	-6026
▁epidural	-6027
▁estimate	-6028
▁etiology	-6029
▁familial	-6030
▁features	-6031
▁fibroids	-6032
▁fluoride	-6033
▁fraction	-6034
▁genitour	-6035
▁glycemic	-6036
▁hyperand	-6037
▁improves	-6038
▁includes	-6039
▁industry	-6040
▁injuries	-6041
▁medicine	-6042
▁national	-6043
▁obtained	-6044
▁parallel	-6045
▁parental	-6046
▁receiver	-6047
▁research	-6048
▁rigorous	-6049
▁selected	-6050
▁servings	-6051
▁starting	-6052
▁thorough	-6053
▁together	-6054
▁traction	-6055
▁urologic	-6056
▁wheezing	-6057
amethasone	-6058
associated	-6059
completely	-6060
generation	-6061
ophlebitis	-6062
▁Screening	-6063
▁Therefore	-6064
▁assessors	-6065
▁asthmatic	-6066
▁avoidance	-6067
▁bariatric	-6068
▁beverages	-6069
▁bilateral	-6070
▁collected	-6071
▁consensus	-6072
▁consisted	-6073
▁curettage	-6074
▁cutaneous	-6075
▁decongest	-6076
▁delivered	-6077
▁depending	-6078
▁electroac	-6079
▁electroly	-6080
▁enalapril	-6081
▁examining	-6082
▁excessive	-6083
▁excretion	-6084
▁excretory	-6085
▁extension	-6086
▁glyburide	-6087
▁histology	-6088
▁identical	-6089
▁indicator	-6090
▁influenza	-6091
▁interpret	-6092
▁irritable	-6093
▁leukocyte	-6094
▁lidocaine	-6095
▁magnesium	-6096
▁magnitude	-6097
▁metabolic	-6098
▁minimally	-6099
▁multidisc	-6100
▁neoplasia	-6101
▁occurring	-6102
▁operative	-6103
▁partially	-6104
▁placement	-6105
▁quotients	-6106
▁remainder	-6107
▁satisfied	-6108
▁selection	-6109
▁supported	-6110
▁tamoxifen	-6111
▁thickness	-6112
▁tretinoin	-6113
▁typically	-6114
▁uncertain	-6115
▁universal	-6116
▁urography	-6117
▁valproate	-6118
examination	-6119
rofurantoin	-6120
▁Evaluation	-6121
▁activities	-6122
▁addressing	-6123
▁antifungal	-6124
▁appearance	-6125
▁attributed	-6126
▁bacteremia	-6127
▁categories	-6128
▁conception	-6129
▁dalteparin	-6130
▁eliminated	-6131
▁endoscopic	-6132
▁expectancy	-6133
▁gentamicin	-6134
▁hemoglobin	-6135
▁incomplete	-6136
▁irbesartan	-6137
▁mefloquine	-6138
▁meningitis	-6139
▁moderately	-6140
▁nasopharyn	-6141
▁neuropsych	-6142
▁occurrence	-6143
▁perception	-6144
▁pneumoniae	-6145
▁prednisone	-6146
▁propionate	-6147
▁proportion	-6148
▁reasonable	-6149
▁separately	-6150
▁sleepiness	-6151
▁sonography	-6152
▁sucralfate	-6153
▁supporting	-6154
▁toothpaste	-6155
▁urodynamic	-6156
▁validating	-6157
ticosteroids	-6158
▁Antibiotics	-6159
▁alendronate	-6160
▁anticonvuls	-6161
▁arrhythmias	-6162
▁bacteriuria	-6163
▁bicarbonate	-6164
▁comparative	-6165
▁contraction	-6166
▁controlling	-6167
▁exclusively	-6168
▁functioning	-6169
▁heterophile	-6170
▁hydrolysate	-6171
▁hyperplasia	-6172
▁institution	-6173
▁intercourse	-6174
▁intolerance	-6175
▁nonsurgical	-6176
▁nulliparous	-6177
▁observation	-6178
▁perforation	-6179
▁preexisting	-6180
▁substantial	-6181
▁supplements	-6182
▁traditional	-6183
▁unexplained	-6184
▁venlafaxine	-6185
▁ventricular	-6186
effectiveness	-6187
▁Intervention	-6188
▁alternatives	-6189
▁antioxidants	-6190
▁antipyretics	-6191
▁applications	-6192
▁azithromycin	-6193
▁commercially	-6194
▁consistently	-6195
▁consultation	-6196
▁hypocalcemia	-6197
▁hypogonadism	-6198
▁intrauterine	-6199
▁ketoconazole	-6200
▁macrocytosis	-6201
▁manufacturer	-6202
▁normotensive	-6203
▁osteoporotic	-6204
▁percutaneous	-6205
▁phototherapy	-6206
▁progesterone	-6207
▁progestogens	-6208
▁restrictions	-6209
▁seropositive	-6210
▁subsequently	-6211
▁tendonopathy	-6212
▁triglyceride	-6213
▁chlorhexidine	-6214
▁genitourinary	-6215
▁immunosorbent	-6216
▁levothyroxine	-6217
▁malformations	-6218
▁mycologically	-6219
▁pharmacologic	-6220
▁strangulation	-6221
▁sulfonylureas	-6222
▁characteristic	-6223
▁chlorpromazine	-6224
▁hepatocellular	-6225
▁hepatotoxicity	-6226
▁hyperlipidemia	-6227
▁microhematuria	-6228
▁questionnaires	-6229
▁rehabilitation	-6230
▁benzodiazepines	-6231
▁characteristics	-6232
▁electrosurgical	-6233
▁lymphadenopathy	-6234
▁thromboembolism	-6235
".	-6236
)-	-6237
..	-6238
.8	-6239
78	-6240
FC	-6241
IL	-6242
LT	-6243
RO	-6244
Re	-6245
,00	-6246
.".	-6247
.2%	-6248
/10	-6249
/30	-6250
0%;	-6251
0).	-6252
00)	-6253
1.2	-6254
11;	-6255
15)	-6256
16;	-6257
3%)	-6258
3.2	-6259
4%.	-6260
72;	-6261
76)	-6262
77)	-6263
77;	-6264
89,	-6265
=.3	-6266
=16	-6267
=20	-6268
=40	-6269
=8.	-6270
DAS	-6271
ERS	-6272
FEV	-6273
HbA	-6274
PDS	-6275
RAs	-6276
aly	-6277
cog	-6278
due	-6279
elf	-6280
els	-6281
enc	-6282
ept	-6283
fir	-6284
hel	-6285
hib	-6286
ict	-6287
key	-6288
ler	-6289
nex	-6290
ony	-6291
pot	-6292
que	-6293
rug	-6294
sed	-6295
sue	-6296
tex	-6297
unc	-6298
ynv	-6299
.6	-6300
13	-6301
FR	-6302
HA	-6303
MP	-6304
gu	-6305
<0.	-6306
EEP	-6307
ado	-6308
bac	-6309
cys	-6310
fet	-6311
ilv	-6312
rev	-6313
rth	-6314
see	-6315
tri	-6316
▁1)	-6317
▁2)	-6318
▁49	-6319
▁53	-6320
▁56	-6321
▁59	-6322
▁63	-6323
▁71	-6324
▁72	-6325
▁87	-6326
▁95	-6327
▁96	-6328
▁98	-6329
▁<2	-6330
▁<5	-6331
▁BV	-6332
▁Co	-6333
▁En	-6334
▁HR	-6335
▁Ir	-6336
▁LA	-6337
▁LT	-6338
▁Le	-6339
▁ME	-6340
▁Ma	-6341
▁ez	-6342
▁ja	-6343
▁kn	-6344
-0.6	-6345
-1.4	-6346
-100	-6347
-13.	-6348
-15.	-6349
-2.0	-6350
-2.3	-6351
-3.3	-6352
-5.3	-6353
-7.0	-6354
-800	-6355
1%).	-6356
2%).	-6357
4%-9	-6358
40).	-6359
54).	-6360
6-1.	-6361
7-5.	-6362
8%).	-6363
85).	-6364
=1.9	-6365
=126	-6366
=2.2	-6367
=4).	-6368
HOPE	-6369
acch	-6370
achn	-6371
aden	-6372
ales	-6373
arbo	-6374
berg	-6375
both	-6376
ched	-6377
chid	-6378
cons	-6379
cure	-6380
diab	-6381
diff	-6382
eady	-6383
elve	-6384
eper	-6385
erve	-6386
etus	-6387
feed	-6388
foll	-6389
four	-6390
from	-6391
galy	-6392
help	-6393
icin	-6394
ideo	-6395
ived	-6396
izer	-6397
just	-6398
lamp	-6399
.1	-6400
31	-6401
AF	-6402
HI	-6403
by	-6404
pr	-6405
41;	-6406
=60	-6407
can	-6408
eck	-6409
ged	-6410
gom	-6411
oor	-6412
ows	-6413
pal	-6414
pan	-6415
was	-6416
▁83	-6417
▁91	-6418
▁99	-6419
▁wr	-6420
-4.9	-6421
0.2%	-6422
25),	-6423
6%),	-6424
=2).	-6425
atre	-6426
esal	-6427
item	-6428
leuk	-6429
like	-6430
mass	-6431
meth	-6432
mune	-6433
obil	-6434
onor	-6435
oppl	-6436
orie	-6437
orty	-6438
oses	-6439
osex	-6440
outh	-6441
outs	-6442
part	-6443
ping	-6444
race	-6445
rays	-6446
ride	-6447
rive	-6448
road	-6449
rose	-6450
rupt	-6451
step	-6452
stol	-6453
stud	-6454
sulf	-6455
thma	-6456
tick	-6457
tral	-6458
trim	-6459
uits	-6460
uris	-6461
used	-6462
utch	-6463
uted	-6464
valv	-6465
veni	-6466
ypes	-6467
ysms	-6468
▁(14	-6469
▁(19	-6470
▁(26	-6471
▁(40	-6472
▁(42	-6473
▁0%,	-6474
▁109	-6475
▁11%	-6476
▁112	-6477
▁114	-6478
▁118	-6479
▁120	-6480
▁133	-6481
▁15-	-6482
▁158	-6483
▁2%.	-6484
▁2%;	-6485
▁20,	-6486
▁20-	-6487
▁208	-6488
▁23%	-6489
▁24.	-6490
▁25-	-6491
▁25.	-6492
▁264	-6493
▁270	-6494
▁3.0	-6495
▁3.2	-6496
▁3.4	-6497
▁3.8	-6498
▁34%	-6499
28	-6500
7,	-6501
81	-6502
84	-6503
85	-6504
AE	-6505
II	-6506
SE	-6507
SH	-6508
Th	-6509
US	-6510
go	-6511
gs	-6512
vs	-6513
xa	-6514
ape	-6515
cre	-6516
cyc	-6517
exy	-6518
ire	-6519
rew	-6520
rob	-6521
sal	-6522
upp	-6523
ura	-6524
▁3)	-6525
▁pg	-6526
0.4%	-6527
corn	-6528
eluk	-6529
▁(15	-6530
▁19,	-6531
▁350	-6532
▁38%	-6533
▁4.5	-6534
▁4.8	-6535
▁40-	-6536
▁41.	-6537
▁42.	-6538
▁48.	-6539
▁5.6	-6540
▁5.7	-6541
▁52%	-6542
▁54%	-6543
▁55%	-6544
▁56%	-6545
▁58%	-6546
▁6.1	-6547
▁6.3	-6548
▁6.4	-6549
▁6.9	-6550
▁61%	-6551
▁69%	-6552
▁800	-6553
▁81%	-6554
▁83%	-6555
▁89%	-6556
▁9.7	-6557
▁92%	-6558
▁99%	-6559
▁<10	-6560
▁<90	-6561
▁>1.	-6562
▁>20	-6563
▁ABR	-6564
▁AFP	-6565
▁AOM	-6566
▁Acc	-6567
▁Add	-6568
▁Att	-6569
▁BMD	-6570
▁CFC	-6571
▁Col	-6572
▁Cor	-6573
▁Cry	-6574
▁Des	-6575
▁Due	-6576
▁ECG	-6577
▁EIB	-6578
▁EST	-6579
▁Few	-6580
▁Gen	-6581
▁Hib	-6582
▁Hol	-6583
▁ICU	-6584
▁Lik	-6585
▁Men	-6586
▁NNH	-6587
▁NPH	-6588
▁Nor	-6589
▁OAE	-6590
▁Per	-6591
▁SPL	-6592
▁Ser	-6593
▁TMP	-6594
▁Var	-6595
▁alg	-6596
▁alt	-6597
▁amb	-6598
▁aqu	-6599
▁cef	-6600
▁cit	-6601
▁die	-6602
▁dip	-6603
▁etc	-6604
▁eth	-6605
▁fac	-6606
▁fen	-6607
▁hot	-6608
▁how	-6609
▁ide	-6610
▁key	-6611
▁lay	-6612
▁lep	-6613
▁naf	-6614
▁net	-6615
▁ong	-6616
▁pea	-6617
▁pit	-6618
▁reb	-6619
▁sap	-6620
▁say	-6621
▁seb	-6622
▁swe	-6623
▁una	-6624
▁uns	-6625
▁zol	-6626
3-1.6	-6627
6-0.9	-6628
7-0.9	-6629
8-1.5	-6630
<.05)	-6631
=.03;	-6632
=1.4;	-6633
=16).	-6634
=27).	-6635
]=0.0	-6636
acids	-6637
acran	-6638
adene	-6639
aicin	-6640
amcin	-6641
ament	-6642
anese	-6643
aride	-6644
atoid	-6645
bacco	-6646
bivol	-6647
break	-6648
comit	-6649
efore	-6650
eight	-6651
emide	-6652
ences	-6653
enses	-6654
entil	-6655
ephal	-6656
fiber	-6657
found	-6658
gment	-6659
iclop	-6660
icted	-6661
initi	-6662
inser	-6663
inter	-6664
ipple	-6665
isten	-6666
istry	-6667
labor	-6668
metin	-6669
nexal	-6670
night	-6671
odone	-6672
ogrel	-6673
ometh	-6674
opath	-6675
ophil	-6676
ophys	-6677
orpor	-6678
otrex	-6679
otype	-6680
proex	-6681
range	-6682
renal	-6683
romoc	-6684
roxyz	-6685
scale	-6686
tense	-6687
tiary	-6688
toler	-6689
urmur	-6690
uster	-6691
ympan	-6692
yptor	-6693
▁(16.	-6694
▁(19%	-6695
▁(2),	-6696
▁(25.	-6697
▁(32%	-6698
▁(50%	-6699
▁(61%	-6700
▁(70%	-6701
▁(78%	-6702
▁(90%	-6703
▁(99%	-6704
▁-0.0	-6705
▁-1.6	-6706
▁0.01	-6707
▁0.06	-6708
▁0.09	-6709
▁0.19	-6710
▁0.21	-6711
▁0.29	-6712
▁0.33	-6713
▁0.43	-6714
▁0.5%	-6715
▁0.54	-6716
▁0.6%	-6717
▁0.63	-6718
▁0.7%	-6719
▁0.80	-6720
▁0.81	-6721
▁0.84	-6722
▁0.97	-6723
▁1.02	-6724
▁1.05	-6725
▁1.17	-6726
▁1.35	-6727
▁1.61	-6728
▁10%,	-6729
▁14.8	-6730
▁1990	-6731
▁1996	-6732
▁2.3%	-6733
▁2.6%	-6734
▁20%.	-6735
▁2007	-6736
▁2779	-6737
▁50%,	-6738
▁6.5%	-6739
▁ADAS	-6740
▁ARBs	-6741
▁Acet	-6742
▁Auth	-6743
▁Benz	-6744
▁Beta	-6745
▁Case	-6746
▁Comm	-6747
▁Cons	-6748
▁DVTs	-6749
▁Finn	-6750
▁IUDs	-6751
▁LEEP	-6752
▁Lact	-6753
▁Less	-6754
▁Nine	-6755
▁PEFR	-6756
▁PPDs	-6757
▁Peak	-6758
▁Prot	-6759
▁Spec	-6760
▁Synv	-6761
▁Wadd	-6762
▁aber	-6763
▁aids	-6764
▁anes	-6765
▁atom	-6766
▁audi	-6767
▁bath	-6768
▁calf	-6769
▁caro	-6770
▁chew	-6771
▁chor	-6772
▁clot	-6773
▁coli	-6774
▁didn	-6775
▁disc	-6776
▁doxy	-6777
▁ease	-6778
▁eggs	-6779
▁ejac	-6780
▁elig	-6781
▁evac	-6782
▁exud	-6783
▁fell	-6784
▁fish	-6785
▁fulf	-6786
▁gath	-6787
▁just	-6788
▁kept	-6789
▁lean	-6790
▁left	-6791
▁mast	-6792
▁morn	-6793
▁narr	-6794
▁nerv	-6795
▁past	-6796
▁peak	-6797
▁pyel	-6798
▁rash	-6799
▁stap	-6800
▁susp	-6801
▁teen	-6802
▁thin	-6803
▁undi	-6804
▁urea	-6805
▁wall	-6806
-0.8).	-6807
=.02),	-6808
=.02).	-6809
=0.64;	-6810
=0.68;	-6811
=0.85;	-6812
abling	-6813
ainage	-6814
amazep	-6815
amisil	-6816
anazol	-6817
andial	-6818
andida	-6819
anemic	-6820
arachn	-6821
argine	-6822
arized	-6823
asberg	-6824
atosis	-6825
azolam	-6826
ceived	-6827
cohort	-6828
confir	-6829
cystic	-6830
ealand	-6831
eclamp	-6832
effect	-6833
eletal	-6834
factor	-6835
fortun	-6836
gomery	-6837
ibrate	-6838
immune	-6839
ingdom	-6840
ingful	-6841
iopexy	-6842
letion	-6843
leukin	-6844
llment	-6845
microb	-6846
missed	-6847
muscle	-6848
ociety	-6849
olones	-6850
openia	-6851
oppler	-6852
ortive	-6853
petent	-6854
points	-6855
rected	-6856
regate	-6857
ruptly	-6858
therap	-6859
threat	-6860
tifine	-6861
trophy	-6862
uality	-6863
ulence	-6864
umatic	-6865
uments	-6866
uminal	-6867
uresis	-6868
veries	-6869
weekly	-6870
▁(71%)	-6871
▁88%-9	-6872
▁Appro	-6873
▁Benef	-6874
▁Canad	-6875
▁China	-6876
▁Compl	-6877
▁Exper	-6878
▁Fifty	-6879
▁Final	-6880
▁Forty	-6881
▁GADAb	-6882
▁Grade	-6883
▁Group	-6884
▁Hyper	-6885
▁Impro	-6886
▁along	-6887
▁awake	-6888
▁basis	-6889
▁beats	-6890
▁bolus	-6891
▁brace	-6892
▁brain	-6893
▁break	-6894
▁broad	-6895
▁carbo	-6896
▁comes	-6897
▁cover	-6898
▁cramp	-6899
▁crust	-6900
▁cysts	-6901
▁dehyd	-6902
▁diary	-6903
▁discl	-6904
▁exact	-6905
▁fetus	-6906
▁fully	-6907
▁green	-6908
▁idiop	-6909
▁incre	-6910
▁indef	-6911
▁islet	-6912
▁jaund	-6913
▁knees	-6914
▁knife	-6915
▁lisin	-6916
▁lorat	-6917
▁menop	-6918
▁mobil	-6919
▁newer	-6920
▁nonph	-6921
▁palsy	-6922
▁psori	-6923
▁radic	-6924
▁retin	-6925
▁sampl	-6926
▁scler	-6927
▁secre	-6928
▁seems	-6929
▁steps	-6930
▁supra	-6931
▁techn	-6932
▁temaf	-6933
▁terat	-6934
▁thick	-6935
▁uncom	-6936
▁valac	-6937
▁video	-6938
▁wrist	-6939
<.0001,	-6940
ameters	-6941
atarsal	-6942
atremia	-6943
bearing	-6944
bivolol	-6945
chidism	-6946
culosis	-6947
cycline	-6948
elukast	-6949
epartum	-6950
ervised	-6951
ffected	-6952
gestrel	-6953
hydrate	-6954
identif	-6955
imental	-6956
istency	-6957
limited	-6958
matched	-6959
ogenous	-6960
omegaly	-6961
oscopic	-6962
osexual	-6963
osocial	-6964
otherap	-6965
placebo	-6966
protein	-6967
quately	-6968
riptine	-6969
tivitis	-6970
traline	-6971
tration	-6972
ullness	-6973
ximetry	-6974
▁1.1-1.	-6975
▁1.3-3.	-6976
▁Associ	-6977
▁Breast	-6978
▁Higher	-6979
▁Intern	-6980
▁Recent	-6981
▁Sodium	-6982
▁Triage	-6983
▁Trials	-6984
▁Twelve	-6985
▁Within	-6986
▁allevi	-6987
▁animal	-6988
▁aspart	-6989
▁author	-6990
▁babies	-6991
▁blacks	-6992
▁bromoc	-6993
▁cephal	-6994
▁chills	-6995
▁clopid	-6996
▁cotrim	-6997
▁counts	-6998
▁cruris	-6999
▁curves	-7000
▁descri	-7001
▁desire	-7002
▁electr	-7003
▁exceed	-7004
▁explor	-7005
▁faster	-7006
▁female	-7007
▁forced	-7008
▁fruits	-7009
▁gained	-7010
▁gonado	-7011
▁grades	-7012
▁intact	-7013
▁lasted	-7014
▁leptin	-7015
▁lowers	-7016
▁marked	-7017
▁misuse	-7018
▁multiv	-7019
▁needle	-7020
▁nonver	-7021
▁option	-7022
▁pancre	-7023
▁peaked	-7024
▁penile	-7025
▁placed	-7026
▁proved	-7027
▁proven	-7028
▁rehydr	-7029
▁repair	-7030
▁saphen	-7031
▁social	-7032
▁spirom	-7033
▁steady	-7034
▁suprac	-7035
▁suture	-7036
▁sweats	-7037
▁theore	-7038
▁thrive	-7039
▁tympan	-7040
▁ventil	-7041
▁viewed	-7042
=2.0-3.0	-7043
acranial	-7044
comitant	-7045
diabetic	-7046
efficacy	-7047
eprazole	-7048
epressed	-7049
feedback	-7050
ilvadene	-7051
iography	-7052
izations	-7053
moderate	-7054
ocytosis	-7055
onsillar	-7056
oprostol	-7057
otrexate	-7058
rogenism	-7059
roscopic	-7060
roxyzine	-7061
sychotic	-7062
valproex	-7063
valvular	-7064
venience	-7065
▁0.13-0.	-7066
▁Authors	-7067
▁Candida	-7068
▁Current	-7069
▁Doppler	-7070
▁Finnish	-7071
▁Medical	-7072
▁Parents	-7073
▁Patient	-7074
▁Program	-7075
▁Success	-7076
▁Synvisc	-7077
▁Waddell	-7078
▁address	-7079
▁adnexal	-7080
▁adrenal	-7081
▁altered	-7082
▁angular	-7083
▁anomaly	-7084
▁antisep	-7085
▁aqueous	-7086
▁avoided	-7087
▁blocker	-7088
▁caloric	-7089
▁changed	-7090
▁channel	-7091
▁cluster	-7092
▁cohorts	-7093
▁combine	-7094
▁complex	-7095
▁conceal	-7096
▁conjunc	-7097
▁cooling	-7098
▁crusted	-7099
▁cryptor	-7100
▁disturb	-7101
▁enlarge	-7102
▁example	-7103
▁excised	-7104
▁existed	-7105
▁exposed	-7106
▁favored	-7107
▁feeding	-7108
▁fluorid	-7109
▁follows	-7110
▁fulfill	-7111
▁genital	-7112
▁grouped	-7113
▁infancy	-7114
▁instruc	-7115
▁intense	-7116
▁interim	-7117
▁lasting	-7118
▁levonor	-7119
▁markers	-7120
▁morning	-7121
▁nervous	-7122
▁noncalc	-7123
▁ongoing	-7124
▁opinion	-7125
▁ovarian	-7126
▁overuse	-7127
▁pattern	-7128
▁planned	-7129
▁players	-7130
▁popcorn	-7131
▁pretest	-7132
▁radical	-7133
▁raising	-7134
▁ratings	-7135
▁rebound	-7136
▁resolve	-7137
▁rotator	-7138
▁scabies	-7139
▁service	-7140
▁session	-7141
▁showing	-7142
▁sources	-7143
▁splenic	-7144
▁substit	-7145
▁suicide	-7146
▁thermal	-7147
▁tobacco	-7148
▁vesicle	-7149
▁visible	-7150
▁waiting	-7151
▁working	-7152
accharide	-7153
amazepine	-7154
arachnoid	-7155
bilirubin	-7156
cognitive	-7157
confirmed	-7158
eperidine	-7159
esalamine	-7160
frequency	-7161
microbial	-7162
obacillus	-7163
oglobulin	-7164
operating	-7165
orporated	-7166
ovulation	-7167
potassium	-7168
thickness	-7169
tolerated	-7170
▁0.45-0.7	-7171
▁Addition	-7172
▁Benefits	-7173
▁Database	-7174
▁Estrogen	-7175
▁Hamilton	-7176
▁Physical	-7177
▁Survival	-7178
▁Treating	-7179
▁Unfortun	-7180
▁aberrant	-7181
▁abruptly	-7182
▁acquired	-7183
▁adhesive	-7184
▁american	-7185
▁antacids	-7186
▁averaged	-7187
▁avoiding	-7188
▁avulsion	-7189
▁biweekly	-7190
▁concerns	-7191
▁confound	-7192
▁coughing	-7193
▁cystitis	-7194
▁drainage	-7195
▁eligible	-7196
▁endocrin	-7197
▁enhanced	-7198
▁estolate	-7199
▁gathered	-7200
▁glargine	-7201
▁inferior	-7202
▁interest	-7203
▁isolates	-7204
▁ligament	-7205
▁ligation	-7206
▁limiting	-7207
▁magnesia	-7208
▁maintain	-7209
▁manifest	-7210
▁marginal	-7211
▁minority	-7212
▁modality	-7213
▁noncompl	-7214
▁noninser	-7215
▁outbreak	-7216
▁paternal	-7217
▁periodic	-7218
▁personal	-7219
▁position	-7220
▁possibly	-7221
▁posttest	-7222
▁presumed	-7223
▁quartile	-7224
▁readings	-7225
▁reliable	-7226
▁reproduc	-7227
▁separate	-7228
▁sexually	-7229
▁somewhat	-7230
▁stenting	-7231
▁stimulus	-7232
▁strictly	-7233
▁tertiary	-7234
▁tolerate	-7235
▁tolmetin	-7236
▁triamcin	-7237
▁vertical	-7238
▁withdrew	-7239
▁zolpidem	-7240
accination	-7241
allergenic	-7242
ampicillin	-7243
deficiency	-7244
difference	-7245
reactivity	-7246
responsive	-7247
▁According	-7248
▁Intensive	-7249
▁Nutrition	-7250
▁Secondary	-7251
▁abscesses	-7252
▁accounted	-7253
▁achieving	-7254
▁addressed	-7255
▁adjusting	-7256
▁affecting	-7257
▁aggregate	-7258
▁allergies	-7259
▁alternate	-7260
▁anomalies	-7261
▁attempted	-7262
▁challenge	-7263
▁cheilitis	-7264
▁concludes	-7265
▁continues	-7266
▁contribut	-7267
▁currently	-7268
▁depressed	-7269
▁endocrine	-7270
▁enrolling	-7271
▁exception	-7272
▁excluding	-7273
▁ezetimibe	-7274
▁fenoterol	-7275
▁fertility	-7276
▁granuloma	-7277
▁guidebook	-7278
▁guideline	-7279
▁hematuria	-7280
▁indicates	-7281
▁laxatives	-7282
▁macroaden	-7283
▁medically	-7284
▁naftifine	-7285
▁narrative	-7286
▁nebivolol	-7287
▁nebulizer	-7288
▁operation	-7289
▁otherwise	-7290
▁overnight	-7291
▁postnatal	-7292
▁potassium	-7293
▁predictor	-7294
▁premature	-7295
▁primarily	-7296
▁prognosis	-7297
▁psoriatic	-7298
▁purulence	-7299
▁reviewers	-7300
▁scheduled	-7301
▁sequenced	-7302
▁sometimes	-7303
▁specified	-7304
▁straining	-7305
▁strongest	-7306
▁targeting	-7307
▁titration	-7308
▁transient	-7309
▁undergone	-7310
fetoprotein	-7311
roglitazone	-7312
therapeutic	-7313
threatening	-7314
▁Additional	-7315
▁Adolescent	-7316
▁Individual	-7317
▁Irbesartan	-7318
▁Protection	-7319
▁Systematic	-7320
▁abstinence	-7321
▁allocation	-7322
▁ambulation	-7323
▁androgenic	-7324
▁approaches	-7325
▁augmenting	-7326
▁autoimmune	-7327
▁chlamydial	-7328
▁coadminist	-7329
▁completion	-7330
▁conization	-7331
▁consisting	-7332
▁contribute	-7333
▁deliveries	-7334
▁dependence	-7335
▁dermatitis	-7336
▁deviations	-7337
▁efficiency	-7338
▁endogenous	-7339
▁enrollment	-7340
▁especially	-7341
▁evacuation	-7342
▁eventually	-7343
▁expiratory	-7344
▁idiopathic	-7345
▁imipramine	-7346
▁immunosupp	-7347
▁importance	-7348
▁impossible	-7349
▁indefinite	-7350
▁initiation	-7351
▁initiative	-7352
▁instrument	-7353
▁intranasal	-7354
▁limitation	-7355
▁lisinopril	-7356
▁loratadine	-7357
▁meaningful	-7358
▁metabolism	-7359
▁metatarsal	-7360
▁montgomery	-7361
▁nonblinded	-7362
▁nonorganic	-7363
▁nonsmokers	-7364
▁nonsmoking	-7365
▁orchiopexy	-7366
▁paroxetine	-7367
▁percussion	-7368
▁performing	-7369
▁previously	-7370
▁procedures	-7371
▁production	-7372
▁prognostic	-7373
▁properties	-7374
▁recordings	-7375
▁rheumatoid	-7376
▁saturation	-7377
▁sertraline	-7378
▁stratified	-7379
▁supervised	-7380
▁suppressed	-7381
▁throughout	-7382
▁tiotropium	-7383
▁unaffected	-7384
▁underlying	-7385
▁understood	-7386
▁urethritis	-7387
▁usefulness	-7388
▁vaccinated	-7389
▁vegetables	-7390
administered	-7391
amethoxazole	-7392
glycoprotein	-7393
specifically	-7394
standardized	-7395
▁Association	-7396
▁Cryotherapy	-7397
▁Sensitivity	-7398
▁Significant	-7399
▁adolescence	-7400
▁amenorrheic	-7401
▁antagonists	-7402
▁antipyretic	-7403
▁atomoxetine	-7404
▁biofeedback	-7405
▁candidiasis	-7406
▁circumcised	-7407
▁clopidogrel	-7408
▁concomitant	-7409
▁concussions	-7410
▁conjunction	-7411
▁consistency	-7412
▁convenience	-7413
▁descriptive	-7414
▁discontinue	-7415
▁doxycycline	-7416
▁ejaculation	-7417
▁endoscopies	-7418
▁expectantly	-7419
▁fluvastatin	-7420
▁hemorrhages	-7421
▁ineffective	-7422
▁instruments	-7423
▁interaction	-7424
▁interleukin	-7425
▁intrapartum	-7426
▁introducing	-7427
▁laparoscopy	-7428
▁lymphocytes	-7429
▁microscopic	-7430
▁montelukast	-7431
▁morbidities	-7432
▁naratriptan	-7433
▁nasopharynx	-7434
▁parathyroid	-7435
▁performance	-7436
▁progestogen	-7437
▁recurrences	-7438
▁rehydrating	-7439
▁represented	-7440
▁responsible	-7441
▁sumatriptan	-7442
▁temperature	-7443
▁transfusion	-7444
▁undiagnosed	-7445
▁unnecessary	-7446
bilirubinemia	-7447
▁Additionally	-7448
▁Combinations	-7449
▁Consequently	-7450
▁arthrography	-7451
▁autoantibody	-7452
▁considerably	-7453
▁discontinued	-7454
▁examinations	-7455
▁fibromyalgia	-7456
▁heterosexual	-7457
▁hypoglycemic	-7458
▁identifiable	-7459
▁inconclusive	-7460
▁incorporated	-7461
▁intracranial	-7462
▁investigator	-7463
▁manipulation	-7464
▁methodologic	-7465
▁mobilization	-7466
▁modification	-7467
▁multivariate	-7468
▁noncalcified	-7469
▁nonselective	-7470
▁nonvertebral	-7471
▁observations	-7472
▁practitioner	-7473
▁prednisolone	-7474
▁preoperative	-7475
▁preparations	-7476
▁presentation	-7477
▁subarachnoid	-7478
▁sulfonylurea	-7479
▁temafloxacin	-7480
▁transluminal	-7481
▁tuberculosis	-7482
▁valacyclovir	-7483
▁vulvovaginal	-7484
▁Acetaminophen	-7485
▁Approximately	-7486
▁Lactobacillus	-7487
▁Unfortunately	-7488
▁antimicrobial	-7489
▁antipsychotic	-7490
▁betamethasone	-7491
▁bromocriptine	-7492
▁carbamazepine	-7493
▁circumference	-7494
▁cotrimoxazole	-7495
▁decongestants	-7496
▁differentiate	-7497
▁discontinuing	-7498
▁investigation	-7499
▁physiological	-7500
▁posttreatment	-7501
▁practitioners	-7502
▁predominantly	-7503
▁premenopausal	-7504
▁professionals	-7505
▁prospectively	-7506
▁reinforcement	-7507
▁sclerotherapy	-7508
▁streptococcus	-7509
▁substantially	-7510
▁sulfasalazine	-7511
▁triamcinolone	-7512
▁autoantibodies	-7513
▁bronchodilator	-7514
▁conjunctivitis	-7515
▁cryptorchidism	-7516
▁differentiated	-7517
▁echocardiogram	-7518
▁hypoallergenic	-7519
▁immunoglobulin	-7520
▁individualized	-7521
▁levonorgestrel	-7522
▁nitrofurantoin	-7523
▁noninsertional	-7524
▁polysaccharide	-7525
▁simplification	-7526
▁stratification	-7527
▁Benzodiazepines	-7528
▁anticonvulsants	-7529
▁immunocompetent	-7530
▁noninflammatory	-7531
▁supraclavicular	-7532
,44	-7533
-50	-7534
/36	-7535
/70	-7536
05;	-7537
1,5	-7538
14;	-7539
15;	-7540
18,	-7541
19)	-7542
31;	-7543
37;	-7544
40)	-7545
41)	-7546
5);	-7547
50)	-7548
6);	-7549
6.5	-7550
60;	-7551
63;	-7552
65;	-7553
68)	-7554
78)	-7555
79,	-7556
790	-7557
8.3	-7558
80)	-7559
85,	-7560
87;	-7561
893	-7562
96,	-7563
99)	-7564
=4)	-7565
=73	-7566
=7;	-7567
=8;	-7568
ALU	-7569
CAB	-7570
CRO	-7571
CRP	-7572
CVD	-7573
EST	-7574
Iss	-7575
LHA	-7576
NPH	-7577
Rev	-7578
SMD	-7579
VAS	-7580
WBC	-7581
]=5	-7582
aiw	-7583
wax	-7584
whe	-7585
yno	-7586
▁-3	-7587
▁0=	-7588
▁<3	-7589
▁Ge	-7590
▁Gu	-7591
,536	-7592
-57.	-7593
-65,	-7594
/0.8	-7595
/68)	-7596
12),	-7597
2,47	-7598
2-2.	-7599
,"	-7600
-19	-7601
1-1	-7602
2.7	-7603
5.2	-7604
5.9	-7605
eav	-7606
ued	-7607
22),	-7608
2500	-7609
26).	-7610
28).	-7611
30).	-7612
33).	-7613
36),	-7614
44),	-7615
5%);	-7616
5%-5	-7617
50);	-7618
6.4%	-7619
60).	-7620
7-1.	-7621
7.8%	-7622
8.9%	-7623
84).	-7624
=16.	-7625
=20;	-7626
=27)	-7627
=3).	-7628
=3.0	-7629
=50)	-7630
=60)	-7631
ALUE	-7632
Arth	-7633
CABG	-7634
CAPS	-7635
DCAs	-7636
LHAT	-7637
TCAs	-7638
]=8.	-7639
ctos	-7640
domy	-7641
eech	-7642
flex	-7643
gias	-7644
gluc	-7645
goal	-7646
ians	-7647
iral	-7648
ixim	-7649
limb	-7650
mmol	-7651
novi	-7652
oene	-7653
ohns	-7654
olds	-7655
oscl	-7656
publ	-7657
pwor	-7658
radi	-7659
rame	-7660
raph	-7661
rosy	-7662
tide	-7663
tigo	-7664
ture	-7665
uerv	-7666
umet	-7667
uros	-7668
▁(1)	-7669
▁(22	-7670
▁(23	-7671
▁(30	-7672
▁(31	-7673
▁(75	-7674
▁-4.	-7675
▁13-	-7676
▁144	-7677
▁164	-7678
▁17-	-7679
▁176	-7680
▁177	-7681
▁182	-7682
▁227	-7683
▁228	-7684
▁231	-7685
▁25,	-7686
▁278	-7687
▁285	-7688
▁29.	-7689
▁3%.	-7690
▁3.7	-7691
▁37.	-7692
▁4.4	-7693
▁4.7	-7694
▁412	-7695
▁47,	-7696
▁477	-7697
▁550	-7698
▁580	-7699
NC	-7700
PA	-7701
wa	-7702
3.1	-7703
meg	-7704
▁fa	-7705
-8.0	-7706
11).	-7707
51).	-7708
ACAP	-7709
ands	-7710
cerv	-7711
gens	-7712
gred	-7713
isap	-7714
mega	-7715
ords	-7716
ount	-7717
upus	-7718
ycle	-7719
▁17,	-7720
▁192	-7721
▁209	-7722
▁22%	-7723
▁239	-7724
▁589	-7725
▁6%,	-7726
▁6.6	-7727
▁64.	-7728
▁683	-7729
▁7.5	-7730
▁8.1	-7731
▁8.5	-7732
▁8.8	-7733
▁9.9	-7734
▁91%	-7735
▁<2.	-7736
▁>14	-7737
▁>16	-7738
▁>24	-7739
▁ASC	-7740
▁CBT	-7741
▁CRB	-7742
▁DBP	-7743
▁DSM	-7744
▁DTS	-7745
▁Eng	-7746
▁Exp	-7747
▁Fin	-7748
▁Gro	-7749
▁HAM	-7750
▁IVC	-7751
▁MDI	-7752
▁MMS	-7753
▁McM	-7754
▁NPV	-7755
▁Neu	-7756
▁OBP	-7757
▁Ott	-7758
▁PPV	-7759
▁PTS	-7760
▁RAS	-7761
▁Rev	-7762
▁SGR	-7763
▁TSH	-7764
▁Uni	-7765
▁Web	-7766
▁elb	-7767
▁emo	-7768
▁env	-7769
▁eye	-7770
▁fel	-7771
▁fix	-7772
▁osm	-7773
-1200	-7774
-23.2	-7775
/108)	-7776
4-2.9	-7777
4.3).	-7778
5-1.0	-7779
8-1.2	-7780
8-1.3	-7781
<.01;	-7782
<.05;	-7783
=.000	-7784
=.04)	-7785
=0.30	-7786
=1.7;	-7787
=14).	-7788
=17),	-7789
=2.2;	-7790
=2.4;	-7791
=2.7;	-7792
=61%;	-7793
=78%;	-7794
Issac	-7795
]=0.7	-7796
]=1.2	-7797
]=1.7	-7798
]=2).	-7799
82	-7800
Ce	-7801
MR	-7802
PT	-7803
2.6	-7804
7%.	-7805
93;	-7806
ELT	-7807
PTT	-7808
ROC	-7809
spl	-7810
uma	-7811
▁SP	-7812
▁ib	-7813
9%),	-7814
=116	-7815
=12.	-7816
ason	-7817
ibro	-7818
mail	-7819
osol	-7820
otri	-7821
seiz	-7822
vasc	-7823
▁(3%	-7824
▁155	-7825
▁276	-7826
▁39%	-7827
▁413	-7828
▁451	-7829
▁52.	-7830
▁92.	-7831
▁Det	-7832
▁Emp	-7833
▁Fib	-7834
▁SPF	-7835
▁meb	-7836
▁tru	-7837
▁try	-7838
3-0.7	-7839
=100)	-7840
]=77)	-7841
]=8),	-7842
acute	-7843
adiaz	-7844
alene	-7845
ances	-7846
anuts	-7847
asked	-7848
asmod	-7849
atoma	-7850
avail	-7851
being	-7852
blood	-7853
butam	-7854
carbo	-7855
cobal	-7856
dated	-7857
dosed	-7858
ensed	-7859
eswax	-7860
ethop	-7861
etric	-7862
ewise	-7863
gnant	-7864
iatry	-7865
ichia	-7866
icles	-7867
ifene	-7868
iforn	-7869
ining	-7870
invas	-7871
iphas	-7872
irect	-7873
iscal	-7874
ispan	-7875
ittac	-7876
ivary	-7877
ixime	-7878
izoph	-7879
lavul	-7880
leton	-7881
mitis	-7882
ofold	-7883
ontal	-7884
openh	-7885
orpti	-7886
parin	-7887
poses	-7888
rater	-7889
ready	-7890
relax	-7891
revis	-7892
rolat	-7893
rosom	-7894
rosyn	-7895
rotal	-7896
roxic	-7897
roxyp	-7898
sched	-7899
73	-7900
CP	-7901
.9%	-7902
fat	-7903
lic	-7904
taz	-7905
yld	-7906
▁Be	-7907
▁HB	-7908
-0.3	-7909
.05)	-7910
=11)	-7911
alox	-7912
aret	-7913
cise	-7914
eath	-7915
geal	-7916
ials	-7917
idox	-7918
lege	-7919
mise	-7920
omyc	-7921
otal	-7922
oxap	-7923
▁(3)	-7924
▁107	-7925
▁12,	-7926
▁125	-7927
▁535	-7928
▁ARR	-7929
▁Any	-7930
▁Bay	-7931
▁Ber	-7932
▁HBs	-7933
▁Inj	-7934
▁Mul	-7935
▁diz	-7936
▁tex	-7937
▁tun	-7938
azard	-7939
chool	-7940
ffron	-7941
irtaz	-7942
omach	-7943
omagn	-7944
rigid	-7945
scher	-7946
stick	-7947
tiple	-7948
tural	-7949
ulvin	-7950
uprof	-7951
urban	-7952
urray	-7953
ynovi	-7954
▁(10%	-7955
▁(100	-7956
▁(140	-7957
▁(2.6	-7958
▁(4.6	-7959
▁(5%)	-7960
▁(5.0	-7961
▁(5.3	-7962
▁(51%	-7963
▁(54%	-7964
▁(6),	-7965
▁(60%	-7966
▁(75%	-7967
▁(84%	-7968
▁(87%	-7969
▁(88%	-7970
▁-0.2	-7971
▁-0.5	-7972
▁-1.2	-7973
▁-20.	-7974
▁-4.5	-7975
▁0.00	-7976
▁0.10	-7977
▁0.22	-7978
▁0.28	-7979
▁0.40	-7980
▁0.48	-7981
▁0.50	-7982
▁0.55	-7983
▁0.60	-7984
▁0.69	-7985
▁0.79	-7986
▁0.93	-7987
▁1.09	-7988
▁1.15	-7989
▁1.19	-7990
▁1.26	-7991
▁1.45	-7992
▁10%.	-7993
▁10.4	-7994
▁10.5	-7995
▁100=	-7996
▁11-2	-7997
▁11.0	-7998
▁14.5	-7999
7.0	-8000
NHA	-8001
any	-8002
dis	-8003
yme	-8004
,500	-8005
3.8%	-8006
ball	-8007
cium	-8008
curs	-8009
drug	-8010
educ	-8011
hyll	-8012
itid	-8013
lide	-8014
more	-8015
sequ	-8016
stay	-8017
▁108	-8018
▁121	-8019
▁160	-8020
▁194	-8021
▁55.	-8022
▁MCI	-8023
▁Ref	-8024
▁Wes	-8025
▁ion	-8026
▁rig	-8027
▁vel	-8028
acted	-8029
actor	-8030
acule	-8031
ancom	-8032
drome	-8033
ionic	-8034
ishop	-8035
matic	-8036
ollic	-8037
seven	-8038
troke	-8039
uride	-8040
▁18%,	-8041
▁1964	-8042
▁1970	-8043
▁1986	-8044
▁2.61	-8045
▁2001	-8046
▁2437	-8047
▁29.4	-8048
▁3.7%	-8049
▁37.5	-8050
▁4.6%	-8051
▁40).	-8052
▁4000	-8053
▁50-7	-8054
▁6.2%	-8055
▁6.6%	-8056
▁65%.	-8057
▁85%,	-8058
▁89%,	-8059
▁9.4%	-8060
▁90%,	-8061
▁90%.	-8062
▁98%.	-8063
▁<.00	-8064
▁<0.1	-8065
▁Beck	-8066
▁Caro	-8067
▁Days	-8068
▁ECGs	-8069
▁Engl	-8070
▁Even	-8071
▁Fine	-8072
▁HBsA	-8073
▁HERS	-8074
▁INPH	-8075
▁IVCF	-8076
▁Iber	-8077
▁Lund	-8078
▁Lyme	-8079
▁MMSE	-8080
▁MRSA	-8081
▁Mast	-8082
▁Once	-8083
▁Oste	-8084
▁PTSD	-8085
▁Poly	-8086
▁Pool	-8087
▁Prof	-8088
▁Risk	-8089
▁Roch	-8090
▁Self	-8091
▁Serv	-8092
▁TCAs	-8093
▁Type	-8094
▁Very	-8095
▁West	-8096
▁aPTT	-8097
▁alpr	-8098
▁amin	-8099
=-	-8100
1.9	-8101
80;	-8102
asi	-8103
▁81	-8104
▁88	-8105
▁He	-8106
-125	-8107
-41.	-8108
=6).	-8109
arch	-8110
coun	-8111
ocio	-8112
prob	-8113
▁62%	-8114
▁700	-8115
▁Bel	-8116
▁SSE	-8117
▁jet	-8118
▁pet	-8119
▁taz	-8120
,000.	-8121
andia	-8122
ardio	-8123
eking	-8124
erous	-8125
ounds	-8126
▁(1.5	-8127
▁(400	-8128
▁1103	-8129
▁Bres	-8130
▁Clin	-8131
▁Head	-8132
▁Hist	-8133
▁Post	-8134
▁VISA	-8135
▁Wors	-8136
▁adap	-8137
▁argu	-8138
▁bans	-8139
▁blot	-8140
▁blue	-8141
▁bran	-8142
▁brus	-8143
▁docu	-8144
▁dram	-8145
▁dran	-8146
▁elas	-8147
▁enem	-8148
▁etan	-8149
▁ethn	-8150
▁fill	-8151
▁film	-8152
▁flun	-8153
▁glut	-8154
▁hard	-8155
▁hypn	-8156
▁kits	-8157
▁link	-8158
▁list	-8159
▁lute	-8160
▁mail	-8161
▁mala	-8162
▁math	-8163
▁meal	-8164
▁mice	-8165
▁midw	-8166
▁miti	-8167
▁mult	-8168
▁nonm	-8169
▁oils	-8170
▁plan	-8171
▁plot	-8172
▁prec	-8173
▁qual	-8174
▁race	-8175
▁rhab	-8176
▁rick	-8177
▁rose	-8178
▁somn	-8179
▁stay	-8180
▁tape	-8181
▁tree	-8182
▁trem	-8183
▁trim	-8184
▁unus	-8185
▁util	-8186
▁virt	-8187
▁warm	-8188
-0.77;	-8189
-0.9),	-8190
-5.34;	-8191
-]=0.0	-8192
<.001;	-8193
=.002)	-8194
=.003)	-8195
=.36).	-8196
=0.05;	-8197
=0.15;	-8198
=0.32;	-8199
54	-8200
Al	-8201
PE	-8202
150	-8203
=93	-8204
SIL	-8205
iox	-8206
▁PV	-8207
▁SR	-8208
▁Sp	-8209
▁pH	-8210
LSIL	-8211
Viox	-8212
epir	-8213
irts	-8214
osph	-8215
▁CIs	-8216
▁Par	-8217
▁Pen	-8218
▁Wis	-8219
▁alw	-8220
▁eng	-8221
▁ret	-8222
Vioxx	-8223
child	-8224
hirts	-8225
itect	-8226
lined	-8227
renia	-8228
ticip	-8229
timal	-8230
uplex	-8231
▁(4.8	-8232
▁1.9%	-8233
▁Acne	-8234
▁Side	-8235
▁ally	-8236
▁corn	-8237
▁dair	-8238
▁ones	-8239
▁toil	-8240
▁vein	-8241
=0.50;	-8242
=0.67;	-8243
=1.24;	-8244
=1.37;	-8245
=1.41;	-8246
=1.94;	-8247
=2.08;	-8248
=2.09;	-8249
=2.5).	-8250
=2.93;	-8251
]=1.8;	-8252
abases	-8253
ackage	-8254
ackles	-8255
adding	-8256
ademic	-8257
ancing	-8258
anging	-8259
anning	-8260
arding	-8261
arette	-8262
artile	-8263
astine	-8264
atherm	-8265
atural	-8266
avings	-8267
before	-8268
center	-8269
clavul	-8270
coated	-8271
coital	-8272
compar	-8273
copres	-8274
defici	-8275
edited	-8276
enceph	-8277
ercept	-8278
erosol	-8279
esemia	-8280
etical	-8281
ffairs	-8282
ground	-8283
icitly	-8284
iclopi	-8285
illary	-8286
imepir	-8287
inders	-8288
inding	-8289
infold	-8290
iology	-8291
itives	-8292
ittaci	-8293
ittent	-8294
ixture	-8295
jected	-8296
lactin	-8297
listat	-8298
macule	-8299
-2)	-8300
/20	-8301
10)	-8302
500	-8303
600	-8304
8);	-8305
=9.	-8306
ACE	-8307
ERD	-8308
lae	-8309
otr	-8310
▁92	-8311
-18.	-8312
00).	-8313
]=5.	-8314
ache	-8315
exin	-8316
gain	-8317
itte	-8318
laim	-8319
nine	-8320
vels	-8321
▁103	-8322
▁5.5	-8323
▁60.	-8324
▁MRI	-8325
▁dog	-8326
3-1.1	-8327
=.03)	-8328
antar	-8329
ested	-8330
ittee	-8331
pleas	-8332
romes	-8333
ulate	-8334
▁(1.2	-8335
▁0.51	-8336
▁1985	-8337
▁Biop	-8338
▁bean	-8339
▁chat	-8340
▁chol	-8341
▁gene	-8342
▁pure	-8343
▁revi	-8344
=.002;	-8345
entile	-8346
ercise	-8347
manent	-8348
mented	-8349
novial	-8350
ochrom	-8351
ohnson	-8352
olence	-8353
olysis	-8354
ophony	-8355
ophyll	-8356
orkers	-8357
oscler	-8358
osocom	-8359
otland	-8360
ounced	-8361
ouples	-8362
ournal	-8363
oxicam	-8364
parous	-8365
pidemi	-8366
pirone	-8367
proven	-8368
pworth	-8369
radiol	-8370
ranean	-8371
ravach	-8372
reases	-8373
reater	-8374
rectly	-8375
releas	-8376
retest	-8377
rimary	-8378
ritain	-8379
school	-8380
stress	-8381
tening	-8382
thalid	-8383
thesia	-8384
thetic	-8385
timate	-8386
tisone	-8387
tissue	-8388
tments	-8389
tomies	-8390
uclide	-8391
uitary	-8392
uritic	-8393
vandia	-8394
ventil	-8395
verted	-8396
ziness	-8397
▁(3%).	-8398
▁(4893	-8399
NS	-8400
au	-8401
wh	-8402
/85	-8403
6,0	-8404
emi	-8405
por	-8406
▁9,	-8407
▁9-	-8408
▁CR	-8409
VISA	-8410
agia	-8411
amel	-8412
erit	-8413
izan	-8414
mark	-8415
oriz	-8416
rush	-8417
ucas	-8418
uous	-8419
▁(4)	-8420
▁492	-8421
▁buc	-8422
▁muc	-8423
▁num	-8424
▁pod	-8425
▁yet	-8426
aucas	-8427
istic	-8428
lease	-8429
ocity	-8430
▁4.3%	-8431
▁97%,	-8432
▁DCAs	-8433
▁Intr	-8434
▁aure	-8435
▁bear	-8436
▁fibr	-8437
▁like	-8438
▁move	-8439
▁near	-8440
▁ward	-8441
=0.93,	-8442
=125).	-8443
ocated	-8444
oluble	-8445
omenon	-8446
orical	-8447
▁(50%)	-8448
▁(68%)	-8449
▁(75%)	-8450
▁(85%)	-8451
▁-0.03	-8452
▁1.0).	-8453
▁10%-5	-8454
▁10.4%	-8455
▁12.1%	-8456
▁14.4%	-8457
▁1991.	-8458
▁2002.	-8459
▁2003,	-8460
▁30/70	-8461
▁35.4%	-8462
▁5.9%;	-8463
▁55.8%	-8464
▁<2500	-8465
▁About	-8466
▁Based	-8467
▁Bayle	-8468
▁Check	-8469
▁Cough	-8470
▁Daily	-8471
▁Dutch	-8472
▁Europ	-8473
▁Fewer	-8474
▁First	-8475
▁Force	-8476
▁Given	-8477
▁HBsAg	-8478
▁IVCFs	-8479
▁Initi	-8480
▁MICRO	-8481
▁Major	-8482
▁March	-8483
▁Medic	-8484
▁NDCAs	-8485
▁Older	-8486
▁Ottaw	-8487
▁Psych	-8488
▁Resol	-8489
▁Seven	-8490
▁Sixty	-8491
▁Sleep	-8492
▁Total	-8493
▁Urine	-8494
▁VALUE	-8495
▁Valid	-8496
▁Veter	-8497
▁abuse	-8498
▁actin	-8499
86	-8500
IP	-8501
LA	-8502
50.	-8503
608	-8504
LVD	-8505
hil	-8506
qid	-8507
sam	-8508
▁Cr	-8509
4%-8	-8510
OLVD	-8511
agul	-8512
igns	-8513
rion	-8514
tary	-8515
uric	-8516
▁(2%	-8517
▁(95	-8518
▁113	-8519
▁142	-8520
▁229	-8521
▁969	-8522
▁>30	-8523
▁Ant	-8524
▁HRT	-8525
▁aut	-8526
▁dop	-8527
▁ens	-8528
▁qid	-8529
▁vit	-8530
▁vul	-8531
=.2).	-8532
ading	-8533
atter	-8534
erver	-8535
ilian	-8536
iline	-8537
iseof	-8538
ogast	-8539
ximal	-8540
▁0.59	-8541
▁1.31	-8542
▁1.95	-8543
▁1926	-8544
▁Taiw	-8545
▁date	-8546
▁ever	-8547
▁gels	-8548
▁orth	-8549
bronch	-8550
energy	-8551
giline	-8552
▁0.75%	-8553
▁48.5%	-8554
▁Again	-8555
▁Antic	-8556
▁admin	-8557
▁alert	-8558
▁amnes	-8559
▁anten	-8560
▁begun	-8561
▁bleed	-8562
▁block	-8563
▁bouts	-8564
▁brush	-8565
▁carob	-8566
▁carri	-8567
▁cisap	-8568
▁claim	-8569
▁color	-8570
▁const	-8571
▁cured	-8572
▁cycle	-8573
▁dairy	-8574
▁defec	-8575
▁degre	-8576
▁dimin	-8577
▁drank	-8578
▁elbow	-8579
▁embry	-8580
▁ester	-8581
▁exhib	-8582
▁exist	-8583
▁facil	-8584
▁fatty	-8585
▁focal	-8586
▁furos	-8587
▁graft	-8588
▁heels	-8589
▁homes	-8590
▁horiz	-8591
▁hypon	-8592
▁hypot	-8593
▁ideal	-8594
▁indur	-8595
▁infre	-8596
▁inner	-8597
▁judge	-8598
▁ketor	-8599
RS	-8600
wo	-8601
0.5	-8602
een	-8603
lep	-8604
tes	-8605
two	-8606
ula	-8607
ups	-8608
▁7,	-8609
▁AL	-8610
▁gi	-8611
acic	-8612
body	-8613
izes	-8614
osac	-8615
osus	-8616
over	-8617
sian	-8618
than	-8619
▁(9%	-8620
▁111	-8621
▁218	-8622
▁5%.	-8623
▁TDI	-8624
▁tac	-8625
anate	-8626
anine	-8627
ilver	-8628
stead	-8629
▁-1.0	-8630
▁0.14	-8631
▁1.5%	-8632
▁1668	-8633
▁20%,	-8634
▁4.5%	-8635
▁75%,	-8636
▁MEDL	-8637
▁adop	-8638
▁gets	-8639
▁pron	-8640
▁thus	-8641
▁unch	-8642
▁unst	-8643
algias	-8644
atella	-8645
ertion	-8646
oracic	-8647
orenal	-8648
ospasm	-8649
raming	-8650
▁(45%)	-8651
▁ASCCP	-8652
▁Asian	-8653
▁MEDLI	-8654
▁giard	-8655
▁lacks	-8656
▁leave	-8657
▁lupus	-8658
▁mania	-8659
▁meals	-8660
▁means	-8661
▁merit	-8662
▁minus	-8663
▁mitig	-8664
▁modal	-8665
▁motor	-8666
▁mouth	-8667
▁newly	-8668
▁nondi	-8669
▁occup	-8670
▁offer	-8671
▁omega	-8672
▁pedis	-8673
▁perim	-8674
▁perit	-8675
▁probe	-8676
▁pyraz	-8677
▁quasi	-8678
▁rigid	-8679
▁rooms	-8680
▁route	-8681
▁scans	-8682
▁shaft	-8683
▁socio	-8684
▁speed	-8685
▁splen	-8686
▁sprue	-8687
▁strip	-8688
▁surge	-8689
▁swabs	-8690
▁taste	-8691
▁tenos	-8692
▁three	-8693
▁tizan	-8694
▁tools	-8695
▁trace	-8696
▁trich	-8697
▁truly	-8698
▁ultim	-8699
-,	-8700
NA	-8701
NE	-8702
gi	-8703
-8.	-8704
17;	-8705
NBS	-8706
mis	-8707
tec	-8708
tid	-8709
▁(0	-8710
▁Az	-8711
▁Ha	-8712
▁NS	-8713
▁bo	-8714
▁om	-8715
2.3%	-8716
=0.4	-8717
ALTS	-8718
NBSS	-8719
aper	-8720
city	-8721
esis	-8722
high	-8723
wide	-8724
zing	-8725
▁123	-8726
▁181	-8727
▁679	-8728
▁9.5	-8729
▁GAD	-8730
▁HDL	-8731
▁cig	-8732
▁lic	-8733
▁pig	-8734
4-0.7	-8735
=8.3)	-8736
NSAID	-8737
astes	-8738
ingly	-8739
lower	-8740
osing	-8741
rotec	-8742
veres	-8743
▁1.53	-8744
▁1.5;	-8745
▁1960	-8746
▁7.2%	-8747
▁Mark	-8748
▁rear	-8749
▁suff	-8750
=0.23;	-8751
=0.89;	-8752
anding	-8753
flexxa	-8754
ovirus	-8755
tropin	-8756
▁22.3%	-8757
▁Surve	-8758
▁empir	-8759
▁frame	-8760
▁recip	-8761
▁uteri	-8762
▁veins	-8763
▁vitro	-8764
▁wheat	-8765
▁whole	-8766
▁words	-8767
▁worse	-8768
-0.29).	-8769
-0.44).	-8770
-0.60).	-8771
-0.82).	-8772
-1.07),	-8773
-1.98),	-8774
3-1.76)	-8775
4-2.99;	-8776
5-0.97;	-8777
<.0001;	-8778
<.001),	-8779
=.026),	-8780
=.047).	-8781
=1250);	-8782
=2.0-2.	-8783
=2.26),	-8784
Avandia	-8785
Revised	-8786
]=0.42;	-8787
agnosis	-8788
apamide	-8789
asmodic	-8790
atified	-8791
aturity	-8792
azodone	-8793
butamol	-8794
calorie	-8795
chitect	-8796
cluding	-8797
covered	-8798
cribing	-8799
83	-8800
HO	-8801
Ig	-8802
na	-8803
0%,	-8804
9.6	-8805
92;	-8806
asp	-8807
has	-8808
▁Av	-8809
▁LV	-8810
▁pr	-8811
-0.5	-8812
=48)	-8813
alic	-8814
eres	-8815
onal	-8816
pres	-8817
▁11-	-8818
▁2.3	-8819
▁45%	-8820
▁63.	-8821
▁82%	-8822
▁Its	-8823
▁LVH	-8824
▁bit	-8825
▁dam	-8826
▁del	-8827
▁dul	-8828
▁eas	-8829
▁pef	-8830
▁unf	-8831
-14.5	-8832
-2.8)	-8833
2-0.9	-8834
throm	-8835
▁(59%	-8836
▁(700	-8837
▁1.38	-8838
▁1993	-8839
▁2.9%	-8840
▁IELT	-8841
▁scan	-8842
▁sick	-8843
-3.41)	-8844
<.01),	-8845
icella	-8846
likely	-8847
ymitis	-8848
▁Incon	-8849
▁Wound	-8850
▁basic	-8851
▁chose	-8852
cursors	-8853
effects	-8854
embolic	-8855
essment	-8856
etamine	-8857
feeding	-8858
finding	-8859
gatives	-8860
greater	-8861
idoxine	-8862
ifornia	-8863
imaging	-8864
inamide	-8865
interqu	-8866
iphasic	-8867
ispanic	-8868
itidine	-8869
iveness	-8870
keletal	-8871
mittent	-8872
ococcus	-8873
ollicis	-8874
opathic	-8875
openhag	-8876
orrheal	-8877
osacral	-8878
osartan	-8879
osmolar	-8880
otriene	-8881
prising	-8882
ractory	-8883
ralgias	-8884
randial	-8885
rilling	-8886
rolatum	-8887
rosomia	-8888
roxicam	-8889
seizure	-8890
studies	-8891
through	-8892
thyroid	-8893
tiguous	-8894
timated	-8895
trained	-8896
trogens	-8897
trophil	-8898
uctured	-8899
,3	-8900
0)	-8901
33	-8902
MT	-8903
=37	-8904
SGR	-8905
ilk	-8906
ust	-8907
ylc	-8908
▁<7	-8909
▁Aj	-8910
▁EE	-8911
-12.	-8912
60),	-8913
ithm	-8914
onen	-8915
sues	-8916
▁170	-8917
▁CDC	-8918
▁IBS	-8919
▁Int	-8920
▁RRR	-8921
▁Use	-8922
▁bus	-8923
▁cop	-8924
▁far	-8925
▁pem	-8926
▁tin	-8927
]=5).	-8928
lytic	-8929
oquin	-8930
state	-8931
▁1098	-8932
▁30%.	-8933
▁Geor	-8934
▁Task	-8935
▁That	-8936
▁UTIs	-8937
▁nort	-8938
▁sele	-8939
▁soon	-8940
▁true	-8941
▁wake	-8942
▁walk	-8943
<.05),	-8944
oiding	-8945
orithm	-8946
urmurs	-8947
yldopa	-8948
▁AACAP	-8949
▁Index	-8950
▁alter	-8951
▁polyp	-8952
7-0.93)	-8953
]=0.27;	-8954
athermy	-8955
trophin	-8956
uervain	-8957
uitable	-8958
uprofen	-8959
version	-8960
versity	-8961
vitamin	-8962
volving	-8963
▁(28%),	-8964
▁(64%-8	-8965
▁(74%-9	-8966
▁-0.5).	-8967
▁2.7-5.	-8968
▁20,536	-8969
▁50,000	-8970
▁70-100	-8971
▁Adding	-8972
▁Ajoene	-8973
▁Asthma	-8974
▁Attack	-8975
▁Bayley	-8976
▁Berlin	-8977
▁Bishop	-8978
▁Cardio	-8979
▁Caucas	-8980
▁Escher	-8981
▁Impres	-8982
▁Instit	-8983
▁Levels	-8984
▁Little	-8985
▁Longer	-8986
▁Markov	-8987
▁Opioid	-8988
▁Ottawa	-8989
▁Survey	-8990
▁Though	-8991
▁Weight	-8992
▁absent	-8993
▁access	-8994
▁across	-8995
▁action	-8996
▁always	-8997
▁amount	-8998
▁around	-8999
.4	-9000
65	-9001
Se	-9002
];	-9003
su	-9004
yr	-9005
0.8	-9006
00/	-9007
aps	-9008
six	-9009
typ	-9010
▁>8	-9011
▁Ar	-9012
▁hs	-9013
=19)	-9014
mild	-9015
olac	-9016
▁(2)	-9017
▁(5%	-9018
▁-2.	-9019
▁2.4	-9020
▁463	-9021
▁AGA	-9022
▁Val	-9023
▁fed	-9024
▁you	-9025
-97%,	-9026
4-0.5	-9027
Actos	-9028
aries	-9029
▁(55%	-9030
▁0.11	-9031
▁0.17	-9032
▁1.07	-9033
▁1.2%	-9034
▁flow	-9035
▁wort	-9036
=603),	-9037
cancer	-9038
hazard	-9039
omyces	-9040
riages	-9041
▁right	-9042
Lamisil	-9043
▁Stimul	-9044
▁assays	-9045
▁aureus	-9046
▁azoles	-9047
▁bleeds	-9048
▁brevis	-9049
▁carcin	-9050
▁carpal	-9051
▁causal	-9052
▁charts	-9053
▁compet	-9054
▁coping	-9055
▁cramps	-9056
▁creams	-9057
▁decade	-9058
▁derive	-9059
▁dermal	-9060
▁dextro	-9061
▁dietic	-9062
▁distal	-9063
▁duplex	-9064
▁eaters	-9065
▁enceph	-9066
▁enemas	-9067
▁enoxap	-9068
▁epidid	-9069
▁ethnic	-9070
▁excess	-9071
▁favors	-9072
▁flunar	-9073
▁formal	-9074
▁goiter	-9075
▁ground	-9076
▁helped	-9077
▁impact	-9078
▁indoor	-9079
▁ingred	-9080
▁issues	-9081
▁judged	-9082
▁latter	-9083
▁layers	-9084
▁linear	-9085
▁losses	-9086
▁malabs	-9087
▁manner	-9088
▁manual	-9089
▁market	-9090
▁masked	-9091
▁mebend	-9092
▁medium	-9093
▁menses	-9094
▁mental	-9095
▁metast	-9096
▁mirtaz	-9097
▁motion	-9098
▁narrow	-9099
▁nature	-9100
▁necess	-9101
▁nested	-9102
▁nipple	-9103
▁nonpre	-9104
▁nontra	-9105
▁nurses	-9106
▁orally	-9107
▁output	-9108
▁overes	-9109
▁papule	-9110
▁poison	-9111
▁potent	-9112
▁pulsed	-9113
▁radion	-9114
▁radius	-9115
▁raised	-9116
▁recogn	-9117
▁rhythm	-9118
▁rising	-9119
▁routes	-9120
▁seemed	-9121
▁serial	-9122
▁sheath	-9123
▁silver	-9124
▁skills	-9125
▁sounds	-9126
▁speech	-9127
▁stages	-9128
▁sulfis	-9129
▁thirds	-9130
▁thrush	-9131
▁titers	-9132
▁toilet	-9133
▁tracts	-9134
▁trauma	-9135
▁tremor	-9136
▁trends	-9137
▁tunnel	-9138
▁unders	-9139
▁unique	-9140
▁uterus	-9141
▁vancom	-9142
▁varies	-9143
▁vertex	-9144
▁yearly	-9145
4-0.99).	-9146
6-1.44),	-9147
<.0001),	-9148
=.0001).	-9149
adiazine	-9150
alopathy	-9151
assified	-9152
carotene	-9153
cervical	-9154
clinical	-9155
copresis	-9156
coronary	-9157
economic	-9158
ematical	-9159
enstrual	-9160
estrogen	-9161
ethoprim	-9162
followed	-9163
glycemia	-9164
glycerid	-9165
hospital	-9166
hydrates	-9167
invasive	-9168
itudinal	-9169
language	-9170
levision	-9171
lowering	-9172
modified	-9173
obacilli	-9174
ofibrate	-9175
ographic	-9176
ophyllin	-9177
oporosis	-9178
orrhagia	-9179
pleasant	-9180
presumed	-9181
prodrome	-9182
promised	-9183
ractions	-9184
ravachol	-9185
rimazole	-9186
selected	-9187
structed	-9188
weighing	-9189
ynovitis	-9190
▁0.03-0.	-9191
▁0.23-0.	-9192
▁1.11-1.	-9193
▁250,000	-9194
▁Affairs	-9195
▁Breslow	-9196
▁Britain	-9197
▁Calcium	-9198
▁Chlamyd	-9199
▁College	-9200
▁Despite	-9201
▁Empiric	-9202
▁English	-9203
▁Epidemi	-9204
▁Epworth	-9205
▁Experts	-9206
▁Fifteen	-9207
▁General	-9208
▁Insulin	-9209
▁Limited	-9210
▁MEDLINE	-9211
▁McIssac	-9212
▁Mediter	-9213
▁Outcome	-9214
▁Pooling	-9215
▁Prevent	-9216
▁Primary	-9217
▁Reviews	-9218
▁Seventy	-9219
▁Sixteen	-9220
▁Society	-9221
▁Testing	-9222
▁Unusual	-9223
▁Vitamin	-9224
▁Western	-9225
▁acetylc	-9226
▁acutely	-9227
▁aerosol	-9228
▁agonist	-9229
▁alanine	-9230
▁already	-9231
▁applies	-9232
▁assumed	-9233
▁atrophy	-9234
▁beeswax	-9235
▁blister	-9236
▁capitis	-9237
▁cardios	-9238
▁careful	-9239
▁causing	-9240
▁centers	-9241
▁chewing	-9242
▁ciclopi	-9243
▁colitis	-9244
▁confers	-9245
▁consequ	-9246
▁consume	-9247
▁counter	-9248
▁couples	-9249
▁danazol	-9250
▁degrees	-9251
▁digital	-9252
▁discrim	-9253
▁doubled	-9254
▁dropped	-9255
▁dysuria	-9256
▁efforts	-9257
▁elastic	-9258
▁embolus	-9259
▁endemic	-9260
▁enteric	-9261
▁environ	-9262
▁epidemi	-9263
▁evident	-9264
▁examine	-9265
▁feature	-9266
▁females	-9267
▁genetic	-9268
▁grading	-9269
▁greatly	-9270
▁griseof	-9271
▁inflamm	-9272
▁itching	-9273
▁kinases	-9274
▁lengths	-9275
▁located	-9276
▁looking	-9277
▁malaise	-9278
▁members	-9279
▁modeled	-9280
▁natural	-9281
▁nodules	-9282
▁nosocom	-9283
▁offices	-9284
▁opposed	-9285
▁options	-9286
▁osmotic	-9287
▁padding	-9288
▁papular	-9289
▁partial	-9290
▁patches	-9291
▁patella	-9292
▁peanuts	-9293
▁pharmac	-9294
▁pillows	-9295
▁plantar	-9296
▁powered	-9297
▁precise	-9298
▁proceed	-9299
▁promise	-9300
▁quarter	-9301
▁refused	-9302
▁regards	-9303
▁release	-9304
▁respect	-9305
▁resting	-9306
▁reticul	-9307
▁returns	-9308
▁revised	-9309
▁rickets	-9310
▁saffron	-9311
▁schools	-9312
▁scrotal	-9313
▁seconds	-9314
▁seeking	-9315
▁segment	-9316
▁seroton	-9317
▁staging	-9318
▁stapled	-9319
▁stomach	-9320
▁student	-9321
▁sunburn	-9322
▁suspect	-9323
▁synthes	-9324
▁tension	-9325
▁trained	-9326
▁twofold	-9327
▁unusual	-9328
▁variety	-9329
▁vertigo	-9330
▁viewing	-9331
▁walking	-9332
▁warrant	-9333
▁wearing	-9334
=2.0-3.0)	-9335
Arthrotec	-9336
Silvadene	-9337
aloxifene	-9338
breastfed	-9339
cobalamin	-9340
consuming	-9341
deficient	-9342
depressed	-9343
diagnosis	-9344
eclampsia	-9345
excellent	-9346
hydramine	-9347
imepiride	-9348
incidence	-9349
infection	-9350
initiated	-9351
involving	-9352
matically	-9353
monitored	-9354
ogenicity	-9355
openhagen	-9356
otransfer	-9357
published	-9358
releasing	-9359
scheduled	-9360
thalidone	-9361
ticularly	-9362
typically	-9363
▁0.23-0.7	-9364
▁0.56-0.9	-9365
▁0.63-1.0	-9366
▁0.70-1.0	-9367
▁0.75-0.9	-9368
▁0.83-1.1	-9369
▁1.11-1.5	-9370
▁1.13-1.6	-9371
▁Abnormal	-9372
▁Canadian	-9373
▁Combined	-9374
▁Complete	-9375
▁Coronary	-9376
▁Efficacy	-9377
▁Euflexxa	-9378
▁Hispanic	-9379
▁Internet	-9380
▁Likewise	-9381
▁McMurray	-9382
▁Multiple	-9383
▁Positive	-9384
▁Research	-9385
▁Scotland	-9386
▁Services	-9387
▁Specific	-9388
▁Surgical	-9389
▁Validity	-9390
▁Veterans	-9391
▁Worsened	-9392
▁absorpti	-9393
▁academic	-9394
▁agonists	-9395
▁alginate	-9396
▁allowing	-9397
▁analogue	-9398
▁applying	-9399
▁arrhythm	-9400
▁assuming	-9401
▁attempts	-9402
▁bacteria	-9403
▁bandages	-9404
▁bioavail	-9405
▁calories	-9406
▁cefixime	-9407
▁coenzyme	-9408
▁conclude	-9409
▁crackles	-9410
▁cravings	-9411
▁delirium	-9412
▁diazepam	-9413
▁differed	-9414
▁dipstick	-9415
▁distance	-9416
▁dominant	-9417
▁dopamine	-9418
▁douching	-9419
▁dramatic	-9420
▁drilling	-9421
▁dullness	-9422
▁educated	-9423
▁elements	-9424
▁emergent	-9425
▁enlarged	-9426
▁enuresis	-9427
▁existing	-9428
▁explored	-9429
▁fatigued	-9430
▁fibrates	-9431
▁fixation	-9432
▁focusing	-9433
▁football	-9434
▁hypercal	-9435
▁hypertri	-9436
▁hypomagn	-9437
▁indirect	-9438
▁informed	-9439
▁injected	-9440
▁irritant	-9441
▁isolated	-9442
▁jaundice	-9443
▁junction	-9444
▁kneading	-9445
▁mainstay	-9446
▁meniscal	-9447
▁military	-9448
▁modestly	-9449
▁myalgias	-9450
▁nonrigid	-9451
▁numerous	-9452
▁observer	-9453
▁optional	-9454
▁orlistat	-9455
▁overused	-9456
▁ovulated	-9457
▁oximetry	-9458
▁patterns	-9459
▁pemoline	-9460
▁pollicis	-9461
▁prelabor	-9462
▁presents	-9463
▁primrose	-9464
▁probable	-9465
▁probably	-9466
▁prodrome	-9467
▁produces	-9468
▁proposed	-9469
▁provider	-9470
▁proximal	-9471
▁pruritic	-9472
▁psittaci	-9473
▁puncture	-9474
▁purposes	-9475
▁quantity	-9476
▁rearrest	-9477
▁recalled	-9478
▁recently	-9479
▁recurred	-9480
▁reflects	-9481
▁registry	-9482
▁relapses	-9483
▁relaxant	-9484
▁relieved	-9485
▁restless	-9486
▁revision	-9487
▁rhabdomy	-9488
▁rhinitis	-9489
▁ruptured	-9490
▁ruptures	-9491
▁salivary	-9492
▁sampling	-9493
▁serology	-9494
▁sickness	-9495
▁skinfold	-9496
▁solitary	-9497
▁sonogram	-9498
▁speeding	-9499
▁strongly	-9500
▁suburban	-9501
▁suicidal	-9502
▁switched	-9503
▁synovial	-9504
▁uncommon	-9505
▁unstable	-9506
▁valerate	-9507
▁valproic	-9508
▁velocity	-9509
▁weighing	-9510
▁weighted	-9511
▁yielding	-9512
chitecture	-9513
containing	-9514
ectoscopic	-9515
especially	-9516
identified	-9517
isedronate	-9518
izophrenia	-9519
miconazole	-9520
myocardial	-9521
ocytopenia	-9522
odiazepine	-9523
ologically	-9524
osmolality	-9525
thyroidism	-9526
ticipation	-9527
▁0.2-0.8).	-9528
▁1.1-1.9).	-9529
▁Combining	-9530
▁Committee	-9531
▁Endpoints	-9532
▁Extensive	-9533
▁Following	-9534
▁Iberogast	-9535
▁Increased	-9536
▁Metformin	-9537
▁Mortality	-9538
▁Pertussis	-9539
▁Regarding	-9540
▁Rochester	-9541
▁Secretory	-9542
▁Serologic	-9543
▁Seventeen	-9544
▁Statistic	-9545
▁Taiwanese	-9546
▁adapalene	-9547
▁adhesives	-9548
▁advantage	-9549
▁antenatal	-9550
▁bandaging	-9551
▁buspirone	-9552
▁capsaicin	-9553
▁chorionic	-9554
▁cigarette	-9555
▁cisapride	-9556
▁classical	-9557
▁classroom	-9558
▁colectomy	-9559
▁complaint	-9560
▁contained	-9561
▁correctly	-9562
▁correlate	-9563
▁coworkers	-9564
▁cytologic	-9565
▁databases	-9566
▁decisions	-9567
▁diathermy	-9568
▁disabling	-9569
▁discharge	-9570
▁dizziness	-9571
▁econazole	-9572
▁embolisms	-9573
▁essential	-9574
▁estradiol	-9575
▁exercises	-9576
▁expedited	-9577
▁exposures	-9578
▁expulsion	-9579
▁gradually	-9580
▁heartburn	-9581
▁hemochrom	-9582
▁histopath	-9583
▁hospitals	-9584
▁ibuprofen	-9585
▁impaction	-9586
▁increment	-9587
▁influence	-9588
▁insertion	-9589
▁ketorolac	-9590
▁localized	-9591
▁measuring	-9592
▁mechanism	-9593
▁melanomas	-9594
▁melanotic	-9595
▁mentioned	-9596
▁nonanemic	-9597
▁outbreaks	-9598
▁parenting	-9599
▁paroxysms	-9600
▁pathophys	-9601
▁perceived	-9602
▁perfusion	-9603
▁permanent	-9604
▁persisted	-9605
▁personnel	-9606
▁phenotype	-9607
▁piroxicam	-9608
▁pituitary	-9609
▁placental	-9610
▁practiced	-9611
▁preinjury	-9612
▁preserved	-9613
▁prolactin	-9614
▁providers	-9615
▁psychosis	-9616
▁questions	-9617
▁relatives	-9618
▁relaxants	-9619
▁reminders	-9620
▁residents	-9621
▁resolving	-9622
▁reviparin	-9623
▁schedules	-9624
▁serotypes	-9625
▁shortened	-9626
▁singleton	-9627
▁specialty	-9628
▁subgroups	-9629
▁supravent	-9630
▁surgeries	-9631
▁syndromes	-9632
▁tenoxicam	-9633
▁tonsillar	-9634
▁treatable	-9635
▁unchanged	-9636
▁unlimited	-9637
▁unusually	-9638
▁utilizing	-9639
▁variables	-9640
▁variation	-9641
▁variously	-9642
▁vegetable	-9643
▁virtually	-9644
▁voluntary	-9645
amoxicillin	-9646
antoprazole	-9647
appropriate	-9648
atesticular	-9649
clavulanate	-9650
depressants	-9651
misoprostol	-9652
otherapists	-9653
predominant	-9654
proteinuric	-9655
ractionated	-9656
rogesterone	-9657
significant	-9658
ventilation	-9659
▁1.44-2.99;	-9660
▁1.61-5.34;	-9661
▁Assessment	-9662
▁Behavioral	-9663
▁California	-9664
▁Comparison	-9665
▁Copenhagen	-9666
▁Impression	-9667
▁Infarction	-9668
▁Initiative	-9669
▁Institutes	-9670
▁Physicians	-9671
▁Preventive	-9672
▁Psychiatry	-9673
▁Resolution	-9674
▁Sleepiness	-9675
▁Sonography	-9676
▁Stimulants	-9677
▁Successful	-9678
▁University	-9679
▁abnormally	-9680
▁absorption	-9681
▁adenopathy	-9682
▁administer	-9683
▁alprazolam	-9684
▁anesthesia	-9685
▁antagonist	-9686
▁antepartum	-9687
▁antifactor	-9688
▁audiometry	-9689
▁bacitracin	-9690
▁background	-9691
▁buproprion	-9692
▁candidates	-9693
▁cephalexin	-9694
▁ciclopirox	-9695
▁clinicians	-9696
▁comprising	-9697
▁concussion	-9698
▁conducting	-9699
▁contiguous	-9700
▁determines	-9701
▁diminished	-9702
▁discharged	-9703
▁disclosure	-9704
▁divalproex	-9705
▁duloxetine	-9706
▁electrical	-9707
▁encopresis	-9708
▁engagement	-9709
▁enoxaparin	-9710
▁etanercept	-9711
▁etiologies	-9712
▁exacerbate	-9713
▁explicitly	-9714
▁expressive	-9715
▁facilities	-9716
▁filtration	-9717
▁fluoroquin	-9718
▁furosemide	-9719
▁giardiasis	-9720
▁glomerular	-9721
▁gonorrheal	-9722
▁gynecology	-9723
▁histologic	-9724
▁historical	-9725
▁horizontal	-9726
▁indapamide	-9727
▁influenced	-9728
▁infrequent	-9729
▁institutes	-9730
▁macrosomia	-9731
▁mechanical	-9732
▁meditation	-9733
▁menopausal	-9734
▁meperidine	-9735
▁mesalamine	-9736
▁methyldopa	-9737
▁modalities	-9738
▁neurogenic	-9739
▁neuropathy	-9740
▁neutrophil	-9741
▁normalized	-9742
▁nosocomial	-9743
▁omeprazole	-9744
▁parameters	-9745
▁pefloxacin	-9746
▁percentile	-9747
▁petrolatum	-9748
▁phenomenon	-9749
▁polycystic	-9750
▁positively	-9751
▁postcoital	-9752
▁precursors	-9753
▁pretreated	-9754
▁pronounced	-9755
▁protectant	-9756
▁pyridoxine	-9757
▁questioned	-9758
▁quinolones	-9759
▁ranitidine	-9760
▁recipients	-9761
▁refractory	-9762
▁regression	-9763
▁restenosis	-9764
▁restricted	-9765
▁rhinovirus	-9766
▁salbutamol	-9767
▁seborrheic	-9768
▁secondhand	-9769
▁selegiline	-9770
▁somnolence	-9771
▁spirometry	-9772
▁structured	-9773
▁substitute	-9774
▁summarized	-9775
▁supportive	-9776
▁tacrolimus	-9777
▁tazarotene	-9778
▁therapists	-9779
▁thrombotic	-9780
▁tinidazole	-9781
▁tizanidine	-9782
▁transition	-9783
▁tuberosity	-9784
▁ultimately	-9785
▁unexpected	-9786
▁university	-9787
▁unpleasant	-9788
▁unsuitable	-9789
▁vancomycin	-9790
▁venography	-9791
▁ventilator	-9792
▁weaknesses	-9793
carbohydrate	-9794
erythromycin	-9795
onsillectomy	-9796
particularly	-9797
▁0.12-0.44).	-9798
▁1.06-1.44),	-9799
▁Alendronate	-9800
▁Comparative	-9801
▁Cooperative	-9802
▁Escherichia	-9803
▁Furthermore	-9804
▁Impressions	-9805
▁Intrapartum	-9806
▁Pravastatin	-9807
▁Prospective	-9808
▁Respiratory	-9809
▁Simvastatin	-9810
▁Terbinafine	-9811
▁achievement	-9812
▁actinomyces	-9813
▁alleviating	-9814
▁alternating	-9815
▁anovulation	-9816
▁antiseptics	-9817
▁arthralgias	-9818
▁assessments	-9819
▁birthweight	-9820
▁calculation	-9821
▁communities	-9822
▁compartment	-9823
▁concealment	-9824
▁constipated	-9825
▁constructed	-9826
▁dehydration	-9827
▁description	-9828
▁determining	-9829
▁differently	-9830
▁disturbance	-9831
▁electrolyte	-9832
▁empirically	-9833
▁endometrium	-9834
▁enlargement	-9835
▁esophagitis	-9836
▁essentially	-9837
▁evaluations	-9838
▁fluoridated	-9839
▁formulation	-9840
▁gastroenter	-9841
▁glimepiride	-9842
▁glucocortic	-9843
▁hemorrhoids	-9844
▁homeopathic	-9845
▁hydroxyzine	-9846
▁hypotension	-9847
▁ingredients	-9848
▁ligamentous	-9849
▁lumbosacral	-9850
▁maintaining	-9851
▁mebendazole	-9852
▁methodology	-9853
▁mirtazapine	-9854
▁multiparous	-9855
▁nervousness	-9856
▁neuropathic	-9857
▁nonpregnant	-9858
▁nutritional	-9859
▁obstetrical	-9860
▁participant	-9861
▁podophyllin	-9862
▁possibility	-9863
▁prescribing	-9864
▁prostatitis	-9865
▁reliability	-9866
▁requirement	-9867
▁retinopathy	-9868
▁suicidality	-9869
▁suppressive	-9870
▁termination	-9871
▁theoretical	-9872
▁toothpastes	-9873
▁transmitted	-9874
▁undershirts	-9875
interquartile	-9876
specificities	-9877
▁Hypertension	-9878
▁Subsequently	-9879
▁architecture	-9880
▁attributable	-9881
▁breakthrough	-9882
▁bronchospasm	-9883
▁calculations	-9884
▁chemotherapy	-9885
▁clotrimazole	-9886
▁concentrated	-9887
▁confirmation	-9888
▁confirmatory	-9889
▁consequences	-9890
▁continuation	-9891
▁contractions	-9892
▁contributing	-9893
▁dogmatically	-9894
▁dyslipidemia	-9895
▁dysrhythmias	-9896
▁electrolytes	-9897
▁endocervical	-9898
▁epididymitis	-9899
▁establishing	-9900
▁experimental	-9901
▁griseofulvin	-9902
▁hyponatremia	-9903
▁hypothetical	-9904
▁inadequately	-9905
▁inflammation	-9906
▁instructions	-9907
▁intermittent	-9908
▁intravaginal	-9909
▁invasiveness	-9910
▁lactobacilli	-9911
▁longitudinal	-9912
▁lowmolecular	-9913
▁macroadenoma	-9914
▁mathematical	-9915
▁methotrexate	-9916
▁miscarriages	-9917
▁nondepressed	-9918
▁nonoperative	-9919
▁nontraumatic	-9920
▁normotension	-9921
▁occupational	-9922
▁pancreatitis	-9923
▁postprandial	-9924
▁psychosocial	-9925
▁publications	-9926
▁pyrazinamide	-9927
▁radionuclide	-9928
▁reproductive	-9929
▁sulfadiazine	-9930
▁technologies	-9931
▁transmission	-9932
▁trimethoprim	-9933
▁troglitazone	-9934
▁unresponsive	-9935
▁verification	-9936
▁Complications	-9937
▁Mediterranean	-9938
▁Metronidazole	-9939
▁Professionals	-9940
▁Revaccination	-9941
▁aminotransfer	-9942
▁calcification	-9943
▁carbohydrates	-9944
▁cardioembolic	-9945
▁consideration	-9946
▁determination	-9947
▁documentation	-9948
▁environmental	-9949
▁exacerbations	-9950
▁externalizing	-9951
▁gonadotrophin	-9952
▁gynecologists	-9953
▁hyperglycemia	-9954
▁immunotherapy	-9955
▁independently	-9956
▁institutional	-9957
▁knowledgeable	-9958
▁malabsorption	-9959
▁methodologies	-9960
▁noncompliance	-9961
▁normalization	-9962
▁nortriptyline	-9963
▁obstetricians	-9964
▁presentations	-9965
▁radiculopathy	-9966
▁socioeconomic	-9967
▁sulfisoxazole	-9968
▁tenosynovitis	-9969
▁transcervical	-9970
▁visualization	-9971
otranscobalamin	-9972
▁Cardiovascular	-9973
▁absorptiometry	-9974
▁acetylcysteine	-9975
▁benzodiazepine	-9976
▁chlorthalidone	-9977
▁distinguishing	-9978
▁electrosurgery	-9979
▁encephalopathy	-9980
▁endoscopically	-9981
▁glomerulopathy	-9982
▁hypomagnesemia	-9983
▁interpretation	-9984
▁interventional	-9985
▁irregularities	-9986
▁nonproteinuric	-9987
▁perimenopausal	-9988
▁pregestational	-9989
▁recommendation	-9990
▁rhabdomyolysis	-9991
▁thromboembolic	-9992
▁unfractionated	-9993
sulfamethoxazole	-9994
▁Antidepressants	-9995
▁bioavailability	-9996
▁bronchodilators	-9997
▁cardioselective	-9998
▁hemochromatosis	-9999
▁hyperthyroidism	-10000
▁pathophysiology	-10001
▁recommendations	-10002
,13	-10003
684	-10004
78/	-10005
<.1	-10006
AFA	-10007
Alt	-10008
CMT	-10009
FSH	-10010
HIT	-10011
HOT	-10012
IPO	-10013
ISE	-10014
IgM	-10015
USP	-10016
VAF	-10017
,133	-10018
,443	-10019
,608	-10020
,881	-10021
1-13	-10022
1/36	-10023
5.93	-10024
55);	-10025
9);.	-10026
90%,	-10027
=.81	-10028
=0%;	-10029
=884	-10030
AISE	-10031
Abil	-10032
GERD	-10033
HERS	-10034
HSIL	-10035
IPOD	-10036
LADA	-10037
Motr	-10038
NAAL	-10039
NHAN	-10040
Spor	-10041
Thor	-10042
ayna	-10043
eavy	-10044
elae	-10045
hula	-10046
kows	-10047
kwhe	-10048
palp	-10049
rasp	-10050
text	-10051
▁-10	-10052
▁931	-10053
▁988	-10054
▁>78	-10055
▁ANC	-10056
▁CRC	-10057
▁Lev	-10058
▁MHI	-10059
▁PPE	-10060
▁WHO	-10061
-11.9	-10062
-21.2	-10063
-50),	-10064
-54%.	-10065
-7.0;	-10066
-90%,	-10067
/109)	-10068
/369)	-10069
0.2%;	-10070
0.80.	-10071
1,561	-10072
1,567	-10073
2,471	-10074
2,478	-10075
2,684	-10076
2-1.4	-10077
3.8%.	-10078
322),	-10079
5-0.5	-10080
50.89	-10081
51/36	-10082
6,064	-10083
6,094	-10084
6,790	-10085
7-1.4	-10086
7-2.9	-10087
7-5.9	-10088
78/43	-10089
8/0.8	-10090
9-15.	-10091
95.93	-10092
<0.00	-10093
=-57.	-10094
=-9.4	-10095
=.36;	-10096
=111;	-10097
=167)	-10098
=2.7,	-10099
,42	-10100
/32	-10101
1])	-10102
297	-10103
CEL	-10104
FIR	-10105
FIT	-10106
OBT	-10107
,427	-10108
.3-4	-10109
26.7	-10110
32-5	-10111
429.	-10112
558)	-10113
FIRM	-10114
],17	-10115
▁917	-10116
▁ABC	-10117
/324)	-10118
5429.	-10119
8,297	-10120
9.5),	-10121
=.26.	-10122
=615)	-10123
=689,	-10124
=731)	-10125
=7370	-10126
=8.3;	-10127
=933)	-10128
Celex	-10129
ENAAL	-10130
GADAb	-10131
Lopid	-10132
RAISE	-10133
Relaf	-10134
There	-10135
]=142	-10136
]=20)	-10137
]=5.0	-10138
]=57%	-10139
]=63;	-10140
aigns	-10141
arbox	-10142
arlic	-10143
benef	-10144
catar	-10145
delay	-10146
eavor	-10147
epsia	-10148
eresf	-10149
halic	-10150
heavy	-10151
hilic	-10152
manic	-10153
motor	-10154
muran	-10155
opust	-10156
panol	-10157
rthov	-10158
rusor	-10159
signs	-10160
tbook	-10161
ullae	-10162
ussia	-10163
viral	-10164
waves	-10165
xacet	-10166
yphil	-10167
▁(111	-10168
▁(8.8	-10169
▁(9%)	-10170
▁-5.2	-10171
▁1078	-10172
▁1239	-10173
▁1333	-10174
▁1429	-10175
▁15.8	-10176
▁1555	-10177
▁16.1	-10178
▁1686	-10179
▁1708	-10180
▁2.21	-10181
▁2/20	-10182
▁2287	-10183
▁24.3	-10184
▁25.3	-10185
▁2633	-10186
▁35.8	-10187
▁4.0,	-10188
▁4.76	-10189
▁4328	-10190
▁5097	-10191
▁52.8	-10192
▁5353	-10193
▁5682	-10194
▁5804	-10195
▁5892	-10196
▁63-9	-10197
▁66%.	-10198
▁66-7	-10199
,448	-10200
8-2.0	-10201
lands	-10202
rooms	-10203
▁2.82	-10204
▁27.6	-10205
▁27.7	-10206
▁68.3	-10207
▁77-9	-10208
▁78.3	-10209
▁82.6	-10210
▁9086	-10211
▁9454	-10212
▁9610	-10213
▁97.0	-10214
▁97.2	-10215
▁99%.	-10216
▁<105	-10217
▁<3.2	-10218
▁<60%	-10219
▁>0.8	-10220
▁>1.5	-10221
▁Belc	-10222
▁Caps	-10223
▁Duct	-10224
▁ECMT	-10225
▁GERD	-10226
▁Haem	-10227
▁Insu	-10228
▁METS	-10229
▁Milk	-10230
▁PVCs	-10231
▁VTEs	-10232
▁aura	-10233
▁book	-10234
▁dust	-10235
▁easy	-10236
▁felt	-10237
▁ingu	-10238
▁rasp	-10239
,825),	-10240
-0.38;	-10241
-0.67.	-10242
-13.16	-10243
-15.0%	-10244
-2.32;	-10245
-2.41;	-10246
-2.92)	-10247
-20.43	-10248
-3.35)	-10249
-3.65;	-10250
-69.6%	-10251
-7.1])	-10252
-7.41;	-10253
-70%),	-10254
-8.7),	-10255
-85%),	-10256
-89%),	-10257
-95%),	-10258
-99.6%	-10259
.3-42.	-10260
0-23.2	-10261
10-0.5	-10262
28-20.	-10263
3.2%).	-10264
30-1.7	-10265
40-2.0	-10266
79,600	-10267
97-0.9	-10268
=.26).	-10269
=0.30;	-10270
=0.60;	-10271
=1.05;	-10272
=1.06;	-10273
=1.07;	-10274
=1.18,	-10275
=1.22;	-10276
=1.50;	-10277
=1.51;	-10278
=1.55;	-10279
=12.3;	-10280
=1200)	-10281
=136),	-10282
=16.2;	-10283
=2.26;	-10284
=3.17;	-10285
=3.72;	-10286
=3715)	-10287
=4.5),	-10288
=4.92;	-10289
=6.41;	-10290
=7.3%;	-10291
=9.96,	-10292
=90%),	-10293
>0.80.	-10294
Celexa	-10295
Motrin	-10296
NSAIDs	-10297
PRAISE	-10298
Season	-10299
-7.8	-10300
LISA	-10301
ooxy	-10302
size	-10303
vari	-10304
▁584	-10305
▁PEG	-10306
-144;	-10307
.0]).	-10308
1-2.7	-10309
2-0.2	-10310
2-1.8	-10311
3-2.7	-10312
50/85	-10313
7-7.8	-10314
7.67;	-10315
8.1%;	-10316
direc	-10317
hexyp	-10318
ripip	-10319
▁39%,	-10320
▁58.0	-10321
▁79%,	-10322
▁>1-4	-10323
▁>190	-10324
▁NVAF	-10325
▁Trad	-10326
▁ceft	-10327
▁grip	-10328
▁said	-10329
-0.62;	-10330
4%-14.	-10331
6.0]).	-10332
66-10.	-10333
=0.13;	-10334
=0.17;	-10335
=0.72;	-10336
=2.36;	-10337
=2.67;	-10338
=5.67;	-10339
Sporan	-10340
]=2.1;	-10341
]=25),	-10342
]=3.12	-10343
]=5)..	-10344
]=5.2;	-10345
]=50).	-10346
]=57%;	-10347
]=8.1;	-10348
abumet	-10349
achman	-10350
asthma	-10351
attera	-10352
autery	-10353
coagul	-10354
densed	-10355
dosing	-10356
ductor	-10357
elsink	-10358
eptene	-10359
eptide	-10360
except	-10361
fortif	-10362
glucom	-10363
ington	-10364
isters	-10365
leptin	-10366
likows	-10367
market	-10368
master	-10369
omotor	-10370
ophila	-10371
orvasc	-10372
osalic	-10373
osphon	-10374
otrach	-10375
phoric	-10376
porary	-10377
raspin	-10378
stroke	-10379
sulfon	-10380
tbooks	-10381
topril	-10382
urysms	-10383
utches	-10384
verbal	-10385
▁(0.55	-10386
▁(114)	-10387
▁(12-1	-10388
▁(12.6	-10389
▁(1406	-10390
▁(1408	-10391
▁(1494	-10392
▁(1990	-10393
▁(25.5	-10394
▁(32%)	-10395
▁(36.5	-10396
▁(40),	-10397
▁(478)	-10398
▁(6/30	-10399
811	-10400
SBP	-10401
SCS	-10402
ivy	-10403
-7.5	-10404
379;	-10405
9,40	-10406
=937	-10407
▁-12	-10408
▁49,	-10409
▁561	-10410
▁ivy	-10411
,300/	-10412
5,811	-10413
6-7.5	-10414
613),	-10415
9,405	-10416
riniv	-10417
▁(247	-10418
▁2.43	-10419
▁2.47	-10420
▁24,5	-10421
▁26.7	-10422
▁5.11	-10423
▁56%.	-10424
▁balm	-10425
=6379;	-10426
=9373)	-10427
Priniv	-10428
atosus	-10429
bstein	-10430
▁(0.61	-10431
▁(8-12	-10432
▁(80%;	-10433
▁(83%;	-10434
▁(9.9%	-10435
▁(<150	-10436
▁-0.52	-10437
▁-1.21	-10438
▁-1.64	-10439
▁-2.54	-10440
▁-20.0	-10441
▁-23.2	-10442
▁0.2%.	-10443
▁0.43-	-10444
▁10,00	-10445
▁15.2%	-10446
▁16.0%	-10447
▁16.1%	-10448
▁17,25	-10449
▁17,67	-10450
▁18.2%	-10451
▁19,25	-10452
▁1977;	-10453
▁2.25)	-10454
▁2.26%	-10455
▁20,15	-10456
▁20,75	-10457
▁23.10	-10458
▁23.2%	-10459
▁24,52	-10460
▁27.6%	-10461
▁28.9%	-10462
▁29.3%	-10463
▁3.2%.	-10464
▁3.79,	-10465
▁30.4%	-10466
▁4.2%.	-10467
▁40-80	-10468
▁40.4%	-10469
▁41.3%	-10470
▁42.1%	-10471
▁42.8%	-10472
▁6.7%.	-10473
▁60.5%	-10474
▁60.6%	-10475
▁63.1,	-10476
▁67%-9	-10477
▁8.15%	-10478
▁84%-9	-10479
▁89%-9	-10480
▁92.5%	-10481
▁98.9%	-10482
▁99.2%	-10483
▁>19.6	-10484
▁Arter	-10485
▁Buten	-10486
▁Cross	-10487
▁Gonen	-10488
▁Graph	-10489
▁Neuro	-10490
▁North	-10491
▁Parag	-10492
▁Pengo	-10493
▁Rayna	-10494
▁SOLVD	-10495
▁Sched	-10496
▁acarb	-10497
▁arose	-10498
▁audit	-10499
WEET	-10500
cuff	-10501
▁(>1	-10502
▁(>3	-10503
▁419	-10504
▁439	-10505
etiri	-10506
idden	-10507
merge	-10508
veget	-10509
vigor	-10510
▁(>10	-10511
▁(>14	-10512
▁13.3	-10513
▁17.1	-10514
▁17.3	-10515
▁37%-	-10516
▁42%;	-10517
▁8116	-10518
▁8636	-10519
▁>2.0	-10520
▁Buff	-10521
▁STOP	-10522
▁plaf	-10523
▁psor	-10524
-33%).	-10525
-95%).	-10526
1.3%).	-10527
3.3%).	-10528
5%-50%	-10529
=125),	-10530
Amerge	-10531
adders	-10532
apamil	-10533
butrin	-10534
etiriz	-10535
methyl	-10536
rousal	-10537
spring	-10538
▁(>100	-10539
▁13.67	-10540
▁13.7%	-10541
▁37%-8	-10542
▁71%-8	-10543
▁Alert	-10544
▁Liver	-10545
▁SWEET	-10546
▁banan	-10547
▁baths	-10548
▁cefac	-10549
▁cried	-10550
▁dipyr	-10551
▁fault	-10552
▁flash	-10553
▁flour	-10554
▁gives	-10555
▁hairy	-10556
▁issue	-10557
▁layer	-10558
▁licor	-10559
▁misad	-10560
▁mucos	-10561
▁nerve	-10562
▁nitro	-10563
▁paper	-10564
▁phleb	-10565
▁plaqu	-10566
▁saved	-10567
▁slows	-10568
▁taper	-10569
▁unmet	-10570
▁unrec	-10571
▁unsaf	-10572
▁youth	-10573
-0.20).	-10574
-0.84),	-10575
-1.30).	-10576
-1.74).	-10577
-12.2).	-10578
-18.5).	-10579
-18.9).	-10580
-24.3).	-10581
-3.41);	-10582
-3.51).	-10583
-41.4).	-10584
-5.37),	-10585
-57.6).	-10586
-8.0]),	-10587
-99.6%.	-10588
00-2.8)	-10589
1-137.2	-10590
2-0.98)	-10591
3,613),	-10592
4-0.73)	-10593
4-0.98;	-10594
5%-50%)	-10595
5-0.77)	-10596
51/367;	-10597
6-0.96)	-10598
7-1.1).	-10599
,23	-10600
,88	-10601
67,	-10602
COP	-10603
PGA	-10604
PPP	-10605
SMR	-10606
,233	-10607
,880	-10608
,888	-10609
-245	-10610
-6.5	-10611
0/0.	-10612
=.94	-10613
=6.4	-10614
=6.7	-10615
=6.9	-10616
COPS	-10617
UPPP	-10618
▁494	-10619
▁623	-10620
-6.59	-10621
3.67,	-10622
=10),	-10623
=10,8	-10624
=33%,	-10625
=83%,	-10626
culia	-10627
▁(123	-10628
▁(167	-10629
▁(545	-10630
▁26.5	-10631
▁27%.	-10632
▁2994	-10633
▁33%,	-10634
▁4723	-10635
▁83%,	-10636
▁9031	-10637
▁unbi	-10638
-2454;	-10639
-6.2).	-10640
33.67,	-10641
=-6.59	-10642
=.94),	-10643
=6.6%;	-10644
=6.7).	-10645
=6.96%	-10646
OSCOPS	-10647
▁(1237	-10648
▁(1672	-10649
▁3.1-1	-10650
▁8.3%,	-10651
-6.2).7	-10652
0/0.96,	-10653
7-5.96)	-10654
78/438;	-10655
8-1.54)	-10656
8/0.81,	-10657
9-15.8)	-10658
<0.01).	-10659
=-9.42;	-10660
=.0004;	-10661
=.005),	-10662
=.034).	-10663
=.051).	-10664
=0.5%).	-10665
=0.59);	-10666
=12.8).	-10667
=1250).	-10668
=19.5),	-10669
=2.23),	-10670
=2.29).	-10671
=2.9%).	-10672
=93.8%.	-10673
WOSCOPS	-10674
]=0.08;	-10675
]=0.23;	-10676
]=0.59;	-10677
]=0.60;	-10678
]=0.63,	-10679
]=0.68;	-10680
]=0.72;	-10681
]=0.73;	-10682
]=0.82;	-10683
]=0.83;	-10684
]=0.99)	-10685
]=1.16;	-10686
]=1.37;	-10687
]=1.50;	-10688
]=2.17;	-10689
]=3.11;	-10690
]=3.5).	-10691
]=3.7).	-10692
]=8.4).	-10693
agulant	-10694
apering	-10695
aprosyn	-10696
arboxyl	-10697
benefit	-10698
bladder	-10699
▁9%;	-10700
/110)	-10701
=3]).	-10702
ashim	-10703
oloft	-10704
opopl	-10705
unded	-10706
▁(5.1	-10707
▁1513	-10708
▁1983	-10709
▁1987	-10710
▁32%.	-10711
▁64-9	-10712
▁Isch	-10713
▁fash	-10714
▁keto	-10715
▁rats	-10716
=0.58;	-10717
=1.32;	-10718
=1.33;	-10719
=1.38;	-10720
=1.44;	-10721
=1.45;	-10722
=1.47;	-10723
Hashim	-10724
emoral	-10725
inogen	-10726
▁(3.4%	-10727
▁(3.7%	-10728
▁(3.8%	-10729
▁1986.	-10730
▁2/204	-10731
▁3.0-1	-10732
▁<0.75	-10733
▁Ischa	-10734
▁ahead	-10735
▁climb	-10736
▁holid	-10737
▁kidne	-10738
▁oxyqu	-10739
=1.41).	-10740
=1.47).	-10741
cautery	-10742
cillary	-10743
counsel	-10744
counter	-10745
curring	-10746
distant	-10747
elsinki	-10748
emicals	-10749
eurysms	-10750
exposed	-10751
highest	-10752
hydrase	-10753
idespre	-10754
iloride	-10755
initely	-10756
initial	-10757
inizing	-10758
inoline	-10759
instead	-10760
iolytic	-10761
isuride	-10762
ivilian	-10763
lamines	-10764
mastine	-10765
metazol	-10766
ophilic	-10767
ophilus	-10768
ormonal	-10769
otropin	-10770
ournals	-10771
pattern	-10772
petence	-10773
prevent	-10774
ramingh	-10775
segment	-10776
session	-10777
smokers	-10778
stetric	-10779
studied	-10780
thrombo	-10781
timalar	-10782
tracted	-10783
ulopust	-10784
vancing	-10785
variate	-10786
yphilis	-10787
yridine	-10788
▁(0.92;	-10789
▁(1.2%)	-10790
▁(11.2%	-10791
▁(15%),	-10792
▁(16%),	-10793
▁(16.6%	-10794
▁(17.8%	-10795
▁(19%-4	-10796
▁(25.8)	-10797
▁(3.7%)	-10798
▁(30/30	-10799
385	-10800
58-	-10801
-4%)	-10802
.9%)	-10803
2.34	-10804
34-6	-10805
44%;	-10806
9038	-10807
=7.6	-10808
=71)	-10809
=78.	-10810
amma	-10811
▁594	-10812
▁734	-10813
▁738	-10814
-0.38	-10815
1.4%;	-10816
58-5.	-10817
8.9%)	-10818
=24%;	-10819
=7.8,	-10820
gamma	-10821
▁(158	-10822
▁1034	-10823
▁1068	-10824
▁38%;	-10825
▁41.8	-10826
▁46%;	-10827
▁48%;	-10828
▁52%.	-10829
▁8385	-10830
▁rais	-10831
-2.58-	-10832
-7.03)	-10833
0%-4%)	-10834
34-6.0	-10835
58-5.1	-10836
<.004,	-10837
=-0.38	-10838
=0.54;	-10839
=78.8%	-10840
around	-10841
horter	-10842
▁(24%)	-10843
▁(84%)	-10844
▁1.4%;	-10845
▁2.8%;	-10846
▁3.54,	-10847
▁6.5%.	-10848
▁Gynec	-10849
=91.4%;	-10850
]=0.66;	-10851
apolate	-10852
enadine	-10853
welling	-10854
▁(0.9%)	-10855
▁(2.4%)	-10856
▁(33%).	-10857
▁(41.2%	-10858
▁(5.1),	-10859
▁(500-1	-10860
▁(82%).	-10861
▁(88%).	-10862
▁(9.9%)	-10863
▁-0.14;	-10864
▁-0.28;	-10865
▁-12.34	-10866
▁-20.70	-10867
▁-23.21	-10868
▁0.05%.	-10869
▁0.40).	-10870
▁0.56);	-10871
▁0.96%;	-10872
▁1.02),	-10873
▁1.04),	-10874
▁1.1-6.	-10875
▁1.8-19	-10876
▁11,427	-10877
▁12,500	-10878
▁135/85	-10879
▁14,881	-10880
▁15,880	-10881
▁16,608	-10882
▁17,256	-10883
▁17,671	-10884
▁18,500	-10885
▁19,257	-10886
▁2.9-6.	-10887
▁20,153	-10888
▁24,529	-10889
▁24.6%,	-10890
▁26.7%,	-10891
▁27.2%,	-10892
▁3.1-10	-10893
▁3.6%).	-10894
▁3/1000	-10895
▁31,567	-10896
▁35.8-7	-10897
▁39,405	-10898
▁4.32-5	-10899
4]).	-10900
=9%;	-10901
BEST	-10902
▁(<7	-10903
▁682	-10904
▁686	-10905
▁bru	-10906
▁ott	-10907
-70%)	-10908
2.5%;	-10909
=39%;	-10910
=5.5;	-10911
mitus	-10912
▁(10/	-10913
▁12.5	-10914
▁17%.	-10915
▁24.7	-10916
▁55%;	-10917
▁89%;	-10918
▁terf	-10919
▁uvul	-10920
-1.23;	-10921
-1.25)	-10922
-20%).	-10923
=0.34;	-10924
=0.36;	-10925
=0.37;	-10926
=0.39;	-10927
=0.86;	-10928
=5.5).	-10929
convul	-10930
etters	-10931
nisone	-10932
repres	-10933
ubitus	-10934
▁(0%).	-10935
▁(10),	-10936
▁(3.12	-10937
▁(31%)	-10938
▁(60%)	-10939
▁12.5%	-10940
▁12.5.	-10941
▁4.0%)	-10942
▁68%-7	-10943
▁Manip	-10944
▁bruit	-10945
▁hazel	-10946
▁ottor	-10947
▁stays	-10948
-4.4]).	-10949
=.024).	-10950
=.027).	-10951
=4060),	-10952
stracts	-10953
▁(0.44;	-10954
▁(10/12	-10955
▁(2.1%)	-10956
▁4.46).	-10957
▁47,150	-10958
▁47,888	-10959
▁48.9%;	-10960
▁5-33).	-10961
▁50-72)	-10962
▁56,790	-10963
▁63-99;	-10964
▁63.5%;	-10965
▁68.3-9	-10966
▁7.0%).	-10967
▁7.11).	-10968
▁8/1000	-10969
▁91,561	-10970
▁AFFIRM	-10971
▁ALLHAT	-10972
▁Across	-10973
▁Animal	-10974
▁Antico	-10975
▁Before	-10976
▁Beresf	-10977
▁Canada	-10978
▁Census	-10979
▁Centor	-10980
▁Commun	-10981
▁Compre	-10982
▁Europe	-10983
▁Expert	-10984
▁George	-10985
▁Guidel	-10986
▁Having	-10987
▁Highly	-10988
▁Holter	-10989
▁Injury	-10990
▁Neurop	-10991
▁Nipple	-10992
▁Orthov	-10993
▁Projec	-10994
▁RENAAL	-10995
▁Recall	-10996
▁Reflex	-10997
▁Social	-10998
▁Sports	-10999
691	-11000
697	-11001
752	-11002
755	-11003
957	-11004
=46	-11005
0.75	-11006
1035	-11007
5691	-11008
=135	-11009
=44)	-11010
=44;	-11011
=87)	-11012
▁395	-11013
▁569	-11014
▁769	-11015
▁<35	-11016
▁>64	-11017
▁STI	-11018
1,752	-11019
8,755	-11020
=464)	-11021
▁(175	-11022
▁1.87	-11023
▁11.5	-11024
▁11.6	-11025
▁1464	-11026
▁1564	-11027
▁1969	-11028
▁28%;	-11029
▁2995	-11030
▁3952	-11031
▁7957	-11032
▁norf	-11033
=135),	-11034
acrine	-11035
aprine	-11036
landin	-11037
mostly	-11038
▁(7697	-11039
▁1.8-4	-11040
▁11.3%	-11041
▁11.9%	-11042
▁28%),	-11043
▁47%).	-11044
▁atopy	-11045
▁deoxy	-11046
-4.20).	-11047
-4.9]),	-11048
=.027),	-11049
olerant	-11050
oplasty	-11051
▁21,752	-11052
▁3.5-4.	-11053
▁Stroke	-11054
▁Tender	-11055
▁Unlike	-11056
▁Valpro	-11057
▁allows	-11058
▁appeti	-11059
▁aripip	-11060
▁breakf	-11061
▁bucind	-11062
▁bullae	-11063
▁caregi	-11064
▁casted	-11065
▁chewed	-11066
▁choose	-11067
▁chorio	-11068
▁claims	-11069
▁covari	-11070
▁covert	-11071
▁cystic	-11072
▁damage	-11073
▁diaper	-11074
▁diphen	-11075
▁donors	-11076
▁easily	-11077
▁emesis	-11078
▁enamel	-11079
▁ensure	-11080
▁explos	-11081
▁filled	-11082
▁flexor	-11083
▁fulmin	-11084
▁garlic	-11085
▁gluten	-11086
▁grains	-11087
▁guinea	-11088
▁hidden	-11089
▁humans	-11090
▁insert	-11091
▁juices	-11092
▁linked	-11093
▁margin	-11094
▁mucate	-11095
▁multin	-11096
▁muscul	-11097
▁neurot	-11098
▁nitrit	-11099
.."	-11100
222	-11101
228	-11102
DVT	-11103
IVP	-11104
..."	-11105
0.22	-11106
2.66	-11107
=.92	-11108
=136	-11109
=4.8	-11110
=944	-11111
ROCA	-11112
hana	-11113
▁468	-11114
▁566	-11115
▁592	-11116
▁644	-11117
▁744	-11118
▁948	-11119
▁>36	-11120
5.7%)	-11121
52.66	-11122
6,222	-11123
7-0.6	-11124
=4.3;	-11125
=4.7;	-11126
=55).	-11127
=92%,	-11128
PROCA	-11129
]=25;	-11130
burgh	-11131
enzac	-11132
limin	-11133
mesal	-11134
ylori	-11135
▁(466	-11136
▁(792	-11137
▁(892	-11138
▁1022	-11139
▁32%,	-11140
▁52%,	-11141
▁6800	-11142
▁82%,	-11143
▁86%)	-11144
▁<100	-11145
▁<140	-11146
▁HOPE	-11147
)...."	-11148
=1363)	-11149
=4.4).	-11150
Benzac	-11151
PROCAM	-11152
binate	-11153
ferrin	-11154
nowled	-11155
rinted	-11156
▁(77%)	-11157
▁(86%)	-11158
▁(97%)	-11159
▁-0.22	-11160
▁Apnea	-11161
▁ELISA	-11162
▁Ghana	-11163
=.929),	-11164
=4.87),	-11165
=9443).	-11166
inburgh	-11167
knowled	-11168
▁45.7%)	-11169
▁47,228	-11170
▁Elimin	-11171
▁norges	-11172
▁orthop	-11173
▁ottorh	-11174
▁paired	-11175
▁phenyl	-11176
▁phosph	-11177
▁polymy	-11178
▁pounds	-11179
▁pulled	-11180
▁pulses	-11181
▁pylori	-11182
▁qualit	-11183
▁safely	-11184
▁sebace	-11185
▁secret	-11186
▁staple	-11187
▁stripe	-11188
▁suffer	-11189
▁sugars	-11190
▁ticlop	-11191
▁travel	-11192
▁tricep	-11193
▁trying	-11194
▁unpred	-11195
▁ureter	-11196
▁verbal	-11197
▁vulner	-11198
▁warmly	-11199
HRT	-11200
MAR	-11201
ROS	-11202
2-9.	-11203
95%;	-11204
MARD	-11205
ROSP	-11206
▁616	-11207
▁CBC	-11208
16-1.	-11209
=96%,	-11210
CNBSS	-11211
ankle	-11212
ifluc	-11213
▁1153	-11214
▁1159	-11215
▁1281	-11216
▁1883	-11217
▁2.41	-11218
▁3192	-11219
▁3300	-11220
▁3350	-11221
▁56%,	-11222
▁6.41	-11223
▁70%;	-11224
▁73%)	-11225
▁86%,	-11226
▁Fink	-11227
Difluc	-11228
ROSPER	-11229
edback	-11230
▁1.02-	-11231
▁1.42-	-11232
▁17.6%	-11233
▁8.6%,	-11234
▁DMARD	-11235
▁Diets	-11236
▁Imple	-11237
▁India	-11238
▁Lower	-11239
▁bilob	-11240
▁gradi	-11241
▁lunch	-11242
▁scars	-11243
-3.32).	-11244
16-1.7;	-11245
<.001)-	-11246
=.003),	-11247
=2.95%;	-11248
]=0.78;	-11249
aerobic	-11250
elstein	-11251
ipening	-11252
vastine	-11253
▁Indian	-11254
▁biloba	-11255
▁ferrit	-11256
▁freely	-11257
▁oxytoc	-11258
▁sprink	-11259
▁whoops	-11260
-0.82).1	-11261
-14.58).	-11262
-16.0]).	-11263
-21.23).	-11264
.3-42.4)	-11265
10-0.52;	-11266
2-0.99).	-11267
2-1.44).	-11268
2-9.12),	-11269
3-1.00).	-11270
3-2.74),	-11271
4-0.54).	-11272
4-0.74).	-11273
5-0.57).	-11274
5-1.02).	-11275
58-5.18)	-11276
7-1.20).	-11277
7-1.47).	-11278
8-1.26).	-11279
8-1.33).	-11280
8-1.34).	-11281
8-1.58).	-11282
8-4.20).	-11283
97-0.97)	-11284
=.0008).	-11285
=0.185).	-11286
=1.3-1.9	-11287
=1.5-1.9	-11288
=2.0-2.8	-11289
Diflucan	-11290
Naprosyn	-11291
Prinivil	-11292
Sporanox	-11293
ThinPrep	-11294
]=-20.43	-11295
]=-3.65;	-11296
]=1.44%;	-11297
]=12.5%;	-11298
acquired	-11299
/18	-11300
/15)	-11301
15),	-11302
9/18	-11303
HDRS	-11304
▁343	-11305
▁344	-11306
▁388	-11307
▁441	-11308
▁443	-11309
▁444	-11310
▁476	-11311
▁7%)	-11312
▁7%,	-11313
▁9.2	-11314
▁9/1	-11315
]=10)	-11316
isuse	-11317
logic	-11318
▁(0.0	-11319
▁(315	-11320
▁1115	-11321
▁14%.	-11322
▁1715	-11323
▁38.0	-11324
▁44-8	-11325
▁4500	-11326
▁4762	-11327
▁9.7%	-11328
▁93%.	-11329
▁9473	-11330
-1.92;	-11331
9/188)	-11332
=.045;	-11333
=0.62;	-11334
=0.65;	-11335
=0.66;	-11336
=3.01;	-11337
ffeine	-11338
nausea	-11339
odeine	-11340
▁(0.14	-11341
▁(0.5%	-11342
▁(0.7%	-11343
▁(2.6%	-11344
▁(3.2%	-11345
▁(49%)	-11346
▁1000,	-11347
▁64.6,	-11348
▁9/100	-11349
▁Diagn	-11350
▁antec	-11351
▁atrop	-11352
▁homew	-11353
-1.15),	-11354
-1.94).	-11355
=.045).	-11356
onfatal	-11357
tillate	-11358
▁(3/15)	-11359
▁Active	-11360
▁Alarms	-11361
▁Misuse	-11362
▁Peters	-11363
▁antisp	-11364
▁eradic	-11365
-1.94).8	-11366
9-1.15),	-11367
actorily	-11368
afibrate	-11369
aglandin	-11370
agulated	-11371
allergen	-11372
ampaigns	-11373
aterials	-11374
atorenal	-11375
berosity	-11376
biologic	-11377
biphasic	-11378
cataract	-11379
chlorper	-11380
dwelling	-11381
ecreases	-11382
eduction	-11383
ematosus	-11384
essional	-11385
follicle	-11386
fortable	-11387
gnancies	-11388
hexyphen	-11389
hormonal	-11390
ibrotide	-11391
iciaries	-11392
ilateral	-11393
ipocytes	-11394
lacental	-11395
myograph	-11396
nonfatal	-11397
odilator	-11398
oftening	-11399
78,	-11400
-4.1	-11401
3-4.	-11402
5.14	-11403
56),	-11404
8,24	-11405
NRIs	-11406
asci	-11407
clic	-11408
kner	-11409
▁law	-11410
▁soy	-11411
-1.88	-11412
=0.14	-11413
rocus	-11414
▁1.84	-11415
▁1.89	-11416
▁12%,	-11417
▁1989	-11418
▁2.14	-11419
▁28%,	-11420
▁9014	-11421
▁96%,	-11422
▁96%.	-11423
▁96%;	-11424
▁gums	-11425
▁uncl	-11426
-1.63)	-11427
-1.68)	-11428
-1.69)	-11429
-4.16)	-11430
-=0.14	-11431
/0.78,	-11432
=-1.88	-11433
=1.11;	-11434
=18,24	-11435
Crocus	-11436
ciuria	-11437
cyclic	-11438
euvers	-11439
minent	-11440
versed	-11441
▁-5.14	-11442
▁12-80	-11443
▁255.2	-11444
▁Bowel	-11445
▁SNRIs	-11446
▁Simms	-11447
▁amput	-11448
▁aware	-11449
▁fasci	-11450
-1.68),	-11451
-1.69).	-11452
4-1.69)	-11453
arterec	-11454
hythmic	-11455
oxicity	-11456
pharmac	-11457
rickner	-11458
without	-11459
▁Hyster	-11460
▁switch	-11461
3-4.56),	-11462
onucleic	-11463
opoplite	-11464
organism	-11465
oriation	-11466
orsemide	-11467
osporins	-11468
ostomies	-11469
parallel	-11470
phosphon	-11471
pretable	-11472
priately	-11473
produces	-11474
profound	-11475
prothrom	-11476
puscular	-11477
ractures	-11478
ralizing	-11479
relaxing	-11480
remaster	-11481
response	-11482
ricyclic	-11483
rimarily	-11484
rophilic	-11485
roxyprog	-11486
scarring	-11487
screened	-11488
sibility	-11489
tapering	-11490
thoracic	-11491
troviral	-11492
urbinate	-11493
utritive	-11494
valences	-11495
ysicians	-11496
▁(0%-4%)	-11497
▁(10/120	-11498
▁(16.7),	-11499
2,0	-11500
-45)	-11501
-48%	-11502
11),	-11503
22,0	-11504
4%-4	-11505
6.89	-11506
=12,	-11507
=2-4	-11508
=3.4	-11509
=64.	-11510
▁43,	-11511
▁541	-11512
▁543	-11513
-57).	-11514
6-1.8	-11515
=.03,	-11516
=2-45	-11517
=3.3;	-11518
=3.7)	-11519
=3.7;	-11520
=3.9;	-11521
feron	-11522
inavi	-11523
▁-1.5	-11524
▁1723	-11525
▁3.3,	-11526
▁3234	-11527
▁43,7	-11528
▁5.5,	-11529
▁7.2,	-11530
▁86%;	-11531
▁logs	-11532
-1.78)	-11533
-5.8).	-11534
-56.89	-11535
22,012	-11536
<.01);	-11537
=0.33,	-11538
=12,60	-11539
=3.43;	-11540
=64.3%	-11541
ritten	-11542
▁-1.58	-11543
▁0.63,	-11544
▁0.75,	-11545
▁1992,	-11546
▁200-4	-11547
▁27.5%	-11548
▁asked	-11549
-1.11),	-11550
6-1.88;	-11551
6-56.89	-11552
=12,603	-11553
inavian	-11554
ovarian	-11555
package	-11556
▁(34%-4	-11557
▁20-45)	-11558
▁43,738	-11559
▁harder	-11560
7-7.86).	-11561
8-1.11),	-11562
▁(18.9%)	-11563
▁(20/68)	-11564
▁(30/30)	-11565
▁(6/109)	-11566
▁-0.01).	-11567
▁-0.03).	-11568
▁-152.66	-11569
▁0.17-0.	-11570
▁0.43-5)	-11571
▁0.70/0.	-11572
▁0.76-1.	-11573
▁0.79-5.	-11574
▁0.84-1.	-11575
▁1.0-2.7	-11576
▁1.03-1.	-11577
▁1.15-3.	-11578
▁1.2-14.	-11579
▁1.38-3.	-11580
▁1.42-6.	-11581
▁1.72-2.	-11582
▁116,094	-11583
▁192,478	-11584
▁1993-19	-11585
▁2.8-10.	-11586
▁20-57).	-11587
▁200-400	-11588
▁255.22;	-11589
▁3.0-19.	-11590
▁30/70).	-11591
▁308,755	-11592
▁40,000.	-11593
▁400-800	-11594
▁45%-48%	-11595
▁5.4-12.	-11596
▁52-144;	-11597
▁66-70).	-11598
▁71%-86%	-11599
70;	-11600
ABG	-11601
ABL	-11602
ABR	-11603
OAE	-11604
PCR	-11605
kgo	-11606
17%,	-11607
=80)	-11608
ABGs	-11609
ABLE	-11610
fect	-11611
orps	-11612
pull	-11613
rgan	-11614
▁311	-11615
▁572	-11616
▁577	-11617
▁658	-11618
▁75-	-11619
▁756	-11620
▁970	-11621
▁<45	-11622
▁SMR	-11623
=50).	-11624
TABLE	-11625
ectas	-11626
inkgo	-11627
▁2570	-11628
▁2973	-11629
▁47%,	-11630
▁500,	-11631
▁5721	-11632
▁Subc	-11633
▁ampl	-11634
▁purp	-11635
▁team	-11636
=1.70;	-11637
osened	-11638
▁2.7%,	-11639
▁CABGs	-11640
▁Corps	-11641
▁Lymph	-11642
▁Organ	-11643
▁teeth	-11644
ectasis	-11645
ocusate	-11646
onberry	-11647
▁(45%).	-11648
▁57,000	-11649
▁Ginkgo	-11650
▁Tissue	-11651
headache	-11652
osporine	-11653
ractical	-11654
ulfidine	-11655
utoantib	-11656
▁-0.17%,	-11657
▁779,600	-11658
▁88%-93%	-11659
▁97.09).	-11660
▁<150/85	-11661
▁>20,000	-11662
▁Allergy	-11663
▁Belcaro	-11664
▁Carotid	-11665
▁Classen	-11666
▁Closure	-11667
▁Concent	-11668
▁Danazol	-11669
▁Desquam	-11670
▁Fetters	-11671
▁Finland	-11672
▁Genital	-11673
▁History	-11674
▁Indones	-11675
▁Invigor	-11676
▁Lachman	-11677
▁Lamisil	-11678
▁Murmurs	-11679
▁Optimal	-11680
▁Petersb	-11681
▁Progest	-11682
▁Regular	-11683
▁Scoring	-11684
▁Screens	-11685
▁Shorter	-11686
▁Steroid	-11687
▁Varonen	-11688
▁Without	-11689
▁adopted	-11690
▁amnesic	-11691
▁arguing	-11692
▁arousal	-11693
▁athlete	-11694
▁audited	-11695
▁bananas	-11696
▁bathing	-11697
▁breaths	-11698
▁calorie	-11699
/34	-11700
EIB	-11701
7/34	-11702
=.25	-11703
▁269	-11704
▁383	-11705
▁421	-11706
▁427	-11707
▁549	-11708
▁625	-11709
▁70-	-11710
▁701	-11711
▁704	-11712
▁CAD	-11713
▁err	-11714
▁iat	-11715
-0.89	-11716
4-0.8	-11717
]=10.	-11718
]=15;	-11719
]=19.	-11720
iosus	-11721
▁(1.0	-11722
▁(1.6	-11723
▁10.7	-11724
▁10.8	-11725
▁15%.	-11726
▁25%.	-11727
▁42-7	-11728
▁48%)	-11729
▁7046	-11730
▁80%.	-11731
▁>38.	-11732
▁Exam	-11733
▁Extr	-11734
-0.81)	-11735
-0.88)	-11736
-2.8),	-11737
7/344)	-11738
]=11).	-11739
]=15).	-11740
]=19).	-11741
omanic	-11742
pazine	-11743
▁1.66%	-11744
▁10.0%	-11745
▁10.3%	-11746
▁10.71	-11747
▁3.85%	-11748
▁41.2%	-11749
▁42-78	-11750
▁>38.9	-11751
▁Rules	-11752
▁caraw	-11753
▁clean	-11754
▁embol	-11755
▁veter	-11756
-0.85).	-11757
-0.87).	-11758
-0.88).	-11759
7-2.91;	-11760
=.259).	-11761
]=19.4;	-11762
onidine	-11763
ouching	-11764
▁Factor	-11765
▁Reoper	-11766
▁bodies	-11767
▁celand	-11768
▁curret	-11769
▁emboli	-11770
▁modify	-11771
3-0.88).	-11772
4-0.86).	-11773
7-0.91),	-11774
Although	-11775
]=10.67;	-11776
aramycin	-11777
endoscop	-11778
natremia	-11779
ompazine	-11780
▁0.4-0.8	-11781
▁356,222	-11782
▁caraway	-11783
▁carried	-11784
▁categor	-11785
▁cetiriz	-11786
▁cholest	-11787
▁circuit	-11788
▁cleared	-11789
▁closely	-11790
▁colonic	-11791
▁commerc	-11792
▁constit	-11793
▁context	-11794
▁cranial	-11795
▁crossed	-11796
▁cumbers	-11797
▁depends	-11798
▁devices	-11799
24,	-11800
=6)	-11801
PIs	-11802
-66)	-11803
17),	-11804
67),	-11805
=16)	-11806
=31)	-11807
=32;	-11808
▁233	-11809
▁234	-11810
▁235	-11811
▁237	-11812
▁46,	-11813
▁538	-11814
▁924	-11815
▁Leu	-11816
▁ORs	-11817
-1.04	-11818
-66)-	-11819
4.8%)	-11820
=31).	-11821
▁1096	-11822
▁11.8	-11823
▁1204	-11824
▁1298	-11825
▁5.6,	-11826
▁57%.	-11827
▁Leuk	-11828
▁PPIs	-11829
▁feel	-11830
-0.75;	-11831
-7.0).	-11832
=1.24,	-11833
kwheat	-11834
leural	-11835
locker	-11836
▁(28%)	-11837
▁(58%)	-11838
▁(88%)	-11839
▁-0.6)	-11840
▁0.66,	-11841
▁46,80	-11842
▁freez	-11843
▁worth	-11844
-0.71).	-11845
-1.08).	-11846
-1.09).	-11847
-13.7),	-11848
-2.67),	-11849
1-0.75;	-11850
26.17),	-11851
6-7.0).	-11852
Blocker	-11853
orbitol	-11854
thermal	-11855
▁40-60)	-11856
▁46,808	-11857
▁Strept	-11858
▁citing	-11859
▁freeze	-11860
▁intrap	-11861
▁latent	-11862
▁partly	-11863
elanotic	-11864
▁(34.8%)	-11865
▁0.4-1.0	-11866
▁35-66)-	-11867
▁Vaginal	-11868
▁designs	-11869
▁digoxig	-11870
▁element	-11871
▁embryop	-11872
▁fashion	-11873
▁feather	-11874
▁fertile	-11875
▁focuses	-11876
▁fourths	-11877
▁hexacet	-11878
▁impairs	-11879
▁implies	-11880
▁instead	-11881
▁ionized	-11882
▁jaundic	-11883
▁kidneys	-11884
▁levamis	-11885
▁margins	-11886
▁midwife	-11887
▁mixture	-11888
▁murmurs	-11889
▁nabumet	-11890
▁nondrug	-11891
▁nonlact	-11892
▁nonmilk	-11893
▁observe	-11894
▁organic	-11895
▁perfect	-11896
▁plafond	-11897
▁plaster	-11898
▁pleural	-11899
20;	-11900
42)	-11901
Gyn	-11902
MRA	-11903
45%)	-11904
=9),	-11905
=9.0	-11906
=98)	-11907
cicl	-11908
circ	-11909
▁23,	-11910
▁564	-11911
-61).	-11912
10.2%	-11913
2.5%)	-11914
=59).	-11915
=9.0;	-11916
escol	-11917
▁(820	-11918
▁-2.7	-11919
▁1720	-11920
▁23,1	-11921
▁4.4,	-11922
▁40%.	-11923
▁40%;	-11924
▁5646	-11925
▁65%)	-11926
▁Clom	-11927
▁aggl	-11928
▁legs	-11929
▁pyod	-11930
-2.42)	-11931
=1.20;	-11932
=1689,	-11933
=2.32,	-11934
circum	-11935
estril	-11936
ricans	-11937
rogate	-11938
spectr	-11939
undred	-11940
▁(15%)	-11941
▁(25%)	-11942
▁3.4%;	-11943
▁88%),	-11944
▁>45%)	-11945
▁Achie	-11946
▁drops	-11947
▁empty	-11948
3-2.42)	-11949
=3-61).	-11950
]=1.71;	-11951
forward	-11952
special	-11953
▁1.86).	-11954
▁23,130	-11955
▁Lescol	-11956
▁agglut	-11957
▁clears	-11958
▁psycho	-11959
▁pyuria	-11960
▁unspec	-11961
atectomy	-11962
ciclovir	-11963
enectomy	-11964
eosporin	-11965
igricans	-11966
spectrum	-11967
▁(42.5%)	-11968
▁-2.78).	-11969
▁0.43-2.	-11970
▁Obstetr	-11971
▁adhered	-11972
▁bedtime	-11973
▁hundred	-11974
▁polymyx	-11975
▁postnat	-11976
▁precord	-11977
▁premise	-11978
▁procalc	-11979
▁prodrom	-11980
▁prodrug	-11981
▁purpose	-11982
▁pyelone	-11983
▁pyoderm	-11984
▁quantif	-11985
▁queries	-11986
▁quinine	-11987
▁ranking	-11988
▁rapidly	-11989
▁refills	-11990
▁retinal	-11991
▁sampled	-11992
▁savings	-11993
▁scalpel	-11994
▁slowing	-11995
▁stepped	-11996
▁substud	-11997
▁suffers	-11998
▁surface	-11999
-34	-12000
-35	-12001
-8,	-12002
-81	-12003
-88	-12004
4-3	-12005
DSR	-12006
=2-3	-12007
disp	-12008
gasm	-12009
hisc	-12010
▁292	-12011
▁295	-12012
▁48-	-12013
▁55-	-12014
▁556	-12015
▁557	-12016
▁777	-12017
▁8.6	-12018
▁90-	-12019
▁958	-12020
▁Ade	-12021
▁Adh	-12022
-84).	-12023
=.02,	-12024
=24-3	-12025
ungus	-12026
▁1.29	-12027
▁14-3	-12028
▁17.8	-12029
▁18%.	-12030
▁55.0	-12031
▁8.4%	-12032
▁<3.0	-12033
▁>27.	-12034
▁PDSR	-12035
▁etre	-12036
▁goit	-12037
▁kick	-12038
-38%).	-12039
-5.3).	-12040
=-57.9	-12041
=0.59;	-12042
gasmic	-12043
▁1.22%	-12044
▁1.4-1	-12045
▁1.45;	-12046
▁11-88	-12047
▁20-35	-12048
▁>27.3	-12049
▁anemb	-12050
▁necro	-12051
=-57.93	-12052
cooling	-12053
etected	-12054
▁(75-81	-12055
▁1.2-1.	-12056
▁1.2-2.	-12057
▁1.2-3.	-12058
▁1.4-1.	-12059
▁1.4-10	-12060
▁14-35;	-12061
▁Status	-12062
▁dehisc	-12063
▁fungus	-12064
▁retest	-12065
=24-31).	-12066
isterone	-12067
▁55.06).	-12068
▁80-84).	-12069
▁anembry	-12070
▁capable	-12071
▁etretin	-12072
▁goiters	-12073
▁necroti	-12074
▁targets	-12075
▁tendenc	-12076
▁thicken	-12077
▁tightly	-12078
▁trichom	-12079
▁underes	-12080
▁undergo	-12081
▁uninter	-12082
▁updated	-12083
▁uvuloph	-12084
▁viruses	-12085
▁written	-12086
-]=0.06).	-12087
28-20.6).	-12088
30-1.73).	-12089
4%-14.7%)	-12090
8-1.58).9	-12091
=18,241),	-12092
=23,613),	-12093
Compazine	-12094
Neosporin	-12095
Pravachol	-12096
Seasonale	-12097
]=1.2-10.	-12098
abdominal	-12099
/90	-12100
90)	-12101
Teg	-12102
-3.7	-12103
90).	-12104
=3.5	-12105
=90)	-12106
oace	-12107
riax	-12108
▁4-5	-12109
▁603	-12110
▁709	-12111
▁8.2	-12112
▁8.4	-12113
▁801	-12114
▁805	-12115
▁Bau	-12116
▁Peg	-12117
40/90	-12118
=1.90	-12119
acell	-12120
aflex	-12121
entax	-12122
olace	-12123
uelan	-12124
▁150-	-12125
▁3500	-12126
▁>10%	-12127
▁duct	-12128
▁gave	-12129
10-3.7	-12130
<.0001	-12131
=0.49;	-12132
Colace	-12133
Mentax	-12134
amphen	-12135
amping	-12136
romise	-12137
zuelan	-12138
▁8.2-2	-12139
▁Bauer	-12140
▁Melan	-12141
▁equip	-12142
▁plans	-12143
▁privi	-12144
▁shamp	-12145
-1.01).	-12146
<.0001)	-12147
Tegison	-12148
anaflex	-12149
gorithm	-12150
loroace	-12151
mission	-12152
riaxone	-12153
▁1.3-1.	-12154
▁<.05).	-12155
▁equate	-12156
▁shampo	-12157
]=3.125;	-12158
amphenic	-12159
asonable	-12160
epatitis	-12161
▁8.2-23.	-12162
▁>140/90	-12163
▁Finally	-12164
▁demands	-12165
▁distort	-12166
▁opening	-12167
▁privile	-12168
▁secrete	-12169
▁shampoo	-12170
10-3.77).	-12171
apulopust	-12172
atoplasty	-12173
boovarian	-12174
chosocial	-12175
confusion	-12176
corrected	-12177
cortisone	-12178
disabling	-12179
dosterone	-12180
efazodone	-12181
ellbutrin	-12182
enezuelan	-12183
ergonomic	-12184
ertension	-12185
fortified	-12186
glucomann	-12187
hepatitis	-12188
histology	-12189
imentally	-12190
imodipine	-12191
injection	-12192
iologists	-12193
isoprolol	-12194
lassified	-12195
lipidemic	-12196
menorrhea	-12197
ocalcemia	-12198
occurring	-12199
26)	-12200
67)	-12201
927	-12202
=97%	-12203
▁326	-12204
-3.8)	-12205
=.26)	-12206
Spect	-12207
lixim	-12208
stern	-12209
▁-1.8	-12210
▁2.26	-12211
▁99.9	-12212
▁cuts	-12213
-0.43;	-12214
-3.5).	-12215
-3.6).	-12216
=1.5);	-12217
=97%),	-12218
]=1.6;	-12219
▁(36%)	-12220
▁0.026	-12221
▁0.27)	-12222
▁50-79	-12223
▁6.8%;	-12224
▁works	-12225
inester	-12226
liximab	-12227
pectant	-12228
▁(21%).	-12229
▁1.1-3.	-12230
▁25,927	-12231
▁Unable	-12232
▁benzyd	-12233
▁fibros	-12234
▁flexed	-12235
▁pectin	-12236
▁weakly	-12237
hibitive	-12238
likowske	-12239
▁2.26-5.	-12240
▁affects	-12241
▁defines	-12242
▁nondiar	-12243
▁specify	-12244
66-10.67)	-12245
oconstric	-12246
ogonadism	-12247
ographies	-12248
onsmokers	-12249
ophysical	-12250
otherapeu	-12251
otracheal	-12252
palpation	-12253
perinatal	-12254
phenazone	-12255
phetamine	-12256
plemented	-12257
pretation	-12258
prothromb	-12259
represent	-12260
rivastine	-12261
rofecoxib	-12262
rorrhagia	-12263
specialty	-12264
sternally	-12265
sustained	-12266
therlands	-12267
tratified	-12268
vegetable	-12269
zulfidine	-12270
▁(0.05%);	-12271
▁(122,471	-12272
▁(20/324)	-12273
▁(266,064	-12274
▁(43.2%).	-12275
▁(47/344)	-12276
▁(81.3%).	-12277
▁0.013-0.	-12278
▁0.04-0.1	-12279
▁0.04-0.6	-12280
▁0.10-0.3	-12281
▁0.12-0.9	-12282
▁0.14-0.5	-12283
▁0.19-2.3	-12284
▁0.21-0.8	-12285
▁0.23-0.6	-12286
▁0.34-0.5	-12287
▁0.36-0.7	-12288
▁0.40-0.9	-12289
▁0.47-0.6	-12290
▁0.48-0.9	-12291
▁0.48-3.0	-12292
▁0.70-1.2	-12293
▁0.70/0.9	-12294
▁0.71-0.9	-12295
▁0.72/0.8	-12296
▁0.74-0.9	-12297
▁0.79-0.9	-12298
▁0.84-0.9	-12299
5])	-12300
:30	-12301
BMD	-12302
PPV	-12303
ako	-12304
oak	-12305
=480	-12306
aken	-12307
elay	-12308
▁283	-12309
▁284	-12310
▁333	-12311
▁471	-12312
▁5%,	-12313
▁7.9	-12314
▁811	-12315
akote	-12316
ioids	-12317
▁0.1/	-12318
▁0.15	-12319
▁0.91	-12320
▁0.99	-12321
▁1.51	-12322
▁1:30	-12323
▁3339	-12324
▁7.84	-12325
▁7.9%	-12326
▁Prem	-12327
▁Prep	-12328
▁held	-12329
▁leak	-12330
▁priv	-12331
=0.44;	-12332
=0.56;	-12333
=2.16;	-12334
=480).	-12335
elayed	-12336
hether	-12337
partum	-12338
plenic	-12339
▁(>5%)	-12340
▁0.19.	-12341
▁0.93.	-12342
▁7.5%.	-12343
▁Local	-12344
▁Scand	-12345
▁acids	-12346
▁field	-12347
epakote	-12348
obronch	-12349
umbered	-12350
▁0.9-1.	-12351
▁1.5-2.	-12352
▁<.001,	-12353
▁awaken	-12354
▁crying	-12355
▁lipids	-12356
▁probes	-12357
2-0.23).	-12358
<0.001).	-12359
Depakote	-12360
numbered	-12361
ticulous	-12362
▁0.93.15	-12363
▁Delayed	-12364
▁Feeding	-12365
▁Whether	-12366
▁antiarr	-12367
▁leakage	-12368
▁opioids	-12369
▁presoak	-12370
▁private	-12371
ronchitis	-12372
▁0.93-1.6	-12373
▁0.99-1.3	-12374
▁1.01-2.7	-12375
▁1.04-3.3	-12376
▁1.05-1.2	-12377
▁1.07-1.8	-12378
▁1.08-1.2	-12379
▁1.1-1.5)	-12380
▁1.1-2.8)	-12381
▁1.1-3.8,	-12382
▁1.1-7.0;	-12383
▁1.2-1.6)	-12384
▁1.29-1.5	-12385
▁1.3-3.7)	-12386
▁1.38-3.9	-12387
▁1.4-1.6.	-12388
▁1.4-3.8)	-12389
▁1.40-2.0	-12390
▁1.46-7.5	-12391
▁1.48-2.0	-12392
▁1.5-2.3;	-12393
▁100,000.	-12394
▁11-220).	-12395
▁21%-54%.	-12396
▁3.1-10),	-12397
▁3.5-4.3)	-12398
▁35.8-74.	-12399
30,	-12400
43)	-12401
=3)	-12402
.03)	-12403
245)	-12404
30-6	-12405
=6),	-12406
▁-1%	-12407
▁-7%	-12408
▁-7.	-12409
▁221	-12410
▁223	-12411
▁340	-12412
▁840	-12413
0.8),	-12414
ephed	-12415
etics	-12416
iacin	-12417
ounty	-12418
phase	-12419
phine	-12420
reinf	-12421
▁(4-6	-12422
▁-0.8	-12423
▁-1).	-12424
▁-7.9	-12425
▁1998	-12426
▁6935	-12427
▁miss	-12428
▁sets	-12429
=0.53;	-12430
=1.30,	-12431
=8245)	-12432
lactam	-12433
oephed	-12434
tyyear	-12435
▁(98%)	-12436
▁-0.1;	-12437
▁2.8%.	-12438
▁5.2),	-12439
▁impot	-12440
▁impul	-12441
30-63).	-12442
=.0043)	-12443
emetics	-12444
infants	-12445
lactams	-12446
olectin	-12447
orphine	-12448
▁20,751	-12449
▁<.001)	-12450
▁County	-12451
▁flawed	-12452
▁imaged	-12453
▁imping	-12454
▁niacin	-12455
▁supply	-12456
▁suspen	-12457
Tolectin	-12458
perature	-12459
udoephed	-12460
urrently	-12461
▁(10.8),	-12462
▁impinge	-12463
▁labored	-12464
▁missing	-12465
▁playing	-12466
▁pooling	-12467
▁produce	-12468
increased	-12469
▁57-2454;	-12470
▁64-99%),	-12471
▁95%-97%,	-12472
▁Attribut	-12473
▁Atypical	-12474
▁Avoiding	-12475
▁Diabetic	-12476
▁Enuresis	-12477
▁European	-12478
▁Exercise	-12479
▁Fourteen	-12480
▁Framingh	-12481
▁Headache	-12482
▁Lisuride	-12483
▁Manufact	-12484
▁Medicare	-12485
▁Medicine	-12486
▁Melanoma	-12487
▁Moreover	-12488
▁Ramipril	-12489
▁Recently	-12490
▁Rifampin	-12491
▁Thoracic	-12492
▁abductor	-12493
▁ablative	-12494
▁abortive	-12495
▁acarbose	-12496
▁achieves	-12497
▁adenomas	-12498
▁adhering	-12499
.1,	-12500
STA	-12501
-49%	-12502
.1,2	-12503
42).	-12504
=88%	-12505
STAR	-12506
phic	-12507
▁273	-12508
▁275	-12509
▁279	-12510
-49%.	-12511
=40),	-12512
=88%,	-12513
START	-12514
loral	-12515
ltras	-12516
opper	-12517
reams	-12518
▁0.1,	-12519
▁0.6/	-12520
▁0.67	-12521
▁1358	-12522
▁24%,	-12523
▁flor	-12524
▁glyc	-12525
▁sunl	-12526
-1.2).	-12527
-1.6),	-12528
<.02).	-12529
=.001,	-12530
=1.02;	-12531
=342).	-12532
Gastro	-12533
encing	-12534
ermint	-12535
parity	-12536
reward	-12537
▁(2300	-12538
▁-0.28	-12539
▁0.69)	-12540
▁16.7%	-12541
▁Cream	-12542
▁basal	-12543
▁flora	-12544
▁triad	-12545
<.002).	-12546
odified	-12547
permint	-12548
smoking	-12549
tential	-12550
ycodone	-12551
▁(10%),	-12552
▁Dental	-12553
▁Ultras	-12554
▁citrus	-12555
▁copper	-12556
▁dreams	-12557
▁glycer	-12558
▁glycos	-12559
▁halves	-12560
▁public	-12561
▁restar	-12562
▁stairs	-12563
▁triage	-12564
alsartan	-12565
ichloral	-12566
otential	-12567
▁16.7%-8	-12568
▁harmful	-12569
▁tendons	-12570
astrophic	-12571
eppermint	-12572
intestion	-12573
potential	-12574
▁47%-49%.	-12575
▁Modified	-12576
▁adoption	-12577
▁amnestic	-12578
▁amniotic	-12579
▁appendix	-12580
▁arguably	-12581
▁atropine	-12582
▁balanced	-12583
▁bedrooms	-12584
▁biphasic	-12585
▁bladders	-12586
▁blisters	-12587
▁bruising	-12588
▁carbonic	-12589
▁carcinom	-12590
▁carriers	-12591
▁cefaclor	-12592
▁changing	-12593
▁choosing	-12594
▁civilian	-12595
▁clamping	-12596
▁cleanlin	-12597
▁conceive	-12598
▁constant	-12599
,80	-12600
39)	-12601
OMM	-12602
STF	-12603
WHI	-12604
ozy	-12605
,805	-12606
0.9)	-12607
0.9;	-12608
144)	-12609
2-8.	-12610
29).	-12611
3.9;	-12612
=180	-12613
=29)	-12614
COMM	-12615
]=25	-12616
ohum	-12617
ozyg	-12618
▁252	-12619
▁256	-12620
▁280	-12621
▁880	-12622
▁<80	-12623
▁HLA	-12624
4-1.5	-12625
ecule	-12626
erbil	-12627
uctus	-12628
▁0.9;	-12629
▁1.80	-12630
▁<10.	-12631
▁Chin	-12632
▁Tann	-12633
▁Targ	-12634
-0.98;	-12635
17,805	-12636
=.09).	-12637
=5144)	-12638
USPSTF	-12639
enohum	-12640
erbilt	-12641
ranian	-12642
uminum	-12643
▁10%-2	-12644
▁20%).	-12645
▁200-6	-12646
▁23.8%	-12647
-0.98).	-12648
-6.29).	-12649
2-8.4).	-12650
=-0.98;	-12651
=.009).	-12652
]=0.62;	-12653
]=13.9;	-12654
olecule	-12655
ozygous	-12656
sychoph	-12657
tussive	-12658
▁(1.39)	-12659
▁240.9;	-12660
▁3.5%).	-12661
▁Tanner	-12662
▁backup	-12663
▁cellul	-12664
▁ductus	-12665
▁masses	-12666
▁walked	-12667
4-1.51).	-12668
6-6.29).	-12669
]=1428);	-12670
▁10%-20%	-12671
▁200-600	-12672
▁Chinese	-12673
▁Iranian	-12674
▁Targets	-12675
▁phritis	-12676
anderbilt	-12677
ronically	-12678
yocardial	-12679
▁0.75-1.0	-12680
▁10%-54%;	-12681
▁2.7-5.4)	-12682
▁aluminum	-12683
▁constell	-12684
▁contamin	-12685
▁crutches	-12686
▁declined	-12687
▁deoxyrib	-12688
▁detrusor	-12689
▁dextrose	-12690
▁diverged	-12691
▁docusate	-12692
▁drinkers	-12693
▁economic	-12694
▁egophony	-12695
▁emotions	-12696
▁endeavor	-12697
▁entering	-12698
▁esterase	-12699
-90	-12700
112	-12701
8.1	-12702
8.2	-12703
=9;	-12704
-90,	-12705
1121	-12706
=112	-12707
▁212	-12708
▁312	-12709
▁33-	-12710
▁68.	-12711
▁Hyd	-12712
▁dyd	-12713
=2.8;	-12714
edema	-12715
▁(112	-12716
▁0.08	-12717
▁0.8.	-12718
▁1069	-12719
▁1140	-12720
▁2.12	-12721
▁31%;	-12722
▁77%,	-12723
,000),	-12724
=.005)	-12725
=112).	-12726
=2.7).	-12727
median	-12728
talian	-12729
tilage	-12730
volume	-12731
▁(1127	-12732
▁0.03%	-12733
▁0.05%	-12734
▁juven	-12735
▁wards	-12736
=.005).	-12737
ioedema	-12738
ometers	-12739
▁-0.7).	-12740
▁0.18),	-12741
▁19,000	-12742
▁20,000	-12743
▁40,233	-12744
▁68.4%)	-12745
▁adjust	-12746
▁chaste	-12747
▁divers	-12748
▁twenty	-12749
▁unsafe	-12750
atologic	-12751
▁200,000	-12752
▁Italian	-12753
▁solving	-12754
▁trended	-12755
▁(35%-50%	-12756
▁(64%-81%	-12757
▁expenses	-12758
▁exudates	-12759
▁feedback	-12760
▁feelings	-12761
▁ferritin	-12762
▁flunariz	-12763
▁forceful	-12764
▁fourteen	-12765
▁fremitus	-12766
▁glutamic	-12767
▁glycerin	-12768
▁glycosyl	-12769
▁hematoma	-12770
▁holidays	-12771
▁homework	-12772
▁hyperaro	-12773
▁hypnosis	-12774
▁ideation	-12775
▁implying	-12776
▁impotent	-12777
▁incontin	-12778
▁indeterm	-12779
▁indometh	-12780
▁inguinal	-12781
▁inquired	-12782
▁intermen	-12783
▁ionizers	-12784
▁journals	-12785
▁juvenile	-12786
▁lessened	-12787
▁licorice	-12788
▁linearly	-12789
▁lisuride	-12790
▁logistic	-12791
▁losartan	-12792
▁marketed	-12793
▁maturity	-12794
▁meetings	-12795
▁mentions	-12796
▁microenc	-12797
▁midstage	-12798
▁mitigate	-12799
-9.	-12800
226	-12801
▁VA	-12802
10).	-12803
3.9.	-12804
9.4%	-12805
97).	-12806
=110	-12807
=210	-12808
▁(62	-12809
▁(63	-12810
▁(67	-12811
▁179	-12812
▁6.5	-12813
▁660	-12814
▁710	-12815
▁810	-12816
▁82)	-12817
▁>9.	-12818
▁era	-12819
▁loz	-12820
-9.4)	-12821
19.4%	-12822
<.01,	-12823
=2.1;	-12824
]=0.3	-12825
agger	-12826
haled	-12827
ytoin	-12828
▁(65%	-12829
▁(68%	-12830
▁1.58	-12831
▁1010	-12832
▁1210	-12833
▁17).	-12834
▁17-2	-12835
▁170.	-12836
▁1731	-12837
▁1750	-12838
▁2.9.	-12839
▁3.8;	-12840
▁300-	-12841
▁4582	-12842
▁4700	-12843
▁6.7%	-12844
▁6.8%	-12845
▁pull	-12846
▁upon	-12847
6.97).	-12848
=110),	-12849
]=0.3;	-12850
chemic	-12851
▁4.7).	-12852
▁43.8%	-12853
▁53.9.	-12854
▁6.65%	-12855
▁escal	-12856
▁lozen	-12857
▁nonex	-12858
▁rural	-12859
▁topic	-12860
.0-9.4)	-12861
<.010).	-12862
]=0.39;	-12863
gophony	-12864
indings	-12865
▁20,226	-12866
▁anemic	-12867
▁attend	-12868
-26.97).	-12869
2-2.22),	-12870
henytoin	-12871
ischemic	-12872
siveness	-12873
▁17-23).	-12874
▁170.15;	-12875
▁Inhaled	-12876
▁calculi	-12877
▁exagger	-12878
▁mastoid	-12879
▁pigment	-12880
▁reserve	-12881
uberosity	-12882
▁(>10,000	-12883
▁9.0-9.4)	-12884
▁Egophony	-12885
▁Findings	-12886
▁confirms	-12887
▁lozenges	-12888
▁modeling	-12889
▁molecule	-12890
▁morphine	-12891
▁multinod	-12892
▁musculos	-12893
▁naprosyn	-12894
▁neoplasm	-12895
▁neurolep	-12896
▁nitrogen	-12897
▁nonexper	-12898
▁normally	-12899
9.8	-12900
cry	-12901
-33.	-12902
43).	-12903
7%);	-12904
73).	-12905
=16;	-12906
]=13	-12907
work	-12908
yang	-12909
▁66;	-12910
▁Abs	-12911
-0.8)	-12912
-1.6;	-12913
=13).	-12914
]=3).	-12915
ypnea	-12916
▁0.44	-12917
▁0.45	-12918
▁0.46	-12919
▁0.49	-12920
▁0.6;	-12921
▁2.6;	-12922
▁4.8)	-12923
▁43).	-12924
▁5.6;	-12925
-2.3).	-12926
0%-33.	-12927
30,000	-12928
=1.95,	-12929
Morbid	-12930
]=13-1	-12931
enyang	-12932
▁(49.8	-12933
▁(85%;	-12934
▁0.3).	-12935
▁0.55.	-12936
▁12.2%	-12937
▁77.8%	-12938
▁78%),	-12939
▁Doses	-12940
]=1.8).	-12941
ioprine	-12942
▁(97%);	-12943
▁1573).	-12944
▁format	-12945
▁former	-12946
▁succin	-12947
]=13-17)	-12948
achypnea	-12949
emaining	-12950
renergic	-12951
▁0.45-2.	-12952
▁0.49-0.	-12953
▁Wenyang	-12954
▁immunob	-12955
▁immunof	-12956
▁network	-12957
▁nonspec	-12958
Morbidity	-12959
icability	-12960
izability	-12961
organisms	-12962
▁0.0%-33.	-12963
▁0.5-0.8)	-12964
▁0.5-1.6;	-12965
▁Absolute	-12966
▁immunobl	-12967
▁immunofl	-12968
▁incident	-12969
▁neonates	-12970
▁offering	-12971
▁ordinary	-12972
▁orthoped	-12973
▁outlined	-12974
▁oxytocic	-12975
▁planning	-12976
▁plotting	-12977
▁postural	-12978
▁prolongs	-12979
▁properly	-12980
▁quitters	-12981
▁reactive	-12982
▁regained	-12983
▁regulate	-12984
▁reserved	-12985
▁retained	-12986
▁reversed	-12987
▁ripening	-12988
▁rotation	-12989
▁roughage	-12990
▁searched	-12991
▁secretag	-12992
▁secreted	-12993
▁sedation	-12994
▁sequelae	-12995
▁severely	-12996
▁standing	-12997
▁stepwise	-12998
▁substudy	-12999
13;	-13000
33;	-13001
6,1	-13002
063;	-13003
6,19	-13004
=2.6	-13005
rais	-13006
salt	-13007
▁(56	-13008
▁(70	-13009
▁(8.	-13010
▁(84	-13011
▁408	-13012
▁75;	-13013
1.6).	-13014
4.6).	-13015
=1.3;	-13016
=1.5;	-13017
=26).	-13018
cycle	-13019
sists	-13020
▁(52%	-13021
▁(53%	-13022
▁(56%	-13023
▁(76%	-13024
▁(81%	-13025
▁(83%	-13026
▁(85%	-13027
▁(86%	-13028
▁-1.9	-13029
▁0.77	-13030
▁1.1/	-13031
▁Belg	-13032
▁bony	-13033
▁whey	-13034
-11.2%	-13035
6,193)	-13036
=.06).	-13037
=1.13;	-13038
=1.80;	-13039
=1265)	-13040
]=1.1;	-13041
ardura	-13042
armacy	-13043
raisal	-13044
▁(8.45	-13045
▁clues	-13046
▁today	-13047
▁ulcer	-13048
=24.6).	-13049
Cardura	-13050
]=5.33;	-13051
cleared	-13052
ochrome	-13053
tivator	-13054
ylamine	-13055
▁(2.9%)	-13056
▁(5.7%)	-13057
▁(83%);	-13058
▁0.7-1.	-13059
▁2002).	-13060
▁29,133	-13061
▁mycopl	-13062
=96,193)	-13063
antamine	-13064
▁0.77/0.	-13065
▁Belgian	-13066
▁balance	-13067
▁falling	-13068
ofloxacin	-13069
ultaneous	-13070
unblinded	-13071
▁dropouts	-13072
▁managing	-13073
▁persists	-13074
▁pharmacy	-13075
▁suicides	-13076
▁sunlight	-13077
▁surgeons	-13078
▁surveyed	-13079
▁switches	-13080
▁textural	-13081
▁thoughts	-13082
▁tracking	-13083
▁tympanos	-13084
▁unbiased	-13085
▁uncircum	-13086
▁unipolar	-13087
▁uniquely	-13088
▁unrecogn	-13089
▁validate	-13090
▁versions	-13091
▁vesicles	-13092
▁veterans	-13093
▁visiting	-13094
▁vulvovag	-13095
▁weakened	-13096
▁widespre	-13097
0.10-0.52;	-13098
=2.0-2.85)	-13099
14)	-13100
IDS	-13101
NID	-13102
-2.2	-13103
10)]	-13104
=-2.	-13105
Free	-13106
IDNT	-13107
NIDD	-13108
arct	-13109
ixth	-13110
▁1%.	-13111
▁165	-13112
▁167	-13113
▁22;	-13114
▁42;	-13115
▁<23	-13116
▁Dra	-13117
▁PSA	-13118
▁RSA	-13119
10)].	-13120
6-2.2	-13121
NIDDM	-13122
]=4).	-13123
heter	-13124
paren	-13125
three	-13126
weeks	-13127
▁(38%	-13128
▁(87.	-13129
▁0.26	-13130
▁164.	-13131
▁6793	-13132
▁<232	-13133
▁Draw	-13134
▁Gluc	-13135
▁Penh	-13136
▁SIDS	-13137
-0.71,	-13138
-14.9%	-13139
=-2.38	-13140
=2.34;	-13141
arench	-13142
▁(72%)	-13143
▁0.20%	-13144
▁0.25.	-13145
▁0.26%	-13146
▁0.67;	-13147
▁1477)	-13148
▁accid	-13149
▁angel	-13150
▁anger	-13151
▁doing	-13152
▁sixth	-13153
▁warts	-13154
-0.89),	-13155
6-2.24)	-13156
7.10)].	-13157
=0.23).	-13158
arenchy	-13159
ipartum	-13160
▁Almost	-13161
▁Drawer	-13162
▁Infant	-13163
▁halved	-13164
▁suscep	-13165
dinburgh	-13166
parenter	-13167
▁(87.5%)	-13168
▁164.4).	-13169
▁Penhall	-13170
▁angelic	-13171
▁appoint	-13172
▁hypothy	-13173
▁infarct	-13174
▁readily	-13175
▁secreto	-13176
-17.10)].	-13177
▁0.55-1.3	-13178
▁1.09-1.5	-13179
▁angelica	-13180
▁hypothal	-13181
▁suscepti	-13182
Azulfidine	-13183
Spectazole	-13184
Wellbutrin	-13185
abeprazole	-13186
adjustment	-13187
adrenergic	-13188
alantamine	-13189
aminosalic	-13190
amphenicol	-13191
arboxylase	-13192
arenchymal	-13193
armacology	-13194
athioprine	-13195
biological	-13196
citalopram	-13197
coagulable	-13198
comparison	-13199
ymm	-13200
100.	-13201
nons	-13202
ofil	-13203
when	-13204
▁(32	-13205
▁130	-13206
▁131	-13207
▁137	-13208
▁163	-13209
▁220	-13210
▁4.1	-13211
▁4.3	-13212
▁5.2	-13213
▁5.8	-13214
iphen	-13215
▁(3%)	-13216
▁(3.0	-13217
▁(300	-13218
▁(32.	-13219
▁(4.0	-13220
▁(41.	-13221
▁(43%	-13222
▁(46%	-13223
▁13-2	-13224
▁1445	-13225
▁3.1;	-13226
▁3000	-13227
▁4.7%	-13228
▁4.8%	-13229
▁4.9%	-13230
▁5.2%	-13231
▁5.3.	-13232
▁5.5%	-13233
▁5.6%	-13234
▁5.8%	-13235
▁5000	-13236
▁Atar	-13237
▁Preg	-13238
▁Resp	-13239
▁Well	-13240
▁pell	-13241
▁upri	-13242
onitor	-13243
▁(4.0,	-13244
▁(41.8	-13245
▁-2.95	-13246
▁13-20	-13247
▁5.5).	-13248
▁8.6%)	-13249
▁>2000	-13250
▁Polyp	-13251
▁asymm	-13252
▁depos	-13253
Relafen	-13254
]=1.23;	-13255
iminary	-13256
inities	-13257
monitor	-13258
positor	-13259
▁(32.1%	-13260
▁(66.4%	-13261
▁Atarax	-13262
▁Atrial	-13263
▁Diphen	-13264
▁Pregab	-13265
▁biopsi	-13266
▁uprigh	-13267
ormities	-13268
referred	-13269
▁Monitor	-13270
▁Respond	-13271
▁hemofil	-13272
▁lessons	-13273
▁pellets	-13274
▁upright	-13275
ffinities	-13276
▁Incision	-13277
▁Pregabal	-13278
▁biopsied	-13279
counseling	-13280
definitely	-13281
depressive	-13282
determined	-13283
emperature	-13284
enofibrate	-13285
epatorenal	-13286
eplacement	-13287
erestingly	-13288
erlikowske	-13289
ezafibrate	-13290
hexyphenid	-13291
individual	-13292
ingococcal	-13293
ingonberry	-13294
likelihood	-13295
loroacetic	-13296
mesalazine	-13297
metazoline	-13298
monitoring	-13299
-22	-13300
55)	-13301
57,	-13302
4).4	-13303
4.5)	-13304
=224	-13305
=25)	-13306
corb	-13307
duce	-13308
onto	-13309
toac	-13310
▁(<2	-13311
▁27,	-13312
▁302	-13313
▁303	-13314
▁309	-13315
▁5-2	-13316
▁575	-13317
▁64;	-13318
▁sai	-13319
-0.5)	-13320
3057,	-13321
=-13.	-13322
]=3.5	-13323
ximum	-13324
▁(2%)	-13325
▁(33.	-13326
▁0.2,	-13327
▁1600	-13328
▁30).	-13329
▁5010	-13330
▁<2.3	-13331
▁labs	-13332
-224).	-13333
<.005)	-13334
=-13.9	-13335
=3057,	-13336
]=4.5)	-13337
corbic	-13338
oronto	-13339
social	-13340
tensor	-13341
ylurea	-13342
▁1600-	-13343
▁27,45	-13344
▁39.6%	-13345
▁5-25)	-13346
▁label	-13347
▁otoac	-13348
▁saibo	-13349
▁sulfa	-13350
-1.79).	-13351
=.0055)	-13352
=.818),	-13353
=2245).	-13354
atology	-13355
orbable	-13356
▁(33.2%	-13357
▁(<25).	-13358
▁27,456	-13359
▁Detect	-13360
▁funded	-13361
▁indica	-13362
▁saibok	-13363
▁slowed	-13364
▁triath	-13365
ephritis	-13366
rimental	-13367
▁1.8-45.	-13368
▁Maximum	-13369
▁Toronto	-13370
▁created	-13371
▁intrace	-13372
▁labeled	-13373
▁saiboku	-13374
▁triathl	-13375
▁0.2-0.5)	-13376
▁48-224).	-13377
▁ascorbic	-13378
▁extensor	-13379
▁lability	-13380
▁otoacous	-13381
▁sorbitol	-13382
obronchial	-13383
omethasone	-13384
onephritis	-13385
opathology	-13386
oretically	-13387
osclerosis	-13388
panolamine	-13389
papulopust	-13390
parenteral	-13391
physicians	-13392
positories	-13393
radication	-13394
raspinatus	-13395
regulation	-13396
reliminary	-13397
remasteric	-13398
responders	-13399
450	-13400
6.2	-13401
6.8	-13402
RSA	-13403
ieve	-13404
▁(50	-13405
▁132	-13406
▁140	-13407
▁145	-13408
▁146	-13409
▁147	-13410
▁185	-13411
▁187	-13412
▁650	-13413
▁750	-13414
▁86.	-13415
▁950	-13416
▁>50	-13417
▁irr	-13418
▁uln	-13419
=21.2	-13420
aflam	-13421
asthm	-13422
▁(250	-13423
▁(72)	-13424
▁1050	-13425
▁1250	-13426
▁141.	-13427
▁16%,	-13428
▁2611	-13429
▁28),	-13430
▁46.2	-13431
▁expe	-13432
▁node	-13433
=1.39;	-13434
lamine	-13435
promot	-13436
urious	-13437
▁141.7	-13438
▁brisk	-13439
▁ulnar	-13440
-1.11).	-13441
achieve	-13442
ataflam	-13443
levated	-13444
uctural	-13445
▁0.05%;	-13446
▁86.6%,	-13447
▁zoster	-13448
Cataflam	-13449
▁141.71.	-13450
▁anteced	-13451
▁clearly	-13452
▁olamine	-13453
▁package	-13454
asthmatic	-13455
promoting	-13456
▁Elevated	-13457
▁androgen	-13458
▁approved	-13459
▁expelled	-13460
▁gradient	-13461
▁progress	-13462
▁saphenof	-13463
▁spurious	-13464
retroviral	-13465
seudoephed	-13466
stratified	-13467
television	-13468
theroscler	-13469
thrombotic	-13470
unadjusted	-13471
vaccinated	-13472
▁(25%-50%)	-13473
▁(278/438;	-13474
▁(500-1200	-13475
▁(74%-93%)	-13476
▁(>10,000)	-13477
▁(>14,300/	-13478
▁0.0-0.8).	-13479
▁0.17-1.04	-13480
▁0.2-1.2).	-13481
▁0.28-0.89	-13482
▁0.4-0.8])	-13483
▁0.4-0.9),	-13484
▁0.43-2.1)	-13485
▁0.6-1.92;	-13486
▁0.7-1.8).	-13487
▁0.9-3.6).	-13488
▁1.00-2.8)	-13489
▁1.2-14.7)	-13490
▁1.3-1.6).	-13491
▁1.3-3.1).	-13492
▁1.3-3.3).	-13493
▁1.3-5.3).	-13494
▁10%-50%).	-13495
▁2.0-3.5).	-13496
▁2.21-14.5	-13497
▁2.5-8.7),	-13498
▁2.7-5.7).	-13499
27.	-13500
37.	-13501
17).	-13502
27.6	-13503
7.4%	-13504
7.5%	-13505
=27.	-13506
wake	-13507
▁134	-13508
▁24)	-13509
▁24,	-13510
▁241	-13511
▁246	-13512
▁255	-13513
▁461	-13514
▁57.	-13515
▁690	-13516
▁97.	-13517
▁<1.	-13518
▁Gav	-13519
▁urg	-13520
7.5%,	-13521
<.03)	-13522
=89%;	-13523
]=37.	-13524
avage	-13525
ramad	-13526
split	-13527
▁0.7;	-13528
▁2763	-13529
▁Azas	-13530
▁Gail	-13531
▁Gram	-13532
▁Life	-13533
▁elic	-13534
▁unav	-13535
▁uric	-13536
▁urin	-13537
-1.95)	-13538
<.14).	-13539
=.17).	-13540
acteri	-13541
bility	-13542
cedure	-13543
uterol	-13544
▁47.4%	-13545
▁57.2%	-13546
▁80%).	-13547
▁97.7%	-13548
▁<1.3.	-13549
▁Gavis	-13550
▁hands	-13551
▁sonne	-13552
another	-13553
bacteri	-13554
buterol	-13555
fasting	-13556
marized	-13557
ramadol	-13558
yclical	-13559
▁10,001	-13560
▁>7.5%,	-13561
▁Azasan	-13562
▁Biopsy	-13563
▁dental	-13564
▁inflam	-13565
▁lavage	-13566
▁methim	-13567
▁multim	-13568
▁sonnei	-13569
▁testis	-13570
▁urgent	-13571
▁worsen	-13572
]=14.3).	-13573
acterial	-13574
▁11-24).	-13575
▁690,000	-13576
▁Carolin	-13577
▁elicits	-13578
▁propran	-13579
▁unavoid	-13580
6-56.89),	-13581
intention	-13582
procedure	-13583
splitting	-13584
ummarized	-13585
▁(700-800	-13586
▁Carolina	-13587
▁Cyclical	-13588
▁Gaviscon	-13589
▁Tramadol	-13590
▁inflamed	-13591
▁multimod	-13592
▁2.9-6.7).	-13593
▁20%-33%).	-13594
▁28%-38%).	-13595
▁5.2-8.4).	-13596
▁5.4-12.8)	-13597
▁67%-98%),	-13598
▁71%-86%).	-13599
-15	-13600
92)	-13601
=2)	-13602
=27	-13603
=2]	-13604
▁je	-13605
15).	-13606
65).	-13607
<.07	-13608
=16,	-13609
EPDS	-13610
eace	-13611
▁(21	-13612
▁>70	-13613
,-1.3	-13614
50%),	-13615
=.04.	-13616
=192)	-13617
=274)	-13618
erral	-13619
omile	-13620
which	-13621
▁(22%	-13622
▁(23%	-13623
▁(26%	-13624
▁(62%	-13625
▁10.2	-13626
▁21%;	-13627
▁5.4-	-13628
▁Bang	-13629
▁jeop	-13630
▁kind	-13631
<.071)	-13632
=0.88;	-13633
=126),	-13634
=3.77;	-13635
]=0.9;	-13636
amamel	-13637
change	-13638
erange	-13639
genase	-13640
▁(16%)	-13641
▁14.5.	-13642
▁59%-7	-13643
▁>40),	-13644
▁Bangl	-13645
▁Peace	-13646
▁cryog	-13647
▁extra	-13648
▁gains	-13649
▁spite	-13650
▁teach	-13651
=1265).	-13652
amomile	-13653
splenic	-13654
▁anoxic	-13655
▁colpos	-13656
▁itself	-13657
=.0015).	-13658
amamelis	-13659
uthyroid	-13660
▁Banglad	-13661
▁Ebstein	-13662
▁citrate	-13663
▁cryogel	-13664
▁derange	-13665
▁inheren	-13666
▁jeopard	-13667
▁transit	-13668
▁(95/108)	-13669
▁Hospital	-13670
▁Referral	-13671
▁exchange	-13672
▁generate	-13673
▁inherent	-13674
▁jeopardy	-13675
▁sleeping	-13676
▁teaching	-13677
ooxygenase	-13678
ransbronch	-13679
▁59%-76%),	-13680
▁75%-89%),	-13681
▁77%-85%),	-13682
▁88%-95%).	-13683
▁Abdominal	-13684
▁Achieving	-13685
▁Adherence	-13686
▁Advancing	-13687
▁Algorithm	-13688
▁Available	-13689
▁Bacterial	-13690
▁Banglades	-13691
▁Bariatric	-13692
▁Capsaicin	-13693
▁Checklist	-13694
▁Cheilitis	-13695
▁Comparing	-13696
▁Consensus	-13697
▁Cutaneous	-13698
▁Decreases	-13699
4.3	-13700
91;	-13701
ygi	-13702
▁Bl	-13703
5.7%	-13704
=15.	-13705
afil	-13706
ilot	-13707
irsu	-13708
▁20)	-13709
▁296	-13710
▁3.1	-13711
▁3.6	-13712
▁34.	-13713
▁699	-13714
▁Coz	-13715
▁got	-13716
0.44;	-13717
=.002	-13718
aftin	-13719
olicy	-13720
pilot	-13721
▁(57%	-13722
▁100,	-13723
▁3.8%	-13724
▁Coza	-13725
▁Madd	-13726
▁becl	-13727
▁hygi	-13728
▁leaf	-13729
▁seaf	-13730
▁stra	-13731
▁titr	-13732
=0.25;	-13733
=0.99,	-13734
=4091;	-13735
Naftin	-13736
]=40).	-13737
elated	-13738
enafil	-13739
hydrop	-13740
iteria	-13741
itness	-13742
olized	-13743
▁(1.6%	-13744
▁(24.3	-13745
▁111).	-13746
▁2004.	-13747
▁833),	-13748
▁Blood	-13749
▁Limit	-13750
▁Their	-13751
▁attit	-13752
▁encom	-13753
▁genot	-13754
▁hirsu	-13755
▁unmed	-13756
=10.44;	-13757
Related	-13758
hasized	-13759
ilitary	-13760
venture	-13761
▁(55.7%	-13762
▁Cozaar	-13763
▁Maddre	-13764
▁encomp	-13765
▁obtain	-13766
▁policy	-13767
▁strain	-13768
▁string	-13769
abolized	-13770
dihydrop	-13771
exercise	-13772
itnesses	-13773
▁1.5-1.9	-13774
▁Endomet	-13775
▁Maddrey	-13776
▁contain	-13777
▁hygiene	-13778
▁largely	-13779
▁printed	-13780
▁seafood	-13781
ildenafil	-13782
intensive	-13783
▁Criteria	-13784
▁Military	-13785
▁hirsutis	-13786
▁peritone	-13787
▁straight	-13788
prevalence	-13789
▁0.2-2.3).	-13790
▁0.20-23.2	-13791
▁Edinburgh	-13792
▁Endoscopy	-13793
▁Excluding	-13794
▁Expulsion	-13795
▁Fractures	-13796
▁Graphical	-13797
▁Hispanics	-13798
▁Incidence	-13799
3.5	-13800
via	-13801
▁PS	-13802
=141	-13803
coin	-13804
meas	-13805
okel	-13806
oxyl	-13807
ylon	-13808
▁15.	-13809
▁154	-13810
▁156	-13811
▁65.	-13812
▁MIs	-13813
▁PSI	-13814
dence	-13815
okine	-13816
racti	-13817
ricul	-13818
yloid	-13819
yloph	-13820
▁(1),	-13821
▁(3),	-13822
▁(5.8	-13823
▁2.0.	-13824
▁>30%	-13825
▁Nyst	-13826
▁Stap	-13827
▁arti	-13828
▁dors	-13829
▁wash	-13830
=160),	-13831
=7.1).	-13832
ipitor	-13833
strict	-13834
umetan	-13835
vidone	-13836
▁(89%)	-13837
▁15.47	-13838
▁2000)	-13839
▁nylon	-13840
▁tibia	-13841
Lipitor	-13842
]=1.74;	-13843
edipine	-13844
okeless	-13845
ractice	-13846
revoxyl	-13847
riction	-13848
riculum	-13849
roidism	-13850
uations	-13851
ylophor	-13852
▁(45%);	-13853
▁88.1%;	-13854
▁Inform	-13855
▁Nystag	-13856
▁Staphy	-13857
▁dorsal	-13858
▁region	-13859
44,825),	-13860
centered	-13861
iterated	-13862
measured	-13863
okinetic	-13864
ylophora	-13865
▁Staphyl	-13866
▁brainst	-13867
▁bumetan	-13868
▁regions	-13869
▁styloid	-13870
▁triceps	-13871
▁washout	-13872
=44,825),	-13873
ifedipine	-13874
▁Brevoxyl	-13875
▁Function	-13876
▁Helsinki	-13877
▁Practice	-13878
▁artifact	-13879
▁failures	-13880
▁friction	-13881
▁inducing	-13882
▁povidone	-13883
▁Increases	-13884
▁Infection	-13885
▁Insoluble	-13886
▁Ischaemic	-13887
▁Lifestyle	-13888
▁Nystagmus	-13889
▁Orthovisc	-13890
▁Otherwise	-13891
▁Paragraph	-13892
▁Recommend	-13893
▁Remaining	-13894
▁Reviewing	-13895
▁Silvadene	-13896
▁Tolerance	-13897
▁Tricyclic	-13898
▁Tylophora	-13899
.10	-13900
ADC	-13901
wit	-13902
▁"-	-13903
▁ye	-13904
1.7;	-13905
=1.7	-13906
=1.8	-13907
=12;	-13908
ADCS	-13909
Derm	-13910
gold	-13911
syll	-13912
uban	-13913
▁19.	-13914
▁193	-13915
▁Age	-13916
▁Nug	-13917
▁lif	-13918
=115)	-13919
adone	-13920
oDerm	-13921
ubate	-13922
witch	-13923
▁(45%	-13924
▁Enal	-13925
▁Rich	-13926
▁sold	-13927
=1.82.	-13928
=11.7;	-13929
onatal	-13930
rebral	-13931
▁19.2%	-13932
▁19.6,	-13933
▁Cuban	-13934
▁Richm	-13935
▁Where	-13936
▁lifel	-13937
▁plate	-13938
▁psyll	-13939
▁soldi	-13940
▁start	-13941
▁yeast	-13942
-0.42).	-13943
=.003).	-13944
insulin	-13945
ionitis	-13946
planned	-13947
posable	-13948
ughters	-13949
▁Nugent	-13950
▁basing	-13951
▁predis	-13952
▁unable	-13953
neonatal	-13954
nionitis	-13955
patients	-13956
▁3.9-10.	-13957
▁Whereas	-13958
▁choline	-13959
▁pitocin	-13960
▁plateau	-13961
▁suction	-13962
ezetimibe	-13963
▁Richmond	-13964
▁Standard	-13965
▁defining	-13966
▁incubate	-13967
▁internal	-13968
▁lifelong	-13969
▁psyllium	-13970
▁reassess	-13971
▁soldiers	-13972
amnionitis	-13973
utralizing	-13974
ysfunction	-13975
▁1.5-7.1])	-13976
▁Enalapril	-13977
▁Valproate	-13978
▁abstracts	-13979
▁accidents	-13980
▁acetonide	-13981
▁acknowled	-13982
▁activator	-13983
▁adiposity	-13984
▁allergens	-13985
▁alleviate	-13986
▁amiloride	-13987
▁aneurysms	-13988
▁antiather	-13989
▁antifract	-13990
▁antihyper	-13991
▁appraisal	-13992
▁articular	-13993
▁aspartate	-13994
▁attendant	-13995
▁attending	-13996
▁attitudes	-13997
▁brainstem	-13998
▁breakfast	-13999
Bac	-14000
The	-14001
ett	-14002
iro	-14003
nly	-14004
nur	-14005
uns	-14006
who	-14007
▁>5	-14008
▁Wa	-14009
Only	-14010
deri	-14011
exia	-14012
home	-14013
idin	-14014
nett	-14015
some	-14016
▁281	-14017
▁542	-14018
▁946	-14019
▁>90	-14020
▁Nex	-14021
▁Sex	-14022
▁Wah	-14023
=0.50	-14024
=23),	-14025
curac	-14026
deriv	-14027
esome	-14028
eteri	-14029
haved	-14030
ordon	-14031
upiro	-14032
▁2.1%	-14033
▁Muns	-14034
▁Next	-14035
▁Wahl	-14036
▁crom	-14037
Bactro	-14038
aridin	-14039
arnett	-14040
dentif	-14041
gestin	-14042
nurses	-14043
reasts	-14044
shaved	-14045
▁2001,	-14046
▁2050.	-14047
▁Viral	-14048
▁cloth	-14049
▁coord	-14050
▁insur	-14051
▁remed	-14052
▁shape	-14053
accurac	-14054
achexia	-14055
actable	-14056
▁(30-50	-14057
▁Disord	-14058
▁Gordon	-14059
▁Sexual	-14060
▁cortis	-14061
▁cromog	-14062
▁hasten	-14063
▁income	-14064
▁mupiro	-14065
▁remedy	-14066
2-1.30).	-14067
andatory	-14068
econdary	-14069
eterious	-14070
tharidin	-14071
ublesome	-14072
▁3.3-8.0	-14073
▁Farnett	-14074
▁Identif	-14075
▁Munster	-14076
▁breasts	-14077
▁reveals	-14078
Bactroban	-14079
acervical	-14080
progestin	-14081
secondary	-14082
▁cachexia	-14083
▁clothing	-14084
▁cortisol	-14085
▁cromogly	-14086
▁immunity	-14087
▁underway	-14088
accuracies	-14089
derivation	-14090
roublesome	-14091
▁Autoantib	-14092
▁Disorders	-14093
▁acquiring	-14094
▁bronchial	-14095
▁buckwheat	-14096
▁campaigns	-14097
▁capillary	-14098
▁captopril	-14099
):	-14100
oy	-14101
3.3	-14102
3.7	-14103
exp	-14104
idd	-14105
loy	-14106
zil	-14107
23.3	-14108
=21.	-14109
exor	-14110
okal	-14111
▁33.	-14112
▁80-	-14113
▁May	-14114
▁arg	-14115
=13.7	-14116
exact	-14117
iddie	-14118
sives	-14119
▁(58%	-14120
▁(74%	-14121
▁13.2	-14122
▁77%.	-14123
▁Mayo	-14124
▁boys	-14125
▁cruc	-14126
▁ring	-14127
.0-15.	-14128
=0.31;	-14129
ffexor	-14130
ictory	-14131
ustral	-14132
▁(90%)	-14133
▁33.3%	-14134
▁acrom	-14135
▁apply	-14136
▁equiv	-14137
▁kneel	-14138
▁manag	-14139
▁valve	-14140
-0.28).	-14141
=.043).	-14142
Effexor	-14143
]=1.14;	-14144
emicade	-14145
ibrozil	-14146
loyment	-14147
▁acromi	-14148
▁argues	-14149
▁longus	-14150
▁mucosa	-14151
-]=0.02)	-14152
Remicade	-14153
adictory	-14154
fibrozil	-14155
okalemia	-14156
tensives	-14157
▁5.0-15.	-14158
▁Austral	-14159
▁confine	-14160
▁crucial	-14161
expressed	-14162
▁acromioc	-14163
▁involves	-14164
▁kneeling	-14165
▁managers	-14166
emfibrozil	-14167
▁cartilage	-14168
▁causation	-14169
▁chamomile	-14170
▁citations	-14171
▁clonidine	-14172
▁compounds	-14173
▁concussed	-14174
▁condensed	-14175
▁converted	-14176
▁counseled	-14177
▁curretage	-14178
▁dependent	-14179
▁dichloral	-14180
▁dietician	-14181
▁differing	-14182
▁digoxigen	-14183
▁disclosed	-14184
▁distorted	-14185
▁diversity	-14186
▁dyspepsia	-14187
▁dysphoric	-14188
▁dysplasia	-14189
▁elevating	-14190
▁eliminate	-14191
▁encompass	-14192
▁enterocol	-14193
▁equivocal	-14194
▁estrogens	-14195
▁euthyroid	-14196
▁examiners	-14197
▁exhibited	-14198
▁explosive	-14199
=1%	-14200
=15	-14201
=17	-14202
cit	-14203
pag	-14204
▁Up	-14205
.002	-14206
2%),	-14207
5.1%	-14208
=1%;	-14209
=8),	-14210
ummy	-14211
▁203	-14212
▁42)	-14213
▁440	-14214
▁91.	-14215
▁his	-14216
▁sul	-14217
=176;	-14218
dummy	-14219
given	-14220
leens	-14221
uscit	-14222
▁(98%	-14223
▁10.0	-14224
▁1833	-14225
▁190%	-14226
▁3.2,	-14227
▁52.9	-14228
▁84%.	-14229
▁>1.7	-14230
▁Mank	-14231
▁Pill	-14232
▁eros	-14233
▁sulb	-14234
-2.1).	-14235
.0025.	-14236
=1560)	-14237
azoles	-14238
illing	-14239
usitis	-14240
▁92.9%	-14241
▁Estim	-14242
▁ispag	-14243
▁minoc	-14244
▁parad	-14245
▁seroc	-14246
ictable	-14247
iptical	-14248
ventory	-14249
ystolic	-14250
▁(85.1%	-14251
▁2.5-4.	-14252
▁AFCAPS	-14253
▁Mankop	-14254
▁acidic	-14255
▁luteal	-14256
▁noncep	-14257
▁parity	-14258
inusitis	-14259
▁1.95-2.	-14260
▁77-97),	-14261
▁91.8%).	-14262
▁=.0025.	-14263
▁Mankopf	-14264
▁erosion	-14265
▁killing	-14266
▁paradox	-14267
▁serocon	-14268
▁spanned	-14269
▁spleens	-14270
▁sulbact	-14271
lliptical	-14272
uscitated	-14273
▁Systolic	-14274
▁assesses	-14275
▁nitrites	-14276
▁2.5-4.8);	-14277
▁89%-92%),	-14278
▁Estimates	-14279
▁Inventory	-14280
▁Pravachol	-14281
▁daughters	-14282
▁expressed	-14283
▁extensive	-14284
▁exudation	-14285
▁exudative	-14286
▁factorial	-14287
▁fasciitis	-14288
▁favorable	-14289
▁fortyyear	-14290
▁fractions	-14291
▁fulfilled	-14292
▁generaliz	-14293
▁genotypes	-14294
▁heelstick	-14295
▁hirsutism	-14296
▁histamine	-14297
▁hypogonad	-14298
▁hypomanic	-14299
4-	-14300
DOR	-14301
ibb	-14302
ibs	-14303
0.7%	-14304
1.7%	-14305
Trim	-14306
alsh	-14307
ibbs	-14308
tent	-14309
▁(28	-14310
▁(<6	-14311
▁490	-14312
▁57%	-14313
▁63%	-14314
▁84%	-14315
▁mak	-14316
Green	-14317
Trimo	-14318
cough	-14319
emerg	-14320
versy	-14321
▁(13%	-14322
▁0.4%	-14323
▁43%.	-14324
▁4907	-14325
▁67%,	-14326
▁6796	-14327
▁8.8.	-14328
▁>32.	-14329
▁FOBT	-14330
▁inad	-14331
▁lieu	-14332
▁ribs	-14333
=0.76;	-14334
=2.04;	-14335
=2.07;	-14336
athers	-14337
linder	-14338
ropion	-14339
urable	-14340
ylitis	-14341
▁14.8%	-14342
▁51.7%	-14343
▁70.7%	-14344
▁>32.2	-14345
▁Blind	-14346
▁Gibbs	-14347
▁Walsh	-14348
▁maker	-14349
▁posed	-14350
▁poses	-14351
-2.7]),	-14352
comfort	-14353
icially	-14354
reening	-14355
ropioni	-14356
vertent	-14357
ylinder	-14358
▁Formal	-14359
▁adenot	-14360
▁menstr	-14361
-13.16),	-14362
-69.6%);	-14363
7-0.82).	-14364
aryngeal	-14365
creening	-14366
emergent	-14367
methacin	-14368
▁(32,684	-14369
▁dipyrid	-14370
▁fathers	-14371
ereditary	-14372
ondylitis	-14373
▁Blinding	-14374
▁Propioni	-14375
▁Registry	-14376
▁cylinder	-14377
▁informal	-14378
▁markedly	-14379
pharyngeal	-14380
tscreening	-14381
▁benefited	-14382
▁dipyridam	-14383
▁hypotonia	-14384
▁hypotonic	-14385
▁illnesses	-14386
▁impulsive	-14387
▁inception	-14388
▁infertile	-14389
▁influenti	-14390
▁infusions	-14391
▁innercity	-14392
▁insoluble	-14393
▁insurance	-14394
▁inversely	-14395
▁ispaghula	-14396
▁jaundiced	-14397
▁lactation	-14398
▁lorazepam	-14399
Lo	-14400
31,	-14401
kin	-14402
▁-6	-14403
▁EG	-14404
▁Me	-14405
1.6%	-14406
2.6%	-14407
<0.0	-14408
asot	-14409
fail	-14410
skin	-14411
▁(4%	-14412
▁215	-14413
▁820	-14414
▁CST	-14415
▁EGD	-14416
▁Ear	-14417
▁Ele	-14418
▁Ure	-14419
▁exh	-14420
Loven	-14421
Vasot	-14422
ancel	-14423
avity	-14424
broad	-14425
ialis	-14426
ondon	-14427
ondro	-14428
ylert	-14429
▁(1).	-14430
▁(12.	-14431
▁-0.4	-14432
▁1364	-14433
▁Meas	-14434
▁NEST	-14435
▁Urea	-14436
▁chos	-14437
▁cord	-14438
-32.6%	-14439
<0.05)	-14440
=.001)	-14441
=0.4).	-14442
=2.35;	-14443
Cylert	-14444
Imuran	-14445
copies	-14446
erving	-14447
former	-14448
otreat	-14449
stance	-14450
▁(12.5	-14451
▁(69%)	-14452
▁0.5).	-14453
▁5.4%)	-14454
▁Early	-14455
▁facet	-14456
▁quite	-14457
Lovenox	-14458
Vasotec	-14459
]=0.43;	-14460
]=1.31,	-14461
]=1.87;	-14462
broadly	-14463
chondro	-14464
licting	-14465
opposed	-14466
totreat	-14467
▁(4.8%)	-14468
▁(71.6%	-14469
▁-0.45)	-14470
▁Cancer	-14471
▁Eleven	-14472
▁London	-14473
▁NESTOR	-14474
▁cancel	-14475
▁cavity	-14476
▁chosen	-14477
▁dozing	-14478
▁exhaus	-14479
▁relied	-14480
failures	-14481
formerly	-14482
thinning	-14483
▁Measure	-14484
▁consent	-14485
▁durable	-14486
▁proving	-14487
chondroit	-14488
▁instance	-14489
▁labialis	-14490
▁postterm	-14491
▁relation	-14492
▁sedative	-14493
▁skeletal	-14494
▁worksite	-14495
▁anhydrase	-14496
▁malignant	-14497
▁mandatory	-14498
▁maneuvers	-14499
7.4	-14500
CBT	-14501
Hyp	-14502
TNT	-14503
▁DR	-14504
▁LM	-14505
-3%;	-14506
/170	-14507
acid	-14508
cery	-14509
game	-14510
oves	-14511
ueti	-14512
▁7.6	-14513
▁Dri	-14514
▁LMW	-14515
▁Lor	-14516
▁Myc	-14517
▁lie	-14518
,000/	-14519
/170)	-14520
contr	-14521
icing	-14522
ilade	-14523
plant	-14524
▁(-0.	-14525
▁(7.4	-14526
▁1.10	-14527
▁3.6,	-14528
▁32.7	-14529
▁41.5	-14530
▁6825	-14531
▁LMWH	-14532
▁told	-14533
=.031;	-14534
Tilade	-14535
efined	-14536
ficing	-14537
iating	-14538
ismuth	-14539
rocery	-14540
uating	-14541
▁(-0.0	-14542
▁(-0.2	-14543
▁60.4%	-14544
▁Dried	-14545
▁MRFIT	-14546
-4.98).	-14547
<.001);	-14548
]=0.46;	-14549
]=2.72;	-14550
▁1%-3%;	-14551
▁11,000	-14552
▁Center	-14553
▁facial	-14554
▁gloves	-14555
▁mainly	-14556
▁spikes	-14557
=10,000/	-14558
acidosis	-14559
contrast	-14560
entially	-14561
rificing	-14562
uciating	-14563
urettage	-14564
▁(-0.23%	-14565
▁bismuth	-14566
▁claimed	-14567
▁grocery	-14568
▁needing	-14569
▁voiding	-14570
5-1.02).1	-14571
ruciating	-14572
[...]
