▁antigen
ffe
▁extensively
▁parag
partate
▁rhy
heres
▁squamous
▁proce
▁oes
▁64
▁immig
▁cirrhosis
▁descending
tribution
ticular
ignificant
▁PRP
RIF
tetra
radi
monary
mitter
tivities
ochlear
▁visc
▁nigra
amus
omia
utaneously
▁scaled
▁blocker
▁amput
▁oxide
▁hydroly
▁saturable
rotic
-9)
▁sigma
▁diagnoses
▁microgram
▁vasodilator
▁Discre
▁complexes
▁longitudinal
▁cadaver
osts
tention
▁cyclosporine
verages
▁septal
grams
▁202
▁monit
▁84
▁uncontrolled
inactivation
▁intragastric
.5%
vian
▁genome
sus
▁cG
trial
▁decreasing
▁patellar
▁enucleation
▁subgroup
▁MN
▁umb
▁glut
39
▁nifedipine
fused
▁pigs
receptor
gesterone
▁reactivity
aicin
▁pigment
ophren
tive
▁conjugates
▁organelles
▁infec
▁hypertensive
tif
▁duplex
crip
responsive
▁stillbirth
▁synthase
▁allergic
▁34
ochemical
osin
▁reagents
iotensin
▁stimulates
▁intake
illus
itures
▁recombin
inhib
tran
▁deduced
razole
saturated
▁76
▁degeneration
▁corneal
▁vesic
▁rheum
▁5.0
quid
▁Pretreatment
▁idiopathic
Ia
▁impair
▁140
▁dehydrogenase
▁veins
▁liposomes
▁viruses
▁construc
keletal
-67
▁morphology
oinositi
▁perone
▁episodic
▁dischar
▁metabolism
▁conformational
▁deli
epithelial
78
▁CMV
▁circumference
▁unex
▁Comparison
▁elimination
▁purified
▁EA
▁antec
MDA
▁mmHg
rolase
▁pedig
▁detach
atability
▁3)
▁hydrophob
▁VP
▁Cytoplasmic
▁inten
▁polyp
▁concom
79
ioid
chlor
tivity
▁needles
▁endogenous
▁predictors
▁lax
▁25
osyl
▁2.0
roma
erable
▁predictor
▁pS
▁efferent
▁medulla
▁improves
mental
phila
.5
emak
otoxicity
toxin
▁endotoxin
▁analgesia
hyp
▁lymphadenectomy
▁Swed
▁cuff
▁ACh
▁Mn
▁foc
▁lysis
▁indirectly
▁duc
▁modif
▁Inhib
▁PCP
▁psychiatric
Ds
nec
▁ulcers
hydroxy
▁reflec
▁congenital
bloc
▁ulcer
▁0.05),
▁methyl
Kd
▁4.8
+,
▁gyr
▁pigmented
▁Prophylactic
▁anaesthe
▁intram
▁exchan
▁lysine
▁penicillin
▁4,
▁bronchial
2;
kinje
▁consequently
▁synov
▁outflow
▁circadian
rants
elec
▁Emergency
titution
CAT
2+
aryn
▁apoptotic
erb
uscular
dered
▁efficacy
▁isolates
▁IUD
▁rostral
trodotoxin
▁rigidity
▁selec
▁macrom
atine
aemic
▁AO
ifedipine
▁0.005).
ervative
▁carriers
oprec
▁peroxide
▁characterize
▁SNP
ylate
chemical
MN
▁Multiple
clerotic
-6
▁phospho
▁exhibiting
▁isoforms
▁transcrip
umerous
▁malignant
▁11,
Nase
▁spre
▁reticular
▁TGF
▁deformity
nI
oxidation
▁elongation
certain
▁glu
▁vulnerability
▁Hyp
sar
▁2.6
▁guan
▁appendicitis
▁IFN
▁bacteri
orative
▁arachid
▁ischem
-3)
vein
dent
▁undergone
▁occlusion
▁prenatal
▁resec
▁confound
▁bulb
▁secrete
idement
derived
testinal
▁subtype
▁inducible
▁VO
oung
▁Delayed
▁indi
▁bolus
tages
atisfaction
▁melan
eptid
▁irregular
Glc
8%)
chrom
▁sequential
▁PAF
operated
▁terminus
tracted
adequ
▁paraplegia
otox
▁undergoing
▁sulfate
tisol
▁coronal
▁studi
rapid
cAMP
▁clus
▁conjunction
uanti
nee
▁7.
▁LC
▁synchronous
▁erosive
▁estimating
oten
▁intra
▁IVF
-40
mobil
▁equivocal
▁37
▁protease
▁obstructive
IIIa
eradish
ocular
▁biochemistry
▁transloc
▁MH
ulatory
▁wors
45
▁tonic
▁cla
▁decisive
▁insertions
▁dilated
▁inoc
birth
▁multivariate
▁pmol
▁NAD
26
phragm
▁indomethacin
▁FHR
▁requi
▁indicative
▁promoters
▁cycloheximide
▁Alternatively
▁manifestations
▁Rats
▁alk
reactivity
opia
▁deficiency
nine
greater
▁2-3
roximately
▁staining
▁neoplasms
ocomp
enic
benz
▁vasopressin
▁preterm
▁rabb
▁adenocarcinoma
▁homogeneous
kine
▁lipoproteins
▁homogenates
-9
▁intracranial
▁promin
enopus
▁evidenced
▁5-
▁ischemic
▁coexist
▁neutroph
ylic
oxygenase
lier
pig
oventricular
▁0.02
▁efflux
nitine
bic
dial
▁mumol
▁urea
▁residual
▁Surgical
▁caudal
alities
▁precursors
alan
▁TG
▁ultrastructural
rosis
▁zinc
▁morb
▁Ara
▁graf
▁blot
▁tas
▁Paget
opulation
▁prel
▁controver
▁anesthetized
▁suppression
▁LPS
▁distinguishing
▁lymphocytes
▁microscopy
edic
▁reevaluated
-0
omerular
titial
▁KCl
utable
▁tachy
▁discus
▁preclude
▁prostate
▁Wistar
silon
▁vaccinations
▁induces
▁possi
▁attrib
FG
tabol
▁spermat
▁melanoma
▁regimen
hyd
▁musc
uric
▁retrospective
opam
opramide
▁Continu
▁5.2
▁transferrin
▁reflex
5).
▁sympathetic
▁balloon
▁misleading
▁kDa
versus
▁RAR
odial
oxic
asal
ubation
▁cephal
▁microv
▁alkal
relations
xone
▁duct
2(+)-
▁Prospective
rosophila
▁infectious
hig
▁glucagon
▁demonstrating
icardi
▁500
▁epidermal
▁palli
▁1.
▁doses
oracic
protective
▁exer
acid
▁30
▁indus
tional
▁31
▁calor
perfusion
▁hernia
GV
▁gonadotropin
▁homogeneity
ocamp
▁predicting
▁complication
atical
-7)
▁margins
▁modulate
omotor
mation
▁polyps
igravid
▁resour
ucine
.9
▁shunt
▁0.2
Rs
▁1.8
▁fulf
▁tymp
▁desm
▁axonal
▁epidemiological
▁DP
▁hemodynamics
▁vaccin
▁compli
▁CG
motic
▁premature
▁surgeon
xiety
iliac
-8
▁hybrids
▁unrel
▁Tran
hers
tumor
▁LHRH
aturation
robic
▁corticosterone
ubicin
▁tamoxifen
▁0.001
luc
▁kb
▁aberr
▁([
▁Biol
▁Failure
dop
▁erythropo
phasic
▁52
▁creatinine
tally
▁undes
lateral
▁cavity
▁behavioral
ixation
▁ablation
oglobulin
▁neonatal
▁imaging
onyl
▁PHA
▁venti
▁discomfort
▁spectroscopy
itoneum
weighted
▁substances
ctive
achol
ydig
▁accounted
▁catheterization
▁hydrogen
iferative
▁cis
ropriate
▁insufficiency
oglobin
▁stimulation
▁Whilst
▁hamster
▁(24
reness
▁athle
▁68
▁Concomitant
avage
▁abundant
33
▁cef
▁MRI
toc
▁ovariectomized
asses
▁contraction
▁(40
▁lithotripsy
▁aneurysm
overall
▁immunity
▁atten
▁tran
▁causative
▁prescrib
▁Salmonella
ffective
▁biases
▁44
▁markers
▁clon
▁microb
idium
stimulated
▁astrocytes
epine
▁overex
▁myel
▁afferent
▁fructose
ibi
▁21-
uresis
▁GBS
▁devoid
contrast
▁HG
▁atherosclerosis
itonin
▁PEG
▁monol
rement
▁cutaneous
▁specificities
urther
▁Comparisons
▁evacuation
▁fatalities
thanol
arrhythmic
▁adipose
trition
tisone
▁ambient
▁canine
▁diges
▁patella
dividual
ulae
▁peris
▁clones
atient
cious
▁morphological
▁irradi
▁41
▁anomal
-5-
▁1%
▁catalytic
▁erg
▁fatality
▁Progression
zyme
▁lumbar
▁axon
ximal
▁reperfusion
pS
▁perox
▁quantitative
platin
luent
ubted
▁inhibition
pharose
phosphamide
abain
▁cytochrome
▁coronary
amphenicol
tebral
▁gestation
ints
▁HCO
▁biopsy
1).
iasis
ycin
▁mucosa
inergic
57
▁inflammation
otrexate
▁identifies
▁90
▁casein
▁esophageal
TB
injected
odg
▁acids
▁fixation
Nor
▁benzodiaz
taken
▁fractionation
▁physiological
▁mediating
▁hydroxy
oscop
tized
▁6,
▁Initi
eck
erance
terminal
totic
▁ald
▁subsp
rectomy
ditional
▁leukocyte
earance
▁HBV
economic
▁titer
gmental
linking
▁immobil
▁chec
▁gad
ilical
▁actu
▁10(
▁calcification
▁detecting
pyr
▁RH
idym
▁beverages
isomer
▁undertaken
▁(18
▁hypertro
▁immature
▁Pregnancy
oural
)2
▁propor
▁microM
▁PCR
▁subpop
▁saliv
▁kerat
▁ventilatory
phosphor
▁summ
gression
adherence
▁overlying
▁adjustments
▁maturation
▁plateau
▁monitored
odiaz
▁rabbits
▁superv
embr
-9,
phthal
▁initiation
▁proportions
▁epsilon
▁tyrosine
▁decreas
-80
▁vivo
enicillin
▁arteri
othane
▁pyram
inflammatory
rents
ylase
reactive
tical
▁COS
sia
▁mening
uclear
▁amygdal
▁hamsters
uppres
ffec
▁7,
▁thal
orepinephrine
▁Pt
lesion
urrence
▁heparin
▁eyel
▁amyloid
ducible
▁cerebellum
▁Incubation
▁inspiratory
▁ovari
▁unrelated
▁Intravenous
▁serum
uran
labelled
▁blockers
intestinal
▁pancreas
atid
▁agonist
▁epithelium
▁chewing
▁provocation
▁NaCl
▁methionine
▁spike
▁perme
osyn
eric
▁subc
▁lymphomas
odil
▁dimethyl
.7%
▁adap
▁distrib
▁chromat
muc
▁luminal
ective
rogenic
▁thereafter
▁substituted
erations
▁retard
Wo
▁alleviate
tance
depleted
▁intravenous
osamine
▁(9
thymidine
▁lipase
▁socio
▁lamb
▁shortened
▁3.1
▁cardiac
▁Acute
transferase
opausal
▁Cd
▁CAM
iflu
ustained
keleton
osides
entral
obacter
▁peri
▁chamb
02
▁mutants
illi
▁deformities
▁bp
▁arrhy
sistent
▁criter
▁enhancing
▁Evidence
astatic
.3%
▁Intra
▁granular
▁muc
ectasis
xpression
▁Roux
ulose
▁pharmacists
embrane
obarb
Ra
▁coated
tration
▁perinatal
▁eluc
▁coel
▁CNS
▁skeletal
▁Protein
2+.
ectable
▁nutr
-12
releasing
lasses
ylephrine
▁66
himb
▁hormonal
▁coli
HDL
▁electrophoretic
▁curative
▁phenotype
▁50
fected
ceptive
peptide
▁tetan
▁inference
▁hepatocellular
tic
▁overestimated
▁thoracic
▁pharmacological
▁stratification
glutinin
▁utilisation
▁herpes
▁2.5
▁irradiation
tig
▁rabbit
▁motif
ariate
▁adequ
▁kinases
▁comparisons
▁arginine
▁influenza
▁overlapping
▁82
▁adrenoceptor
acerb
▁Premature
tagland
tant
tric
▁PGE
▁cations
▁cyclic
▁conjugated
▁recor
uterine
▁ICS
tion
▁unres
▁rCBF
ymptomatic
▁Ultrasound
▁incubation
▁pyramidal
▁pover
▁ASA
▁intrav
▁mellitus
▁porcine
/2
▁footprint
▁iso
0)
▁GE
▁unresectable
▁examin
▁dyst
oA
▁metabol
adrenoceptor
▁paired
▁gastrin
essive
▁viral
stim
ocin
phosphatase
▁traum
▁phi
▁ascites
▁appropriately
oxia
gative
▁lith
chicine
▁diameters
▁39
antial
▁3%
▁thym
molecular
▁78
▁4.4
aric
▁malle
▁hyperp
▁sero
▁sedentary
66
▁neoplas
▁ach
0%)
▁compartment
▁sequenced
▁contamin
thym
6.
▁100
▁differs
-14
▁cigarettes
▁spind
▁canc
acetylcysteine
tophan
▁leukocytes
▁recessive
amide
lated
clin
▁splic
/1
urethral
regn
▁illicit
essional
▁junction
▁provid
▁chloride
▁accelerated
▁10(-5)
▁potenti
▁fractured
▁impacted
▁cysteine
▁assayed
trin
▁parie
lapping
oreceptor
▁labelled
▁HI
▁implicated
aptic
.8
eared
icillin
▁innerv
▁rup
▁agar
alian
▁eosin
▁autoxidation
▁56
ocytic
▁enl
▁susceptible
▁regar
esity
▁locus
▁aerob
lop
▁upd
▁cardiovascular
roscopic
▁(0.
▁biliary
▁opioid
▁pneumon
-18
▁prescribing
▁umbilical
▁Ig
▁mice
▁atresia
▁trophob
helin
Sepharose
000
rophyl
tained
▁chan
▁dysfunction
xate
▁Cox
▁HCC
opsy
▁Km
▁ane
▁-3
%).
oyl
▁memb
▁chloro
▁2.1
▁tox
▁biosynthesis
▁radiolab
WB
▁hormones
hern
.0
▁defic
anking
▁Staphylococcus
ogenetic
▁Ear
▁VAS
▁inclin
▁follic
▁dehyd
▁metabolites
▁47
▁antegrade
▁penetration
▁contralateral
alanine
▁OCD
rehen
▁phenotypic
▁hyperther
oblastic
ffin
▁cytometry
producing
LISA
▁monophosphate
pinephrine
▁apop
estim
brain
▁fluctu
phosphorylation
▁axillary
odium
▁uncom
otrop
urred
subs
▁polymorphism
pH
phenyl
▁38
urys
tially
hypertensive
occal
diagnosed
▁79%
▁fractions
47
seud
ocortical
▁chond
▁reevaluation
▁hospitalization
rological
▁placebo
▁reposition
▁constric
▁sedimentation
▁colloid
▁(10
sorb
▁intercostal
▁Hear
▁ana
▁thyroid
idis
▁desensitization
onit
▁activating
ociation
▁biologic
esting
▁variability
idine
▁junctions
▁contamination
▁commerc
▁aden
▁80%
▁prospectively
▁mucosal
▁chor
ereb
▁ovarian
▁ATPase
▁CSF
▁inhibitors
▁rigorous
▁hyperthyroid
▁HPLC
din
imide
utions
▁coincidence
▁deposition
▁69
wenty
▁mM
irrh
▁leakage
▁9,
udin
▁nitrogen
udent
employ
▁tiss
▁vitro
▁ves
▁sulph
▁BALB
▁apical
▁subun
▁assessing
▁repres
▁vomiting
diastolic
▁docum
rophic
▁conjug
▁Greater
▁inducing
▁Pseudomonas
uted
▁kappa
▁ceph
ignant
tures
0-
ontal
▁symptom
vices
▁ulc
SCC
responding
▁schem
▁gastric
▁exert
flammatory
▁acetab
▁nosocomial
cad
▁51
84
▁lumen
Ss
▁rats
psin
▁basal
▁reser
▁monos
tility
▁irrespective
▁collagenase
▁enzym
▁poisoning
▁(1
▁DH
kelet
▁constitutes
▁genic
ropha
▁perin
▁verapamil
estig
▁hazard
▁disagreement
▁deviation
▁-2
▁afferents
▁acet
▁ensured
▁uterus
▁ETA
▁reagent
▁occlusal
trexone
▁FV
▁synovial
elan
onium
▁kcal
▁regimens
ohyd
▁cerevisiae
▁Phe
9)
▁defects
▁diabetics
▁cirrhotic
.1
▁0
▁granul
▁constitute
▁yielded
▁deletion
▁DN
positive
blind
▁bip
responders
▁hippocampus
illary
▁histopathology
▁phenotypes
obic
▁secretory
wk
01
▁reproducibility
ranolol
vascular
▁Healthy
▁segreg
▁inoculated
ancre
▁0.3
▁cyst
▁Neurop
▁defective
▁responsiveness
feron
▁responders
ields
▁radiolabeled
▁10(-6)
▁sequentially
▁organisms
▁Tn
▁cytokine
HM
1)
▁OC
▁undoubtedly
▁GER
▁turnover
▁biopsies
kD
▁TSH
▁contributes
olones
▁Thir
▁prox
▁sacr
▁polyc
▁potentiation
idem
▁cortic
scher
▁2.9
fos
▁motility
▁hydroxylase
▁fluc
▁(3)
▁dodecyl
▁1/2
adherent
▁phage
▁embry
▁displacement
▁autoimmune
▁(12
generation
▁parathyroid
tyl
.8%
▁strom
oscopy
53
▁depic
hicle
▁4)
▁echocardi
ophag
lasting
tation
enzymatic
thma
▁inh
rolith
▁gout
▁stimulus
▁adhesions
prep
▁sensi
(+)-
ocardi
CRP
▁0,
▁(197
atheter
▁consecu
secre
▁4.2
▁perfor
▁FD
▁maternal
▁appreciably
▁cotrans
mega
▁supplementation
▁preceded
▁saturation
▁simult
lowering
▁subunits
▁GABA
▁groin
▁concanavalin
▁unaware
ipro
▁merits
▁menstr
aspartate
illic
▁immunos
▁EG
▁SCH
mL
▁2)
▁trypsin
▁contaminated
▁nonoperative
enin
▁fractures
▁BPs
▁osteoporotic
▁operative
edullary
▁bloc
▁adhere
▁metastases
15
▁pathogenesis
bumin
▁atri
▁PMA
▁empirical
▁isch
▁bypass
taining
ionine
▁newborns
▁theore
▁determinant
▁Stimulation
▁elastase
▁guanosine
▁Alter
▁pulmonary
sial
patients
rotein
osomes
6%)
phot
▁AIDS
▁colonies
▁gallstones
▁2.
▁abolished
%),
clo
▁phosphorylated
▁larvae
▁fetal
▁hippocamp
▁antigenic
atum
▁20
ofol
iton
▁depended
▁intest
ylline
▁comprehension
3)
kinson
Au
apanese
▁scintigraphy
▁microc
▁acetylcholine
▁ECG
▁Routine
tussis
fentanyl
,000
deple
nthe
alveolar
▁HCMV
25
▁specialty
▁fragility
▁vitamins
▁calmodulin
acial
▁80-
▁progest
▁unsuccessful
▁steroid
▁esophagitis
▁glutamate
▁standardized
independent
▁ambul
▁regeneration
lastic
▁supernat
▁thalamus
▁upstream
▁0.001),
▁61
▁oestradiol
▁optimum
estions
HV
▁antagonists
▁relapse
▁pyr
▁Therapeutic
gia
▁grading
ituitary
menopausal
▁FEV
▁parotid
increased
▁implant
▁fibrin
tryptamine
▁psychosocial
▁correcting
urgery
graftment
-30
▁systematically
eptides
▁Vitamin
Ala
▁physicians
tus
▁triglyceride
▁encoun
▁ischaemia
▁ultras
▁pylorus
itudinal
▁fetus
▁metastasis
median
▁synthesize
▁endothelium
▁indis
▁merit
heum
estis
▁2.3
hep
arrhy
▁regression
▁transiently
▁differenti
▁concentrations
▁interfere
issive
ographically
▁fron
5.
carcin
flux
illar
▁gradual
▁renal
▁VS
▁Thromb
luores
opha
▁derangement
▁adduc
▁carcinomas
▁apolipoprotein
▁adduct
▁[(
▁stu
▁PKC
+/
TNF
0,000
▁tris
▁iatrogenic
▁hypoth
ellum
▁bipolar
SCE
threatening
▁196
2+-
▁elevated
artum
▁proton
▁isomer
▁underg
▁IH
olipoprotein
▁morphologic
rins
tioned
SAP
▁Inte
▁NH
HF
▁Measurements
▁injur
▁Adverse
0%
▁CCK
▁increas
▁connec
pendent
▁0.06
idespread
idation
▁derange
▁parenteral
▁transplants
▁micrograms
▁pH
▁preceding
amn
450
tonic
tensive
▁chemotherapy
stages
▁ionophore
▁accep
▁noradrenaline
▁sti
▁torsion
atial
▁pep
6%
HIV
▁laparotomy
▁agonists
itre
▁Escherichia
▁rati
'-
erine
moid
▁cholest
▁[125
▁carboxy
either
▁OT
imin
orpor
▁ACE
2),
▁FSH
▁sarcoma
▁chemotactic
ocytes
▁nec
4-
▁moderately
▁dentists
tub
▁dissec
▁naloxone
▁110
▁1.0
▁benign
respective
▁termination
▁lineage
etal
obarbital
▁keratinocytes
eptin
▁Patient
▁cocaine
▁allogra
ophageal
▁diaz
▁sphincter
▁contributory
osal
2,
▁32
▁modulation
▁galact
tured
-5)
▁posi
▁sebaceous
olol
▁awa
▁apprec
▁speculated
▁averaged
athyroid
▁thymocytes
▁scin
rogra
roscop
▁12,
▁wk
osine
▁33
▁Fc
tened
▁forebrain
aldehyde
▁vasomotor
astom
Phe
▁conges
▁Sixty
▁blotting
▁thromb
▁maximally
▁7.4
oproterenol
▁6.2
lycer
olus
FU
kground
▁msec
▁cardiomy
▁hypox
▁morbid
▁mRNAs
▁cows
▁scans
heal
roxim
FGF
▁progestin
▁underst
enia
▁Phen
▁atrium
ophylline
▁Muc
pregn
▁erythrocyte
ithiasis
▁affec
albumin
ormone
▁31-
▁hemodynamic
glut
ostal
otomies
renol
▁uptake
▁benz
▁preventive
ometh
▁hemisp
icin
ocusing
▁femoral
▁reinfor
▁Consideration
▁nal
▁numb
onous
▁2.8
optic
▁Staphyloc
2318
▁GTP
athy
▁unclear
▁expenditures
▁cann
.5%)
▁clamp
cyt
6)
oplasty
▁procedural
sibility
▁elevation
▁sepsis
olytic
▁ration
mig
▁experim
▁unaffected
lication
amate
▁arachidonic
▁consolidation
▁radioimmuno
▁outpatient
▁isot
▁Tumour
▁normo
▁ingestion
▁thrombectomy
▁Medicare
▁ether
▁crest
▁disapp
married
▁testicular
▁angiography
▁4.6
▁preservation
▁THA
▁glucocortic
▁resear
▁radiotherapy
▁1.5
▁isoform
▁appropriateness
aminob
8,
3+
▁identi
resid
▁Phosph
▁exons
drug
atonin
oplastic
oplast
opo
▁differentially
▁swelling
▁quantif
▁reliably
▁adrenaline
▁transfusion
34
▁adver
▁(4)
▁PDGF
▁predictive
ellar
▁occupational
▁myc
▁CEA
▁adaptive
ethyl
exposed
▁discontinued
▁NMDA
phen
▁epileptic
▁microns
▁investigations
+.
tents
ithine
▁dendrites
▁ALT
▁150
effec
osynthe
▁ANP
▁structurally
graft
opolysaccharide
▁carbohydrates
▁sph
MH
▁surgical
▁substantia
▁implants
▁acidic
dor
inusoidal
retro
▁detectable
divid
▁glial
odgkin
▁1989
10
▁VLBW
▁BD
▁ICM
▁hetero
onor
▁brom
▁sustaining
▁36
▁loci
▁ascending
venth
▁phenyl
iatric
▁malign
▁synthetase
▁reversed
22
▁selectively
▁alteration
▁thresholds
BV
▁astro
oride
nRH
enteric
▁Bac
▁enalapril
▁persist
alsy
▁pretreatment
▁elong
▁subunit
▁oxidase
▁4.0
▁immunocyt
subunit
▁hypotension
▁adequately
idney
▁radicals
ogl
▁questionnai
▁0.02).
obl
pation
▁2-
▁oxidative
icacy
▁dismut
▁pHi
▁HCM
▁0.001)
▁epididym
▁repeats
carbon
75
selective
▁auditory
ygen
▁VIP
▁discusses
▁testosterone
▁ascertain
▁disks
▁irritation
▁lep
▁polypeptide
▁antiserum
rene
amphen
▁hepatocytes
▁antibiotic
▁mitral
agin
rophy
vents
▁pertussis
▁conformation
▁aqueous
▁clonidine
▁Glu
▁citrate
▁75%
▁ESR
▁concurrently
clic
roso
▁novo
oradi
▁gland
▁scanning
▁membranes
▁experimentally
▁cation
4),
SAH
▁prospective
MV
▁2.2
isture
▁airway
2+]
onucle
oblasts
▁Contr
-2
estigated
▁Tren
yrate
▁circumferential
▁pla
19
sive
▁MCP
▁persisted
▁extracellular
▁ADH
▁HSV
▁cognition
▁valve
▁olfactory
▁laminin
april
ethylene
▁eosinophilic
liters
ophil
▁epiderm
/100
▁hypothyroidism
▁marrow
TSP
stimulating
▁UT
▁19%
▁bradykinin
▁40%
▁hepatic
ithm
▁Hg
▁relap
▁acqui
entif
▁86
▁tau
▁infants
▁pelvis
ubtedly
▁ester
▁epitope
EGF
▁Randomized
uminal
23
▁antagonist
▁augmented
minal
Daw
opus
▁facilit
ithi
▁0.5
▁adjunct
▁neurones
▁tumour
▁immunofluores
▁tach
▁subcl
protein
▁spati
▁ultrasonography
▁parietal
▁pyl
loid
▁malignancy
apeutic
▁alkyl
▁metabolized
▁questionnaires
ece
▁preferably
▁histologic
▁postulated
8+
▁onc
eded
armac
vae
▁rectal
▁mitochondr
▁FS
orption
▁53
▁identically
▁inorganic
▁strains
oderm
▁plex
.4%
atab
ught
ivocal
phosphatid
▁bilateral
▁mediated
venous
ventional
▁examinations
▁superficial
cture
ocys
▁manu
▁cholestasis
nisone
▁8-
3),
▁infil
urement
arate
ecal
27
▁digoxin
▁uter
▁strips
mixed
4,
▁SDS
▁PEEP
▁ae
▁oligonucleotide
ostomy
roph
▁suturing
▁0.01),
resting
▁MAb
assi
acetic
▁Samples
▁NPC
ographs
▁coeliac
▁vertebr
▁microtubules
mide
▁hospitalized
▁centr
1/2
▁detrimental
▁patency
▁ADP
▁splenectomy
▁uninjured
▁spleen
ineural
▁dexamethasone
omethacin
fluoro
▁Electron
▁1.7
▁definitive
▁endemic
rone
▁LV
tection
▁detec
▁kidney
▁pathways
▁Cyt
▁testis
▁pathogen
▁0.25
1),
▁capsaicin
uctose
▁detergent
othelial
▁physiology
unced
tium
ighted
orec
▁repaired
▁diazepam
CMV
erican
▁corpus
▁streptoc
tition
▁influx
▁underlie
▁metastatic
▁inheritance
ogens
▁mucin
▁vagal
acted
▁chemo
▁MRC
ths
▁Accordingly
▁thymus
▁Pseud
▁amo
▁capillary
▁horiz
▁correlations
▁plasmid
▁shor
▁monke
▁therapeutic
▁mediators
▁gallbladder
▁regulate
▁sequelae
hips
▁24
ologic
aem
▁HMO
ubiqu
-10
▁aggres
tial
▁polyacrylamide
▁accumulation
▁pM
▁reproducible
▁caregi
▁scl
glycerol
▁lamina
▁predicts
osome
▁83
ondr
roglobulin
uble
▁eti
▁colonoscopy
▁metab
▁interpersonal
9,
▁exhibits
▁angioplasty
▁CSA
keto
▁Increas
▁induction
▁yr
▁ovulation
fine
▁complications
operatively
▁nucleus
48
9%
▁genotypes
▁HDL
▁60
idazole
▁excision
▁diabe
▁markedly
▁APTT
▁vitamin
osidase
▁catechol
▁latency
▁accumulated
7%)
▁statistically
▁graded
iatic
▁cate
▁amp
▁contex
▁parental
▁dilatation
olarization
▁vena
▁negligible
▁retur
▁haemat
plate
▁endoscopic
▁oesophagitis
azem
ropo
▁sarc
▁compart
▁haemorrh
▁60%
5'-
▁cohort
orphism
▁cholecyst
truc
▁synthesis
iferol
▁iliac
▁polymer
tructural
cardi
▁modestly
▁baro
accharide
▁oxy
tives
diagn
▁ligation
▁followup
▁dislocation
▁hypothalamus
▁UL
▁0.0
▁BP
SPECT
lycemic
3.
▁myocardium
▁35%
▁elevations
▁regurg
▁propranolol
▁57
valent
7).
▁typh
▁abdomen
dihydroxy
(2+
▁16
▁succin
▁satisfactory
▁4.
▁resol
▁dendri
▁AGA
▁chorio
▁ammon
▁0.4
henyl
▁PAS
accharides
▁granulocyte
▁External
toxic
▁perceptions
vate
licular
illation
▁medicines
▁plasmids
▁cardi
▁inapp
urgical
▁simplex
erper
resses
▁inadvertent
▁extraction
rected
▁synapt
valence
▁symp
▁8%
▁MG
▁incomplete
ourable
OH
▁adop
ressive
▁hybridization
kephal
4.
trum
aminidase
cysteine
▁mU
▁mitotic
▁myo
▁infiltration
▁covalently
▁natri
▁0.8
▁morphologically
▁spectro
▁microtub
pies
▁microm
▁gastro
▁exacerbations
▁elicit
▁prevalent
▁postsynaptic
.9%
▁expressing
▁nutritional
▁collec
▁virtu
▁cytotox
▁physici
/10
▁acces
ochondr
discharge
▁albumin
otoxin
▁diabetic
▁2.4
▁cytoplasm
inemia
▁acidosis
1-3
gluc
▁chromosomes
▁45%
▁progressively
▁LS
obase
▁lambs
orectal
pT
▁endochondral
comitant
labeled
▁uniformity
coated
▁amph
▁fasting
▁intrapartum
acylglycerol
kinin
fusion
OA
▁NI
▁actin
▁selectivity
▁prol
▁prophyl
▁hepar
ropyl
knee
tization
▁biom
NH
-25
▁monocytes
▁0.7
▁diffic
▁refractory
gulation
▁conjugate
▁successive
sulf
▁inad
▁rupture
bular
▁localization
▁chromatin
▁VD
▁thymic
▁coagulation
▁isolate
▁ruptures
▁pharmacy
▁lymphoid
phil
▁Chemical
▁staging
clinical
▁elast
▁interf
▁redund
▁Systolic
▁12%
▁dissemin
▁promo
▁AE
2+,
▁thir
entan
▁intrac
-6-
rometry
dia
odal
▁hematocrit
lys
ergic
▁palliative
Ka
derly
entical
▁neutrophils
▁RNA
▁behavioural
65
100
▁pelvic
▁mitochondria
lix
▁radiography
▁mRNA
▁elastic
▁metastas
▁prolactin
vival
▁dosage
allik
fec
anserin
▁pneumonia
yrid
▁pK
▁Chan
otactic
ronous
▁CsA
76
▁conceptual
▁2%
heximide
▁corresponded
▁epitopes
erative
▁hyperfiltration
tib
▁acetabular
▁7.2
assay
▁endot
restricted
▁acetyl
▁autopsy
rangements
olgi
▁proteoglycan
sych
▁stimulatory
▁probes
▁dye
▁23
▁cloned
otr
▁vesicles
▁HPV
▁phospholipids
▁repro
▁15
▁plasmin
▁cardiomyopathy
▁obesity
▁angi
▁tRNA
tetr
.7
▁Significant
▁encounters
receptors
tin
spective
ochem
▁responsive
▁87
▁muscarinic
ecre
▁CABG
ipient
▁1.6%
▁7.8%
▁downstream
▁fibrosis
▁standardi
▁fentanyl
stolic
▁neurolog
hydryl
8.
leu
▁lysosomes
restric
osition
▁tib
▁(50
dibular
▁antiser
▁apo
osus
▁derm
otomy
▁leukemic
ifferen
-3
▁cartilage
▁glycoproteins
trac
itic
tors
▁thrombo
▁neurological
tens
▁7.5
▁Alcohol
▁ventilation
▁synthe
▁anticoag
ogeneic
▁coh
oxone
yrox
hospital
gesia
▁elec
▁exo
tral
▁17
▁histone
vasive
▁laxity
▁glucocorticoid
ewish
▁gangl
ometrial
gli
veness
ipine
▁functionally
▁immunisation
▁acyl
anic
▁myelin
▁chym
kele
▁5.
lyce
▁intraper
ffinities
▁assis
▁Medicaid
electro
itively
▁titers
▁molec
sibly
TK
▁prostagland
DNA
▁2.7
▁adhesive
▁uterine
occi
vation
▁LOS
▁airways
HB
ogenesis
crimin
▁brid
▁prostates
▁bir
ophy
▁dorsal
-60
▁PB
uccess
▁tympan
▁dietary
▁placenta
▁catheterisation
▁hydroxyl
▁abolishes
▁deem
▁infarction
▁yeast
siological
rocal
▁Previous
viruses
▁EEG
▁cirrh
▁adherence
stranded
▁exten
immune
mediately
glumine
▁retinoic
▁pT
▁recurrence
▁monounsaturated
gm
bacter
▁anaerobic
▁translocation
▁assurance
▁4%
▁discon
▁supernatant
▁receptor
-6)
2%
▁48
phosphonate
cele
atural
occus
throm
▁cava
▁92
razosin
▁developmental
▁20,
▁(+/-
▁attenu
ropine
60
▁nitro
▁segmental
▁pancreatitis
▁dissociated
▁discharge
▁membran
chymal
▁FDG
tality
▁topographic
ivation
ergency
▁particulate
▁platelet
nary
emia
▁adenosine
1/
▁apex
amino
rans
LN
chol
HCO
▁exerted
ocar
▁oste
▁inhibitor
▁TPA
▁infarct
forcement
▁hCG
▁labeling
▁interrup
RNA
▁fri
▁homogene
▁dete
▁prognostic
▁counseling
▁1.2
54
erop
▁refraction
ineph
epti
ectomized
▁tryp
▁enal
▁FH
▁protoc
▁Measure
ylchol
▁0.01)
▁adducts
▁kidneys
▁compartments
ilep
▁substrates
AIDS
▁Kupffer
ionic
▁immunization
▁mobilization
▁enlarged
▁HCA
▁visually
9%)
▁94
▁nasal
ucl
siveness
meth
▁mammals
▁71
▁carbox
▁verteb
titis
▁colorectal
umulation
▁58
▁RBC
▁EDTA
graphy
onatal
▁substitution
▁mitogenic
▁IgG
▁diabet
▁Plasma
▁MV
▁preferable
81
▁peptide
organic
▁usefulness
▁0.
adenosine
alate
▁alterations
▁Taken
olon
inic
▁interventions
▁defec
▁scre
▁respec
▁scinti
▁alleles
▁3-
▁PMP
▁neuronal
▁HU
▁residency
▁xen
▁remission
formin
rophenyl
▁retina
deficient
phth
.6
thase
trogen
▁bronch
essel
inj
▁alve
vac
athetic
▁regen
13
▁carcinogens
4%
luded
▁cataly
▁incub
infarct
▁guinea
▁terminals
▁67
▁edema
▁Experiments
▁nonc
500
▁granulosa
▁Excessive
▁rebound
▁preparations
▁peroxidation
aturated
▁septum
▁manipulations
▁neonates
▁choline
▁cochle
▁undisturbed
oluble
plas
▁adolescent
▁suppressing
▁aggravation
▁sial
▁slices
zymes
▁confir
▁allo
▁fibroblast
▁heterogeneous
▁paradigm
▁hygi
▁lumb
▁dex
▁venous
attern
▁reticul
▁EMS
11
odality
▁perfused
▁percentages
▁fmol
▁solubilized
▁biop
HU
athe
▁lobectomy
thre
▁rRNA
▁cerevis
anthine
igaret
▁susceptibility
▁underestimated
▁Thirty
▁autop
reast
▁warr
▁cyt
quisition
renaline
olum
▁fas
▁suture
▁perce
uncture
▁30,
▁timely
ceptibility
omedullary
▁subtraction
▁deprivation
▁filaments
immunization
ifug
▁sulf
helial
amel
▁silicone
.2%).
ociated
▁IBD
▁favourable
esium
ranial
▁Vac
▁quantified
▁immunoblotting
geal
aryngeal
ectom
▁nomenclature
▁NADP
▁relevance
▁dextran
▁unexplained
▁autoanti
▁membrane
▁quanti
terolog
▁retic
▁1986
NAP
▁adminis
▁inhibiting
ffeine
isqu
▁0.03
oresis
▁islets
xide
itance
TU
▁unchanged
▁deletions
▁osmotic
▁toge
trient
▁sev
▁GFR
▁exon
▁fetuses
Hu
▁ascertainment
▁elimin
sian
▁gangrene
arental
▁Calc
▁enteral
▁introduces
▁IgA
yroxine
▁identif
▁specificity
ognition
gic
▁substitu
▁4
▁aspiration
▁PGI
tidine
▁PBB
▁corticos
▁HeLa
▁Purkinje
-2-
▁anticoagulation
trate
▁excimer
consuming
▁latent
▁NADPH
▁urine
▁ceased
▁0-1
▁160
imens
▁dendritic
thle
▁epidural
▁mixtures
-16
phal
▁difficul
altered
/3
queous
▁homogen
jects
alues
-24
▁0.000
Gal
plants
▁transcript
ipitation
▁resemb
ilization
blast
▁measurable
opi
▁MAP
▁phosphorylation
▁neurons
otropin
▁minimally
▁atrial
▁demonstrates
hesive
▁pathologically
▁polym
▁98
▁minerals
▁30%
▁neurop
▁papill
▁myoepithelial
▁validity
tiv
▁14
80
regulated
HN
oretical
▁propensity
▁conductance
▁TCR
▁brady
▁neph
▁RP
▁spontaneously
▁intrauterine
▁restric
▁incidence
▁resorption
macropha
▁cardiopulmonary
affec
▁mutagenesis
▁cytotoxic
semin
▁workload
▁osteoporosis
oprotein
▁metabolic
▁chromatographic
▁onset
▁physiotherapy
oxygen
▁cyan
▁HTLV
bilities
▁binds
▁attained
▁Ras
-11
▁amplified
▁mAb
▁unexpl
▁MHC
▁irreversible
▁oxidation
▁depleted
▁HLA
helium
▁amyl
▁donor
▁vesicle
reatine
▁aneurys
▁stimulating
▁symme
atible
▁atrophy
▁exclusion
▁ocul
▁Elderly
otropic
lycerol
etitive
▁diluted
minis
▁melanomas
▁trophoblastic
▁seizures
Ly
gments
▁trache
▁residue
▁RR
reet
▁vaccines
▁Increased
ymme
▁lethal
▁fibrinogen
▁virul
▁lys
▁halothane
years
▁striatal
▁73
erving
▁conduction
▁7-
atoid
▁schizophrenia
Gi
▁subchondral
▁bronchiectasis
▁microscope
-1.
▁WHO
▁sedation
8-
tabl
▁cGMP
titu
▁underwent
▁amines
▁electroph
opram
otide
ectin
▁10%
▁recons
ovine
▁respiratory
esti
oclonal
▁Scatchard
▁5
1-2
▁transfected
arer
umption
▁pec
anol
-7
▁muscular
erus
versity
▁warranted
astric
▁develops
oleic
anavalin
ailure
▁UF
▁incom
▁frontal
spectively
▁inhalation
▁trough
▁forsk
race
▁IMR
▁attenuated
▁lesion
▁sodium
topril
omain
▁laparoscopic
▁cholera
TG
▁pediatric
eclampsia
▁diffuse
▁serotonin
▁thyro
▁macrophage
▁reag
▁perfusate
▁microscop
▁400
▁oxygenation
amet
▁ultrasound
▁adolescence
▁heterologous
uality
oscopic
facial
▁consis
▁30-
▁ineffective
limb
▁equilibr
▁overweight
ipramine
▁endothelial
lysis
▁10.
▁organism
▁gait
riton
econd
▁Thy
▁PTH
▁25%
▁cyclospor
▁promoter
▁coexistence
▁IU
romed
icardial
▁acupuncture
Fs
odies
▁Cys
▁fracture
bacco
▁silic
ximum
ods
▁tubercul
▁Pregn
▁haemorrhages
▁opi
▁diap
chloride
aceous
▁OSA
▁HS
▁estrogen
▁cytoch
▁sulfonyl
ocardial
▁tonsil
duction
deoxy
implantation
▁creatine
▁diarr
▁isoproterenol
▁periodontal
uria
genital
▁Hep
onc
▁pulmon
vating
▁macropha
-1,
▁3
asone
▁endoscopy
Tn
▁abnormal
ronch
jug
▁1985
▁placental
containing
▁mandibular
modulin
rine
▁sten
▁laparoscopy
▁(2)
▁uro
▁feasibility
partum
▁Evid
6-
PTH
▁BW
unctions
responder
rague
aminergic
▁transforming
filtration
robial
▁multic
▁diltiazem
sion
▁RIA
▁cochlear
▁96
▁asymme
▁26
phon
▁perc
▁(25
▁eryth
▁DG
neal
CDD
▁occurrence
▁abd
▁inactivated
▁balancing
▁comparative
aminated
entanyl
▁reversal
▁monocyte
▁PCO
▁pate
▁hydrophobic
▁isop
globulin
lective
ilibr
▁ligand
▁statis
atchard
▁iodine
▁diminished
▁putative
▁fibrob
▁sple
▁concordance
▁85
▁(100
▁fung
HG
▁paraventricular
▁peripheral
▁SG
▁errone
chondral
▁encodes
▁precipit
▁tuber
▁55
▁pleomorphic
ilic
▁facilitated
ritis
▁-0.5
▁vasoconstric
▁disulfide
▁reduc
▁clinicians
▁disrup
43
▁oligos
lyl
ustment
monella
▁3.8
▁adhe
oskeletal
▁evid
▁calcium
aminase
▁cyclo
▁cDNA
▁disparate
▁attributable
▁colonic
stem
erent
-2,
▁IGF
▁normotensive
▁MK
raine
▁helix
▁(5
▁(0.1
yro
▁arteries
tinguishable
stro
▁Effective
omized
pecially
osterone
▁90%
▁hypothal
tum
TN
▁Binding
prising
▁tol
▁tet
oglyc
▁125
-2.
▁sut
inol
▁(-)-
alact
trated
▁immunoreactive
▁pressor
▁79
▁qualitative
▁withdrawn
▁inpatient
▁77
▁ovary
▁hydrolysis
▁freshly
▁myosin
atients
24
▁indetermin
▁inappropriate
▁rheumatoid
▁thromboembolic
echn
endot
▁transcribed
▁screened
ginine
▁Alz
▁Steady
▁biologically
loon
▁noncom
▁manifestation
▁recombination
▁asymptomatic
▁reproductive
▁spermatozo
▁peptic
▁interstitial
▁gon
▁sequencing
▁IBS
▁testes
▁buc
▁75
omiting
▁2
▁nig
▁palpation
▁Asp
▁progen
▁excre
▁0.04
▁lam
▁inflammatory
▁crude
1%
▁microvascular
▁catalase
ochle
▁8
ameth
▁complemented
▁cytoplasmic
▁Mg
▁precur
ulmonary
▁35
▁assessments
controlled
▁disappointing
▁reticulum
iloride
▁ultim
yel
▁ranged
▁moiety
▁vascular
▁inhibits
WBC
olone
▁cys
▁throm
▁Rout
▁6.5
▁[35
▁amplitudes
inesterase
ifed
▁synapses
▁Contrary
ovirus
delayed
▁rash
▁ketamine
▁thiol
▁discontinu
▁devi
▁exercised
bly
▁Physicians
▁triv
▁genotype
tec
▁limb
orotic
umbar
▁regurgitation
▁unemploy
▁predominantly
▁simultaneous
▁antibody
lox
▁resul
▁histamine
ortal
ocor
bodies
rologic
illaries
gth
▁satur
▁adolescents
▁circulating
atrial
▁GCS
▁lutein
▁uncovered
▁immunode
ATPase
▁cyto
uretic
▁pressures
kade
▁communic
ectomy
.2%)
iciently
epam
otypes
-19
anis
▁polyclonal
▁milieu
▁mediation
▁removes
onstric
romycin
vated
▁synthesized
▁6.0
▁adenomas
▁haemorrhage
▁Bone
lectomy
lue
▁Clinical
ogenes
polyacrylamide
trip
iology
▁GMP
▁lipoprotein
▁Kd
▁8.
▁irrever
▁Preoperative
▁Recurrence
▁intermediates
▁diastolic
▁mell
▁89
▁strepto
▁histopath
etan
▁phagocytosis
hydrop
▁AH
▁debridement
alas
adex
ignific
▁EGF
▁intervertebral
tolerated
▁atmosp
▁polyethylene
otassium
▁similarity
▁sickness
-450
▁proliferative
▁preoperative
▁heteroz
▁enrol
▁inver
ivoc
▁messen
▁[14
▁intracellular
ameter
▁adenocarcin
absorption
▁acyclovir
▁autologous
pap
▁VLDL
▁esters
orbol
Cs
▁mono
12.
▁monomer
▁compounds
▁VL
LB
▁disadvantages
▁LDL
phyl
tis
phic
adrenergic
▁ortho
▁conditioning
anish
▁causal
▁practitioners
agal
▁reactive
▁metformin
▁streptococci
▁administered
▁natriuretic
▁quantit
▁neuron
formations
▁accessory
neumon
▁saturated
▁antagonized
lusion
▁hypot
▁orally
▁localized
▁10(6)
▁retin
▁10
▁(13
▁degen
▁epi
▁asthma
IU
▁eradication
ergen
▁replic
hemia
▁lifelong
▁differed
▁pulp
ATP
▁5'
▁46
rk
▁tuberculosis
inositol
ymptom
▁deposits
ansing
▁fragile
▁horseradish
+/-
▁vege
▁cerv
▁heparinized
▁pati
vice
▁inositol
evoked
▁preconditioning
▁newborn
▁anastom
istar
▁chloroquine
▁abnormalities
rophob
dies
▁stimuli
▁diagnose
▁AVP
went
▁cartil
▁hypertrophy
▁initiating
esthetized
▁palsy
ynthe
▁discrep
▁molecules
▁ole
▁confined
▁thrombin
▁lactation
ofluores
cores
micro
allikrein
hydro
▁validated
rals
▁immun
-4)
▁pancre
▁rotational
▁Drosophila
retion
▁respiration
iological
asic
-4
▁cumulative
▁EB
ayed
▁Considering
produc
▁shortening
▁neurom
▁VC
▁Sprague
farct
ulitis
▁relied
toph
▁59
▁homoz
physiological
▁-0.
ileptic
▁hemorrhage
renal
▁thi
▁thrombosis
▁amiloride
ogenicity
3%
▁amino
▁TA
▁3.
olenic
▁gly
ositive
▁psychotic
▁201
irrhotic
▁myocardial
▁nodules
▁weakly
▁axons
▁erroneous
▁diarrhea
▁Trials
trast
omat
istal
▁progesterone
▁hemorrhagic
DH
▁permeability
▁ions
▁epidermis
▁predominant
acetyl
ialysis
▁resected
morph
▁Neu
▁tibial
▁callus
▁aromatic
▁carbachol
uoden
▁heroin
▁catecholamines
sess
RU
afe
trimental
molec
terol
ietic
arotid
trating
erence
alc
▁undo
kage
▁specimen
▁enriched
erally
tiz
▁cisplatin
▁surrogate
▁motone
▁anatomic
▁enhances
▁invasive
cus
onomic
▁excretion
▁synaptic
▁fibres
▁verte
Ki
▁supernatants
▁0.1
▁preven
▁optic
▁affinity
athione
▁Older
▁readings
pecific
Ba
urin
ferential
▁bovine
▁electroly
▁wt
▁depolar
▁injected
IgG
yses
hering
▁recipients
ellular
▁neon
▁linoleic
▁apparatus
▁depressive
▁perforations
▁aspec
▁adren
▁vein
ophilic
tituted
▁anemia
adiol
▁NF
▁leukemia
▁additive
▁Trauma
▁follicle
otroph
▁extre
▁arrhythmias
▁RI
▁phosphorus
uginosa
▁transplantation
▁mediates
▁6%
erator
▁uremia
▁hygiene
▁psychotropic
▁urinary
yste
diabe
▁chori
▁transplanted
▁molar
▁inflamm
▁panc
atment
7-
bility
▁puber
.2%
atitis
hea
▁linkages
illin
14
▁zym
oag
ensory
agic
isol
▁paralle
icul
utyr
▁overexpression
trative
▁papillary
eptide
▁unevent
56
38
▁arth
▁hemis
▁IGFBP
▁neuromuscular
coup
arose
▁calcitonin
▁abl
IFN
▁PV
▁secretion
▁(198
▁glycosylation
▁filtration
ivered
▁resis
oreactive
opulmonary
fron
▁enhancer
cretion
▁tolerated
▁scoliosis
▁Hb
▁masked
▁tended
hion
▁differen
sequent
▁BV
▁mann
ressing
5,000
▁5.6
erents
▁differe
▁arterial
.6%
▁cortex
▁cerebral
adic
▁combin
▁prolonged
▁seropositivity
▁resistant
tococcus
▁reconstituted
▁clearance
▁nucleotides
methyl
ACh
▁granules
▁utero
▁CI
emory
▁dissociation
▁6.
embers
▁enzymatic
monstr
▁biphasic
▁perip
directed
▁bedside
▁LVH
▁problematic
FV
▁cytotoxicity
usp
SSA
▁Cardi
▁localities
▁prono
▁angina
essation
erum
▁unco
▁illus
otyp
adm
▁Twelve
▁lysosomal
▁implantable
▁nuclei
▁disper
▁overe
▁Patients
istor
cis
▁seb
▁desirable
▁laparo
▁trig
▁strand
▁carcin
ygo
▁effec
▁catalyzed
▁physiologic
▁EO
▁DF
▁lateral
urea
eliac
▁95%
▁sulphate
licate
▁AVR
▁aspartate
▁unselected
▁bronchoscopy
▁19-9
▁ket
▁Immun
▁concomitant
▁phosph
▁tec
▁reproduction
▁hypertension
▁TC
ediatric
atif
▁chol
fir
▁impairment
Ara
/6
▁LF
▁vegetable
▁dopamine
IK
coh
▁negatively
▁substantially
▁sexes
cessive
▁.0
▁directional
▁MBC
▁schiz
▁eluted
▁Adherence
ejun
erating
▁radiological
▁infusions
sue
▁discordant
▁dele
▁GPs
atase
▁hipp
▁endarte
abies
yroid
▁HC
tox
▁intraven
enol
idol
▁capsule
▁microcirc
▁axial
▁Streptococcus
ococci
terone
▁rationale
xia
▁thorac
oreceptors
gement
▁methylation
▁myeloid
▁intestinal
▁MIC
▁70
entricular
tiveness
▁1.1
▁hos
▁TBI
iminary
▁oxytocin
▁surfact
oate
ithelial
▁1.3
▁phon
▁artery
▁Tumor
▁excised
pir
lasts
cyst
ocl
▁phosphor
urc
▁insulin
▁colonization
▁Excess
▁7%
▁somatostatin
▁gynecological
▁differentiate
▁0.05
clonal
tensin
7.
▁potent
▁ammonia
▁cholec
▁alcoh
ministration
▁avail
essential
glutination
adrenoceptors
orrh
thmia
6).
35
▁mimic
▁TRH
▁immunosuppres
olysis
mented
iciencies
viron
▁sulfonylurea
▁0.01
▁plexus
▁ubiqu
clamp
tious
ensi
▁mV
▁recordings
kely
fication
▁Inclusion
▁fatigue
ochemically
oagulation
▁cigaret
ertion
ulfonyl
▁unin
▁mug
▁pleural
▁subf
▁plasminogen
nitro
▁recurrent
▁aerobic
▁ganglia
-17
ograms
lip
▁chemically
arial
▁dopaminergic
▁continence
▁BMP
tions
▁deterior
1%)
▁mammography
arers
▁luteal
urons
toli
itrate
▁brainstem
▁HAM
▁chole
▁contractions
▁evaluations
tative
gland
echan
▁ratios
entary
▁lithotrip
12
▁detachment
▁intrag
▁alkaline
▁91
oidal
oprote
▁steroids
▁Removal
tro
rC
▁10(-7)
Hg
▁neurob
▁ossification
▁stenosis
lytic
▁intraoperative
▁enlarge
endorphin
ocaine
▁pene
▁selen
LU
▁prognosis
▁14,
▁chl
tics
▁stroma
cepti
Glu
apeu
▁5.5
tero
▁Afric
luding
orin
▁isoelectric
Ta
iversity
▁myof
▁births
▁immunobl
▁oro
omal
▁conclu
▁potentiated
▁parasite
▁intraperitoneal
teine
▁depolarizing
▁tumors
enzyme
▁widening
▁olig
aneously
▁electrode
▁(11
▁LN
▁agon
▁strep
versal
97
▁22
▁enzyme
aginal
▁atres
▁presynaptic
oplasm
virus
5),
▁nonadherent
4).
tically
▁Meas
hydroxylase
glum
▁inser
▁lar
atation
iol
▁densities
▁dihydro
44
+)
▁Kup
▁excreted
▁sinus
8%
▁warrants
▁micromet
▁depres
▁solvent
▁29
rein
▁necro
▁prostaglandins
itally
▁eosinophil
cyclic
▁abnormality
2).
▁cytosolic
identical
thel
cholesterol
▁interp
▁11
encl
▁microscopic
▁(4
▁theophylline
29
▁mA
▁excitatory
-8)
icidal
▁pretreated
anus
▁examiners
▁econ
ochondral
▁seroton
▁hydrochloride
omers
amines
ostatic
uting
▁instability
▁Subjects
▁proposes
▁bilirubin
tingu
▁intub
▁lyso
▁diagnos
mol
▁mutations
▁analysed
▁retention
▁3.6
utin
▁subtypes
undibular
etween
planted
▁(0
50
▁acetate
▁mesenteric
▁reflux
glutin
▁avascular
▁lobe
gene
▁3'-
3,
▁enzymes
▁suppor
▁0.05)
loro
▁purification
.0%
▁atropine
bac
▁ultr
▁CRF
idated
▁HM
▁1-
▁comprised
sul
▁0.01).
irubin
▁atypical
▁10,
lymer
▁indicators
▁28
▁uneventful
▁radioactive
▁prolongation
9-
▁uncover
▁hypo
▁aeruginosa
▁medial
▁clinics
reas
ylamide
atell
▁plur
▁ramus
▁hypoxia
PV
2-
▁sham
▁3'
ojejun
▁infused
▁encephal
assium
▁captopril
▁practic
ameters
▁transurethral
▁mesen
rectal
▁replication
▁aorta
wes
EAE
▁contrib
tase
▁Leydig
▁viability
▁graft
▁corrective
▁anion
urse
electric
hetamine
ections
▁enti
40
▁acin
▁infections
▁CGRP
▁endometrial
duced
▁tumor
▁cesarean
▁restorative
▁employing
28
uridine
▁Triton
cribed
-20
anyl
ophils
▁intramedullary
▁duoden
▁85%
▁bile
▁methotrexate
agit
ocyte
tries
▁10-
▁Serum
▁engraftment
fts
▁CBF
tein
ocellular
▁limbs
▁intrap
uvate
teroid
▁RNAs
▁MEP
▁Imaging
opathological
▁15%
▁protocols
cation
85
▁oxid
▁recombinant
▁appendic
▁decreases
▁glomer
echanical
▁effic
rati
▁Forty
▁suscepti
tific
dition
▁fibrillation
tect
▁CFU
▁cytokines
▁lute
▁confronted
▁oocytes
guided
▁250
▁ACL
▁phe
▁interv
ept
▁digestion
ensit
▁ventricle
plemented
usate
▁deform
-1),
▁GnRH
▁Lym
▁congenitally
▁EMG
2/
▁thyroidectomy
▁deficient
▁guanine
orubicin
▁Analy
▁conditioned
olamine
ocytosis
▁cytology
▁000
onin
ocortic
tron
▁medullary
▁codon
▁confron
lact
▁lidocaine
▁hypoxic
▁kine
▁distin
ditions
nutrition
▁struc
▁dox
▁musculoskeletal
opamine
trib
flamm
thio
lym
▁soybean
▁antibodies
amyl
oru
▁clarify
▁demographic
▁tetr
▁dors
▁pacing
▁leisure
▁predis
▁deficiencies
▁(7
▁anesthesia
dents
▁10(-8)
chers
jected
aryotic
▁inters
▁chel
orax
0%,
sensitive
▁tes
mia
loride
▁acutely
▁menopausal
▁rotated
▁phosphatid
enhanced
oratory
▁grouped
▁3,
plasia
▁pacemak
▁elicited
▁deficit
▁characteris
TPA
/-
ervations
▁suggestive
olipid
▁200
▁tachyc
▁postin
epit
▁synergistic
▁inversely
arbox
▁RA
ancreas
▁challen
▁uncommon
▁hematopoietic
turb
▁deoxy
▁placent
MIC
▁Cushing
Ca
tence
▁reabsorption
▁suppres
ration
▁soy
▁ipsilateral
▁adjustment
▁multicenter
-0.5
physiologic
▁endoc
▁ultrason
▁retrograde
ampl
NK
▁nude
▁vascul
▁Improved
phrine
▁minus
rowth
▁somat
rocytes
ustif
▁IA
▁unil
▁calves
▁untreated
▁sci
▁ART
2.
▁retinal
▁unprotected
▁Fifty
▁(95%
omod
sively
▁histologically
▁81
▁humoral
▁kinase
▁leukotriene
99
▁ileum
▁Phy
inatal
▁proteolysis
Leu
▁hypertrophied
physe
104
▁leucine
▁interc
tam
▁aureus
▁prednis
CGP
▁reactivation
DG
▁antisera
hyde
LDL
rosclerosis
vaginal
regulation
noise
▁spontaneous
▁12
▁cryp
▁disparities
▁metast
siology
▁0.9
▁unaltered
opathy
owel
atibility
anding
bral
▁transmitter
▁subpopulations
cale
Cer
▁indefinitely
acental
▁adenoma
▁peritoneal
▁cholesterol
▁angiotensin
▁transcription
olip
▁nephropathy
▁cues
▁thromboxane
tural
▁selective
▁chromatography
vit
▁neo
▁iod
▁Blockade
▁embryo
▁ocular
▁IPF
▁proportional
▁lymph
▁positively
▁denervation
unar
▁ouabain
enal
-50
▁cancers
▁neutrophilic
adren
overed
ipit
▁prevalences
▁IgM
▁caregivers
reported
▁triti
▁plas
▁extrac
▁vacu
▁insertion
▁transpor
▁caro
tinu
ynaptic
sities
trol
ecyl
heric
sA
stab
▁heme
thmic
▁forskolin
▁SUP
▁dismutase
▁thems
rof
▁quin
chond
▁autoradi
▁agglutinin
▁RV
▁resuscitation
effectiveness
▁ure
▁Hyper
▁45
▁hemo
▁ascorb
uccessful
erin
▁neurologic
▁Estrogen
▁(20
onol
▁tracers
▁hern
avail
▁kD
▁neoadjuvant
nowled
adder
cells
feren
▁STI
▁rehabilitation
lore
oplasmic
5-
ussion
ivary
▁emerg
4%)
▁lipid
▁IB
▁phospholipase
▁ethanol
▁elic
LH
▁implicate
selec
▁elu
ostasis
▁AMI
ensitization
▁perfusion
jun
▁evolving
▁potency
▁cervical
▁PID
angl
▁antero
▁peroxidase
▁surfactant
glucose
▁expiratory
herence
rotid
▁allergen
▁antibiotics
▁restor
▁glycaemic
▁adenylate
▁magnesium
▁systemic
▁poten
urane
▁tert
mediated
enkephalin
▁Bec
▁islet
▁0.0001).
otypic
▁glands
▁percutaneous
▁4.3
tively
▁600
▁influenz
0.0
hydr
55
▁follicular
arterial
▁epithel
ellosis
▁subsets
UF
lobulin
erox
▁24-
▁smokers
:1
ucose
▁63
▁compe
thyl
▁illustrate
▁197
▁leuk
achid
▁lact
iferation
▁solub
▁indeterminate
▁hapl
operative
romy
▁postmenopausal
5%
▁(3
▁immunomod
activating
▁epinephrine
▁jejun
▁disparity
▁microsp
▁headache
▁epidemic
▁focal
▁bronchi
▁nonspecific
▁0.15
▁dilution
thyroid
diabetic
▁collagen
▁wee
▁Plas
GH
▁triglycerides
▁trigg
-1
▁degradation
▁(16
▁positioning
▁inherent
dose
iability
▁Leu
▁vaginal
▁infusion
▁suppressor
▁ascer
▁diaphragm
▁Compared
▁morphine
▁clonal
▁extracts
▁deterioration
▁overdose
▁endarterectomy
rosemide
▁Strep
urrent
▁proct
▁stimulate
trical
▁elucidate
oneph
▁catheters
▁65%
ithin
▁converting
▁acute
16
tocin
▁surgeons
▁monkeys
cored
itone
ullary
pine
▁feasible
▁intensive
clim
KD
angi
▁peptides
▁assays
▁empirically
▁12-
orphin
▁subjective
▁hormone
▁fibronectin
▁evaluating
▁discern
uvant
▁ventric
▁gels
32
yridine
▁obstruction
ofl
▁catab
odic
▁18
▁histology
orphic
tinguish
▁socioeconomic
▁tubulin
▁decarbox
3-
▁mucos
ocul
ropriately
invasive
▁CTL
ometr
▁juven
▁intercellular
LV
eration
▁5%
phosphon
opathic
▁transduction
▁shorten
arean
lob
transplantation
activated
lycemia
▁multifactorial
▁65
Ig
tun
▁vaccination
ropathy
-[
aluation
▁targe
▁inadequate
▁deficits
▁genetically
▁Stroke
▁pathologists
dimethyl
▁heterogeneity
▁radiol
▁exacerb
▁postoperatively
▁PRL
lux
▁divalent
▁SGA
1,
olec
▁prednisone
▁RS
uin
phadex
▁hepatitis
▁ACTH
▁drin
▁intermittent
90
▁organs
▁NSC
▁radiograph
rength
▁exogenous
amethasone
49
IDDM
leukin
orbent
▁endoplasmic
▁geriatric
▁reductase
▁gonad
diol
ilated
teroids
muscular
▁mitochondrial
kephalin
ANP
▁regulated
angli
ostatin
▁practiced
▁preoperatively
▁tubular
ifferenti
▁gradi
▁(5-
▁receptors
▁1.6
000.
▁Animals
cutaneous
▁tracer
dimer
▁6.8
terl
azole
▁basolateral
▁symptomatic
▁prostatectomy
onad
otent
▁cysts
rested
methionine
▁PET
▁proteins
▁fluores
▁gestational
▁preferentially
timulation
▁pathologies
ognitive
▁assemb
▁subjected
▁regulating
+)-
tradiol
▁immobilized
zard
▁acco
▁300
▁carbohydrate
▁hemisphere
owever
Tu
tension
chym
mature
BW
▁alph
▁atmospheric
▁expon
▁innervation
▁SEM
ypical
brids
▁macrophages
▁embryonic
ozo
▁40%,
cents
onography
▁6)
KA
▁exhibited
trates
▁hu
olecular
▁Severe
▁prudent
kDa
▁glycoprotein
▁trac
▁repetitive
dehyde
▁1988
▁hypothyroid
2)
▁stimulated
oxide
edded
▁radiographic
tact
oxane
▁ventil
▁comprehen
▁postoperative
▁obese
▁electrodes
▁insensitive
▁preincubation
▁cen
▁investigating
▁demonstration
31
jejun
▁attenuation
ithms
▁preferential
namic
▁resusc
▁EBV
▁intron
ritish
ipar
▁entero
▁Experim
▁chemot
▁sucrose
▁modulated
▁ascertained
▁histidine
▁evol
ifugation
▁atheros
▁(30
▁depar
loxacin
▁duplic
▁injections
terologous
educed
onance
▁multiv
▁HRP
tach
▁sperm
▁gluc
▁utilization
ancement
30
▁poorer
ADP
resistant
▁5.4
▁overd
ondral
▁ech
(5
ranged
omatous
▁SBA
▁duodenal
▁predic
appropriate
▁mmol
▁4-
grees
inear
▁postnatal
maximal
rogenase
▁immunosorbent
acet
estive
▁chromosome
▁interleukin
lymph
sions
▁polymorph
reased
erebral
▁IIb
▁chlor
omatic
▁hypothe
▁consangu
ogenic
▁keratin
▁analogue
bearing
▁25-
▁peroneal
▁cerebrovascular
▁insuff
leucine
▁adhesion
▁phy
▁ammonium
leb
Ts
Mg
▁offspring
▁livers
▁undetectable
igel
▁mammalian
▁glutathione
▁referral
jec
olated
▁vasoactive
▁lymphoma
▁ventricular
▁embryos
oty
▁.00
rates
ulph
orrhagic
rosine
▁EF
▁quantitatively
▁resto
▁beats
▁bac
CoA
linolenic
vity
▁effector
▁oils
▁paradig
▁diame
▁capillaries
▁dialysis
23187
zation
▁depr
tected
traction
qui
otom
inephrine
▁occl
▁conservatively
▁cessation
▁modulates
▁uni
▁80
ffer
▁plasm
▁LH
▁antiarrhythmic
sors
▁outward
viral
rease
CSF
21
+]
▁steroidal
▁NGF
▁supplemented
▁calcified
▁ATP
▁13-
▁lowering
ulting
▁homology
▁compressed
▁mutation
ophys
▁discom
▁anastomotic
▁hemoglobin
▁PTC
inally
▁supple
▁disulf
▁Americ
▁proteoglyc
▁(6
▁(2
▁NN
▁Elec
treated
▁granulocytes
▁27
▁alveolar
▁Magnetic
▁ori
taz
olateral
▁algor
▁microsomes
urine
▁+/-
carb
▁follicles
▁lavage
▁Subjec
ritin
▁anat
detected
▁substitutions
iotic
▁differentiation
▁immunore
▁phosphatidyl
▁expres
▁anatomical
67
▁anae
▁Exposure
relevant
.2
▁sediment
5%)
operox
▁gradients
▁comple
vely
▁thromboemb
▁43
▁individualized
▁RM
▁reacted
▁20.
▁leuc
acrine
▁cancellous
▁alanine
▁cultured
▁immunoprecipit
ohy
lecting
▁nm
▁sclerosis
▁beha
▁splenic
00
onate
▁omitted
ylated
▁regis
▁seizure
ipolar
▁ureth
idate
▁Alternative
trover
▁centrifugation
ovascular
▁Operative
▁hepatoma
▁9-
▁presumed
▁plaque
▁3.2
▁advisable
▁antagon
NAc
tice
▁(1)
▁molecule
▁GH
trex
ophore
▁proliferation
tine
▁labelling
▁Lys
▁mutagen
▁striatum
▁Cells
▁bic
▁HL
▁0.00
▁adjuvant
▁surrog
▁ageing
▁intrinsic
▁rigor
▁pylori
itant
▁rese
▁anesthe
CBF
ygous
▁nicotine
APC
▁pharmacokine
acr
▁Regarding
▁thymidine
zole
▁noc
tability
irradi
incidence
▁1)
▁cerebellar
▁stromal
▁bene
atinine
▁inactivation
roprus
teral
▁15-
▁disappearance
▁derivatives
cephal
▁splen
▁heavier
EG
▁obser
▁6
fib
riched
▁indications
eminal
▁therapies
retin
▁reac
▁hemorrh
▁activator
▁kidne
▁cAMP
oea
ositol
ervical
-2)
VH
▁inactive
▁Mothers
ylcholine
▁potentials
▁accel
oxif
vul
arginine
▁autoantibodies
▁phenomena
▁allevi
ygdal
▁thickening
hydroxyp
umably
piration
ensities
eroxide
3%)
▁unlabeled
▁palp
▁flexion
▁32%
▁199
▁esophag
▁tachycardia
▁ganglion
▁annulus
▁adrenal
▁synerg
ylation
▁hypothesized
tory
▁gp
▁inoculation
etus
▁fluoride
antigen
▁stimul
▁Whereas
▁1,
▁assessed
pinal
▁shig
▁ile
nai
▁CK
amicin
sies
▁naltrexone
▁saline
carbox
▁acceptor
▁endoscop
adily
▁cloning
▁bilayer
▁(17
▁unilateral
clerosis
ifferentiated
▁tethered
othermic
ronectin
trus
▁99
▁arthritis
▁Ket
ysm
▁amin
▁inability
astolic
▁ionic
gans
odynamic
▁hyperplasia
▁audi
▁Sertoli
▁addi
resist
▁Biochem
-5
▁5'-
▁Addition
▁Radi
cein
▁familial
otential
Tyr
▁recess
▁divertic
-1)
ureth
▁polypeptides
encephal
mur
▁succinate
onuclease
19-9
▁kinetic
aminop
nucle
]-
▁tubule
ecan
gents
omycin
▁advan
▁100%
8)
▁eliciting
▁5)
▁allograft
▁Inhibition
▁epit
▁cereb
▁gamma
ffinity
▁Tc
▁drainage
NB
▁fatty
▁biosynthe
▁PGF
sectional
▁etiology
▁immunological
▁leu
gely
ucle
tage
▁direc
scherichia
▁plantar
ovir
acclim
▁underline
▁advancement
69
immuno
▁complementary
▁carbohyd
▁transverse
▁1987
▁CRP
▁PCOS
▁prevalence
▁mononuclear
thi
▁reflecting
▁reductions
2%)
plantation
oxin
atectomy
▁endometr
duce
▁contral
▁morbidity
▁(19
▁fati
▁catheter
▁intermedi
▁contracep
aterally
▁Obese
oside
▁analyses
ortic
▁lymphocyte
urally
himbine
▁BAL
▁saliva
▁ribosomal
▁0.05).
ardia
opressin
▁synovitis
gment
▁aor
▁cranial
kinase
ocyan
admium
▁phag
▁differentiated
▁1:
▁pathology
▁pups
▁pineal
▁tumours
▁linole
▁generalized
▁mutant
onine
▁dosing
▁SLE
orac
▁conserved
bred
Pa
▁lec
▁accumulate
utaneous
ncy
otting
▁subcutaneous
ximide
ivariate
▁contractile
▁PTCA
transformed
oprol
elves
embran
omies
▁prophylaxis
hap
osom
▁hazards
▁ethyl
▁LD
▁autonomic
▁TS
▁antigens
▁hippocampal
anuary
▁Tyr
▁PCT
▁degraded
▁pharmacokinetic
▁CHO
▁mitogen
▁74
▁ips
▁acceleration
▁stellate
▁nicot
tak
▁Effec
▁residues
otri
natal
MRI
▁chronically
▁GI
▁cellular
dU
till
▁Ia
▁precursor
▁schizophren
restingly
▁reimplantation
icep
0.5
▁Findings
▁mec
▁exce
▁twitch
▁allogeneic
▁tracheal
▁LT
▁volumetric
▁cue
▁198
▁NK
▁aeros
▁tympanic
▁pyruvate
▁lectin
▁RNase
hort
▁20-
legia
▁receptive
▁documenting
▁oss
centr
▁exis
fat
adication
omyel
▁endothelin
oretic
▁linkage
▁platelets
tual
▁intramuscular
▁grafting
otre
▁haem
▁anesthetic
▁7
phyloc
▁necrosis
-15
ulcer
▁phosphodies
▁spermatozoa
5,
▁illustrates
▁immuno
▁physi
▁refrac
▁anastomosis
▁88
ults
▁105
ulant
vail
olism
▁hypoglycaemia
tate
▁inducer
veolar
▁pharmac
▁dib
▁currents
▁VE
▁endocrine
sorption
okine
▁overlaps
▁counteract
▁implanted
truction
▁glycogen
▁dissection
▁Trial
▁projec
▁rhe
rangement
▁bundles
odynam
-1-
evaluated
irc
timal
rospinal
▁1.4
▁cruc
sible
▁1.9
▁1,25
anine
▁radioactivity
ventricular
▁murine
ayers
▁0.6
▁Hz
▁metoclopramide
▁granule
▁NMR
▁1-2
▁tomography
▁definite
fal
▁amylase
▁HN
▁striated
arbonate
▁3.9
▁TK
▁progression
▁frac
▁poin
erate
▁tubules
▁proximal
▁pediatrics
86
posure
▁fertil
▁50%
oxid
▁180
ichia
▁allele
prepared
▁emphasizes
▁adhering
gnetic
cence
acchar
▁NADH
▁7.0
▁libr
▁Surgery
imination
▁fibroblasts
▁cholinergic
▁transcriptional
oconstric
▁consol
▁donors
▁collateral
▁incorporation
▁LTB
4+
ventive
▁frog
▁acad
▁ETS
osomal
activation
ocompatibility
▁stric
▁hemat
▁immunoprec
▁termed
▁inhibited
iplin
onuclear
operoxidase
▁globulin
tel
▁globally
▁(15
▁glycol
▁5,
▁ischemia
▁ewes
immun
▁mortality
enon
genesis
associated
▁suspensions
ostom
▁labial
▁micros
▁Experiment
▁insufficient
▁0.001).
BK
cold
roprusside
▁nmol
ochemistry
brom
▁inhal
▁modality
▁objec
acetate
▁pituitary
▁alcoholic
▁1000
olis
▁immunoglobulin
▁bicarbonate
▁carc
▁triglycer
Tc
▁NPH
unctional
▁Chronic
injured
▁analges
▁hap
otor
▁infar
.4
▁anomalies
▁pancreatic
▁oxidized
▁phosphate
▁carotid
▁endos
ffs
▁aortic
▁electrophoresis
Cu
▁interferon
▁fluids
▁4.5
itin
ococcal
IH
aline
iae
atest
▁substrate
▁72
rever
▁(22
▁3.5
▁2,
▁disturbance
▁insec
▁discrimin
geneic
arous
▁aldosterone
▁adip
▁versa
▁sensory
▁autosomal
▁aspirin
▁tric
▁cortical
▁caud
utive
opres
▁spi
6,
▁amn
dine
▁correlate
1-
▁(0.5
▁distinctions
rhy
▁favorable
▁3.0
irub
erals
▁interpre
ternational
exis
▁supra
▁sciatic
ntolamine
venty
omial
ocrine
.1%
▁.05)
▁phagocy
lax
▁ect
▁epidemi
odialysis
▁disturbances
▁mediate
▁genomic
▁femur
ravid
ipid
▁filament
▁loosening
ducts
18
eces
▁adi
▁49
parative
▁APD
▁buccal
puts
▁respondents
▁salivary
▁infiltrative
-13
faction
peri
istrib
▁(21
▁RB
tiazem
▁cervix
▁arter
▁vancomycin
▁evoked
ospor
ilateral
abin
ficial
▁9
othel
▁pathologic
▁97
▁superoxide
▁subjec
▁randomized
-4-
▁DSM
▁clinically
▁induce
▁grafts
▁rIL
gthen
▁inhibin
urgically
70
▁PF
▁exposures
▁arti
anin
esthe
▁glycerol
▁Chest
mutant
roin
36
vertebral
arthritis
▁anaesthesia
oactive
eak
▁determinations
▁Doppler
▁pathological
dle
▁systolic
otides
adian
▁GSH
arcoma
▁HB
anese
▁leukotri
▁polymerase
▁hepat
carinic
▁prostatic
omical
▁glycos
ositi
mTc
▁stren
ducing
hepatic
▁OA
▁congen
▁severity
▁endpoints
▁connective
immunoreactive
ostic
ACS
▁PVR
acting
▁sensitized
▁gyn
▁spon
ochrome
▁fluorescence
opro
▁aggregation
▁Differen
erated
▁restenosis
▁caffeine
▁catecholamine
▁poorest
▁monolayers
▁orthopaedic
▁CPAP
mend
opa
▁coval
ecu
▁immunohist
▁coag
▁irradiated
▁erythrocytes
▁histological
ompan
0,
▁sphinc
affinity
▁phosphatase
▁autoradiography
aventricular
▁cleaved
openia
idin
▁carboxyl
▁Continued
▁hypers
▁proteinase
▁sarcoplasmic
andard
tectable
▁(0.0
endri
▁transcripts
asive
▁subgroups
▁reper
▁cros
▁twofold
▁oligonucle
▁amplification
okinetics
▁multim
▁3.3
conjug
▁transrectal
erad
hered
odon
▁forearm
tur
▁PSA
▁10(-4)
ceptual
▁preferen
quired
▁myocytes
urium
▁toxin
▁crystall
▁worsened
▁eosinophils
yloid
IgM
▁tissues
▁TAA
▁parame
▁BMI
▁sugges
▁remin
▁consultations
ologous
▁NB
▁extensor
hei
▁preliminary
▁gangli
▁enamel
ectomies
▁excitation
kines
infected
floxacin
95
omonas
▁analogous
adrenaline
▁neoplasm
▁IgE
▁pall
▁corne
-3-
▁eyelid
▁(200
tryp
incubation
PSP
▁bacterial
▁stained
▁judged
▁gluten
▁correlates
▁ventral
▁tubes
vant
▁ancestor
▁secreted
▁consequent
▁glycine
ococcus
stress
opoly
▁injec
utyryl
▁remo
▁ferritin
riamycin
▁causation
lobin
geons
4)
▁glucose
▁Tum
▁immunodef
▁gynec
▁reas
▁ejection
iably
esia
coun
affected
▁serine
▁omega
▁lesions
▁130
iosis
▁[3
ture
umulative
▁supine
▁rejection
▁microbiological
▁6-
ocele
▁DFS
▁motoneurons
tomy
ogra
dominal
▁distinctly
▁mammary
oic
▁electrocardi
▁immunologic
▁aggregates
▁GV
▁rostr
▁aort
▁undiagnosed
▁cystic
▁paralleled
▁supervision
▁TNF
mentation
▁reversible
▁hypog
▁tailored
▁neoplastic
▁adenine
terase
▁affinities
ineal
▁blockade
glyc
acyl
▁cannulae
▁specimens
▁mL
▁transient
▁implantation
uptake
▁hypothalamic
▁hyperg
▁attemp
▁amy
ctomy
rozen
PAP
▁inserts
▁3.7
▁adverse
▁unic
otin
▁adherent
▁TT
ilized
1.
ected
▁Mucosal
seal
▁oligo
▁vesti
versely
trop
urate
▁Vaccin
▁tidal
sAg
▁deple
▁vasodil
▁prosthe
▁spikes
▁proteolytic
▁nM
▁antic
▁62
▁heavi
▁pedigree
▁laboratories
thrombin
▁prazosin
▁bowel
▁hydrox
quine
ercul
▁unid
▁TP
▁persis
▁transplant
▁discriminative
0.
▁estradiol
▁inhibit
ymp
▁fibers
xual
▁ligands
▁nucleotide
ogenous
entists
▁LAK
acin
LF
mittent
▁pyro
▁resonance
functional
▁predictability
lac
▁Insulin
▁NP
▁Larger
▁parap
uppression
aluable
amuscular
▁22).
5)
▁inotropic
▁immunized
ucleation
▁93
▁pulses
mortality
▁androgen
▁MM
▁valu
galact
Dawley
genes
▁cadmium
eal
▁repor
ordance
▁integrating
ocrit
lep
Hb
▁phagocytic
▁intravenously
▁thrombolysis
▁fluor
▁PAN
▁inward
rane
thmatic
▁cardio
opoietic
▁fluorescent
▁bran
iotics
treatment
tructive
▁carcinoma
toxicity
▁unstable
uron
itus
▁inadequ
▁transported
▁erythroid
▁instrum
▁anatomy
ospitals
7)
▁exponential
▁wean
3).
▁spor
rocy
▁40
phosph
▁renin
▁fluoroquin
▁heterogene
▁cyclase
trypsin
▁uncomplicated
olesterol
▁microsomal
▁abor
▁abdominal
▁Golgi
▁assay
▁AGE
▁muta
▁variants
▁8,
▁attentional
▁depolarization
▁micron
phosphate
▁Histologic
scop
▁inactiv
ollicular
▁birthweight
ocarcinoma
acrylamide
▁athe
genic
(1
eptidase
▁thre
copic
etidine
▁velocities
drome
actin
▁inhibitory
nosis
elvic
idase
▁analogs
▁decreased
▁pren
▁95
▁cytosol
▁pathway
▁glutamine
azol
▁ppm
▁pter
ergy
▁GVHD
plastic
20
KI
▁poses
▁cerebrospinal
▁questionnaire
▁neutrophil
▁disruption
▁DST
▁tertiary
phos
iary
▁spindle
▁APC
▁cathe
▁hams
tering
thmias
▁adrenergic
ointing
88
itoneal
▁transmembrane
▁PMN
alp
rae
▁1/
▁neurotrans
▁conclusive
▁biochemical
olectomy
teric
amycin
▁similarities
▁juvenile
▁envelop
▁hypother
▁sequel
▁yiel
-3,
▁asthmatic
▁shif
▁prolif
▁enrolled
▁unde
AO
▁100-
▁toxicity
▁satis
17
CCT
▁monkey
idne
▁glyc
▁paren
▁techniqu
▁traumatic
-1).
▁spinal
lead
▁phospholip
▁erythrocy
▁kinetics
▁21
acil
▁Biochemical
▁3.4
▁subcellular
▁54
▁establ
scopy
phrag
▁(10(
▁empir
▁ery
▁4.1
7%
▁degrad
▁chromosomal
▁circumferen
▁alp
tamine
7,
125
▁Dil
▁impaired
onset
chloro
▁10(5)
FH
risk
▁implic
oceptor
▁muscul
lastoma
▁glomeruli
▁sampl
▁ruptured
▁nulliparous
▁Treatments
▁hemodialysis
arcin
olestero
▁galactose
▁exceeded
estion
▁Nine
▁pools
▁hep
▁phospholipid
▁120
▁Atropine
▁lipids
onary
▁cholecystectomy
▁(8
ronchial
ipr
▁1990
esic
▁recom
▁suppressed
tent
▁glomerular
▁herp
▁sca
▁electr
▁pneum
▁UTI
severe
hydrox
vitamin
▁projections
▁monoclonal
▁20%
▁(14
▁epithelial
▁incubated
▁antitumor
itamin
ifol
▁progn
▁intestine
▁Improvement
▁spectroscop
▁coex
▁synap
▁treadmill
▁conduc
cellulose
▁prostaglandin
▁phorbol
otoxic
8).
▁progres
▁Engl
▁geniculate
ystolic
▁routinely
▁Treatment
edle
▁potassium
▁concurrent
▁myocardi
▁transi
▁foci
utroph
itro
approximately
▁19
▁topical
▁lept
admill
▁surgically
lood
▁plaques
▁distal
▁previ
▁SHR
▁referrals
BH
anad
▁migrated
▁pregnancies
▁qualit
phorbol
endan
▁(54
▁lactate
▁resection
▁WK
▁smo
▁cytos
▁competi
itum
piratory
▁cleavage
▁deliveries
▁diets
▁ELISA
▁TB
▁highl
▁streptococcal
▁norepinephrine
▁soluble
▁epilep
▁produc
▁fibr
jective
aemia
tracellular
hemo
dg
iatum
▁optimizing
(2+)-
induced
▁AMP
▁interacted
▁homologous
▁aiming
▁analogues
▁vagin
▁cortisol
insulin
▁ow
▁sensorineural
▁amputation
▁70%
vic
dotoxin
▁1
▁prophylactic
▁blin
▁precedes
myc
romes
▁13
46
oplas
RH
ocyt
▁differing
▁malaria
.3
▁syndromes
▁decarboxylase
elong
quit
▁melatonin
▁retardation
growth
rele
ureus
evaluation
IGF
▁IHD
Cy
▁fibre
▁reproduc
saccharide
Ti
▁ANF
dic
▁clipping
▁induc
▁calf
phe
▁moles
tead
▁intrarenal
▁correlated
atories
▁cohorts
▁debr
▁undetected
▁Throm
Gly
▁congestive
ostat
▁messenger
▁glomerul
lec
▁clinician
lyc
crib
hemical
▁lis
▁somatic
ocarcin
▁discer
▁lamin
▁dimer
▁tryptophan
▁amyloidosis
▁ambulatory
toid
▁undergo
▁recr
▁linearly
▁bladder
▁monolayer
rophilic
otone
▁Percutaneous
37
anav
9).
▁Conversely
▁fractional
▁phenylephrine
▁42
bladder
▁AII
continu
▁gallst
rox
atent
gastric
siologic
▁syngeneic
▁1,000
linic
vements
▁migraine
▁substanti
▁contractility
cine
▁astrocy
ensitivity
▁suprap
▁Vmax
icine
▁-1
▁capped
-100
▁Stu
▁Respon
▁metabolite
tivation
turally
osocial
ulla
▁contrac
▁isometric
▁covalent
▁determinants
phasis
trous
apamil
▁Dopamine
▁depletion
▁inges
▁periodon
▁15,
