▁antigen
▁parag
▁rhy
▁proce
▁oes
▁immig
ticular
▁PRP
radi
monary
amus
▁amput
▁oxide
▁hydroly
▁diagnoses
▁microgram
▁complexes
▁longitudinal
▁cadaver
osts
▁cyclosporine
▁202
▁monit
▁uncontrolled
▁intragastric
sus
▁decreasing
▁patellar
▁enucleation
▁subgroup
▁MN
▁umb
▁glut
▁pigs
receptor
gesterone
▁reactivity
ophren
tive
▁infec
▁hypertensive
tif
crip
▁stillbirth
▁allergic
▁34
ochemical
osin
▁reagents
iotensin
▁intake
illus
▁recombin
razole
saturated
▁corneal
▁vesic
quid
▁Pretreatment
Ia
▁impair
▁dehydrogenase
keletal
-67
▁morphology
▁perone
▁episodic
▁metabolism
▁deli
78
▁CMV
▁circumference
▁unex
▁Comparison
▁elimination
▁purified
▁antec
▁mmHg
▁pedig
▁3)
▁inten
▁polyp
▁concom
79
ioid
tivity
▁needles
▁endogenous
▁predictors
▁lax
▁25
roma
erable
▁predictor
▁pS
▁improves
mental
.5
hyp
▁lymphadenectomy
▁Swed
▁cuff
▁foc
▁modif
▁PCP
▁psychiatric
Ds
nec
hydroxy
▁reflec
▁congenital
▁ulcer
▁methyl
+,
▁pigmented
▁intram
▁exchan
▁bronchial
▁consequently
▁synov
rants
elec
▁Emergency
2+
aryn
erb
uscular
▁efficacy
▁rigidity
▁selec
atine
aemic
▁AO
ervative
▁carriers
▁characterize
▁SNP
ylate
MN
▁Multiple
-6
▁transcrip
▁malignant
▁11,
▁TGF
▁deformity
oxidation
certain
▁glu
▁vulnerability
▁Hyp
▁appendicitis
▁IFN
orative
▁ischem
dent
▁undergone
▁occlusion
▁prenatal
▁resec
▁confound
idement
derived
▁subtype
▁VO
oung
▁Delayed
▁indi
▁melan
▁sequential
adequ
otox
▁undergoing
▁sulfate
▁coronal
▁studi
▁clus
nee
▁7.
▁LC
▁synchronous
▁estimating
oten
▁intra
▁IVF
▁equivocal
▁37
IIIa
ocular
▁biochemistry
▁MH
ulatory
▁wors
▁cla
▁decisive
▁insertions
▁dilated
▁inoc
birth
▁multivariate
▁requi
▁indicative
▁Alternatively
▁manifestations
▁alk
opia
▁deficiency
roximately
▁staining
enic
▁preterm
▁rabb
▁adenocarcinoma
▁homogeneous
-9
▁5-
▁ischemic
▁coexist
▁neutroph
lier
bic
dial
▁mumol
▁Surgical
▁TG
rosis
▁zinc
▁morb
▁Ara
▁graf
▁blot
▁tas
▁Paget
opulation
▁prel
▁suppression
▁distinguishing
▁lymphocytes
▁microscopy
edic
-0
omerular
▁discus
▁preclude
▁prostate
▁possi
▁attrib
FG
tabol
▁melanoma
▁regimen
hyd
▁musc
▁retrospective
opam
opramide
▁Continu
▁sympathetic
▁misleading
▁kDa
versus
▁RAR
odial
oxic
asal
▁cephal
▁microv
relations
xone
▁Prospective
hig
▁demonstrating
▁500
▁palli
▁1.
▁doses
oracic
▁exer
▁30
tional
▁31
perfusion
▁hernia
GV
▁homogeneity
ocamp
▁predicting
▁complication
atical
▁margins
▁modulate
omotor
▁polyps
▁resour
.9
▁0.2
▁fulf
▁tymp
▁desm
▁hemodynamics
▁vaccin
▁compli
▁premature
▁surgeon
xiety
iliac
-8
▁unrel
▁Tran
hers
aturation
▁tamoxifen
luc
▁Failure
▁undes
lateral
▁behavioral
▁ablation
oglobulin
▁neonatal
▁imaging
onyl
▁venti
▁discomfort
itoneum
weighted
▁substances
ctive
▁cis
ropriate
▁insufficiency
oglobin
▁stimulation
reness
▁athle
▁Concomitant
avage
▁MRI
toc
asses
▁contraction
▁lithotripsy
▁aneurysm
▁atten
▁tran
▁causative
▁prescrib
▁markers
▁clon
▁microb
stimulated
▁overex
▁myel
ibi
▁21-
▁GBS
contrast
▁HG
▁atherosclerosis
▁PEG
▁cutaneous
urther
▁Comparisons
▁evacuation
▁ambient
ulae
▁clones
atient
cious
▁irradi
▁anomal
▁erg
▁fatality
zyme
▁lumbar
ximal
▁reperfusion
▁perox
▁quantitative
luent
ubted
▁inhibition
▁cytochrome
▁coronary
tebral
ints
▁biopsy
1).
iasis
ycin
▁mucosa
57
▁inflammation
▁identifies
▁90
▁esophageal
TB
▁acids
▁fixation
taken
▁physiological
oscop
tized
terminal
erance
totic
▁subsp
rectomy
▁leukocyte
earance
economic
gmental
▁chec
▁gad
ilical
▁10(
▁calcification
▁RH
▁undertaken
▁hypertro
▁immature
▁Pregnancy
▁propor
▁microM
▁PCR
▁saliv
▁kerat
▁ventilatory
▁summ
gression
▁overlying
▁adjustments
▁monitored
▁rabbits
embr
-9,
▁initiation
▁tyrosine
▁decreas
▁vivo
▁pyram
rents
ylase
tical
▁COS
sia
ffec
orepinephrine
lesion
urrence
▁heparin
▁eyel
▁amyloid
▁ovari
▁unrelated
▁Intravenous
▁serum
uran
intestinal
atid
▁agonist
▁epithelium
▁chewing
▁provocation
▁perme
eric
▁subc
odil
▁adap
▁distrib
▁chromat
rogenic
▁substituted
erations
tance
▁intravenous
▁(9
▁socio
▁shortened
▁cardiac
▁Acute
transferase
opausal
▁CAM
ustained
entral
▁peri
▁mutants
▁deformities
▁criter
▁enhancing
astatic
▁Intra
▁muc
▁pharmacists
Ra
tration
▁perinatal
▁eluc
▁coel
▁skeletal
ectable
▁hormonal
▁coli
▁curative
▁phenotype
▁50
fected
ceptive
tic
▁overestimated
▁thoracic
▁pharmacological
▁stratification
▁herpes
▁2.5
▁irradiation
tig
▁rabbit
ariate
▁adequ
▁comparisons
▁influenza
▁overlapping
acerb
tagland
tant
tric
▁PGE
▁cyclic
▁recor
uterine
▁ICS
tion
▁unres
▁rCBF
▁incubation
▁pyramidal
▁ASA
▁intrav
▁mellitus
▁porcine
/2
▁iso
▁GE
▁unresectable
▁examin
▁metabol
adrenoceptor
essive
▁viral
stim
▁traum
▁appropriately
oxia
gative
▁lith
▁39
antial
▁thym
▁sero
▁sedentary
▁ach
0%)
▁compartment
▁contamin
6.
▁100
▁cigarettes
▁canc
▁recessive
amide
lated
clin
/1
urethral
regn
▁provid
▁chloride
▁potenti
lapping
▁HI
▁implicated
aptic
.8
eared
alian
▁eosin
ocytic
▁enl
▁regar
esity
▁locus
▁aerob
▁cardiovascular
▁(0.
▁opioid
▁pneumon
▁prescribing
▁umbilical
▁Ig
▁mice
▁atresia
▁trophob
helin
000
rophyl
tained
▁chan
▁dysfunction
▁Cox
▁HCC
opsy
▁ane
%).
▁memb
▁chloro
▁tox
WB
▁hormones
hern
.0
▁defic
▁Ear
▁dehyd
▁follic
▁metabolites
▁antegrade
▁contralateral
rehen
ffin
pinephrine
▁apop
estim
▁axillary
odium
▁uncom
otrop
urred
▁polymorphism
pH
▁38
urys
tially
occal
diagnosed
▁79%
▁fractions
seud
▁chond
▁hospitalization
▁placebo
▁colloid
▁(10
▁intercostal
▁ana
▁thyroid
idis
onit
ociation
esting
▁variability
idine
▁aden
▁prospectively
▁mucosal
▁chor
▁ovarian
▁inhibitors
▁rigorous
din
utions
▁coincidence
wenty
▁mM
irrh
▁leakage
udin
employ
▁tiss
▁vitro
▁subun
▁assessing
▁repres
▁vomiting
▁conjug
▁Greater
uted
ignant
tures
0-
ontal
▁symptom
SCC
responding
▁gastric
▁acetab
▁nosocomial
cad
84
▁rats
▁basal
tility
▁enzym
▁poisoning
▁(1
▁constitutes
▁genic
ropha
▁perin
estig
▁hazard
▁acet
▁reagent
▁occlusal
trexone
▁FV
▁synovial
elan
onium
▁regimens
ohyd
▁Phe
9)
▁cirrhotic
.1
▁0
▁granul
▁DN
positive
▁bip
responders
illary
▁histopathology
▁secretory
wk
▁reproducibility
vascular
ancre
▁0.3
▁cyst
▁Neurop
▁responsiveness
▁sequentially
▁organisms
HM
1)
▁OC
▁undoubtedly
▁GER
▁turnover
▁biopsies
▁contributes
olones
▁sacr
▁cortic
scher
fos
▁(3)
adherent
▁embry
▁displacement
▁autoimmune
generation
tyl
.8%
▁strom
oscopy
53
▁depic
▁echocardi
ophag
lasting
tation
enzymatic
thma
▁inh
▁gout
▁stimulus
▁adhesions
▁sensi
(+)-
ocardi
CRP
atheter
▁consecu
▁perfor
▁FD
▁maternal
▁appreciably
▁supplementation
▁simult
lowering
▁subunits
▁GABA
▁merits
illic
▁immunos
▁SCH
mL
▁2)
▁contaminated
enin
▁fractures
▁osteoporotic
▁operative
edullary
▁bloc
▁adhere
▁metastases
15
▁pathogenesis
bumin
▁empirical
▁isch
▁bypass
taining
▁newborns
▁theore
▁Alter
▁pulmonary
sial
rotein
osomes
▁gallstones
▁2.
▁abolished
%),
clo
▁fetal
▁hippocamp
▁20
ofol
▁intest
3)
▁scintigraphy
▁microc
▁ECG
,000
nthe
▁HCMV
25
▁specialty
▁fragility
▁vitamins
acial
▁80-
▁progest
▁unsuccessful
▁steroid
▁esophagitis
lastic
estions
▁antagonists
▁relapse
▁pyr
▁Therapeutic
gia
▁grading
ituitary
menopausal
▁parotid
increased
▁implant
▁fibrin
▁psychosocial
▁correcting
urgery
graftment
▁systematically
eptides
▁Vitamin
▁physicians
tus
▁encoun
▁ultras
▁pylorus
itudinal
▁fetus
▁metastasis
heum
estis
hep
▁regression
▁differenti
▁concentrations
ographically
5.
carcin
▁renal
▁VS
▁Thromb
luores
opha
▁derangement
▁stu
TNF
▁tris
▁iatrogenic
▁hypoth
▁bipolar
threatening
▁elevated
▁underg
▁IH
▁morphologic
rins
▁NH
HF
▁injur
▁Adverse
0%
▁increas
▁connec
pendent
idation
▁derange
▁micrograms
▁pH
amn
tensive
▁chemotherapy
▁sti
▁torsion
atial
6%
▁laparotomy
▁agonists
▁Escherichia
▁rati
'-
erine
moid
▁cholest
either
▁OT
imin
orpor
▁ACE
▁FSH
▁chemotactic
ocytes
▁nec
4-
▁moderately
▁dentists
tub
▁1.0
▁benign
etal
eptin
▁Patient
▁cocaine
▁sphincter
osal
2,
▁32
tured
▁posi
olol
▁awa
▁speculated
athyroid
▁scin
rogra
osine
▁33
▁vasomotor
astom
Phe
▁thromb
lycer
FU
▁cardiomy
▁hypox
▁scans
heal
roxim
▁progestin
▁underst
▁Phen
▁Muc
ithiasis
▁affec
▁31-
▁hemodynamic
glut
ostal
otomies
▁uptake
▁benz
▁preventive
icin
ocusing
▁femoral
▁nal
▁numb
athy
▁unclear
▁cann
6)
oplasty
▁elevation
▁sepsis
olytic
▁ration
mig
▁experim
amate
▁consolidation
▁outpatient
▁normo
▁Medicare
▁crest
▁disapp
▁testicular
▁angiography
▁preservation
▁resear
▁radiotherapy
▁1.5
8,
atonin
oplastic
oplast
▁differentially
▁swelling
▁reliably
▁transfusion
34
▁predictive
▁occupational
▁adaptive
ethyl
▁discontinued
phen
▁epileptic
▁investigations
▁ALT
▁150
osynthe
graft
▁carbohydrates
▁sph
MH
▁surgical
dor
retro
▁detectable
10
▁BD
▁hetero
onor
▁36
venth
iatric
▁malign
22
▁selectively
▁alteration
▁thresholds
BV
oride
▁persist
alsy
▁pretreatment
▁subunit
▁adequately
idney
▁questionnai
pation
▁2-
▁HCM
▁0.001)
75
▁auditory
ygen
▁discusses
▁testosterone
▁ascertain
▁disks
▁irritation
▁polypeptide
rene
▁hepatocytes
▁antibiotic
▁mitral
agin
rophy
vents
▁ESR
▁concurrently
oradi
▁gland
▁scanning
▁membranes
▁prospective
MV
isture
▁airway
2+]
onucle
▁Contr
-2
▁circumferential
▁pla
19
sive
▁MCP
▁extracellular
▁ADH
▁HSV
▁valve
▁eosinophilic
ophil
▁epiderm
▁hypothyroidism
▁marrow
▁UT
▁19%
▁40%
▁hepatic
ithm
▁Hg
▁relap
▁acqui
entif
▁infants
▁pelvis
ubtedly
▁ester
EGF
23
▁antagonist
minal
▁facilit
ithi
▁0.5
▁adjunct
▁tumour
▁tach
▁spati
▁ultrasonography
▁pyl
loid
apeutic
▁questionnaires
ece
▁histologic
▁onc
eded
armac
▁rectal
▁mitochondr
▁FS
orption
▁identically
▁strains
atab
ught
ivocal
▁bilateral
▁mediated
venous
ventional
▁examinations
▁superficial
cture
▁manu
▁cholestasis
▁infil
arate
27
▁uter
mixed
4,
▁PEEP
▁ae
ostomy
roph
resting
assi
▁Samples
▁NPC
▁coeliac
mide
▁hospitalized
▁detrimental
▁splenectomy
▁spleen
▁dexamethasone
▁1.7
▁definitive
▁endemic
rone
▁LV
tection
▁detec
▁kidney
▁pathways
▁Cyt
▁testis
▁pathogen
1),
othelial
▁physiology
ighted
▁repaired
CMV
erican
▁underlie
▁metastatic
▁inheritance
ogens
▁vagal
acted
▁chemo
▁MRC
ths
▁Accordingly
▁amo
▁correlations
▁shor
▁monke
▁therapeutic
▁gallbladder
▁regulate
▁sequelae
hips
▁24
ologic
-10
tial
▁accumulation
▁reproducible
▁caregi
▁scl
▁predicts
osome
ondr
uble
▁colonoscopy
9,
▁CSA
▁Increas
▁induction
fine
▁complications
operatively
▁nucleus
48
9%
▁genotypes
▁60
▁excision
▁diabe
▁markedly
▁vitamin
▁latency
▁statistically
iatic
▁cate
▁amp
▁contex
▁parental
olarization
▁vena
▁retur
▁endoscopic
▁sarc
▁compart
▁haemorrh
▁cohort
orphism
truc
▁synthesis
iferol
▁iliac
▁polymer
cardi
▁modestly
▁oxy
diagn
▁followup
▁dislocation
▁UL
▁0.0
▁BP
SPECT
▁57
valent
▁abdomen
▁16
▁4.
▁resol
▁chorio
▁0.4
henyl
▁PAS
▁External
▁perceptions
licular
▁cardi
▁inapp
urgical
erper
resses
valence
▁symp
▁MG
ourable
OH
▁adop
ressive
▁hybridization
4.
trum
cysteine
▁myo
▁infiltration
▁0.8
pies
▁microm
▁gastro
▁exacerbations
▁prevalent
▁nutritional
▁collec
▁cytotox
▁physici
ochondr
discharge
▁albumin
otoxin
▁diabetic
inemia
▁acidosis
1-3
gluc
▁LS
orectal
pT
comitant
labeled
fusion
OA
▁actin
▁prol
▁prophyl
▁hepar
▁biom
NH
▁0.7
▁diffic
gulation
▁VD
▁pharmacy
▁Chemical
▁staging
clinical
▁redund
▁Systolic
▁promo
▁AE
▁thir
entan
▁intrac
dia
odal
lys
ergic
▁palliative
Ka
derly
entical
▁RNA
▁behavioural
65
▁pelvic
▁mitochondria
lix
▁radiography
▁mRNA
▁metastas
vival
fec
▁pneumonia
▁Chan
76
▁conceptual
erative
tib
assay
▁endot
sych
▁23
▁vesicles
▁HPV
▁repro
▁15
▁cardiomyopathy
▁obesity
▁angi
.7
▁Significant
tin
spective
ochem
ecre
▁CABG
ipient
▁1.6%
▁fentanyl
stolic
▁neurolog
8.
leu
osition
▁tib
▁antiser
▁apo
otomy
-3
trac
itic
tors
▁thrombo
▁neurological
tens
▁Alcohol
▁ventilation
▁synthe
▁anticoag
▁coh
hospital
gesia
▁elec
▁exo
tral
▁17
ewish
▁gangl
ometrial
veness
anic
kele
▁5.
lyce
▁assis
▁Medicaid
itively
▁molec
TK
▁prostagland
DNA
▁adhesive
occi
vation
▁LOS
HB
ogenesis
crimin
▁bir
▁dorsal
▁PB
uccess
▁dietary
▁placenta
▁abolishes
▁deem
▁infarction
siological
▁adherence
▁exten
immune
mediately
▁pT
▁recurrence
gm
▁assurance
▁discon
▁receptor
2%
▁48
phosphonate
cele
atural
occus
▁cava
▁attenu
ropine
60
▁nitro
▁segmental
▁pancreatitis
▁discharge
▁membran
tality
▁topographic
ivation
ergency
▁platelet
emia
▁adenosine
▁apex
amino
LN
chol
ocar
▁oste
▁inhibitor
▁hCG
▁labeling
RNA
▁fri
▁homogene
▁dete
▁prognostic
▁counseling
54
erop
epti
ineph
▁tryp
▁FH
ylchol
▁0.01)
▁compartments
▁substrates
AIDS
▁Kupffer
▁enlarged
▁visually
▁nasal
siveness
▁verteb
▁colorectal
umulation
▁RBC
onatal
▁substitution
▁IgG
▁Plasma
▁MV
▁preferable
81
▁peptide
▁usefulness
▁0.
▁alterations
▁Taken
inic
▁interventions
▁defec
▁scre
▁respec
▁3-
▁neuronal
▁HU
▁residency
▁remission
formin
phth
.6
trogen
▁bronch
essel
inj
▁alve
vac
athetic
13
▁carcinogens
4%
▁cataly
▁incub
▁guinea
▁edema
▁nonc
▁rebound
▁preparations
aturated
▁septum
▁manipulations
plas
▁adolescent
▁suppressing
▁confir
▁allo
▁heterogeneous
▁paradigm
▁hygi
▁lumb
▁dex
▁venous
attern
▁reticul
▁EMS
11
▁biop
athe
▁lobectomy
thre
igaret
▁susceptibility
▁underestimated
reast
▁warr
▁cyt
▁fas
▁suture
▁perce
uncture
omedullary
▁subtraction
▁deprivation
immunization
▁sulf
helial
▁silicone
.2%).
ociated
▁IBD
▁favourable
▁Vac
geal
aryngeal
ectom
▁unexplained
▁membrane
▁quanti
▁retic
▁adminis
isqu
oresis
itance
▁unchanged
▁toge
▁sev
▁GFR
Hu
▁elimin
sian
▁enteral
▁identif
▁specificity
ognition
gic
▁substitu
▁4
▁aspiration
-2-
▁anticoagulation
▁excimer
consuming
▁latent
▁urine
▁ceased
imens
thle
phal
alues
▁0.000
ilization
blast
▁measurable
opi
▁phosphorylation
▁neurons
▁minimally
▁atrial
▁demonstrates
hesive
▁pathologically
▁polym
▁minerals
▁neurop
▁myoepithelial
▁validity
tiv
▁14
80
regulated
HN
▁propensity
▁neph
▁RP
▁intrauterine
▁restric
▁incidence
▁cytotoxic
▁workload
▁osteoporosis
oprotein
▁metabolic
▁onset
▁Ras
▁unexpl
▁MHC
▁oxidation
▁HLA
helium
▁amyl
reatine
▁atrophy
▁exclusion
▁ocul
otropic
lycerol
▁diluted
minis
▁melanomas
▁trophoblastic
▁seizures
Ly
gments
▁vaccines
▁Increased
▁lys
years
erving
atoid
▁schizophrenia
Gi
-1.
▁WHO
▁sedation
tabl
titu
▁underwent
▁amines
▁electroph
otide
▁10%
▁recons
ovine
▁respiratory
esti
oclonal
▁5
1-2
arer
anol
-7
versity
▁warranted
astric
▁develops
oleic
ailure
spectively
▁trough
race
▁lesion
▁sodium
▁laparoscopic
TG
▁pediatric
eclampsia
▁macrophage
▁reag
▁microscop
▁oxygenation
amet
▁ultrasound
▁adolescence
uality
oscopic
facial
▁consis
▁equilibr
▁overweight
▁endothelial
lysis
▁10.
▁gait
econd
▁promoter
▁coexistence
▁IU
romed
▁acupuncture
Fs
odies
▁fracture
bacco
▁silic
ximum
ods
▁Pregn
▁opi
aceous
▁OSA
▁HS
▁estrogen
▁sulfonyl
ocardial
▁tonsil
duction
implantation
▁creatine
▁periodontal
genital
onc
▁pulmon
vating
▁macropha
-1,
▁3
asone
▁endoscopy
Tn
▁abnormal
ronch
jug
containing
▁mandibular
rine
▁sten
▁laparoscopy
▁(2)
▁feasibility
6-
unctions
responder
filtration
▁multic
sion
▁cochlear
▁26
▁perc
▁eryth
▁DG
▁occurrence
▁abd
▁comparative
aminated
entanyl
▁PCO
▁pate
lective
ilibr
▁ligand
▁statis
▁diminished
▁putative
▁fibrob
▁sple
▁concordance
▁85
▁paraventricular
▁peripheral
▁SG
▁errone
▁tuber
▁pleomorphic
ilic
▁facilitated
ritis
▁-0.5
▁reduc
▁clinicians
▁adhe
oskeletal
▁evid
▁calcium
▁cyclo
▁cDNA
▁disparate
stem
erent
▁IGF
raine
▁(5
yro
▁arteries
stro
▁Effective
omized
pecially
osterone
▁hypothal
tum
prising
▁tol
▁tet
oglyc
▁125
▁sut
inol
alact
▁79
▁withdrawn
▁inpatient
▁hydrolysis
atients
▁indetermin
▁inappropriate
▁rheumatoid
▁thromboembolic
echn
▁screened
▁Steady
▁noncom
▁manifestation
▁peptic
▁gon
▁buc
▁75
omiting
▁2
▁nig
▁palpation
▁Asp
▁excre
▁inflammatory
1%
▁microvascular
▁8
ameth
▁complemented
▁cytoplasmic
▁Mg
▁precur
▁35
▁assessments
controlled
▁ultim
yel
▁ranged
▁vascular
▁cys
▁throm
▁Rout
▁Contrary
▁rash
▁ketamine
▁exercised
bly
▁Physicians
▁genotype
tec
▁limb
orotic
umbar
▁predominantly
▁simultaneous
▁antibody
▁resul
▁histamine
ortal
gth
▁satur
▁adolescents
▁circulating
atrial
▁immunode
ATPase
▁cyto
▁pressures
kade
▁communic
ectomy
.2%)
▁milieu
▁mediation
▁removes
vated
▁synthesized
▁adenomas
▁haemorrhage
▁Bone
lectomy
▁Clinical
trip
▁lipoprotein
▁8.
▁Preoperative
▁diastolic
▁mell
▁debridement
ignific
▁EGF
▁intervertebral
tolerated
▁atmosp
▁polyethylene
otassium
▁sickness
▁preoperative
▁enrol
▁inver
ivoc
▁intracellular
ameter
▁acyclovir
orbol
▁mono
12.
▁compounds
▁VL
LB
▁disadvantages
▁LDL
phyl
tis
phic
adrenergic
anish
▁causal
▁practitioners
agal
▁metformin
▁streptococci
▁administered
▁quantit
neumon
▁saturated
lusion
▁hypot
▁localized
▁retin
▁10
▁epi
▁asthma
IU
▁eradication
hemia
▁pulp
ATP
▁fragile
▁cerv
▁heparinized
▁pati
vice
▁anastom
▁chloroquine
▁abnormalities
rophob
▁stimuli
▁diagnose
went
▁initiating
▁palsy
ynthe
▁molecules
▁confined
hydro
▁validated
rals
▁immun
▁pancre
▁rotational
retion
iological
asic
-4
▁cumulative
ayed
▁Considering
produc
▁VC
farct
ulitis
ileptic
renal
▁thi
3%
▁amino
▁TA
▁3.
olenic
▁gly
ositive
▁psychotic
▁201
▁nodules
▁myocardial
▁axons
trast
omat
istal
▁progesterone
▁hemorrhagic
DH
▁predominant
ialysis
▁resected
morph
▁Neu
▁tibial
▁heroin
sess
trimental
terol
alc
▁undo
kage
erally
tiz
▁surrogate
▁anatomic
▁invasive
cus
onomic
▁excretion
▁verte
Ki
▁0.1
▁preven
▁affinity
▁readings
pecific
Ba
urin
▁bovine
▁injected
yses
hering
ellular
▁neon
▁linoleic
▁depressive
▁adren
▁vein
ophilic
▁anemia
adiol
▁leukemia
▁follicle
▁extre
▁transplantation
▁mediates
erator
▁uremia
▁hygiene
▁psychotropic
▁urinary
▁chori
▁molar
▁inflamm
▁panc
atment
bility
.2%
atitis
hea
▁linkages
14
oag
ensory
agic
isol
▁paralle
▁overexpression
trative
eptide
▁unevent
56
▁arth
▁hemis
▁abl
▁PV
▁secretion
▁filtration
▁resis
fron
▁tolerated
▁scoliosis
▁Hb
▁masked
▁differen
sequent
▁BV
▁mann
ressing
▁differe
▁arterial
▁cortex
▁cerebral
adic
▁combin
▁prolonged
▁seropositivity
▁resistant
▁clearance
methyl
▁utero
▁CI
monstr
▁perip
▁bedside
▁LVH
FV
usp
erum
otyp
▁implantable
▁nuclei
▁overe
▁Patients
cis
▁seb
▁desirable
▁laparo
▁trig
▁carcin
▁effec
▁physiologic
▁DF
▁lateral
urea
eliac
▁unselected
▁bronchoscopy
▁19-9
▁ket
▁Immun
▁concomitant
▁phosph
▁tec
▁reproduction
▁hypertension
▁TC
ediatric
atif
▁chol
fir
▁impairment
▁LF
▁vegetable
▁dopamine
coh
▁substantially
▁sexes
cessive
▁.0
▁directional
▁MBC
▁schiz
ejun
erating
▁radiological
sue
▁discordant
▁dele
atase
▁hipp
▁endarte
abies
yroid
▁HC
tox
▁intraven
enol
▁microcirc
▁Streptococcus
ococci
terone
▁rationale
xia
▁thorac
▁intestinal
▁70
entricular
▁TBI
iminary
▁phon
▁artery
▁Tumor
pir
lasts
cyst
ocl
▁phosphor
urc
▁insulin
▁colonization
▁7%
▁somatostatin
▁differentiate
▁0.05
tensin
7.
▁potent
▁alcoh
ministration
▁avail
essential
orrh
35
olysis
mented
iciencies
viron
ensi
▁mV
kely
▁Inclusion
▁fatigue
oagulation
▁cigaret
ertion
ulfonyl
▁unin
▁subf
▁recurrent
▁aerobic
ograms
lip
▁continence
tions
▁deterior
▁mammography
▁chole
▁evaluations
gland
echan
▁ratios
entary
▁lithotrip
12
▁detachment
▁intrag
oidal
oprote
▁Removal
tro
Hg
▁ossification
▁stenosis
▁intraoperative
ocaine
LU
▁prognosis
▁chl
tics
▁stroma
cepti
apeu
tero
▁Afric
orin
Ta
▁births
▁oro
omal
▁conclu
▁tumors
▁widening
▁olig
aneously
▁LN
▁agon
97
▁22
▁enzyme
aginal
▁atres
oplasm
▁nonadherent
4).
tically
glum
▁inser
▁lar
iol
44
▁Kup
▁sinus
8%
▁warrants
▁depres
▁29
▁necro
itally
▁eosinophil
▁abnormality
2).
identical
▁11
encl
▁(4
29
▁seroton
uting
▁instability
tingu
▁diagnos
mol
▁mutations
▁retention
utin
undibular
planted
50
▁reflux
glutin
▁avascular
▁lobe
gene
3,
▁enzymes
▁suppor
▁0.05)
loro
▁atropine
bac
▁ultr
idated
▁HM
▁1-
sul
▁0.01).
▁indicators
▁28
9-
▁hypo
▁medial
▁clinics
reas
atell
▁plur
▁hypoxia
PV
2-
assium
▁practic
ameters
▁transurethral
rectal
▁replication
▁aorta
▁contrib
tase
▁graft
▁corrective
urse
ections
▁enti
40
▁infections
▁endometrial
duced
▁tumor
▁cesarean
▁restorative
▁employing
28
cribed
anyl
▁85%
▁bile
agit
ocyte
tries
▁10-
▁Serum
▁engraftment
fts
tein
▁limbs
▁intrap
teroid
▁MEP
opathological
▁15%
85
▁oxid
▁recombinant
▁appendic
▁decreases
▁glomer
echanical
▁effic
rati
▁suscepti
tific
dition
guided
▁ACL
▁phe
▁interv
ept
▁deform
2/
▁thyroidectomy
▁Analy
▁cytology
onin
▁confron
lact
▁hypoxic
▁kine
▁distin
ditions
nutrition
▁struc
▁musculoskeletal
opamine
trib
lym
▁soybean
▁antibodies
oru
▁demographic
▁dors
▁deficiencies
▁(7
dents
chers
jected
orax
0%,
sensitive
▁tes
mia
loride
▁menopausal
▁rotated
▁phosphatid
enhanced
oratory
▁grouped
▁3,
▁elicited
▁deficit
▁characteris
/-
ervations
▁suggestive
▁200
epit
▁synergistic
▁inversely
▁RA
▁challen
▁uncommon
turb
▁placent
MIC
▁Cushing
Ca
tence
▁suppres
ration
▁soy
▁adjustment
▁multicenter
physiologic
▁endoc
▁ultrason
ampl
phrine
▁somat
ustif
▁IA
▁unil
▁untreated
▁sci
2.
omod
sively
▁kinase
99
▁Phy
▁hypertrophied
104
▁interc
tam
▁aureus
▁reactivation
DG
vaginal
regulation
noise
▁spontaneous
▁12
▁metast
▁0.9
opathy
owel
anding
bral
Cer
acental
▁adenoma
▁cholesterol
▁angiotensin
▁transcription
olip
▁cues
tural
▁selective
▁chromatography
▁neo
▁Blockade
▁embryo
▁proportional
▁lymph
▁positively
unar
▁cancers
▁neutrophilic
adren
overed
▁prevalences
▁IgM
reported
▁plas
▁extrac
▁insertion
▁caro
tinu
ynaptic
sities
trol
heric
stab
▁resuscitation
effectiveness
▁ure
▁45
uccessful
erin
▁neurologic
▁Estrogen
onol
▁tracers
adder
feren
▁rehabilitation
lore
oplasmic
5-
ivary
▁emerg
▁lipid
▁IB
▁ethanol
▁elic
▁implicate
▁elu
▁AMI
▁perfusion
jun
▁evolving
▁potency
▁cervical
angl
herence
rotid
▁restor
▁systemic
▁poten
▁tert
mediated
▁Bec
▁glands
▁percutaneous
tively
▁influenz
▁follicular
ellosis
lobulin
erox
thyl
▁illustrate
▁197
▁leuk
▁lact
iferation
▁indeterminate
operative
▁postmenopausal
5%
▁(3
▁immunomod
▁epinephrine
▁disparity
▁headache
▁epidemic
▁bronchi
▁collagen
▁wee
▁Plas
-1
▁degradation
▁positioning
▁inherent
dose
▁vaginal
▁infusion
▁ascer
▁Compared
▁extracts
▁deterioration
▁overdose
▁endarterectomy
urrent
▁proct
▁stimulate
▁elucidate
▁catheters
ithin
▁acute
16
▁surgeons
itone
ullary
pine
▁feasible
▁intensive
clim
KD
▁peptides
▁assays
▁hormone
▁evaluating
▁discern
uvant
▁ventric
32
odic
▁18
orphic
▁socioeconomic
3-
▁mucos
ocul
ropriately
invasive
ometr
▁juven
LV
eration
phosphon
▁shorten
arean
lob
transplantation
activated
▁multifactorial
Ig
▁vaccination
aluation
▁targe
▁inadequate
▁deficits
▁pathologists
▁heterogeneity
▁exacerb
▁postoperatively
lux
1,
olec
▁prednisone
▁RS
uin
▁hepatitis
▁ACTH
▁drin
▁intermittent
90
▁radiograph
▁exogenous
49
leukin
▁geriatric
▁gonad
diol
▁mitochondrial
angli
ostatin
▁preoperatively
▁gradi
▁receptors
▁1.6
cutaneous
▁tracer
dimer
▁symptomatic
▁prostatectomy
onad
otent
rested
▁PET
▁proteins
▁fluores
▁pathologies
▁subjected
+)-
tradiol
zard
▁acco
▁hemisphere
owever
Tu
tension
mature
BW
▁atmospheric
ypical
▁macrophages
▁40%,
cents
onography
KA
▁exhibited
▁Severe
kDa
▁glycoprotein
▁trac
2)
▁stimulated
▁radiographic
tact
▁ventil
▁comprehen
▁postoperative
▁obese
▁cen
▁investigating
31
jejun
ithms
namic
▁resusc
ritish
▁chemot
▁ascertained
▁evol
▁atheros
▁depar
▁injections
▁multiv
tach
▁sperm
▁gluc
▁utilization
ancement
30
▁poorer
▁overd
▁ech
(5
▁predic
▁mmol
▁4-
grees
▁postnatal
rogenase
acet
estive
▁chromosome
lymph
sions
▁polymorph
reased
▁IIb
▁chlor
omatic
▁hypothe
ogenic
▁peroneal
▁cerebrovascular
▁phy
Ts
▁undetectable
igel
▁referral
jec
olated
▁ventricular
rates
orrhagic
rosine
▁bac
vity
▁oils
▁paradig
▁diame
zation
▁depr
tected
qui
otom
▁occl
▁conservatively
▁modulates
▁80
ffer
▁plasm
▁LH
rease
CSF
21
▁calcified
▁ATP
▁compressed
▁mutation
▁discom
▁anastomotic
inally
▁supple
▁(6
▁(2
treated
▁27
▁alveolar
▁Magnetic
▁algor
urine
▁+/-
carb
▁anat
iotic
▁differentiation
▁immunore
▁expres
▁anatomical
67
relevant
.2
▁gradients
▁comple
vely
▁thromboemb
▁individualized
▁RM
▁cancellous
▁cultured
▁nm
▁sclerosis
▁beha
00
onate
▁omitted
ylated
▁regis
ipolar
idate
ovascular
▁Operative
▁plaque
▁advisable
▁antagon
tice
▁(1)
▁molecule
▁GH
▁proliferation
▁Lys
▁HL
▁0.00
▁adjuvant
▁surrog
▁ageing
▁intrinsic
▁rigor
▁pylori
itant
▁anesthe
CBF
APC
acr
▁Regarding
▁1)
▁bene
▁inactivation
▁disappearance
▁heavier
EG
▁obser
▁6
▁indications
▁therapies
▁reac
▁hemorrh
▁kidne
▁cAMP
ositol
ervical
ylcholine
▁potentials
oxif
vul
▁allevi
▁thickening
umably
piration
▁palp
▁flexion
▁32%
▁esophag
▁ganglion
▁annulus
▁adrenal
▁synerg
ylation
tory
etus
▁stimul
▁Whereas
▁1,
▁assessed
▁ile
nai
▁CK
sies
▁naltrexone
▁saline
▁endoscop
adily
▁unilateral
clerosis
othermic
▁99
▁arthritis
▁Ket
ysm
▁amin
astolic
odynamic
▁audi
resist
▁Biochem
-5
▁5'-
▁Addition
▁familial
▁divertic
-1)
ureth
mur
gents
omycin
▁advan
▁100%
8)
▁eliciting
▁epit
▁cereb
▁gamma
ffinity
▁drainage
NB
▁fatty
▁etiology
▁immunological
▁leu
gely
ucle
tage
scherichia
▁plantar
▁advancement
69
▁complementary
▁carbohyd
▁CRP
▁prevalence
▁reflecting
▁reductions
2%)
plantation
atectomy
▁endometr
duce
▁contral
▁morbidity
▁(19
▁fati
▁catheter
oside
▁analyses
ortic
▁lymphocyte
urally
▁0.05).
gment
▁aor
▁phag
▁differentiated
▁pathology
▁pineal
▁tumours
▁linole
▁mutant
▁dosing
▁SLE
orac
Pa
utaneous
ncy
ivariate
omies
▁prophylaxis
hap
osom
▁hazards
▁LD
▁antigens
▁PCT
▁acceleration
▁stellate
tak
▁residues
natal
MRI
▁GI
▁cellular
till
0.5
▁Findings
▁mec
▁exce
▁LT
▁volumetric
▁cue
▁198
▁NK
▁tympanic
legia
▁oss
▁exis
centr
fat
adication
▁endothelin
▁platelets
tual
▁intramuscular
▁haem
▁7
▁necrosis
ulcer
5,
▁illustrates
▁immuno
▁physi
▁anastomosis
ults
vail
olism
▁hypoglycaemia
tate
▁inducer
veolar
▁pharmac
▁VE
okine
▁overlaps
▁counteract
truction
▁dissection
▁Trial
▁projec
▁rhe
odynam
evaluated
irc
sible
anine
ventricular
▁murine
▁0.6
▁metoclopramide
▁tomography
▁definite
fal
▁HN
▁striated
▁TK
▁progression
▁poin
erate
▁proximal
▁50%
oxid
ichia
▁emphasizes
▁adhering
cence
acchar
▁Surgery
imination
▁fibroblasts
▁consol
▁collateral
▁incorporation
ventive
▁acad
osomal
activation
▁hemat
▁inhibited
iplin
onuclear
tel
▁ischemia
immun
▁mortality
genesis
associated
▁labial
▁micros
▁insufficient
▁0.001).
BK
cold
▁nmol
ochemistry
▁modality
▁objec
▁pituitary
▁carc
Tc
unctional
▁Chronic
injured
otor
▁infar
.4
▁anomalies
▁pancreatic
▁phosphate
▁carotid
▁aortic
▁electrophoresis
Cu
itin
ococcal
IH
aline
atest
▁substrate
▁72
▁2,
▁discrimin
arous
▁versa
▁sensory
▁autosomal
▁tric
▁cortical
▁spi
6,
▁correlate
1-
rhy
▁favorable
erals
▁interpre
ternational
▁sciatic
omial
ocrine
▁phagocy
lax
odialysis
▁femur
ipid
▁loosening
ducts
18
eces
parative
▁APD
▁buccal
▁respondents
▁salivary
faction
istrib
▁RB
▁cervix
▁arter
▁vancomycin
▁evoked
ospor
ilateral
ficial
▁9
othel
▁pathologic
▁subjec
▁randomized
▁DSM
▁clinically
▁induce
▁inhibin
70
▁PF
▁exposures
anin
esthe
▁Chest
roin
vertebral
eak
▁Doppler
▁pathological
dle
▁systolic
otides
▁polymerase
▁hepat
▁prostatic
omical
mTc
▁stren
▁OA
▁congen
▁severity
▁endpoints
▁connective
ostic
ACS
▁PVR
acting
▁gyn
▁spon
ochrome
▁fluorescence
opro
erated
▁restenosis
▁CPAP
mend
opa
ecu
▁irradiated
▁histological
ompan
0,
▁phosphatase
aventricular
▁hypers
andard
tectable
endri
asive
▁subgroups
▁reper
▁multim
erad
odon
tur
▁PSA
ceptual
▁preferen
quired
▁toxin
▁worsened
IgM
▁tissues
▁TAA
▁parame
▁BMI
▁sugges
▁consultations
ologous
▁NB
▁extensor
hei
▁preliminary
ectomies
infected
▁neoplasm
▁pall
▁corne
▁bacterial
▁judged
▁gluten
▁correlates
▁tubes
vant
▁consequent
ococcus
stress
▁injec
▁remo
lobin
4)
▁glucose
▁Tum
▁gynec
▁reas
iably
esia
coun
▁lesions
iosis
▁[3
ture
umulative
▁microbiological
▁6-
ocele
tomy
ogra
dominal
▁distinctly
oic
▁GV
▁aort
▁cystic
▁supervision
▁TNF
mentation
▁hypog
ineal
glyc
▁cannulae
▁specimens
▁mL
▁transient
▁implantation
uptake
▁hyperg
▁attemp
ctomy
PAP
▁inserts
▁adverse
ilized
1.
ected
▁Mucosal
seal
▁oligo
versely
trop
urate
▁tidal
▁deple
▁spikes
▁nM
▁antic
▁heavi
▁laboratories
▁bowel
▁hydrox
quine
▁persis
▁discriminative
0.
▁inhibit
ymp
▁fibers
xual
▁nucleotide
ogenous
entists
acin
LF
mittent
▁resonance
functional
lac
▁NP
▁parap
5)
ucleation
▁MM
▁valu
eal
▁repor
lep
Hb
▁phagocytic
▁thrombolysis
▁fluor
▁PAN
rane
▁cardio
▁bran
treatment
▁carcinoma
▁unstable
itus
▁inadequ
▁anatomy
7)
rocy
▁40
phosph
▁renin
▁heterogene
▁cyclase
▁uncomplicated
olesterol
▁abdominal
▁assay
▁AGE
▁variants
▁micron
phosphate
▁Histologic
scop
▁inactiv
ollicular
▁birthweight
ocarcinoma
▁athe
genic
▁thre
drome
actin
▁inhibitory
elvic
idase
▁decreased
▁pathway
▁pter
ergy
▁GVHD
20
▁neutrophil
▁disruption
▁DST
▁tertiary
iary
▁APC
▁cathe
tering
itoneal
alp
rae
▁conclusive
▁biochemical
teric
▁juvenile
▁sequel
▁yiel
▁shif
▁prolif
▁enrolled
▁unde
AO
▁toxicity
▁satis
17
idne
▁glyc
▁techniqu
▁traumatic
▁spinal
lead
▁phospholip
▁erythrocy
▁kinetics
▁21
acil
▁Biochemical
▁establ
▁empir
▁ery
7%
▁degrad
▁circumferen
▁alp
7,
▁Dil
▁impaired
onset
FH
risk
▁implic
oceptor
▁muscul
▁sampl
▁ruptured
▁Treatments
▁hemodialysis
arcin
estion
▁hep
▁Atropine
▁lipids
onary
▁cholecystectomy
▁(8
ronchial
esic
▁recom
▁suppressed
tent
▁glomerular
▁electr
▁pneum
▁UTI
severe
hydrox
▁monoclonal
▁20%
▁epithelial
▁incubated
itamin
ifol
▁progn
▁Improvement
▁coex
▁conduc
▁progres
▁Engl
▁geniculate
ystolic
▁routinely
▁Treatment
edle
▁potassium
▁concurrent
▁myocardi
▁transi
utroph
itro
▁19
▁topical
▁surgically
lood
▁distal
▁previ
▁referrals
▁migrated
▁pregnancies
▁(54
▁resection
▁smo
▁cytos
▁competi
piratory
▁cleavage
▁deliveries
▁TB
▁highl
▁streptococcal
▁soluble
▁produc
jective
aemia
hemo
induced
▁AMP
▁interacted
▁cortisol
▁ow
▁amputation
vic
▁1
▁prophylactic
▁blin
▁precedes
romes
▁13
46
oplas
RH
ocyt
▁differing
.3
▁syndromes
quit
▁melatonin
rele
ureus
evaluation
▁IHD
Cy
▁reproduc
Ti
dic
▁induc
phe
▁moles
tead
▁intrarenal
▁correlated
atories
▁cohorts
▁debr
▁undetected
▁Throm
ostat
lec
▁clinician
lyc
crib
hemical
▁lis
▁somatic
▁lamin
▁amyloidosis
▁ambulatory
▁undergo
▁bladder
▁Percutaneous
▁42
bladder
continu
▁gallst
rox
▁migraine
cine
icine
▁Stu
osocial
▁contrac
▁determinants
▁Dopamine
▁periodon
