<unk>	0
<s>	0
</s>	0
<0x00>	0
<0x01>	0
<0x02>	0
<0x03>	0
<0x04>	0
<0x05>	0
<0x06>	0
<0x07>	0
<0x08>	0
<0x09>	0
<0x0A>	0
<0x0B>	0
<0x0C>	0
<0x0D>	0
<0x0E>	0
<0x0F>	0
<0x10>	0
<0x11>	0
<0x12>	0
<0x13>	0
<0x14>	0
<0x15>	0
<0x16>	0
<0x17>	0
<0x18>	0
<0x19>	0
<0x1A>	0
<0x1B>	0
<0x1C>	0
<0x1D>	0
<0x1E>	0
<0x1F>	0
<0x20>	0
<0x21>	0
<0x22>	0
<0x23>	0
<0x24>	0
<0x25>	0
<0x26>	0
<0x27>	0
<0x28>	0
<0x29>	0
<0x2A>	0
<0x2B>	0
<0x2C>	0
<0x2D>	0
<0x2E>	0
<0x2F>	0
<0x30>	0
<0x31>	0
<0x32>	0
<0x33>	0
<0x34>	0
<0x35>	0
<0x36>	0
<0x37>	0
<0x38>	0
<0x39>	0
<0x3A>	0
<0x3B>	0
<0x3C>	0
<0x3D>	0
<0x3E>	0
<0x3F>	0
<0x40>	0
<0x41>	0
<0x42>	0
<0x43>	0
<0x44>	0
<0x45>	0
<0x46>	0
<0x47>	0
<0x48>	0
<0x49>	0
<0x4A>	0
<0x4B>	0
<0x4C>	0
<0x4D>	0
<0x4E>	0
<0x4F>	0
<0x50>	0
<0x51>	0
<0x52>	0
<0x53>	0
<0x54>	0
<0x55>	0
<0x56>	0
<0x57>	0
<0x58>	0
<0x59>	0
<0x5A>	0
<0x5B>	0
<0x5C>	0
<0x5D>	0
<0x5E>	0
<0x5F>	0
<0x60>	0
<0x61>	0
<0x62>	0
<0x63>	0
<0x64>	0
<0x65>	0
<0x66>	0
<0x67>	0
<0x68>	0
<0x69>	0
<0x6A>	0
<0x6B>	0
<0x6C>	0
<0x6D>	0
<0x6E>	0
<0x6F>	0
<0x70>	0
<0x71>	0
<0x72>	0
<0x73>	0
<0x74>	0
<0x75>	0
<0x76>	0
<0x77>	0
<0x78>	0
<0x79>	0
<0x7A>	0
<0x7B>	0
<0x7C>	0
<0x7D>	0
<0x7E>	0
<0x7F>	0
<0x80>	0
<0x81>	0
<0x82>	0
<0x83>	0
<0x84>	0
<0x85>	0
<0x86>	0
<0x87>	0
<0x88>	0
<0x89>	0
<0x8A>	0
<0x8B>	0
<0x8C>	0
<0x8D>	0
<0x8E>	0
<0x8F>	0
<0x90>	0
<0x91>	0
<0x92>	0
<0x93>	0
<0x94>	0
<0x95>	0
<0x96>	0
<0x97>	0
<0x98>	0
<0x99>	0
<0x9A>	0
<0x9B>	0
<0x9C>	0
<0x9D>	0
<0x9E>	0
<0x9F>	0
<0xA0>	0
<0xA1>	0
<0xA2>	0
<0xA3>	0
<0xA4>	0
<0xA5>	0
<0xA6>	0
<0xA7>	0
<0xA8>	0
<0xA9>	0
<0xAA>	0
<0xAB>	0
<0xAC>	0
<0xAD>	0
<0xAE>	0
<0xAF>	0
<0xB0>	0
<0xB1>	0
<0xB2>	0
<0xB3>	0
<0xB4>	0
<0xB5>	0
<0xB6>	0
<0xB7>	0
<0xB8>	0
<0xB9>	0
<0xBA>	0
<0xBB>	0
<0xBC>	0
<0xBD>	0
<0xBE>	0
<0xBF>	0
<0xC0>	0
<0xC1>	0
<0xC2>	0
<0xC3>	0
<0xC4>	0
<0xC5>	0
<0xC6>	0
<0xC7>	0
<0xC8>	0
<0xC9>	0
<0xCA>	0
<0xCB>	0
<0xCC>	0
<0xCD>	0
<0xCE>	0
<0xCF>	0
<0xD0>	0
<0xD1>	0
<0xD2>	0
<0xD3>	0
<0xD4>	0
<0xD5>	0
<0xD6>	0
<0xD7>	0
<0xD8>	0
<0xD9>	0
<0xDA>	0
<0xDB>	0
<0xDC>	0
<0xDD>	0
<0xDE>	0
<0xDF>	0
<0xE0>	0
<0xE1>	0
<0xE2>	0
<0xE3>	0
<0xE4>	0
<0xE5>	0
<0xE6>	0
<0xE7>	0
<0xE8>	0
<0xE9>	0
<0xEA>	0
<0xEB>	0
<0xEC>	0
<0xED>	0
<0xEE>	0
<0xEF>	0
<0xF0>	0
<0xF1>	0
<0xF2>	0
<0xF3>	0
<0xF4>	0
<0xF5>	0
<0xF6>	0
<0xF7>	0
<0xF8>	0
<0xF9>	0
<0xFA>	0
<0xFB>	0
<0xFC>	0
<0xFD>	0
<0xFE>	0
<0xFF>	0
in	-0
▁t	-1
▁a	-2
re	-3
at	-4
on	-5
he	-6
en	-7
▁s	-8
▁p	-9
▁o	-10
er	-11
al	-12
▁c	-13
▁in	-14
it	-15
ed	-16
is	-17
ic	-18
▁the	-19
or	-20
ion	-21
es	-22
▁of	-23
▁f	-24
▁m	-25
▁w	-26
an	-27
ent	-28
▁b	-29
ro	-30
▁d	-31
▁an	-32
ing	-33
ar	-34
▁to	-35
▁re	-36
ct	-37
as	-38
ve	-39
▁and	-40
ul	-41
om	-42
ur	-43
▁th	-44
▁n	-45
ation	-46
le	-47
ly	-48
▁e	-49
▁be	-50
im	-51
os	-52
ati	-53
ot	-54
us	-55
id	-56
ith	-57
▁h	-58
▁with	-59
▁l	-60
▁T	-61
ce	-62
ig	-63
ra	-64
ut	-65
if	-66
▁is	-67
▁st	-68
un	-69
il	-70
ho	-71
ents	-72
▁for	-73
▁pro	-74
▁as	-75
▁pre	-76
ect	-77
ter	-78
▁that	-79
▁de	-80
▁su	-81
▁con	-82
▁pati	-83
ol	-84
op	-85
▁The	-86
ate	-87
▁g	-88
ant	-89
▁patients	-90
oc	-91
ure	-92
ity	-93
ay	-94
ical	-95
ver	-96
st	-97
ive	-98
ment	-99
ud	-100
▁im	-101
her	-102
ag	-103
ow	-104
est	-105
ial	-106
ated	-107
se	-108
▁r	-109
▁not	-110
ab	-111
▁A	-112
ort	-113
ec	-114
qu	-115
et	-116
ult	-117
▁on	-118
ore	-119
▁I	-120
ren	-121
▁imp	-122
▁may	-123
od	-124
ff	-125
▁res	-126
ess	-127
▁com	-128
pp	-129
▁P	-130
▁ex	-131
▁are	-132
▁v	-133
am	-134
▁stud	-135
▁ad	-136
▁al	-137
▁se	-138
ific	-139
ac	-140
ir	-141
iv	-142
ad	-143
uld	-144
pt	-145
ost	-146
▁C	-147
igh	-148
og	-149
um	-150
cre	-151
ies	-152
▁he	-153
act	-154
ign	-155
▁ass	-156
▁sho	-157
ative	-158
are	-159
▁can	-160
▁was	-161
lin	-162
▁or	-163
▁un	-164
▁sur	-165
ist	-166
em	-167
▁comp	-168
▁ne	-169
ence	-170
▁this	-171
el	-172
up	-173
oci	-174
dic	-175
ations	-176
ib	-177
▁H	-178
isk	-179
oun	-180
▁app	-181
ffect	-182
fe	-183
ther	-184
ain	-185
orm	-186
▁ch	-187
▁us	-188
▁per	-189
creas	-190
gg	-191
th	-192
▁sign	-193
vel	-194
▁ac	-195
ggest	-196
ition	-197
▁suggest	-198
▁by	-199
▁S	-200
ary	-201
▁at	-202
▁risk	-203
ong	-204
rap	-205
▁dis	-206
▁result	-207
du	-208
▁M	-209
▁le	-210
com	-211
ine	-212
▁we	-213
able	-214
cl	-215
▁associ	-216
▁signific	-217
rom	-218
▁inf	-219
▁cont	-220
ss	-221
yp	-222
▁ha	-223
ding	-224
▁study	-225
reat	-226
iz	-227
▁sy	-228
der	-229
▁significant	-230
▁di	-231
▁clin	-232
▁more	-233
▁should	-234
▁increas	-235
hy	-236
end	-237
ch	-238
ance	-239
▁results	-240
▁O	-241
eas	-242
▁it	-243
ions	-244
▁effect	-245
ip	-246
ced	-247
ens	-248
▁In	-249
▁co	-250
ge	-251
ors	-252
▁Th	-253
ia	-254
▁L	-255
▁W	-256
▁sp	-257
▁dif	-258
▁have	-259
▁D	-260
ight	-261
feren	-262
▁need	-263
we	-264
ous	-265
▁bet	-266
▁F	-267
age	-268
ast	-269
red	-270
▁redu	-271
all	-272
erv	-273
ular	-274
▁exp	-275
▁care	-276
ug	-277
ide	-278
▁int	-279
ction	-280
▁This	-281
ill	-282
▁ev	-283
▁gro	-284
▁out	-285
▁sub	-286
▁treat	-287
▁clinical	-288
ke	-289
▁B	-290
▁E	-291
▁N	-292
low	-293
▁fin	-294
▁use	-295
▁from	-296
▁impro	-297
▁associated	-298
ear	-299
ures	-300
ality	-301
▁than	-302
cy	-303
▁R	-304
ers	-305
ose	-306
ans	-307
ici	-308
rop	-309
▁dur	-310
▁surg	-311
lic	-312
ound	-313
ween	-314
▁par	-315
▁rel	-316
▁rep	-317
▁inter	-318
▁between	-319
▁differen	-320
dict	-321
ever	-322
▁low	-323
▁pos	-324
▁fact	-325
▁high	-326
hen	-327
ugh	-328
omen	-329
ract	-330
▁cons	-331
▁predict	-332
gn	-333
and	-334
▁wh	-335
osis	-336
ress	-337
vent	-338
▁treatment	-339
di	-340
rol	-341
form	-342
▁mod	-343
urther	-344
agn	-345
cer	-346
dition	-347
▁group	-348
▁outcom	-349
ail	-350
alu	-351
▁ab	-352
▁am	-353
▁ob	-354
▁cor	-355
▁heal	-356
▁were	-357
▁level	-358
erative	-359
▁during	-360
ap	-361
ri	-362
ild	-363
ood	-364
▁ro	-365
fter	-366
▁hyp	-367
vi	-368
one	-369
our	-370
▁after	-371
▁diagn	-372
▁these	-373
ulation	-374
▁import	-375
▁G	-376
ery	-377
ful	-378
hol	-379
▁no	-380
clud	-381
owever	-382
▁finding	-383
operative	-384
lu	-385
mpt	-386
oth	-387
▁do	-388
ates	-389
rapy	-390
▁fol	-391
ility	-392
▁prov	-393
idence	-394
▁indic	-395
▁women	-396
ces	-397
ech	-398
ene	-399
ime	-400
omy	-401
▁ra	-402
▁tr	-403
fore	-404
▁but	-405
▁inv	-406
▁show	-407
▁surgery	-408
aus	-409
cur	-410
▁en	-411
▁qu	-412
▁reg	-413
▁could	-414
▁health	-415
▁control	-416
sp	-417
ata	-418
out	-419
sis	-420
ual	-421
tect	-422
▁who	-423
▁pres	-424
▁follow	-425
▁studies	-426
arg	-427
ert	-428
oms	-429
ory	-430
ared	-431
ears	-432
▁ind	-433
▁pop	-434
▁among	-435
▁sympt	-436
▁(	-437
▁k	-438
cept	-439
olog	-440
▁has	-441
▁man	-442
▁tra	-443
velop	-444
▁part	-445
ential	-446
▁However	-447
▁perform	-448
▁symptoms	-449
▁significantly	-450
ms	-451
▁y	-452
hys	-453
ons	-454
rel	-455
ric	-456
cess	-457
▁Our	-458
▁car	-459
itive	-460
▁both	-461
▁data	-462
▁other	-463
▁cancer	-464
▁diseas	-465
▁develop	-466
▁1	-467
aro	-468
ied	-469
▁Al	-470
▁We	-471
lect	-472
tern	-473
▁hig	-474
▁met	-475
▁non	-476
▁spec	-477
▁There	-478
▁disease	-479
▁factors	-480
▁findings	-481
▁increased	-482
so	-483
▁U	-484
ell	-485
hem	-486
mon	-487
▁pr	-488
▁sc	-489
atic	-490
enef	-491
ible	-492
term	-493
▁cas	-494
▁ins	-495
▁pot	-496
▁rec	-497
usion	-498
▁also	-499
▁child	-500
▁found	-501
▁higher	-502
▁improve	-503
▁different	-504
ue	-505
▁2	-506
ich	-507
pit	-508
qui	-509
tho	-510
ved	-511
viv	-512
ency	-513
▁all	-514
▁str	-515
▁long	-516
▁over	-517
▁time	-518
▁when	-519
▁benef	-520
▁there	-521
▁under	-522
▁which	-523
▁surviv	-524
▁important	-525
▁potential	-526
▁em	-527
king	-528
othe	-529
serv	-530
ving	-531
▁med	-532
▁tum	-533
ident	-534
ities	-535
▁phys	-536
though	-537
▁their	-538
unction	-539
▁levels	-540
▁observ	-541
▁further	-542
▁patient	-543
▁survival	-544
▁effective	-545
la	-546
li	-547
▁V	-548
ach	-549
ari	-550
cop	-551
ust	-552
▁po	-553
▁sa	-554
arly	-555
rent	-556
▁fre	-557
▁gen	-558
▁its	-559
▁lim	-560
ments	-561
▁These	-562
▁might	-563
▁population	-564
ne	-565
par	-566
▁bi	-567
▁li	-568
ased	-569
ized	-570
very	-571
ating	-572
▁meas	-573
▁only	-574
▁post	-575
▁seem	-576
▁supp	-577
▁pregn	-578
▁requi	-579
▁needed	-580
▁function	-581
▁outcomes	-582
CT	-583
ov	-584
ph	-585
pl	-586
sy	-587
ard	-588
cin	-589
rib	-590
str	-591
ute	-592
econ	-593
irst	-594
▁dep	-595
▁did	-596
▁pat	-597
▁som	-598
▁typ	-599
ecess	-600
holog	-601
ograp	-602
▁chan	-603
▁most	-604
▁will	-605
▁first	-606
▁ident	-607
vention	-608
▁proced	-609
▁therapy	-610
▁addition	-611
▁compared	-612
uc	-613
eri	-614
ile	-615
ron	-616
▁ma	-617
▁pl	-618
ally	-619
amin	-620
vant	-621
▁act	-622
▁our	-623
quent	-624
▁poss	-625
▁prob	-626
▁prog	-627
▁resp	-628
▁valu	-629
ective	-630
▁lower	-631
ression	-632
▁assess	-633
▁diagnosis	-634
cis	-635
ice	-636
ily	-637
▁ag	-638
▁bl	-639
itis	-640
rect	-641
▁ant	-642
▁des	-643
▁inj	-644
▁mus	-645
▁rem	-646
clude	-647
echan	-648
ially	-649
imary	-650
▁anal	-651
▁cost	-652
▁does	-653
▁radi	-654
▁rate	-655
▁pract	-656
▁detect	-657
ecessary	-658
ortality	-659
▁benefit	-660
▁quality	-661
▁support	-662
▁children	-663
▁increase	-664
ub	-665
fer	-666
▁fe	-667
ably	-668
olic	-669
vere	-670
▁beh	-671
▁end	-672
▁loc	-673
cular	-674
ostic	-675
▁inde	-676
▁stat	-677
▁such	-678
▁syst	-679
ically	-680
▁early	-681
▁fract	-682
▁progn	-683
▁impact	-684
▁mechan	-685
▁provid	-686
▁identif	-687
▁primary	-688
▁Although	-689
▁observed	-690
▁mortality	-691
avi	-692
int	-693
mun	-694
ree	-695
▁if	-696
ancy	-697
hort	-698
kely	-699
lder	-700
▁def	-701
▁had	-702
▁inc	-703
▁mot	-704
aging	-705
ffici	-706
ution	-707
▁init	-708
▁prop	-709
▁scre	-710
ection	-711
ectomy	-712
▁those	-713
ability	-714
related	-715
▁compar	-716
▁partic	-717
▁system	-718
spective	-719
▁appears	-720
▁outcome	-721
▁evidence	-722
▁suggests	-723
▁performed	-724
▁3	-725
ack	-726
ass	-727
▁It	-728
▁oc	-729
▁sm	-730
ages	-731
eral	-732
ider	-733
inal	-734
ysis	-735
▁min	-736
▁mor	-737
▁sam	-738
▁sim	-739
▁syn	-740
ained	-741
aparo	-742
arget	-743
ening	-744
▁hist	-745
▁mult	-746
▁pain	-747
▁they	-748
▁cardi	-749
▁cases	-750
▁influ	-751
▁intra	-752
▁limit	-753
ization	-754
▁factor	-755
▁target	-756
▁useful	-757
▁Further	-758
▁complic	-759
▁without	-760
ternative	-761
▁mechanis	-762
▁specific	-763
▁procedure	-764
AP	-765
ie	-766
ark	-767
erg	-768
hip	-769
hod	-770
ize	-771
res	-772
val	-773
▁ar	-774
▁av	-775
▁gl	-776
ateg	-777
ause	-778
ivid	-779
onse	-780
▁att	-781
▁wor	-782
ately	-783
estig	-784
▁conf	-785
▁fail	-786
▁safe	-787
idered	-788
▁evalu	-789
▁expos	-790
▁injur	-791
▁press	-792
▁seems	-793
ascular	-794
▁behavi	-795
▁method	-796
▁select	-797
fficient	-798
ological	-799
▁reduced	-800
▁investig	-801
▁possible	-802
▁considered	-803
ob	-804
tr	-805
anc	-806
equ	-807
gen	-808
nee	-809
oid	-810
ret	-811
ject	-812
sion	-813
▁adv	-814
▁est	-815
idity	-816
ining	-817
ional	-818
ivity	-819
utine	-820
▁comb	-821
▁coun	-822
▁into	-823
icians	-824
lement	-825
monstr	-826
▁accur	-827
▁blood	-828
▁prost	-829
▁sever	-830
▁trans	-831
▁groups	-832
▁inform	-833
▁likely	-834
▁within	-835
▁routine	-836
▁analysis	-837
▁demonstr	-838
▁response	-839
▁incidence	-840
▁necessary	-841
▁pregnancy	-842
▁alternative	-843
SA	-844
lp	-845
ife	-846
led	-847
mis	-848
ody	-849
oma	-850
ral	-851
▁cl	-852
asis	-853
echn	-854
omic	-855
otic	-856
scop	-857
▁col	-858
▁mat	-859
▁ser	-860
ental	-861
ropri	-862
vious	-863
▁good	-864
▁help	-865
▁knee	-866
▁less	-867
▁sens	-868
▁test	-869
▁type	-870
endent	-871
ensive	-872
▁appro	-873
▁occur	-874
▁rates	-875
ational	-876
▁before	-877
▁examin	-878
▁reduce	-879
▁severe	-880
otherapy	-881
▁decreas	-882
▁initial	-883
▁present	-884
▁process	-885
▁subject	-886
aparoscop	-887
▁consider	-888
▁previous	-889
▁relative	-890
▁Therefore	-891
▁additional	-892
▁assessment	-893
▁association	-894
MI	-895
ks	-896
te	-897
yl	-898
▁K	-899
▁j	-900
amm	-901
edi	-902
esp	-903
iqu	-904
nal	-905
oph	-906
tal	-907
ted	-908
▁20	-909
▁PC	-910
▁ed	-911
▁gu	-912
▁ph	-913
lace	-914
olum	-915
oung	-916
pite	-917
ting	-918
▁fam	-919
▁men	-920
▁mon	-921
▁one	-922
▁set	-923
anced	-924
ither	-925
ospit	-926
ronic	-927
▁chem	-928
▁lead	-929
▁morb	-930
▁vari	-931
▁invol	-932
▁local	-933
▁model	-934
▁techn	-935
▁using	-936
▁value	-937
ividual	-938
ospital	-939
▁affect	-940
▁remain	-941
▁report	-942
▁effects	-943
▁strateg	-944
▁approach	-945
▁appropri	-946
▁indicate	-947
▁position	-948
▁required	-949
▁condition	-950
▁individual	-951
▁information	-952
▁preoperative	-953
SC	-954
ak	-955
co	-956
ann	-957
eop	-958
ges	-959
hic	-960
ics	-961
ins	-962
ogn	-963
thm	-964
▁MR	-965
▁me	-966
ants	-967
arch	-968
arge	-969
atal	-970
chem	-971
comm	-972
ials	-973
ices	-974
stit	-975
ults	-976
ural	-977
urse	-978
▁aut	-979
▁sex	-980
▁val	-981
▁whe	-982
ature	-983
ified	-984
rence	-985
▁bone	-986
▁caus	-987
▁dist	-988
▁head	-989
▁mark	-990
▁norm	-991
▁peri	-992
▁poor	-993
▁rece	-994
▁rese	-995
▁role	-996
▁used	-997
▁well	-998
asound	-999
lderly	-1000
▁acute	-1001
▁avail	-1002
▁decis	-1003
▁indep	-1004
▁small	-1005
▁subse	-1006
▁tumor	-1007
commend	-1008
ivation	-1009
▁combin	-1010
▁correl	-1011
▁determ	-1012
▁hypert	-1013
▁injury	-1014
▁ischem	-1015
▁showed	-1016
economic	-1017
▁contrib	-1018
▁medical	-1019
▁exposure	-1020
▁identify	-1021
▁improved	-1022
▁severity	-1023
▁subjects	-1024
▁surgical	-1025
▁morbidity	-1026
▁recommend	-1027
▁screening	-1028
▁functional	-1029
▁importance	-1030
▁development	-1031
▁differences	-1032
▁independent	-1033
▁prospective	-1034
▁intervention	-1035
▁complications	-1036
ai	-1037
ex	-1038
mp	-1039
ru	-1040
wo	-1041
ys	-1042
air	-1043
ite	-1044
lev	-1045
tid	-1046
umb	-1047
urn	-1048
ven	-1049
▁HI	-1050
▁mo	-1051
ists	-1052
iter	-1053
iven	-1054
ored	-1055
roke	-1056
ultr	-1057
ured	-1058
▁adj	-1059
▁age	-1060
▁any	-1061
▁cur	-1062
▁due	-1063
▁hom	-1064
▁pub	-1065
▁ret	-1066
atory	-1067
atric	-1068
econd	-1069
espec	-1070
iable	-1071
ision	-1072
rough	-1073
uture	-1074
▁Pati	-1075
▁been	-1076
▁case	-1077
▁cell	-1078
▁dose	-1079
▁even	-1080
▁lack	-1081
▁life	-1082
▁pers	-1083
▁some	-1084
▁tool	-1085
arotid	-1086
cinoma	-1087
fusion	-1088
ularly	-1089
▁adequ	-1090
▁based	-1091
▁exist	-1092
▁frequ	-1093
▁needs	-1094
▁polic	-1095
▁volum	-1096
▁years	-1097
▁young	-1098
agement	-1099
ography	-1100
▁appear	-1101
▁change	-1102
▁common	-1103
▁either	-1104
▁period	-1105
▁preval	-1106
▁progra	-1107
▁second	-1108
lacement	-1109
▁chronic	-1110
▁elderly	-1111
▁failure	-1112
▁history	-1113
▁provide	-1114
ationship	-1115
ovascular	-1116
▁conclude	-1117
▁hospital	-1118
▁measures	-1119
▁pressure	-1120
▁probably	-1121
▁prostate	-1122
▁research	-1123
▁training	-1124
especially	-1125
▁fractures	-1126
▁influence	-1127
▁reduction	-1128
aparoscopic	-1129
▁management	-1130
▁prognostic	-1131
▁relationship	-1132
▁postoperative	-1133
eg	-1134
ix	-1135
ty	-1136
▁'	-1137
▁5	-1138
ane	-1139
arr	-1140
irm	-1141
ish	-1142
ler	-1143
now	-1144
oss	-1145
ple	-1146
▁LO	-1147
▁PR	-1148
▁sk	-1149
▁ur	-1150
▁wo	-1151
ache	-1152
ator	-1153
cent	-1154
cing	-1155
ctal	-1156
drom	-1157
ilar	-1158
imal	-1159
imin	-1160
last	-1161
ness	-1162
ocio	-1163
thma	-1164
vers	-1165
▁bre	-1166
▁equ	-1167
▁ext	-1168
▁fet	-1169
▁gap	-1170
▁lin	-1171
▁lun	-1172
▁ref	-1173
▁two	-1174
acter	-1175
ading	-1176
imens	-1177
iving	-1178
ocial	-1179
uvant	-1180
▁biop	-1181
▁cerv	-1182
▁form	-1183
▁loss	-1184
▁musc	-1185
▁obes	-1186
▁rest	-1187
▁warr	-1188
▁work	-1189
andard	-1190
arding	-1191
cluded	-1192
▁being	-1193
▁defin	-1194
▁moder	-1195
▁socio	-1196
▁would	-1197
clusion	-1198
ibility	-1199
▁applic	-1200
▁asthma	-1201
▁better	-1202
▁breast	-1203
▁cohort	-1204
▁comple	-1205
▁direct	-1206
▁experi	-1207
▁family	-1208
▁policy	-1209
▁therap	-1210
▁tumour	-1211
ventions	-1212
▁confirm	-1213
▁overall	-1214
▁protect	-1215
▁remains	-1216
▁require	-1217
▁setting	-1218
▁similar	-1219
▁statist	-1220
▁syndrom	-1221
▁through	-1222
▁underst	-1223
▁Patients	-1224
▁patholog	-1225
▁physical	-1226
▁positive	-1227
▁standard	-1228
▁students	-1229
▁techniqu	-1230
ultrasound	-1231
▁decreased	-1232
▁detection	-1233
▁frequency	-1234
▁predictor	-1235
▁comparable	-1236
▁conditions	-1237
▁especially	-1238
▁previously	-1239
▁subsequent	-1240
▁performance	-1241
▁replacement	-1242
▁particularly	-1243
▁cardiovascular	-1244
CG	-1245
ew	-1246
lf	-1247
ox	-1248
su	-1249
▁4	-1250
acy	-1251
ath	-1252
ays	-1253
con	-1254
cus	-1255
eut	-1256
fic	-1257
ick	-1258
per	-1259
urs	-1260
▁AD	-1261
▁Wh	-1262
▁cr	-1263
▁dr	-1264
▁up	-1265
arri	-1266
edic	-1267
etic	-1268
ived	-1269
lamm	-1270
less	-1271
line	-1272
osed	-1273
ulin	-1274
▁200	-1275
▁BMI	-1276
▁Com	-1277
▁For	-1278
▁Imp	-1279
▁add	-1280
▁bec	-1281
▁enh	-1282
▁fra	-1283
▁gra	-1284
▁lat	-1285
▁les	-1286
▁mal	-1287
▁new	-1288
▁opt	-1289
▁tre	-1290
▁vit	-1291
andom	-1292
arent	-1293
based	-1294
eutic	-1295
idate	-1296
iting	-1297
umber	-1298
verse	-1299
▁When	-1300
▁acid	-1301
▁cann	-1302
▁cord	-1303
▁cult	-1304
▁deli	-1305
▁elev	-1306
▁expl	-1307
▁food	-1308
▁grow	-1309
▁hear	-1310
▁lung	-1311
▁main	-1312
▁mild	-1313
▁prof	-1314
▁same	-1315
▁serv	-1316
▁size	-1317
aneous	-1318
ention	-1319
▁alter	-1320
▁arter	-1321
▁fetal	-1322
▁mater	-1323
▁monit	-1324
▁plann	-1325
▁short	-1326
▁shown	-1327
▁surge	-1328
▁traum	-1329
linical	-1330
ressive	-1331
▁accept	-1332
▁adults	-1333
▁biopsy	-1334
▁course	-1335
▁interp	-1336
▁longer	-1337
▁number	-1338
▁prefer	-1339
▁public	-1340
▁stroke	-1341
▁trials	-1342
▁underg	-1343
ediatric	-1344
ographic	-1345
▁because	-1346
▁healthy	-1347
▁imaging	-1348
▁inflamm	-1349
▁insulin	-1350
▁prevent	-1351
▁treated	-1352
▁whether	-1353
ification	-1354
▁accurate	-1355
▁advanced	-1356
▁cervical	-1357
▁frequent	-1358
▁headache	-1359
▁ischemia	-1360
▁practice	-1361
▁presence	-1362
▁reducing	-1363
▁reliable	-1364
▁selected	-1365
▁strategy	-1366
▁implement	-1367
▁improving	-1368
▁mechanism	-1369
▁regarding	-1370
▁diagnostic	-1371
▁evaluation	-1372
▁increasing	-1373
▁mechanisms	-1374
▁appropriate	-1375
▁correlation	-1376
▁recommended	-1377
▁interventions	-1378
AD	-1379
DM	-1380
Is	-1381
av	-1382
ft	-1383
oy	-1384
yn	-1385
▁Q	-1386
PAP	-1387
abl	-1388
ade	-1389
aem	-1390
ake	-1391
arm	-1392
ase	-1393
cor	-1394
enz	-1395
hie	-1396
irc	-1397
ium	-1398
lux	-1399
the	-1400
uct	-1401
ull	-1402
▁10	-1403
▁Ad	-1404
▁Tr	-1405
▁cy	-1406
▁ep	-1407
▁er	-1408
▁sh	-1409
▁te	-1410
▁ut	-1411
asal	-1412
cles	-1413
ilit	-1414
irth	-1415
ocus	-1416
oing	-1417
orts	-1418
oses	-1419
ough	-1420
over	-1421
rast	-1422
rest	-1423
roph	-1424
ross	-1425
sues	-1426
urop	-1427
▁HIV	-1428
▁Pre	-1429
▁dam	-1430
▁dec	-1431
▁eff	-1432
▁fac	-1433
▁ill	-1434
▁neg	-1435
▁psy	-1436
▁sec	-1437
▁sup	-1438
▁sus	-1439
▁vac	-1440
amine	-1441
ather	-1442
ected	-1443
ercis	-1444
ician	-1445
ingle	-1446
order	-1447
oring	-1448
oscop	-1449
▁More	-1450
▁char	-1451
▁diab	-1452
▁educ	-1453
▁feas	-1454
▁know	-1455
▁limb	-1456
▁marg	-1457
▁very	-1458
iteria	-1459
ration	-1460
▁While	-1461
▁achie	-1462
▁antib	-1463
▁cells	-1464
▁costs	-1465
▁estim	-1466
▁guide	-1467
▁hyper	-1468
▁large	-1469
▁quest	-1470
▁recor	-1471
▁stage	-1472
▁subst	-1473
▁surve	-1474
ception	-1475
cessful	-1476
ergency	-1477
itivity	-1478
othesis	-1479
▁cannot	-1480
▁commun	-1481
▁contin	-1482
▁damage	-1483
▁future	-1484
▁growth	-1485
▁includ	-1486
▁insert	-1487
▁normal	-1488
▁repair	-1489
▁single	-1490
▁spinal	-1491
▁volume	-1492
▁changes	-1493
▁despite	-1494
▁exercis	-1495
▁limited	-1496
▁pattern	-1497
▁somatic	-1498
▁warrant	-1499
andomized	-1500
▁activity	-1501
▁adequate	-1502
▁criteria	-1503
▁disorder	-1504
▁duration	-1505
▁fracture	-1506
▁moderate	-1507
▁negative	-1508
▁particip	-1509
▁reported	-1510
▁targeted	-1511
▁character	-1512
▁determine	-1513
▁increases	-1514
▁pediatric	-1515
▁therefore	-1516
▁contribute	-1517
▁difference	-1518
▁hypothesis	-1519
▁monitoring	-1520
▁physicians	-1521
▁predictive	-1522
▁prevalence	-1523
▁prevention	-1524
▁sufficient	-1525
▁ultrasound	-1526
▁improvement	-1527
▁therapeutic	-1528
▁associations	-1529
AS	-1530
CC	-1531
CS	-1532
DD	-1533
PE	-1534
gi	-1535
pa	-1536
wa	-1537
ace	-1538
als	-1539
ame	-1540
ang	-1541
den	-1542
dom	-1543
elv	-1544
emb	-1545
eth	-1546
ety	-1547
gro	-1548
hed	-1549
hib	-1550
ise	-1551
ism	-1552
ked	-1553
nic	-1554
oad	-1555
ocy	-1556
ode	-1557
oot	-1558
pir	-1559
rep	-1560
set	-1561
ype	-1562
▁AP	-1563
▁An	-1564
▁BP	-1565
▁CA	-1566
▁GP	-1567
▁No	-1568
▁PE	-1569
▁RA	-1570
▁TB	-1571
▁ey	-1572
▁my	-1573
▁pH	-1574
▁ta	-1575
alls	-1576
amic	-1577
anyl	-1578
ayed	-1579
cers	-1580
coun	-1581
crib	-1582
fact	-1583
hers	-1584
hool	-1585
ided	-1586
iple	-1587
ison	-1588
ling	-1589
long	-1590
ocol	-1591
oint	-1592
onal	-1593
rain	-1594
ring	-1595
risk	-1596
road	-1597
spec	-1598
tain	-1599
▁Con	-1600
▁RCT	-1601
▁cho	-1602
▁hem	-1603
▁mic	-1604
▁mig	-1605
▁muc	-1606
▁nor	-1607
▁off	-1608
▁rot	-1609
▁suc	-1610
▁ter	-1611
▁und	-1612
▁ver	-1613
▁vis	-1614
aired	-1615
asive	-1616
ausal	-1617
enter	-1618
eople	-1619
ether	-1620
group	-1621
iotic	-1622
ledge	-1623
light	-1624
limin	-1625
overy	-1626
pping	-1627
ulate	-1628
waren	-1629
▁able	-1630
▁aden	-1631
▁area	-1632
▁body	-1633
▁circ	-1634
▁emot	-1635
▁feed	-1636
▁home	-1637
▁nurs	-1638
▁oral	-1639
▁pelv	-1640
▁reas	-1641
▁subt	-1642
effect	-1643
ension	-1644
ensity	-1645
ficult	-1646
ources	-1647
retion	-1648
vement	-1649
▁Impro	-1650
▁antic	-1651
▁broad	-1652
▁colon	-1653
▁death	-1654
▁focus	-1655
▁great	-1656
▁immun	-1657
▁motor	-1658
▁nasal	-1659
▁onset	-1660
▁resid	-1661
▁serum	-1662
▁still	-1663
▁total	-1664
▁types	-1665
▁while	-1666
entanyl	-1667
ference	-1668
idation	-1669
opausal	-1670
▁across	-1671
▁advant	-1672
▁compon	-1673
▁design	-1674
▁dispar	-1675
▁financ	-1676
▁infant	-1677
▁instit	-1678
▁prepar	-1679
▁proble	-1680
▁promis	-1681
▁recogn	-1682
▁rectal	-1683
▁repres	-1684
▁return	-1685
▁school	-1686
▁status	-1687
▁strong	-1688
▁vaccin	-1689
antation	-1690
ulations	-1691
wareness	-1692
▁careful	-1693
▁complex	-1694
▁concept	-1695
▁healing	-1696
▁however	-1697
▁include	-1698
▁lesions	-1699
▁margins	-1700
▁markers	-1701
▁obesity	-1702
▁persons	-1703
▁reading	-1704
▁staging	-1705
hological	-1706
▁although	-1707
▁behavior	-1708
▁directly	-1709
▁exercise	-1710
▁feasible	-1711
▁involved	-1712
▁programs	-1713
▁received	-1714
▁recovery	-1715
▁services	-1716
▁syndrome	-1717
▁attention	-1718
▁available	-1719
▁carcinoma	-1720
▁concluded	-1721
▁difficult	-1722
▁including	-1723
▁infection	-1724
▁interpret	-1725
▁knowledge	-1726
▁prognosis	-1727
▁resection	-1728
▁resources	-1729
▁secretion	-1730
▁technique	-1731
▁antibiotic	-1732
▁clinically	-1733
▁experience	-1734
▁expression	-1735
▁protective	-1736
▁relatively	-1737
▁combination	-1738
▁limitations	-1739
▁sensitivity	-1740
▁hypertensive	-1741
▁improvements	-1742
▁radiotherapy	-1743
▁intraoperative	-1744
GE	-1745
MV	-1746
NA	-1747
NP	-1748
RP	-1749
ek	-1750
ep	-1751
rh	-1752
▁6	-1753
▁7	-1754
afe	-1755
app	-1756
duc	-1757
eve	-1758
for	-1759
gan	-1760
hes	-1761
ian	-1762
ify	-1763
ior	-1764
iss	-1765
its	-1766
itt	-1767
jor	-1768
les	-1769
luc	-1770
lyc	-1771
min	-1772
pos	-1773
ten	-1774
tes	-1775
tic	-1776
upt	-1777
urg	-1778
usc	-1779
utr	-1780
ves	-1781
▁CT	-1782
▁Ch	-1783
▁Ex	-1784
▁IV	-1785
▁LC	-1786
▁LV	-1787
▁PD	-1788
▁PV	-1789
▁SL	-1790
▁Un	-1791
▁ap	-1792
▁da	-1793
▁ov	-1794
▁ve	-1795
aged	-1796
ands	-1797
atis	-1798
chiz	-1799
clus	-1800
emor	-1801
ends	-1802
erim	-1803
etes	-1804
fety	-1805
ffer	-1806
gree	-1807
hold	-1808
hood	-1809
inct	-1810
ited	-1811
kele	-1812
lear	-1813
norm	-1814
ocal	-1815
oles	-1816
omas	-1817
ower	-1818
ples	-1819
ploy	-1820
rend	-1821
rior	-1822
roid	-1823
romb	-1824
rupt	-1825
ules	-1826
▁All	-1827
▁Des	-1828
▁LOS	-1829
▁aim	-1830
▁bur	-1831
▁del	-1832
▁det	-1833
▁dys	-1834
▁eas	-1835
▁ent	-1836
▁eth	-1837
▁fat	-1838
▁few	-1839
▁fit	-1840
▁fix	-1841
▁flu	-1842
▁hCG	-1843
▁hep	-1844
▁imm	-1845
▁mel	-1846
▁mil	-1847
▁smo	-1848
▁unn	-1849
▁uns	-1850
aemia	-1851
ainst	-1852
allen	-1853
arian	-1854
cohol	-1855
icial	-1856
iolog	-1857
lines	-1858
ogene	-1859
renia	-1860
tment	-1861
tocol	-1862
ually	-1863
▁aged	-1864
▁aort	-1865
▁auto	-1866
▁cand	-1867
▁cogn	-1868
▁drug	-1869
▁find	-1870
▁hour	-1871
▁insu	-1872
▁just	-1873
▁make	-1874
▁many	-1875
▁reve	-1876
▁self	-1877
▁seri	-1878
▁stim	-1879
▁susp	-1880
▁sust	-1881
▁tail	-1882
▁vent	-1883
ameter	-1884
anding	-1885
arried	-1886
aution	-1887
iation	-1888
istent	-1889
istics	-1890
oscopy	-1891
report	-1892
tained	-1893
terior	-1894
venous	-1895
weight	-1896
▁Medic	-1897
▁Never	-1898
▁about	-1899
▁areas	-1900
▁basis	-1901
▁birth	-1902
▁brain	-1903
▁daily	-1904
▁every	-1905
▁forms	-1906
▁gener	-1907
▁given	-1908
▁index	-1909
▁inhib	-1910
▁major	-1911
▁medic	-1912
▁music	-1913
▁often	-1914
▁older	-1915
▁organ	-1916
▁pharm	-1917
▁prior	-1918
▁psych	-1919
▁renal	-1920
▁schiz	-1921
▁skill	-1922
▁thick	-1923
▁toler	-1924
cording	-1925
herence	-1926
keletal	-1927
osition	-1928
theless	-1929
▁burden	-1930
▁caused	-1931
▁degree	-1932
▁dimens	-1933
▁establ	-1934
▁having	-1935
▁living	-1936
▁mental	-1937
▁muscle	-1938
▁people	-1939
▁rather	-1940
▁record	-1941
▁social	-1942
▁struct	-1943
▁taking	-1944
▁values	-1945
ophrenia	-1946
positive	-1947
specific	-1948
utrition	-1949
▁Despite	-1950
▁ability	-1951
▁adverse	-1952
▁against	-1953
▁cancers	-1954
▁carotid	-1955
▁challen	-1956
▁current	-1957
▁equally	-1958
▁experim	-1959
▁general	-1960
▁hearing	-1961
▁infants	-1962
▁measure	-1963
▁muscles	-1964
▁ovarian	-1965
▁parotid	-1966
▁reduces	-1967
▁regular	-1968
▁related	-1969
▁restric	-1970
▁serious	-1971
▁special	-1972
▁Clinical	-1973
▁adjuvant	-1974
▁combined	-1975
▁contrast	-1976
▁decision	-1977
▁diabetes	-1978
▁elevated	-1979
▁evaluate	-1980
▁impaired	-1981
▁interval	-1982
▁invasive	-1983
▁maternal	-1984
▁multiple	-1985
▁national	-1986
▁patterns	-1987
▁planning	-1988
▁pregnant	-1989
▁protocol	-1990
▁provides	-1991
▁question	-1992
▁strongly	-1993
▁subgroup	-1994
▁tailored	-1995
chological	-1996
▁awareness	-1997
▁behaviour	-1998
▁decisions	-1999
▁developed	-2000
▁emergency	-2001
▁financial	-2002
▁following	-2003
▁parameter	-2004
▁practices	-2005
▁promising	-2006
▁radiation	-2007
▁represent	-2008
▁sensitive	-2009
▁suggested	-2010
▁warranted	-2011
▁beneficial	-2012
▁controlled	-2013
▁correlated	-2014
▁developing	-2015
▁guidelines	-2016
▁predictors	-2017
▁processing	-2018
▁randomized	-2019
▁successful	-2020
▁suggesting	-2021
▁undergoing	-2022
▁understand	-2023
▁individuals	-2024
▁populations	-2025
▁unnecessary	-2026
▁Laparoscopic	-2027
▁Nevertheless	-2028
▁availability	-2029
▁chemotherapy	-2030
▁demonstrated	-2031
▁examinations	-2032
▁inflammation	-2033
▁investigation	-2034
▁participation	-2035
▁schizophrenia	-2036
▁characteristics	-2037
).	-2038
-6	-2039
-9	-2040
AF	-2041
DS	-2042
EP	-2043
HD	-2044
HR	-2045
IS	-2046
MP	-2047
SS	-2048
TA	-2049
Tn	-2050
UC	-2051
ae	-2052
cr	-2053
de	-2054
ev	-2055
mm	-2056
of	-2057
ok	-2058
ps	-2059
ry	-2060
ts	-2061
▁%	-2062
-67	-2063
RAF	-2064
SCC	-2065
alf	-2066
any	-2067
cal	-2068
eks	-2069
eld	-2070
eli	-2071
gor	-2072
hab	-2073
hyl	-2074
iew	-2075
ire	-2076
lor	-2077
lym	-2078
men	-2079
ney	-2080
ole	-2081
ond	-2082
opl	-2083
phe	-2084
por	-2085
pro	-2086
put	-2087
reg	-2088
rov	-2089
vir	-2090
▁Ac	-2091
▁Am	-2092
▁CI	-2093
▁DM	-2094
▁GE	-2095
▁HC	-2096
▁He	-2097
▁IM	-2098
▁IN	-2099
▁Ki	-2100
▁NA	-2101
▁NT	-2102
▁Ne	-2103
▁On	-2104
▁PI	-2105
▁PP	-2106
▁RO	-2107
▁SB	-2108
▁St	-2109
▁US	-2110
▁VS	-2111
▁ce	-2112
▁ir	-2113
▁pe	-2114
▁yi	-2115
aled	-2116
ampa	-2117
ange	-2118
atel	-2119
aten	-2120
cern	-2121
cial	-2122
cler	-2123
come	-2124
comp	-2125
cyst	-2126
duct	-2127
elid	-2128
emic	-2129
ened	-2130
enza	-2131
ging	-2132
hors	-2133
ient	-2134
ilic	-2135
iltr	-2136
ince	-2137
ines	-2138
lege	-2139
lial	-2140
lows	-2141
most	-2142
oadj	-2143
ocar	-2144
omet	-2145
omot	-2146
ones	-2147
orad	-2148
ores	-2149
pass	-2150
pati	-2151
resp	-2152
side	-2153
time	-2154
tion	-2155
ulos	-2156
urol	-2157
ustr	-2158
uten	-2159
view	-2160
ward	-2161
▁AIs	-2162
▁Cur	-2163
▁LOC	-2164
▁MRI	-2165
▁NSC	-2166
▁OSA	-2167
▁PSA	-2168
▁Res	-2169
▁abs	-2170
▁ben	-2171
▁cTn	-2172
▁cal	-2173
▁cle	-2174
▁cut	-2175
▁day	-2176
▁ens	-2177
▁fav	-2178
▁her	-2179
▁kid	-2180
▁lab	-2181
▁nec	-2182
▁ost	-2183
▁pal	-2184
▁ped	-2185
▁sit	-2186
▁tim	-2187
▁tog	-2188
▁ven	-2189
▁way	-2190
actic	-2191
adder	-2192
arger	-2193
arily	-2194
celer	-2195
comit	-2196
cture	-2197
ences	-2198
endic	-2199
erior	-2200
esoph	-2201
fered	-2202
icacy	-2203
icion	-2204
immun	-2205
inary	-2206
inear	-2207
ising	-2208
ittle	-2209
lasty	-2210
lieve	-2211
natal	-2212
onstr	-2213
raine	-2214
rehen	-2215
rogen	-2216
ronch	-2217
ropic	-2218
ureus	-2219
uring	-2220
viron	-2221
▁BRAF	-2222
▁CPAP	-2223
▁Many	-2224
▁anat	-2225
▁bias	-2226
▁days	-2227
▁depr	-2228
▁diet	-2229
▁eluc	-2230
▁foot	-2231
▁frag	-2232
▁free	-2233
▁full	-2234
▁gaps	-2235
▁gast	-2236
▁impl	-2237
▁late	-2238
▁left	-2239
▁made	-2240
▁mass	-2241
▁meet	-2242
▁mole	-2243
▁morp	-2244
▁rati	-2245
▁sequ	-2246
▁skin	-2247
▁thus	-2248
▁util	-2249
▁view	-2250
▁wall	-2251
acking	-2252
ancing	-2253
associ	-2254
ateral	-2255
atures	-2256
gorith	-2257
misphe	-2258
ortion	-2259
respon	-2260
urance	-2261
urolog	-2262
▁Trans	-2263
▁aimed	-2264
▁atrop	-2265
▁campa	-2266
▁canal	-2267
▁cause	-2268
▁class	-2269
▁close	-2270
▁fatty	-2271
▁genes	-2272
▁hours	-2273
▁hypox	-2274
▁image	-2275
▁metab	-2276
▁minim	-2277
▁minor	-2278
▁mucos	-2279
▁night	-2280
▁order	-2281
▁parks	-2282
▁patel	-2283
▁patho	-2284
▁phase	-2285
▁point	-2286
▁power	-2287
▁recur	-2288
▁rehab	-2289
▁repro	-2290
▁rules	-2291
▁screw	-2292
▁shows	-2293
▁thres	-2294
▁trend	-2295
▁weeks	-2296
▁whole	-2297
▁yield	-2298
cribing	-2299
cussion	-2300
ections	-2301
faction	-2302
lectomy	-2303
married	-2304
patient	-2305
vements	-2306
▁abnorm	-2307
▁access	-2308
▁adoles	-2309
▁almost	-2310
▁aureus	-2311
▁benign	-2312
▁bronch	-2313
▁circum	-2314
▁counse	-2315
▁differ	-2316
▁eyelid	-2317
▁fusion	-2318
▁gluten	-2319
▁highly	-2320
▁implic	-2321
▁issues	-2322
▁kidney	-2323
▁linear	-2324
▁little	-2325
▁marker	-2326
▁models	-2327
▁modest	-2328
▁motion	-2329
▁neoadj	-2330
▁pelvic	-2331
▁prompt	-2332
▁reflux	-2333
▁regard	-2334
▁safety	-2335
▁sample	-2336
▁series	-2337
▁simple	-2338
▁skills	-2339
▁sports	-2340
▁though	-2341
▁thromb	-2342
▁trauma	-2343
▁travel	-2344
▁tumors	-2345
▁weight	-2346
clerosis	-2347
comitant	-2348
enectomy	-2349
liminary	-2350
lycaemia	-2351
reported	-2352
▁Current	-2353
▁address	-2354
▁authors	-2355
▁believe	-2356
▁cardiac	-2357
▁caution	-2358
▁concent	-2359
▁correct	-2360
▁counter	-2361
▁delayed	-2362
▁deliver	-2363
▁endothe	-2364
▁enhance	-2365
▁environ	-2366
▁examine	-2367
▁feeding	-2368
▁genetic	-2369
▁greater	-2370
▁illustr	-2371
▁minimal	-2372
▁mothers	-2373
▁nursing	-2374
▁offered	-2375
▁partial	-2376
▁pharmac	-2377
▁preserv	-2378
▁reasons	-2379
▁respons	-2380
▁samples	-2381
▁studied	-2382
▁surgeon	-2383
▁testing	-2384
▁tumours	-2385
▁urinary	-2386
▁vitamin	-2387
effective	-2388
endicitis	-2389
istration	-2390
▁Addition	-2391
▁achieved	-2392
▁adenocar	-2393
▁algorith	-2394
▁apparent	-2395
▁arterial	-2396
▁benefits	-2397
▁campaign	-2398
▁chemorad	-2399
▁delivery	-2400
▁detected	-2401
▁distinct	-2402
▁efficacy	-2403
▁followed	-2404
▁hemisphe	-2405
▁injuries	-2406
▁maintain	-2407
▁measured	-2408
▁migraine	-2409
▁modified	-2410
▁musculos	-2411
▁obtained	-2412
▁occurred	-2413
▁provided	-2414
▁regional	-2415
▁supports	-2416
▁surgeons	-2417
▁together	-2418
associated	-2419
menopausal	-2420
rospective	-2421
▁behaviors	-2422
▁cognitive	-2423
▁community	-2424
▁comprehen	-2425
▁confirmed	-2426
▁efficient	-2427
▁elucidate	-2428
▁emotional	-2429
▁establish	-2430
▁highlight	-2431
▁indicated	-2432
▁indicator	-2433
▁influenza	-2434
▁intensity	-2435
▁intensive	-2436
▁involving	-2437
▁localized	-2438
▁morpholog	-2439
▁preferred	-2440
▁pressures	-2441
▁providers	-2442
▁providing	-2443
▁rehabilit	-2444
▁residents	-2445
▁secondary	-2446
▁selective	-2447
▁suspicion	-2448
▁threshold	-2449
atisfaction	-2450
▁activation	-2451
▁biological	-2452
▁clinicians	-2453
▁conclusion	-2454
▁definitive	-2455
▁depression	-2456
▁dimensions	-2457
▁frequently	-2458
▁identified	-2459
▁indication	-2460
▁perception	-2461
▁predicting	-2462
▁procedures	-2463
▁treatments	-2464
▁alterations	-2465
▁application	-2466
▁demonstrate	-2467
▁deprivation	-2468
▁disparities	-2469
▁examination	-2470
▁implemented	-2471
▁intravenous	-2472
▁investigate	-2473
▁measurement	-2474
▁neoadjuvant	-2475
▁observation	-2476
▁potentially	-2477
▁preliminary	-2478
▁progression	-2479
▁progressive	-2480
▁specificity	-2481
▁appendicitis	-2482
▁complication	-2483
▁experimental	-2484
▁insufficient	-2485
▁laparoscopic	-2486
▁preparations	-2487
▁significance	-2488
▁consideration	-2489
▁statistically	-2490
▁understanding	-2491
▁adenocarcinoma	-2492
▁hospitalization	-2493
▁musculoskeletal	-2494
-1	-2495
0%	-2496
1-	-2497
15	-2498
2%	-2499
2,	-2500
2/	-2501
AC	-2502
AN	-2503
BC	-2504
BS	-2505
BW	-2506
CB	-2507
CU	-2508
ED	-2509
GA	-2510
GF	-2511
GI	-2512
HC	-2513
MA	-2514
ND	-2515
NS	-2516
Ns	-2517
OA	-2518
OL	-2519
OS	-2520
PD	-2521
PV	-2522
RC	-2523
RI	-2524
RT	-2525
TS	-2526
TT	-2527
Tc	-2528
aw	-2529
ax	-2530
ci	-2531
gl	-2532
ld	-2533
ns	-2534
rs	-2535
uk	-2536
wh	-2537
wn	-2538
xy	-2539
▁8	-2540
▁z	-2541
9-9	-2542
CUG	-2543
ISM	-2544
SPE	-2545
acr	-2546
aff	-2547
ami	-2548
aps	-2549
art	-2550
ask	-2551
asm	-2552
atr	-2553
ban	-2554
bor	-2555
cut	-2556
elf	-2557
gia	-2558
inc	-2559
ind	-2560
man	-2561
met	-2562
mot	-2563
ner	-2564
oag	-2565
ock	-2566
off	-2567
ont	-2568
ove	-2569
rav	-2570
reb	-2571
rog	-2572
thr	-2573
tin	-2574
uff	-2575
ulf	-2576
und	-2577
way	-2578
xic	-2579
xim	-2580
▁15	-2581
▁3-	-2582
▁5-	-2583
▁AC	-2584
▁Af	-2585
▁CV	-2586
▁Cy	-2587
▁DS	-2588
▁EP	-2589
▁FS	-2590
▁GI	-2591
▁Hb	-2592
▁II	-2593
▁IP	-2594
▁IU	-2595
▁If	-2596
▁LD	-2597
▁LE	-2598
▁MV	-2599
▁OA	-2600
▁SC	-2601
▁SU	-2602
▁TK	-2603
▁UT	-2604
▁ax	-2605
▁ga	-2606
▁go	-2607
▁mm	-2608
▁op	-2609
▁so	-2610
CPAP	-2611
aken	-2612
aper	-2613
asic	-2614
athe	-2615
athy	-2616
atin	-2617
care	-2618
cons	-2619
cour	-2620
cuss	-2621
dose	-2622
ergy	-2623
erts	-2624
expl	-2625
face	-2626
flux	-2627
free	-2628
hest	-2629
ifer	-2630
indu	-2631
inem	-2632
ingu	-2633
isod	-2634
isol	-2635
itud	-2636
izes	-2637
laim	-2638
leph	-2639
mark	-2640
mium	-2641
ococ	-2642
odyn	-2643
oemb	-2644
olar	-2645
omia	-2646
onin	-2647
orph	-2648
osin	-2649
outh	-2650
phas	-2651
psis	-2652
ptin	-2653
read	-2654
rept	-2655
ript	-2656
self	-2657
sive	-2658
tomy	-2659
uman	-2660
umpt	-2661
uted	-2662
week	-2663
year	-2664
▁Bec	-2665
▁CMV	-2666
▁CRP	-2667
▁DGE	-2668
▁Dem	-2669
▁GDM	-2670
▁Gen	-2671
▁INR	-2672
▁LVH	-2673
▁MND	-2674
▁PCL	-2675
▁ROP	-2676
▁Reg	-2677
▁VAP	-2678
▁abd	-2679
▁aud	-2680
▁dem	-2681
▁der	-2682
▁dev	-2683
▁dyn	-2684
▁fel	-2685
▁fem	-2686
▁fib	-2687
▁hip	-2688
▁how	-2689
▁lif	-2690
▁lip	-2691
▁lob	-2692
▁lym	-2693
▁mid	-2694
▁onc	-2695
▁pul	-2696
▁rev	-2697
▁rig	-2698
▁sci	-2699
▁sed	-2700
▁sol	-2701
▁spl	-2702
▁tem	-2703
▁tis	-2704
▁tub	-2705
▁une	-2706
▁unt	-2707
▁upt	-2708
▁vag	-2709
▁vas	-2710
▁wid	-2711
SPECT	-2712
ailed	-2713
ances	-2714
antly	-2715
atial	-2716
atost	-2717
borns	-2718
caten	-2719
count	-2720
domin	-2721
emory	-2722
eopor	-2723
erest	-2724
estri	-2725
gener	-2726
iated	-2727
ibial	-2728
icide	-2729
ifest	-2730
iform	-2731
ished	-2732
isure	-2733
matic	-2734
ocyte	-2735
oidal	-2736
onary	-2737
onsil	-2738
other	-2739
pared	-2740
stage	-2741
ument	-2742
urope	-2743
uscit	-2744
white	-2745
▁Both	-2746
▁CIED	-2747
▁Data	-2748
▁Even	-2749
▁NACT	-2750
▁Over	-2751
▁Post	-2752
▁They	-2753
▁Thus	-2754
▁VCUG	-2755
▁apex	-2756
▁back	-2757
▁best	-2758
▁cTnI	-2759
▁calc	-2760
▁cort	-2761
▁diss	-2762
▁drin	-2763
▁drop	-2764
▁easy	-2765
▁flow	-2766
▁gall	-2767
▁glob	-2768
▁gout	-2769
▁half	-2770
▁horm	-2771
▁inad	-2772
▁isol	-2773
▁leuk	-2774
▁link	-2775
▁lith	-2776
▁lost	-2777
▁male	-2778
▁mamm	-2779
▁mand	-2780
▁memb	-2781
▁must	-2782
▁nail	-2783
▁neck	-2784
▁node	-2785
▁nonc	-2786
▁oper	-2787
▁peak	-2788
▁plac	-2789
▁play	-2790
▁sacr	-2791
▁sele	-2792
▁sept	-2793
▁stay	-2794
▁task	-2795
▁term	-2796
▁then	-2797
▁true	-2798
▁turn	-2799
▁unli	-2800
▁upon	-2801
ancies	-2802
emorrh	-2803
employ	-2804
ending	-2805
ethnic	-2806
herent	-2807
illary	-2808
iology	-2809
ission	-2810
ivided	-2811
lastic	-2812
lecyst	-2813
levant	-2814
liance	-2815
longed	-2816
ograph	-2817
ologic	-2818
omotor	-2819
oplasm	-2820
orsion	-2821
ovitis	-2822
rectal	-2823
ulitis	-2824
uropsy	-2825
▁Afric	-2826
▁Early	-2827
▁Hence	-2828
▁PRISM	-2829
▁above	-2830
▁acids	-2831
▁activ	-2832
▁added	-2833
▁admin	-2834
▁adult	-2835
▁advis	-2836
▁aging	-2837
▁allow	-2838
▁alone	-2839
▁aorta	-2840
▁aspir	-2841
▁avoid	-2842
▁barri	-2843
▁basic	-2844
▁bring	-2845
▁calls	-2846
▁categ	-2847
▁cereb	-2848
▁chlor	-2849
▁cited	-2850
▁claim	-2851
▁conse	-2852
▁count	-2853
▁creat	-2854
▁curve	-2855
▁empir	-2856
▁eosin	-2857
▁esoph	-2858
▁falls	-2859
▁famil	-2860
▁fatal	-2861
▁fluid	-2862
▁hepat	-2863
▁hypog	-2864
▁instr	-2865
▁later	-2866
▁leads	-2867
▁least	-2868
▁liter	-2869
▁liver	-2870
▁lymph	-2871
▁meals	-2872
▁melan	-2873
▁nurse	-2874
▁obese	-2875
▁optim	-2876
▁overe	-2877
▁print	-2878
▁prove	-2879
▁react	-2880
▁refer	-2881
▁resol	-2882
▁risks	-2883
▁scann	-2884
▁staff	-2885
▁stone	-2886
▁tears	-2887
▁terms	-2888
▁three	-2889
▁tools	-2890
▁toxic	-2891
▁tract	-2892
▁urine	-2893
▁valve	-2894
▁vehic	-2895
▁where	-2896
▁white	-2897
▁whose	-2898
▁worse	-2899
alities	-2900
atheter	-2901
catenin	-2902
clusive	-2903
ication	-2904
iciency	-2905
ilities	-2906
illance	-2907
induced	-2908
inguish	-2909
ireflux	-2910
isation	-2911
iveness	-2912
lephone	-2913
licular	-2914
lowship	-2915
ocation	-2916
orectal	-2917
protect	-2918
raction	-2919
rection	-2920
rectomy	-2921
roidism	-2922
umption	-2923
version	-2924
▁Europe	-2925
▁action	-2926
▁active	-2927
▁adjust	-2928
▁append	-2929
▁arrest	-2930
▁assist	-2931
▁attend	-2932
▁become	-2933
▁behind	-2934
▁bypass	-2935
▁caregi	-2936
▁causes	-2937
▁clinic	-2938
▁deform	-2939
▁disapp	-2940
▁encoun	-2941
▁encour	-2942
▁enough	-2943
▁ensure	-2944
▁episod	-2945
▁ethnic	-2946
▁guided	-2947
▁images	-2948
▁immedi	-2949
▁intake	-2950
▁itself	-2951
▁laparo	-2952
▁larger	-2953
▁latent	-2954
▁linked	-2955
▁making	-2956
▁matter	-2957
▁metast	-2958
▁multic	-2959
▁needle	-2960
▁offers	-2961
▁parent	-2962
▁racial	-2963
▁recent	-2964
▁review	-2965
▁safely	-2966
▁sepsis	-2967
▁sexual	-2968
▁shared	-2969
▁stable	-2970
▁suffer	-2971
▁superv	-2972
▁survey	-2973
▁timing	-2974
▁toward	-2975
▁unexpl	-2976
▁unsafe	-2977
▁uptake	-2978
▁venous	-2979
▁ventil	-2980
estrians	-2981
hylactic	-2982
itudinal	-2983
oembolic	-2984
ogeneous	-2985
partment	-2986
pression	-2987
reatment	-2988
reptococ	-2989
ribution	-2990
▁Because	-2991
▁General	-2992
▁Results	-2993
▁abdomen	-2994
▁absence	-2995
▁account	-2996
▁alcohol	-2997
▁anticip	-2998
▁atrophy	-2999
▁concern	-3000
▁contact	-3001
▁content	-3002
▁continu	-3003
▁culture	-3004
▁defined	-3005
▁discuss	-3006
▁divided	-3007
▁dynamic	-3008
▁edition	-3009
▁efforts	-3010
▁explain	-3011
▁exposed	-3012
▁facilit	-3013
▁feature	-3014
▁fitness	-3015
▁hemodyn	-3016
▁hypoxia	-3017
▁inhibit	-3018
▁leisure	-3019
▁methods	-3020
▁outside	-3021
▁packing	-3022
▁patella	-3023
▁percent	-3024
▁planned	-3025
▁product	-3026
▁propose	-3027
▁reflect	-3028
▁several	-3029
▁smoking	-3030
▁spatial	-3031
▁subtype	-3032
▁suicide	-3033
▁surface	-3034
▁systems	-3035
▁tissues	-3036
▁various	-3037
▁workers	-3038
▁working	-3039
atostatin	-3040
iltration	-3041
iological	-3042
stitution	-3043
ventional	-3044
▁Compared	-3045
▁Demonstr	-3046
▁Moreover	-3047
▁accepted	-3048
▁accuracy	-3049
▁anterior	-3050
▁anticoag	-3051
▁autoCPAP	-3052
▁axillary	-3053
▁concentr	-3054
▁controls	-3055
▁coronary	-3056
▁cortisol	-3057
▁creatine	-3058
▁cultures	-3059
▁detailed	-3060
▁determin	-3061
▁diagnose	-3062
▁drinking	-3063
▁eosinoph	-3064
▁examined	-3065
▁features	-3066
▁fentanyl	-3067
▁fixation	-3068
▁haemorrh	-3069
▁hypermet	-3070
▁improves	-3071
▁institut	-3072
▁interact	-3073
▁ischemic	-3074
▁isolated	-3075
▁majority	-3076
▁manifest	-3077
▁neurolog	-3078
▁newborns	-3079
▁nonwhite	-3080
▁normally	-3081
▁osteopor	-3082
▁predicts	-3083
▁predomin	-3084
▁prenatal	-3085
▁problems	-3086
▁profound	-3087
▁recorded	-3088
▁relation	-3089
▁reproduc	-3090
▁resuscit	-3091
▁revealed	-3092
▁sacrific	-3093
▁settings	-3094
▁superior	-3095
▁turnover	-3096
▁unlikely	-3097
▁valuable	-3098
▁variable	-3099
aparoscopy	-3100
employment	-3101
plantation	-3102
rovascular	-3103
▁According	-3104
▁advantage	-3105
▁algorithm	-3106
▁assessing	-3107
▁campaigns	-3108
▁candidate	-3109
▁carefully	-3110
▁childhood	-3111
▁cholecyst	-3112
▁clinician	-3113
▁component	-3114
▁diagnosed	-3115
▁education	-3116
▁elevation	-3117
▁enhancing	-3118
▁estimated	-3119
▁exclusion	-3120
▁explained	-3121
▁extensive	-3122
▁indicates	-3123
▁initially	-3124
▁insertion	-3125
▁insurance	-3126
▁interrupt	-3127
▁justified	-3128
▁leukocyte	-3129
▁movements	-3130
▁nutrition	-3131
▁perfusion	-3132
▁physician	-3133
▁prolonged	-3134
▁provision	-3135
▁receiving	-3136
▁recognize	-3137
▁routinely	-3138
▁selection	-3139
▁specimens	-3140
▁subgroups	-3141
▁sustained	-3142
▁syndromes	-3143
▁telephone	-3144
▁thickness	-3145
▁tolerance	-3146
▁traumatic	-3147
▁unmarried	-3148
▁vasomotor	-3149
lementation	-3150
▁acceptable	-3151
▁accurately	-3152
▁adequately	-3153
▁advantages	-3154
▁antireflux	-3155
▁applicable	-3156
▁aspiration	-3157
▁challenges	-3158
▁comparison	-3159
▁complement	-3160
▁compliance	-3161
▁components	-3162
▁consistent	-3163
▁counseling	-3164
▁counteract	-3165
▁depressive	-3166
▁fellowship	-3167
▁infections	-3168
▁insertions	-3169
▁laparotomy	-3170
▁literature	-3171
▁occurrence	-3172
▁pathologic	-3173
▁proportion	-3174
▁radiograph	-3175
▁regulation	-3176
▁restricted	-3177
▁strategies	-3178
▁techniques	-3179
▁validation	-3180
onsillectomy	-3181
▁composition	-3182
▁consumption	-3183
▁distinguish	-3184
▁endothelial	-3185
▁functioning	-3186
▁illustrates	-3187
▁institution	-3188
▁laparoscopy	-3189
▁maintaining	-3190
▁mammography	-3191
▁morphologic	-3192
▁pedestrians	-3193
▁pregnancies	-3194
▁prescribing	-3195
▁recognition	-3196
▁responsible	-3197
▁splenectomy	-3198
▁statistical	-3199
▁supervision	-3200
▁transfusion	-3201
▁unexplained	-3202
▁utilization	-3203
▁vaccination	-3204
▁colonization	-3205
▁conventional	-3206
▁demonstrates	-3207
▁distribution	-3208
▁hypertension	-3209
▁implantation	-3210
▁inflammatory	-3211
▁longitudinal	-3212
▁radiographic	-3213
▁satisfaction	-3214
▁somatostatin	-3215
▁surveillance	-3216
▁Demonstration	-3217
▁appropriately	-3218
▁circumference	-3219
▁comprehensive	-3220
▁hypoglycaemia	-3221
▁independently	-3222
▁predominantly	-3223
▁socioeconomic	-3224
▁administration	-3225
▁chemoradiation	-3226
▁interpretation	-3227
▁investigations	-3228
▁postmenopausal	-3229
▁rehabilitation	-3230
uropsychological	-3231
▁cholecystectomy	-3232
04	-3233
BG	-3234
LT	-3235
SR	-3236
Se	-3237
oe	-3238
▁9	-3239
.2%	-3240
ADs	-3241
CRP	-3242
DNA	-3243
EGF	-3244
GUC	-3245
HSe	-3246
IDS	-3247
LBW	-3248
MMA	-3249
MPK	-3250
MRI	-3251
SCE	-3252
SNs	-3253
TTR	-3254
TcD	-3255
bCC	-3256
bac	-3257
bul	-3258
day	-3259
dia	-3260
gov	-3261
gue	-3262
iac	-3263
key	-3264
lax	-3265
lig	-3266
ltr	-3267
nai	-3268
nel	-3269
nia	-3270
och	-3271
opt	-3272
oqu	-3273
ork	-3274
rab	-3275
rum	-3276
sue	-3277
tab	-3278
teb	-3279
ths	-3280
xam	-3281
ymp	-3282
ysm	-3283
▁1.	-3284
▁11	-3285
▁2,	-3286
▁22	-3287
▁60	-3288
▁AE	-3289
▁AI	-3290
▁AR	-3291
▁BD	-3292
▁BM	-3293
▁BV	-3294
▁Bi	-3295
▁Bl	-3296
▁CD	-3297
▁CL	-3298
▁DF	-3299
PS	-3300
HPS	-3301
aid	-3302
alk	-3303
eed	-3304
lex	-3305
mew	-3306
mus	-3307
ori	-3308
ram	-3309
▁CH	-3310
▁DQ	-3311
▁DT	-3312
▁ED	-3313
▁EM	-3314
▁En	-3315
▁FM	-3316
▁GF	-3317
▁Ig	-3318
▁Im	-3319
▁LS	-3320
▁MP	-3321
▁MS	-3322
▁NC	-3323
▁NP	-3324
▁OC	-3325
▁OS	-3326
▁Ob	-3327
▁PB	-3328
▁Re	-3329
▁Se	-3330
▁Sp	-3331
▁Us	-3332
▁WH	-3333
▁hy	-3334
▁ju	-3335
▁mg	-3336
▁rs	-3337
▁vo	-3338
▁wa	-3339
NPCC	-3340
ains	-3341
amox	-3342
amps	-3343
angu	-3344
anul	-3345
aryn	-3346
ases	-3347
back	-3348
ched	-3349
cies	-3350
cine	-3351
comy	-3352
dund	-3353
ects	-3354
ense	-3355
eros	-3356
esis	-3357
ests	-3358
ffic	-3359
flow	-3360
foot	-3361
fort	-3362
gast	-3363
here	-3364
idal	-3365
iect	-3366
iers	-3367
ifen	-3368
ilob	-3369
ilot	-3370
imer	-3371
itus	-3372
ixed	-3373
know	-3374
lade	-3375
late	-3376
lied	-3377
life	-3378
mall	-3379
neal	-3380
olis	-3381
opat	-3382
opia	-3383
othy	-3384
oval	-3385
owel	-3386
phys	-3387
ptic	-3388
quid	-3389
rade	-3390
rawn	-3391
reng	-3392
rial	-3393
rist	-3394
rote	-3395
sody	-3396
tery	-3397
thle	-3398
tinu	-3399
2.	-3400
3,	-3401
54	-3402
8%	-3403
Hi	-3404
TD	-3405
WI	-3406
lo	-3407
ls	-3408
APC	-3409
car	-3410
ean	-3411
enh	-3412
eur	-3413
ged	-3414
kes	-3415
mic	-3416
mit	-3417
mme	-3418
oly	-3419
raz	-3420
ros	-3421
ubt	-3422
usl	-3423
▁4-	-3424
▁AA	-3425
▁AG	-3426
▁ge	-3427
▁il	-3428
GUCA	-3429
alli	-3430
aser	-3431
atur	-3432
ceed	-3433
cord	-3434
ined	-3435
ises	-3436
lain	-3437
loid	-3438
oman	-3439
radu	-3440
roin	-3441
trim	-3442
tual	-3443
ucle	-3444
unct	-3445
uter	-3446
welf	-3447
wise	-3448
ynch	-3449
▁201	-3450
▁AEA	-3451
▁ARM	-3452
▁ASA	-3453
▁BVM	-3454
▁Col	-3455
▁DNA	-3456
▁Del	-3457
▁Dop	-3458
▁ECG	-3459
▁EOA	-3460
▁ETA	-3461
▁FAC	-3462
▁FHR	-3463
▁Fam	-3464
▁Fin	-3465
▁GBS	-3466
▁GER	-3467
▁HCC	-3468
▁HIE	-3469
▁HPV	-3470
▁IMT	-3471
▁IPF	-3472
▁IUD	-3473
▁Kup	-3474
▁LDL	-3475
▁LSG	-3476
▁MDD	-3477
▁Mal	-3478
▁NCT	-3479
▁OCD	-3480
▁PAD	-3481
▁PAN	-3482
▁PCI	-3483
▁PCT	-3484
▁PID	-3485
▁Pan	-3486
▁QOL	-3487
▁RAI	-3488
▁RHR	-3489
▁Rem	-3490
▁SGA	-3491
▁SNP	-3492
▁TKA	-3493
▁Tum	-3494
▁VAS	-3495
▁Vit	-3496
▁WHO	-3497
▁abl	-3498
▁ace	-3499
.5	-3500
Ps	-3501
gu	-3502
▁x	-3503
cel	-3504
ese	-3505
inj	-3506
old	-3507
wed	-3508
▁Ca	-3509
▁HA	-3510
▁Nm	-3511
▁PT	-3512
▁br	-3513
▁et	-3514
ames	-3515
cell	-3516
clos	-3517
ders	-3518
erob	-3519
geal	-3520
icit	-3521
icom	-3522
neum	-3523
utes	-3524
wing	-3525
▁CCB	-3526
▁Due	-3527
▁Int	-3528
▁NmU	-3529
▁PTC	-3530
▁PVL	-3531
▁Son	-3532
▁agg	-3533
▁aid	-3534
▁asp	-3535
▁bal	-3536
▁bed	-3537
▁buc	-3538
▁che	-3539
▁cra	-3540
▁deb	-3541
▁dil	-3542
▁doc	-3543
▁emb	-3544
▁era	-3545
▁erg	-3546
▁err	-3547
▁ess	-3548
▁eye	-3549
▁far	-3550
▁fil	-3551
▁get	-3552
▁hab	-3553
▁haz	-3554
▁ide	-3555
▁key	-3556
▁lag	-3557
▁led	-3558
▁lik	-3559
▁max	-3560
▁mer	-3561
▁mis	-3562
▁nat	-3563
▁now	-3564
▁oil	-3565
▁old	-3566
▁opp	-3567
▁oxy	-3568
▁pSS	-3569
▁pan	-3570
▁pyl	-3571
▁rad	-3572
▁rhy	-3573
▁sal	-3574
▁sem	-3575
▁sut	-3576
▁thy	-3577
▁tom	-3578
▁top	-3579
▁unc	-3580
▁van	-3581
▁vul	-3582
▁xer	-3583
▁zip	-3584
Blade	-3585
ables	-3586
aemic	-3587
akage	-3588
alkon	-3589
anied	-3590
arity	-3591
asone	-3592
atics	-3593
ators	-3594
aving	-3595
axity	-3596
bacco	-3597
birth	-3598
chron	-3599
-,	-3600
--	-3601
0-	-3602
9%	-3603
AT	-3604
SB	-3605
US	-3606
pr	-3607
sc	-3608
CTV	-3609
WAT	-3610
ird	-3611
mut	-3612
ray	-3613
▁12	-3614
▁14	-3615
▁30	-3616
▁At	-3617
▁ER	-3618
▁HS	-3619
▁sl	-3620
ique	-3621
ital	-3622
omal	-3623
sCRP	-3624
▁ACL	-3625
▁PPM	-3626
▁PRP	-3627
▁SMI	-3628
▁cre	-3629
▁put	-3630
▁rap	-3631
arthr	-3632
cinog	-3633
cover	-3634
ctive	-3635
ctors	-3636
dings	-3637
edull	-3638
ekend	-3639
eliac	-3640
enced	-3641
endit	-3642
ensus	-3643
etime	-3644
evalu	-3645
force	-3646
gland	-3647
going	-3648
herit	-3649
heros	-3650
hylax	-3651
iasis	-3652
idely	-3653
iding	-3654
igrap	-3655
isons	-3656
issed	-3657
issue	-3658
ister	-3659
ivari	-3660
ivers	-3661
izing	-3662
lifer	-3663
lying	-3664
ocard	-3665
ochem	-3666
odial	-3667
odies	-3668
offsp	-3669
oints	-3670
ology	-3671
omach	-3672
omies	-3673
orage	-3674
orest	-3675
ories	-3676
ortun	-3677
osive	-3678
otomy	-3679
otype	-3680
parin	-3681
ranul	-3682
rated	-3683
rying	-3684
tries	-3685
ufact	-3686
ulcer	-3687
uming	-3688
urers	-3689
uslim	-3690
uster	-3691
usual	-3692
vered	-3693
yloid	-3694
ympan	-3695
▁19-9	-3696
▁2009	-3697
▁ADHD	-3698
▁AMPK	-3699
00	-3700
bl	-3701
▁:	-3702
Bis	-3703
ale	-3704
oce	-3705
ule	-3706
▁Em	-3707
▁IR	-3708
▁Le	-3709
anol	-3710
erve	-3711
omer	-3712
▁BDD	-3713
▁Cyt	-3714
▁PBB	-3715
▁SLN	-3716
▁vir	-3717
ageal	-3718
astom	-3719
forms	-3720
known	-3721
▁ATTR	-3722
▁CABG	-3723
▁Cert	-3724
▁Cmin	-3725
▁Cons	-3726
▁Educ	-3727
▁From	-3728
▁GERD	-3729
▁HCMV	-3730
▁IHPS	-3731
▁MSCC	-3732
▁Maln	-3733
▁Most	-3734
▁NCCT	-3735
▁NTHi	-3736
▁OSCE	-3737
▁PPPD	-3738
▁PSNs	-3739
▁QTcD	-3740
▁RMMA	-3741
▁SHSe	-3742
▁Safe	-3743
▁Sami	-3744
▁SbCC	-3745
▁Sign	-3746
▁Surg	-3747
▁UTUC	-3748
▁Ultr	-3749
▁VEGF	-3750
▁VLBW	-3751
▁acup	-3752
▁allo	-3753
▁angi	-3754
▁appe	-3755
▁aver	-3756
▁benz	-3757
▁biom	-3758
▁carb	-3759
▁chol	-3760
▁code	-3761
▁cuff	-3762
▁cyst	-3763
▁dead	-3764
▁dent	-3765
▁each	-3766
▁fMRI	-3767
▁fall	-3768
▁flex	-3769
▁four	-3770
▁fulf	-3771
▁gait	-3772
▁gang	-3773
▁goal	-3774
▁guid	-3775
▁hand	-3776
▁imag	-3777
▁indu	-3778
▁inst	-3779
▁irre	-3780
▁last	-3781
▁lect	-3782
▁live	-3783
▁mell	-3784
▁mess	-3785
▁milk	-3786
▁mode	-3787
▁neon	-3788
▁neut	-3789
▁norf	-3790
▁once	-3791
▁otic	-3792
▁pWAT	-3793
▁phen	-3794
▁poly	-3795
▁rare	-3796
▁read	-3797
▁reag	-3798
▁real	-3799
▁rely	-3800
▁repe	-3801
▁requ	-3802
▁road	-3803
▁root	-3804
▁rupt	-3805
▁said	-3806
▁seen	-3807
▁situ	-3808
▁step	-3809
▁summ	-3810
▁team	-3811
▁them	-3812
▁tone	-3813
▁uter	-3814
▁vers	-3815
▁weak	-3816
▁what	-3817
▁whom	-3818
▁year	-3819
aching	-3820
advant	-3821
aginal	-3822
agitis	-3823
ampsia	-3824
argine	-3825
atonin	-3826
charge	-3827
cribed	-3828
crimin	-3829
ectrum	-3830
encies	-3831
energy	-3832
enosis	-3833
equate	-3834
erobic	-3835
eurysm	-3836
ferent	-3837
formed	-3838
formin	-3839
guided	-3840
ibular	-3841
idated	-3842
idates	-3843
ifying	-3844
ighted	-3845
ignant	-3846
ilobar	-3847
imated	-3848
inatal	-3849
ionals	-3850
ipment	-3851
itable	-3852
manent	-3853
mature	-3854
mental	-3855
mework	-3856
mitted	-3857
mutant	-3858
naires	-3859
ocytes	-3860
olysis	-3861
omical	-3862
onance	-3863
ondral	-3864
orable	-3865
orphic	-3866
paedic	-3867
porine	-3868
rastru	-3869
razole	-3870
rength	-3871
ressed	-3872
rolled	-3873
rotein	-3874
social	-3875
ternal	-3876
tinued	-3877
ulated	-3878
ulates	-3879
venile	-3880
vertic	-3881
xameth	-3882
▁Among	-3883
▁Based	-3884
▁EPSCC	-3885
▁Given	-3886
▁HGUCA	-3887
▁HNPCC	-3888
▁India	-3889
▁Large	-3890
▁Lynch	-3891
▁Since	-3892
▁South	-3893
▁Using	-3894
▁Women	-3895
▁abdom	-3896
▁acqui	-3897
▁adhes	-3898
▁agree	-3899
▁alert	-3900
▁amput	-3901
▁apopt	-3902
▁ascer	-3903
▁athle	-3904
▁bowel	-3905
▁delin	-3906
▁depic	-3907
▁doubt	-3908
▁drops	-3909
▁drugs	-3910
▁equiv	-3911
▁event	-3912
▁femor	-3913
▁fever	-3914
▁fixed	-3915
▁fluor	-3916
▁frail	-3917
▁gland	-3918
▁grade	-3919
▁gradi	-3920
▁graft	-3921
▁groin	-3922
▁heavi	-3923
▁heter	-3924
▁hsCRP	-3925
▁human	-3926
▁iliac	-3927
▁inequ	-3928
▁integ	-3929
▁issue	-3930
▁joint	-3931
▁kinem	-3932
▁labor	-3933
▁laser	-3934
▁lipid	-3935
▁means	-3936
▁micro	-3937
▁milks	-3938
▁nonad	-3939
▁noted	-3940
▁novel	-3941
▁offer	-3942
▁overl	-3943
▁palli	-3944
▁palsy	-3945
▁paper	-3946
▁pilot	-3947
▁place	-3948
▁pneum	-3949
▁ptery	-3950
▁quick	-3951
▁rapid	-3952
▁ratio	-3953
▁reach	-3954
▁reper	-3955
▁right	-3956
▁scint	-3957
▁score	-3958
▁signs	-3959
▁since	-3960
▁solid	-3961
▁spine	-3962
▁spont	-3963
▁tamox	-3964
▁third	-3965
▁trial	-3966
▁undet	-3967
▁uninj	-3968
▁unsuc	-3969
▁until	-3970
▁urban	-3971
▁usual	-3972
▁visit	-3973
▁vital	-3974
▁vitro	-3975
▁vocal	-3976
▁voice	-3977
▁woman	-3978
▁wound	-3979
agnetic	-3980
airment	-3981
bladder	-3982
cessive	-3983
comfort	-3984
comycin	-3985
creased	-3986
ectable	-3987
elihood	-3988
erosity	-3989
ersonal	-3990
espread	-3991
estasis	-3992
etamine	-3993
gastric	-3994
genesis	-3995
hylaxis	-3996
idities	-3997
ificant	-3998
ignment	-3999
igraphy	-4000
iologic	-4001
isoning	-4002
lapping	-4003
lasting	-4004
lective	-4005
levated	-4006
lightly	-4007
ointing	-4008
ometric	-4009
oplasty	-4010
orative	-4011
ostomia	-4012
ourable	-4013
quality	-4014
raduate	-4015
ressing	-4016
ricular	-4017
rophied	-4018
ruption	-4019
tabular	-4020
uctions	-4021
uscript	-4022
versity	-4023
welfare	-4024
ympanic	-4025
▁Compar	-4026
▁Effect	-4027
▁Family	-4028
▁Future	-4029
▁Muslim	-4030
▁Stroke	-4031
▁accomp	-4032
▁aggrav	-4033
▁animal	-4034
▁aortic	-4035
▁artery	-4036
▁attach	-4037
▁attent	-4038
▁bacter	-4039
▁buccal	-4040
▁center	-4041
▁chance	-4042
▁choice	-4043
▁claims	-4044
▁cleans	-4045
▁congen	-4046
▁contex	-4047
▁cycles	-4048
▁cyclos	-4049
▁deaths	-4050
▁define	-4051
▁dental	-4052
▁depend	-4053
▁detrim	-4054
▁device	-4055
▁easily	-4056
▁elimin	-4057
▁emphas	-4058
▁employ	-4059
▁events	-4060
▁expert	-4061
▁facial	-4062
▁failed	-4063
▁female	-4064
▁fibers	-4065
▁filing	-4066
▁formal	-4067
▁formul	-4068
▁gender	-4069
▁glands	-4070
▁global	-4071
▁glomer	-4072
▁habits	-4073
▁hearts	-4074
▁hernia	-4075
▁heroin	-4076
▁hyperf	-4077
▁immune	-4078
▁insult	-4079
▁laxity	-4080
▁leptin	-4081
▁lesion	-4082
▁limits	-4083
▁liquid	-4084
▁medium	-4085
▁memory	-4086
▁missed	-4087
▁months	-4088
▁mother	-4089
▁mucoce	-4090
▁mucosa	-4091
▁multif	-4092
▁necess	-4093
▁nurses	-4094
▁option	-4095
▁overex	-4096
▁oxygen	-4097
▁pancre	-4098
▁partly	-4099
▁pelvis	-4100
▁places	-4101
▁points	-4102
▁promot	-4103
▁raises	-4104
▁ratios	-4105
▁reason	-4106
▁recall	-4107
▁recept	-4108
▁redund	-4109
▁region	-4110
▁rhythm	-4111
▁scores	-4112
▁seemed	-4113
▁simult	-4114
▁smooth	-4115
▁specif	-4116
▁stages	-4117
▁stones	-4118
▁stress	-4119
▁subset	-4120
▁tempor	-4121
▁theory	-4122
▁tibial	-4123
▁tissue	-4124
▁undert	-4125
▁unique	-4126
▁viable	-4127
▁vulner	-4128
▁widely	-4129
▁workup	-4130
alkonium	-4131
aryngeal	-4132
aturated	-4133
chronous	-4134
cinogens	-4135
edullary	-4136
enhanced	-4137
entially	-4138
ethering	-4139
ferences	-4140
function	-4141
hospital	-4142
iectasis	-4143
ilateral	-4144
itioners	-4145
ivariate	-4146
liciting	-4147
ocardial	-4148
ogeneity	-4149
ologists	-4150
roplasty	-4151
umenting	-4152
▁Alcohol	-4153
▁Certain	-4154
▁College	-4155
▁England	-4156
▁Kupffer	-4157
▁Vitamin	-4158
▁acceler	-4159
▁achieve	-4160
▁adjunct	-4161
▁adolesc	-4162
▁aerobic	-4163
▁amyloid	-4164
▁anastom	-4165
▁another	-4166
▁applied	-4167
▁aspects	-4168
▁atheros	-4169
▁average	-4170
▁barrier	-4171
▁beating	-4172
▁bladder	-4173
▁clearly	-4174
▁closely	-4175
▁cluster	-4176
▁college	-4177
▁consult	-4178
▁corneal	-4179
▁craving	-4180
▁deceler	-4181
▁decline	-4182
▁demands	-4183
▁depends	-4184
▁derived	-4185
▁dietary	-4186
▁doctors	-4187
▁endomet	-4188
▁enforce	-4189
▁erosive	-4190
▁ethanol	-4191
▁exclude	-4192
▁flexion	-4193
▁fulfill	-4194
▁gastric	-4195
▁heparin	-4196
▁hepatic	-4197
▁hypothy	-4198
▁inherit	-4199
▁inverse	-4200
▁largely	-4201
▁leading	-4202
▁leakage	-4203
▁locally	-4204
▁mapping	-4205
▁maximal	-4206
▁members	-4207
▁mineral	-4208
▁mucosal	-4209
▁natural	-4210
▁parents	-4211
▁possess	-4212
▁premium	-4213
▁preterm	-4214
▁problem	-4215
▁profess	-4216
▁profile	-4217
▁program	-4218
▁prompts	-4219
▁prosody	-4220
▁receive	-4221
▁reevalu	-4222
▁rotated	-4223
▁rotator	-4224
▁science	-4225
▁showing	-4226
▁sighted	-4227
▁smaller	-4228
▁statins	-4229
▁stomach	-4230
▁storage	-4231
▁suscept	-4232
▁sustain	-4233
▁targets	-4234
▁thyroid	-4235
▁tobacco	-4236
▁towards	-4237
▁traffic	-4238
▁typical	-4239
▁unclear	-4240
▁uniform	-4241
▁unknown	-4242
▁unusual	-4243
▁variant	-4244
▁version	-4245
▁viewing	-4246
▁volumes	-4247
▁younger	-4248
ationally	-4249
consuming	-4250
cutaneous	-4251
enditures	-4252
fficiency	-4253
iotherapy	-4254
odialysis	-4255
offspring	-4256
ollicular	-4257
protected	-4258
▁Consider	-4259
▁Findings	-4260
▁Improved	-4261
▁Medicaid	-4262
▁Medicare	-4263
▁ablation	-4264
▁acidosis	-4265
▁affected	-4266
▁aneurysm	-4267
▁arteries	-4268
▁athletes	-4269
▁carrying	-4270
▁catheter	-4271
▁cerebral	-4272
▁changing	-4273
▁chloride	-4274
▁complain	-4275
▁continue	-4276
▁decrease	-4277
▁dentists	-4278
▁designed	-4279
▁dexameth	-4280
▁diabetic	-4281
▁divertic	-4282
▁emission	-4283
▁emotions	-4284
▁endoscop	-4285
▁entities	-4286
▁episodic	-4287
▁estrogen	-4288
▁families	-4289
▁gastroph	-4290
▁glargine	-4291
▁guidance	-4292
▁histopat	-4293
▁hormonal	-4294
▁included	-4295
▁interest	-4296
▁juvenile	-4297
▁lectures	-4298
▁lifetime	-4299
▁location	-4300
▁manufact	-4301
▁material	-4302
▁mediated	-4303
▁medicine	-4304
▁mellitus	-4305
▁minimize	-4306
▁minority	-4307
▁modality	-4308
▁neonatal	-4309
▁neoplasm	-4310
▁neutroph	-4311
▁opportun	-4312
▁powerful	-4313
▁probable	-4314
▁products	-4315
▁prolifer	-4316
▁proposed	-4317
▁pterygia	-4318
▁readings	-4319
▁referral	-4320
▁remained	-4321
▁resident	-4322
▁resolved	-4323
▁revision	-4324
▁rigidity	-4325
▁scanning	-4326
▁sedation	-4327
▁sequence	-4328
▁slightly	-4329
▁spectrum	-4330
▁strength	-4331
▁substant	-4332
▁suturing	-4333
▁systemic	-4334
▁toxicity	-4335
▁trilobar	-4336
▁vaccines	-4337
▁visually	-4338
▁warrants	-4339
conception	-4340
partmental	-4341
regulation	-4342
responding	-4343
▁Adherence	-4344
▁Effective	-4345
▁Emergency	-4346
▁abdominal	-4347
▁according	-4348
▁adherence	-4349
▁advisable	-4350
▁alloimmun	-4351
▁apoptotic	-4352
▁autoimmun	-4353
▁combining	-4354
▁completed	-4355
▁consensus	-4356
▁countries	-4357
▁cutaneous	-4358
▁dependent	-4359
▁depending	-4360
▁described	-4361
▁diagnoses	-4362
▁disadvant	-4363
▁discrimin	-4364
▁disorders	-4365
▁diversity	-4366
▁empirical	-4367
▁encounter	-4368
▁equipment	-4369
▁essential	-4370
▁estimates	-4371
▁existence	-4372
▁extension	-4373
▁favorable	-4374
▁framework	-4375
▁generally	-4376
▁generated	-4377
▁infrastru	-4378
▁inpatient	-4379
▁intervals	-4380
▁lobectomy	-4381
▁malignant	-4382
▁measuring	-4383
▁medicines	-4384
▁melanomas	-4385
▁melatonin	-4386
▁metabolic	-4387
▁metformin	-4388
▁modulates	-4389
▁molecular	-4390
▁operating	-4391
▁operative	-4392
▁otherwise	-4393
▁pathology	-4394
▁perinatal	-4395
▁permanent	-4396
▁poisoning	-4397
▁preserved	-4398
▁prevalent	-4399
▁processed	-4400
▁prognoses	-4401
▁programme	-4402
▁prostatic	-4403
▁psychotic	-4404
▁questions	-4405
▁reactions	-4406
▁recording	-4407
▁recurrent	-4408
▁remaining	-4409
▁residency	-4410
▁resonance	-4411
▁retention	-4412
▁reviewers	-4413
▁sacrifice	-4414
▁sclerosis	-4415
▁specialty	-4416
▁stability	-4417
▁stimulate	-4418
▁substages	-4419
▁substance	-4420
▁suffering	-4421
▁synovitis	-4422
▁tamoxifen	-4423
▁tolerated	-4424
▁transform	-4425
▁translate	-4426
▁uninjured	-4427
▁validated	-4428
▁vehicular	-4429
▁Additional	-4430
▁Randomized	-4431
▁Ultrasound	-4432
▁acetabular	-4433
▁activities	-4434
▁adolescent	-4435
▁amputation	-4436
▁anatomical	-4437
▁apparently	-4438
▁candidates	-4439
▁caregivers	-4440
▁categories	-4441
▁classified	-4442
▁colorectal	-4443
▁concussion	-4444
▁confidence	-4445
▁continence	-4446
▁continuous	-4447
▁conversion	-4448
▁correction	-4449
▁decreasing	-4450
▁deficiency	-4451
▁delinquent	-4452
▁detectable	-4453
▁discomfort	-4454
▁disruption	-4455
▁dissection	-4456
▁emphasizes	-4457
▁esophageal	-4458
▁facilitate	-4459
▁facilities	-4460
▁favourable	-4461
▁glomerular	-4462
▁healthcare	-4463
▁hemisphere	-4464
▁highlights	-4465
▁impairment	-4466
▁implicated	-4467
▁inadequate	-4468
▁indicators	-4469
▁influences	-4470
▁irrelevant	-4471
▁kinematics	-4472
▁likelihood	-4473
▁manuscript	-4474
▁mechanical	-4475
▁menopausal	-4476
▁moderately	-4477
▁myocardial	-4478
▁neurologic	-4479
▁overweight	-4480
▁palliative	-4481
▁parameters	-4482
▁persistent	-4483
▁prediction	-4484
▁preferably	-4485
▁presenting	-4486
▁preventive	-4487
▁protection	-4488
▁recurrence	-4489
▁redundancy	-4490
▁regardless	-4491
▁specialist	-4492
▁statistics	-4493
▁streptococ	-4494
▁structural	-4495
▁structures	-4496
▁suggestive	-4497
▁systematic	-4498
▁tomography	-4499
▁transition	-4500
▁tuberosity	-4501
▁unelevated	-4502
▁vancomycin	-4503
▁widespread	-4504
▁xerostomia	-4505
▁Alternative	-4506
▁Concomitant	-4507
▁Improvement	-4508
▁Prospective	-4509
▁Significant	-4510
▁abnormality	-4511
▁accompanied	-4512
▁amyloidosis	-4513
▁angiography	-4514
▁attentional	-4515
▁challenging	-4516
▁cholestasis	-4517
▁circulation	-4518
▁colonoscopy	-4519
▁compartment	-4520
▁concomitant	-4521
▁deformities	-4522
▁documenting	-4523
▁educational	-4524
▁effectively	-4525
▁experienced	-4526
▁gallbladder	-4527
▁hemodynamic	-4528
▁hepatocytes	-4529
▁homogeneous	-4530
▁identifiers	-4531
▁immediately	-4532
▁indications	-4533
▁inheritance	-4534
▁interpreted	-4535
▁involvement	-4536
▁multicenter	-4537
▁necessarily	-4538
▁nonadherent	-4539
▁nonclinical	-4540
▁norfentanyl	-4541
▁nutritional	-4542
▁overlapping	-4543
▁perspective	-4544
▁positioning	-4545
▁possibility	-4546
▁practically	-4547
▁preferences	-4548
▁preparation	-4549
▁probability	-4550
▁prophylaxis	-4551
▁reperfusion	-4552
▁restorative	-4553
▁restriction	-4554
▁septoplasty	-4555
▁spontaneous	-4556
▁stimulation	-4557
▁subtraction	-4558
▁synchronous	-4559
▁unprotected	-4560
▁variability	-4561
▁Malnutrition	-4562
▁Preoperative	-4563
▁acceleration	-4564
▁appendectomy	-4565
▁applications	-4566
▁benzalkonium	-4567
▁contribution	-4568
▁cyclosporine	-4569
▁differential	-4570
▁difficulties	-4571
▁environments	-4572
▁eosinophilic	-4573
▁expenditures	-4574
▁haemorrhages	-4575
▁hemodialysis	-4576
▁histological	-4577
▁inequalities	-4578
▁institutions	-4579
▁instructions	-4580
▁investigated	-4581
▁multivariate	-4582
▁observations	-4583
▁optimization	-4584
▁osteoporosis	-4585
▁pathogenesis	-4586
▁presentation	-4587
▁preservation	-4588
▁prophylactic	-4589
▁requirements	-4590
▁scintigraphy	-4591
▁simultaneous	-4592
▁specifically	-4593
▁sufficiently	-4594
▁thrombectomy	-4595
▁unsuccessful	-4596
icompartmental	-4597
▁calcification	-4598
▁cardioembolic	-4599
▁communication	-4600
▁corresponding	-4601
▁decelerations	-4602
▁demonstrating	-4603
▁determination	-4604
▁dexamethasone	-4605
▁disappointing	-4606
▁hypermetropic	-4607
▁hypertrophied	-4608
▁interpersonal	-4609
▁manufacturers	-4610
▁microvascular	-4611
▁opportunities	-4612
▁practitioners	-4613
▁professionals	-4614
▁proliferation	-4615
▁psychological	-4616
▁resuscitation	-4617
▁retrospective	-4618
▁tonsillectomy	-4619
▁undergraduate	-4620
▁Implementation	-4621
▁bronchiectasis	-4622
▁classification	-4623
▁concentrations	-4624
▁diverticulitis	-4625
▁hypothyroidism	-4626
▁implementation	-4627
▁infrastructure	-4628
▁overexpression	-4629
▁questionnaires	-4630
▁susceptibility	-4631
▁anticoagulation	-4632
▁atherosclerosis	-4633
▁hemispherectomy	-4634
▁hyperfiltration	-4635
▁postoperatively	-4636
▁reproducibility	-4637
-1,	-4638
.).	-4639
.8%	-4640
0%,	-4641
0-1	-4642
0-5	-4643
0.5	-4644
000	-4645
1-3	-4646
32.	-4647
78%	-4648
ASI	-4649
BWL	-4650
CSs	-4651
DDI	-4652
EOL	-4653
GEF	-4654
HAN	-4655
NSP	-4656
OAE	-4657
OSQ	-4658
SEP	-4659
TDP	-4660
UNA	-4661
UPs	-4662
VHD	-4663
ava	-4664
avy	-4665
iHC	-4666
joy	-4667
ryo	-4668
▁%,	-4669
▁48	-4670
▁75	-4671
▁85	-4672
▁99	-4673
▁QA	-4674
-0.5	-4675
0-57	-4676
0006	-4677
032.	-4678
78%.	-4679
ASIK	-4680
EBWL	-4681
EOAE	-4682
HANE	-4683
OADs	-4684
RIGI	-4685
RUPs	-4686
Sami	-4687
arae	-4688
cond	-4689
cule	-4690
dden	-4691
elae	-4692
enzy	-4693
glum	-4694
haps	-4695
irab	-4696
irls	-4697
ligo	-4698
load	-4699
▁5.	-4700
egal	-4701
epip	-4702
look	-4703
ofos	-4704
oise	-4705
okin	-4706
olds	-4707
orax	-4708
orio	-4709
orrh	-4710
raft	-4711
sels	-4712
supp	-4713
type	-4714
ulae	-4715
ynec	-4716
yram	-4717
▁(54	-4718
▁1.6	-4719
▁11,	-4720
▁15%	-4721
▁150	-4722
▁2.5	-4723
▁31-	-4724
▁32%	-4725
▁50%	-4726
▁79%	-4727
▁85%	-4728
▁AAB	-4729
▁AAI	-4730
▁AAS	-4731
▁ACE	-4732
▁AGA	-4733
▁AGE	-4734
▁AIS	-4735
▁APC	-4736
▁APT	-4737
▁Amb	-4738
▁BMP	-4739
▁CDM	-4740
▁CHB	-4741
▁CLB	-4742
▁CRT	-4743
▁CSS	-4744
▁CTV	-4745
▁Cox	-4746
▁DFS	-4747
▁DSM	-4748
▁DWI	-4749
▁EMS	-4750
▁ETS	-4751
▁GCS	-4752
▁GEM	-4753
▁GES	-4754
▁GPs	-4755
▁HAM	-4756
▁HCM	-4757
▁IAC	-4758
▁IMN	-4759
▁INF	-4760
▁IgG	-4761
▁IgM	-4762
▁LNs	-4763
▁LUS	-4764
▁MBC	-4765
▁MCS	-4766
▁MEP	-4767
▁NPC	-4768
▁NPH	-4769
▁NSR	-4770
▁OTA	-4771
▁PAS	-4772
▁PET	-4773
▁PMP	-4774
▁PRK	-4775
▁PVR	-4776
▁PVT	-4777
▁QAL	-4778
▁RSB	-4779
▁RTS	-4780
▁Rev	-4781
▁SBK	-4782
▁SLE	-4783
▁SUP	-4784
▁TBI	-4785
▁TDM	-4786
▁TGF	-4787
▁ULT	-4788
▁UNP	-4789
▁UTI	-4790
▁epi	-4791
▁law	-4792
▁own	-4793
▁sSS	-4794
▁six	-4795
▁upd	-4796
.2%).	-4797
00069	-4798
70-57	-4799
-9,	-4800
airs	-4801
akes	-4802
anex	-4803
asai	-4804
kins	-4805
rins	-4806
ruit	-4807
▁IHC	-4808
▁LCN	-4809
▁Lys	-4810
▁SSC	-4811
▁Tai	-4812
▁umb	-4813
ORIGI	-4814
ached	-4815
agocy	-4816
almic	-4817
amely	-4818
amics	-4819
anese	-4820
angli	-4821
apped	-4822
arers	-4823
artan	-4824
artum	-4825
athis	-4826
aware	-4827
banic	-4828
bient	-4829
bling	-4830
cardi	-4831
chers	-4832
cifer	-4833
cious	-4834
contr	-4835
cyste	-4836
dimer	-4837
drawn	-4838
ehold	-4839
eping	-4840
estru	-4841
exist	-4842
gesia	-4843
graft	-4844
hibit	-4845
hinct	-4846
icits	-4847
igrav	-4848
imple	-4849
incip	-4850
irway	-4851
ismus	-4852
istry	-4853
itely	-4854
kewed	-4855
legia	-4856
lixim	-4857
mixed	-4858
neled	-4859
noise	-4860
ocket	-4861
oepit	-4862
oleic	-4863
olism	-4864
ondro	-4865
onnel	-4866
oplac	-4867
opram	-4868
oquin	-4869
paper	-4870
perts	-4871
plays	-4872
print	-4873
rants	-4874
ready	-4875
rials	-4876
rinem	-4877
stays	-4878
udged	-4879
veset	-4880
weden	-4881
ximum	-4882
▁-0.5	-4883
▁100%	-4884
▁2002	-4885
▁2005	-4886
▁2008	-4887
▁2016	-4888
▁22).	-4889
▁7.8%	-4890
▁AABR	-4891
▁Ambu	-4892
▁Arab	-4893
▁CHCS	-4894
▁CLBP	-4895
▁Comm	-4896
▁EPDS	-4897
▁Emot	-4898
▁Flor	-4899
arte	-4900
eamm	-4901
erks	-4902
ifty	-4903
naly	-4904
onyl	-4905
rane	-4906
tead	-4907
▁202	-4908
▁HIN	-4909
▁PCO	-4910
▁PCR	-4911
▁PEG	-4912
6032.	-4913
acral	-4914
arted	-4915
colum	-4916
nalyz	-4917
ontal	-4918
opted	-4919
teady	-4920
tedly	-4921
tered	-4922
▁2020	-4923
▁HINT	-4924
▁Half	-4925
▁Head	-4926
▁Kore	-4927
▁LCNB	-4928
▁LEEP	-4929
▁MSSA	-4930
▁Mean	-4931
▁Neop	-4932
▁Obes	-4933
▁PCOS	-4934
▁PEEP	-4935
▁PICT	-4936
▁PIPE	-4937
▁Path	-4938
▁Prog	-4939
▁Prov	-4940
▁QALE	-4941
▁RCTs	-4942
▁SSCP	-4943
▁Sept	-4944
▁adds	-4945
▁aloe	-4946
▁caly	-4947
▁cava	-4948
▁ceph	-4949
▁chec	-4950
▁coch	-4951
▁cold	-4952
▁coll	-4953
▁crit	-4954
▁debr	-4955
▁dysm	-4956
▁ease	-4957
▁edar	-4958
▁edem	-4959
▁elig	-4960
▁epid	-4961
▁etan	-4962
▁harm	-4963
▁haze	-4964
▁herp	-4965
▁hygi	-4966
▁idea	-4967
▁inev	-4968
▁irra	-4969
▁jour	-4970
▁load	-4971
▁lobe	-4972
▁lumb	-4973
▁mean	-4974
▁mere	-4975
▁midd	-4976
▁myom	-4977
▁oste	-4978
▁palp	-4979
▁publ	-4980
▁pulp	-4981
▁semi	-4982
▁sett	-4983
▁shig	-4984
▁sick	-4985
▁sulf	-4986
▁vein	-4987
▁vena	-4988
▁vera	-4989
000697	-4990
70-576	-4991
UNAIDS	-4992
aceous	-4993
adings	-4994
adofos	-4995
anging	-4996
asised	-4997
atched	-4998
atigue	-4999
354	-5000
STD	-5001
lob	-5002
1354	-5003
adob	-5004
body	-5005
lobe	-5006
miss	-5007
moid	-5008
nife	-5009
ontr	-5010
▁CSA	-5011
▁Cob	-5012
▁GFD	-5013
▁aSA	-5014
13544	-5015
atoid	-5016
trans	-5017
trary	-5018
ullip	-5019
▁Body	-5020
▁Cobb	-5021
▁Pret	-5022
▁aSAH	-5023
813544	-5024
adoben	-5025
change	-5026
ciably	-5027
column	-5028
crural	-5029
diform	-5030
ediatr	-5031
edtime	-5032
egrade	-5033
enmark	-5034
entral	-5035
ercial	-5036
eriatr	-5037
gmatic	-5038
hedule	-5039
helial	-5040
hereas	-5041
igital	-5042
inders	-5043
ipient	-5044
iploid	-5045
ipolar	-5046
ittent	-5047
kathis	-5048
lopram	-5049
normal	-5050
ocolon	-5051
odules	-5052
okines	-5053
olmium	-5054
omains	-5055
onomic	-5056
opathy	-5057
oquine	-5058
orcine	-5059
orests	-5060
orioam	-5061
orrhag	-5062
osomal	-5063
osomot	-5064
otechn	-5065
others	-5066
perfic	-5067
phasia	-5068
points	-5069
proced	-5070
puting	-5071
ranula	-5072
rendel	-5073
rhotic	-5074
riends	-5075
rinsic	-5076
ronted	-5077
rovers	-5078
second	-5079
siting	-5080
thorax	-5081
tology	-5082
ultras	-5083
upling	-5084
ustral	-5085
veolar	-5086
verteb	-5087
viewer	-5088
wanese	-5089
▁Acute	-5090
▁Alloc	-5091
▁Blood	-5092
▁Clear	-5093
▁Colum	-5094
▁Conve	-5095
▁Doppl	-5096
▁Image	-5097
▁Kasai	-5098
▁LVADs	-5099
SAP	-5100
SAPO	-5101
▁ART	-5102
▁Haw	-5103
▁RAQ	-5104
▁irr	-5105
▁occ	-5106
▁pie	-5107
arker	-5108
onset	-5109
resia	-5110
▁Ital	-5111
▁SSEP	-5112
▁arip	-5113
▁clos	-5114
▁mini	-5115
cutive	-5116
ergast	-5117
ergist	-5118
▁Langu	-5119
▁Legal	-5120
▁Local	-5121
▁Lower	-5122
▁Masal	-5123
▁NHANE	-5124
▁Nebul	-5125
▁Nontr	-5126
▁Pregn	-5127
▁Remot	-5128
▁Small	-5129
▁Speed	-5130
▁TEOAE	-5131
▁Teamm	-5132
▁Tests	-5133
▁Trial	-5134
▁Tumor	-5135
▁absol	-5136
▁alarm	-5137
▁ambul	-5138
▁arise	-5139
▁arthr	-5140
▁audit	-5141
▁autox	-5142
▁biatr	-5143
▁biops	-5144
▁black	-5145
▁bruit	-5146
▁carbo	-5147
▁clear	-5148
▁coinc	-5149
▁decod	-5150
▁dimin	-5151
▁drain	-5152
▁edema	-5153
▁emiss	-5154
▁epile	-5155
▁epine	-5156
▁extra	-5157
▁extre	-5158
▁femur	-5159
▁fiber	-5160
▁fifty	-5161
▁games	-5162
▁gangl	-5163
▁goals	-5164
▁heavy	-5165
▁holds	-5166
▁immig	-5167
▁input	-5168
▁irrit	-5169
▁knife	-5170
▁known	-5171
▁label	-5172
▁lifel	-5173
▁limbs	-5174
▁lines	-5175
▁links	-5176
▁lipop	-5177
▁lists	-5178
▁lunar	-5179
▁makes	-5180
▁males	-5181
▁malle	-5182
▁matri	-5183
▁meets	-5184
▁miniT	-5185
▁moist	-5186
▁molar	-5187
▁moles	-5188
▁monof	-5189
▁motiv	-5190
▁multi	-5191
▁names	-5192
▁necro	-5193
▁newly	-5194
▁occup	-5195
▁oligo	-5196
▁oncos	-5197
▁pairs	-5198
▁palat	-5199
1-2	-5200
SBF	-5201
1-29	-5202
SBFT	-5203
ubic	-5204
▁mak	-5205
▁mob	-5206
igree	-5207
iquid	-5208
itish	-5209
phase	-5210
▁MiHC	-5211
▁ROIs	-5212
▁ages	-5213
▁agon	-5214
▁feel	-5215
▁plur	-5216
▁plus	-5217
atitis	-5218
cially	-5219
rially	-5220
ritish	-5221
severe	-5222
stolic	-5223
umably	-5224
urally	-5225
▁21-29	-5226
▁Older	-5227
▁doesn	-5228
▁piece	-5229
▁plant	-5230
▁prelo	-5231
▁prote	-5232
▁pubic	-5233
▁pyram	-5234
▁range	-5235
▁revis	-5236
▁saliv	-5237
▁semie	-5238
▁serve	-5239
▁shall	-5240
▁sites	-5241
▁sizes	-5242
▁slide	-5243
▁speed	-5244
▁start	-5245
▁surpr	-5246
▁synov	-5247
▁taken	-5248
▁teeth	-5249
▁tidal	-5250
▁ulcer	-5251
▁undes	-5252
▁unres	-5253
▁utero	-5254
▁vagal	-5255
▁vagin	-5256
▁versa	-5257
▁virus	-5258
▁waist	-5259
▁youth	-5260
0006978	-5261
2813544	-5262
70-576.	-5263
agangli	-5264
algesia	-5265
ambling	-5266
andmark	-5267
aplegia	-5268
arental	-5269
arthria	-5270
asacral	-5271
atories	-5272
atrogen	-5273
baceous	-5274
biology	-5275
caution	-5276
ceiving	-5277
certain	-5278
coeliac	-5279
complic	-5280
conserv	-5281
cretion	-5282
epiphys	-5283
erkship	-5284
eroidal	-5285
etected	-5286
forward	-5287
hesitis	-5288
hincter	-5289
hocardi	-5290
iculate	-5291
ilicone	-5292
imarily	-5293
imeglum	-5294
imiting	-5295
initely	-5296
ionitis	-5297
iversal	-5298
lampsia	-5299
DWI	-5300
ieu	-5301
lie	-5302
pha	-5303
ards	-5304
arli	-5305
empl	-5306
iteo	-5307
laqu	-5308
phon	-5309
play	-5310
ways	-5311
▁CLM	-5312
▁Muc	-5313
▁Oph	-5314
▁SPE	-5315
accin	-5316
ialty	-5317
laque	-5318
liteo	-5319
lycop	-5320
oving	-5321
phrol	-5322
▁2001	-5323
▁2003	-5324
▁Only	-5325
▁SPEC	-5326
▁caps	-5327
▁fres	-5328
▁geri	-5329
▁medi	-5330
▁ward	-5331
atings	-5332
idized	-5333
ilized	-5334
leased	-5335
osphon	-5336
tments	-5337
▁Mucos	-5338
▁Ophth	-5339
▁alpha	-5340
▁earli	-5341
▁fresh	-5342
▁genot	-5343
▁oncop	-5344
▁postf	-5345
▁remov	-5346
▁separ	-5347
▁simpl	-5348
accines	-5349
achment	-5350
atholog	-5351
lymorph	-5352
managed	-5353
matched	-5354
mittent	-5355
ocusing	-5356
olisers	-5357
olishes	-5358
omiting	-5359
omyopia	-5360
onylure	-5361
orefoot	-5362
oresist	-5363
orioamn	-5364
osening	-5365
osocial	-5366
otactic	-5367
otropic	-5368
ovative	-5369
overall	-5370
quently	-5371
reement	-5372
ributed	-5373
ristian	-5374
rograde	-5375
rophage	-5376
rossing	-5377
sidized	-5378
ubtedly	-5379
umatoid	-5380
uncture	-5381
urrence	-5382
usoidal	-5383
uterine	-5384
vaginal	-5385
verages	-5386
ylcyste	-5387
▁(54.2%	-5388
▁1.78%.	-5389
▁Active	-5390
▁Center	-5391
▁Columb	-5392
▁Contin	-5393
▁Convey	-5394
▁Florid	-5395
▁GFRUPs	-5396
▁Having	-5397
▁Korean	-5398
▁Larger	-5399
604	-5400
▁1-	-5401
▁13	-5402
▁16	-5403
▁27	-5404
5604	-5405
▁16:	-5406
▁APD	-5407
▁Cue	-5408
25604	-5409
aking	-5410
arous	-5411
enied	-5412
leeve	-5413
ntern	-5414
oking	-5415
quiet	-5416
▁Chem	-5417
▁Self	-5418
▁Tran	-5419
▁bloc	-5420
▁priv	-5421
▁prud	-5422
▁scol	-5423
▁unco	-5424
125604	-5425
Intern	-5426
common	-5427
ellect	-5428
making	-5429
select	-5430
sleeve	-5431
termin	-5432
▁Benef	-5433
▁Delay	-5434
▁decay	-5435
▁elect	-5436
▁metoc	-5437
▁scoli	-5438
▁stell	-5439
▁strip	-5440
1256049	-5441
astatic	-5442
ellosis	-5443
oratory	-5444
▁Liquid	-5445
▁Memory	-5446
▁NHANES	-5447
▁Parity	-5448
▁Postst	-5449
▁Random	-5450
▁Remote	-5451
▁Simple	-5452
▁Skewed	-5453
▁Social	-5454
▁Steady	-5455
▁Thromb	-5456
▁Tibial	-5457
▁Transs	-5458
▁Tumour	-5459
▁Weight	-5460
▁actual	-5461
▁adhere	-5462
▁advice	-5463
▁agents	-5464
▁aiming	-5465
▁airway	-5466
▁alerts	-5467
▁appeal	-5468
▁assays	-5469
▁atrial	-5470
▁biases	-5471
▁births	-5472
▁bodies	-5473
▁brands	-5474
▁calyce	-5475
▁capped	-5476
▁carbon	-5477
▁cephal	-5478
▁cervix	-5479
▁closer	-5480
▁counts	-5481
▁create	-5482
▁curves	-5483
▁cystic	-5484
▁defici	-5485
▁denied	-5486
▁deserv	-5487
▁discon	-5488
▁eating	-5489
▁edarav	-5490
▁embryo	-5491
▁entire	-5492
▁enucle	-5493
▁epiDWI	-5494
▁errone	-5495
▁errors	-5496
▁etaner	-5497
▁exceed	-5498
▁extrem	-5499
▁35	-5500
▁40	-5501
erti	-5502
ikes	-5503
larg	-5504
rams	-5505
▁Any	-5506
▁Asp	-5507
▁IPE	-5508
▁LEs	-5509
▁ker	-5510
▁raw	-5511
erted	-5512
etric	-5513
▁RARC	-5514
▁VDDI	-5515
▁insp	-5516
▁quar	-5517
▁quil	-5518
▁triv	-5519
▁undo	-5520
erties	-5521
evelop	-5522
hology	-5523
intest	-5524
ithout	-5525
larged	-5526
ograms	-5527
ostomy	-5528
outine	-5529
uneral	-5530
▁Aspir	-5531
▁carri	-5532
▁enrol	-5533
▁fetus	-5534
▁kerat	-5535
▁mania	-5536
▁manip	-5537
▁ortho	-5538
▁races	-5539
▁regim	-5540
▁terti	-5541
ceptive	-5542
current	-5543
ologies	-5544
without	-5545
▁United	-5546
▁distal	-5547
▁enable	-5548
▁except	-5549
▁gallst	-5550
▁gather	-5551
▁glycop	-5552
▁herpes	-5553
▁incent	-5554
▁inclin	-5555
▁intram	-5556
▁irradi	-5557
▁judged	-5558
▁lithot	-5559
▁lumbar	-5560
▁makers	-5561
▁manual	-5562
▁margin	-5563
▁measur	-5564
▁median	-5565
▁merely	-5566
▁metric	-5567
▁microb	-5568
▁middle	-5569
▁misper	-5570
▁monoun	-5571
▁multid	-5572
▁multip	-5573
▁myomas	-5574
▁namely	-5575
▁nature	-5576
▁noncom	-5577
▁nonort	-5578
▁normok	-5579
▁occlus	-5580
▁oesoph	-5581
▁osteot	-5582
▁others	-5583
▁patell	-5584
▁perfor	-5585
▁perioc	-5586
▁phases	-5587
▁plaque	-5588
▁poorly	-5589
▁possib	-5590
▁procar	-5591
▁proper	-5592
▁psychi	-5593
▁pylori	-5594
▁radial	-5595
▁refute	-5596
▁repeat	-5597
▁resear	-5598
▁rising	-5599
CGP	-5600
▁GM	-5601
apse	-5602
chol	-5603
eech	-5604
good	-5605
levi	-5606
ourn	-5607
ovir	-5608
utri	-5609
▁IAD	-5610
▁Neu	-5611
▁rob	-5612
child	-5613
elmis	-5614
isone	-5615
itone	-5616
oneal	-5617
ource	-5618
ourni	-5619
▁Bone	-5620
▁done	-5621
▁wild	-5622
clovir	-5623
enthol	-5624
ildren	-5625
ingful	-5626
nisone	-5627
rating	-5628
rawing	-5629
▁MRCGP	-5630
▁dense	-5631
▁embra	-5632
▁safer	-5633
▁taugh	-5634
▁tends	-5635
▁tubes	-5636
▁wider	-5637
dnisone	-5638
eritone	-5639
leviate	-5640
ournier	-5641
ronutri	-5642
yclovir	-5643
▁Neurom	-5644
▁allerg	-5645
▁follic	-5646
▁hypers	-5647
▁proven	-5648
▁robust	-5649
▁saline	-5650
▁scaled	-5651
▁scient	-5652
▁scored	-5653
▁screen	-5654
▁search	-5655
▁sensor	-5656
▁septum	-5657
▁settle	-5658
▁source	-5659
▁speech	-5660
▁spikes	-5661
▁statin	-5662
▁stimul	-5663
▁strati	-5664
▁sudden	-5665
▁suprap	-5666
▁surrog	-5667
▁synthe	-5668
▁taught	-5669
▁telmis	-5670
▁testis	-5671
▁timely	-5672
▁tracer	-5673
▁tranex	-5674
▁ultras	-5675
▁undist	-5676
▁urolog	-5677
▁verify	-5678
▁versus	-5679
▁visual	-5680
00069784	-5681
agocytic	-5682
aluating	-5683
angement	-5684
appropri	-5685
atectomy	-5686
bidities	-5687
cernable	-5688
changing	-5689
chocardi	-5690
chondral	-5691
clampsia	-5692
clinical	-5693
clusions	-5694
cordance	-5695
detected	-5696
ectively	-5697
ectomies	-5698
ensitive	-5699
AIDS	-5700
Burg	-5701
aped	-5702
phen	-5703
then	-5704
▁DST	-5705
▁obj	-5706
avent	-5707
bound	-5708
fract	-5709
oland	-5710
venth	-5711
▁Phen	-5712
▁anti	-5713
▁diap	-5714
▁pron	-5715
▁reli	-5716
▁zinc	-5717
ailure	-5718
omencl	-5719
omenon	-5720
ounded	-5721
stress	-5722
▁amoun	-5723
▁malal	-5724
▁merit	-5725
▁modes	-5726
▁poses	-5727
▁scans	-5728
▁space	-5729
Burgess	-5730
oquinol	-5731
▁Poland	-5732
▁Severe	-5733
▁Unless	-5734
▁always	-5735
▁amount	-5736
▁asthen	-5737
▁consol	-5738
▁diaphy	-5739
▁interc	-5740
▁locate	-5741
▁vagino	-5742
ationale	-5743
ditional	-5744
ergistic	-5745
etorsion	-5746
fication	-5747
ficiency	-5748
finitely	-5749
fractive	-5750
iatrogen	-5751
iprazole	-5752
irrhotic	-5753
ithiasis	-5754
kathisia	-5755
location	-5756
lycaemic	-5757
markable	-5758
missible	-5759
normalis	-5760
novative	-5761
omorphic	-5762
onylurea	-5763
oosening	-5764
oplastic	-5765
oprazole	-5766
ormother	-5767
orrhagic	-5768
ortional	-5769
otension	-5770
ousehold	-5771
parative	-5772
perative	-5773
phasised	-5774
phosphon	-5775
quieting	-5776
ractures	-5777
ragmatic	-5778
rapartum	-5779
rapeutic	-5780
ravenous	-5781
reciably	-5782
referent	-5783
rendelen	-5784
rointest	-5785
selected	-5786
standing	-5787
stituted	-5788
stitutes	-5789
tainment	-5790
tualized	-5791
tylcyste	-5792
weighted	-5793
ximately	-5794
ynovitis	-5795
▁(54.2%)	-5796
▁African	-5797
▁Aphasia	-5798
▁Austral	-5799
TSP	-5800
▁BS	-5801
▁NB	-5802
▁NN	-5803
▁RE	-5804
▁Ro	-5805
▁APB	-5806
▁DFV	-5807
▁Est	-5808
▁REs	-5809
▁Ras	-5810
▁Rec	-5811
▁Rou	-5812
erson	-5813
iciar	-5814
lowed	-5815
olely	-5816
ropho	-5817
ropia	-5818
umans	-5819
users	-5820
▁APBI	-5821
▁Cycl	-5822
▁IMRT	-5823
▁LVAD	-5824
▁NBCS	-5825
▁NNAP	-5826
▁Prop	-5827
▁Roux	-5828
▁gave	-5829
▁pose	-5830
iciate	-5831
icious	-5832
izures	-5833
linear	-5834
lowing	-5835
ockade	-5836
person	-5837
rophob	-5838
ropine	-5839
uality	-5840
▁NBCSP	-5841
▁Rasch	-5842
▁Those	-5843
▁below	-5844
▁final	-5845
▁poore	-5846
▁pylor	-5847
earance	-5848
odality	-5849
▁Cyclop	-5850
▁Sweden	-5851
▁endoch	-5852
▁humans	-5853
▁poorer	-5854
▁slowed	-5855
▁solely	-5856
▁undesc	-5857
iciaries	-5858
oplasmic	-5859
utilized	-5860
▁Bedtime	-5861
▁Biochem	-5862
▁British	-5863
▁Chronic	-5864
▁Comedic	-5865
▁Delayed	-5866
▁Denmark	-5867
▁Develop	-5868
▁Digital	-5869
▁Doppler	-5870
▁Elderly	-5871
▁Gadofos	-5872
▁Geriatr	-5873
▁Hawkins	-5874
▁Imaging	-5875
▁Italian	-5876
▁Leaving	-5877
▁Mothers	-5878
▁Neither	-5879
▁Neopuff	-5880
▁Obesity	-5881
▁Overall	-5882
▁Predict	-5883
▁Quality	-5884
▁Routine	-5885
▁Slowing	-5886
▁Surgery	-5887
▁Vaginal	-5888
▁Whereas	-5889
▁acquire	-5890
▁adenoma	-5891
▁adopted	-5892
▁advance	-5893
▁affects	-5894
▁already	-5895
▁ambient	-5896
▁amongst	-5897
▁bedside	-5898
▁cancell	-5899
CBF	-5900
jun	-5901
oyb	-5902
swe	-5903
▁DA	-5904
▁FT	-5905
▁FV	-5906
▁LA	-5907
▁LF	-5908
dati	-5909
ejun	-5910
emia	-5911
isks	-5912
onia	-5913
ugul	-5914
xide	-5915
▁AMI	-5916
▁Age	-5917
▁DAR	-5918
▁Day	-5919
▁Dis	-5920
▁Dut	-5921
▁FTL	-5922
▁Low	-5923
▁aug	-5924
▁cru	-5925
asten	-5926
elill	-5927
ensor	-5928
hered	-5929
illed	-5930
itral	-5931
jejun	-5932
ptive	-5933
▁FTLD	-5934
▁King	-5935
▁Last	-5936
▁Long	-5937
▁With	-5938
▁abus	-5939
▁disp	-5940
▁evol	-5941
▁rCBF	-5942
▁side	-5943
▁soyb	-5944
▁stop	-5945
▁tast	-5946
▁wors	-5947
aptive	-5948
destru	-5949
elilla	-5950
ineous	-5951
ojejun	-5952
orther	-5953
raight	-5954
swered	-5955
uction	-5956
ugulot	-5957
▁Dutch	-5958
▁Inter	-5959
▁abuse	-5960
▁cover	-5961
▁disks	-5962
▁eight	-5963
▁light	-5964
▁oxide	-5965
▁ramus	-5966
▁stopp	-5967
▁taste	-5968
▁umbil	-5969
arction	-5970
duction	-5971
ethered	-5972
idement	-5973
leading	-5974
orthern	-5975
▁Discre	-5976
▁Septal	-5977
▁anemia	-5978
▁hasten	-5979
▁hydati	-5980
▁interl	-5981
▁milled	-5982
▁mitral	-5983
▁plates	-5984
enojejun	-5985
ischarge	-5986
▁Discrep	-5987
▁Kingdom	-5988
▁Melilla	-5989
▁augment	-5990
▁carbohy	-5991
▁choking	-5992
▁chondro	-5993
▁clarity	-5994
▁clinics	-5995
▁coexist	-5996
▁cohorts	-5997
▁colloid	-5998
▁consequ	-5999
BE	-6000
Tab	-6001
cip	-6002
uch	-6003
▁IA	-6004
▁OP	-6005
▁Qo	-6006
▁aw	-6007
clim	-6008
ioid	-6009
ypes	-6010
▁Ass	-6011
▁DBE	-6012
▁Hip	-6013
▁OPL	-6014
▁QoL	-6015
▁phy	-6016
▁why	-6017
diagn	-6018
iscip	-6019
lists	-6020
romet	-6021
▁Init	-6022
▁OPLL	-6023
▁item	-6024
▁much	-6025
▁scan	-6026
acclim	-6027
ctions	-6028
ipated	-6029
klists	-6030
reater	-6031
stakes	-6032
threat	-6033
unding	-6034
▁aides	-6035
▁aware	-6036
▁quant	-6037
▁strom	-6038
essions	-6039
nective	-6040
▁Associ	-6041
▁adding	-6042
▁ageing	-6043
▁clinch	-6044
▁geared	-6045
▁lipids	-6046
▁opioid	-6047
▁physis	-6048
▁polyet	-6049
▁stroma	-6050
icipated	-6051
isciplin	-6052
rounding	-6053
▁Greater	-6054
▁Initial	-6055
▁changed	-6056
▁conserv	-6057
▁context	-6058
▁contral	-6059
▁coronal	-6060
▁covered	-6061
▁decided	-6062
▁deficit	-6063
▁desirab	-6064
▁dilated	-6065
▁diluted	-6066
▁drawing	-6067
▁educate	-6068
▁enables	-6069
▁endemic	-6070
▁engraft	-6071
▁enrolle	-6072
▁ensured	-6073
▁enteral	-6074
▁equival	-6075
▁ergocal	-6076
▁exenter	-6077
▁exhibit	-6078
▁experts	-6079
▁explore	-6080
▁express	-6081
▁extreme	-6082
▁eyelids	-6083
▁fatigue	-6084
▁femoroc	-6085
▁finally	-6086
▁focused	-6087
▁formula	-6088
▁fragile	-6089
▁friends	-6090
▁funeral	-6091
▁gadoben	-6092
▁getting	-6093
▁grading	-6094
▁growing	-6095
▁harmful	-6096
▁heavily	-6097
▁helpful	-6098
▁holmium	-6099
.,	-6100
QI	-6101
ACS	-6102
OQI	-6103
OTA	-6104
thy	-6105
▁Go	-6106
▁MG	-6107
▁MM	-6108
▁SI	-6109
▁SW	-6110
▁VM	-6111
ACSL	-6112
DOQI	-6113
aine	-6114
fect	-6115
scal	-6116
▁MGP	-6117
▁SIB	-6118
▁SWL	-6119
▁Sam	-6120
▁VMS	-6121
▁atm	-6122
▁ces	-6123
althy	-6124
ineal	-6125
itary	-6126
level	-6127
rural	-6128
scale	-6129
ureth	-6130
▁40%,	-6131
▁Goog	-6132
▁acad	-6133
▁fine	-6134
▁gain	-6135
▁hair	-6136
▁stri	-6137
coming	-6138
entary	-6139
etable	-6140
fectly	-6141
inable	-6142
itions	-6143
mented	-6144
ocaine	-6145
stable	-6146
ubject	-6147
uitary	-6148
▁LASIK	-6149
▁atmos	-6150
▁disag	-6151
▁drawn	-6152
▁initi	-6153
antable	-6154
getable	-6155
lipping	-6156
omalies	-6157
ystolic	-6158
▁Change	-6159
▁Google	-6160
▁atmosp	-6161
▁belong	-6162
▁cesare	-6163
▁discop	-6164
▁expect	-6165
▁modify	-6166
▁pineal	-6167
▁signal	-6168
▁unable	-6169
▁vision	-6170
igmented	-6171
ituitary	-6172
urethral	-6173
▁Failure	-6174
▁Healthy	-6175
▁Pathway	-6176
▁Samples	-6177
▁Subject	-6178
▁cocaine	-6179
▁decoded	-6180
▁domains	-6181
▁hygiene	-6182
▁hypoxic	-6183
▁illicit	-6184
▁illness	-6185
▁immunom	-6186
▁impacts	-6187
▁inadver	-6188
▁indices	-6189
▁inducer	-6190
▁infiltr	-6191
▁inhibin	-6192
▁injured	-6193
▁inserts	-6194
▁insight	-6195
▁intense	-6196
▁journal	-6197
▁jugulot	-6198
▁lacking	-6199
▁ES	-6200
▁HT	-6201
▁HU	-6202
▁My	-6203
▁WO	-6204
▁pT	-6205
alia	-6206
circ	-6207
ings	-6208
ture	-6209
used	-6210
▁DSE	-6211
▁PVD	-6212
▁WOI	-6213
▁Wor	-6214
▁ann	-6215
▁rib	-6216
aalia	-6217
▁High	-6218
▁None	-6219
▁deem	-6220
▁unre	-6221
icture	-6222
lucose	-6223
olence	-6224
▁2012.	-6225
▁World	-6226
▁annul	-6227
▁scout	-6228
iolence	-6229
liximab	-6230
▁deemed	-6231
▁precon	-6232
▁subtly	-6233
▁trough	-6234
itations	-6235
nalyzing	-6236
▁Chaalia	-6237
▁Ongoing	-6238
▁annulus	-6239
▁desmoid	-6240
▁endarte	-6241
▁gangren	-6242
▁glucose	-6243
▁latency	-6244
▁lecture	-6245
▁lymphad	-6246
▁managed	-6247
▁married	-6248
▁matched	-6249
▁maximum	-6250
▁meeting	-6251
▁menthol	-6252
▁midfoot	-6253
▁midlife	-6254
▁minimum	-6255
▁modific	-6256
▁monouns	-6257
▁myoepit	-6258
▁needles	-6259
▁neither	-6260
▁nephrol	-6261
▁nodules	-6262
▁nomencl	-6263
▁optimal	-6264
▁options	-6265
▁organis	-6266
▁overest	-6267
▁percept	-6268
▁perhaps	-6269
▁picture	-6270
▁placent	-6271
▁plantar	-6272
▁pneumop	-6273
▁pointed	-6274
▁popular	-6275
▁porcine	-6276
▁postfir	-6277
▁potency	-6278
▁practic	-6279
▁princip	-6280
▁private	-6281
▁proceed	-6282
▁progest	-6283
▁promise	-6284
▁pronoun	-6285
▁prudent	-6286
▁quarter	-6287
▁readers	-6288
▁readily	-6289
▁reagent	-6290
▁rebound	-6291
▁records	-6292
▁regimen	-6293
▁regions	-6294
▁relapse	-6295
▁reports	-6296
▁request	-6297
▁resolve	-6298
▁respond	-6299
hi	-6300
acu	-6301
cum	-6302
fac	-6303
hio	-6304
uma	-6305
▁CP	-6306
▁Cl	-6307
acer	-6308
ades	-6309
adig	-6310
erum	-6311
ives	-6312
orac	-6313
prep	-6314
rael	-6315
umul	-6316
▁19%	-6317
▁ADC	-6318
▁Ban	-6319
▁nos	-6320
abase	-6321
abies	-6322
acerb	-6323
adigm	-6324
igned	-6325
inact	-6326
ontol	-6327
rauma	-6328
srael	-6329
utory	-6330
▁Bank	-6331
▁Gast	-6332
▁Ohio	-6333
▁cast	-6334
▁host	-6335
▁movi	-6336
▁past	-6337
active	-6338
facial	-6339
icular	-6340
oracic	-6341
▁Revis	-6342
▁Serum	-6343
▁accum	-6344
▁agent	-6345
▁chain	-6346
▁cumul	-6347
▁evacu	-6348
▁excis	-6349
▁girls	-6350
▁movie	-6351
▁nosoc	-6352
▁thigh	-6353
▁tooth	-6354
atabase	-6355
atively	-6356
erontol	-6357
▁Africa	-6358
▁Closed	-6359
▁Israel	-6360
▁Leptin	-6361
▁People	-6362
▁Trauma	-6363
▁babies	-6364
▁resist	-6365
banicity	-6366
hopaedic	-6367
prepared	-6368
▁Adverse	-6369
▁broader	-6370
▁decades	-6371
▁exacerb	-6372
▁nosocom	-6373
▁quickly	-6374
▁retrans	-6375
▁sciatic	-6376
▁secular	-6377
▁sensory	-6378
▁service	-6379
▁seventh	-6380
▁shallow	-6381
▁signals	-6382
▁sitting	-6383
▁sliding	-6384
▁somatis	-6385
▁soybean	-6386
▁stimuli	-6387
▁subspec	-6388
▁success	-6389
▁summary	-6390
▁surveys	-6391
▁topical	-6392
▁torsion	-6393
▁tracers	-6394
▁traumat	-6395
▁trivial	-6396
▁unaware	-6397
▁uncover	-6398
▁updated	-6399
2-	-6400
AO	-6401
EF	-6402
eS	-6403
CEF	-6404
MIC	-6405
MeS	-6406
ama	-6407
▁FD	-6408
▁IB	-6409
▁PH	-6410
▁PM	-6411
▁Pr	-6412
ICEF	-6413
MeSH	-6414
iety	-6415
odul	-6416
oret	-6417
pare	-6418
rine	-6419
urem	-6420
▁FDG	-6421
▁Hyp	-6422
▁IBD	-6423
▁IHD	-6424
▁PHQ	-6425
▁SCH	-6426
▁WMA	-6427
▁exc	-6428
▁sea	-6429
▁seg	-6430
▁ves	-6431
NICEF	-6432
amaic	-6433
hogen	-6434
igare	-6435
otion	-6436
xiety	-6437
▁NNSP	-6438
▁PMPM	-6439
▁SCHF	-6440
▁WMAs	-6441
▁blin	-6442
▁date	-6443
▁erad	-6444
▁orig	-6445
▁seaf	-6446
▁urem	-6447
UNICEF	-6448
amaica	-6449
igaret	-6450
monary	-6451
phrine	-6452
▁SCHFs	-6453
▁adher	-6454
▁backs	-6455
▁blind	-6456
▁ideal	-6457
athogen	-6458
mission	-6459
▁allows	-6460
▁lotion	-6461
▁origin	-6462
▁uremia	-6463
atically	-6464
oretical	-6465
▁Primary	-6466
▁anxiety	-6467
▁breasts	-6468
▁cigaret	-6469
▁excimer	-6470
▁grouped	-6471
▁heavier	-6472
▁prepare	-6473
▁quantit	-6474
▁utility	-6475
▁vaccine	-6476
▁vaginal	-6477
▁valence	-6478
▁vehicle	-6479
▁venture	-6480
▁vessels	-6481
▁waiting	-6482
▁willing	-6483
aboratory	-6484
acclimati	-6485
acrophage	-6486
alivation	-6487
currently	-6488
diagnosed	-6489
ditioning	-6490
eclampsia	-6491
ellectual	-6492
entifying	-6493
eritoneum	-6494
ethnicity	-6495
ferential	-6496
generated	-6497
glycaemia	-6498
heumatoid	-6499
Ig	-6500
IgM	-6501
bet	-6502
▁7%	-6503
▁AN	-6504
▁AV	-6505
▁IF	-6506
▁MI	-6507
▁ST	-6508
aget	-6509
alse	-6510
beta	-6511
hway	-6512
opic	-6513
reet	-6514
ugho	-6515
▁ANN	-6516
▁AVR	-6517
▁CAM	-6518
▁HSV	-6519
▁IFG	-6520
▁STI	-6521
▁Use	-6522
▁ras	-6523
▁rat	-6524
▁ult	-6525
chial	-6526
etics	-6527
etter	-6528
orthe	-6529
ostal	-6530
▁Hist	-6531
▁STIR	-6532
▁port	-6533
▁rash	-6534
▁save	-6535
rougho	-6536
▁Obese	-6537
▁Paget	-6538
▁comor	-6539
▁false	-6540
▁perip	-6541
▁rated	-6542
▁rooms	-6543
▁ultim	-6544
ortheas	-6545
▁Better	-6546
▁height	-6547
▁medial	-6548
▁myopic	-6549
▁polyps	-6550
▁street	-6551
echanics	-6552
roughout	-6553
▁coeliac	-6554
▁hormone	-6555
▁ischial	-6556
▁pathway	-6557
▁poorest	-6558
▁weekend	-6559
hysicians	-6560
imodality	-6561
increased	-6562
inusoidal	-6563
linicians	-6564
lopramide	-6565
odulatory	-6566
okinetics	-6567
omenology	-6568
omyopathy	-6569
onography	-6570
ositivity	-6571
perficial	-6572
performed	-6573
perfusion	-6574
physician	-6575
rbanicity	-6576
receiving	-6577
receptive	-6578
rectional	-6579
regulated	-6580
rendelenb	-6581
responder	-6582
roversial	-6583
terminate	-6584
treatment	-6585
udomyopia	-6586
undibular	-6587
vertebral	-6588
▁Atropine	-6589
▁Benefits	-6590
▁Children	-6591
▁Columbia	-6592
▁Contrary	-6593
▁Cyclople	-6594
▁Dopamine	-6595
▁Elective	-6596
▁Estrogen	-6597
▁External	-6598
▁Fentanyl	-6599
▁2-	-6600
▁Ev	-6601
▁sw	-6602
Treg	-6603
aver	-6604
cast	-6605
cest	-6606
ilst	-6607
oked	-6608
post	-6609
seal	-6610
▁500	-6611
▁ALT	-6612
▁Per	-6613
▁Ref	-6614
▁bis	-6615
▁dow	-6616
▁hes	-6617
▁ile	-6618
▁pse	-6619
Dcast	-6620
Tregs	-6621
heral	-6622
heric	-6623
ialis	-6624
icher	-6625
orial	-6626
stant	-6627
▁AGEs	-6628
▁ICSs	-6629
▁down	-6630
▁fold	-6631
▁like	-6632
▁pert	-6633
Dcasts	-6634
ORIGIN	-6635
acific	-6636
adaver	-6637
cestor	-6638
eeping	-6639
elayed	-6640
scores	-6641
sement	-6642
▁Taken	-6643
▁hesit	-6644
▁homes	-6645
▁proct	-6646
▁proxy	-6647
▁state	-6648
▁swell	-6649
ODcasts	-6650
delayed	-6651
igravid	-6652
usional	-6653
▁Whilst	-6654
▁evoked	-6655
▁pertro	-6656
▁reveal	-6657
▁richer	-6658
▁threat	-6659
actorial	-6660
orsement	-6661
utations	-6662
▁Keeping	-6663
▁Pacific	-6664
▁advised	-6665
▁anatomy	-6666
▁cadaver	-6667
▁operate	-6668
▁proctoc	-6669
▁pylorus	-6670
igravidae	-6671
phenoidal	-6672
urgically	-6673
▁Focusing	-6674
▁Furtherm	-6675
▁Gerontol	-6676
▁Headings	-6677
▁Ketamine	-6678
▁Language	-6679
▁Magnetic	-6680
▁Medicine	-6681
▁Northeas	-6682
▁Pancreas	-6683
▁Parental	-6684
▁Patholog	-6685
▁Position	-6686
▁Register	-6687
▁Resected	-6688
▁Reviewer	-6689
▁VODcasts	-6690
▁Vaccines	-6691
▁abortion	-6692
▁absolute	-6693
▁academic	-6694
▁adenomas	-6695
▁adhesive	-6696
▁adjusted	-6697
▁admitted	-6698
▁advances	-6699
WBC	-6700
deg	-6701
uer	-6702
19-9	-6703
cont	-6704
iate	-6705
land	-6706
olen	-6707
oler	-6708
▁Pap	-6709
▁Whe	-6710
▁ple	-6711
▁pol	-6712
▁son	-6713
afety	-6714
anter	-6715
aster	-6716
toler	-6717
▁Auer	-6718
▁Mult	-6719
▁burn	-6720
▁ceas	-6721
▁cone	-6722
▁cure	-6723
▁preb	-6724
▁sore	-6725
degree	-6726
olenic	-6727
orical	-6728
otland	-6729
safety	-6730
vasive	-6731
▁Under	-6732
▁users	-6733
▁wrist	-6734
anteric	-6735
cotland	-6736
rinemia	-6737
▁amines	-6738
▁causal	-6739
▁ceased	-6740
▁faster	-6741
▁noting	-6742
▁police	-6743
▁profil	-6744
▁sorely	-6745
▁stored	-6746
▁uncont	-6747
aminated	-6748
invasive	-6749
▁Weekend	-6750
▁Whether	-6751
▁bipolar	-6752
▁highest	-6753
▁prebent	-6754
▁whereas	-6755
chanteric	-6756
linolenic	-6757
mortality	-6758
tolerated	-6759
▁Blockade	-6760
▁Multiple	-6761
▁Scotland	-6762
▁allergic	-6763
▁allowing	-6764
▁alveolar	-6765
▁anatomic	-6766
▁ancestor	-6767
▁appeared	-6768
▁applying	-6769
▁asserted	-6770
▁assigned	-6771
▁atropine	-6772
▁attended	-6773
▁avoiding	-6774
▁balanced	-6775
▁barriers	-6776
▁becoming	-6777
▁biatrial	-6778
▁biopsies	-6779
▁bringing	-6780
▁calyceal	-6781
▁cannulae	-6782
▁carbohyd	-6783
▁category	-6784
▁cephalom	-6785
▁cesarean	-6786
▁chemical	-6787
▁coaching	-6788
▁cochlear	-6789
▁commonly	-6790
▁communic	-6791
▁complete	-6792
▁confined	-6793
▁congenit	-6794
▁constant	-6795
▁coupling	-6796
▁creation	-6797
▁critical	-6798
▁crossing	-6799
DE	-6800
IU	-6801
IUI	-6802
tre	-6803
uod	-6804
▁Id	-6805
▁TA	-6806
▁TH	-6807
▁UF	-6808
▁ot	-6809
arct	-6810
high	-6811
hour	-6812
leep	-6813
ogen	-6814
rodu	-6815
trex	-6816
▁10-	-6817
▁MDE	-6818
▁Mes	-6819
▁Min	-6820
▁Opt	-6821
▁TAA	-6822
▁THA	-6823
▁UFC	-6824
▁UGI	-6825
▁aff	-6826
▁yet	-6827
ended	-6828
ering	-6829
farct	-6830
state	-6831
▁TKIs	-6832
▁duod	-6833
▁otor	-6834
▁shif	-6835
altrex	-6836
closed	-6837
tering	-6838
▁Minim	-6839
▁Optim	-6840
▁afflu	-6841
▁apply	-6842
▁minil	-6843
▁nerve	-6844
▁otorr	-6845
▁peris	-6846
▁pover	-6847
▁shift	-6848
▁sleep	-6849
ciferol	-6850
ilation	-6851
infarct	-6852
ogenous	-6853
roduces	-6854
roponin	-6855
▁DMOADs	-6856
▁excess	-6857
▁occurs	-6858
▁peptic	-6859
▁preced	-6860
▁socket	-6861
lowering	-6862
ostering	-6863
▁lithotr	-6864
▁naltrex	-6865
▁otorrhe	-6866
▁poverty	-6867
▁reforms	-6868
enzymatic	-6869
▁Dilation	-6870
▁Troponin	-6871
▁adaptive	-6872
▁adhering	-6873
▁affluent	-6874
▁contempl	-6875
▁cultural	-6876
▁curative	-6877
▁cytology	-6878
▁database	-6879
▁deciding	-6880
▁deficits	-6881
▁defining	-6882
▁definite	-6883
▁depicted	-6884
▁deserves	-6885
▁deterior	-6886
▁develops	-6887
▁devising	-6888
▁diseases	-6889
▁drainage	-6890
▁earliest	-6891
▁editions	-6892
▁educated	-6893
▁embraced	-6894
▁employed	-6895
▁enhanced	-6896
▁enlarged	-6897
▁epidemic	-6898
▁episodes	-6899
LA	-6900
let	-6901
urb	-6902
urp	-6903
ush	-6904
▁34	-6905
▁HM	-6906
▁ng	-6907
alus	-6908
yses	-6909
▁Fig	-6910
▁HLA	-6911
▁HMO	-6912
▁SIs	-6913
▁dos	-6914
ffort	-6915
urbed	-6916
▁ACLS	-6917
▁Cush	-6918
▁GVHD	-6919
▁HMOs	-6920
▁PCPs	-6921
▁RAIR	-6922
▁purp	-6923
▁reim	-6924
Trials	-6925
atelet	-6926
omatic	-6927
▁After	-6928
▁Stage	-6929
▁Treat	-6930
▁gains	-6931
▁heart	-6932
▁quite	-6933
▁talus	-6934
▁Effort	-6935
▁anomia	-6936
▁combat	-6937
▁dosing	-6938
▁temper	-6939
▁Cushing	-6940
▁biochem	-6941
▁extends	-6942
▁miniTAP	-6943
▁ongoing	-6944
▁reached	-6945
▁Neuromed	-6946
▁analyses	-6947
▁answered	-6948
▁estimate	-6949
▁etiology	-6950
▁eversion	-6951
▁everyday	-6952
▁evolving	-6953
▁exchange	-6954
▁excision	-6955
▁excluded	-6956
▁expected	-6957
▁explored	-6958
▁extensor	-6959
▁external	-6960
▁failings	-6961
▁failures	-6962
▁familial	-6963
▁feedback	-6964
▁focusing	-6965
▁follicle	-6966
▁followup	-6967
▁forefoot	-6968
▁fragment	-6969
▁gambling	-6970
▁ganglion	-6971
▁gangrene	-6972
▁genotype	-6973
▁globally	-6974
▁gradient	-6975
▁hesitate	-6976
▁hyperpar	-6977
▁iatrogen	-6978
▁immature	-6979
▁impacted	-6980
▁inadvert	-6981
▁incident	-6982
▁inclined	-6983
▁infected	-6984
▁inferior	-6985
▁informal	-6986
▁inherent	-6987
▁injected	-6988
▁intramus	-6989
▁keratore	-6990
▁ketamine	-6991
▁labeling	-6992
▁labialis	-6993
▁landmark	-6994
▁lifelong	-6995
▁linoleic	-6996
▁magnetic	-6997
▁managing	-6998
▁mandated	-6999
),	-7000
PT	-7001
uz	-7002
PTV	-7003
alv	-7004
uzz	-7005
vis	-7006
▁31	-7007
▁RP	-7008
enos	-7009
inge	-7010
salv	-7011
▁BPs	-7012
▁COS	-7013
▁HCA	-7014
▁MPV	-7015
▁ang	-7016
▁mas	-7017
▁oro	-7018
▁oss	-7019
asion	-7020
hours	-7021
night	-7022
orous	-7023
uzzle	-7024
visit	-7025
▁APTT	-7026
▁Span	-7027
▁Time	-7028
▁prev	-7029
▁race	-7030
▁thin	-7031
ecolic	-7032
edical	-7033
▁Other	-7034
▁angle	-7035
▁binge	-7036
▁ploid	-7037
▁tenos	-7038
▁times	-7039
▁tript	-7040
salvage	-7041
▁masked	-7042
▁puzzle	-7043
▁suture	-7044
▁tested	-7045
▁Medical	-7046
▁Pediatr	-7047
▁Spanish	-7048
▁blocked	-7049
▁forests	-7050
▁overlap	-7051
▁radical	-7052
▁reveals	-7053
▁tracing	-7054
▁trismus	-7055
▁usually	-7056
▁virtual	-7057
adherence	-7058
▁Limiting	-7059
▁carriers	-7060
▁cleanser	-7061
▁displays	-7062
▁enrolled	-7063
▁immunode	-7064
▁invasion	-7065
▁mediates	-7066
▁melanoma	-7067
▁membrane	-7068
▁messages	-7069
▁micromet	-7070
▁migrated	-7071
▁minerals	-7072
▁miniTAPP	-7073
▁mobility	-7074
▁modestly	-7075
▁modulate	-7076
▁moisture	-7077
▁molecule	-7078
▁movement	-7079
▁mucocele	-7080
▁necrosis	-7081
▁noncited	-7082
▁nonulcer	-7083
▁normokal	-7084
▁northern	-7085
▁occlusal	-7086
▁otorrhea	-7087
▁overcome	-7088
▁overdose	-7089
▁paradigm	-7090
▁paravent	-7091
▁parental	-7092
▁parities	-7093
▁patellar	-7094
▁pedigree	-7095
▁placenta	-7096
▁platelet	-7097
▁policies	-7098
▁popliteo	-7099
4.	-7100
GB	-7101
KD	-7102
VI	-7103
mL	-7104
IVI	-7105
oor	-7106
ues	-7107
▁32	-7108
▁As	-7109
▁Pa	-7110
▁mL	-7111
▁ms	-7112
IVIG	-7113
ican	-7114
▁0-1	-7115
▁CIM	-7116
▁CKD	-7117
▁IBS	-7118
▁Two	-7119
▁fig	-7120
eIVIG	-7121
▁CIMT	-7122
▁Poor	-7123
▁cues	-7124
▁ocul	-7125
▁peop	-7126
▁phon	-7127
anches	-7128
erican	-7129
hylene	-7130
lesion	-7131
▁Asian	-7132
▁enjoy	-7133
▁exact	-7134
▁rural	-7135
▁serop	-7136
▁unant	-7137
046032.	-7138
▁Trials	-7139
▁energy	-7140
▁milieu	-7141
▁relate	-7142
1046032.	-7143
▁Univers	-7144
▁agonist	-7145
▁atresia	-7146
▁chewing	-7147
▁conduct	-7148
▁femoral	-7149
▁figures	-7150
▁peoples	-7151
▁serving	-7152
01046032.	-7153
▁American	-7154
▁Fournier	-7155
▁auditing	-7156
▁branches	-7157
▁consangu	-7158
▁includes	-7159
▁portions	-7160
▁possibly	-7161
▁precedes	-7162
▁preclude	-7163
▁presents	-7164
▁preserve	-7165
▁pressors	-7166
▁prevents	-7167
▁proctoco	-7168
▁profiles	-7169
▁promoted	-7170
▁proposes	-7171
▁proteins	-7172
▁provider	-7173
▁publicly	-7174
▁putative	-7175
▁racially	-7176
▁reagents	-7177
▁recently	-7178
▁receptor	-7179
▁reconstr	-7180
▁referred	-7181
▁reformed	-7182
▁regimens	-7183
▁regulate	-7184
▁relating	-7185
▁released	-7186
▁relevant	-7187
▁reliably	-7188
▁removing	-7189
▁repaired	-7190
▁repeated	-7191
▁resected	-7192
▁rigorous	-7193
▁rotation	-7194
▁ruptured	-7195
▁ruptures	-7196
▁salivary	-7197
▁scanners	-7198
▁schedule	-7199
1)	-7200
34	-7201
PG	-7202
ah	-7203
FPG	-7204
Sah	-7205
dem	-7206
▁AS	-7207
▁LN	-7208
▁PF	-7209
▁SF	-7210
▁TC	-7211
cold	-7212
▁LNM	-7213
▁PFS	-7214
▁SBA	-7215
Sahar	-7216
rates	-7217
small	-7218
▁1.6%	-7219
▁oils	-7220
▁shor	-7221
▁sort	-7222
scored	-7223
▁Three	-7224
▁argue	-7225
▁gynec	-7226
Saharan	-7227
ateness	-7228
ineural	-7229
▁Affect	-7230
▁latest	-7231
▁masses	-7232
▁matrix	-7233
▁office	-7234
▁seroma	-7235
▁verteb	-7236
▁Experts	-7237
▁density	-7238
▁discord	-7239
▁hazards	-7240
▁imagery	-7241
▁justify	-7242
▁leaders	-7243
▁periods	-7244
▁shorter	-7245
▁stopped	-7246
▁thought	-7247
▁unevent	-7248
discharge	-7249
▁570-576.	-7250
▁Chemical	-7251
▁Surgical	-7252
▁auditory	-7253
▁decisive	-7254
▁dimeglum	-7255
▁discover	-7256
▁linkages	-7257
▁peroneal	-7258
▁screened	-7259
▁seizures	-7260
▁separate	-7261
▁sequelae	-7262
▁sessions	-7263
▁severely	-7264
▁shopping	-7265
▁sickness	-7266
▁silicone	-7267
▁skeletal	-7268
▁solution	-7269
▁staffing	-7270
▁stellate	-7271
▁straight	-7272
▁striated	-7273
▁studying	-7274
▁subforms	-7275
▁suitable	-7276
▁survived	-7277
▁swelling	-7278
▁synovial	-7279
▁systolic	-7280
▁teaching	-7281
▁temporal	-7282
▁tethered	-7283
▁thoracic	-7284
▁treating	-7285
▁triptans	-7286
▁tympanic	-7287
▁uncommon	-7288
▁underest	-7289
▁underlie	-7290
▁unstable	-7291
▁validate	-7292
▁validity	-7293
▁variants	-7294
▁vascular	-7295
▁verified	-7296
▁violence	-7297
▁vitamins	-7298
▁vomiting	-7299
1,	-7300
53	-7301
8.	-7302
II	-7303
Ia	-7304
NF	-7305
cm	-7306
nt	-7307
ze	-7308
▁.	-7309
TNF	-7310
▁IC	-7311
▁MC	-7312
IIIa	-7313
▁EDs	-7314
▁ICM	-7315
▁IIb	-7316
▁MCP	-7317
▁Not	-7318
▁RBC	-7319
▁Wnt	-7320
▁cue	-7321
▁gel	-7322
▁his	-7323
▁FOSQ	-7324
▁call	-7325
▁core	-7326
▁lans	-7327
▁vice	-7328
▁Their	-7329
▁block	-7330
▁chest	-7331
▁crest	-7332
▁doses	-7333
▁pulps	-7334
▁sexes	-7335
section	-7336
▁8.2%).	-7337
▁acting	-7338
▁backup	-7339
▁callus	-7340
▁father	-7341
▁nullip	-7342
▁counsel	-7343
▁ratings	-7344
▁trained	-7345
▁Systolic	-7346
▁acquired	-7347
▁clipping	-7348
▁intraren	-7349
▁manually	-7350
▁overlaps	-7351
▁personal	-7352
▁stenosis	-7353
▁tertiary	-7354
▁whenever	-7355
▁widening	-7356
▁workflow	-7357
▁workload	-7358
▁workweek	-7359
▁worsened	-7360
00069784).	-7361
apedectomy	-7362
cautionary	-7363
compressed	-7364
concussion	-7365
conserving	-7366
epiphysial	-7367
functional	-7368
lymorphism	-7369
nationally	-7370
normalised	-7371
ologically	-7372
oplacental	-7373
oresistant	-7374
ositioning	-7375
otentially	-7376
procedural	-7377
protective	-7378
responders	-7379
ronutrient	-7380
▁Analyzing	-7381
▁Awareness	-7382
▁Christian	-7383
▁Computing	-7384
▁Cyclopleg	-7385
▁Cytotechn	-7386
▁Detorsion	-7387
▁Eliciting	-7388
▁Excessive	-7389
▁Exclusive	-7390
▁Fractures	-7391
▁Improving	-7392
▁Inclusion	-7393
▁Increased	-7394
▁Lysosomot	-7395
▁Mesocolon	-7396
▁Nebulized	-7397
▁Normother	-7398
▁Operative	-7399
65	-7400
pe	-7401
to	-7402
mTc	-7403
▁%.	-7404
▁AF	-7405
▁vs	-7406
knee	-7407
orth	-7408
▁80-	-7409
▁ESR	-7410
▁EUS	-7411
▁HDM	-7412
▁Inf	-7413
▁MHC	-7414
▁New	-7415
▁too	-7416
▁2007	-7417
▁fast	-7418
▁gray	-7419
▁here	-7420
▁urop	-7421
▁Chest	-7422
▁locus	-7423
▁nucle	-7424
▁worth	-7425
ranulas	-7426
▁Biased	-7427
▁Height	-7428
▁Masala	-7429
▁debate	-7430
▁manner	-7431
▁marked	-7432
▁merits	-7433
▁relied	-7434
▁unions	-7435
contrast	-7436
▁Florida	-7437
▁Removal	-7438
▁central	-7439
▁message	-7440
▁nucleus	-7441
▁omitted	-7442
▁removes	-7443
▁schools	-7444
▁trophob	-7445
arthritis	-7446
generator	-7447
sensitive	-7448
▁Africans	-7449
▁abnormal	-7450
▁computer	-7451
▁fatality	-7452
▁infusion	-7453
▁pharmacy	-7454
▁progress	-7455
▁purposes	-7456
▁quilting	-7457
▁register	-7458
▁requests	-7459
▁requires	-7460
▁smallest	-7461
retrograde	-7462
▁Continued	-7463
▁Education	-7464
▁Emotional	-7465
▁Optimized	-7466
▁Pregnancy	-7467
▁Premature	-7468
▁Provision	-7469
▁Regarding	-7470
▁Revisions	-7471
▁Taiwanese	-7472
▁Teammates	-7473
▁Treatment	-7474
▁Unmarried	-7475
▁abilities	-7476
▁abolishes	-7477
▁activated	-7478
▁acupoints	-7479
▁acyclovir	-7480
▁addressed	-7481
▁addresses	-7482
▁adhesions	-7483
▁affecting	-7484
▁agreement	-7485
▁akathisia	-7486
▁alleviate	-7487
▁anomalies	-7488
▁antecolic	-7489
▁antegrade	-7490
▁arthritis	-7491
▁assurance	-7492
▁attending	-7493
▁autosomal	-7494
▁avascular	-7495
▁balancing	-7496
▁beverages	-7497
▁bilateral	-7498
▁biomarker	-7499
):	-7500
70	-7501
▁AO	-7502
ipsy	-7503
▁IUI	-7504
▁IVF	-7505
ewish	-7506
sized	-7507
▁West	-7508
▁Human	-7509
▁mixed	-7510
▁Mucosal	-7511
▁Patient	-7512
▁removal	-7513
▁biometric	-7514
▁bronchial	-7515
▁calcified	-7516
▁caregiver	-7517
▁catheters	-7518
▁causation	-7519
▁causative	-7520
▁channeled	-7521
▁chorioamn	-7522
▁cirrhotic	-7523
▁citations	-7524
▁cleansing	-7525
▁clerkship	-7526
▁confusion	-7527
▁conscious	-7528
▁correlate	-7529
▁deformity	-7530
▁depiction	-7531
▁designing	-7532
▁desirable	-7533
▁detorsion	-7534
▁detriment	-7535
▁differing	-7536
▁diffusion	-7537
▁dimension	-7538
▁discharge	-7539
▁discusses	-7540
▁disparate	-7541
▁disparity	-7542
▁echocardi	-7543
▁eclampsia	-7544
▁edaravone	-7545
▁eliciting	-7546
▁emissions	-7547
▁employing	-7548
▁encourage	-7549
▁endoscopy	-7550
▁endpoints	-7551
▁enrollees	-7552
▁epileptic	-7553
▁equivocal	-7554
▁ergonomic	-7555
▁erroneous	-7556
▁examiners	-7557
▁excretion	-7558
▁exercised	-7559
▁exogenous	-7560
▁expectant	-7561
▁expertise	-7562
▁exposures	-7563
▁extremely	-7564
▁footprint	-7565
▁formation	-7566
▁formative	-7567
▁fostering	-7568
▁fractured	-7569
▁fragility	-7570
▁fragments	-7571
▁genotypes	-7572
▁geometric	-7573
▁geriatric	-7574
▁glycaemic	-7575
▁gradients	-7576
▁hepatitis	-7577
▁household	-7578
▁hypergast	-7579
▁identical	-7580
▁immediate	-7581
▁impacting	-7582
▁implicate	-7583
▁inclusion	-7584
▁inclusive	-7585
▁induction	-7586
▁inference	-7587
▁injection	-7588
▁instances	-7589
▁intrinsic	-7590
▁inversely	-7591
▁lessening	-7592
▁lithiasis	-7593
▁lithotomy	-7594
▁loosening	-7595
▁mainstays	-7596
▁malleable	-7597
▁mandatory	-7598
▁materials	-7599
▁mediation	-7600
▁microcirc	-7601
▁migration	-7602
▁minimally	-7603
▁monitored	-7604
▁mucoceles	-7605
▁mutations	-7606
▁objective	-7607
▁occurring	-7608
▁officiate	-7609
▁oncologic	-7610
▁organisms	-7611
▁overlying	-7612
▁palpation	-7613
▁partially	-7614
▁pathophys	-7615
▁perfectly	-7616
▁personnel	-7617
▁phenotype	-7618
▁pigmented	-7619
▁pituitary	-7620
▁pneumonia	-7621
▁possessed	-7622
▁posterior	-7623
▁postnatal	-7624
▁practical	-7625
▁practiced	-7626
▁pragmatic	-7627
▁predicted	-7628
▁premature	-7629
▁presented	-7630
▁prevented	-7631
▁primarily	-7632
▁processes	-7633
▁progestin	-7634
▁promoting	-7635
▁prostates	-7636
▁provoking	-7637
▁published	-7638
▁pulmonary	-7639
▁pulpotomy	-7640
▁pyramidal	-7641
▁rationale	-7642
▁receptors	-7643
▁recessive	-7644
▁recipient	-7645
▁reference	-7646
▁referrals	-7647
▁reflected	-7648
▁regularly	-7649
▁reminders	-7650
▁remission	-7651
▁reporting	-7652
▁restarted	-7653
▁resulting	-7654
▁revealing	-7655
▁saturated	-7656
▁scoliosis	-7657
▁seafarers	-7658
▁sebaceous	-7659
▁sedentary	-7660
▁segmental	-7661
▁selecting	-7662
▁shortened	-7663
▁sonograms	-7664
▁sphincter	-7665
▁steroidal	-7666
▁strategic	-7667
▁structure	-7668
▁subjected	-7669
▁summative	-7670
▁supported	-7671
▁surrogate	-7672
▁synthesis	-7673
▁technical	-7674
▁tethering	-7675
▁therapies	-7676
▁therapist	-7677
▁transient	-7678
▁umbilical	-7679
▁uncertain	-7680
▁uncomplic	-7681
▁uncovered	-7682
▁undergone	-7683
▁underline	-7684
▁undertake	-7685
▁underused	-7686
▁universal	-7687
▁unrelated	-7688
▁urologist	-7689
▁variables	-7690
▁vegetable	-7691
▁withdrawn	-7692
acclimatize	-7693
acetylcyste	-7694
agangliomas	-7695
appropriate	-7696
athyroidism	-7697
demographic	-7698
destructive	-7699
institution	-7700
isciplinary	-7701
oquinolones	-7702
phosphonate	-7703
reptococcus	-7704
stitutional	-7705
suppressive	-7706
threatening	-7707
▁Allocating	-7708
▁Aspiration	-7709
▁Australian	-7710
▁Clinicians	-7711
▁Commercial	-7712
▁Comparison	-7713
▁Continence	-7714
▁Conveyance	-7715
▁Discrepant	-7716
▁Evaluating	-7717
▁Expression	-7718
▁Histologic	-7719
▁Innovative	-7720
▁Minimising	-7721
▁Neuromedin	-7722
▁Ophthalmic	-7723
▁Paediatric	-7724
▁Physicians	-7725
▁Prediction	-7726
▁Recurrence	-7727
▁Sonography	-7728
▁Treatments	-7729
▁Trendelenb	-7730
▁Urbanicity	-7731
▁acceptably	-7732
▁adjustment	-7733
▁admissible	-7734
▁algorithms	-7735
▁allocation	-7736
▁alteration	-7737
▁ambulatory	-7738
▁antibodies	-7739
▁appearance	-7740
▁assignment	-7741
▁assistance	-7742
▁asthenopia	-7743
▁attendance	-7744
▁attributed	-7745
▁autoimmune	-7746
▁behavioral	-7747
▁cancellous	-7748
▁capsulitis	-7749
▁checklists	-7750
▁chemokines	-7751
▁cigarettes	-7752
▁cognitions	-7753
▁collateral	-7754
▁complaints	-7755
▁complexity	-7756
▁compressed	-7757
▁conceptual	-7758
▁concerning	-7759
▁conclusive	-7760
▁conducting	-7761
▁confounded	-7762
▁confronted	-7763
▁congenital	-7764
▁connective	-7765
▁consultant	-7766
▁continuing	-7767
▁correcting	-7768
▁corrective	-7769
▁correlates	-7770
▁culturally	-7771
▁cumulative	-7772
▁cystoscopy	-7773
▁definition	-7774
▁deliveries	-7775
▁delivering	-7776
▁delusional	-7777
▁department	-7778
▁describing	-7779
▁detachment	-7780
▁diaphyseal	-7781
▁difficulty	-7782
▁diminished	-7783
▁disability	-7784
▁discopathy	-7785
▁discordant	-7786
▁discussion	-7787
▁distinctly	-7788
▁dysarthria	-7789
▁dysmorphic	-7790
▁efficiency	-7791
▁electronic	-7792
▁eliminated	-7793
▁emphasised	-7794
▁encounters	-7795
▁encouraged	-7796
▁endoscopic	-7797
▁endothelin	-7798
▁enthesitis	-7799
▁eosinophil	-7800
▁equivalent	-7801
▁estimating	-7802
▁etanercept	-7803
▁evacuation	-7804
▁evaluating	-7805
▁eventually	-7806
▁fatalities	-7807
▁follicular	-7808
▁foundation	-7809
▁gadobenate	-7810
▁gallstones	-7811
▁generating	-7812
▁geniculate	-7813
▁histologic	-7814
▁historical	-7815
▁hypalgesia	-7816
▁iatrogenic	-7817
▁identifies	-7818
▁ileorectal	-7819
▁illustrate	-7820
▁imaginable	-7821
▁immigrants	-7822
▁impressing	-7823
▁incentives	-7824
▁indicating	-7825
▁indicative	-7826
▁inevitable	-7827
▁infarction	-7828
▁infliximab	-7829
▁inhibition	-7830
▁inhibitors	-7831
▁inhibitory	-7832
▁inhospital	-7833
▁initiating	-7834
▁injections	-7835
▁inspection	-7836
▁instrument	-7837
▁interacted	-7838
▁interested	-7839
▁intergener	-7840
▁intrarenal	-7841
▁introduces	-7842
▁irradiated	-7843
▁irritation	-7844
▁laboratory	-7845
▁leadership	-7846
▁limitation	-7847
▁localities	-7848
▁macrophage	-7849
▁mandibular	-7850
▁meaningful	-7851
▁measurable	-7852
▁medication	-7853
▁metabolism	-7854
▁metastases	-7855
▁metastasis	-7856
▁metastatic	-7857
▁misleading	-7858
▁morphology	-7859
▁multiparae	-7860
▁myomectomy	-7861
▁naltrexone	-7862
▁nationally	-7863
▁neutrophil	-7864
▁normalized	-7865
▁nosocomial	-7866
▁optimizing	-7867
▁outpatient	-7868
▁pancreatic	-7869
▁paraplegia	-7870
▁parasacral	-7871
▁particular	-7872
▁pediatrics	-7873
▁percentage	-7874
▁periocular	-7875
▁peripheral	-7876
▁phagocytic	-7877
▁phenomenon	-7878
▁physically	-7879
▁physiology	-7880
▁positively	-7881
▁postfiring	-7882
▁prednisone	-7883
▁preferable	-7884
▁preference	-7885
▁preloading	-7886
▁presumably	-7887
▁principles	-7888
▁procedural	-7889
▁pronounced	-7890
▁propensity	-7891
▁properties	-7892
▁protectant	-7893
▁reasonable	-7894
▁reasonably	-7895
▁reductions	-7896
▁reflecting	-7897
▁refraction	-7898
▁represents	-7899
▁resistance	-7900
▁restenosis	-7901
▁revisiting	-7902
▁rheumatoid	-7903
▁rotational	-7904
▁scientific	-7905
▁situations	-7906
▁speculated	-7907
▁stillbirth	-7908
▁subsidized	-7909
▁substances	-7910
▁suggestion	-7911
▁suprapubic	-7912
▁surgically	-7913
▁surprising	-7914
▁suspicious	-7915
▁sustaining	-7916
▁testicular	-7917
▁thickening	-7918
▁threatened	-7919
▁thresholds	-7920
▁throughout	-7921
▁tranexamic	-7922
▁ultimately	-7923
▁undertaken	-7924
▁undetected	-7925
▁uneventful	-7926
▁uniformity	-7927
▁unilateral	-7928
▁unreported	-7929
▁unselected	-7930
▁usefulness	-7931
▁visibility	-7932
▁volumetric	-7933
▁vulnerable	-7934
▁warranting	-7935
inactivation	-7936
rointestinal	-7937
▁Accordingly	-7938
▁Biochemical	-7939
▁Comparisons	-7940
▁Considering	-7941
▁Cycloplegic	-7942
▁Cytoplasmic	-7943
▁Development	-7944
▁Educational	-7945
▁Furthermore	-7946
▁Hypotension	-7947
▁Identifying	-7948
▁Intravenous	-7949
▁Nontriploid	-7950
▁Potentially	-7951
▁Progression	-7952
▁Sonographic	-7953
▁Therapeutic	-7954
▁Transactive	-7955
▁Transrectal	-7956
▁achievement	-7957
▁acupuncture	-7958
▁adjustments	-7959
▁adolescence	-7960
▁adolescents	-7961
▁advancement	-7962
▁aggravating	-7963
▁aggravation	-7964
▁anastomosis	-7965
▁anastomotic	-7966
▁anticipated	-7967
▁appreciably	-7968
▁ascertained	-7969
▁assessments	-7970
▁atmospheric	-7971
▁bacteraemia	-7972
▁bacteraemic	-7973
▁behavioural	-7974
▁birthweight	-7975
▁carcinogens	-7976
▁chemotactic	-7977
▁chloroquine	-7978
▁coexistence	-7979
▁coincidence	-7980
▁comparative	-7981
▁comparisons	-7982
▁complaining	-7983
▁complicated	-7984
▁compression	-7985
▁concentrate	-7986
▁conclusions	-7987
▁concordance	-7988
▁consecutive	-7989
▁consequence	-7990
▁considering	-7991
▁constitutes	-7992
▁contributes	-7993
▁controlling	-7994
▁corrections	-7995
▁counteracts	-7996
▁cruroplasty	-7997
▁debridement	-7998
▁demographic	-7999
▁derangement	-8000
▁determining	-8001
▁detrimental	-8002
▁differently	-8003
▁dimeglumine	-8004
▁directional	-8005
▁discernable	-8006
▁discussions	-8007
▁dislocation	-8008
▁disquieting	-8009
▁dysfunction	-8010
▁eligibility	-8011
▁elimination	-8012
▁empirically	-8013
▁encountered	-8014
▁encouraging	-8015
▁endometrial	-8016
▁endorsement	-8017
▁enforcement	-8018
▁engraftment	-8019
▁enhancement	-8020
▁enucleation	-8021
▁environment	-8022
▁epinephrine	-8023
▁eradication	-8024
▁esophagitis	-8025
▁established	-8026
▁evaluations	-8027
▁experiences	-8028
▁experiments	-8029
▁expressions	-8030
▁facilitated	-8031
▁feasibility	-8032
▁fellowships	-8033
▁financially	-8034
▁formulating	-8035
▁frequencies	-8036
▁haemorrhage	-8037
▁hemorrhagic	-8038
▁heparinized	-8039
▁homogeneity	-8040
▁hypothesise	-8041
▁identically	-8042
▁identifying	-8043
▁implantable	-8044
▁inadvertent	-8045
▁instability	-8046
▁instituting	-8047
▁integrating	-8048
▁integration	-8049
▁interaction	-8050
▁intercostal	-8051
▁interesting	-8052
▁interrupted	-8053
▁intrapartum	-8054
▁lipoprotein	-8055
▁lithotripsy	-8056
▁manuscripts	-8057
▁migraineurs	-8058
▁morbidities	-8059
▁motivations	-8060
▁multiethnic	-8061
▁nulliparous	-8062
▁oncoplastic	-8063
▁orthopaedic	-8064
▁osteotomies	-8065
▁oxygenation	-8066
▁participate	-8067
▁pathologies	-8068
▁perceptions	-8069
▁periodontal	-8070
▁pharmacists	-8071
▁physiologic	-8072
▁pleomorphic	-8073
▁predictions	-8074
▁prevalences	-8075
▁problematic	-8076
▁provocation	-8077
▁psychiatric	-8078
▁questioning	-8079
▁radiography	-8080
▁reevaluated	-8081
▁requirement	-8082
▁researchers	-8083
▁respondents	-8084
▁sacrificing	-8085
▁selectively	-8086
▁shigellosis	-8087
▁simplifying	-8088
▁standardise	-8089
▁subchondral	-8090
▁substantial	-8091
▁substituted	-8092
▁superficial	-8093
▁suppressing	-8094
▁suppression	-8095
▁surrounding	-8096
▁symptomatic	-8097
▁synergistic	-8098
▁technically	-8099
▁telmisartan	-8100
▁temporarily	-8101
▁theoretical	-8102
▁topographic	-8103
▁traditional	-8104
▁transrectal	-8105
▁undescended	-8106
▁undiagnosed	-8107
▁undisturbed	-8108
▁undoubtedly	-8109
▁untethering	-8110
▁uropathogen	-8111
▁utilisation	-8112
▁ventilating	-8113
▁ventilation	-8114
▁ventilatory	-8115
▁ventricular	-8116
International	-8117
effectiveness	-8118
postoperative	-8119
tonsillectomy	-8120
▁Additionally	-8121
▁Associations	-8122
▁Comedication	-8123
▁Gadofosveset	-8124
▁Improvements	-8125
▁Infundibular	-8126
▁Normothermic	-8127
▁Northeastern	-8128
▁Pathologists	-8129
▁Percutaneous	-8130
▁Postcontrast	-8131
▁Pretreatment	-8132
▁Prophylactic	-8133
▁Registration	-8134
▁Thrombolysis	-8135
▁Transgastric	-8136
▁Transvaginal	-8137
▁Universities	-8138
▁accumulation	-8139
▁anticipating	-8140
▁anticipatory	-8141
▁aripiprazole	-8142
▁audiological	-8143
▁autoxidation	-8144
▁biochemistry	-8145
▁biomechanics	-8146
▁bronchoscopy	-8147
▁characterize	-8148
▁compartments	-8149
▁complemented	-8150
▁concurrently	-8151
▁congenitally	-8152
▁consequently	-8153
▁considerable	-8154
▁considerably	-8155
▁consistently	-8156
▁contaminated	-8157
▁contemplated	-8158
▁contributory	-8159
▁correlations	-8160
▁deficiencies	-8161
▁determinants	-8162
▁disagreement	-8163
▁discontinued	-8164
▁displacement	-8165
▁distinctions	-8166
▁duodenojejun	-8167
▁dysglycaemia	-8168
▁endochondral	-8169
▁endoscopists	-8170
▁endovascular	-8171
▁establishing	-8172
▁exenteration	-8173
▁femorocrural	-8174
▁fluoridation	-8175
▁glycoprotein	-8176
▁hemodynamics	-8177
▁hospitalized	-8178
▁hydatidiform	-8179
▁immunisation	-8180
▁implications	-8181
▁increasingly	-8182
▁indefinitely	-8183
▁infiltration	-8184
▁infiltrative	-8185
▁intellectual	-8186
▁interactions	-8187
▁intermittent	-8188
▁intragastric	-8189
▁intrauterine	-8190
▁laboratories	-8191
▁lansoprazole	-8192
▁malalignment	-8193
▁metabolisers	-8194
▁modification	-8195
▁neurological	-8196
▁neutrophilic	-8197
▁nomenclature	-8198
▁nonoperative	-8199
▁normokalemic	-8200
▁occupational	-8201
▁oculoplastic	-8202
▁oesophagitis	-8203
▁organization	-8204
▁ossification	-8205
▁osteoporotic	-8206
▁outperformed	-8207
▁palatability	-8208
▁pancreatitis	-8209
▁participants	-8210
▁pathobiology	-8211
▁pathological	-8212
▁pathologists	-8213
▁percutaneous	-8214
▁perforations	-8215
▁phonological	-8216
▁polyethylene	-8217
▁polymorphism	-8218
▁proportional	-8219
▁pseudomyopia	-8220
▁psychosocial	-8221
▁psychotropic	-8222
▁quantitative	-8223
▁radiological	-8224
▁reactivation	-8225
▁reevaluation	-8226
▁reproducible	-8227
▁reproduction	-8228
▁respectively	-8229
▁resuscitator	-8230
▁semielective	-8231
▁sequentially	-8232
▁somatisation	-8233
▁streptococci	-8234
▁subsequently	-8235
▁subspecialty	-8236
▁substitution	-8237
▁successfully	-8238
▁sulfonylurea	-8239
▁technologies	-8240
▁temperatures	-8241
▁thrombolysis	-8242
▁transmission	-8243
▁uncontrolled	-8244
▁undetectable	-8245
▁unemployment	-8246
▁unremarkable	-8247
▁unresectable	-8248
▁vaccinations	-8249
▁withstanding	-8250
acetylcysteine	-8251
▁Alternatively	-8252
▁Consideration	-8253
▁Interventions	-8254
▁Pediatricians	-8255
▁Phenomenology	-8256
▁Streptococcus	-8257
▁Trendelenburg	-8258
▁abnormalities	-8259
▁anticoagulate	-8260
▁approximately	-8261
▁ascertainment	-8262
▁beneficiaries	-8263
▁carbohydrates	-8264
▁characterized	-8265
▁comorbidities	-8266
▁complementary	-8267
▁comprehension	-8268
▁concentration	-8269
▁consolidation	-8270
▁consultations	-8271
▁contralateral	-8272
▁controversial	-8273
▁counteracting	-8274
▁deterioration	-8275
▁differentiate	-8276
▁disadvantaged	-8277
▁disadvantages	-8278
▁disappearance	-8279
▁dysregulation	-8280
▁effectiveness	-8281
▁endometrially	-8282
▁environmental	-8283
▁exacerbations	-8284
▁gynecological	-8285
▁heterogeneity	-8286
▁heterogeneous	-8287
▁hypermetropia	-8288
▁immunological	-8289
▁inappropriate	-8290
▁indeterminate	-8291
▁individualize	-8292
▁institutional	-8293
▁insufficiency	-8294
▁interpretable	-8295
▁intramuscular	-8296
▁investigating	-8297
▁justification	-8298
▁manifestation	-8299
▁manipulations	-8300
▁micronutrient	-8301
▁misperception	-8302
▁modifications	-8303
▁multicatheter	-8304
▁multimodality	-8305
▁myoepithelial	-8306
▁oncologically	-8307
▁overestimated	-8308
▁physiological	-8309
▁physiotherapy	-8310
▁plurigravidae	-8311
▁precautionary	-8312
▁prospectively	-8313
▁prostatectomy	-8314
▁repositioning	-8315
▁sensorineural	-8316
▁significative	-8317
▁standardizing	-8318
▁streptococcal	-8319
▁substantially	-8320
▁tenosynovitis	-8321
▁thyroidectomy	-8322
▁transurethral	-8323
▁trophoblastic	-8324
▁unanticipated	-8325
▁uncomplicated	-8326
▁underutilized	-8327
▁vulnerability	-8328
▁ClinicalTrials	-8329
▁Generalization	-8330
▁Lysosomotropic	-8331
▁appendectomies	-8332
▁bisphosphonate	-8333
▁cardiomyopathy	-8334
▁communications	-8335
▁consanguineous	-8336
▁conservatively	-8337
▁constitutional	-8338
▁contextualized	-8339
▁differentially	-8340
▁differentiated	-8341
▁discrimination	-8342
▁discriminative	-8343
▁distinguishing	-8344
▁endarterectomy	-8345
▁ergocalciferol	-8346
▁histopathology	-8347
▁hyperperfusion	-8348
▁identification	-8349
▁individualized	-8350
▁intervertebral	-8351
▁intramedullary	-8352
▁jugulotympanic	-8353
▁manifestations	-8354
▁metoclopramide	-8355
▁monofollicular	-8356
▁multifactorial	-8357
▁noncomparative	-8358
▁nonorthopaedic	-8359
▁oligoarthritis	-8360
▁oncosurgically	-8361
▁paragangliomas	-8362
▁pathologically	-8363
▁perisinusoidal	-8364
▁predictability	-8365
▁preoperatively	-8366
▁procarcinogens	-8367
▁radiographical	-8368
▁reconstruction	-8369
▁rehabilitative	-8370
▁reimplantation	-8371
▁representative	-8372
▁responsiveness	-8373
▁seropositivity	-8374
▁simultaneously	-8375
▁stratification	-8376
▁sustainability	-8377
▁systematically	-8378
▁thromboembolic	-8379
▁transformation	-8380
▁underestimated	-8381
▁uteroplacental	-8382
▁vertebroplasty	-8383
▁Transsphenoidal	-8384
▁appropriateness	-8385
▁catheterisation	-8386
▁cerebrovascular	-8387
▁circumferential	-8388
▁differentiation	-8389
▁dissatisfaction	-8390
▁hypersalivation	-8391
▁interlaboratory	-8392
▁internationally	-8393
▁lymphadenectomy	-8394
▁microbiological	-8395
▁micrometastatic	-8396
▁monounsaturated	-8397
▁multifollicular	-8398
▁nephrolithiasis	-8399
▁paraventricular	-8400
▁pertrochanteric	-8401
▁pharmacological	-8402
▁preconditioning	-8403
▁proctocolectomy	-8404
▁straightforward	-8405
▁supplementation	-8406
▁transplantation	-8407
▁traumatologists	-8408
▁ultrasonography	-8409
12.	-8410
2%)	-8411
70-	-8412
8%.	-8413
EBW	-8414
IGI	-8415
III	-8416
IPE	-8417
OIs	-8418
ORI	-8419
TUC	-8420
eak	-8421
egr	-8422
mix	-8423
ook	-8424
pex	-8425
tak	-8426
ysg	-8427
▁57	-8428
▁80	-8429
▁QO	-8430
▁QT	-8431
3544	-8432
70-5	-8433
PECT	-8434
acco	-8435
acok	-8436
athw	-8437
cove	-8438
eIVI	-8439
egar	-8440
eopl	-8441
ewer	-8442
ewor	-8443
exam	-8444
forw	-8445
hite	-8446
ieth	-8447
iref	-8448
kocy	-8449
medi	-8450
mpan	-8451
mpro	-8452
nutr	-8453
oals	-8454
occi	-8455
oxia	-8456
oxic	-8457
oxif	-8458
oyed	-8459
psia	-8460
ruct	-8461
stak	-8462
take	-8463
tane	-8464
topl	-8465
turn	-8466
ulps	-8467
urno	-8468
uven	-8469
veys	-8470
wish	-8471
ysar	-8472
▁1.7	-8473
▁40%	-8474
▁ATT	-8475
▁Awa	-8476
▁CAB	-8477
▁CIE	-8478
▁GFR	-8479
▁IMR	-8480
▁Leg	-8481
▁MSC	-8482
▁NTH	-8483
▁Neb	-8484
▁Ong	-8485
▁PCP	-8486
▁PEE	-8487
▁PPP	-8488
▁PRI	-8489
▁RAR	-8490
▁Uni	-8491
▁VDD	-8492
▁awa	-8493
▁cav	-8494
▁esp	-8495
▁gyn	-8496
▁myo	-8497
▁tak	-8498
56049	-8499
▁jo	-8500
ilks	-8501
mise	-8502
mody	-8503
rali	-8504
rals	-8505
tein	-8506
▁Kas	-8507
▁Ket	-8508
▁MRC	-8509
81354	-8510
RIGIN	-8511
abits	-8512
altre	-8513
anned	-8514
anoma	-8515
apsul	-8516
astru	-8517
avour	-8518
casts	-8519
centr	-8520
cited	-8521
cline	-8522
coeli	-8523
cores	-8524
drome	-8525
echni	-8526
ecret	-8527
ediat	-8528
elvic	-8529
elvis	-8530
enges	-8531
enzal	-8532
eptin	-8533
equal	-8534
erits	-8535
ernal	-8536
eropl	-8537
europ	-8538
ewers	-8539
ework	-8540
filtr	-8541
genes	-8542
ggrav	-8543
giver	-8544
hedul	-8545
hicle	-8546
hieve	-8547
holds	-8548
hools	-8549
icted	-8550
idney	-8551
iliac	-8552
inoph	-8553
iples	-8554
ipraz	-8555
ircum	-8556
itted	-8557
jects	-8558
kness	-8559
kship	-8560
laims	-8561
lamps	-8562
letal	-8563
leted	-8564
letes	-8565
lpful	-8566
lymph	-8567
mands	-8568
marri	-8569
misar	-8570
mmary	-8571
moted	-8572
namic	-8573
ocalc	-8574
oglyc	-8575
ometr	-8576
oplas	-8577
oroqu	-8578
otymp	-8579
ought	-8580
owled	-8581
paign	-8582
pects	-8583
perat	-8584
phere	-8585
phism	-8586
plify	-8587
rable	-8588
ramid	-8589
rands	-8590
ravid	-8591
reted	-8592
retro	-8593
rimin	-8594
riter	-8595
roduc	-8596
rombo	-8597
rurop	-8598
satur	-8599
obb	-8600
obe	-8601
hanc	-8602
hips	-8603
ilie	-8604
ires	-8605
merg	-8606
nize	-8607
obar	-8608
oben	-8609
ship	-8610
tras	-8611
trip	-8612
vals	-8613
▁arg	-8614
▁avo	-8615
adequ	-8616
arked	-8617
ategy	-8618
cause	-8619
energ	-8620
ergoc	-8621
ergon	-8622
imize	-8623
olumn	-8624
ountr	-8625
oying	-8626
poral	-8627
secon	-8628
tator	-8629
thnic	-8630
thopa	-8631
tings	-8632
trast	-8633
troke	-8634
uccal	-8635
uided	-8636
ukocy	-8637
umbil	-8638
urden	-8639
urysm	-8640
usoid	-8641
utane	-8642
valen	-8643
veals	-8644
vehic	-8645
verte	-8646
wards	-8647
xygen	-8648
ylori	-8649
ylure	-8650
yroid	-8651
▁21-2	-8652
▁8.2%	-8653
▁Adhe	-8654
▁Bioc	-8655
▁Chan	-8656
▁Comp	-8657
▁Cont	-8658
▁Excl	-8659
▁LASI	-8660
▁Lang	-8661
▁Musl	-8662
▁NHAN	-8663
▁Peop	-8664
▁alco	-8665
▁amyl	-8666
▁apop	-8667
▁aris	-8668
▁arre	-8669
▁arth	-8670
▁audi	-8671
▁auth	-8672
▁cere	-8673
▁clar	-8674
▁clus	-8675
▁coex	-8676
▁curv	-8677
▁cycl	-8678
▁dysf	-8679
▁enti	-8680
▁epis	-8681
▁eros	-8682
▁eyel	-8683
▁glom	-8684
▁glut	-8685
▁grad	-8686
▁graf	-8687
▁heav	-8688
▁hern	-8689
▁hold	-8690
▁leak	-8691
▁litt	-8692
▁meal	-8693
▁midl	-8694
▁miss	-8695
▁move	-8696
▁name	-8697
▁olig	-8698
▁omit	-8699
ubj	-8700
ubl	-8701
acks	-8702
ferr	-8703
glyc	-8704
ints	-8705
lass	-8706
mune	-8707
asses	-8708
assif	-8709
avily	-8710
bolic	-8711
erals	-8712
evere	-8713
ferab	-8714
hages	-8715
inted	-8716
izoph	-8717
kages	-8718
munis	-8719
munom	-8720
olicy	-8721
rapub	-8722
verex	-8723
▁cler	-8724
▁doub	-8725
▁feat	-8726
▁muco	-8727
▁pair	-8728
▁pedi	-8729
▁phar	-8730
▁phas	-8731
▁puzz	-8732
▁reev	-8733
▁samp	-8734
▁simp	-8735
▁synt	-8736
▁tiss	-8737
▁tymp	-8738
▁vacc	-8739
▁week	-8740
ODcast	-8741
abetic	-8742
abilit	-8743
abolic	-8744
acilit	-8745
acists	-8746
acores	-8747
actera	-8748
aiting	-8749
anaged	-8750
ancial	-8751
ancomy	-8752
anners	-8753
anning	-8754
aparos	-8755
aparot	-8756
arents	-8757
argets	-8758
argins	-8759
armacy	-8760
arrant	-8761
arrier	-8762
asizes	-8763
asomot	-8764
ategic	-8765
ategor	-8766
athway	-8767
atrics	-8768
atural	-8769
aviors	-8770
bidity	-8771
biolog	-8772
chemia	-8773
cified	-8774
ciplin	-8775
compan	-8776
contin	-8777
cusses	-8778
dromes	-8779
dverse	-8780
eading	-8781
ecause	-8782
embers	-8783
emoral	-8784
emoroc	-8785
eopuff	-8786
erably	-8787
ercise	-8788
erials	-8789
erived	-8790
ertise	-8791
espite	-8792
examic	-8793
extual	-8794
fering	-8795
ferral	-8796
ferred	-8797
fforts	-8798
gether	-8799
UCA	-8800
suc	-8801
uco	-8802
alsy	-8803
cise	-8804
cute	-8805
embr	-8806
fice	-8807
file	-8808
gile	-8809
hron	-8810
opsy	-8811
plif	-8812
vice	-8813
ylor	-8814
zard	-8815
▁jud	-8816
▁maj	-8817
▁nuc	-8818
▁plo	-8819
alges	-8820
amily	-8821
amins	-8822
arcin	-8823
ardiz	-8824
asily	-8825
bally	-8826
cines	-8827
cised	-8828
enile	-8829
erect	-8830
giene	-8831
hoice	-8832
icron	-8833
oecon	-8834
olute	-8835
ritis	-8836
ropsy	-8837
▁agre	-8838
▁blad	-8839
▁desc	-8840
▁desm	-8841
▁plan	-8842
erally	-8843
erator	-8844
ervice	-8845
givers	-8846
gnancy	-8847
herect	-8848
hewing	-8849
hieved	-8850
horten	-8851
hylact	-8852
hyroid	-8853
iately	-8854
iction	-8855
idemic	-8856
ielect	-8857
ileore	-8858
iluted	-8859
imally	-8860
iminis	-8861
immune	-8862
inants	-8863
ineurs	-8864
instit	-8865
inting	-8866
irthwe	-8867
irtual	-8868
ishing	-8869
isodes	-8870
issues	-8871
istian	-8872
itamin	-8873
itator	-8874
itness	-8875
itting	-8876
juvant	-8877
ladder	-8878
lexion	-8879
lights	-8880
likely	-8881
liomas	-8882
lished	-8883
loride	-8884
lycaem	-8885
maging	-8886
medull	-8887
metrop	-8888
misart	-8889
mising	-8890
moting	-8891
necess	-8892
neumop	-8893
ocally	-8894
oceles	-8895
ochond	-8896
ocused	-8897
ocytic	-8898
odynam	-8899
EEP	-8900
MPM	-8901
eph	-8902
gli	-8903
kne	-8904
lix	-8905
mph	-8906
pla	-8907
plo	-8908
xpl	-8909
yte	-8910
▁7.	-8911
▁VD	-8912
ampl	-8913
copl	-8914
each	-8915
emov	-8916
idne	-8917
just	-8918
lipp	-8919
ovas	-8920
ovit	-8921
phal	-8922
phic	-8923
phis	-8924
pler	-8925
pret	-8926
vari	-8927
ysos	-8928
▁Aph	-8929
▁pne	-8930
ablis	-8931
anspl	-8932
ariab	-8933
clear	-8934
copat	-8935
copro	-8936
endov	-8937
ineph	-8938
liver	-8939
orari	-8940
ovial	-8941
paris	-8942
phone	-8943
plain	-8944
plant	-8945
rents	-8946
usted	-8947
ustif	-8948
veryd	-8949
▁Aust	-8950
▁Stre	-8951
▁Week	-8952
▁desi	-8953
▁empl	-8954
alized	-8955
amined	-8956
arious	-8957
eneral	-8958
essari	-8959
gments	-8960
iewing	-8961
livery	-8962
oiding	-8963
oimmun	-8964
ollege	-8965
omedic	-8966
omized	-8967
omorph	-8968
omotic	-8969
onably	-8970
onatal	-8971
ontrip	-8972
ophage	-8973
ophren	-8974
oplast	-8975
orator	-8976
orotic	-8977
oskele	-8978
otherm	-8979
ounger	-8980
ournal	-8981
ployed	-8982
pograp	-8983
potomy	-8984
ppoint	-8985
ptimal	-8986
qually	-8987
quests	-8988
rapart	-8989
rebrov	-8990
rental	-8991
resect	-8992
reshol	-8993
rested	-8994
restim	-8995
rhages	-8996
ribute	-8997
ricted	-8998
rising	-8999
%).	-9000
ANE	-9001
SAH	-9002
aiw	-9003
▁21	-9004
▁UN	-9005
diov	-9006
epit	-9007
eved	-9008
hyla	-9009
phth	-9010
▁Lyn	-9011
▁cla	-9012
ackup	-9013
cible	-9014
ellit	-9015
espit	-9016
eterm	-9017
eview	-9018
gency	-9019
hemor	-9020
iatic	-9021
iothe	-9022
monst	-9023
olved	-9024
parat	-9025
patic	-9026
pital	-9027
roved	-9028
ulmon	-9029
vival	-9030
▁emer	-9031
▁emis	-9032
▁nutr	-9033
▁reco	-9034
▁scal	-9035
▁scho	-9036
▁scin	-9037
▁stru	-9038
cident	-9039
clamps	-9040
ellows	-9041
ematic	-9042
enefic	-9043
enefit	-9044
etting	-9045
hemist	-9046
hesive	-9047
hoking	-9048
idency	-9049
inking	-9050
lusion	-9051
quired	-9052
raving	-9053
roader	-9054
ronchi	-9055
rophil	-9056
rophyl	-9057
roving	-9058
scopic	-9059
sities	-9060
spring	-9061
stages	-9062
static	-9063
strate	-9064
struct	-9065
terect	-9066
tether	-9067
tiolog	-9068
tonsil	-9069
ualize	-9070
ucated	-9071
udinal	-9072
uffici	-9073
ullary	-9074
ultane	-9075
upffer	-9076
upoint	-9077
uptake	-9078
uremia	-9079
ushing	-9080
ussion	-9081
utroph	-9082
vating	-9083
verely	-9084
versus	-9085
vision	-9086
xicity	-9087
ylcyst	-9088
ymatic	-9089
ynamic	-9090
▁1.78%	-9091
▁Aphas	-9092
▁Europ	-9093
▁Fourn	-9094
▁Lysos	-9095
▁Regis	-9096
▁Stead	-9097
▁Where	-9098
▁adjun	-9099
▁19	-9100
▁UG	-9101
▁Ul	-9102
▁kn	-9103
aros	-9104
arot	-9105
fron	-9106
lapp	-9107
pons	-9108
rict	-9109
sons	-9110
tons	-9111
ustm	-9112
▁Alt	-9113
▁Wee	-9114
▁mix	-9115
eared	-9116
erpar	-9117
flect	-9118
genit	-9119
hared	-9120
lectr	-9121
onsib	-9122
onsid	-9123
onsiv	-9124
ribut	-9125
ticul	-9126
xcess	-9127
xtern	-9128
▁beli	-9129
▁carc	-9130
▁caro	-9131
▁carr	-9132
▁occl	-9133
▁tons	-9134
▁trac	-9135
acolog	-9136
affing	-9137
astric	-9138
ceptab	-9139
cepted	-9140
ceptor	-9141
concus	-9142
diolog	-9143
ensory	-9144
entric	-9145
ercept	-9146
illect	-9147
parity	-9148
relate	-9149
unolog	-9150
uscept	-9151
velops	-9152
▁admis	-9153
▁admit	-9154
▁advan	-9155
▁aller	-9156
▁alloc	-9157
▁altho	-9158
▁answe	-9159
▁asthm	-9160
▁autoC	-9161
▁behin	-9162
▁carry	-9163
▁chang	-9164
▁chond	-9165
▁chron	-9166
▁coach	-9167
▁coeli	-9168
▁corne	-9169
▁decid	-9170
▁defic	-9171
▁demon	-9172
▁depar	-9173
▁depen	-9174
▁divid	-9175
▁elder	-9176
▁emerg	-9177
▁endar	-9178
▁endem	-9179
▁endoc	-9180
▁enfor	-9181
▁espec	-9182
▁estab	-9183
▁estro	-9184
▁ethan	-9185
▁favor	-9186
▁feedb	-9187
▁femal	-9188
▁footp	-9189
▁gadob	-9190
▁gallb	-9191
▁hemis	-9192
▁hemor	-9193
▁hepar	-9194
▁homog	-9195
▁illic	-9196
▁impai	-9197
▁infli	-9198
▁insur	-9199
flu	-9200
caus	-9201
ccur	-9202
copy	-9203
ffsp	-9204
iene	-9205
luid	-9206
luor	-9207
ooth	-9208
pert	-9209
rosp	-9210
tach	-9211
yout	-9212
▁eng	-9213
▁enj	-9214
▁enl	-9215
▁eno	-9216
▁tru	-9217
▁vie	-9218
aedic	-9219
anual	-9220
anula	-9221
arged	-9222
argin	-9223
atomy	-9224
auses	-9225
celes	-9226
ctomy	-9227
ctual	-9228
curac	-9229
dancy	-9230
ertis	-9231
hemic	-9232
hesis	-9233
iates	-9234
iques	-9235
isual	-9236
lysis	-9237
mptom	-9238
omech	-9239
osurg	-9240
osves	-9241
quire	-9242
spect	-9243
▁Sout	-9244
▁bene	-9245
▁dime	-9246
▁doct	-9247
▁enab	-9248
▁ener	-9249
▁mech	-9250
▁quic	-9251
▁rais	-9252
▁targ	-9253
▁tech	-9254
▁tert	-9255
▁tric	-9256
bility	-9257
curred	-9258
eneity	-9259
eneous	-9260
ertens	-9261
ertion	-9262
gility	-9263
inctly	-9264
istory	-9265
rotect	-9266
states	-9267
ursing	-9268
▁maint	-9269
▁manag	-9270
▁manif	-9271
▁manus	-9272
▁marri	-9273
▁membr	-9274
▁metho	-9275
▁migra	-9276
▁month	-9277
▁muscl	-9278
▁neoad	-9279
▁neopl	-9280
▁nonul	-9281
▁nonwh	-9282
▁ovari	-9283
▁plaqu	-9284
▁popul	-9285
▁postn	-9286
▁presc	-9287
▁princ	-9288
▁prosp	-9289
▁recog	-9290
▁recon	-9291
▁reflu	-9292
▁regar	-9293
▁remin	-9294
▁repai	-9295
▁repla	-9296
▁sampl	-9297
▁satur	-9298
▁sched	-9299
cri	-9300
hap	-9301
ovi	-9302
pap	-9303
▁2.	-9304
▁GB	-9305
▁GC	-9306
▁GD	-9307
▁GV	-9308
▁VL	-9309
aple	-9310
atri	-9311
ehol	-9312
fuln	-9313
gery	-9314
gone	-9315
hild	-9316
hone	-9317
ield	-9318
ilap	-9319
lood	-9320
mful	-9321
ourc	-9322
ours	-9323
pful	-9324
phol	-9325
riat	-9326
ried	-9327
rier	-9328
rone	-9329
ront	-9330
shol	-9331
stap	-9332
vier	-9333
vily	-9334
vior	-9335
▁Chr	-9336
▁Giv	-9337
▁cap	-9338
▁fri	-9339
▁pri	-9340
▁tri	-9341
agery	-9342
erful	-9343
icone	-9344
ildho	-9345
oneum	-9346
ophag	-9347
ourag	-9348
oural	-9349
rians	-9350
riend	-9351
rient	-9352
umour	-9353
viate	-9354
▁Anal	-9355
▁Liqu	-9356
▁retr	-9357
▁revi	-9358
▁room	-9359
▁sour	-9360
ablish	-9361
ariant	-9362
armful	-9363
cludes	-9364
ecolog	-9365
ipants	-9366
lected	-9367
ormone	-9368
vantag	-9369
▁accor	-9370
▁effic	-9371
▁hypal	-9372
▁hypot	-9373
▁relap	-9374
▁scler	-9375
▁secon	-9376
▁simil	-9377
▁skele	-9378
▁somat	-9379
▁synch	-9380
▁teach	-9381
▁tobac	-9382
▁traff	-9383
▁trism	-9384
▁unrel	-9385
▁unrep	-9386
▁verif	-9387
▁verte	-9388
▁workf	-9389
▁workl	-9390
acrific	-9391
alanced	-9392
alidity	-9393
ameters	-9394
aminers	-9395
anguage	-9396
appoint	-9397
aracter	-9398
arently	-9399
ICT	-9400
VIG	-9401
dio	-9402
▁50	-9403
andm	-9404
ardi	-9405
diag	-9406
diog	-9407
diol	-9408
gnos	-9409
hrol	-9410
mand	-9411
regn	-9412
roll	-9413
rols	-9414
tail	-9415
valu	-9416
▁Unm	-9417
▁amb	-9418
▁amp	-9419
▁amy	-9420
▁elu	-9421
▁emp	-9422
▁lap	-9423
▁pap	-9424
▁whi	-9425
agnet	-9426
aluat	-9427
andar	-9428
andib	-9429
dress	-9430
ducer	-9431
enrol	-9432
gnant	-9433
gnost	-9434
gress	-9435
horts	-9436
losis	-9437
rolog	-9438
stand	-9439
ventf	-9440
▁Rand	-9441
▁amin	-9442
▁land	-9443
▁magn	-9444
▁quit	-9445
ailore	-9446
aviour	-9447
cholog	-9448
diothe	-9449
esults	-9450
etform	-9451
formit	-9452
gnosis	-9453
mptoms	-9454
omosis	-9455
orosis	-9456
ppress	-9457
▁Alter	-9458
▁consc	-9459
▁coron	-9460
▁stand	-9461
agnosis	-9462
ailures	-9463
aluated	-9464
ansform	-9465
argeted	-9466
arliest	-9467
arrants	-9468
assific	-9469
astasis	-9470
astroph	-9471
ategies	-9472
athisia	-9473
bectomy	-9474
centage	-9475
ceptors	-9476
ceptual	-9477
cerning	-9478
cessing	-9479
chizoph	-9480
choscop	-9481
cidence	-9482
cisions	-9483
climati	-9484
concept	-9485
continu	-9486
copists	-9487
coprote	-9488
counter	-9489
courage	-9490
covered	-9491
creatic	-9492
ddition	-9493
diation	-9494
dicitis	-9495
diograp	-9496
ducible	-9497
easible	-9498
echanic	-9499
CMV	-9500
ansg	-9501
ansi	-9502
ansl	-9503
ansp	-9504
blic	-9505
brop	-9506
cans	-9507
cose	-9508
eans	-9509
heno	-9510
hens	-9511
hose	-9512
nose	-9513
pici	-9514
pose	-9515
rope	-9516
ropl	-9517
ropr	-9518
rops	-9519
ught	-9520
▁kin	-9521
anser	-9522
ansre	-9523
copic	-9524
dicts	-9525
domen	-9526
etrop	-9527
evert	-9528
found	-9529
henot	-9530
hough	-9531
ibers	-9532
iners	-9533
isers	-9534
leans	-9535
licle	-9536
never	-9537
olesc	-9538
ollic	-9539
osely	-9540
otrop	-9541
ptans	-9542
rophy	-9543
ropon	-9544
utrop	-9545
vived	-9546
▁Elic	-9547
▁abol	-9548
▁elic	-9549
▁park	-9550
▁phag	-9551
ansing	-9552
ansure	-9553
astrop	-9554
atella	-9555
atific	-9556
curate	-9557
esocol	-9558
ficial	-9559
icient	-9560
licate	-9561
omenol	-9562
ractic	-9563
refore	-9564
ucture	-9565
▁highl	-9566
▁parag	-9567
▁param	-9568
▁paras	-9569
▁parit	-9570
▁polym	-9571
▁posit	-9572
▁relat	-9573
▁repos	-9574
▁repre	-9575
ategory	-9576
echanis	-9577
echniqu	-9578
ecially	-9579
ectasis	-9580
edicare	-9581
ellitus	-9582
emograp	-9583
emonstr	-9584
endothe	-9585
enefici	-9586
erately	-9587
erating	-9588
erature	-9589
erestim	-9590
ergocal	-9591
erience	-9592
ertiary	-9593
ertions	-9594
esected	-9595
esophag	-9596
essages	-9597
etropic	-9598
everthe	-9599
aug	-9600
ike	-9601
kew	-9602
lcy	-9603
ugs	-9604
▁BR	-9605
▁EU	-9606
▁El	-9607
▁RS	-9608
▁RT	-9609
▁VC	-9610
▁ke	-9611
acet	-9612
atty	-9613
houg	-9614
idea	-9615
kers	-9616
lecy	-9617
lide	-9618
macy	-9619
rban	-9620
sise	-9621
trop	-9622
uide	-9623
vide	-9624
xill	-9625
▁Bas	-9626
▁Bod	-9627
▁Bot	-9628
▁Edu	-9629
▁Ele	-9630
▁Ran	-9631
▁ske	-9632
ansop	-9633
henop	-9634
ideal	-9635
illic	-9636
intig	-9637
lowup	-9638
oride	-9639
ppear	-9640
veill	-9641
viour	-9642
▁inta	-9643
▁inte	-9644
▁intr	-9645
▁mill	-9646
▁slow	-9647
▁subf	-9648
▁subg	-9649
▁subj	-9650
▁subs	-9651
▁tear	-9652
▁tran	-9653
▁usef	-9654
▁wide	-9655
ctures	-9656
dients	-9657
enzalk	-9658
eraliz	-9659
illing	-9660
ilting	-9661
iograp	-9662
oncept	-9663
osures	-9664
ptures	-9665
ssures	-9666
ughout	-9667
▁caref	-9668
▁careg	-9669
▁expre	-9670
▁finan	-9671
▁intel	-9672
▁inten	-9673
▁subch	-9674
atality	-9675
clature	-9676
ctional	-9677
easures	-9678
ferably	-9679
fidence	-9680
formity	-9681
genital	-9682
gnostic	-9683
gorithm	-9684
habilit	-9685
hesions	-9686
hically	-9687
hicular	-9688
hysical	-9689
ialysis	-9690
icenter	-9691
ickness	-9692
idening	-9693
identif	-9694
iethnic	-9695
ilaparo	-9696
ilatory	-9697
ileptic	-9698
ilitate	-9699
5.	-9700
AL	-9701
AV	-9702
VO	-9703
vs	-9704
GIN	-9705
Mot	-9706
Vag	-9707
bst	-9708
erf	-9709
fid	-9710
kal	-9711
lus	-9712
oro	-9713
pre	-9714
syc	-9715
twe	-9716
win	-9717
yra	-9718
▁DG	-9719
▁FH	-9720
▁Fa	-9721
▁Fo	-9722
▁va	-9723
astr	-9724
asty	-9725
enop	-9726
ered	-9727
hage	-9728
hall	-9729
idat	-9730
ighl	-9731
ious	-9732
isph	-9733
ithi	-9734
plic	-9735
thwe	-9736
uous	-9737
upun	-9738
were	-9739
with	-9740
▁Dat	-9741
▁Den	-9742
▁Fur	-9743
▁Gad	-9744
▁obt	-9745
▁sph	-9746
HANES	-9747
NAIDS	-9748
allow	-9749
amage	-9750
astas	-9751
astat	-9752
dices	-9753
erved	-9754
eserv	-9755
etast	-9756
hemia	-9757
ightf	-9758
inage	-9759
ortal	-9760
pithe	-9761
sight	-9762
urage	-9763
wered	-9764
▁Fent	-9765
▁cour	-9766
▁leis	-9767
▁pall	-9768
▁prel	-9769
▁spin	-9770
▁spon	-9771
▁tris	-9772
abular	-9773
enthes	-9774
erving	-9775
essage	-9776
ramide	-9777
urrent	-9778
verall	-9779
▁Contr	-9780
▁betwe	-9781
▁concl	-9782
▁exper	-9783
▁hemod	-9784
▁needl	-9785
ervical	-9786
illness	-9787
imulate	-9788
inantly	-9789
ination	-9790
ipatory	-9791
isiting	-9792
issions	-9793
istolog	-9794
itially	-9795
itively	-9796
ivities	-9797
ixation	-9798
jective	-9799
6.	-9800
Ga	-9801
Us	-9802
eq	-9803
gt	-9804
lv	-9805
pi	-9806
vo	-9807
4).	-9808
Per	-9809
SCP	-9810
atm	-9811
bin	-9812
enl	-9813
heu	-9814
ibi	-9815
imp	-9816
ipa	-9817
lip	-9818
ned	-9819
she	-9820
sia	-9821
tif	-9822
▁Hy	-9823
▁La	-9824
▁Li	-9825
▁Ly	-9826
▁WM	-9827
▁eo	-9828
High	-9829
Kore	-9830
angl	-9831
ania	-9832
bral	-9833
ells	-9834
ibed	-9835
ipar	-9836
ipat	-9837
iphy	-9838
ipip	-9839
ipop	-9840
ipul	-9841
isia	-9842
itor	-9843
orar	-9844
pens	-9845
rors	-9846
sens	-9847
tens	-9848
ucos	-9849
▁Ind	-9850
▁Lan	-9851
▁Lar	-9852
▁Lim	-9853
▁coe	-9854
▁sei	-9855
▁spe	-9856
▁vom	-9857
allst	-9858
atter	-9859
cedur	-9860
duced	-9861
ensit	-9862
itors	-9863
jured	-9864
ptors	-9865
taken	-9866
tions	-9867
▁coel	-9868
▁cove	-9869
▁dens	-9870
▁itse	-9871
▁trop	-9872
actors	-9873
agnost	-9874
cedure	-9875
ensure	-9876
esions	-9877
gement	-9878
ssions	-9879
tected	-9880
▁Throm	-9881
▁parap	-9882
andated	-9883
entions	-9884
estions	-9885
ipation	-9886
laining	-9887
lateral	-9888
lection	-9889
lectron	-9890
lectual	-9891
lerance	-9892
lerated	-9893
licable	-9894
linolen	-9895
loading	-9896
mmative	-9897
morphic	-9898
munolog	-9899
ej	-9900
ui	-9901
Wor	-9902
bch	-9903
edb	-9904
eig	-9905
ena	-9906
hag	-9907
mov	-9908
mul	-9909
onw	-9910
rig	-9911
rth	-9912
siz	-9913
usp	-9914
zar	-9915
▁ri	-9916
aniz	-9917
aphy	-9918
asch	-9919
atro	-9920
cend	-9921
char	-9922
chil	-9923
chon	-9924
chos	-9925
chot	-9926
core	-9927
derg	-9928
derl	-9929
diot	-9930
ease	-9931
endo	-9932
fess	-9933
hoic	-9934
hyro	-9935
hyth	-9936
idiz	-9937
iece	-9938
ills	-9939
ineo	-9940
isch	-9941
lish	-9942
nder	-9943
odef	-9944
omar	-9945
omiz	-9946
rape	-9947
uniz	-9948
verc	-9949
▁Phy	-9950
▁sym	-9951
▁wee	-9952
athol	-9953
derst	-9954
eases	-9955
endar	-9956
endom	-9957
endor	-9958
hance	-9959
ithms	-9960
lance	-9961
raphy	-9962
rogra	-9963
treat	-9964
▁Thre	-9965
▁ante	-9966
▁exch	-9967
▁exis	-9968
▁foun	-9969
▁seiz	-9970
▁tril	-9971
arkers	-9972
cessed	-9973
derlin	-9974
dictab	-9975
dingly	-9976
easure	-9977
endect	-9978
heless	-9979
inding	-9980
isfact	-9981
ording	-9982
reaten	-9983
urgery	-9984
▁disch	-9985
▁dysar	-9986
▁genic	-9987
▁poten	-9988
▁sight	-9989
bulized	-9990
edicine	-9991
nically	-9992
obility	-9993
ochlear	-9994
ococcal	-9995
ococcus	-9996
ocument	-9997
oepithe	-9998
oidosis	-9999
ht	-10000
PDS	-10001
Rem	-10002
Vit	-10003
aed	-10004
ccl	-10005
cep	-10006
git	-10007
iag	-10008
jug	-10009
lle	-10010
oub	-10011
typ	-10012
vem	-10013
vio	-10014
ycl	-10015
ypo	-10016
▁AL	-10017
▁Mu	-10018
From	-10019
West	-10020
accl	-10021
asib	-10022
atio	-10023
clam	-10024
clat	-10025
dert	-10026
eine	-10027
enit	-10028
fine	-10029
ides	-10030
mine	-10031
mpts	-10032
ouse	-10033
pine	-10034
uscl	-10035
ypog	-10036
▁Mag	-10037
▁Mel	-10038
▁lef	-10039
▁leu	-10040
▁thi	-10041
▁wea	-10042
aline	-10043
ancom	-10044
bable	-10045
comes	-10046
ellow	-10047
eomet	-10048
erine	-10049
ervix	-10050
ffing	-10051
icine	-10052
ineur	-10053
iplin	-10054
izure	-10055
kable	-10056
quine	-10057
rican	-10058
romes	-10059
ssion	-10060
ssoci	-10061
urine	-10062
vance	-10063
▁beha	-10064
▁dece	-10065
▁eval	-10066
▁haem	-10067
▁incl	-10068
▁paro	-10069
▁pine	-10070
▁tend	-10071
erable	-10072
ingdom	-10073
isable	-10074
lained	-10075
onable	-10076
ptable	-10077
ypical	-10078
▁accom	-10079
▁becom	-10080
▁endos	-10081
▁infar	-10082
▁infil	-10083
▁theor	-10084
▁throm	-10085
arkable	-10086
ensured	-10087
istence	-10088
olicies	-10089
olution	-10090
omechan	-10091
omotrop	-10092
onoscop	-10093
onsible	-10094
onsiven	-10095
oreover	-10096
ormally	-10097
ormance	-10098
ormonal	-10099
Ce	-10100
Cm	-10101
Pe	-10102
bd	-10103
mg	-10104
uo	-10105
EOA	-10106
Edu	-10107
hth	-10108
ien	-10109
ilt	-10110
rag	-10111
uro	-10112
▁MB	-10113
▁ME	-10114
▁SG	-10115
▁SP	-10116
▁Sa	-10117
▁Sb	-10118
▁Sk	-10119
▁Sm	-10120
▁Su	-10121
▁Sw	-10122
Long	-10123
agre	-10124
dary	-10125
educ	-10126
fill	-10127
iary	-10128
inil	-10129
lary	-10130
lete	-10131
mary	-10132
mong	-10133
nter	-10134
prap	-10135
race	-10136
rans	-10137
rapu	-10138
rary	-10139
rong	-10140
sequ	-10141
sigh	-10142
stan	-10143
trap	-10144
▁atr	-10145
▁byp	-10146
▁dia	-10147
▁hor	-10148
▁ove	-10149
adver	-10150
dated	-10151
duate	-10152
elong	-10153
herap	-10154
ibing	-10155
iders	-10156
illus	-10157
itati	-10158
ocain	-10159
onger	-10160
ongit	-10161
ptake	-10162
rapar	-10163
rapid	-10164
ssive	-10165
▁Incl	-10166
▁Unit	-10167
▁atre	-10168
▁disa	-10169
entati	-10170
ionary	-10171
irable	-10172
linary	-10173
nition	-10174
otions	-10175
rapist	-10176
rition	-10177
▁Intra	-10178
▁condu	-10179
▁disor	-10180
▁disqu	-10181
▁inver	-10182
▁pedig	-10183
▁produ	-10184
ctition	-10185
edition	-10186
istical	-10187
itioner	-10188
mentary	-10189
orphism	-10190
ortance	-10191
osinoph	-10192
ostatin	-10193
othelin	-10194
otional	-10195
otympan	-10196
ouraged	-10197
owerful	-10198
pendent	-10199
50	-10200
6%	-10201
Ar	-10202
RB	-10203
WB	-10204
ko	-10205
ku	-10206
049	-10207
bia	-10208
ede	-10209
eru	-10210
eso	-10211
gil	-10212
mer	-10213
nar	-10214
ria	-10215
ser	-10216
thc	-10217
thn	-10218
thw	-10219
umo	-10220
upl	-10221
yth	-10222
▁IH	-10223
▁Me	-10224
▁SH	-10225
▁Sl	-10226
▁eq	-10227
aint	-10228
alth	-10229
boun	-10230
evel	-10231
fely	-10232
hain	-10233
hren	-10234
ired	-10235
moun	-10236
oppl	-10237
ounc	-10238
ouns	-10239
ount	-10240
rant	-10241
ries	-10242
thal	-10243
udes	-10244
unit	-10245
vels	-10246
▁Det	-10247
▁ach	-10248
▁urb	-10249
▁usu	-10250
Great	-10251
asoun	-10252
colog	-10253
dance	-10254
ectab	-10255
ivary	-10256
onoun	-10257
ormal	-10258
orman	-10259
ormed	-10260
ormin	-10261
ormit	-10262
ounse	-10263
thers	-10264
▁MRCG	-10265
▁appa	-10266
▁asth	-10267
▁chal	-10268
▁dire	-10269
▁offe	-10270
▁perf	-10271
▁user	-10272
▁woun	-10273
Effect	-10274
enable	-10275
ggests	-10276
iative	-10277
icated	-10278
itical	-10279
ormity	-10280
▁appen	-10281
▁perce	-10282
▁peron	-10283
▁precl	-10284
ancreas	-10285
creases	-10286
ffectiv	-10287
itional	-10288
orsened	-10289
percept	-10290
perform	-10291
phonate	-10292
plement	-10293
ploying	-10294
ppropri	-10295
quately	-10296
ractive	-10297
racture	-10298
rainage	-10299
Ot	-10300
mn	-10301
tp	-10302
Del	-10303
Kup	-10304
Sel	-10305
elm	-10306
fle	-10307
hif	-10308
iel	-10309
inm	-10310
kup	-10311
oup	-10312
spr	-10313
sta	-10314
upd	-10315
upo	-10316
ups	-10317
▁79	-10318
▁FA	-10319
▁HD	-10320
▁HG	-10321
▁HN	-10322
▁HP	-10323
▁Ta	-10324
abel	-10325
areg	-10326
elay	-10327
eled	-10328
elen	-10329
elil	-10330
elle	-10331
erom	-10332
hysi	-10333
ibin	-10334
ibly	-10335
ibul	-10336
icle	-10337
ifel	-10338
igel	-10339
igid	-10340
ipol	-10341
odel	-10342
opro	-10343
quel	-10344
soci	-10345
upff	-10346
upon	-10347
youn	-10348
ysre	-10349
▁Hal	-10350
▁Hum	-10351
▁Pro	-10352
▁Wom	-10353
▁bas	-10354
▁coh	-10355
▁neu	-10356
▁obs	-10357
▁pel	-10358
▁tel	-10359
▁tib	-10360
aints	-10361
asala	-10362
avior	-10363
dicat	-10364
eling	-10365
ience	-10366
ieved	-10367
ounte	-10368
umors	-10369
▁Prem	-10370
▁neop	-10371
▁soci	-10372
▁stel	-10373
▁stil	-10374
alence	-10375
aluate	-10376
dicate	-10377
inence	-10378
quence	-10379
rading	-10380
▁conte	-10381
lations	-10382
ramidal	-10383
rasound	-10384
rations	-10385
reating	-10386
rective	-10387
referen	-10388
relates	-10389
resents	-10390
resting	-10391
retable	-10392
retreat	-10393
riately	-10394
ricians	-10395
ringing	-10396
rogenic	-10397
romboly	-10398
rophary	-10399
Cl	-10400
PR	-10401
Wh	-10402
ka	-10403
Dem	-10404
Lar	-10405
Ser	-10406
cir	-10407
cts	-10408
ema	-10409
emi	-10410
emp	-10411
ems	-10412
icl	-10413
lum	-10414
nec	-10415
opm	-10416
oti	-10417
sib	-10418
▁8.	-10419
▁OT	-10420
Hist	-10421
adem	-10422
aist	-10423
alem	-10424
arer	-10425
atif	-10426
clin	-10427
eare	-10428
emal	-10429
emog	-10430
emon	-10431
emot	-10432
emur	-10433
idit	-10434
illb	-10435
item	-10436
ivar	-10437
linc	-10438
lite	-10439
mage	-10440
mist	-10441
oist	-10442
okal	-10443
sici	-10444
sist	-10445
tati	-10446
ulop	-10447
verd	-10448
xist	-10449
▁neo	-10450
▁org	-10451
▁unp	-10452
etary	-10453
gions	-10454
hythm	-10455
idism	-10456
igher	-10457
inati	-10458
istal	-10459
istan	-10460
istop	-10461
istur	-10462
linar	-10463
linic	-10464
linqu	-10465
otens	-10466
riate	-10467
ssing	-10468
stect	-10469
▁canc	-10470
▁list	-10471
▁surf	-10472
▁surp	-10473
▁toot	-10474
▁unab	-10475
▁unem	-10476
▁unif	-10477
▁unil	-10478
▁unin	-10479
▁unse	-10480
▁unus	-10481
diated	-10482
isting	-10483
itance	-10484
oarthr	-10485
onolog	-10486
rogate	-10487
ugment	-10488
enteral	-10489
roplast	-10490
ructive	-10491
ructure	-10492
sequent	-10493
stoscop	-10494
strated	-10495
strates	-10496
tectant	-10497
tective	-10498
tervent	-10499
.)	-10500
FA	-10501
hn	-10502
nm	-10503
Dis	-10504
fal	-10505
gid	-10506
hep	-10507
ils	-10508
kad	-10509
ras	-10510
rug	-10511
tat	-10512
▁MH	-10513
King	-10514
Over	-10515
adof	-10516
aign	-10517
aref	-10518
cret	-10519
fare	-10520
foun	-10521
gies	-10522
gnan	-10523
hare	-10524
lact	-10525
osom	-10526
pies	-10527
quic	-10528
sies	-10529
sign	-10530
sses	-10531
tact	-10532
ubes	-10533
umab	-10534
umes	-10535
umop	-10536
▁Alc	-10537
▁Ser	-10538
▁bru	-10539
▁hea	-10540
▁hel	-10541
▁pig	-10542
activ	-10543
align	-10544
ancre	-10545
aries	-10546
asing	-10547
creen	-10548
endot	-10549
enign	-10550
eries	-10551
esign	-10552
icare	-10553
icies	-10554
ifies	-10555
incre	-10556
iscre	-10557
isten	-10558
lates	-10559
occus	-10560
onous	-10561
otact	-10562
scler	-10563
▁poin	-10564
▁popl	-10565
acting	-10566
acture	-10567
hysici	-10568
illust	-10569
mative	-10570
native	-10571
nitive	-10572
teract	-10573
teries	-10574
ustain	-10575
vative	-10576
▁asser	-10577
▁assur	-10578
▁bever	-10579
▁decre	-10580
▁excre	-10581
▁exhib	-10582
▁incre	-10583
▁regul	-10584
▁silic	-10585
arative	-10586
blastic	-10587
icative	-10588
inative	-10589
terygia	-10590
thalmic	-10591
thletes	-10592
tmental	-10593
toplasm	-10594
tration	-10595
trative	-10596
trexone	-10597
triment	-10598
ualized	-10599
CN	-10600
LC	-10601
fu	-10602
oj	-10603
Bod	-10604
Col	-10605
Hum	-10606
Opt	-10607
Tro	-10608
att	-10609
ept	-10610
erl	-10611
eum	-10612
ipt	-10613
pts	-10614
sic	-10615
ume	-10616
umf	-10617
▁CC	-10618
▁CR	-10619
▁Cm	-10620
▁Cu	-10621
▁DW	-10622
aces	-10623
anip	-10624
cost	-10625
eigh	-10626
evis	-10627
ibil	-10628
iffe	-10629
illa	-10630
inog	-10631
ligh	-10632
nati	-10633
ogic	-10634
ogis	-10635
ogle	-10636
ogly	-10637
ogra	-10638
omog	-10639
onog	-10640
ostc	-10641
ostf	-10642
ostn	-10643
ptal	-10644
pted	-10645
ptop	-10646
ptor	-10647
rati	-10648
trol	-10649
umat	-10650
umin	-10651
umon	-10652
umor	-10653
xion	-10654
▁Cer	-10655
▁Vag	-10656
▁abn	-10657
▁cum	-10658
▁gan	-10659
▁lum	-10660
▁oft	-10661
eriat	-10662
erlin	-10663
hemot	-10664
ighly	-10665
licit	-10666
orten	-10667
ostop	-10668
raced	-10669
raigh	-10670
ualiz	-10671
ubted	-10672
unost	-10673
▁Engl	-10674
▁bron	-10675
▁disk	-10676
▁disr	-10677
▁fore	-10678
▁ligh	-10679
▁migh	-10680
▁nigh	-10681
▁outp	-10682
▁sigh	-10683
ceptib	-10684
inemia	-10685
jected	-10686
ogical	-10687
ptions	-10688
ptococ	-10689
rative	-10690
redict	-10691
thesis	-10692
▁highe	-10693
ailable	-10694
hologic	-10695
onsider	-10696
ucation	-10697
uctural	-10698
uditing	-10699
GM	-10700
fy	-10701
nj	-10702
sq	-10703
ti	-10704
yb	-10705
Giv	-10706
KIs	-10707
adi	-10708
adv	-10709
ady	-10710
bir	-10711
cce	-10712
eac	-10713
ero	-10714
evi	-10715
fir	-10716
fos	-10717
hec	-10718
irl	-10719
irr	-10720
irs	-10721
irt	-10722
irw	-10723
lac	-10724
ogy	-10725
siv	-10726
tra	-10727
vac	-10728
acro	-10729
aden	-10730
adhe	-10731
adic	-10732
ahar	-10733
aliv	-10734
asac	-10735
bers	-10736
caem	-10737
ceiv	-10738
elan	-10739
erad	-10740
fere	-10741
head	-10742
hemo	-10743
ilis	-10744
iron	-10745
isad	-10746
itiv	-10747
ivit	-10748
lead	-10749
pate	-10750
▁aer	-10751
▁air	-10752
▁bir	-10753
▁cir	-10754
▁cog	-10755
▁gad	-10756
▁gir	-10757
▁giv	-10758
▁liv	-10759
▁nut	-10760
▁tob	-10761
acore	-10762
antag	-10763
easib	-10764
ectiv	-10765
esity	-10766
genic	-10767
icrom	-10768
ipant	-10769
ivial	-10770
liest	-10771
onsum	-10772
reatm	-10773
ultiv	-10774
▁acro	-10775
▁blac	-10776
▁exac	-10777
▁glyc	-10778
▁thir	-10779
▁whic	-10780
▁yout	-10781
bining	-10782
escent	-10783
iating	-10784
irical	-10785
ounced	-10786
retrog	-10787
uation	-10788
ulized	-10789
▁menop	-10790
▁train	-10791
ggested	-10792
igrants	-10793
onments	-10794
ortisol	-10795
ukocyte	-10796
ulating	-10797
ultural	-10798
umferen	-10799
LO	-10800
SQ	-10801
ef	-10802
no	-10803
wl	-10804
Vac	-10805
amb	-10806
amo	-10807
amp	-10808
aut	-10809
chi	-10810
dac	-10811
dib	-10812
hyd	-10813
ira	-10814
lam	-10815
lit	-10816
niz	-10817
oam	-10818
pic	-10819
var	-10820
▁LU	-10821
▁vi	-10822
abas	-10823
acic	-10824
amag	-10825
amet	-10826
anis	-10827
aram	-10828
heal	-10829
igns	-10830
itam	-10831
omac	-10832
oniz	-10833
raop	-10834
roac	-10835
tors	-10836
unis	-10837
urac	-10838
utos	-10839
▁Sub	-10840
▁adm	-10841
▁alc	-10842
▁alg	-10843
▁alp	-10844
▁alt	-10845
▁alw	-10846
▁bac	-10847
▁eac	-10848
▁exo	-10849
▁gam	-10850
▁mam	-10851
▁see	-10852
▁sel	-10853
▁sep	-10854
▁sev	-10855
▁ure	-10856
▁voc	-10857
▁vol	-10858
acial	-10859
cific	-10860
iosis	-10861
nific	-10862
secut	-10863
uscri	-10864
▁aler	-10865
▁alve	-10866
▁dise	-10867
▁exam	-10868
▁lino	-10869
▁reac	-10870
▁sear	-10871
▁youn	-10872
agnose	-10873
atolog	-10874
awkins	-10875
ectant	-10876
ecular	-10877
entist	-10878
erance	-10879
idelin	-10880
ifical	-10881
ifican	-10882
opular	-10883
ulfill	-10884
▁colle	-10885
▁studi	-10886
entific	-10887
ificati	-10888
ificing	-10889
ificity	-10890
rements	-10891
unities	-10892
upation	-10893
upoints	-10894
uptured	-10895
uptures	-10896
urative	-10897
urigrav	-10898
urposes	-10899
CL	-10900
DA	-10901
LV	-10902
QT	-10903
dt	-10904
gr	-10905
Eff	-10906
ado	-10907
dul	-10908
eff	-10909
inp	-10910
ipp	-10911
ppe	-10912
ppo	-10913
sod	-10914
unk	-10915
upp	-10916
ysf	-10917
▁Op	-10918
▁PS	-10919
▁SM	-10920
PSCC	-10921
alis	-10922
aths	-10923
icac	-10924
ieve	-10925
imod	-10926
kend	-10927
mend	-10928
oded	-10929
oden	-10930
odon	-10931
ppen	-10932
pply	-10933
ppro	-10934
raff	-10935
raum	-10936
rous	-10937
sess	-10938
ston	-10939
thop	-10940
uine	-10941
unod	-10942
▁Par	-10943
▁Phe	-10944
▁Pol	-10945
▁Pos	-10946
▁acy	-10947
▁chr	-10948
▁exa	-10949
▁ful	-10950
aring	-10951
eness	-10952
eroma	-10953
essed	-10954
essen	-10955
esses	-10956
icity	-10957
ilore	-10958
omain	-10959
opist	-10960
pport	-10961
utati	-10962
▁alar	-10963
▁comm	-10964
▁exer	-10965
▁fent	-10966
▁newb	-10967
▁reso	-10968
▁sche	-10969
▁sess	-10970
▁stab	-10971
▁suff	-10972
asting	-10973
cesses	-10974
consum	-10975
essing	-10976
gative	-10977
reness	-10978
rently	-10979
stones	-10980
ulture	-10981
▁Trend	-10982
▁aerob	-10983
▁chole	-10984
▁exent	-10985
▁indiv	-10986
▁prefe	-10987
▁reson	-10988
▁resus	-10989
essment	-10990
optotic	-10991
urtherm	-10992
ustific	-10993
ustment	-10994
ustrate	-10995
utative	-10996
utility	-10997
utinely	-10998
utional	-10999
BD	-11000
IH	-11001
xu	-11002
ani	-11003
bly	-11004
bod	-11005
cod	-11006
cro	-11007
ids	-11008
iod	-11009
ket	-11010
mod	-11011
nat	-11012
tam	-11013
uen	-11014
uil	-11015
yet	-11016
▁EC	-11017
▁Is	-11018
▁Mi	-11019
arav	-11020
bing	-11021
dren	-11022
dult	-11023
hopp	-11024
imum	-11025
lore	-11026
odic	-11027
onut	-11028
oore	-11029
oreo	-11030
orer	-11031
rene	-11032
reni	-11033
room	-11034
sial	-11035
spir	-11036
thre	-11037
uest	-11038
ulty	-11039
urab	-11040
▁NNS	-11041
▁Ste	-11042
▁cod	-11043
▁div	-11044
▁nod	-11045
▁ong	-11046
▁unm	-11047
▁zin	-11048
atore	-11049
enthe	-11050
esult	-11051
heren	-11052
imegl	-11053
imult	-11054
inely	-11055
ipate	-11056
mates	-11057
nless	-11058
olore	-11059
ompar	-11060
raren	-11061
therw	-11062
ulner	-11063
ultic	-11064
ultif	-11065
ultim	-11066
ultur	-11067
▁Tren	-11068
▁infe	-11069
▁midf	-11070
▁unex	-11071
anomas	-11072
erular	-11073
essels	-11074
roepip	-11075
ultant	-11076
ulting	-11077
versal	-11078
▁again	-11079
▁assis	-11080
▁cross	-11081
▁displ	-11082
▁dysre	-11083
▁impre	-11084
▁unpro	-11085
ferable	-11086
ociated	-11087
prising	-11088
rapubic	-11089
reshold	-11090
uscular	-11091
uturing	-11092
valence	-11093
vations	-11094
veloped	-11095
ventive	-11096
ventric	-11097
versely	-11098
versial	-11099
Mo	-11100
OR	-11101
Bec	-11102
Det	-11103
Ket	-11104
ads	-11105
amn	-11106
det	-11107
eca	-11108
ecl	-11109
eet	-11110
eta	-11111
etr	-11112
ets	-11113
fet	-11114
ger	-11115
get	-11116
iet	-11117
lre	-11118
nas	-11119
net	-11120
oec	-11121
que	-11122
tec	-11123
tim	-11124
tom	-11125
tot	-11126
uor	-11127
zip	-11128
▁Ph	-11129
abet	-11130
ecim	-11131
ecre	-11132
ecul	-11133
elon	-11134
eous	-11135
etab	-11136
etar	-11137
eted	-11138
ethe	-11139
etim	-11140
etro	-11141
ibut	-11142
iled	-11143
isqu	-11144
lyet	-11145
lyps	-11146
mort	-11147
omec	-11148
onar	-11149
otec	-11150
pers	-11151
pist	-11152
qual	-11153
quen	-11154
ques	-11155
quil	-11156
quin	-11157
rece	-11158
requ	-11159
uber	-11160
urom	-11161
ware	-11162
▁Sur	-11163
▁Tra	-11164
▁enf	-11165
▁fir	-11166
▁jug	-11167
antab	-11168
ccess	-11169
ecial	-11170
estim	-11171
eting	-11172
idual	-11173
imely	-11174
ivate	-11175
quate	-11176
udomy	-11177
▁Pedi	-11178
▁appl	-11179
▁coin	-11180
▁mapp	-11181
▁outs	-11182
▁psyc	-11183
▁slid	-11184
arable	-11185
erosis	-11186
ertain	-11187
isodic	-11188
oneous	-11189
pholog	-11190
ustify	-11191
▁discr	-11192
▁lithi	-11193
termine	-11194
viewers	-11195
viously	-11196
▁570-57	-11197
▁Altern	-11198
▁Christ	-11199
MN	-11200
QA	-11201
SSA	-11202
Use	-11203
abe	-11204
bse	-11205
etf	-11206
fre	-11207
iab	-11208
idn	-11209
lab	-11210
nab	-11211
nch	-11212
nig	-11213
oac	-11214
ota	-11215
pec	-11216
pse	-11217
rra	-11218
sel	-11219
seq	-11220
uab	-11221
usu	-11222
▁AT	-11223
▁Ag	-11224
▁Ap	-11225
▁Aw	-11226
▁Fl	-11227
▁RC	-11228
▁ow	-11229
▁rC	-11230
▁ru	-11231
Nort	-11232
abit	-11233
abol	-11234
abor	-11235
atab	-11236
ctur	-11237
enab	-11238
etoc	-11239
gest	-11240
icab	-11241
iliz	-11242
imis	-11243
inks	-11244
irre	-11245
isab	-11246
izop	-11247
leab	-11248
onab	-11249
orab	-11250
oron	-11251
orta	-11252
port	-11253
sact	-11254
sear	-11255
sele	-11256
seve	-11257
stab	-11258
uage	-11259
unab	-11260
unse	-11261
▁Ara	-11262
▁Tib	-11263
▁fif	-11264
▁ris	-11265
iparo	-11266
lorid	-11267
losed	-11268
opraz	-11269
ortan	-11270
ortic	-11271
romed	-11272
tific	-11273
▁acut	-11274
▁bioc	-11275
▁mort	-11276
▁nonw	-11277
atment	-11278
icable	-11279
ococci	-11280
quency	-11281
terver	-11282
usions	-11283
▁juven	-11284
▁maxim	-11285
▁nomen	-11286
▁overd	-11287
▁uniqu	-11288
ercised	-11289
▁Commer	-11290
▁Comput	-11291
▁Concom	-11292
▁Extern	-11293
▁Fourni	-11294
▁Laparo	-11295
▁Melill	-11296
▁Neurop	-11297
▁Parent	-11298
▁Review	-11299
08	-11300
az	-11301
sk	-11302
tf	-11303
How	-11304
Low	-11305
Whe	-11306
can	-11307
cil	-11308
diz	-11309
err	-11310
fes	-11311
omi	-11312
ops	-11313
ord	-11314
ows	-11315
owu	-11316
phr	-11317
tis	-11318
yse	-11319
▁MN	-11320
▁So	-11321
▁TD	-11322
▁os	-11323
aliz	-11324
dial	-11325
esse	-11326
esta	-11327
hial	-11328
ialt	-11329
iest	-11330
olan	-11331
onve	-11332
owed	-11333
ptab	-11334
rand	-11335
roma	-11336
ssed	-11337
test	-11338
▁Mot	-11339
▁VCU	-11340
▁abo	-11341
▁bab	-11342
▁bow	-11343
▁chl	-11344
▁cli	-11345
▁eit	-11346
▁hav	-11347
▁kne	-11348
▁ree	-11349
▁scl	-11350
▁unl	-11351
aller	-11352
atest	-11353
cated	-11354
eated	-11355
edest	-11356
edial	-11357
empor	-11358
ender	-11359
estas	-11360
estis	-11361
estly	-11362
estor	-11363
estro	-11364
itial	-11365
lated	-11366
omial	-11367
onent	-11368
ortho	-11369
owing	-11370
ption	-11371
tated	-11372
▁acce	-11373
▁diag	-11374
▁righ	-11375
agents	-11376
ession	-11377
estive	-11378
ffects	-11379
inated	-11380
itated	-11381
kening	-11382
▁endom	-11383
▁syner	-11384
▁valid	-11385
ationsh	-11386
onograp	-11387
▁Strept	-11388
▁Therap	-11389
▁abolis	-11390
▁accoun	-11391
▁acetab	-11392
▁adenom	-11393
▁admiss	-11394
▁allevi	-11395
▁altern	-11396
▁ancest	-11397
▁antico	-11398
▁antire	-11399
Do	-11400
PO	-11401
dh	-11402
Gas	-11403
abi	-11404
arb	-11405
kag	-11406
kat	-11407
lud	-11408
mag	-11409
pen	-11410
pia	-11411
sag	-11412
sum	-11413
uag	-11414
udi	-11415
udy	-11416
ulu	-11417
unc	-11418
▁CO	-11419
Gast	-11420
ager	-11421
agic	-11422
agit	-11423
agul	-11424
anag	-11425
arag	-11426
dist	-11427
herm	-11428
isag	-11429
kill	-11430
mity	-11431
ootp	-11432
orag	-11433
pher	-11434
stay	-11435
stos	-11436
uded	-11437
udin	-11438
udom	-11439
unst	-11440
urag	-11441
▁Vac	-11442
▁bod	-11443
▁env	-11444
▁nep	-11445
ceive	-11446
geons	-11447
gment	-11448
hment	-11449
isive	-11450
ively	-11451
nment	-11452
ormot	-11453
pment	-11454
sting	-11455
udent	-11456
uding	-11457
ultip	-11458
usive	-11459
utive	-11460
▁adhe	-11461
▁bact	-11462
▁stag	-11463
alleng	-11464
crease	-11465
entive	-11466
igment	-11467
inment	-11468
ominal	-11469
opment	-11470
ralian	-11471
udents	-11472
▁Altho	-11473
▁anteg	-11474
▁regis	-11475
▁shopp	-11476
▁uncom	-11477
iminary	-11478
otomies	-11479
tiology	-11480
urement	-11481
▁Awaren	-11482
▁approp	-11483
▁assign	-11484
▁attrib	-11485
▁awaren	-11486
▁biolog	-11487
▁biomet	-11488
▁candid	-11489
▁cannul	-11490
▁chemok	-11491
▁chemor	-11492
▁chemot	-11493
▁chloro	-11494
▁chorio	-11495
▁cigare	-11496
▁compre	-11497
▁comput	-11498
▁concom	-11499
CO	-11500
DN	-11501
MR	-11502
PH	-11503
oi	-11504
Day	-11505
Des	-11506
Est	-11507
GEs	-11508
Lan	-11509
VAD	-11510
bon	-11511
chr	-11512
dot	-11513
gst	-11514
hus	-11515
lay	-11516
lst	-11517
nom	-11518
non	-11519
ply	-11520
rst	-11521
sts	-11522
tay	-11523
tst	-11524
wth	-11525
▁Du	-11526
eces	-11527
eity	-11528
encl	-11529
enti	-11530
essf	-11531
idos	-11532
inst	-11533
iver	-11534
safe	-11535
sity	-11536
sted	-11537
stic	-11538
stol	-11539
stor	-11540
stre	-11541
urea	-11542
uret	-11543
vera	-11544
verl	-11545
verw	-11546
vity	-11547
vour	-11548
▁Sin	-11549
▁ran	-11550
acted	-11551
dical	-11552
entag	-11553
gical	-11554
hical	-11555
icalT	-11556
nical	-11557
ongly	-11558
onort	-11559
osity	-11560
pical	-11561
pture	-11562
rical	-11563
rover	-11564
sical	-11565
tical	-11566
veral	-11567
verly	-11568
yment	-11569
▁endp	-11570
▁ever	-11571
▁sole	-11572
ailing	-11573
anical	-11574
atical	-11575
clusal	-11576
enture	-11577
inical	-11578
itures	-11579
rapies	-11580
vering	-11581
verity	-11582
▁Cytot	-11583
▁Great	-11584
▁anast	-11585
▁chall	-11586
▁const	-11587
▁disru	-11588
▁modul	-11589
tection	-11590
▁concor	-11591
▁concur	-11592
▁confin	-11593
▁consci	-11594
▁consid	-11595
▁consum	-11596
▁contam	-11597
▁contem	-11598
▁contro	-11599
Co	-11600
RU	-11601
bs	-11602
ea	-11603
Foc	-11604
Loc	-11605
Soc	-11606
bat	-11607
doc	-11608
enb	-11609
enf	-11610
goc	-11611
hey	-11612
ias	-11613
ioc	-11614
koc	-11615
lap	-11616
lel	-11617
loc	-11618
oca	-11619
occ	-11620
oco	-11621
soc	-11622
tag	-11623
tyl	-11624
ulm	-11625
voc	-11626
▁PA	-11627
▁wi	-11628
amil	-11629
anta	-11630
atoc	-11631
ctoc	-11632
dant	-11633
egis	-11634
enoc	-11635
erin	-11636
gory	-11637
heum	-11638
iant	-11639
jure	-11640
lems	-11641
like	-11642
lure	-11643
ocat	-11644
oche	-11645
ocom	-11646
ocul	-11647
osoc	-11648
role	-11649
tant	-11650
uant	-11651
urer	-11652
vest	-11653
zure	-11654
▁coc	-11655
▁foc	-11656
▁red	-11657
▁siz	-11658
antar	-11659
asure	-11660
dicit	-11661
edure	-11662
endan	-11663
ilure	-11664
inant	-11665
itant	-11666
itory	-11667
ogens	-11668
ogist	-11669
omyop	-11670
ronut	-11671
terns	-11672
therm	-11673
unant	-11674
ximal	-11675
▁aure	-11676
▁conv	-11677
▁gluc	-11678
▁suit	-11679
anting	-11680
appear	-11681
ilated	-11682
▁atten	-11683
▁check	-11684
▁heigh	-11685
▁recom	-11686
henopia	-11687
itoneum	-11688
▁conver	-11689
▁countr	-11690
▁criter	-11691
▁cultur	-11692
▁detail	-11693
▁detors	-11694
▁diabet	-11695
▁diffic	-11696
▁discer	-11697
▁discor	-11698
▁discus	-11699
CV	-11700
GD	-11701
ali	-11702
dop	-11703
eno	-11704
fol	-11705
hin	-11706
iol	-11707
nop	-11708
odi	-11709
oel	-11710
opi	-11711
opy	-11712
pop	-11713
pta	-11714
top	-11715
uic	-11716
yoc	-11717
yop	-11718
zop	-11719
▁Pe	-11720
▁gi	-11721
▁gy	-11722
atol	-11723
cate	-11724
diac	-11725
eriz	-11726
esit	-11727
estr	-11728
fant	-11729
gate	-11730
ifol	-11731
iner	-11732
inop	-11733
nant	-11734
only	-11735
onol	-11736
onop	-11737
onor	-11738
oper	-11739
ople	-11740
opor	-11741
opra	-11742
opul	-11743
orms	-11744
oted	-11745
peed	-11746
rate	-11747
reop	-11748
tate	-11749
uate	-11750
umfe	-11751
vate	-11752
xual	-11753
▁ade	-11754
▁ast	-11755
▁ecl	-11756
▁gly	-11757
▁mol	-11758
▁var	-11759
anted	-11760
arate	-11761
arean	-11762
eight	-11763
enate	-11764
erate	-11765
iased	-11766
icant	-11767
igate	-11768
imate	-11769
inate	-11770
muniz	-11771
orted	-11772
quest	-11773
▁Thei	-11774
▁Thes	-11775
▁cate	-11776
▁mann	-11777
▁surv	-11778
▁ther	-11779
carcin	-11780
linici	-11781
nowled	-11782
orking	-11783
ricans	-11784
urated	-11785
verest	-11786
▁Thera	-11787
▁clinc	-11788
▁dexam	-11789
▁glarg	-11790
ariable	-11791
dicting	-11792
hemical	-11793
ophilic	-11794
reatine	-11795
taining	-11796
▁disqui	-11797
▁divers	-11798
▁dysreg	-11799
7.	-11800
97	-11801
ET	-11802
NN	-11803
ny	-11804
Pol	-11805
apt	-11806
col	-11807
dol	-11808
edu	-11809
ghe	-11810
itu	-11811
nol	-11812
olm	-11813
ols	-11814
olu	-11815
olv	-11816
ora	-11817
pol	-11818
rus	-11819
vol	-11820
xid	-11821
▁Ol	-11822
adac	-11823
agin	-11824
arab	-11825
aret	-11826
bial	-11827
crep	-11828
hied	-11829
inol	-11830
ipid	-11831
nost	-11832
olle	-11833
olon	-11834
olut	-11835
olve	-11836
reci	-11837
tera	-11838
terc	-11839
terg	-11840
terl	-11841
tero	-11842
terr	-11843
unol	-11844
xter	-11845
▁Cle	-11846
▁Fut	-11847
▁dea	-11848
▁dex	-11849
▁fle	-11850
▁pow	-11851
▁seb	-11852
▁sug	-11853
▁vic	-11854
ammat	-11855
arter	-11856
avier	-11857
creat	-11858
ectom	-11859
hotic	-11860
icate	-11861
oradi	-11862
ority	-11863
teric	-11864
teris	-11865
unter	-11866
verag	-11867
▁athe	-11868
▁conc	-11869
▁cond	-11870
▁cong	-11871
▁larg	-11872
▁ment	-11873
▁pter	-11874
▁suic	-11875
astern	-11876
edside	-11877
ertrop	-11878
nation	-11879
ognize	-11880
onment	-11881
recept	-11882
ulties	-11883
▁enabl	-11884
facture	-11885
imating	-11886
lecular	-11887
ropriat	-11888
ulative	-11889
▁anomal	-11890
▁consan	-11891
▁enhanc	-11892
▁enthes	-11893
▁everyd	-11894
▁exacer	-11895
▁exclud	-11896
▁exogen	-11897
▁expend	-11898
▁extens	-11899
60	-11900
AI	-11901
EA	-11902
Li	-11903
Ob	-11904
dr	-11905
nh	-11906
Cen	-11907
Fam	-11908
bid	-11909
clo	-11910
env	-11911
hiz	-11912
hoc	-11913
hop	-11914
ink	-11915
mar	-11916
ogi	-11917
pho	-11918
roa	-11919
sho	-11920
tet	-11921
vie	-11922
yst	-11923
▁NS	-11924
6049	-11925
atho	-11926
dect	-11927
ecta	-11928
ecti	-11929
ectr	-11930
eded	-11931
fers	-11932
hout	-11933
hrom	-11934
igat	-11935
lter	-11936
orld	-11937
osph	-11938
pect	-11939
sect	-11940
teri	-11941
terv	-11942
tter	-11943
unin	-11944
▁Man	-11945
▁asc	-11946
▁fro	-11947
▁inp	-11948
▁ram	-11949
▁rul	-11950
atect	-11951
cimer	-11952
dents	-11953
ectan	-11954
edect	-11955
entho	-11956
esect	-11957
idect	-11958
ifice	-11959
iring	-11960
morph	-11961
omect	-11962
ortis	-11963
sence	-11964
sents	-11965
▁disl	-11966
▁manu	-11967
▁matc	-11968
▁prec	-11969
▁pred	-11970
▁pref	-11971
▁preo	-11972
▁prep	-11973
▁pret	-11974
▁prod	-11975
▁prox	-11976
▁seve	-11977
acroph	-11978
aining	-11979
curren	-11980
eaving	-11981
ialist	-11982
iments	-11983
onents	-11984
rement	-11985
stitut	-11986
▁compl	-11987
▁imple	-11988
▁inapp	-11989
▁proce	-11990
erested	-11991
urnover	-11992
▁adenoc	-11993
▁extern	-11994
▁favour	-11995
▁footpr	-11996
▁forest	-11997
▁framew	-11998
▁gallbl	-11999
35	-12000
zl	-12001
Dil	-12002
alp	-12003
bil	-12004
cei	-12005
dun	-12006
fil	-12007
hil	-12008
hoo	-12009
hou	-12010
ili	-12011
ilo	-12012
kil	-12013
lla	-12014
oho	-12015
pun	-12016
rit	-12017
sid	-12018
til	-12019
una	-12020
ung	-12021
unm	-12022
unn	-12023
uno	-12024
uns	-12025
unt	-12026
xil	-12027
▁dy	-12028
agoc	-12029
ardl	-12030
bust	-12031
cout	-12032
enol	-12033
eopu	-12034
erst	-12035
etus	-12036
ilat	-12037
ilut	-12038
imar	-12039
imil	-12040
inan	-12041
lant	-12042
onit	-12043
orin	-12044
ranc	-12045
roep	-12046
roun	-12047
thor	-12048
unan	-12049
unar	-12050
uner	-12051
unom	-12052
unre	-12053
unus	-12054
util	-12055
veil	-12056
▁Fra	-12057
▁bil	-12058
▁fun	-12059
▁mem	-12060
▁pil	-12061
▁rhe	-12062
▁ste	-12063
cence	-12064
ectas	-12065
endem	-12066
ented	-12067
entil	-12068
estic	-12069
ethas	-12070
iably	-12071
renes	-12072
union	-12073
▁atro	-12074
▁perh	-12075
▁sock	-12076
▁star	-12077
▁stor	-12078
▁stra	-12079
▁undi	-12080
ftment	-12081
hering	-12082
mentar	-12083
oading	-12084
ounter	-12085
rectly	-12086
urgess	-12087
▁Analy	-12088
▁endor	-12089
arriers	-12090
atients	-12091
lecting	-12092
▁antibi	-12093
▁geomet	-12094
▁haemor	-12095
▁headac	-12096
▁histop	-12097
▁hospit	-12098
▁hyperg	-12099
Ch	-12100
cD	-12101
lT	-12102
▁q	-12103
Hal	-12104
Mem	-12105
ada	-12106
ara	-12107
but	-12108
cif	-12109
eic	-12110
fut	-12111
ifa	-12112
iff	-12113
ifi	-12114
ipi	-12115
lan	-12116
lif	-12117
mie	-12118
nif	-12119
orw	-12120
rif	-12121
tib	-12122
uto	-12123
uts	-12124
yan	-12125
▁EO	-12126
alin	-12127
anif	-12128
arad	-12129
clov	-12130
coel	-12131
erif	-12132
erms	-12133
erut	-12134
essm	-12135
hods	-12136
idan	-12137
ifet	-12138
ifor	-12139
imat	-12140
itic	-12141
itut	-12142
jour	-12143
nigh	-12144
obal	-12145
onis	-12146
onom	-12147
ormo	-12148
raut	-12149
renc	-12150
rhag	-12151
roch	-12152
sert	-12153
star	-12154
stat	-12155
unil	-12156
utan	-12157
utin	-12158
utro	-12159
utur	-12160
vone	-12161
▁Ben	-12162
▁dat	-12163
▁fut	-12164
▁iss	-12165
▁mac	-12166
▁mut	-12167
▁sic	-12168
▁sta	-12169
▁sti	-12170
▁stu	-12171
abial	-12172
entiv	-12173
istor	-12174
layed	-12175
lined	-12176
ospor	-12177
ulfon	-12178
ultid	-12179
uting	-12180
▁Nort	-12181
▁abil	-12182
▁stan	-12183
▁ster	-12184
▁ston	-12185
▁stro	-12186
▁synd	-12187
angren	-12188
arynge	-12189
atrial	-12190
stance	-12191
umatic	-12192
initive	-12193
utation	-12194
▁illust	-12195
▁impair	-12196
▁improv	-12197
▁inclus	-12198
▁inferi	-12199
16	-12200
22	-12201
DI	-12202
OI	-12203
PK	-12204
SI	-12205
SP	-12206
Ur	-12207
pS	-12208
pn	-12209
wk	-12210
zu	-12211
Ara	-12212
Dig	-12213
aig	-12214
cet	-12215
cib	-12216
dra	-12217
eds	-12218
eec	-12219
esu	-12220
eud	-12221
gra	-12222
hel	-12223
igu	-12224
ila	-12225
lid	-12226
mig	-12227
nce	-12228
nov	-12229
ocu	-12230
olo	-12231
ony	-12232
raf	-12233
rao	-12234
sig	-12235
umn	-12236
vit	-12237
xce	-12238
▁CM	-12239
abul	-12240
anin	-12241
ceal	-12242
cele	-12243
enig	-12244
erce	-12245
hera	-12246
herw	-12247
ibit	-12248
igin	-12249
igor	-12250
igra	-12251
igre	-12252
issu	-12253
oxid	-12254
rais	-12255
real	-12256
roce	-12257
stem	-12258
ties	-12259
▁HNP	-12260
▁bot	-12261
▁dra	-12262
▁hum	-12263
▁las	-12264
▁lig	-12265
▁nig	-12266
▁pra	-12267
▁tes	-12268
▁tol	-12269
▁wal	-12270
▁wil	-12271
inder	-12272
isper	-12273
sions	-12274
▁fati	-12275
▁myop	-12276
▁neit	-12277
chemic	-12278
entify	-12279
hospit	-12280
olumet	-12281
onstru	-12282
rebral	-12283
▁parad	-12284
▁thera	-12285
ardless	-12286
ficulty	-12287
ibition	-12288
igation	-12289
iration	-12290
omedull	-12291
undancy	-12292
▁Transg	-12293
▁inject	-12294
▁inpati	-12295
▁integr	-12296
▁intens	-12297
▁interg	-12298
▁interm	-12299
As	-12300
HG	-12301
HI	-12302
IE	-12303
Vi	-12304
be	-12305
ey	-12306
gf	-12307
rk	-12308
▁u	-12309
cem	-12310
did	-12311
hor	-12312
ida	-12313
idd	-12314
idl	-12315
idu	-12316
isu	-12317
mab	-12318
mid	-12319
mos	-12320
osv	-12321
pat	-12322
rid	-12323
tor	-12324
▁ET	-12325
▁Ke	-12326
▁RM	-12327
▁Tw	-12328
▁hi	-12329
▁hu	-12330
▁id	-12331
▁lo	-12332
clop	-12333
enom	-12334
ervi	-12335
eset	-12336
fing	-12337
fund	-12338
fute	-12339
iced	-12340
ifes	-12341
init	-12342
inqu	-12343
irrh	-12344
itho	-12345
iths	-12346
liom	-12347
lith	-12348
ostm	-12349
otro	-12350
pped	-12351
roup	-12352
stru	-12353
sure	-12354
usce	-12355
▁acc	-12356
▁hal	-12357
▁har	-12358
▁lar	-12359
▁lot	-12360
▁sid	-12361
▁sig	-12362
▁sin	-12363
alies	-12364
derut	-12365
enect	-12366
ihood	-12367
istic	-12368
ithot	-12369
occal	-12370
ongst	-12371
riers	-12372
▁Rout	-12373
▁Test	-12374
▁anem	-12375
▁exce	-12376
▁issu	-12377
▁perc	-12378
▁pren	-12379
▁sten	-12380
didate	-12381
henoid	-12382
igning	-12383
ilable	-12384
irment	-12385
valent	-12386
▁Block	-12387
▁witho	-12388
▁withs	-12389
ainment	-12390
uctures	-12391
▁injure	-12392
▁interr	-12393
▁interv	-12394
▁intrap	-12395
▁intrav	-12396
▁invest	-12397
▁likeli	-12398
▁linole	-12399
DP	-12400
Da	-12401
HN	-12402
ID	-12403
On	-12404
Ov	-12405
SW	-12406
bc	-12407
eh	-12408
xo	-12409
yo	-12410
Bet	-12411
Mag	-12412
Sam	-12413
acc	-12414
ato	-12415
cic	-12416
cid	-12417
eck	-12418
gat	-12419
hei	-12420
hot	-12421
ige	-12422
iot	-12423
not	-12424
nre	-12425
otp	-12426
pal	-12427
rro	-12428
rud	-12429
tus	-12430
uce	-12431
uso	-12432
vey	-12433
vor	-12434
wee	-12435
▁Co	-12436
▁ei	-12437
▁hC	-12438
4.2%	-12439
Mult	-12440
acol	-12441
atig	-12442
atus	-12443
cale	-12444
enot	-12445
erop	-12446
eter	-12447
irus	-12448
itin	-12449
leus	-12450
mati	-12451
orus	-12452
oten	-12453
otom	-12454
phad	-12455
root	-12456
stag	-12457
urro	-12458
usal	-12459
uses	-12460
usic	-12461
usly	-12462
vial	-12463
▁pin	-12464
aires	-12465
arati	-12466
astic	-12467
entif	-12468
esare	-12469
essar	-12470
hysis	-12471
oming	-12472
oting	-12473
ulati	-12474
using	-12475
utant	-12476
▁anot	-12477
▁infl	-12478
cisive	-12479
lative	-12480
search	-12481
xation	-12482
▁appre	-12483
▁equip	-12484
▁jugul	-12485
▁preop	-12486
chanter	-12487
usation	-12488
utrient	-12489
▁mainst	-12490
▁malign	-12491
▁mandib	-12492
▁manusc	-12493
▁microc	-12494
▁microm	-12495
▁micron	-12496
▁microv	-12497
▁morbid	-12498
▁multim	-12499
13	-12500
CH	-12501
DF	-12502
Ol	-12503
VD	-12504
WO	-12505
na	-12506
nd	-12507
2).	-12508
Fen	-12509
MAs	-12510
arc	-12511
ber	-12512
cim	-12513
cos	-12514
dos	-12515
enu	-12516
gim	-12517
his	-12518
ilk	-12519
imm	-12520
ios	-12521
kel	-12522
los	-12523
onf	-12524
osi	-12525
osk	-12526
osp	-12527
osy	-12528
pul	-12529
rev	-12530
sat	-12531
uni	-12532
atiz	-12533
atos	-12534
avor	-12535
etho	-12536
fici	-12537
geon	-12538
hopa	-12539
imed	-12540
imen	-12541
inor	-12542
irra	-12543
isti	-12544
itab	-12545
ivoc	-12546
lati	-12547
lene	-12548
mide	-12549
nion	-12550
oser	-12551
pple	-12552
uped	-12553
▁dim	-12554
▁evo	-12555
▁lit	-12556
▁rCB	-12557
▁tor	-12558
▁una	-12559
ailab	-12560
atine	-12561
edica	-12562
elids	-12563
iance	-12564
imati	-12565
iment	-12566
iming	-12567
mical	-12568
onist	-12569
orati	-12570
ormon	-12571
osing	-12572
regul	-12573
roced	-12574
sible	-12575
ultan	-12576
▁Geri	-12577
▁proc	-12578
▁rand	-12579
▁rout	-12580
cidate	-12581
compar	-12582
iferol	-12583
ilures	-12584
orting	-12585
oybean	-12586
ribing	-12587
served	-12588
ssific	-12589
▁Atrop	-12590
▁envir	-12591
▁milie	-12592
dicates	-12593
ocating	-12594
parison	-12595
▁multiv	-12596
▁muscul	-12597
▁neurop	-12598
▁newbor	-12599
4)	-12600
75	-12601
It	-12602
go	-12603
mf	-12604
xt	-12605
544	-12606
Hig	-12607
Mos	-12608
div	-12609
ece	-12610
eho	-12611
erp	-12612
ffl	-12613
hig	-12614
hle	-12615
hob	-12616
ims	-12617
isc	-12618
leg	-12619
lem	-12620
lep	-12621
lye	-12622
lyp	-12623
ncl	-12624
nly	-12625
phy	-12626
pis	-12627
son	-12628
sos	-12629
tly	-12630
uln	-12631
veh	-12632
▁ec	-12633
▁ef	-12634
▁fo	-12635
acil	-12636
aris	-12637
asia	-12638
ctly	-12639
duce	-12640
edle	-12641
emat	-12642
gain	-12643
gion	-12644
icly	-12645
ille	-12646
inen	-12647
isle	-12648
kath	-12649
lean	-12650
leas	-12651
lees	-12652
leom	-12653
luen	-12654
misp	-12655
ohol	-12656
oice	-12657
oros	-12658
rele	-12659
ully	-12660
zole	-12661
▁bef	-12662
▁ear	-12663
▁ele	-12664
▁mag	-12665
▁sle	-12666
ement	-12667
estin	-12668
ithin	-12669
lored	-12670
reate	-12671
urate	-12672
verty	-12673
viors	-12674
▁avas	-12675
▁beat	-12676
▁hero	-12677
▁infr	-12678
▁pate	-12679
▁preg	-12680
▁unst	-12681
anulas	-12682
ilical	-12683
▁analy	-12684
▁previ	-12685
▁withd	-12686
pirical	-12687
thritis	-12688
trolled	-12689
▁opport	-12690
▁osteop	-12691
▁otherw	-12692
▁overla	-12693
▁overly	-12694
▁overwe	-12695
▁parame	-12696
▁pathob	-12697
▁pathol	-12698
▁pathop	-12699
44	-12700
56	-12701
57	-12702
AE	-12703
Ca	-12704
Fi	-12705
ba	-12706
gs	-12707
nz	-12708
oo	-12709
rl	-12710
zo	-12711
Bur	-12712
Com	-12713
Mus	-12714
bas	-12715
bur	-12716
eit	-12717
iop	-12718
jur	-12719
lil	-12720
lve	-12721
mur	-12722
nen	-12723
nur	-12724
sur	-12725
tur	-12726
ura	-12727
urd	-12728
urf	-12729
urr	-12730
▁MD	-12731
▁Ti	-12732
▁ni	-12733
▁nu	-12734
▁ps	-12735
asur	-12736
ener	-12737
ethn	-12738
illn	-12739
leve	-12740
ocyt	-12741
oped	-12742
oves	-12743
plin	-12744
quip	-12745
ride	-12746
urin	-12747
ycin	-12748
ygia	-12749
▁Pat	-12750
▁cer	-12751
▁nal	-12752
▁nom	-12753
▁sul	-12754
▁tur	-12755
▁wel	-12756
alues	-12757
entic	-12758
esion	-12759
henom	-12760
icans	-12761
onder	-12762
thral	-12763
uence	-12764
urred	-12765
urses	-12766
ypers	-12767
▁epiD	-12768
▁leas	-12769
▁thic	-12770
▁thre	-12771
amoxif	-12772
amples	-12773
chotic	-12774
dation	-12775
eation	-12776
elfare	-12777
gation	-12778
isions	-12779
sation	-12780
▁union	-12781
actions	-12782
anguine	-12783
aration	-12784
bations	-12785
cedural	-12786
eration	-12787
ffected	-12788
ightfor	-12789
ilating	-12790
itation	-12791
oration	-12792
uration	-12793
▁cardio	-12794
▁colore	-12795
▁neurol	-12796
▁pedest	-12797
▁percut	-12798
▁perman	-12799
69	-12800
BP	-12801
GV	-12802
HA	-12803
SN	-12804
TE	-12805
xp	-12806
Aus	-12807
Fur	-12808
Mul	-12809
Wom	-12810
ars	-12811
cad	-12812
enr	-12813
eom	-12814
hom	-12815
iom	-12816
jud	-12817
lom	-12818
nin	-12819
ome	-12820
omm	-12821
oso	-12822
otl	-12823
som	-12824
uli	-12825
ulp	-12826
urt	-12827
ury	-12828
vag	-12829
vul	-12830
xia	-12831
▁(5	-12832
▁fu	-12833
alle	-12834
anom	-12835
asom	-12836
atid	-12837
ctom	-12838
edul	-12839
entf	-12840
erul	-12841
esul	-12842
etal	-12843
gely	-12844
iche	-12845
inis	-12846
inom	-12847
nect	-12848
omed	-12849
omes	-12850
omit	-12851
omor	-12852
onul	-12853
perv	-12854
ulas	-12855
ulit	-12856
urce	-12857
vein	-12858
wers	-12859
▁Mas	-12860
▁QTc	-12861
▁Tim	-12862
▁cul	-12863
▁eig	-12864
▁ini	-12865
▁mul	-12866
▁sen	-12867
actor	-12868
antic	-12869
ently	-12870
ervic	-12871
ganis	-12872
hlear	-12873
ilial	-12874
irmed	-12875
munod	-12876
ollow	-12877
ssure	-12878
ucate	-12879
▁coac	-12880
copist	-12881
ecific	-12882
ellate	-12883
laints	-12884
oyment	-12885
rolith	-12886
seling	-12887
▁adver	-12888
▁corre	-12889
▁insul	-12890
▁store	-12891
stances	-12892
▁hyperm	-12893
▁person	-12894
▁poster	-12895
▁predom	-12896
▁preser	-12897
▁presum	-12898
▁preter	-12899
0.	-12900
09	-12901
DH	-12902
EU	-12903
Ul	-12904
ik	-12905
xh	-12906
Bas	-12907
Bot	-12908
CTs	-12909
Dut	-12910
Ele	-12911
HCS	-12912
Las	-12913
Pos	-12914
Ras	-12915
Tes	-12916
apa	-12917
asc	-12918
asu	-12919
asy	-12920
ave	-12921
cas	-12922
cul	-12923
fen	-12924
gul	-12925
hly	-12926
ico	-12927
igo	-12928
mas	-12929
oct	-12930
pas	-12931
pid	-12932
rve	-12933
ula	-12934
vas	-12935
veg	-12936
wor	-12937
xcl	-12938
▁oe	-12939
▁ul	-12940
alue	-12941
aras	-12942
asiz	-12943
ctan	-12944
ctas	-12945
ctit	-12946
eden	-12947
edge	-12948
gine	-12949
hern	-12950
icro	-12951
leic	-12952
onat	-12953
onth	-12954
roct	-12955
rove	-12956
ters	-12957
▁anc	-12958
▁hyd	-12959
▁mes	-12960
▁pac	-12961
▁tas	-12962
Other	-12963
atele	-12964
atocy	-12965
cored	-12966
diomy	-12967
ethyl	-12968
event	-12969
hocar	-12970
istin	-12971
nosis	-12972
orsen	-12973
otech	-12974
reast	-12975
urati	-12976
years	-12977
▁Magn	-12978
▁anas	-12979
allest	-12980
ctural	-12981
herapy	-12982
hether	-12983
hysial	-12984
istrib	-12985
porari	-12986
▁autos	-12987
▁lifet	-12988
▁remis	-12989
archers	-12990
henever	-12991
repared	-12992
▁Transv	-12993
▁prophy	-12994
▁propos	-12995
▁provis	-12996
▁provoc	-12997
▁random	-12998
▁rating	-12999
MD	-13000
Qu	-13001
Si	-13002
bb	-13003
hd	-13004
oq	-13005
Ben	-13006
Cle	-13007
ECT	-13008
Ear	-13009
Ped	-13010
arl	-13011
cti	-13012
emo	-13013
gar	-13014
idi	-13015
iga	-13016
isa	-13017
lec	-13018
nct	-13019
pra	-13020
reu	-13021
rod	-13022
sif	-13023
sly	-13024
tig	-13025
veo	-13026
war	-13027
▁NH	-13028
▁Sy	-13029
anal	-13030
arat	-13031
arit	-13032
ccor	-13033
ctor	-13034
edit	-13035
erly	-13036
gati	-13037
hing	-13038
ians	-13039
icul	-13040
inar	-13041
isar	-13042
itar	-13043
ithd	-13044
kade	-13045
lept	-13046
omos	-13047
orot	-13048
osyn	-13049
sult	-13050
tage	-13051
ttes	-13052
urve	-13053
▁Aff	-13054
▁ans	-13055
▁bar	-13056
▁mar	-13057
▁reb	-13058
▁rei	-13059
▁ren	-13060
▁ric	-13061
▁sac	-13062
▁tox	-13063
▁veg	-13064
▁war	-13065
andat	-13066
ardis	-13067
cedes	-13068
erred	-13069
ionar	-13070
istol	-13071
itate	-13072
nolog	-13073
otent	-13074
ously	-13075
uable	-13076
▁Fail	-13077
▁rect	-13078
▁thro	-13079
▁unic	-13080
essful	-13081
hanced	-13082
isture	-13083
luence	-13084
parate	-13085
▁diver	-13086
▁misle	-13087
▁spect	-13088
ammates	-13089
cellous	-13090
ologist	-13091
pherect	-13092
▁Analyz	-13093
▁Excess	-13094
▁carcin	-13095
▁concus	-13096
▁enlarg	-13097
▁ration	-13098
▁reache	-13099
DL	-13100
ES	-13101
SL	-13102
Sp	-13103
hw	-13104
kn	-13105
nx	-13106
ou	-13107
ACT	-13108
Lim	-13109
TAP	-13110
anu	-13111
cqu	-13112
cup	-13113
don	-13114
era	-13115
fon	-13116
hew	-13117
nes	-13118
nos	-13119
onl	-13120
oug	-13121
roi	-13122
tem	-13123
yce	-13124
▁na	-13125
▁pi	-13126
More	-13127
burg	-13128
cher	-13129
enic	-13130
enro	-13131
enta	-13132
eren	-13133
igit	-13134
ingd	-13135
ingf	-13136
ingl	-13137
itro	-13138
lous	-13139
ning	-13140
onad	-13141
ping	-13142
ptum	-13143
reas	-13144
uals	-13145
umet	-13146
utch	-13147
veol	-13148
ying	-13149
zing	-13150
▁Tak	-13151
▁als	-13152
▁ana	-13153
▁ano	-13154
▁don	-13155
▁dro	-13156
▁enc	-13157
▁lac	-13158
▁saf	-13159
▁tal	-13160
▁tro	-13161
aning	-13162
atios	-13163
eding	-13164
entat	-13165
erper	-13166
essag	-13167
gular	-13168
icing	-13169
insic	-13170
olice	-13171
oning	-13172
ravel	-13173
steop	-13174
uated	-13175
ublic	-13176
umine	-13177
▁Larg	-13178
▁capp	-13179
▁pept	-13180
▁sing	-13181
cation	-13182
ecting	-13183
idosis	-13184
olving	-13185
orders	-13186
▁Child	-13187
▁algor	-13188
▁anter	-13189
▁embry	-13190
▁super	-13191
embolic	-13192
▁intrag	-13193
▁recess	-13194
▁recomm	-13195
▁reduct	-13196
▁reform	-13197
▁resour	-13198
▁respon	-13199
85	-13200
Es	-13201
Le	-13202
RH	-13203
bu	-13204
cs	-13205
jo	-13206
kl	-13207
lk	-13208
ng	-13209
Ban	-13210
Fro	-13211
Kin	-13212
ano	-13213
asi	-13214
bol	-13215
bus	-13216
ceo	-13217
dit	-13218
dro	-13219
eal	-13220
fat	-13221
fus	-13222
gin	-13223
hro	-13224
icr	-13225
pan	-13226
rob	-13227
roc	-13228
roe	-13229
rof	-13230
rok	-13231
roo	-13232
rot	-13233
san	-13234
uan	-13235
urc	-13236
utp	-13237
vei	-13238
wan	-13239
▁Tu	-13240
▁VA	-13241
▁bo	-13242
aner	-13243
bent	-13244
conc	-13245
curs	-13246
ecro	-13247
edes	-13248
entl	-13249
entr	-13250
etas	-13251
fent	-13252
gent	-13253
hero	-13254
lock	-13255
orse	-13256
rean	-13257
rter	-13258
sent	-13259
sten	-13260
stro	-13261
tent	-13262
uent	-13263
xent	-13264
▁Bon	-13265
▁bin	-13266
▁bro	-13267
▁glu	-13268
▁lis	-13269
▁reh	-13270
▁spi	-13271
atell	-13272
atent	-13273
cetab	-13274
entan	-13275
entin	-13276
estab	-13277
geing	-13278
orine	-13279
▁cent	-13280
▁corn	-13281
▁whit	-13282
incter	-13283
terial	-13284
vation	-13285
▁chemo	-13286
▁disad	-13287
▁exter	-13288
▁provo	-13289
▁sport	-13290
strogen	-13291
usative	-13292
▁confir	-13293
▁detach	-13294
▁resten	-13295
▁restor	-13296
▁resusc	-13297
▁secret	-13298
▁sedent	-13299
AG	-13300
Em	-13301
Ha	-13302
In	-13303
LM	-13304
RM	-13305
TG	-13306
TU	-13307
eb	-13308
iu	-13309
pT	-13310
rn	-13311
Man	-13312
Mes	-13313
Phe	-13314
Pro	-13315
Ran	-13316
Tre	-13317
ana	-13318
bab	-13319
cog	-13320
dim	-13321
edt	-13322
esm	-13323
esn	-13324
fit	-13325
fra	-13326
hal	-13327
han	-13328
ift	-13329
igm	-13330
isp	-13331
lar	-13332
mia	-13333
ran	-13334
tan	-13335
urv	-13336
vin	-13337
xes	-13338
xit	-13339
zat	-13340
zes	-13341
▁fr	-13342
▁mi	-13343
▁wr	-13344
With	-13345
aedi	-13346
agan	-13347
ales	-13348
enes	-13349
eran	-13350
imul	-13351
inab	-13352
itan	-13353
orce	-13354
rout	-13355
▁Aus	-13356
▁FOS	-13357
▁Ger	-13358
▁bip	-13359
▁bon	-13360
▁fas	-13361
▁fen	-13362
▁fos	-13363
▁mad	-13364
▁opi	-13365
▁pur	-13366
▁ses	-13367
▁tec	-13368
▁wit	-13369
inist	-13370
linol	-13371
ophil	-13372
▁evid	-13373
▁excl	-13374
▁rele	-13375
▁repl	-13376
▁unde	-13377
econom	-13378
erated	-13379
▁assay	-13380
▁axill	-13381
▁modif	-13382
dictive	-13383
hemothe	-13384
ortions	-13385
▁hemody	-13386
▁longit	-13387
▁resect	-13388
▁restar	-13389
▁sensit	-13390
▁septop	-13391
▁sequel	-13392
▁sevent	-13393
▁slight	-13394
▁specim	-13395
▁specul	-13396
▁stillb	-13397
▁strate	-13398
▁strept	-13399
14	-13400
Bi	-13401
Di	-13402
MH	-13403
UD	-13404
gy	-13405
mo	-13406
nq	-13407
Nor	-13408
Not	-13409
Res	-13410
aal	-13411
asa	-13412
bes	-13413
ble	-13414
bro	-13415
cto	-13416
ctr	-13417
els	-13418
hat	-13419
hit	-13420
hog	-13421
igi	-13422
imb	-13423
imu	-13424
iti	-13425
kwe	-13426
nor	-13427
omo	-13428
orb	-13429
orc	-13430
orf	-13431
orl	-13432
orn	-13433
orp	-13434
owl	-13435
ped	-13436
pot	-13437
rai	-13438
rei	-13439
ror	-13440
row	-13441
uth	-13442
von	-13443
xen	-13444
▁Po	-13445
▁es	-13446
▁si	-13447
Most	-13448
agal	-13449
ansf	-13450
crew	-13451
erol	-13452
iden	-13453
iona	-13454
ionn	-13455
isms	-13456
isor	-13457
oral	-13458
orid	-13459
ynov	-13460
▁Non	-13461
▁Soc	-13462
▁bev	-13463
▁cel	-13464
▁deg	-13465
▁glo	-13466
▁por	-13467
▁sor	-13468
agang	-13469
asmic	-13470
edent	-13471
ients	-13472
ights	-13473
ionit	-13474
leore	-13475
omark	-13476
utcom	-13477
▁Bene	-13478
▁PRIS	-13479
▁alre	-13480
▁teet	-13481
▁urol	-13482
alvage	-13483
essive	-13484
rbanic	-13485
remark	-13486
▁cance	-13487
▁spati	-13488
▁uncon	-13489
ffering	-13490
ignific	-13491
increas	-13492
oscopic	-13493
▁nation	-13494
▁subgro	-13495
▁subtra	-13496
▁superi	-13497
▁supple	-13498
▁surger	-13499
EB	-13500
Ph	-13501
ST	-13502
Sy	-13503
Wi	-13504
ln	-13505
rw	-13506
sh	-13507
xi	-13508
Tim	-13509
esa	-13510
gth	-13511
ica	-13512
icu	-13513
icy	-13514
oic	-13515
onn	-13516
ptu	-13517
raw	-13518
rul	-13519
tun	-13520
udg	-13521
ulo	-13522
usi	-13523
vic	-13524
xif	-13525
ygi	-13526
▁TG	-13527
▁ba	-13528
dent	-13529
egra	-13530
eing	-13531
heig	-13532
icat	-13533
icen	-13534
icin	-13535
idis	-13536
iend	-13537
ighe	-13538
onan	-13539
onch	-13540
onic	-13541
orre	-13542
otor	-13543
ovel	-13544
pant	-13545
rail	-13546
refe	-13547
sati	-13548
terp	-13549
ygen	-13550
▁AMP	-13551
▁Bet	-13552
▁Inn	-13553
▁Tes	-13554
▁ane	-13555
▁enu	-13556
▁pas	-13557
▁pic	-13558
▁tid	-13559
▁tot	-13560
aders	-13561
avone	-13562
ervis	-13563
iling	-13564
irths	-13565
ocate	-13566
olume	-13567
ostom	-13568
poses	-13569
ptual	-13570
rific	-13571
table	-13572
versa	-13573
▁Whil	-13574
▁adju	-13575
▁chon	-13576
▁diff	-13577
▁emph	-13578
▁thei	-13579
▁theo	-13580
▁thes	-13581
ansact	-13582
ariate	-13583
dicted	-13584
erious	-13585
ivated	-13586
odific	-13587
okinet	-13588
oprote	-13589
▁conce	-13590
▁ergon	-13591
▁postm	-13592
▁surro	-13593
dicated	-13594
▁cancel	-13595
▁extend	-13596
▁teleph	-13597
▁testic	-13598
▁tether	-13599
Me	-13600
PF	-13601
Sw	-13602
lr	-13603
mi	-13604
nk	-13605
rr	-13606
Bed	-13607
Fra	-13608
Fut	-13609
Med	-13610
Rec	-13611
Sig	-13612
add	-13613
aim	-13614
awk	-13615
bis	-13616
cay	-13617
dis	-13618
edl	-13619
ees	-13620
far	-13621
gas	-13622
gis	-13623
has	-13624
iar	-13625
igr	-13626
isf	-13627
isi	-13628
isl	-13629
iso	-13630
isq	-13631
isr	-13632
ois	-13633
ris	-13634
sed	-13635
ued	-13636
utu	-13637
xed	-13638
anes	-13639
aton	-13640
cert	-13641
edat	-13642
eria	-13643
heas	-13644
inic	-13645
isat	-13646
iser	-13647
ishe	-13648
isin	-13649
isit	-13650
ithe	-13651
osts	-13652
ould	-13653
rare	-13654
rici	-13655
unos	-13656
urre	-13657
user	-13658
▁Bed	-13659
▁dou	-13660
▁fus	-13661
▁ine	-13662
▁phe	-13663
▁rac	-13664
▁rur	-13665
▁sil	-13666
▁spa	-13667
▁sto	-13668
▁unk	-13669
adily	-13670
chang	-13671
erfic	-13672
erity	-13673
hould	-13674
idesp	-13675
sitis	-13676
terog	-13677
vents	-13678
▁alph	-13679
▁anim	-13680
▁dysg	-13681
▁thig	-13682
▁ultr	-13683
▁urin	-13684
atomic	-13685
ediate	-13686
erized	-13687
ferenc	-13688
groups	-13689
mation	-13690
olated	-13691
▁aneur	-13692
▁recip	-13693
ondents	-13694
recting	-13695
▁Vaccin	-13696
▁outper	-13697
▁probab	-13698
▁theore	-13699
%.	-13700
29	-13701
FH	-13702
LL	-13703
PM	-13704
Ss	-13705
Va	-13706
bn	-13707
ga	-13708
iD	-13709
nn	-13710
rg	-13711
wi	-13712
ws	-13713
Bon	-13714
Gad	-13715
Pag	-13716
Wit	-13717
ala	-13718
bit	-13719
cit	-13720
ded	-13721
edg	-13722
ere	-13723
ett	-13724
gle	-13725
had	-13726
ilu	-13727
ima	-13728
ita	-13729
ito	-13730
jus	-13731
lon	-13732
nit	-13733
sit	-13734
tas	-13735
tit	-13736
uid	-13737
uit	-13738
uri	-13739
uti	-13740
yed	-13741
yom	-13742
▁RB	-13743
alit	-13744
anen	-13745
atit	-13746
augh	-13747
dest	-13748
edin	-13749
esig	-13750
esoc	-13751
evit	-13752
iles	-13753
isib	-13754
itat	-13755
iton	-13756
odal	-13757
ptan	-13758
ptom	-13759
unif	-13760
ypot	-13761
▁Ear	-13762
▁Tro	-13763
▁cit	-13764
▁dee	-13765
▁eos	-13766
▁ima	-13767
▁pit	-13768
▁sch	-13769
▁tar	-13770
acent	-13771
armac	-13772
ceous	-13773
igell	-13774
ingin	-13775
ingly	-13776
odest	-13777
onged	-13778
rhage	-13779
thria	-13780
▁null	-13781
ademic	-13782
bation	-13783
either	-13784
inging	-13785
resent	-13786
▁genet	-13787
▁molec	-13788
▁refra	-13789
▁satis	-13790
aluable	-13791
ultiple	-13792
▁alread	-13793
▁discom	-13794
▁manage	-13795
▁thorac	-13796
▁transf	-13797
▁transi	-13798
▁transl	-13799
20	-13800
5-	-13801
FD	-13802
IG	-13803
KI	-13804
LU	-13805
OC	-13806
PA	-13807
We	-13808
bf	-13809
gm	-13810
ju	-13811
sf	-13812
zi	-13813
▁i	-13814
BCS	-13815
CSP	-13816
Cer	-13817
Cur	-13818
His	-13819
Pre	-13820
alc	-13821
aln	-13822
alt	-13823
aly	-13824
cta	-13825
eel	-13826
eep	-13827
erh	-13828
erm	-13829
ern	-13830
esi	-13831
itr	-13832
mac	-13833
mog	-13834
mop	-13835
ngl	-13836
ocl	-13837
otr	-13838
rou	-13839
sal	-13840
say	-13841
sen	-13842
sol	-13843
zal	-13844
▁bu	-13845
▁cT	-13846
▁ci	-13847
▁cu	-13848
▁ty	-13849
ater	-13850
ecif	-13851
erat	-13852
eric	-13853
erre	-13854
erus	-13855
fflu	-13856
hear	-13857
herp	-13858
idem	-13859
igib	-13860
imab	-13861
inim	-13862
ised	-13863
orit	-13864
osal	-13865
pend	-13866
regs	-13867
reus	-13868
uing	-13869
vati	-13870
xone	-13871
▁dom	-13872
▁isc	-13873
▁ner	-13874
▁sum	-13875
▁tam	-13876
▁wom	-13877
enoma	-13878
enous	-13879
ercut	-13880
oncom	-13881
orith	-13882
ostat	-13883
scopy	-13884
ventr	-13885
▁deat	-13886
▁hous	-13887
▁neph	-13888
▁tren	-13889
antage	-13890
rapeut	-13891
rupted	-13892
▁decad	-13893
▁endov	-13894
▁facil	-13895
▁retro	-13896
▁retent	-13897
▁transm	-13898
▁treatm	-13899
48	-13900
Eu	-13901
GP	-13902
IB	-13903
Lo	-13904
Re	-13905
Ts	-13906
VM	-13907
nr	-13908
pf	-13909
tw	-13910
ux	-13911
104	-13912
Our	-13913
PEC	-13914
Par	-13915
Pat	-13916
Son	-13917
alT	-13918
ank	-13919
cen	-13920
dhe	-13921
eng	-13922
eni	-13923
enj	-13924
enm	-13925
fin	-13926
fun	-13927
ier	-13928
ken	-13929
las	-13930
len	-13931
lys	-13932
nut	-13933
oal	-13934
pes	-13935
rhe	-13936
tac	-13937
▁Au	-13938
▁RH	-13939
▁ou	-13940
▁pS	-13941
▁pu	-13942
▁py	-13943
▁rh	-13944
acts	-13945
alan	-13946
cted	-13947
edar	-13948
enat	-13949
imit	-13950
ithm	-13951
onen	-13952
quar	-13953
reen	-13954
rint	-13955
tend	-13956
trib	-13957
urys	-13958
utor	-13959
▁How	-13960
▁Sel	-13961
▁ina	-13962
▁lon	-13963
▁sat	-13964
▁tho	-13965
aling	-13966
etect	-13967
olect	-13968
onate	-13969
press	-13970
redic	-13971
totic	-13972
uries	-13973
▁adol	-13974
▁adop	-13975
▁alon	-13976
▁line	-13977
▁nort	-13978
▁rela	-13979
▁stre	-13980
▁tele	-13981
essary	-13982
iatric	-13983
▁energ	-13984
▁resis	-13985
ampaign	-13986
imising	-13987
itative	-13988
itution	-13989
tinence	-13990
ulatory	-13991
▁Exclus	-13992
▁pulmon	-13993
▁tricom	-13994
▁trilob	-13995
▁tropho	-13996
▁tympan	-13997
▁uncomp	-13998
▁underl	-13999
78	-14000
81	-14001
HP	-14002
Ib	-14003
LD	-14004
La	-14005
Mi	-14006
Ne	-14007
RD	-14008
lc	-14009
lt	-14010
nu	-14011
ta	-14012
uf	-14013
za	-14014
Con	-14015
Hen	-14016
The	-14017
aco	-14018
atu	-14019
che	-14020
dan	-14021
gon	-14022
hea	-14023
heo	-14024
het	-14025
hon	-14026
imi	-14027
kon	-14028
oin	-14029
onc	-14030
onm	-14031
opa	-14032
osc	-14033
pip	-14034
pog	-14035
rea	-14036
sop	-14037
tar	-14038
ton	-14039
vat	-14040
wit	-14041
xon	-14042
▁DB	-14043
▁Qu	-14044
▁ae	-14045
▁ca	-14046
▁fi	-14047
▁lu	-14048
Cent	-14049
ansm	-14050
ason	-14051
elat	-14052
hole	-14053
inat	-14054
iniz	-14055
opis	-14056
orly	-14057
oske	-14058
ynam	-14059
▁Act	-14060
▁Las	-14061
▁cad	-14062
▁nas	-14063
▁ord	-14064
Hence	-14065
acist	-14066
blast	-14067
dient	-14068
erost	-14069
inite	-14070
opaus	-14071
teins	-14072
usati	-14073
▁Phys	-14074
▁coup	-14075
▁detr	-14076
▁impa	-14077
▁pois	-14078
▁prin	-14079
alemic	-14080
antial	-14081
esting	-14082
munode	-14083
veries	-14084
▁Fract	-14085
▁assoc	-14086
▁atres	-14087
leation	-14088
ractice	-14089
▁suspic	-14090
▁unelev	-14091
▁unicom	-14092
▁unknow	-14093
▁utilis	-14094
▁variab	-14095
▁withst	-14096
▁xerost	-14097
acteraem	-14098
acterist	-14099
-0	-14100
6:	-14101
80	-14102
Bl	-14103
El	-14104
FV	-14105
MS	-14106
SM	-14107
WL	-14108
bg	-14109
df	-14110
hc	-14111
mb	-14112
rb	-14113
vy	-14114
Gre	-14115
Sur	-14116
TnI	-14117
ctl	-14118
esc	-14119
gre	-14120
hre	-14121
iat	-14122
inf	-14123
leo	-14124
lim	-14125
lut	-14126
mat	-14127
ods	-14128
oem	-14129
onu	-14130
oty	-14131
ppa	-14132
reh	-14133
reo	-14134
req	-14135
sre	-14136
tel	-14137
tro	-14138
uat	-14139
▁Br	-14140
▁FO	-14141
.2%)	-14142
aste	-14143
cter	-14144
enin	-14145
gess	-14146
inag	-14147
ites	-14148
obic	-14149
omin	-14150
orat	-14151
oref	-14152
▁Loc	-14153
▁ada	-14154
▁alm	-14155
▁gat	-14156
▁rea	-14157
▁soy	-14158
▁sud	-14159
▁ten	-14160
anche	-14161
derus	-14162
egree	-14163
laxis	-14164
munic	-14165
ogies	-14166
orely	-14167
othel	-14168
point	-14169
raven	-14170
rolle	-14171
verif	-14172
▁Norm	-14173
▁chor	-14174
▁inhe	-14175
▁sugg	-14176
atient	-14177
ivocal	-14178
munity	-14179
reated	-14180
ronous	-14181
tebrop	-14182
▁abort	-14183
▁devel	-14184
▁invas	-14185
▁persp	-14186
▁stren	-14187
▁subsp	-14188
cedures	-14189
diction	-14190
endance	-14191
▁streng	-14192
acterize	-14193
acuation	-14194
adherent	-14195
adiation	-14196
alancing	-14197
allenges	-14198
aluation	-14199
%)	-14200
Ba	-14201
Ds	-14202
FG	-14203
Id	-14204
Ke	-14205
PP	-14206
Sb	-14207
Tw	-14208
UP	-14209
VA	-14210
ao	-14211
dy	-14212
kf	-14213
kw	-14214
nf	-14215
pd	-14216
rC	-14217
wr	-14218
ym	-14219
Cus	-14220
Fin	-14221
PCC	-14222
Pot	-14223
bal	-14224
ben	-14225
ead	-14226
eon	-14227
erk	-14228
gal	-14229
ina	-14230
ini	-14231
iog	-14232
kin	-14233
mor	-14234
nan	-14235
nul	-14236
oim	-14237
oog	-14238
pin	-14239
ppl	-14240
pti	-14241
sin	-14242
xer	-14243
zin	-14244
▁AM	-14245
▁el	-14246
▁fl	-14247
▁la	-14248
▁tu	-14249
▁tw	-14250
bate	-14251
erab	-14252
olat	-14253
oric	-14254
ptoc	-14255
rics	-14256
sing	-14257
stim	-14258
▁Sim	-14259
▁anx	-14260
▁bes	-14261
▁mec	-14262
▁pla	-14263
▁thu	-14264
acrop	-14265
agree	-14266
atist	-14267
duces	-14268
endos	-14269
entis	-14270
heigh	-14271
helin	-14272
oping	-14273
roach	-14274
sment	-14275
▁HGUC	-14276
▁Swed	-14277
▁acqu	-14278
▁fram	-14279
ardial	-14280
argely	-14281
holest	-14282
lation	-14283
vercom	-14284
▁inher	-14285
▁intro	-14286
▁normo	-14287
agulate	-14288
clospor	-14289
ensions	-14290
▁compos	-14291
▁poison	-14292
ammation	-14293
ammograp	-14294
amoxifen	-14295
ancement	-14296
ancially	-14297
andardis	-14298
andardiz	-14299
03	-14300
1.	-14301
10	-14302
25	-14303
30	-14304
AA	-14305
Af	-14306
Fe	-14307
GU	-14308
HM	-14309
Hy	-14310
IA	-14311
IM	-14312
MT	-14313
My	-14314
OD	-14315
Po	-14316
Su	-14317
TB	-14318
TN	-14319
UL	-14320
Wn	-14321
aS	-14322
br	-14323
cq	-14324
db	-14325
dp	-14326
fl	-14327
fs	-14328
gG	-14329
lw	-14330
nv	-14331
po	-14332
vu	-14333
zy	-14334
zz	-14335
CCT	-14336
Den	-14337
cat	-14338
dar	-14339
dho	-14340
fan	-14341
gly	-14342
lat	-14343
lee	-14344
orr	-14345
osa	-14346
ote	-14347
rem	-14348
rex	-14349
sor	-14350
xat	-14351
▁Hi	-14352
▁VO	-14353
▁fM	-14354
Norm	-14355
asts	-14356
ctiv	-14357
curr	-14358
eriv	-14359
ersh	-14360
hyse	-14361
inus	-14362
iors	-14363
ofol	-14364
radi	-14365
than	-14366
vail	-14367
▁aor	-14368
▁hos	-14369
▁los	-14370
▁nul	-14371
▁ton	-14372
asked	-14373
cting	-14374
eront	-14375
ifact	-14376
ionin	-14377
ipher	-14378
onium	-14379
verwe	-14380
▁bing	-14381
▁eigh	-14382
▁prim	-14383
▁unaw	-14384
cement	-14385
ership	-14386
farers	-14387
icathe	-14388
imized	-14389
istant	-14390
mograp	-14391
vising	-14392
agnosed	-14393
entical	-14394
glumine	-14395
▁assert	-14396
andatory	-14397
aneously	-14398
anexamic	-14399
27	-14400
84	-14401
AQ	-14402
BA	-14403
BF	-14404
BK	-14405
Bu	-14406
Dc	-14407
Du	-14408
EG	-14409
Fs	-14410
HF	-14411
HO	-14412
HQ	-14413
He	-14414
IR	-14415
NM	-14416
Oh	-14417
RK	-14418
RS	-14419
Ro	-14420
SF	-14421
Sc	-14422
Sl	-14423
St	-14424
Ti	-14425
UF	-14426
UT	-14427
Un	-14428
VT	-14429
WH	-14430
WM	-14431
rf	-14432
sw	-14433
ye	-14434
Act	-14435
Dop	-14436
Min	-14437
NAI	-14438
bre	-14439
cho	-14440
inu	-14441
inv	-14442
leu	-14443
lis	-14444
mil	-14445
nus	-14446
oli	-14447
oll	-14448
oni	-14449
ref	-14450
rin	-14451
sar	-14452
vid	-14453
wis	-14454
▁Wn	-14455
▁af	-14456
aily	-14457
atom	-14458
comf	-14459
edig	-14460
erit	-14461
imeg	-14462
olid	-14463
raph	-14464
rave	-14465
rome	-14466
urat	-14467
urig	-14468
▁Cus	-14469
▁cig	-14470
▁ger	-14471
▁oes	-14472
alent	-14473
ectly	-14474
erien	-14475
osure	-14476
races	-14477
ssors	-14478
unity	-14479
▁anom	-14480
▁myoe	-14481
▁onse	-14482
entage	-14483
imates	-14484
ourage	-14485
▁Elder	-14486
▁branc	-14487
▁cathe	-14488
▁plate	-14489
▁reduc	-14490
acental	-14491
enefits	-14492
ultures	-14493
▁concer	-14494
antially	-14495
arations	-14496
arcinoma	-14497
assified	-14498
atheters	-14499
06	-14500
40	-14501
CA	-14502
EE	-14503
Ev	-14504
FC	-14505
FS	-14506
Ge	-14507
HT	-14508
IF	-14509
IK	-14510
LF	-14511
MB	-14512
MC	-14513
ME	-14514
MG	-14515
NB	-14516
NC	-14517
NE	-14518
Nm	-14519
OQ	-14520
PL	-14521
RA	-14522
SH	-14523
TC	-14524
UN	-14525
VF	-14526
VH	-14527
WA	-14528
aq	-14529
ca	-14530
fo	-14531
hu	-14532
je	-14533
mU	-14534
ni	-14535
oL	-14536
py	-14537
ua	-14538
va	-14539
Mel	-14540
alg	-14541
del	-14542
din	-14543
eam	-14544
erb	-14545
har	-14546
iho	-14547
omp	-14548
onv	-14549
rew	-14550
unl	-14551
van	-14552
yel	-14553
zed	-14554
▁du	-14555
▁mu	-14556
▁ox	-14557
bace	-14558
diom	-14559
ecol	-14560
edem	-14561
gren	-14562
main	-14563
ssor	-14564
udit	-14565
▁LAS	-14566
▁Pac	-14567
▁Ped	-14568
▁alo	-14569
▁cam	-14570
▁ket	-14571
▁uni	-14572
agnos	-14573
entit	-14574
etors	-14575
ioner	-14576
monly	-14577
▁Cent	-14578
▁hypo	-14579
▁prem	-14580
▁prom	-14581
▁thos	-14582
emoval	-14583
entual	-14584
estion	-14585
ineral	-14586
phasis	-14587
tation	-14588
vented	-14589
▁rigor	-14590
▁tuber	-14591
henomen	-14592
injured	-14593
riptans	-14594
vantage	-14595
▁clerks	-14596
▁hazard	-14597
athyroid	-14598
atisfact	-14599
07	-14600
2)	-14601
Br	-14602
CK	-14603
Cy	-14604
DB	-14605
DC	-14606
DQ	-14607
DW	-14608
En	-14609
FO	-14610
FP	-14611
FR	-14612
FT	-14613
Fl	-14614
Fu	-14615
GC	-14616
Gr	-14617
HL	-14618
HS	-14619
KA	-14620
Pa	-14621
SE	-14622
VE	-14623
aa	-14624
ck	-14625
gM	-14626
hC	-14627
hr	-14628
oa	-14629
sv	-14630
ya	-14631
yi	-14632
Lon	-14633
OAD	-14634
bed	-14635
cot	-14636
eot	-14637
inq	-14638
mal	-14639
med	-14640
tle	-14641
uis	-14642
ulc	-14643
une	-14644
▁CS	-14645
▁pt	-14646
Pati	-14647
alen	-14648
ansv	-14649
eron	-14650
ibod	-14651
ilab	-14652
impl	-14653
lest	-14654
omod	-14655
opam	-14656
orns	-14657
ptim	-14658
quit	-14659
rely	-14660
utic	-14661
vage	-14662
vely	-14663
▁100	-14664
▁ADH	-14665
▁Dil	-14666
▁Eff	-14667
▁bra	-14668
▁mos	-14669
alian	-14670
astro	-14671
chond	-14672
derly	-14673
erati	-14674
erist	-14675
ested	-14676
icien	-14677
pprop	-14678
▁Four	-14679
▁conn	-14680
▁prol	-14681
▁thor	-14682
enting	-14683
idents	-14684
itored	-14685
leable	-14686
nicity	-14687
perate	-14688
dominal	-14689
estinal	-14690
licated	-14691
▁imagin	-14692
▁widesp	-14693
ausation	-14694
ausative	-14695
bulatory	-14696
carcinog	-14697
cational	-14698
ccessful	-14699
-5	-14700
.6	-14701
.7	-14702
05	-14703
11	-14704
19	-14705
3-	-14706
31	-14707
32	-14708
79	-14709
AB	-14710
AR	-14711
Ag	-14712
Al	-14713
At	-14714
BV	-14715
Fr	-14716
HB	-14717
Im	-14718
LE	-14719
QO	-14720
RE	-14721
Te	-14722
UG	-14723
UI	-14724
VR	-14725
eo	-14726
ki	-14727
rm	-14728
sa	-14729
tc	-14730
tm	-14731
tu	-14732
yr	-14733
yz	-14734
PSC	-14735
Sin	-14736
ait	-14737
alm	-14738
ctu	-14739
dig	-14740
dle	-14741
eda	-14742
een	-14743
hos	-14744
imo	-14745
ips	-14746
opu	-14747
rox	-14748
▁HL	-14749
▁ol	-14750
▁pa	-14751
Fent	-14752
alid	-14753
anus	-14754
bect	-14755
brov	-14756
ctic	-14757
enth	-14758
icip	-14759
inhe	-14760
lely	-14761
loro	-14762
onos	-14763
osit	-14764
rehe	-14765
uliz	-14766
ypal	-14767
▁den	-14768
ameth	-14769
aused	-14770
cents	-14771
ecaus	-14772
ilept	-14773
oster	-14774
▁biat	-14775
igures	-14776
iparae	-14777
olumes	-14778
plated	-14779
rehens	-14780
uccess	-14781
▁Focus	-14782
▁antec	-14783
▁disab	-14784
▁uncer	-14785
ervices	-14786
istance	-14787
reation	-14788
urgical	-14789
▁approx	-14790
▁perone	-14791
ccording	-14792
ceptable	-14793
ceptably	-14794
choscopy	-14795
cibility	-14796
cination	-14797
compress	-14798
couraged	-14799
(5	-14800
02	-14801
Bo	-14802
CI	-14803
CR	-14804
DT	-14805
Hu	-14806
LB	-14807
NR	-14808
PI	-14809
Qo	-14810
Ra	-14811
SU	-14812
TK	-14813
Tr	-14814
Tu	-14815
Wo	-14816
aj	-14817
hs	-14818
ih	-14819
lb	-14820
pH	-14821
pW	-14822
pu	-14823
sl	-14824
▁0	-14825
Pan	-14826
aic	-14827
alo	-14828
bra	-14829
dal	-14830
ele	-14831
how	-14832
ipl	-14833
itn	-14834
ker	-14835
lot	-14836
ona	-14837
owe	-14838
pon	-14839
rae	-14840
riv	-14841
ych	-14842
zle	-14843
▁DN	-14844
▁De	-14845
▁om	-14846
alig	-14847
alve	-14848
aran	-14849
arth	-14850
esop	-14851
ialy	-14852
kage	-14853
ming	-14854
more	-14855
osur	-14856
otiv	-14857
ptib	-14858
quiv	-14859
roug	-14860
tive	-14861
uish	-14862
unic	-14863
yper	-14864
▁Ohi	-14865
▁fur	-14866
▁suf	-14867
anent	-14868
egist	-14869
emper	-14870
entar	-14871
eroid	-14872
ilies	-14873
nable	-14874
ostst	-14875
urren	-14876
▁evac	-14877
▁mono	-14878
arance	-14879
ctical	-14880
dictor	-14881
ostcon	-14882
ptured	-14883
gmental	-14884
idering	-14885
igating	-14886
plained	-14887
▁despit	-14888
▁distin	-14889
creasing	-14890
ctioning	-14891
culation	-14892
curately	-14893
currence	-14894
cussions	-14895
cysteine	-14896
dicative	-14897
dictions	-14898
ducation	-14899
21	-14900
46	-14901
49	-14902
BB	-14903
BI	-14904
CE	-14905
CM	-14906
DO	-14907
EC	-14908
ER	-14909
Ea	-14910
Ef	-14911
Fa	-14912
Go	-14913
Ho	-14914
IN	-14915
Ly	-14916
NI	-14917
No	-14918
PB	-14919
SG	-14920
TH	-14921
bC	-14922
bi	-14923
fM	-14924
fr	-14925
ll	-14926
nc	-14927
rd	-14928
sg	-14929
wt	-14930
ash	-14931
aso	-14932
erw	-14933
hok	-14934
rar	-14935
rec	-14936
rim	-14937
rix	-14938
rre	-14939
scl	-14940
sec	-14941
tos	-14942
uar	-14943
▁Sc	-14944
▁TE	-14945
▁ak	-14946
▁fa	-14947
▁pW	-14948
▁sS	-14949
esia	-14950
inep	-14951
nown	-14952
oner	-14953
oroc	-14954
raig	-14955
▁Cha	-14956
▁Exp	-14957
▁Mus	-14958
▁cen	-14959
▁eat	-14960
▁fal	-14961
▁gas	-14962
▁lan	-14963
0-576	-14964
ducts	-14965
erial	-14966
hibin	-14967
licly	-14968
ocked	-14969
tolog	-14970
ximab	-14971
▁Clin	-14972
▁alle	-14973
▁remo	-14974
▁repa	-14975
▁tors	-14976
elling	-14977
inized	-14978
obally	-14979
utions	-14980
▁infer	-14981
arities	-14982
enation	-14983
parathy	-14984
uations	-14985
▁Medica	-14986
▁predic	-14987
▁synerg	-14988
▁tonsil	-14989
ansition	-14990
dundancy	-14991
eammates	-14992
ecessari	-14993
echnical	-14994
echnolog	-14995
econdary	-14996
ediately	-14997
egarding	-14998
egration	-14999
-3	-15000
12	-15001
4-	-15002
7%	-15003
76	-15004
AH	-15005
AM	-15006
Ac	-15007
Am	-15008
Ap	-15009
Aw	-15010
BM	-15011
BR	-15012
CP	-15013
DG	-15014
Ed	-15015
Ki	-15016
Ku	-15017
Op	-15018
TR	-15019
Th	-15020
dg	-15021
dl	-15022
ma	-15023
my	-15024
rp	-15025
xc	-15026
yc	-15027
yg	-15028
yt	-15029
APP	-15030
CSL	-15031
atc	-15032
bic	-15033
eis	-15034
ext	-15035
nis	-15036
oul	-15037
rac	-15038
rur	-15039
ses	-15040
sil	-15041
sul	-15042
uss	-15043
▁SS	-15044
▁UL	-15045
▁ai	-15046
ader	-15047
etam	-15048
istr	-15049
lion	-15050
lose	-15051
onst	-15052
part	-15053
vert	-15054
well	-15055
▁DMO	-15056
▁Pag	-15057
▁Pot	-15058
▁cos	-15059
▁exh	-15060
▁gal	-15061
▁lea	-15062
▁ort	-15063
▁req	-15064
▁tow	-15065
antit	-15066
erize	-15067
erves	-15068
espre	-15069
olumb	-15070
orect	-15071
ralat	-15072
umbar	-15073
▁Thos	-15074
▁numb	-15075
▁stom	-15076
atency	-15077
hronic	-15078
itally	-15079
jority	-15080
ortant	-15081
resses	-15082
verage	-15083
▁diffe	-15084
▁indef	-15085
▁perin	-15086
cordant	-15087
dictors	-15088
ditions	-15089
imental	-15090
tensive	-15091
▁autoim	-15092
▁histor	-15093
▁workwe	-15094
ceptions	-15095
emplated	-15096
endently	-15097
entation	-15098
entative	-15099
9,	-15100
Be	-15101
EO	-15102
FM	-15103
Hb	-15104
IV	-15105
If	-15106
MM	-15107
Mu	-15108
OP	-15109
PC	-15110
Sk	-15111
TI	-15112
VC	-15113
bt	-15114
cT	-15115
dm	-15116
fa	-15117
hl	-15118
iT	-15119
lm	-15120
nI	-15121
oC	-15122
oh	-15123
sr	-15124
xa	-15125
yd	-15126
Che	-15127
Non	-15128
adj	-15129
cle	-15130
dat	-15131
kid	-15132
oar	-15133
oes	-15134
ohy	-15135
omb	-15136
own	-15137
rip	-15138
tum	-15139
ude	-15140
use	-15141
▁SN	-15142
▁Te	-15143
▁ly	-15144
chan	-15145
dral	-15146
elev	-15147
elin	-15148
emed	-15149
enet	-15150
hary	-15151
hond	-15152
iber	-15153
icid	-15154
odif	-15155
osen	-15156
peri	-15157
spon	-15158
sych	-15159
xity	-15160
▁Tre	-15161
▁cro	-15162
▁nam	-15163
54.2%	-15164
agent	-15165
ersal	-15166
fully	-15167
icult	-15168
lower	-15169
ocele	-15170
orean	-15171
racer	-15172
roint	-15173
vated	-15174
▁Alco	-15175
▁disc	-15176
▁refe	-15177
erform	-15178
minist	-15179
ocular	-15180
olones	-15181
onding	-15182
onserv	-15183
▁chori	-15184
▁physi	-15185
ofosves	-15186
taneous	-15187
▁acupun	-15188
▁aripip	-15189
▁infect	-15190
▁intern	-15191
entional	-15192
entities	-15193
entually	-15194
enzalkon	-15195
equately	-15196
eresting	-15197
erfusion	-15198
eriatric	-15199
%,	-15200
01	-15201
28	-15202
99	-15203
De	-15204
Fo	-15205
Gi	-15206
Ka	-15207
RO	-15208
bj	-15209
cc	-15210
dd	-15211
dj	-15212
ds	-15213
dv	-15214
hm	-15215
iH	-15216
iq	-15217
nw	-15218
rc	-15219
rv	-15220
sm	-15221
tn	-15222
tt	-15223
uv	-15224
Mas	-15225
dor	-15226
dre	-15227
enc	-15228
[...]
