▁ischemia
17
phrine
▁perox
25
esti
RNA
olytic
rength
▁electr
ancement
oagulation
▁Alternative
▁phag
▁Biochemical
uccessful
▁exo
cis
▁overweight
.7
▁inhibited
▁mediates
▁epiderm
▁(3
▁gonad
▁simultaneous
▁microc
▁amy
▁aspiration
9,
▁prognostic
▁discrimin
gression
trition
▁WHO
▁pulmonary
otrop
▁abolished
▁resear
▁bronchoscopy
▁naltrexone
▁consequently
ointing
▁severity
▁differentiated
▁eliciting
▁6
rehen
▁phosph
phal
hicle
tradiol
▁directional
▁catheter
▁assis
uin
▁impaired
▁specimens
lym
▁LT
othel
▁MH
▁bronchi
▁exclusion
grees
uvant
▁confir
vul
▁prednisone
▁transcription
▁cholest
▁thromboemb
▁aggravation
▁perme
icul
▁errone
▁myocardi
▁oligo
▁displacement
▁IgG
▁elimination
erus
▁adolescence
▁vagin
▁correlated
▁ortho
▁endos
fos
▁TK
▁relap
ods
atial
▁characteris
▁Histologic
Ba
Ts
ths
▁neonatal
▁placebo
rotid
olenic
tabl
otox
gans
comitant
▁ech
▁molecule
1-2
ostatin
▁depr
▁FV
ctive
▁hypog
erals
minis
anish
iol
Ly
▁CMV
▁atrophy
▁modulates
hap
estig
▁metabolism
▁shor
LU
estive
▁tes
opathy
▁homogeneity
▁assay
▁heparin
▁bypass
▁filtration
eclampsia
▁ceased
▁attemp
jec
rhy
▁melanomas
derly
ineal
▁CAM
▁atten
97
▁investigations
trip
▁clus
-2-
emory
ceptive
65
▁transient
▁Estrogen
▁oro
▁ADH
▁adenylate
▁Acute
▁subjected
▁uncomplicated
pH
tation
▁microscop
▁clinically
▁utilisation
ministration
▁newborns
treated
▁PGE
▁nutritional
▁Atropine
▁irradi
▁overdose
▁isolates
formin
▁uremia
▁recons
▁sclerosis
▁metastatic
▁progn
▁memb
▁carcin
▁pneum
▁kinase
▁anastom
▁80
▁cla
▁adhesions
▁rhy
-1)
▁metoclopramide
▁evaluating
▁plasm
▁cyclo
▁prostate
▁cortex
▁prospectively
▁Engl
▁apex
▁radiographic
▁150
▁RBC
▁initiation
abies
▁implantable
▁Comparison
RH
▁prescrib
crip
▁valu
▁catheters
▁allevi
tam
▁cardiac
.1
▁fluor
athe
▁synovial
▁appreciably
stimulated
▁EMS
▁assays
atment
3%
▁reliably
illic
urther
▁reflecting
functional
▁predictive
▁indetermin
tomy
▁cardiomyopathy
▁radiography
5).
▁PB
infected
▁transi
▁polyp
▁targe
zole
▁hydrox
spective
iferation
trib
29
hei
▁17
▁gradients
▁predictor
nowled
tent
▁CABG
attern
ediatric
▁phagocy
duction
▁expenditures
-1
▁efficacy
▁radiological
operative
▁MN
CRP
▁(19
▁juven
▁stu
acental
omal
pation
▁cesarean
vic
urethral
-9
Ds
Au
tific
▁VO
▁hypertension
▁Lys
▁gallbladder
▁endoscop
avage
oceptor
eptide
ollicular
astolic
▁upd
▁cervix
urse
▁tracers
▁septum
2-
▁myo
▁evoked
▁inadequate
inic
Ti
▁RB
lec
▁pigs
▁MRC
▁dele
▁confound
▁thrombolysis
-5
-10
▁pathogen
▁hypers
ceptual
onuclear
▁kine
▁0.1
▁ery
8%
KI
tized
CSF
certain
▁estimating
▁validity
▁prenatal
adrenoceptor
▁thorac
▁[3
▁mandibular
▁apop
▁UL
▁implicate
▁atropine
glumine
urrence
ameth
▁reperfusion
▁sinus
▁visually
▁adenocarcinoma
▁adver
▁immunode
▁IgM
▁Blockade
12
▁facilit
severe
▁enl
▁HPV
phosphate
lead
▁atmospheric
kele
▁disruption
▁autosomal
▁coeliac
▁fragile
xual
rapid
hers
▁chemotherapy
21
▁susceptibility
▁receptors
▁mellitus
▁moderately
veolar
▁hormone
▁inappropriate
▁interpre
knee
tension
▁1.5
▁26
▁dexamethasone
▁chemot
▁lipids
▁predicts
radi
imin
opa
estim
▁proce
▁hypertensive
▁9
otactic
▁lept
▁cephal
▁hypoglycaemia
oleic
▁gait
▁PEEP
▁Chemical
fentanyl
▁8-
▁tyrosine
31
▁11
aryn
esity
▁hypot
odynam
vity
oretical
ethyl
idney
stem
▁fati
0%)
▁follicle
▁establ
▁hospitalization
▁positively
resses
▁enrolled
asive
▁Intravenous
▁atheros
ithms
versal
▁intrac
Pa
▁episodic
ignant
osal
▁remin
▁kerat
▁spleen
▁electroph
▁AVR
onc
▁immuno
tox
tin
▁phy
▁occurrence
▁awa
▁genotypes
▁prostates
▁ile
▁24
edic
▁coexist
cribed
▁deficiencies
lore
▁coexistence
▁ambulatory
▁MEP
44
▁cataly
▁benz
▁prostatic
▁fetus
▁exhibited
▁CI
sych
▁anemia
▁amyloid
▁chloro
▁extracts
▁10-
▁1,
ithiasis
▁preconditioning
▁hepatocytes
acted
▁fracture
4-
tead
▁olig
6,
▁1.7
osition
▁influenza
▁multifactorial
▁adolescent
▁synchronous
▁hemis
chers
▁Ig
OA
roma
benz
▁regression
acial
▁morphologic
▁recessive
ochondral
▁Comparisons
inemia
▁scans
▁prophylaxis
erating
Fs
▁confron
hospital
▁potassium
TG
▁pathways
-0
▁cardiomy
▁tert
alues
,000
▁insertion
▁unevent
erative
▁feasible
▁vesic
▁44
▁abl
▁pregnancies
▁unexpl
esthe
▁uncom
lep
rae
▁underestimated
▁challen
▁Vaccin
SAP
▁births
▁phagocytic
▁adhe
▁adequ
▁Phen
drome
▁lumb
amet
▁compounds
▁evol
▁methyl
▁underwent
▁19
omedullary
▁throm
▁tec
2+
genital
▁interv
▁compart
oplas
aneously
▁reproducibility
▁coronary
▁abnormal
▁apoptotic
chondral
overed
99
▁alveolar
tural
▁molec
adrenergic
▁48
ophag
▁Operative
ulatory
onset
▁accumulation
otomy
▁receptor
▁remission
▁Accordingly
▁deprivation
uoden
edullary
▁overex
▁inhibition
▁migraine
▁cancers
▁inhibitors
▁steroidal
▁hemisphere
.9
▁integrating
▁vulnerability
▁histologic
▁spontaneous
menopausal
ulcer
▁unselected
▁.0
▁Medicaid
▁migrated
▁scoliosis
▁segmental
filtration
▁symp
apeu
▁degrad
utaneous
▁inactiv
▁placent
▁chan
▁seroton
▁Greater
▁acids
graft
▁monitored
▁traumatic
▁deficits
▁mann
▁debridement
▁abnormalities
▁IGF
▁vascular
▁anomalies
▁immature
▁subgroups
lapping
▁exce
▁chori
tility
▁phenotype
LV
erent
▁monit
▁42
▁increas
EGF
▁replication
▁polym
amino
▁undes
Tu
▁0.05
thle
urea
lax
IU
tate
induced
▁arter
blast
1-3
▁90
▁(54
▁pharmacological
▁occlusal
▁pyr
▁pneumonia
▁ultrasound
▁38
▁1.0
▁0.5
▁AE
ticular
▁neurologic
▁promoter
6-
▁interp
▁surrogate
veness
lective
atest
▁regulate
planted
▁IUD
▁TC
▁cytos
▁lymphocytes
▁menopausal
▁5
7.
hep
orotic
icin
imens
▁13
ensit
ensory
oride
▁prescribing
carcin
▁0.01)
orac
hemia
▁oxy
▁electrophoresis
▁globally
orrh
▁PAS
▁manifestation
▁IU
▁metastasis
▁2-
▁counteract
▁bipolar
mature
▁cen
▁Rout
▁ruptured
▁undertaken
▁prophyl
▁hippocamp
astom
▁arthritis
▁epinephrine
alc
▁aortic
▁cumulative
30
▁procedural
▁aerob
▁specificity
▁pineal
▁Compared
endri
glutin
▁fibrin
▁normo
irc
▁bovine
duced
▁subf
▁acetabular
▁zinc
▁ETS
▁metast
▁exacerbations
faction
▁paraplegia
▁yiel
estions
▁Plasma
▁tib
▁PRP
▁arteries
undibular
▁chor
▁endot
otomies
keletal
utions
alp
▁(1)
▁deterior
Gi
olarization
▁markedly
anese
▁warr
▁immig
onium
ectin
▁ovari
isture
▁detectable
odialysis
economic
assium
▁obser
▁IBS
▁synergistic
raine
▁develops
elec
▁proteins
urrent
▁psychiatric
FH
▁LD
acclim
▁fluorescence
ameters
▁Adverse
▁cancellous
▁struc
▁peptide
SAH
▁palliative
relations
▁transcrip
▁residency
▁anastomosis
▁metabolites
pS
▁cyclase
atif
▁inh
▁Streptococcus
▁intram
sess
▁micros
▁haemorrhage
▁intensive
▁pall
▁ventilatory
▁SCH
80
weighted
▁tonsil
▁prostatectomy
▁propensity
▁agonist
▁cann
▁kidne
▁medial
▁micrograms
acr
▁SBA
▁discomfort
utin
▁stimulated
▁dendri
alact
▁cellular
antial
▁corrective
KA
▁adhesive
2/
▁incidence
TU
▁adolescents
▁physiological
▁ultr
▁epileptic
ystolic
▁PEG
anding
spectively
▁4-
84
▁unsuccessful
olum
oten
ervations
resting
arers
oplastic
▁progestin
%),
▁biopsy
▁Inclusion
▁isch
tect
▁lactate
▁infusion
▁Cyt
▁LVH
▁contralateral
▁Phy
▁manifestations
▁synerg
regulation
sible
▁detachment
▁Immun
▁shig
arer
truc
epti
▁Neu
▁testicular
▁Taken
▁recurrent
▁appendicitis
▁paralle
▁curative
rele
urred
ylcholine
▁hep
▁undetected
▁perforations
▁eradication
ucleation
.8
▁produc
▁chromosome
reness
▁nomenclature
▁pedig
mented
▁collateral
idement
▁poin
valent
responder
tub
protein
▁sympathetic
mig
.8%
▁cardiovascular
erox
elan
▁0.9
▁esophageal
fected
mittent
▁dopamine
▁donor
▁cyt
▁fluoroquin
▁vivo
gents
tiz
▁oss
lesion
ogenic
ocytes
ucle
▁substituted
▁MHC
tens
otom
ipar
▁GV
▁continence
▁cohort
odies
▁GBS
▁tric
farct
bral
athetic
▁statistically
34
▁indications
ometr
▁RP
▁labeling
▁carbohydrates
dial
▁neo
▁leukemia
▁fibrob
▁pharmacy
▁unco
▁adrenal
clo
▁carc
▁0.7
▁vomiting
▁counseling
▁anatomical
olism
▁PCO
ylchol
▁excimer
ocamp
▁allo
▁somatic
pendent
bility
▁suppres
ocardial
▁contributory
▁herp
▁rotated
▁membrane
▁Analy
▁pleomorphic
entricular
SCC
rogra
/-
▁morbid
itures
FV
hemo
▁distin
▁perce
▁decreased
▁parental
▁43
▁endometrial
omized
▁graft
uptake
▁pylorus
▁panc
▁resec
▁improves
/1
▁acad
orectal
▁nucleotide
amn
yroid
agit
▁readings
olesterol
▁bacterial
▁ultrason
▁identically
loride
▁MRI
generation
▁reductions
phos
arental
▁unchanged
▁alleviate
▁unin
orrhagic
▁implant
▁hemodynamics
▁concordance
labeled
osom
▁subunits
▁gad
▁unil
▁selectively
▁IH
▁20%
▁lith
▁recombinant
▁maternal
▁adhere
▁Vac
gesterone
▁blot
▁4,
produc
omat
▁complemented
▁drainage
▁abnormality
ilic
oag
▁contraction
▁retention
▁ACE
amide
illus
▁suture
7)
▁rabbit
onary
▁epithelium
85
▁stenosis
▁3-
▁compartments
▁epit
▁alp
tical
▁linole
▁smo
toc
cture
udin
▁wee
rals
▁perone
mL
vascular
▁axons
▁thyroid
▁limb
▁modality
astatic
▁undisturbed
▁paradigm
amate
▁hemorrh
tance
▁elicited
▁AGA
▁eosin
oic
▁inver
▁endpoints
gesia
▁umbilical
▁intrag
▁HCMV
▁mammography
tured
▁overd
ococcus
4+
75
▁vagal
▁HG
▁cohorts
▁plantar
tum
cutaneous
▁35
▁eluc
▁autoimmune
▁provid
ussion
aceous
▁melatonin
▁intramedullary
▁locus
▁disparate
ineural
▁hydrolysis
▁judged
ogens
▁substitu
heal
▁laparoscopy
48
▁Contrary
▁insufficiency
cessive
▁Mucosal
▁spon
2.
erator
▁tamoxifen
▁responsiveness
onography
▁cytoplasmic
19
birth
▁NK
▁VS
▁osteoporotic
▁(4
▁distinctly
▁anatomy
cad
aptic
▁vancomycin
unctional
idation
▁cytotoxic
▁elucidate
▁concom
▁unic
rophilic
▁preferen
▁reversed
▁Hg
▁sacr
▁ceph
49
AIDS
▁macropha
▁inapp
gene
▁diets
▁19-9
urine
▁cortic
cine
rectal
▁anastomotic
oscop
▁induce
▁silic
▁3
▁IBD
▁ischem
▁pelvic
▁transplantation
bic
clin
▁vitamins
RU
ronch
LF
▁clinicians
ygen
▁bronchial
opha
rene
▁intraven
▁ventil
▁fibroblasts
▁insertions
cored
▁Considering
▁surgeons
▁synov
▁genotype
erving
ropriately
▁adenoma
▁leu
▁unres
▁underst
▁referral
eal
yro
▁antic
iasis
cysteine
▁disappearance
tant
▁thromb
luent
▁reactive
▁sphincter
▁physicians
▁DFS
omatic
fir
▁progesterone
▁atres
scop
ioid
▁milieu
▁vesicles
▁acute
gative
ociated
▁immunomod
amus
▁arterial
▁correcting
▁testis
oglobulin
▁vaccines
▁tuber
methyl
tus
▁ageing
▁Pretreatment
▁suscepti
▁MG
10
▁aden
▁connective
▁50
▁progest
1),
▁groin
▁glomerular
▁80-
▁dete
▁mell
▁mice
essel
8)
itoneal
otassium
▁fibres
▁FS
geons
anine
▁metabolic
▁5-
tingu
▁pla
itudinal
▁followup
▁hCG
saturated
▁Larger
ocar
▁plas
▁19%
▁definite
risk
▁gluc
ostic
hered
▁predictors
Ki
umption
▁tris
▁adop
▁albumin
terminal
▁stimulus
loid
▁limbs
agin
40
mol
urc
▁Thromb
adequ
▁cervical
odynamic
▁physi
▁Continu
onol
▁repres
▁feasibility
olip
ilical
▁complication
▁gynecological
▁0.00
▁polypeptide
▁underlie
▁inhibin
▁immunological
▁creatine
▁angi
adiol
kely
▁cis
▁fragility
▁PV
ustained
oty
▁acetab
▁gon
▁problematic
▁workload
▁phe
▁Treatments
▁guinea
trimental
▁intrav
▁recor
▁usefulness
▁estrogen
ithm
▁unresectable
ylation
▁ramus
irrh
stolic
genic
▁reac
▁transfusion
▁LF
3-
vating
▁201
▁34
▁myocardial
▁calcification
▁bedside
▁comprehension
▁analyses
▁Ket
HG
▁ascertained
▁saline
osomal
▁potent
▁melan
▁supple
roph
perfusion
erad
▁repaired
arcin
▁adaptive
▁recess
▁alcoh
▁preliminary
▁undergoing
▁somat
▁synaptic
occal
▁ves
▁abd
▁potenti
sive
▁posi
tially
▁HC
▁acet
wenty
▁sequel
▁prolif
▁protoc
osts
▁hypoth
ejun
▁streptococcal
nthe
▁reactivation
▁ventricular
▁pelvis
actin
▁intrauterine
gluc
sequent
▁lymph
▁reevaluated
jejun
ognitive
▁dosing
+,
▁Cox
▁stillbirth
esia
dominal
▁angiotensin
IK
ATP
ocl
▁microbiological
▁BPs
ographically
▁mitral
2).
umulative
▁10
▁amin
▁geriatric
unar
tected
KD
▁gallstones
▁trough
▁hemorrhagic
cepti
▁laparoscopic
▁RS
tality
▁muc
▁individualized
▁mutations
ergic
▁beverages
.4
▁definitive
ontal
orative
▁interc
ogra
▁cytology
▁bir
▁residues
versely
lastic
▁underg
▁discon
▁PID
▁peptides
▁sedentary
ituitary
▁phosphatase
▁edema
thma
▁pressures
▁conceptual
otropic
▁adequately
▁preven
▁systemic
▁70
▁decreasing
▁TG
▁surgical
continu
▁APD
▁Older
Cy
▁mutants
▁ECG
▁pH
MN
urally
opathological
▁GER
▁8.
▁auditory
▁discom
▁atresia
▁attrib
tures
▁viral
▁impairment
▁microM
▁ketamine
▁UF
▁defic
isol
ffer
▁platelets
rested
▁deformity
▁correlates
▁intermittent
kage
▁sensorineural
▁alk
▁caregi
ochlear
cence
▁warranted
atab
6)
▁asthma
▁discusses
econd
-7
▁nonadherent
▁External
▁BD
apeutic
▁avail
▁athle
▁scanning
▁NH
▁initiating
▁LN
▁GFR
opramide
▁deliveries
▁tissues
▁excision
rC
rine
▁redund
▁agon
herence
years
ureus
▁ablation
▁acyclovir
▁prevalent
▁LC
▁differentiate
▁laparo
▁resistant
▁elevated
▁athe
affec
▁neoplasm
WBC
▁mRNA
▁Multiple
▁scintigraphy
▁enzyme
▁subtraction
▁retrospective
▁Therapeutic
▁carriers
▁ambul
truction
▁pancre
▁overe
ocyt
▁(6
hydroxy
atural
hydrox
resist
glum
▁foc
▁nodules
acin
tice
▁concurrently
regulated
▁85%
81
▁anomal
valence
▁ultim
▁antagonists
▁Chest
erper
itus
ococci
(5
ressing
▁resection
▁clearance
tiv
▁uncommon
▁extrac
phosphon
▁LH
▁onc
▁psychotic
▁patellar
▁(9
▁dissection
▁decisive
▁toge
ocyte
▁40%
▁selective
otoxin
▁60
▁heparinized
accharide
▁neurop
▁haemorrh
▁buccal
▁utilization
▁stimuli
▁glu
▁neuronal
▁chec
▁ana
70
nee
ialysis
atase
ovascular
▁induction
▁EGF
essential
eces
▁proximal
▁Roux
totic
▁100
▁strom
▁23
▁prolonged
▁chloride
▁techniqu
hering
▁Treatment
glyc
cele
uretic
▁embryos
▁Removal
▁bran
roxim
▁SLE
gic
▁vitro
▁epidemic
omain
▁chemotactic
▁precursor
▁favourable
▁tumour
▁sti
▁cystic
▁inactivation
sia
▁resis
▁canc
▁uptake
▁glycaemic
▁bladder
ichia
▁disappointing
.2%)
▁HL
▁quantit
▁Clinical
-67
▁30%
▁0.4
▁reas
derived
▁widening
▁resol
▁reproducible
natal
▁Concomitant
▁differe
54
▁merit
▁schizophrenia
ighted
▁polymorph
▁adren
▁Magnetic
▁periodon
▁incub
ortal
▁aneurysm
▁ambient
▁infar
▁enucleation
bac
▁hazards
▁necro
ignific
▁latent
uran
▁1.6%
▁genic
urement
LN
▁VD
▁lymphocyte
▁kinetics
▁197
▁sple
▁basal
▁differen
▁respiratory
▁surrog
▁ACL
effec
ritish
tection
erine
employ
1)
omical
▁chole
atonin
▁125
▁systolic
▁immunisation
ophil
▁noncom
▁immunos
▁cutaneous
▁dietary
▁10%
immune
fron
plas
▁neurons
lys
uccess
minal
▁thyroidectomy
▁catheterisation
glut
inol
ylamide
▁hemodynamic
ertion
▁correlations
▁palp
ections
▁tach
fusion
▁annulus
▁invasive
▁unde
▁25
▁routinely
nosis
▁marrow
▁3,
'-
ocusing
▁Adherence
echanical
activated
▁mmol
▁familial
▁juvenile
▁subsp
▁AMI
phosph
▁inpatient
uted
4,
odon
▁traum
▁modestly
▁37
▁proportional
▁measurable
ostat
▁administered
▁ICS
retro
▁employing
▁differing
tec
5%
▁eosinophilic
▁infec
▁histological
▁esophagitis
ochemical
▁dysfunction
▁multic
xiety
▁infarction
▁79
tig
▁clinics
▁rotational
16
▁RNA
▁hazard
▁deficiency
▁modulate
othermic
▁degradation
oung
idate
▁vaginal
▁hernia
mide
▁variants
▁cerebrovascular
+)-
▁adverse
▁mucosal
▁loosening
endan
osomes
elvic
tero
▁amo
▁alteration
▁4.
▁indeterminate
▁dorsal
▁GH
▁exchan
▁antagon
▁neurological
▁suggestive
▁laboratories
ocul
adder
▁markers
▁inhibit
▁aor
▁contral
urate
▁orthopaedic
▁rheumatoid
rectomy
▁poten
▁rese
odil
▁antegrade
▁satis
itally
▁rigorous
▁ocul
▁cleavage
▁ancestor
▁preferable
▁chol
▁investigating
▁oils
▁insufficient
oracic
▁sciatic
▁poorer
stab
▁mediation
▁chloroquine
scherichia
▁colloid
▁histopathology
▁rash
▁40
▁antibiotic
lateral
6.
irrhotic
▁complications
▁synthe
leu
▁prostagland
▁ae
olysis
genesis
▁discordant
▁implic
▁Addition
▁deem
8.
▁ventric
▁saturated
▁ensured
hea
▁melanoma
▁Alter
▁sustaining
opo
▁Mg
luores
reased
orax
▁mmHg
tak
▁perfor
▁0.3
▁follicular
▁TAA
▁16
▁ASA
omycin
▁Paget
atient
opam
MV
▁-0.5
▁doses
▁anesthe
▁monke
▁sulfonyl
▁bip
▁Patients
▁soybean
ochondr
▁ascer
57
▁lar
▁inten
▁diabetic
▁antiser
ipid
▁advisable
IH
▁artery
▁clon
▁moles
estion
ducts
▁rCBF
▁therapies
▁intrinsic
assi
Ia
▁substanti
/2
▁UTI
▁inser
▁debr
0.5
▁excretion
▁bilateral
▁calcium
▁speculated
ffs
▁acidosis
▁1-
embers
▁polyps
▁avascular
neumon
umably
entan
▁seizures
romes
vation
▁percutaneous
▁substantially
Ara
anyl
▁intrarenal
▁headache
56
▁8
▁tertiary
MH
▁palli
▁preterm
taken
ometrial
▁sut
▁rationale
▁substitution
opausal
▁FSH
▁parame
ogenesis
▁vein
▁preservation
positive
tically
▁Samples
adic
▁11,
cious
▁gangrene
▁cadaver
ilization
▁discer
▁warrants
tence
▁topographic
sus
▁substrate
▁musculoskeletal
erican
trop
▁tet
aemia
▁pathologically
▁circulating
▁hepatitis
nec
▁mitochondrial
▁amputation
iary
chond
▁hepat
▁tomography
▁mM
▁ART
▁Muc
▁tox
▁immunoglobulin
▁lithotrip
▁diagnos
mediated
containing
▁nm
oplast
▁apo
▁NB
▁monoclonal
▁ultrasonography
clinical
▁simult
adherent
onous
rates
▁PVR
BK
▁irradiated
pies
▁osteoporosis
ACS
▁prel
ivariate
TB
agal
▁HI
▁agonists
copic
dic
▁hipp
▁2,
▁resonance
▁demonstrating
stim
▁numb
roin
▁physiologic
-1-
▁infiltration
▁proposes
▁subunit
▁empir
bly
▁mono
▁questionnaires
▁assurance
lysis
rogenic
▁airway
opulation
79
▁implantation
▁strains
▁sodium
ostal
▁Emergency
▁affinity
▁phosphatid
▁pathologic
osine
kade
▁persist
increased
▁derange
3,
▁deform
.2%).
▁myel
▁inhibitor
ropine
▁fractures
▁gallst
▁1)
▁DSM
▁thi
▁nM
▁dehyd
▁reagents
▁radiograph
heum
▁behavioural
▁OT
▁stratification
▁evid
▁contex
▁perc
▁systematically
omotor
lasting
oglobin
hyp
▁colorectal
▁interacted
opi
ventricular
▁attentional
▁amyloidosis
▁supervision
orption
▁sequential
ochemistry
ocaine
▁distinguishing
atheter
▁cholestasis
▁MBC
tual
▁diagnoses
4)
gment
imination
osome
▁sci
onatal
din
▁unaware
▁phosphor
▁biopsies
▁diastolic
▁fentanyl
▁physici
▁infections
ffec
▁hemat
▁UT
olectomy
▁suppression
urgery
▁pathway
▁3.
▁chl
lood
ocarcinoma
versity
enol
▁intravenous
trogen
▁incubation
▁practiced
diagn
ventive
▁pituitary
omerular
▁22
▁incorporation
ditional
ditions
▁fatty
▁thoracic
▁possi
▁projec
▁intracellular
▁SGA
▁nec
monary
▁preoperatively
HF
alities
ampl
▁Cushing
▁homogeneous
▁Systolic
▁+/-
▁cortical
▁symptomatic
lyc
▁dentists
ithin
angli
▁subjec
▁scaled
▁latency
▁Phe
lier
▁follic
▁intest
itance
▁ovarian
▁tol
oratory
▁uniformity
▁31
▁cigarettes
▁pancreatitis
▁TNF
ortic
▁Steady
▁disagreement
▁thrombo
▁pathologies
▁peripheral
ffinity
earance
▁prevalences
▁implicated
vents
lycerol
pir
▁spinal
regn
phth
▁endothelin
▁sph
▁thromboembolic
implantation
▁mucosa
ondral
▁verteb
▁differenti
▁heterogeneity
lycer
CMV
▁cyclosporine
ficial
jective
▁enzymes
crib
▁adjunct
leukin
▁onset
rane
▁Escherichia
feren
▁scin
▁fetal
▁proliferation
▁indicative
▁reposition
▁postnatal
90
ariate
▁iatrogenic
ocardi
till
TN
▁glucose
arotid
rone
embr
▁ischemic
FG
▁uncovered
▁preoperative
▁OA
olec
▁coincidence
▁atherosclerosis
NAP
oclonal
▁operative
▁concurrent
▁opi
gulation
▁Contr
▁polymorphism
▁evaluations
▁ester
iological
Ka
▁vena
vant
▁preclude
▁VC
neal
affected
▁rigidity
illary
ervical
ximum
▁conduc
▁0.05).
asal
▁hormones
▁Regarding
▁congenital
▁circumference
▁buc
▁7.
prising
▁rabb
▁Bone
▁angiography
▁morbidity
▁(3)
sue
▁injected
igaret
▁theore
▁Biochem
owever
orphic
erum
terol
▁pretreatment
▁quanti
▁gland
▁depres
▁Swed
▁antigen
▁ALT
dle
▁lateral
trative
▁Alternatively
22
▁0.05)
▁malignant
▁LV
▁bene
76
oxia
fat
▁laparotomy
transferase
onate
heric
lac
idated
9-
▁oxidation
▁venti
tisol
eptides
▁heterogeneous
adication
▁tibial
▁carotid
▁repro
▁elimin
▁pyramidal
▁HS
▁Kup
▁disks
evaluation
▁favorable
▁Severe
▁ane
mortality
▁resected
▁unilateral
▁DST
▁subc
▁adenomas
▁Throm
▁secretory
▁gastro
controlled
▁unclear
quit
2,
▁reactivity
ivoc
▁provocation
▁aerobic
itin
▁comparative
▁consolidation
-8
23
CGP
▁mitochondria
▁causal
helial
▁indi
▁mL
8,
ilibr
▁12
▁cathe
▁purified
onucle
idne
▁pediatric
▁adminis
rogenase
fec
hig
▁TB
▁benign
▁APC
hydro
▁200
▁fixation
▁79%
orbol
opsy
▁mitochondr
▁Stroke
tic
▁cuff
▁paraventricular
▁staging
▁erroneous
(+)-
▁coex
▁glands
▁phospholip
▁substrates
ewish
▁cAMP
▁differentially
▁withdrawn
▁overlaps
▁(5
▁Increased
gments
▁Excess
ofol
ardia
28
asone
▁urine
▁myoepithelial
▁highl
▁hydroly
tectable
atients
▁lact
▁intragastric
▁minimally
▁fas
esting
legia
▁neurolog
▁granul
▁embry
▁hospitalized
entary
sial
▁fatalities
▁carbohyd
▁needles
▁diminished
lop
▁hypothyroidism
▁75
▁restorative
▁NPC
▁recombin
dents
nutrition
▁variability
ochrome
▁removes
▁OSA
▁eyelid
▁validated
TSP
▁disparity
otides
▁synthesis
ylated
▁31-
iplin
▁reproduction
DG
60
▁TBI
▁catechol
tive
▁equivocal
▁AO
▁APTT
▁instability
▁tubes
phic
rocy
5.
▁footprint
▁epithelial
▁staining
▁resour
ducible
▁anticoag
arous
▁chorio
▁equilibr
▁enteral
▁PCT
▁perceptions
oxif
mur
▁demographic
bacco
▁atmosp
▁determinants
▁thre
▁oes
enhanced
orpor
▁dislocation
pine
acetyl
▁amput
▁poisoning
ositive
tics
isqu
▁misleading
assay
▁hyperg
rof
loro
▁neutrophilic
ration
▁cholesterol
▁oxide
MIC
erate
▁hetero
DNA
▁urinary
▁HN
▁sebaceous
scher
▁grouped
▁plasmid
▁multiv
▁0
▁micron
cold
iably
▁resuscitation
coun
tively
▁persis
▁colonoscopy
▁contrib
▁glycoprotein
▁soy
▁differentiation
▁multicenter
▁polymerase
▁preferably
transplantation
▁pter
taining
.5
▁glut
onance
▁thickening
linic
▁lobe
operatively
NB
▁pylori
▁assessments
seal
ullary
▁skeletal
cardi
▁ow
▁mutation
▁spi
▁perip
▁bac
▁Ear
▁cerebral
▁exogenous
lated
omial
▁vaccination
hemical
▁adhering
tors
erally
▁communic
▁heavi
▁regimens
ochem
2%)
quine
▁advancement
onad
▁(10(
▁contaminated
lasts
▁Randomized
▁somatostatin
▁consultations
ustif
entanyl
▁tidal
▁proct
▁inoc
razole
▁modif
tions
▁clones
▁satur
otide
▁confined
epit
linolenic
▁chromatography
▁subun
acetylcysteine
enzymatic
arean
▁36
siveness
▁Alcohol
▁cytotox
qui
▁appendic
▁depic
▁omitted
▁hypo
utroph
▁shorten
▁preparations
▁aort
▁consecu
MRI
▁1.
erations
▁constitutes
hort
▁subtype
▁emphasizes
▁MCP
▁injec
▁inference
lymph
▁influenz
▁2
▁studi
ancre
▁musc
ineph
▁consol
▁cyclic
▁cirrhotic
▁Whereas
▁Neurop
▁ACTH
▁erg
▁uninjured
▁intramuscular
▁organisms
▁IIb
▁72
phon
uncture
▁gamma
▁1.6
ecre
▁circumferen
▁0.
▁fri
▁rats
▁Tran
zard
igel
▁elic
ypical
▁sugges
rease
▁cholecystectomy
eration
▁gastric
▁bowel
▁minerals
Cu
lobin
▁PSA
verages
sities
▁acco
▁diame
▁pigmented
istal
▁sequelae
▁fluores
▁intrap
▁herpes
pecific
ectomy
▁unprotected
ginine
inally
▁demonstrates
-4
▁glomer
▁pneumon
▁Tumor
▁caro
ocortic
▁inclin
▁postoperatively
▁ossification
▁0.001).
thyl
tact
ayed
▁respec
ture
cretion
tinu
▁BP
▁exacerb
▁clipping
▁preventive
▁enlarged
▁tolerated
ustment
▁morphology
▁nucleus
sies
▁extracellular
▁merits
▁sev
▁consequent
7%
▁GVHD
▁30
▁IFN
monstr
owel
▁sulf
▁antec
▁0.000
▁ach
▁sero
vice
anic
▁trig
ameter
▁endometr
▁PF
uality
.2%
▁hybridization
▁pathogenesis
▁undetectable
▁adjustment
fal
▁referrals
▁Routine
▁previ
▁Surgery
32
arate
FU
▁exis
itic
either
uterine
▁mumol
▁masked
▁unemploy
▁18
BW
▁causative
cents
▁arth
5,
emia
opro
▁pedigree
▁empirical
▁rectal
▁PCR
▁discharge
atectomy
piration
▁fibers
▁potency
iminary
tory
▁phosphate
omiting
aventricular
▁concentrations
turb
18
rosine
Cer
oidal
▁competi
oplasty
▁depressive
moid
▁Plas
▁perin
-1,
▁permeability
▁GE
▁4
quired
▁amp
activation
▁Doppler
▁cues
odium
echn
▁3)
▁nosocomial
oglyc
rophob
ervative
▁contrac
encl
ostomy
▁attenu
vated
▁promo
etal
onor
▁sepsis
GV
itoneum
entral
vate
▁lamin
▁ultras
andard
▁Percutaneous
oplasmic
▁supplementation
.2
acchar
tensin
27
▁perfusion
ynaptic
▁kDa
adren
▁cyto
▁pulmon
▁Kupffer
ubted
▁therapeutic
tur
▁injections
▁advan
opamine
▁distal
umbar
▁iso
ovir
▁HAM
▁undergo
ATPase
▁swelling
ocular
identical
▁biom
▁femur
eric
teroid
▁2)
▁progression
odal
ureth
aturated
APC
▁induc
Phe
▁irradiation
opia
▁comparisons
tib
▁GABA
itant
▁thir
▁interventions
inactivation
▁algor
ospor
ulitis
ivary
▁encoun
-3
▁dors
▁intercostal
▁(2
▁0.0
▁CRP
sul
ognition
▁rebound
atories
essive
▁identifies
▁elevation
▁stellate
itone
▁decreases
ogenous
▁2.5
plantation
angl
gmental
▁bile
▁resul
1).
lux
▁illustrates
▁psychosocial
▁anticoagulation
tagland
▁renin
▁fatality
▁endogenous
mixed
olated
athyroid
▁aorta
▁timely
trac
▁membran
oxid
▁adherence
▁cochlear
immun
▁superficial
▁molar
▁Hyp
oscopic
5-
▁gynec
sensitive
gia
▁vaccin
ece
gland
tase
entif
stro
▁valve
▁homogene
▁15%
▁congen
-100
▁neon
ected
ilateral
▁neutroph
▁regar
▁symptom
yel
▁atrial
▁umb
▁DG
▁32%
licular
▁appropriately
idis
▁intra
omies
▁sulfonylurea
▁tymp
▁99
0,
▁DN
▁retin
000
▁cardi
aline
▁sequentially
▁rehabilitation
olol
▁overlapping
▁colonization
▁postmenopausal
▁lobectomy
▁sensi
▁dex
oside
carb
▁topical
▁untreated
agic
▁diabet
46
1%
associated
▁exten
▁Dopamine
▁21
eliac
▁testosterone
teric
▁pT
▁sampl
▁suppressing
▁ventilation
12.
rents
▁lesions
▁HLA
▁premature
▁FHR
▁trac
ibi
▁hygi
20
▁33
▁adenosine
▁lis
▁spikes
ynthe
vely
▁congenitally
▁epi
▁recom
▁Prospective
yses
astric
▁discus
idine
aryngeal
tional
▁connec
▁regis
▁diagnose
▁hams
mend
▁microm
▁(1
▁pate
clerosis
tebral
▁microcirc
▁0.001)
tial
▁emerg
▁tympan
contrast
▁interpersonal
tis
edle
▁derangement
tro
▁IB
hyd
▁socioeconomic
▁depar
pinephrine
▁enti
LB
▁nulliparous
▁heterogene
▁LDL
▁plaque
▁shortened
▁trophoblastic
▁relapse
▁reduc
▁coronal
tral
▁10(
▁muscul
▁hemodialysis
olis
ternational
▁lax
erated
▁inflamm
▁dehydrogenase
▁hypertro
Hb
ociation
▁0.01).
▁histamine
IgM
onit
▁hypox
▁chewing
ixation
enic
detected
▁intestinal
▁acceleration
inj
▁coel
▁potentials
▁inserts
ravid
graftment
invasive
ologous
▁dilated
▁evacuation
▁vegetable
▁ascertain
-1.
▁biop
▁Medicare
▁acupuncture
odial
eak
▁steroid
treatment
ograms
▁monounsaturated
▁lys
esic
ints
uscular
▁insulin
▁prognosis
erin
▁anat
▁Chronic
▁5'-
15
▁concomitant
▁MV
▁renal
PAP
▁undoubtedly
rins
▁Effective
iliac
▁elu
▁RH
osocial
tage
coh
ivocal
parative
▁sensory
▁(8
stress
▁behavioral
roximately
▁chemo
.3
▁eosinophil
erance
▁sarc
▁respondents
▁28
lact
▁inducer
physiologic
ubtedly
ifol
5)
▁mutant
▁malign
▁deformities
mia
▁secretion
▁pathology
▁regimen
▁BV
▁compli
ensi
▁27
iae
Ig
▁tracer
▁ethanol
14
▁AMP
umulation
▁lipoprotein
▁endarterectomy
atical
atitis
▁ulcer
▁sperm
▁stimulation
▁complexes
▁margins
oscopy
▁ATP
▁socio
▁reag
mediately
▁etiology
-6
▁multivariate
▁extensor
▁IHD
2%
xone
kDa
▁Preoperative
▁progres
fine
1-
▁indicators
▁engraftment
helin
▁retic
olones
▁39
▁audi
▁15
▁cate
▁phon
ococcal
oxygen
PV
▁amyl
▁gradi
athy
▁appropriateness
▁prophylactic
xia
▁uncontrolled
▁biochemistry
▁5.
▁reflex
▁deterioration
▁mortality
▁202
▁criter
gth
VH
genes
▁synthesized
▁triv
▁chond
reas
▁selec
▁outpatient
acet
▁comprehen
▁lumbar
intestinal
zyme
tel
luc
terone
▁overlying
▁6-
bladder
▁infants
▁adhesion
race
▁compressed
anol
11
ellular
▁undergone
occus
noise
aminated
0%,
▁linoleic
▁positioning
ycin
▁volumetric
▁distrib
▁pulp
▁sickness
oxidation
▁characterize
lowering
▁physiology
▁gyn
reatine
▁nonc
oprotein
flux
iotic
▁OC
▁fractured
▁(10
EG
dition
itamin
licate
lectomy
▁conjug
▁splenectomy
▁contamin
6%
acting
henyl
▁TGF
▁actin
ionic
▁FH
▁conservatively
▁manipulations
dor
▁requi
fts
alian
adily
ropriate
rement
▁Ara
piratory
▁oste
ondr
cus
▁GI
▁lithotripsy
▁desm
▁pS
▁divertic
▁coli
▁peris
Hu
▁introduces
▁metastases
▁IA
▁femoral
ocytic
▁inad
itively
▁Physicians
▁cue
▁suppor
itro
▁exercised
eared
▁heroin
▁infil
▁RM
2+]
orphism
▁tiss
etus
ellosis
▁cyst
▁hypoxic
IIIa
▁thym
HB
▁peri
▁reper
▁peptic
OH
tolerated
thre
unctions
aginal
oplasm
pecially
consuming
▁screened
incidence
prep
▁acqui
▁Significant
▁suppressed
SPECT
otyp
▁specialty
ceptibility
receptor
rophyl
▁7
otent
oxic
injured
▁prol
orepinephrine
onyl
▁ration
▁phosphorylation
▁morb
▁antibody
▁illustrate
ught
siological
nai
▁paradig
▁7%
▁complementary
▁stimul
▁ure
Ta
duce
venth
▁Stu
▁sulfate
▁TA
▁vitamin
rants
tein
usp
▁assessing
▁excre
▁intervertebral
tabol
▁uter
▁radiotherapy
oskeletal
▁spati
▁inversely
omod
▁recurrence
104
ipolar
▁precedes
ylate
▁THA
▁tumor
▁vasomotor
WB
▁localized
▁Increas
▁intraoperative
▁inflammation
jun
responders
guided
▁deficit
▁crest
▁restor
▁nasal
▁incubated
▁seb
▁tryp
ithi
▁amines
tering
▁macrophages
▁diabe
▁unrel
ectomies
iciencies
▁unexplained
rophy
phe
.0
evaluated
Hg
▁BMI
▁summ
▁pathologists
▁syndromes
crimin
lix
▁neutrophil
▁ganglion
▁shif
▁objec
▁MM
▁Delayed
▁conclusive
▁HCM
▁intake
urin
▁palsy
▁cava
lobulin
0.
okine
asic
▁microv
▁deli
▁defec
▁nig
▁50%
▁callus
▁microvascular
-14
▁membranes
acerb
▁reticul
▁endoscopic
ergency
7,
went
▁ESR
▁0.6
▁blin
sian
▁diffic
▁examin
▁unstable
▁(7
▁endothelial
▁polymer
discharge
ompan
▁hypothal
▁cultured
▁trophob
atoid
▁carcinoma
▁metformin
▁putative
relevant
ults
▁nmol
▁GPs
▁expres
▁enhancing
▁neph
▁pathological
▁alterations
▁statis
▁antibodies
▁experim
▁fatigue
▁RAR
▁hypothe
▁fractions
▁calcified
TK
-9,
▁streptococci
▁compartment
phen
urgical
threatening
▁grading
▁cannulae
clim
iatric
▁evolving
iotensin
▁rati
ailure
▁cocaine
lecting
▁Trial
▁Tum
ophilic
▁torsion
quid
▁murine
▁antagonist
ronchial
▁practitioners
▁CPAP
▁leakage
oru
echan
versus
wk
69
ylase
▁21-
▁ratios
▁autoxidation
▁endoscopy
▁comple
3)
%).
▁reflux
▁contributes
overall
▁HSV
iosis
▁perinatal
Tc
▁Cytoplasmic
▁schiz
▁flexion
▁hepatic
9)
estis
▁nitro
occi
▁hern
romed
▁(2)
osyn
trol
▁labial
ipit
tif
ectable
▁0-1
tration
vac
ctomy
ept
dimer
▁discontinued
▁overestimated
trum
▁57
▁disapp
▁leuk
▁conclu
▁inadequ
▁RA
▁endoc
dent
0-
▁Serum
alsy
atid
BV
▁substances
▁embryo
▁superv
▁Improved
▁hormonal
▁exposures
tries
▁pyram
▁pharmacists
▁identif
▁extre
▁metastas
ressive
tric
▁versa
tensive
▁platelet
▁rhe
▁transurethral
▁toxicity
▁predominant
▁affec
osin
phyl
atine
mutant
HM
▁haem
viron
▁norepinephrine
▁plur
▁pmol
sions
▁parotid
▁scl
otor
▁assessed
▁utero
▁lipid
centr
▁peroneal
hips
tyl
othelial
▁retur
bumin
▁14
▁Bec
78
▁tumours
▁molecules
▁turnover
ymp
acil
▁endemic
▁soluble
oprote
▁striated
Ca
ophren
▁VL
▁ranged
▁resusc
▁100%
rotein
tivity
sively
67
▁dissociation
▁restenosis
▁placenta
osterone
▁deple
▁gluten
artum
▁uni
essional
geal
retion
▁prevalence
▁Pregnancy
▁microgram
namic
00
▁SNP
▁mec
onin
▁combin
oradi
▁nuclei
▁cigaret
AO
vertebral
lication
▁CSA
▁hygiene
ocrine
▁chlor
▁reagent
▁effic
mTc
icine
▁predominantly
aluation
enin
▁Findings
▁eyel
rati
▁HCC
▁detec
▁Improvement
▁practic
0%
▁repor
▁discern
▁10.
▁microscopy
▁injur
▁irritation
▁quantitative
▁hyperfiltration
▁unex
▁VAS
▁disadvantages
odic
▁rabbits
lip
zation
▁immun
▁mucos
phosphonate
oresis
idem
erb
protective
ysm
▁multim
ropha
▁Surgical
▁cardio
▁scre
ncy
urys
▁pati
▁0.2
dia
▁macrophage
ectom
▁sexes
Tn
rox
▁manu
▁40%,
pT
▁PAN
mentation
▁inherent
▁construc
ivation
▁AGE
▁abdominal
HN
▁salivary
▁venous
▁bronch
▁hepar
▁precur
ipient
armac
vail
▁cortisol
ourable
responding
jected
▁hypertrophied
ilized
▁endarte
erable
erop
▁CK
▁2.
▁oxid
▁COS
ritis
▁correlate
▁sedation
▁cytochrome
▁NN
NH
▁inflammatory
▁pharmac
▁cereb
▁diluted
-20
▁adjustments
▁mV
▁occlusion
▁collagen
▁propor
▁nal
helium
13
▁birthweight
cyst
▁uneventful
elong
▁EO
▁coh
▁necrosis
▁exer
dose
ecu
entists
▁Pregn
▁Failure
▁rigor
▁microb
▁cDNA
▁surgically
▁heavier
4%
▁stimulate
▁effec
ocele
▁parap
▁occupational
▁imaging
▁0.8
▁HM
▁geniculate
▁graf
jug
▁hypoxia
ulae
▁adap
▁Hb
▁cys
orin
▁detrimental
lusion
ositol
53
▁corneal
▁erythrocy
▁overexpression
▁toxin
▁VE
9%
mental
▁Whilst
▁aureus
eptin
ellar
trast
gm
reported
ovine
▁interleukin
▁Tren
▁serum
ffin
▁(198
▁polyethylene
gely
▁HU
▁collec
▁randomized
istrib
▁silicone
▁psychotropic
lyce
ohyd
▁gly
▁echocardi
▁PCP
▁reflec
▁inheritance
arthritis
▁circumferential
▁Tumour
▁mediated
▁lesion
▁linkages
▁chromat
▁FD
2)
▁worsened
▁seropositivity
▁abolishes
▁lymphadenectomy
▁empirically
▁axillary
▁predic
▁decreas
ventional
▁IVF
▁Ultrasound
▁enrol
▁neoplas
▁stroma
atell
▁Afric
▁Dil
▁consis
▁desirable
stages
▁clinician
▁immunore
ergy
ximal
▁facilitated
aturation
ileptic
▁leukocyte
1.
chol
venous
▁saliv
▁undo
rosclerosis
▁verte
▁occl
▁ligand
4.
▁ruptures
reast
iferol
TNF
▁esophag
CBF
▁stren
▁elec
titu
▁bloc
▁oxygenation
▁LS
▁eryth
▁predicting
ologic
▁iliac
iatic
1,
vaginal
▁corne
▁subgroup
▁tympanic
hesive
▁drin
sion
.6
50
▁29
▁biochemical
▁tumors
▁Asp
immunization
Ra
renal
diol
osynthe
diagnosed
▁HMO
lob
tion
▁85
▁32
▁PET
▁Patient
▁postoperative
▁wors
morph
▁surgeon
▁prospective
▁palpation
▁carcinogens
uble
entical
▁198
▁500
35
tach
▁SG
ulfonyl
anin
vival
trexone
rosis
▁obese
atrial
aemic
▁reproduc
▁Intra
▁impair
-2
onomic
▁cerv
▁45
▁thresholds
4).
▁amino
▁discriminative
▁Ras
▁unrelated
▁nutr
▁abdomen
▁beha
infarct
▁NP
▁ket
facial
asses
▁DF
▁periodontal
▁Chan
hern
tained
▁inhibitory
idase
▁obesity
▁pyl
▁kidney
DH
▁pancreatic
▁(0.
▁20
▁glyc
▁metabol
▁opioid
▁gangl
▁alve
▁adjuvant
▁TSH
▁anatomic
▁antigens
▁remo
▁Recurrence
eded
▁gout
▁LOS
▁1
fication
▁enzym
▁tas
▁fulf
uting
▁restric
▁allergic
▁Vitamin
▁tran
▁sten
ohy
effectiveness
▁porcine
seud
▁questionnai
▁parag
▁longitudinal
▁examinations
