95
ypical
greater
hion
▁benz
▁prognostic
▁tric
▁87
▁bip
esic
▁proximal
hydrop
▁smoking
▁persisted
ications
▁aureus
generation
▁synthesized
olved
▁quin
▁5.0
arbonate
▁offspring
▁poten
erin
otroph
lobulin
▁expiratory
chlor
sively
rologic
atible
▁analgesia
▁65
▁adherence
▁consistently
▁concentrated
▁anat
8-
gluc
idate
▁stomach
zard
▁benign
▁antibiotic
otypes
▁malign
▁32
▁24-
▁instrum
▁infections
▁Increased
▁28
▁accurately
orts
▁tube
anking
▁construc
▁zinc
otoxicity
▁susceptibility
▁recurrence
▁sedimentation
queous
osity
icep
▁suppor
▁1.9
azole
tinu
ositi
▁omega
▁substances
▁postoperative
mature
tisol
▁2%
▁enl
▁laser
istar
▁conclusions
▁cruc
▁intram
teral
▁substanti
▁cyclo
sive
▁pulses
absorption
erative
acts
▁unrelated
taz
▁intra
▁nervous
iable
tiveness
oracic
▁longitudinal
▁adequate
▁(8
▁parathyroid
rowth
▁retin
2-
▁impairment
▁scre
mol
▁prednis
(1
▁48
▁unchanged
▁cessation
iminary
coh
▁glucocortic
▁therapy
▁sulfate
▁pressures
tle
hyp
itol
▁rectal
▁cigarette
▁compound
▁7.
▁31
▁cortic
▁3
molec
▁abnormality
mong
.3
▁suppres
yroid
▁malignancy
▁urinary
retin
100
▁diffic
▁0.01
▁43
▁eti
orec
amic
▁tiss
▁effectiveness
▁brush
▁DS
▁enzymes
▁HLA
86
ograms
▁77
▁gon
ipramine
density
ticular
▁trials
▁preoperative
▁fetuses
▁affecting
0)
▁arterial
▁functionally
▁symptomatic
erated
▁urine
▁nonc
▁aging
▁correlates
▁tended
▁cyclosporine
ortic
▁cohort
5.
▁junction
▁schiz
▁ejection
immun
atitis
aemic
.6
▁100
cholesterol
flammatory
▁predominant
sia
2)
▁2.2
▁comprised
▁moderate
▁adjusted
chol
▁ischemia
olone
▁lymphocytes
▁vaccin
▁94
insulin
oids
▁gestation
4),
45
▁modest
▁ppm
treatment
▁antagon
▁tes
asal
▁2.9
▁caffeine
▁myocardial
▁fibrillation
▁7,
▁respec
▁amin
▁asthmatic
trol
3-
▁complic
▁discon
lusion
plete
▁HA
▁fluc
8)
ffec
▁weakly
66
ensitivity
▁differentiate
▁(3
▁PT
▁comparisons
▁BM
▁24
▁breathing
▁concom
▁0.1
▁differed
▁EG
▁intense
bodies
▁Significant
essation
ameth
azol
1%
iotensin
▁promin
▁obstruction
adm
1-
▁contracep
▁diastolic
▁50%
icine
▁inversely
▁1.4
ulatory
▁mitral
▁Insulin
▁emergency
-17
▁dimethyl
▁potassium
▁synthetic
▁sero
▁pleural
▁menstr
▁psychiatric
▁prostatic
▁transferrin
▁elimination
▁15-
▁occurring
▁antibodies
otting
▁latency
▁citrate
▁30%
▁shor
▁glomer
ceptive
ichia
▁optimum
▁1.
oprol
▁colonic
opathy
▁contex
▁conjunction
mental
▁disturbances
olytic
▁hydrogen
accharide
▁compliance
ygen
▁infectious
rogen
▁ultrasound
▁cyst
-6
.9%
▁70%
▁defic
8).
▁epid
-10
▁cavity
▁satur
▁surge
▁Additional
oderm
▁Leu
▁90%
tively
▁amph
orectal
ectom
umerous
dered
2%)
▁fasting
▁vesicles
▁filtration
▁15%
▁diabe
restricted
▁0.0
▁fatty
stim
terase
▁25-
olution
▁acces
trical
▁yielded
▁airway
erate
▁hypertension
ureus
sectional
▁unex
uble
38
motic
▁evaluating
▁33
29
▁0.5
▁perip
tory
▁5%
▁testosterone
plic
▁transplant
-9
seud
▁3-
▁hypothalamic
otox
Hg
▁findings
-2
Gl
▁doses
▁deter
▁multic
▁uptake
oic
▁selective
ocellular
venous
▁proce
000.
▁chloride
▁vag
▁ligation
gthen
▁classified
▁62
▁endogenous
▁endoscop
▁uterine
▁severity
▁1-
▁basal
itary
▁unilateral
▁0.
▁symptom
▁structural
▁excretion
roscopic
▁agonist
itamin
▁commerc
ignific
oscop
▁serum
▁diminished
enicillin
eration
▁stimulus
fec
▁auditory
▁dietary
▁instr
▁carcinomas
▁biopsy
▁lipids
erad
▁mucosa
▁repor
arrhy
▁4.1
▁68
▁questionnaire
▁(5
oes
vascular
▁restric
▁0.15
ordance
▁hormone
0%)
▁measuring
▁stric
▁prolactin
▁72
▁spon
▁isch
▁spinal
lact
yroxine
ophilic
bumin
rease
▁rele
arb
▁surround
▁wee
phil
duce
osyl
▁treatments
▁reveals
75
▁91
tro
odium
▁infec
otor
▁melanoma
▁fixation
▁kidney
▁PD
▁ventilation
▁supple
▁allergic
▁fever
▁1/
-18
▁esophag
▁identifying
▁quantitative
odal
▁trend
tive
▁pep
▁dys
▁enhances
▁Bec
▁250
avail
99
▁600
ochem
▁Hg
▁facial
7%)
▁antagonist
ching
▁(30
▁6.
amine
▁dox
apse
thmic
viral
▁reviewed
itonin
▁ori
opamine
▁diagnostic
50
▁bronch
▁morbidity
ithelial
oride
▁scans
▁surgery
4)
18
▁cyt
▁consensus
ecal
▁cephal
thmias
▁MIC
▁(3)
▁spor
tact
DH
▁absorb
hydrox
mega
-1
▁anaerobic
▁immune
▁differe
▁3.0
▁developmental
mediately
asone
shaped
idation
▁calcitonin
▁cartil
▁nig
diabetic
ologically
▁luteal
terol
educ
▁osmotic
otype
▁VT
osom
arly
ritin
▁conges
▁deficiency
ophy
▁virtually
odiaz
▁vitamin
25
▁congen
▁(25
▁muc
▁thyroid
▁concentrations
▁pharmacokinetic
odil
agic
▁0.04
▁acquisition
▁oxytocin
tives
renal
▁adoles
▁trauma
methyl
sor
▁sham
▁demonstrating
▁esters
▁examined
▁nodules
▁insertion
12
▁suppression
-80
▁diseases
▁quantified
▁systolic
▁4.2
4%)
▁exceeded
itin
▁-0.
▁cholesterol
▁diarrhea
▁Twelve
▁nursing
▁laboratory
▁efficacy
trogen
ethylene
otre
▁exposure
▁85
▁erythrocyte
▁verapamil
▁reductions
▁sple
450
▁stenosis
tition
▁ey
▁encephal
▁Fifty
▁conductance
▁exce
▁7
meth
CAM
▁regurgitation
▁proportions
▁30
tine
▁97
1%)
▁inducing
kers
▁ect
▁lumb
▁vaccine
esity
▁utilizing
▁remo
22
▁imaging
▁glut
ometh
▁reveal
▁retur
▁infarct
ofl
▁duoden
invasive
▁27
▁HDL
thma
epithelial
▁balloon
▁capsule
▁increas
▁postin
rometry
▁1000
▁phenomenon
▁cros
tral
-19
urther
▁transient
▁objec
▁peritoneal
lym
throm
7-
▁successive
operatively
1,
▁elec
ergic
duced
tents
▁overl
▁elic
▁1989
▁fetus
▁20
oscopy
osus
▁leuk
▁excl
9%)
15
ergency
operative
median
▁Staphylococcus
vian
▁sulf
▁ELISA
▁198
▁antigen
▁salivary
▁prevented
▁tension
usp
exposed
▁98
▁respiratory
lated
▁surf
uppression
▁obesity
▁advan
▁echocardi
▁creatine
▁atropine
▁risks
▁47
▁lipid
▁reproduc
▁nasal
14
▁hypothal
trum
lyc
▁exposures
▁lith
roscop
▁steroid
2%
▁mild
▁percentages
dition
▁tolerance
ipr
itant
▁glomerul
▁chan
phic
▁methionine
arent
▁mmol
lyce
▁mobilization
ifed
▁chemically
▁1%
▁predominantly
tum
igible
astolic
▁44
▁pneum
▁TSH
▁artery
▁3%
▁hydrox
▁distal
jun
▁IgA
luding
0-
cessive
itals
▁metastatic
▁Serum
▁stimul
▁LV
▁obstructive
went
▁wash
▁malignant
thmatic
▁89
entral
▁disorder
oxin
▁125
▁cultured
tein
▁albumin
▁immunobl
▁60
▁affects
▁judged
▁8-
ressed
uminal
▁illness
.2
ranial
spective
▁feeding
▁plas
57
▁1.6
centr
▁allergen
▁probe
▁deterioration
▁alcohol
▁PP
▁glyc
▁(7
▁testis
▁diagnosed
produc
.0%
▁metastases
▁plac
acrine
▁nons
▁induc
▁decarbox
▁stu
▁Comparison
inic
spectively
▁diagnosis
ostic
▁sepsis
▁chor
▁regulation
▁76
▁antagonists
▁Measure
iatric
31
eptide
▁microscop
▁7.5
▁responded
hist
▁1.5
▁10,
▁clinically
▁quantit
occal
MG
toc
▁55
onucle
▁identi
partate
alc
trib
▁dopamine
/100
▁veins
▁aqueous
▁perfusion
ication
chloride
▁heterogeneity
▁intervention
▁neonatal
jec
idine
ithi
▁creatinine
▁3.7
aced
rents
enic
▁titers
▁characteris
▁ranging
▁cardiac
▁beneficial
ocar
-5)
▁1
-24
▁2.0
▁100-
titis
▁45%
▁pig
▁symp
micro
responsive
▁(95%
drug
▁ingestion
▁androgen
▁premature
▁intensive
reast
plasia
▁14,
acetic
▁reac
olamine
▁carotid
▁mothers
▁hypertrophy
-14
ffinities
ogens
▁6,
▁capillary
▁nonspecific
▁aerobic
feron
▁leukotri
sy
▁posi
▁techniqu
▁admission
▁HL
▁placebo
bac
osomal
ovascular
▁prol
▁cultures
ereb
▁nicotine
▁injec
alian
▁plasminogen
▁yeast
▁2.4
robial
tious
▁deaths
oretic
▁morb
▁Increas
duction
▁asymptomatic
posure
▁cervical
entif
rogenic
▁aden
▁coronary
▁PI
ylic
▁calor
▁ech
▁dramatic
▁95%
▁alcoholic
▁dex
60
▁hypothyroid
epam
▁congenital
trin
anine
▁5
▁26
▁pancreatitis
▁hypers
▁potenti
▁chest
▁3.1
acr
pread
oconstric
tin
aline
▁biopsies
▁sour
▁duct
,000
▁pathology
iaz
▁(9
▁40
▁preven
▁4
▁discharge
▁pregnant
▁tobacco
▁rhy
ulin
▁13-
▁hemorrh
▁carcin
pite
▁percutaneous
▁accounted
▁resting
▁gonad
▁hemo
▁stain
▁venti
▁progn
▁pertussis
▁subjective
ighted
▁dors
20
▁intrap
▁defects
▁0.7
.0
▁responsiveness
LH
ergy
▁dihydro
urine
hydr
▁lumbar
▁organic
unctional
▁subcutaneous
▁attributable
47
▁400
opic
▁0.06
ogl
okine
▁tox
kely
53
▁uterus
amethasone
▁0.2
▁controlling
illin
▁Recently
▁1.2
▁transcription
ucose
▁viral
arrhythmic
bral
ranolol
▁ane
▁diets
2).
▁oxygen
rox
▁persis
▁gels
▁dose
▁1987
▁hospitals
▁reproducible
▁bic
feren
▁14
▁methyl
usal
▁120
▁inhib
▁HB
▁(0.0
affec
▁chronic
▁triglycer
reactivity
▁onset
▁actin
▁recurrent
▁21
▁bone
teroid
peptide
▁skeletal
▁arrhythmias
▁rheumatoid
▁describ
▁dilatation
▁prevention
achol
ximal
80
▁predictive
▁tomography
▁initiation
lux
.7
opa
▁(6
▁probes
3).
requ
▁saturation
▁histological
▁inges
▁(19
▁intrac
▁predic
ogenous
onary
▁intake
-8
▁(100
▁cardiovascular
▁preval
▁phosph
▁-2
ocaine
▁pediatric
▁histamine
taining
▁3.3
▁38
▁4.3
▁histology
▁melan
▁arter
▁hydroly
▁panc
tox
▁ester
▁artic
▁bolus
▁36
ensity
▁GA
▁Nine
forming
▁compli
▁82
▁puls
▁78
▁graded
ylase
-3
▁magnesium
plants
▁ery
osin
▁theore
0.5
onography
▁disorders
respective
aired
▁paren
▁lidocaine
▁supplemented
▁hypo
▁interf
ept
avage
tics
▁venous
49
▁detec
▁pharmacokine
▁protective
ovirus
▁cys
▁lesions
▁toge
openia
▁practition
▁kinases
▁cancers
43
▁Forty
▁2.5
icin
▁colorectal
wes
▁experim
6%
selec
orac
▁sten
mg
▁4.4
▁64
▁adverse
esium
adequ
ucle
6-
▁rup
▁fractures
▁herpes
leukin
resist
eled
▁clinical
ocomp
▁underwent
39
▁pH
▁tooth
erence
ture
▁anemia
ymp
2;
BH
▁42
matched
otrexate
▁multiv
▁assessing
yro
▁cann
▁(1
▁hypotension
ochrome
tors
▁mast
▁dysfunction
▁(24
▁isolates
▁uter
▁reversed
sess
▁regulate
▁precursors
▁retic
▁41
▁soy
▁hig
▁99
vices
embran
▁anxiety
inergic
▁absorption
▁(14
emic
▁estrogen
▁antibiotics
▁0.03
▁(16
▁lateral
▁PCR
▁investigations
▁cerv
ocytes
▁incorporated
intestinal
▁-1
▁53
▁10-
▁nitro
▁triglyceride
▁arti
▁scanning
reactive
▁preparations
otri
ensi
ctive
▁1.1
▁analyzed
▁46
▁syndrome
▁elevation
▁latent
ults
ducing
▁clon
▁guinea
acted
▁healing
osamine
epti
▁excre
▁Thir
▁lesion
ycin
▁lavage
▁enzyme
▁hypot
▁lymph
▁(50
zyme
▁iso
▁2)
ymptomatic
rhy
anol
▁impair
osterone
▁bowel
floxacin
apamil
▁70
▁decreasing
▁amo
▁heterogene
▁indus
▁elderly
▁embry
roup
▁subjec
effective
:1
▁dental
ipit
4%
venty
arge
▁operative
▁FEV
vul
DNA
▁2.8
▁20.
▁assis
uretic
▁depres
▁horm
▁plaques
9,
▁limbs
hetamine
▁49
lobin
▁arteri
▁intub
LDL
▁150
nine
▁ure
▁depressed
▁effec
▁challen
▁mono
▁lactation
▁(20
▁kidne
▁chlor
▁bacteria
▁ket
ocial
▁cytoch
▁Compared
▁metast
▁determination
▁acids
▁hepatic
0,
▁Evidence
respon
rected
tic
rine
▁triglycerides
▁comparable
▁affec
owever
Cs
▁extrac
elec
ilateral
aturation
▁compartment
▁cortisol
▁statis
geal
▁receptor
ostatic
▁insulin
▁preparation
▁complications
▁compounds
▁kidneys
ographically
▁vein
tation
▁10.
▁questionnai
inally
▁diabetic
▁glomerular
-2.
▁focal
rief
▁severely
▁fibrosis
▁concomitant
lood
▁qualitative
▁struc
sulf
▁ulc
oyl
6)
▁transi
bly
plas
▁renin
▁biphasic
▁bronchial
iability
▁gonadotropin
▁superficial
▁intracranial
▁pharmac
april
arbox
▁phenotype
loid
idase
▁excessive
opl
-4
omal
▁1,
▁8.
▁incub
▁childhood
-13
itrate
▁12,
▁proton
▁Addition
37
▁HPV
itro
urys
acting
▁edema
▁atrophy
▁thereafter
▁infection
▁LD
▁ae
▁decreases
linked
▁urea
▁linearly
fed
otropin
▁limb
▁estradiol
▁undergo
▁LDL
tile
tenance
▁canc
▁analges
▁smokers
hydroxyp
▁screening
/6
▁TP
▁paired
▁responsive
pir
▁51
▁2.3
ventricular
▁reactions
▁anesthesia
▁monitored
lec
▁mell
35
▁decreased
▁antibody
amination
▁abor
▁hemoglobin
▁aspirin
▁quanti
aryn
▁15
illary
flamm
▁pancre
▁survival
▁uncom
-20
▁resistant
yste
itone
▁(4
tric
▁PG
▁plasmin
regulation
sion
tative
▁(10
▁acute
odies
tioned
ffin
▁copper
fusion
▁(1)
ymptom
▁18
▁130
▁69
ocytosis
▁weekly
▁adequ
entric
vely
▁20,
rates
▁hepatocellular
hyd
siveness
▁attemp
▁biological
sis
▁IgG
▁continuously
armac
▁interc
▁placenta
romy
omethacin
tituted
titution
▁granul
▁investigated
ycl
oneph
▁statistically
nai
ionine
crib
bility
9%
-1.
▁exis
▁differentiated
associated
mL
7).
▁1986
radi
thyl
sies
ses
▁alcoh
▁contamin
▁glycoprotein
▁bac
illar
sors
loro
▁cere
▁retinal
timulation
ensitive
▁uro
▁detecting
▁deterior
sA
oprotein
5%
▁ovulation
nec
▁wheat
▁gradi
▁limiting
▁(0
▁mening
▁viruses
coated
▁bladder
ilep
▁dosage
ologic
▁strain
versely
▁toxic
plied
orption
▁hypertro
▁electrodes
eric
aryngeal
3)
echan
romes
▁intestinal
tial
▁agon
▁atten
▁neph
▁nifedipine
▁comparative
5)
▁maintaining
olute
▁Treatment
▁inflammation
▁pronounced
▁choline
olism
▁intact
▁drin
oxic
encephal
▁reduc
▁coag
acchar
▁cranial
enal
1).
▁localized
▁amplification
▁saturated
athy
▁defec
▁moderately
ecu
▁pneumonia
▁20%
▁tumors
▁incom
▁vasoconstric
▁alanine
30
▁toxicity
▁medication
▁valve
▁surgical
adder
▁inflammatory
▁lumen
oluble
tron
▁preventing
▁acqui
thal
▁biochemical
scherichia
▁simultaneous
lysis
tracted
▁brainstem
▁calf
amuscular
▁assay
▁40%
onate
mentation
igaret
hea
▁reticul
▁infants
tally
▁7-
▁examination
▁lact
angl
▁5)
▁pretreatment
▁physici
tiz
zymes
ontal
▁enti
tivation
▁ascorb
▁HIV
▁membranes
.9
▁resonance
tially
ipine
ially
▁requi
▁57
▁postoperatively
▁recur
loxacin
▁manifestations
▁sensitivity
-100
▁cutaneous
▁inflamm
▁rhe
▁endometrial
▁muscle
▁500
monary
1),
19
.2%
▁endocrine
/2
ocortic
8%)
tically
▁hemat
idazole
▁angiotensin
xia
▁2.6
ayers
ocyt
omes
▁inhibitors
gic
ociated
▁4.0
▁fibr
▁constr
▁biop
▁controver
orrh
astric
▁metabolism
▁fiber
atoid
▁opioid
.7%
▁saliv
ancies
▁examinations
▁3)
▁resec
RF
▁sustained
▁23
%),
▁TC
▁90
gely
▁subgroups
▁discontinu
▁maternal
7%
▁implants
▁neutroph
▁diaz
▁2.7
ylated
▁injected
▁involvement
▁dye
▁39
versity
▁normo
ignificant
▁0.8
▁cartilage
▁61
tivity
▁differen
▁prospective
▁casein
▁arth
▁thickness
▁decarboxylase
▁Patients
▁immunosorbent
▁86
▁ambulatory
▁knee
elves
tensin
▁8
▁Clin
▁indi
cyclic
▁stab
5),
▁vitro
asic
▁hetero
ocin
▁presum
▁physician
▁randomized
uric
pregn
uresis
bladder
▁HP
itus
▁angioplasty
▁declined
▁atrial
mented
▁3.8
▁carbohydrate
▁antic
▁wk
▁spont
▁phosphate
▁synthesize
▁2
▁wound
▁spine
▁captopril
▁infar
▁1:
releasing
▁(18
▁mamm
▁rats
▁5,
acet
▁intraven
▁hemorrhage
▁80
▁examin
▁17
▁dexamethasone
▁undergoing
admill
44
▁poorly
timal
tration
▁outflow
▁dehyd
aminop
▁(17
▁diabetes
▁NP
▁acetyl
▁orally
▁abdominal
▁(40
positive
▁accep
▁infusion
oglobulin
.5%
epine
▁cen
▁4.5
▁normotensive
.3%
▁(4)
BG
▁arthritis
irub
iant
▁membran
▁micros
▁lesser
▁Meas
▁phenyl
urgical
▁monit
▁hypox
▁meth
ffeine
▁chronically
▁adrenal
leu
ospitals
▁underst
BV
▁assessed
▁pyr
▁197
▁glands
▁3.9
▁pump
▁drainage
▁genetic
▁duplex
▁pregnancy
▁ocular
natal
▁heparin
tual
aturated
▁glucocorticoid
iotics
rein
▁sodium
▁predis
▁pituitary
▁bilateral
atient
crip
vents
▁(0.
▁4-
000
500
tran
▁respon
olated
6).
7,
ingle
.1
echn
▁tubercul
gesterone
▁islet
▁pretreated
▁inh
▁cystic
mia
athyroid
▁prospectively
oxygen
▁Recent
oxy
▁81
trover
▁thrombosis
gth
▁supplementation
▁3.6
▁bypass
▁16
▁stom
▁intravenous
▁0
▁13
lytic
00
▁sti
jected
tomy
plication
▁calcium
usate
tent
▁satis
6.
▁prostaglandin
▁neurop
▁cyclospor
yrox
oxide
▁66
▁electr
▁tas
▁positively
▁abnormalities
3),
▁tuberculosis
▁precur
▁relap
obl
▁frac
treated
▁0.6
▁injur
rocy
▁discus
▁Subjec
▁cereb
▁79
-50
earing
90
utaneous
▁glucose
▁recordings
▁fatigue
▁3.5
▁protoc
▁survived
▁300
▁quantif
▁75%
assi
0,000
▁presumably
amide
▁hyperplasia
eak
mend
▁markedly
yrid
5-
sistent
sibly
sions
▁possi
▁concer
bic
▁prolonged
/1
▁92
oidal
mittent
▁shorten
xate
▁squamous
▁testicular
▁renal
.4%
▁untreated
ifferen
▁3.4
pig
▁exclusively
turb
2),
▁mL
▁ineffective
▁patches
▁pancreatic
▁relaxation
▁emerg
partum
▁65%
▁reflex
▁4.6
ficial
BM
cine
containing
▁Overall
▁compartments
▁hepatitis
▁cumulative
▁inhibitor
ocys
-1).
tured
▁cef
▁noc
piratory
▁considerably
▁reversible
▁(2
▁immunity
olysis
▁2,
▁PE
▁hypoxic
0.
tage
ration
▁oste
lyl
limb
▁0.02
▁indications
rolog
▁numb
erating
▁exten
adrenergic
▁establ
▁5.
▁averaged
▁unstable
▁clinic
dle
▁enhanced
olic
▁pati
▁conditioning
ardia
▁lipoprotein
TG
▁implications
usive
▁unaffected
estis
▁blot
▁dosing
traction
dial
ocon
▁30-
27
assium
▁subc
osts
hep
▁parental
▁0.3
rosis
▁conduc
erent
▁HR
▁lowering
▁induce
▁Doppler
▁35
protein
▁adenocarcinoma
tingu
1.
ocyte
▁2.
9)
ucl
56
▁3.
rele
▁evid
▁6%
▁recor
▁suppressed
▁93
▁83
tus
▁9
acil
ateral
▁reas
▁intermedi
tice
▁mellitus
▁selec
effec
▁reactivity
▁34
ocrine
▁110
ulant
▁gradual
ilic
reased
▁reflux
tif
▁soluble
duc
▁Tran
▁hyperg
▁adults
▁idi
onstric
▁indication
.8
▁metabolic
▁pelvic
▁Hear
▁regurg
▁ventil
▁nerve
▁peripheral
▁tolerated
▁infected
romycin
26
▁characterized
tional
▁blocker
▁temperatures
BP
ocardi
trial
▁4%
iloride
▁physicians
▁inadequ
▁ischemic
▁exhibited
▁stimulation
.6%
atients
▁suspected
4-
▁rati
▁influenza
▁strains
23
▁derm
▁37
dine
▁healthy
▁depression
▁progression
ophil
▁withdrawal
▁neuro
directed
▁practic
▁splen
▁thems
▁allele
tention
▁behavioral
▁pregnancies
▁nicot
▁centers
▁termination
▁direc
▁underg
5).
▁potent
▁reser
▁dissection
▁relapse
48
▁angiography
▁pneumon
▁horiz
▁sugges
▁splenic
lycemia
NH
▁52
▁10
▁administered
controlled
▁(15
cence
ulum
▁femoral
inated
irubin
▁carb
8,
▁vesicle
▁ana
▁pigment
▁stren
▁labeled
▁molecule
▁54
4.
▁esophageal
▁glycos
▁differing
▁chemotherapy
4,
fib
▁thromb
▁5-
ophageal
-12
▁neurotrans
▁PV
▁leukocyte
olesterol
dose
GH
▁hepat
▁fracture
70
▁screened
▁12
idne
▁pathologic
▁carbohyd
▁eliminated
▁(12
▁idiopathic
organic
▁plasm
trop
▁4.
inemia
adren
▁meal
▁physiological
▁perox
RP
imens
▁ratios
oplasty
sych
▁1)
▁hep
itr
olus
tures
3.
▁Eight
tained
▁Hb
▁pulse
ritis
▁4.8
etan
▁propranolol
idated
stimulating
▁Thirty
▁3.2
▁progesterone
▁immun
iotic
oag
ocardial
▁fluoride
terone
▁repl
amycin
▁donors
▁histologic
▁6.5
▁75
onyl
▁lute
▁85%
▁mice
▁Dop
▁excision
▁adap
6,
▁adi
ogenic
▁neutrophil
▁myc
oplasm
ascular
▁extracts
▁amiloride
▁fetal
▁refractory
ophag
▁45
omat
▁congestive
▁nutritional
▁12-
▁elevated
▁inhal
phosph
▁cardi
seven
▁amn
ectin
▁pate
▁56
▁2-
tical
▁rhythm
▁interferon
▁insufficiency
▁gastro
▁reflec
▁smo
▁decline
▁84
▁polyp
▁vascular
▁autoimmune
▁aspec
▁receptors
eight
▁8%
▁acetate
▁MRI
28
▁beats
▁bab
▁7%
▁Hep
ifedipine
▁diet
0.0
▁ultras
menopausal
▁suspension
▁bacter
▁infusions
▁acidic
▁sensi
▁11
▁25%
7)
88
▁MI
▁liver
omotor
ximum
▁tumor
gative
▁thi
onomic
icient
▁Neither
▁supra
▁epidemi
▁80%
▁carriers
acid
40
▁symptoms
▁gestational
▁anomal
▁oxy
▁analys
▁immunized
▁LT
-1)
3%)
▁Initi
▁agonists
▁extre
5%)
▁2.1
▁adop
▁196
omycin
▁immunization
/3
▁identif
▁aspir
▁deposition
13
inesterase
▁newborn
urea
▁199
▁recr
▁enlarge
1/
orbent
ociation
▁adren
▁(0.5
otherapy
▁inhibitory
▁systemic
▁therapeutic
▁achie
amous
▁sampl
▁50
▁cate
▁immunos
veness
▁nitrogen
▁intermittent
▁ulcer
onine
▁hypothe
▁histopath
▁spontaneous
otoxic
▁reproductive
▁hyperp
▁chol
▁140
▁altered
estern
olol
▁0.4
▁5.5
▁(2)
17
▁traum
▁fractions
keletal
▁dorsal
5,
▁favorable
oxid
▁consecu
trac
2/
ditions
▁implicated
▁88
pecific
▁seroton
dominal
▁microscopic
omized
▁drugs
induced
adily
▁10%
▁15,
▁gluc
▁etiology
aminase
▁retention
▁abnormal
▁previ
lox
▁attrib
entricular
▁incidence
▁fluids
tiv
10
▁0.00
tinguish
enzyme
▁vaccination
11
cyt
ayed
▁postnatal
▁200
-15
▁analogue
brom
▁correlated
till
▁(11
▁strategies
eces
▁morphine
olec
▁contractions
▁invasive
▁kinase
enteric
▁0.9
ropathy
tensive
adian
tur
bearing
▁graft
▁analyses
▁eryth
anding
▁disturbance
resistant
▁inhibit
▁71
.1%
kine
▁deoxy
▁complication
bacco
▁160
▁ovarian
idity
34
aicin
▁injuries
-60
▁retard
▁duodenal
▁residual
▁resul
hydro
-5
▁sequenced
▁pyl
▁electrical
▁1.3
iol
▁IgM
32
▁perc
plies
▁somatic
▁prophylaxis
iasis
uscular
21
▁throm
trated
4).
▁mann
▁volunteers
bacter
ochemical
actin
immune
▁specificity
▁100%
iciency
▁transfusion
▁antib
▁mineral
otassium
▁prophyl
.8%
cepti
▁demonstrates
▁HSV
tussis
▁6
▁obese
▁baseline
1)
16
hypertensive
LISA
topril
▁remission
▁experimentally
mitted
▁substantially
▁ultim
▁vaginal
▁determining
▁Americ
ocor
▁25
▁thir
amus
▁qualit
ergen
55
▁provid
▁succin
tension
▁plasma
▁behavi
▁1.8
▁7.2
▁hypertensive
▁Whereas
3,
▁gland
▁58
-16
▁progressive
▁experi
▁injections
LV
▁electroly
ophys
▁carcinoma
opres
▁bacterial
▁normalized
▁73
6%)
▁detectable
▁plateau
▁mg
▁neonates
▁sediment
▁clus
amines
tance
▁19
ogenicity
ronch
▁lacking
▁ECG
sibility
▁fati
▁influenz
▁intrav
▁brom
▁infarction
▁excluded
luded
▁cerebral
▁59
▁asthma
8.
▁recipients
clin
▁indomethacin
rous
patients
▁bloc
▁12%
opausal
antial
0%
piration
▁intest
▁reactive
▁95
ocl
▁0.01).
▁29
▁initiated
opath
▁suscepti
▁22
▁regimens
▁63
▁angina
▁0.05
ariate
ethyl
▁contraction
thmia
molecular
amel
▁ventricular
▁74
otyp
opathic
▁pregn
▁96
2.
▁steroids
▁hypog
▁bicarbonate
▁secreted
▁cryp
▁tissue
thyroid
ospor
tions
▁impaired
▁Escherichia
▁angi
▁bleeding
▁Afric
-25
▁consis
▁regulating
▁immunoglobulin
▁usefulness
▁coated
rated
ophren
.5
genic
▁heal
▁affinities
▁Clinical
▁attenu
▁clonidine
illus
▁perin
36
▁expressing
▁reflects
-7
▁assays
lycer
▁rheum
▁treating
▁1.0
▁Twenty
▁variability
coun
tec
HB
▁adip
▁functioning
▁placental
ctomy
▁pulmonary
ercise
▁20-
▁anticoag
▁mortality
▁gastric
ulose
toxic
▁nutrition
▁decreas
▁ferritin
yel
▁peroxide
▁Sixty
▁ranged
▁presenting
deficient
▁regimen
▁coagulation
▁coli
risk
▁cis
▁elastic
▁oral
▁Calc
.4
atation
▁standardized
▁67
▁1.7
8%
▁cognitive
▁6-
lys
▁beha
quid
▁35%
▁3,
▁interleukin
2,
▁deficit
▁drain
acin
/10
▁nec
teroids
tivities
tural
▁tach
▁0.25
Rs
entical
blind
idin
osal
-2)
▁prognosis
pH
▁produc
24
▁acet
▁60%
▁blockers
▁prevalence
▁resection
▁neon
▁lowered
▁clamp
tility
▁assessment
orpor
▁bilirubin
▁retrospective
ectomy
▁cytochrome
▁lutein
onin
yridine
3%
▁activator
▁aspartate
oglobin
▁progres
▁4)
vation
