▁highl
▁hypoxia
zation
▁32%
▁cohort
uding
▁compounds
▁schizophrenia
▁150
34
▁gradients
itamin
ymme
ilization
▁acyclovir
▁stratification
▁urea
lasting
2+-
▁secreted
▁exten
xiety
ivocal
▁seizures
▁benign
nI
idne
ovir
▁proct
ncy
▁GABA
▁tox
▁overlaps
▁molar
▁Biol
▁enhance
▁defects
▁concomitant
urine
▁pyram
esting
▁assay
▁tiss
▁lifelong
▁guidelines
▁bacteria
cale
resting
olarization
▁circumferen
▁laboratory
▁tryp
1).
▁Biochem
▁precedes
▁consis
▁ester
▁exce
▁professionals
okine
5%
ocol
▁thrombolysis
Ra
.2
▁restric
▁localities
▁temporarily
produc
▁indicative
▁platelets
▁neutrophil
amine
▁Pregnancy
-5)
renal
ocom
▁polymorph
▁aspiration
▁menopausal
ocor
▁TCR
ially
▁sequential
▁luminal
▁vesic
iol
derived
ethyl
▁examiners
▁definitive
astatic
▁occl
eck
▁rCBF
imens
▁microb
▁intercostal
▁.00
▁intensive
acr
▁laser
▁timely
▁VAS
▁complaints
igravid
▁elec
▁scintigraphy
itrate
idated
▁refrac
▁GER
▁chloride
ourable
odium
▁sympathetic
▁placent
▁perfused
tryp
▁clinician
▁melanomas
▁extraction
▁myo
acerb
▁telephone
▁RP
▁reactivation
▁experi
▁cardiomy
▁healthy
omethacin
▁cyt
▁dysfunction
▁cancellous
acchar
arb
▁ipsilateral
▁beats
enzymatic
▁tet
▁2.0
▁202
31
ceptive
▁PCI
▁chemotactic
▁somatostatin
▁shor
▁Discre
▁tumour
▁preferable
tenance
▁ambul
▁stain
osity
▁asthma
endan
▁undo
ositive
▁communications
venth
▁[3
▁simultaneous
▁cadaver
▁LF
▁alterations
▁precur
helin
▁microcirc
otor
▁40%
▁epidemic
silon
▁embryo
▁discre
saccharide
▁assays
▁cochlear
▁prophyl
▁adequ
▁concurrently
▁impaired
▁RB
▁yiel
▁hemodynamic
erator
opl
attern
▁sperm
▁hemis
▁cytokines
▁10(
mL
▁chol
uoden
▁replic
45
▁phosphatidyl
▁Bec
▁characteris
▁randomized
oresis
.5%
rophyl
▁migraine
▁interf
▁mutagen
▁discussions
▁msec
fts
jejun
▁accel
GI
▁evaluating
omia
▁practition
ervice
▁identif
▁coli
ventional
▁interc
lead
▁inflamm
uded
▁adver
tection
▁radioactivity
▁filtration
▁granules
ygen
▁TBI
▁relap
tents
crimin
tagland
apse
oxygenase
terol
ipit
2/
▁nicot
▁moisture
▁infusion
▁arachidonic
ometr
-4)
▁cholestasis
kers
▁HS
iliac
▁vasoconstric
▁(5
▁deaths
▁restenosis
▁indicators
▁transplantation
▁glycoproteins
▁STI
▁attentional
▁Mn
licular
reast
▁lens
▁heavi
▁incub
trogen
▁radiol
osin
▁ejection
▁therap
sion
▁phosphate
▁managing
Fs
▁aerobic
▁blin
vents
olenic
▁MRI
.5
▁contribut
amate
oluble
▁potency
▁hind
▁toge
throm
▁28
▁cardiac
▁TNF
▁heparinized
▁corrective
▁mortality
▁deciding
▁undergone
▁inoc
▁HN
eal
▁TPA
▁ligand
ubtedly
▁congen
▁Ket
orotic
▁Prophylactic
▁utero
Ps
▁undergoing
▁antisera
▁presum
▁engraftment
5).
Ev
▁dehyd
jec
▁4
▁dendri
▁reviewed
▁tRNA
▁dexamethasone
▁unresectable
▁ultras
tively
▁plasmin
luc
▁pyramidal
▁aspec
▁specificity
▁spi
▁physiology
onset
acclim
▁ACTH
▁lacking
entary
▁1.1
tamine
ensitive
▁chor
▁femoral
▁disparity
estigated
▁adenomas
▁5
▁PSA
▁continuously
▁lact
▁volunteers
tance
▁63
ropha
▁heavier
incubation
sA
igaret
▁retinal
▁tol
cture
▁placenta
▁distin
ressive
▁Streptococcus
▁therapy
▁cys
otom
▁synthesized
▁nonc
echn
hemical
phosph
▁collec
▁Samples
.1%
▁premature
▁DS
otactic
▁embryos
oride
▁antigens
▁fluorescence
▁haemorrhage
1-
▁HSV
truction
▁undiagnosed
▁Medicaid
ancreas
/2
▁exposure
▁complemented
spectively
▁deliveries
10
SPE
▁hypertro
▁sustain
20
▁subtraction
▁HIV
37
▁cortical
▁stimulating
atients
▁speculated
clusive
▁perfor
ceptual
19
urther
oplastic
kDa
stages
▁contraction
rof
▁embryonic
plic
▁monoclonal
▁pathologies
▁preval
acrylamide
entif
(2+
jected
ulitis
▁poorer
roma
wk
▁apop
▁prox
fusion
kines
▁disagreement
▁dissociation
▁fibrosis
▁hazards
rele
▁flexion
▁cultures
divid
▁aorta
arbonate
ginine
▁meaningful
▁monol
ithiasis
▁Delayed
ullary
-450
▁reser
alities
▁aimed
▁confron
▁CMV
▁promoting
implantation
trated
▁genotypes
itin
▁involvement
▁birthweight
▁forsk
▁chond
▁PAS
▁implic
aginal
▁ethnic
entists
kephalin
▁caud
▁subgroups
▁AO
pies
▁excluded
▁ANP
▁fatigue
▁95
▁gels
▁isoproterenol
▁excision
ploy
▁perip
▁leu
▁stab
▁57
29
either
▁avascular
dition
▁juvenile
▁streptococcal
▁feasible
▁dopamine
▁surgery
▁acqui
eric
▁Whilst
ipine
▁anxiety
▁LN
▁carcinogens
iotics
ellum
veness
jug
▁7-
▁diseases
HF
Ara
▁endarterectomy
▁granul
erence
▁overlying
-1
▁angina
▁excitatory
▁laxity
▁induce
▁glucocortic
▁tracing
▁discharge
▁esophagitis
apeutic
ococci
▁PG
▁Cytoplasmic
▁instability
ojejun
▁trypsin
▁beha
tidine
ervical
▁glomer
▁exclusively
▁Slow
▁1:
▁familial
▁(1
carinic
▁sequel
▁Treatments
▁symptoms
vated
rans
2-
▁transcripts
dimer
acetylcysteine
▁hepatic
tub
▁reagents
▁antagon
myc
▁stimulated
phrine
2,
rogenase
▁0.3
▁causative
(+)-
▁SUP
▁admission
asic
▁tuber
▁aggregation
▁descending
▁fibronectin
ogenetic
▁preliminary
▁histopathology
▁infec
▁LPS
▁septum
derly
▁55
▁Increased
Ts
▁reflex
arotid
oplas
▁disadvantages
plied
▁anatomy
ynaptic
▁Inhib
atab
▁heal
▁tibial
duced
▁Paget
▁rhe
▁dorsal
-[
▁proce
▁IMR
adren
3%
amous
▁cirrhosis
▁detach
▁actin
TNF
▁substance
▁barrier
▁nosocomial
25
▁polypeptide
▁90%
piration
ynthe
▁Percutaneous
▁spectro
ostat
▁conductance
▁circumference
▁antib
▁33
▁albumin
tention
▁monit
testinal
▁67
bular
MIC
▁differe
▁inhibitor
▁physician
▁PVR
oscop
▁micros
▁replication
▁ascer
▁genomic
▁parag
▁GCS
erable
▁corne
▁rectal
cents
▁ischem
▁schiz
▁reacted
▁marrow
odic
▁NADPH
▁constitutes
▁progest
▁IGF
▁susceptibility
orption
▁NB
▁fractured
▁abdomen
▁ulcer
▁TG
▁vasodil
▁resuscitation
immunization
trib
obarb
▁surround
▁markedly
▁expressing
0%
▁bronchoscopy
▁sucrose
▁manifestations
▁vaccin
ardia
▁chromosomal
▁estradiol
▁neurologic
olectomy
▁latent
▁underestimated
▁(9
forming
▁chicken
▁RT
▁raises
▁PMA
ture
▁Overall
▁minority
▁palpation
▁antagonist
oxid
▁50%
▁perc
tained
▁remo
▁attendance
RD
ediatric
▁ELISA
▁pT
▁displacement
▁mitochondr
▁cervical
▁synap
▁reasonably
▁WHO
urally
▁immunoreactive
.2%).
relevant
terase
zard
asting
▁IVF
thmias
.3
▁adhesive
▁encoun
ectomies
▁advisable
oconstric
▁Km
ocusing
▁fatty
rosis
.9
▁globally
idin
istrib
▁Escherichia
▁outcomes
enteric
▁decreased
▁hybridization
▁prol
▁adults
bumin
xone
inemia
▁IgM
▁Consideration
enh
▁outs
vating
rapid
rosclerosis
▁sial
▁subunits
▁gastric
2318
urin
▁CPAP
amines
▁Poor
▁neurological
▁SGA
▁tailored
-2,
seal
tebral
▁39
▁cere
ufficient
▁expend
▁seropositivity
urons
9)
tive
oice
comitant
▁reper
ophilic
▁(11
thmic
6%
▁metastas
▁counseling
▁unsuccessful
▁BMI
▁preclude
▁(3)
effective
65
RNA
MV
▁fiber
tent
antigen
▁prospectively
▁fractions
▁insertion
thel
lood
▁consangu
▁hypertension
▁1.0
▁disorder
▁olig
appropriate
▁Addition
▁FS
▁mellitus
▁musculoskeletal
lycerol
-5
▁stenosis
itol
▁reevaluated
▁ceph
▁mRNAs
gative
etitive
andard
entical
▁pronounced
unced
▁coexistence
▁unemploy
oproterenol
▁thrombin
idase
sor
▁pharmacological
sities
oratory
▁utilisation
▁prevalence
hion
▁atten
▁8.
▁CK
▁stroma
44
▁dissec
BP
▁antibiotics
sess
▁125
mong
▁regulatory
▁LS
▁preoperatively
henyl
▁LC
duction
▁positively
roximately
trus
6,
▁mediates
▁UTI
▁ADP
▁plantar
▁Plas
▁oxygenation
queous
▁autosomal
▁cystic
▁grafts
30
sue
▁poorly
mur
▁amy
hort
▁nucleotide
▁residue
▁resour
nosis
ields
▁margins
▁vaccines
lyc
tensive
▁genes
antial
▁relating
▁VO
▁5'-
osidase
▁arrhy
▁continuing
Leu
0.5
▁healing
tial
illin
▁depressed
apeu
idate
tries
▁serine
79
▁frac
ilic
ensory
rangement
▁cloned
▁oxy
▁traumatic
▁neutroph
▁saline
▁peptides
phosphonate
▁hemoglobin
relations
oside
educ
-3)
▁assis
LISA
▁sodium
physiologic
▁adenocarcinoma
emic
▁nervous
aneously
▁10(-6)
▁specialty
▁MG
SSA
▁ionic
ulting
▁labeling
▁endometrial
▁vancomycin
lycemia
tox
▁cyst
embrane
rever
oric
▁permeability
positive
▁cytology
thre
till
ochemistry
▁Chemical
▁excimer
phasis
independent
▁palliative
▁fibroblasts
▁80-
▁AIDS
orpor
graft
▁prostatectomy
▁1.4
athe
consuming
▁corrections
▁neurones
Nor
adrenoceptor
hered
genital
▁topographic
▁psychotic
regulated
▁immunobl
▁fluorescent
▁somatic
▁epithelial
▁subchondral
iosis
▁FV
▁pati
▁Cycl
▁cytoplasmic
insulin
▁Tum
▁abolished
▁mamm
▁TRH
ATP
▁urinary
▁failures
2%)
▁3.0
▁MN
urys
▁inters
ureth
▁proliferation
Ns
▁SBA
dominal
▁yr
▁births
▁Healthy
▁Changes
▁APD
▁endoscopic
▁progres
▁differentiate
▁brains
tach
▁filaments
▁diagnosed
▁46
▁0.01).
▁lectin
rophy
▁CM
▁1%
posure
▁amin
orrh
▁reduc
▁acidosis
▁infiltration
▁microscop
rologic
enin
▁HR
LU
▁0.
ogenous
cutaneous
▁hydrophob
Phe
▁colloid
▁symptomatic
abies
▁poses
oyl
tig
hospital
▁glomerular
▁26
▁secretion
rophilic
▁peptic
▁95%
hep
▁micron
▁64
▁chemo
▁catechol
kely
imental
erals
▁inhibit
ifed
▁auditory
mature
▁antibody
adder
▁250
▁NN
▁forskolin
▁settle
ileptic
tious
▁molec
ivariate
loro
▁HI
▁aqueous
▁binds
69
▁verteb
▁reagent
▁clamp
inactivation
▁pharmacokine
▁subtype
coh
▁9
tructural
▁eliciting
▁arthritis
▁radiograph
▁advances
▁regis
▁disappointing
▁dyn
▁bac
ariate
▁analogue
atheter
▁25
▁suspicion
Hu
▁microgram
▁cate
▁unres
ailure
▁thal
▁multivariate
▁algor
cells
▁suture
▁optimizing
▁predic
▁determinant
▁longitudinal
oglobin
ropyl
▁stimulation
▁attemp
▁reproduction
▁undoubtedly
amus
PV
▁IFN
▁phon
▁antibiotic
▁remission
▁antibodies
▁VL
knee
xia
▁transient
onad
▁spon
▁ventric
▁transplant
otherapy
▁prostatic
▁appendicitis
▁PF
▁1.3
onit
▁numb
arers
▁hams
gm
immun
urgery
▁acetyl
▁cytosol
▁balloon
amide
▁oocytes
▁peptide
+-
retion
-13
idement
▁tooth
▁bone
▁unic
▁coupled
erance
▁tomography
retro
▁obese
.2%
ravid
icardi
adm
▁defec
▁Trauma
WBC
▁insertions
▁chick
▁organic
rati
▁reductions
▁glycoprotein
uminal
▁eating
▁annulus
cele
urement
▁cognition
▁Thir
▁carc
▁sulfonylurea
▁decreasing
odil
▁sepsis
elan
▁EO
dle
▁Vmax
rents
▁spikes
▁lumbar
▁Elec
▁practiced
▁nasal
▁propensity
▁physiotherapy
▁warrant
pation
ayed
sul
▁chromatography
▁duoden
▁muc
▁phosph
▁muscles
▁6-
▁Contrary
ylcholine
▁antigenic
▁topical
IIIa
ialysis
▁occlusion
tum
oclonal
5%)
▁mild
ffec
▁pancreas
olateral
▁cartilage
thle
rae
▁rehabilitation
▁alteration
assi
▁hypoglycaemia
▁shortening
▁stained
virus
18
idation
▁Fc
▁Comparisons
zyme
▁anatomical
▁lithotrip
▁impair
orphic
▁Bone
▁uter
▁phenyl
▁plas
ffer
▁gestation
ulcer
Hg
▁catheters
usive
▁bic
menopausal
▁hypertensive
46
▁quantif
▁porcine
▁protective
▁tymp
tine
▁intrapartum
▁adequately
ergen
▁neurotrans
▁minimally
neumon
tics
▁GD
aryn
▁0.05).
▁disappearance
▁rationale
respon
▁NSC
▁perforations
olated
▁ultrasound
27
▁concer
▁31-
rogra
▁adhering
▁testosterone
glutinin
tic
otides
▁depicted
▁adenoma
otox
▁exacerb
▁incidence
▁torsion
▁pathologic
pH
ses
▁GE
enol
meth
▁77
▁deterioration
▁drainage
▁contaminated
1.
Au
▁spontaneous
▁infected
104
▁glu
▁sphincter
▁amyloid
assium
▁Treatment
DG
▁mmol
▁antegrade
▁dialysis
iable
▁terminals
▁physi
(5
protein
▁myoepithelial
identical
ranial
▁lam
▁encouraging
ensit
▁LOS
cyt
▁causal
ineural
▁tubules
otypic
▁laparoscopy
patient
ulfonyl
▁develops
-8)
▁RH
▁physici
▁Phen
▁Educ
▁fetus
ressing
orac
reatine
▁pren
▁201
▁overexpression
▁(6
morph
▁evaluations
tetr
▁rhythm
▁196
▁surgically
▁structural
ositol
rated
▁paraplegia
▁1.6
▁diastolic
8,
▁cyclo
-1-
▁disks
▁documenting
▁techniqu
▁Patients
ocardi
▁neurons
▁transfected
▁BV
▁uni
▁lys
atell
▁habits
onomic
PB
▁1.
ctomy
▁morphine
yro
▁slices
▁3-
▁inhib
85
bac
▁reticul
▁inhibiting
▁transfusion
ergency
ofol
▁SNP
LDL
▁scans
▁bloc
▁assessments
▁screened
stolic
▁athe
gmental
▁PBB
pir
eroxide
▁MBC
gic
▁inflammation
▁lipid
astolic
▁polyps
▁erythrocy
▁analges
▁irradiation
ferential
▁alveolar
▁dosage
onol
▁differing
▁investigating
eled
▁muscarinic
▁accep
▁immunode
embr
4,
▁gluc
▁metabol
ophren
99
4).
▁confronted
igel
▁75%
agal
▁rash
▁aspir
▁measuring
▁angiotensin
▁oils
▁diet
▁adolescents
▁exhibited
-12
▁IgA
▁microv
▁competitive
icient
▁resemb
▁consultant
ronous
dine
▁apoptotic
▁substances
phosphate
▁myocardi
▁GA
▁neon
alian
▁inevitable
▁fluoroquin
▁ATPase
▁immunoprec
▁LT
▁0.01),
▁pathology
▁vitro
▁exclusion
▁IgG
▁dislocation
subunit
▁palsy
▁qualit
▁injuries
▁classified
lectomy
▁IIb
▁6.
▁pneumon
oag
ocarcin
▁discer
iology
anyl
▁triv
▁perfusion
▁HP
▁histological
▁VE
▁suppressed
-100
cyst
▁centr
▁perme
-6)
▁lowered
udin
athetic
▁thromb
▁oxide
,000
▁leukemia
▁cyto
▁abd
▁Cox
▁supplement
▁rated
receptor
atation
orable
▁(25
rocy
oscopy
▁reticulum
▁fasting
▁PEEP
▁fragile
▁2.7
heal
▁membranes
pecific
▁10
acetic
▁excl
▁(1)
▁60%
▁precursors
▁DFS
2+
▁2.3
Wo
▁76
▁alleviate
▁anastom
hemo
▁prevention
▁bacterial
lyce
ipid
▁balanced
▁FT
▁liver
endot
▁allogra
▁clinic
▁Thirty
iatic
were
▁0.05
ormone
▁disrup
ceptibility
Ti
▁concentrations
ilep
rected
▁increas
▁kb
occi
blind
▁safer
irrh
▁20
▁glycine
▁physiologic
mand
▁sev
linked
esium
dehyde
▁electrical
trimental
eptide
▁OA
ecu
amic
▁sph
▁carbohydrates
▁198
▁oligos
anding
usions
▁postsynaptic
evaluation
▁purification
athione
▁psychosocial
▁sequelae
▁locus
▁7
▁gamma
▁prescrib
teroids
ivered
▁immunomod
▁progressively
▁eosinophil
▁swelling
▁loosening
aline
ietic
▁experts
▁correspon
▁agon
quid
kade
▁effectiveness
▁exposures
ypical
acking
teine
▁awa
▁indetermin
▁sedation
▁nail
apamil
▁vegetable
▁phy
heum
▁molecule
26
bloc
aryngeal
ejun
▁astrocy
▁uncontrolled
▁behavioral
1)
▁sulph
▁diagnos
mortality
▁problematic
▁encour
▁CSF
▁proximal
▁trials
▁belie
▁indication
▁homology
▁VLBW
▁appropriately
▁infusions
▁stimulus
▁pter
▁AMI
▁sustaining
▁minimize
▁strategies
thal
▁anastomotic
▁preterm
DNA
▁thorac
ospor
anese
▁unco
▁intestinal
▁insult
romes
endri
lesion
.2%)
responding
inj
▁kDa
onuclear
8-
▁17
tional
▁withdrawal
▁identifying
▁pancreatic
▁arth
facial
97
▁plasmid
▁strep
▁trophob
neal
▁cardi
▁Excessive
▁inev
▁199
▁15%
▁metabolism
▁enrol
semb
▁cerv
▁lamina
▁elic
▁preparations
▁erythrocytes
▁nitrogen
▁unaffected
vasive
lym
▁suppression
▁kidney
▁designing
luores
▁Accordingly
▁traum
▁overestimated
▁renin
-9,
kephal
▁curative
Mu
ensitization
▁BP
cephal
▁scin
fentanyl
▁absorb
itoneum
▁myocardial
ymp
xide
icine
▁anatomic
▁extracellular
▁responsiveness
▁broader
sy
olic
▁biases
▁GnRH
▁radiolab
▁rejection
▁ratios
▁phosphor
ficial
▁PCOS
▁prospective
sions
TG
▁lept
▁intraoperative
▁GV
▁avoiding
bic
▁participate
▁rheum
▁clearance
Nase
▁underwent
eclampsia
orrhagic
▁feasibility
▁DN
▁pedigree
▁tric
tral
▁lithotripsy
▁tympanic
▁portions
echan
▁mumol
lore
▁inadequate
ostatin
▁elucidate
76
8.
atid
▁masked
iatric
oprec
▁30
▁specialist
▁systematic
ussion
▁regulation
▁peroxidase
▁hippocampus
▁adherence
illary
.3%
▁characterize
▁detectable
▁seroton
▁financ
mation
▁ascertainment
ensi
▁latency
▁infarction
▁thigh
icide
▁gangl
Ka
tin
▁stimulates
▁exogenous
▁etiology
▁300
▁Increas
▁BAL
▁Systolic
oderm
sian
▁cohorts
ercise
▁degradation
▁efficacy
ertion
mia
-17
RH
ught
ervations
rief
▁mobility
▁3,
oplast
▁initiation
odial
▁considerably
▁carcin
▁creatine
utroph
ascular
▁advised
▁adren
▁lymphoid
▁facilit
▁attenuated
enic
▁restor
reness
▁suspicious
▁amo
▁aort
▁biochemistry
▁trauma
iotic
▁quin
asone
mobil
▁unrel
eptin
▁atrophy
▁inpatient
3%)
▁laboratories
▁eyel
emory
▁favorable
onance
reement
▁manufacturers
▁phenotype
▁poin
▁cure
▁agonists
methyl
▁hemorrhage
000
associated
▁acetab
▁fibrin
▁strain
70
oxide
-60
graftment
▁transurethral
▁perox
▁deformities
▁atresia
▁irradi
▁intrag
▁hemodialysis
alp
▁GM
▁PRL
▁fibrob
▁probes
▁reac
▁produc
3,
athy
▁routinely
erin
▁(20
▁mucos
▁residues
▁MRC
▁Comparison
▁pharmacists
▁FDG
▁lactate
▁66
▁manu
▁alve
▁referrals
-10
▁0
2),
▁questionnai
▁atheros
▁acetabular
IU
ymptom
▁stimulatory
overall
▁inhibitory
▁infect
▁trache
matched
▁0.001)
▁6,
▁influx
▁500
▁herpes
avage
▁suppres
▁cathe
▁striated
ustif
▁Doppler
regulation
erine
▁gallst
▁screw
othermic
▁0.6
cAMP
▁haemorrhages
oxif
nucle
▁SLE
▁thym
▁GTP
▁absorption
▁satur
▁atherosclerosis
monstr
▁tidal
ampl
diagn
inally
▁Routine
4%
feren
▁characterized
▁inges
idis
ocellular
▁cuff
▁rigor
▁31
▁struc
▁nonadherent
▁assessing
▁fron
GU
▁proteoglyc
▁(4
responder
▁calmodulin
▁Continu
hig
terminal
tolerated
▁pregn
mitter
▁Vac
ocar
herent
rying
▁mitochondria
natal
▁wound
▁determination
▁bladder
▁describ
▁atropine
▁renal
▁caudal
▁inhibin
▁1000
▁microbiological
▁referral
▁carcinoma
▁TA
achid
▁exhibit
▁laparo
▁hepatocytes
▁vaccination
severe
onucle
▁immuno
ignant
▁MV
▁infections
▁ganglia
▁18
▁Serum
▁nerves
▁challenges
▁pancreatitis
MG
tradiol
▁(0.
▁exchan
▁THA
▁physically
▁microscopic
▁sedentary
▁transpor
▁correlations
▁appropriateness
tension
▁60
especially
omotor
reported
▁quantitative
ivation
duce
luded
)2
▁receptors
▁supple
sively
▁deletion
atical
▁ranged
▁attrib
▁awareness
enhanced
▁verapamil
▁1)
oxic
▁syndrome
▁0.05),
▁ascertain
onary
ortal
SAP
▁phospholipid
▁discriminative
opathological
itoneal
▁43
▁allergic
ologists
leukin
▁predictive
▁disrupt
▁dehydrogenase
▁expenditures
cardi
▁diabe
ewish
▁hypers
▁collateral
othel
▁PKC
gluc
▁modest
▁inequ
▁immig
67
ropine
2+]
▁anat
tage
▁SDS
.4%
▁Afric
▁blot
▁hypox
▁metoclopramide
▁staging
ateral
tron
▁benz
alact
▁IUD
▁differed
▁reproduc
ections
FH
▁oxygen
▁regulated
▁multifactorial
iplin
▁incubation
▁hydrolysis
coun
ulates
▁lesion
▁approx
▁melanoma
▁depar
▁insufficient
▁prophylaxis
▁Dil
▁retina
acting
▁interacted
▁gallbladder
▁vulnerable
entanyl
clinical
14
▁ration
▁hydrogen
iably
oplasmic
omedullary
▁pathway
▁(14
▁postoperative
▁microc
▁reveals
▁Cells
▁contral
▁Preoperative
▁inclusive
▁endogenous
▁TAA
▁CABG
OA
▁LH
▁discusses
▁newborn
▁anesthetized
▁appreciably
▁biological
▁exis
▁mediated
▁conceptual
▁contamin
3)
▁Engl
ventive
▁70
▁adverse
▁lumen
thyl
▁murine
fused
▁Whereas
▁rigidity
▁variability
▁tissues
urred
fos
tile
▁20%
asal
hering
▁administered
oprote
▁suspic
0-
▁laparoscopic
vival
▁pneum
aced
-30
▁20-
▁80
▁integrating
odialysis
-3
▁synaptic
▁HM
▁modulate
itally
32
▁serum
opram
tected
ighted
▁polymerase
▁deform
▁ischemia
▁discrimin
▁mim
▁AGA
TK
▁inadequ
▁OCD
▁adhere
▁PET
atectomy
▁sour
▁intravenously
▁desirable
▁valve
otent
inely
iciently
osome
▁therapist
▁-0.5
▁NP
▁bronchial
CRP
▁intake
robic
▁ICM
▁cyclosporine
▁5'
▁plex
▁gait
ameter
iminary
▁adjustment
opi
▁mammography
▁leukocytes
▁ALT
▁stellate
▁hernia
▁implantable
lapping
▁surrog
▁sebaceous
▁aiming
SAH
▁implant
otassium
▁cholesterol
▁attending
▁spontaneously
yloid
▁reveal
▁vitamins
▁metastasis
▁soy
▁Surgical
▁mum
▁ventral
▁preferably
▁Mothers
▁immunity
lec
iaz
alues
▁dental
ostomy
▁cytotoxicity
▁Ultrasound
▁vaccine
obacter
125
iferol
aemia
mitted
▁tubes
▁(8
▁depletion
inusoidal
7.
responders
edle
▁autologous
▁enzymatic
▁myocardium
KA
trum
▁equilibr
▁prolactin
▁fragility
▁ana
▁Pretreatment
lymph
▁uncomplicated
▁interleukin
▁complications
▁40
▁nitro
▁putative
▁debr
-20
▁wash
uptake
whe
▁UV
▁radiological
6-
ylation
▁analys
▁panc
bodies
▁guan
▁thyro
▁distinctly
utaneous
tice
▁hap
▁conclusions
▁pS
▁aerob
invasive
▁radiotherapy
▁pregnant
clin
▁versa
▁overex
▁(16
▁analysed
▁analyzed
▁implications
▁cholecystectomy
ibi
▁urine
▁peripheral
labelled
12
lycer
▁inositol
urea
▁mandatory
▁needles
deficient
▁(30
▁mutant
▁episodic
atrial
▁deficiencies
▁correlated
▁adhe
▁follicles
▁endothelin
cence
yroid
unar
▁acetate
tro
▁respondents
▁deterior
arate
TN
▁thickening
▁preferences
▁hormone
HG
oleic
maximal
flux
aints
▁GF
sequent
▁projec
▁discontinu
ysm
elfare
▁kinetics
▁scaled
▁gaps
▁stret
▁BPs
SCE
▁graft
sorption
▁Twenty
▁challen
▁adjunct
labeled
6)
▁retention
▁HLA
▁mg
glut
▁tamoxifen
▁11,
▁kidne
▁vein
adherent
ectable
4+
6.
▁overl
▁5.
▁smo
olec
▁36
▁pump
▁hemorrhagic
prepared
diagnosed
▁reliably
▁ramus
▁emissions
arental
▁medication
opha
▁deposition
▁extracts
1-2
taken
▁reflecting
scherichia
▁Chest
usp
osocial
▁12
vices
▁calcified
pyr
▁achievement
▁gout
▁procedural
▁HDL
▁stren
▁analogues
▁optic
▁translocation
▁afferent
▁scl
▁pleomorphic
umulative
▁contrac
ellular
▁uremia
▁worsened
olgi
pT
▁coex
illation
▁intraven
▁arti
▁herp
▁ossification
fat
otroph
▁accumulated
▁excretion
affec
▁pathologists
▁ovari
▁resis
loon
▁ageing
otone
mg
▁mutants
▁0.9
odynam
uin
idity
▁reconstruction
siveness
ichia
▁cerebrovascular
vate
4-
▁FHR
▁clinics
▁nM
ylate
omical
▁fatalities
rogen
▁0-1
▁practitioners
▁gradi
tein
▁0.7
▁amputation
▁deem
▁polymer
▁testis
▁surviv
▁56
usal
▁inclined
linic
▁endocrine
linolenic
▁Impro
▁fmol
tomy
▁demographic
▁focal
▁echocardi
▁sore
▁biop
WB
▁aggravation
▁selectively
oplasty
▁MCP
▁institutional
▁lax
▁causation
noise
▁mucosal
plantation
▁adenylate
irrhotic
%),
▁unex
▁hep
▁vasopressin
▁fractures
▁pall
nthe
▁hypothalamus
▁intact
▁challenging
chondral
▁Acute
▁thi
Cer
oung
▁72
▁tachyc
▁reversible
employ
▁influences
▁accurately
▁lamin
▁substrate
ophageal
▁Eff
▁phosphorylation
kground
▁synthetic
▁400
▁inversely
▁mechanisms
▁glyc
▁hybrid
▁estrogen
▁7.8%
▁pharm
▁myosin
anded
▁pmol
▁detec
▁oral
erally
▁calcification
▁malignant
icin
anthine
-16
▁Considering
tages
▁findings
inhib
lox
tect
▁endot
ocytosis
gely
LV
▁elong
inated
atories
amethasone
mend
▁200
opressin
aturation
▁inducing
▁pigmented
riched
+,
▁linkages
▁meal
▁localization
▁tyrosine
tak
▁Kup
78
occal
FV
▁indications
▁moderate
▁nodules
-67
▁PGE
degree
▁pelvic
treated
▁expertise
▁implantation
▁horm
▁modality
▁encouraged
▁.0
▁neonatal
▁interstitial
▁interpersonal
▁injected
▁unm
▁cumulative
▁ACE
▁technologies
▁enti
▁acad
▁homogeneity
rates
▁recessive
tural
▁shallow
▁mammary
▁syndromes
▁micromet
▁epidemi
▁diagnostic
▁oste
parative
▁hypothyroidism
▁nuclei
pig
▁endarte
oxone
Ds
▁perin
ochemical
▁antic
▁competi
▁atmospheric
ulose
▁labeled
▁uptake
▁Previous
▁facial
▁APC
▁prosthe
▁arterial
▁Operative
▁vagin
lusion
incidence
▁enl
▁induc
▁subunit
▁phospholipids
clim
▁consensus
▁dentists
rox
▁NPC
▁wt
▁FH
sial
▁tow
rine
oradi
enon
▁incubated
▁spermat
▁adolescence
ocular
TU
▁therapeutic
▁diminished
scopy
otting
▁decisive
ifedipine
▁phorbol
▁individualized
itr
▁reductase
ognition
▁Weight
▁Contr
forcement
▁96
▁metabolite
▁mothers
▁progen
▁chest
▁intramedullary
epine
▁carbohyd
inergic
ancies
▁rheumatoid
teroid
.0
▁triglycer
yses
ocul
atment
▁anion
embran
▁intrap
▁audit
▁umb
▁cellular
▁abnormalities
▁disability
orbol
▁fibrinogen
▁emerg
▁HAM
▁ensured
▁intrauterine
▁unexplained
▁viruses
▁esophageal
▁normalized
21
ulph
▁intram
▁PT
oA
▁sero
▁mec
otoxin
▁Certain
ithm
nisone
eak
▁fluores
amino
erum
▁Cyt
▁choline
▁clinicians
▁periodontal
▁subcutaneous
▁thickness
▁MI
▁cavity
▁coel
omal
▁barriers
herence
/3
minal
▁illustrates
▁microvascular
▁secretory
▁biosynthe
▁Compared
▁proteins
▁chains
▁(2)
▁interv
▁stimul
peri
▁implanted
married
▁adenosine
▁ETA
hesis
▁sten
▁arter
▁inflammatory
▁IH
▁lipoproteins
ocl
▁IBS
▁hemo
▁HB
▁Continued
▁suppressor
edullary
lep
▁immunological
▁unrelated
▁groin
opsy
olon
oves
▁anticoag
▁decreas
▁poorest
▁discon
RB
▁induces
▁cholest
▁abdominal
▁epit
▁FSH
▁aging
▁steroids
▁illness
illus
▁follicular
▁lobe
▁surge
ipolar
ventricular
ocked
▁splenectomy
35
sies
iasis
▁detachment
▁spont
▁ery
▁muta
ometh
▁peripher
delayed
▁researchers
astom
▁vascular
▁Removal
▁metastases
▁infiltrative
ditions
▁recons
onography
trative
▁cros
▁provid
▁proliferative
7)
▁diame
▁epithelium
▁seiz
ranolol
trast
▁1.8
▁degeneration
sors
phosphon
▁conservatively
gastric
lated
▁investigations
CBF
evaluated
▁peris
▁pH
iatum
▁motility
pendent
▁toxin
weighted
▁mineral
▁Trial
▁cigarettes
▁responded
▁cereb
▁tas
▁23
ompan
.6
▁polypeptides
▁presenting
▁toxicity
hea
80
▁prono
▁EGF
▁Tumor
helial
roxim
▁fatality
▁PCO
▁discom
greater
9%
ithms
▁Adverse
▁feeding
▁Severe
sych
▁Improved
▁supervision
▁reposition
▁SHR
▁soybean
53
pap
omized
ifug
▁GI
atient
angli
▁sliding
▁stu
▁kidneys
▁previ
genes
ohyd
▁lesions
ineph
turb
▁placental
▁unilateral
▁potent
▁adrenal
▁Elderly
▁crest
50
affected
amination
cine
▁compartments
tensin
▁manipulations
▁lymph
▁propranolol
tumor
GH
▁enzym
▁IgE
▁mRNA
obl
▁usefulness
▁ascertained
▁lipoprotein
opa
tality
▁mitochondrial
▁rhy
▁synov
▁resection
▁acco
▁coincidence
▁cDNA
arbox
uality
rosine
uvate
hyp
▁injur
tens
▁congenitally
▁bile
▁adoles
▁nutr
uccessful
vertebral
▁amput
▁biopsies
5-
▁depress
▁PH
▁conformational
PAP
▁moderately
▁hypertrophy
▁thymus
▁questionnaires
▁vesicles
resses
▁behaviors
▁stom
▁thrombectomy
.4
carcin
▁hyperfiltration
▁vaginal
▁deformity
rength
▁prednisone
plas
▁32
▁orally
▁neoplasm
▁Vitamin
osom
TSP
▁lymphocytes
stant
HU
▁fibr
occus
▁chromat
▁(17
▁thyroidectomy
▁Hg
ACS
▁hig
cretion
.7
▁footprint
lue
▁arom
▁ey
▁elevation
▁harmful
ocarcinoma
azole
▁angi
▁nerve
▁abnormal
adication
tyl
▁surgical
56
▁phosphatase
▁fibroblast
Ba
▁0.1
activated
pite
▁AVP
intestinal
▁determining
▁therapies
▁microsomal
ignificant
osal
▁lymphoma
▁alcoh
▁intraper
▁mice
phth
fed
▁limbs
opathic
ortic
▁tracers
opoietic
▁glycaemic
▁parotid
▁surveillance
▁waist
▁predictors
rins
trop
ectomized
▁cardio
▁immunore
▁haem
▁Dop
eight
▁acupuncture
RF
▁predicts
geons
▁everyday
▁predicting
▁Atropine
▁upstream
▁confined
▁resear
oagulation
oxy
actin
▁adminis
▁deprivation
▁advan
▁0.5
▁evacuation
▁regulate
uscular
▁cardiovascular
▁Greater
-1)
farct
inephrine
▁Wistar
ectomy
amily
▁tended
faction
▁mature
▁0.001),
protective
▁enhancing
rolog
5.
▁newborns
▁correlates
▁86
ceptions
luent
▁subsp
▁hydrophobic
▁appendic
▁emotions
▁Intravenous
▁excit
tured
▁ultrason
▁linole
▁correcting
ophil
▁facilitated
▁vulnerability
▁oes
/100
phenyl
▁47
rants
▁cytos
crib
uterine
▁caregi
Hb
▁axons
▁prevalent
▁MH
▁lec
▁continence
ternational
▁controversial
oscopic
prising
▁Magnetic
versus
▁7.5
▁athle
nitro
▁addi
▁Excess
▁ADH
ffinity
▁assessment
▁anae
▁glucose
▁NH
▁90
▁wk
NM
▁homogeneous
ication
2)
▁carb
▁spinal
▁objec
ective
▁excre
▁cortic
▁1.9
▁Neurop
▁100%
▁phagocytic
▁Progression
tabol
ffin
▁HCM
▁sham
▁medicines
▁prevented
▁ions
▁Significant
▁10-
▁Meas
▁Swed
osynthe
▁muscle
oplasm
▁stimuli
▁inhibitors
functional
▁labial
▁BM
▁interferon
▁idi
▁metabolites
ognitive
tially
▁salivary
nai
▁plasma
gments
▁44
▁uneventful
ycin
▁decisions
arent
8)
threatening
tact
▁provocation
▁neoadjuvant
▁drin
gesia
economic
▁HPV
tase
▁tubercul
▁linoleic
▁reperfusion
▁ward
▁resting
▁justified
▁prophylactic
▁0.001).
▁apical
▁abuse
tisol
▁epidermal
▁19%
ressed
▁tubular
▁consolidation
arthritis
1,
▁colony
▁enucleation
▁adenocarcin
epit
tation
▁reflux
rease
▁inclin
nowled
lastic
▁ocul
VL
▁intrav
icit
-3-
mented
▁conserved
/6
▁lob
▁collagen
increased
platin
perfusion
ifugation
ications
▁ventricular
▁nig
▁knife
▁glial
erad
▁120
totic
▁TK
▁phag
▁sti
ropriate
▁trend
▁3.
▁suspension
▁enhanced
▁noncom
mental
immuno
esthe
▁unexpl
▁decades
oids
▁30%
▁cG
▁CTL
▁glands
▁contributes
ubation
▁NADP
▁OC
▁ECG
▁entero
▁1
.6%
ologous
▁54
▁predominant
▁relapse
▁adrenergic
▁24-
48
▁alkaline
▁neurop
88
seud
▁systemic
▁substantially
▁circumferential
▁acids
inositol
▁surgeons
.8%
▁prolif
otomies
▁(3
ylchol
olol
omerular
rogenic
▁modestly
▁recess
▁preoperative
▁displ
ograms
omycin
oes
urate
2).
thymidine
▁bowel
▁contributory
▁intest
▁85%
450
▁physicians
▁Failure
▁electrophoresis
imination
▁natri
▁3)
▁injec
▁inactivation
▁Prospective
▁RAR
▁acet
▁suggestive
▁adjusted
▁ethanol
rotein
chond
▁hyperp
NH
mutant
▁scanning
▁fulf
SCC
▁TGF
ilical
VH
▁coag
▁Dopamine
▁stimulate
ardless
esic
▁follic
▁pigs
▁altered
elec
▁untreated
▁Hb
▁respiratory
▁diagnosis
7,
▁phenomenon
trac
▁contractions
unts
▁Analy
▁hetero
urc
etus
▁HU
ocortic
▁biosynthesis
sus
DH
▁persisted
▁patella
▁Eight
dose
▁receptor
▁cef
▁reactions
▁infection
▁0.000
hist
▁heparin
▁severely
tric
▁congenital
-4
▁endotoxin
isqu
▁reproducibility
fine
▁LD
itively
▁hepar
▁4.
▁Immun
▁49
aem
activation
▁isolates
ylase
▁abolishes
▁outpatient
ritish
iferation
arge
▁0.01)
▁autoimmune
opam
17
orin
▁unde
atched
anic
infarct
encephal
▁advancement
tical
▁conclusive
▁establishing
▁(19
▁EMS
▁fold
▁epileptic
▁dosing
rophob
▁explored
▁13
lobulin
titial
siological
accharides
renol
▁sugges
ocial
▁prescribing
chlor
▁LDL
▁relied
trexone
filtration
▁substitu
▁Physicians
▁diffuse
▁lobectomy
onate
▁42
erated
▁solely
ecre
▁maturation
▁virtually
ostic
▁aden
▁hypothe
▁consol
▁consequent
lasts
lux
▁activator
▁RNA
APC
inatal
▁bacter
ymptomatic
▁immune
▁counteract
minis
mig
▁constr
▁consistently
leu
▁isoform
ayers
lysis
▁tobacco
iotensin
▁tension
▁immunos
▁cholinergic
▁drain
KI
90
onstric
▁currents
▁eluc
entric
▁10(6)
▁bedside
▁activated
galact
▁preventive
▁enhancement
▁alcohol
▁99
▁tertiary
▁chemotherapy
▁enrolled
odynamic
▁turnover
▁62
cores
ducible
▁HCMV
tussis
cepti
carb
nRH
▁osteoporosis
sive
▁0.05)
▁ouabain
▁synthesis
olum
▁diffic
▁prel
▁plasminogen
▁reversed
▁implicate
▁parame
iant
▁pathways
▁recurrence
BV
▁seventh
▁intrac
ogeneic
▁LVH
achol
▁RBC
▁genetic
▁beneficial
hers
▁shig
▁infar
▁neuro
owever
tingu
isol
umulation
erating
obarbital
▁ane
▁intracellular
truc
unctions
entricular
erent
▁immunodef
His
uated
ologically
▁undertaken
ept
atine
▁DSM
▁disruption
▁Patient
▁obesity
omes
▁tumor
▁mononuclear
ipitation
▁chole
ovascular
-6-
75
inol
▁immunization
▁GFR
▁employing
▁arginine
rotid
▁progestin
▁autoradi
▁leukocyte
▁divertic
▁investigated
▁34
28
▁lymphadenectomy
▁cyclase
▁affects
▁vitamin
▁anaesthe
▁providers
▁sexes
othelial
▁ruptures
tran
▁lith
▁197
▁gallstones
▁neuronal
▁eradication
▁electrocardi
▁AVR
▁4-
▁PEG
guided
rectal
▁iso
▁hemat
▁comparable
vals
roup
▁cartil
▁DF
wenty
▁undergo
isture
▁0.01
24
▁eti
▁poten
rehen
▁treatments
▁mono
epam
▁VC
tration
▁unc
chol
ronchial
▁lateral
▁ips
▁naltrexone
▁infectious
▁nurse
1-3
ilateral
▁virtu
▁labelled
oping
▁norepinephrine
▁adhesions
▁demonstrating
▁10(-5)
ifferen
Tc
▁burden
▁tumours
oxin
anol
▁anesthe
echanical
inic
▁pene
rC
▁sclerosis
▁biochemical
▁SB
▁maintaining
▁airway
▁meals
▁Improvement
▁perception
▁improving
9-
▁superoxide
uron
▁resonance
▁hepatitis
▁biopsy
ogens
rological
▁carrier
▁saliv
▁Estrogen
▁nomenclature
▁BD
earing
▁elderly
overed
▁epi
▁BALB
▁compressed
itus
CGP
▁rati
ocamp
▁ventilatory
estern
▁restorative
▁70%
▁Plasma
▁aneurysm
▁suprap
▁autoxidation
resistant
pinephrine
ectom
▁progression
glucose
▁gyn
▁pig
▁oxidase
▁iatrogenic
▁4)
▁myelin
▁complexes
▁warranted
IgM
▁yeast
▁molecular
▁regimen
11
▁NT
▁percutaneous
osterone
▁ppm
ecyl
▁DG
8+
icated
▁normotensive
▁tracer
rection
urethral
▁cervix
▁synovial
▁mandibular
▁endoscopy
▁resusc
itic
▁ech
▁rese
toph
▁suicide
▁lis
▁Tran
▁esophag
icacy
▁hypot
▁(54
▁(13
▁facilitate
▁accumulation
▁0.03
▁electr
▁soluble
▁cysteine
phic
▁dele
▁aor
▁cannulae
▁organs
▁influenza
phos
▁perinatal
▁adjustments
ovirus
▁noradrenaline
▁(10(
gents
IH
ologic
▁cyclic
▁natriuretic
▁silicone
▁sulfate
▁HA
▁moles
lobin
▁membran
ilized
▁catheter
opamine
▁streptococci
stimulated
▁laparotomy
▁resec
▁phosphorylated
▁placebo
▁ventricle
▁intervention
▁empirically
olone
jun
▁weigh
dents
titu
▁ammon
▁conformation
▁fati
▁microscopy
▁intrinsic
opulation
▁sustained
▁5-
▁monitored
▁ortho
▁amines
▁2,
▁systematically
▁inadvertent
▁lipids
amycin
▁assurance
ometrial
▁canine
▁MEP
▁smoking
anish
▁chl
▁caregivers
▁passive
aceous
▁Chronic
▁Denmark
▁substanti
▁hippocamp
▁rotated
▁arrhythmias
▁mV
erts
15
ipar
▁pulse
ergy
▁opi
▁clon
▁affecting
▁discontinued
▁creatinine
▁KCl
modulin
▁homogen
▁infants
esity
▁directional
valence
assay
▁atmosp
obic
Tn
▁suturing
▁brady
riend
▁gonad
oceptor
▁uncover
tead
▁hippocampal
ctive
▁breathing
▁8
adiol
▁GPs
itone
▁postmenopausal
▁mucosa
▁promo
▁fulfill
▁decline
▁TSH
▁precipit
▁lute
▁widening
umerous
▁cephal
▁preven
▁CAM
MH
▁Therapeutic
▁derange
utin
opausal
▁comparative
ensitivity
idine
+/
▁resistant
43
/1
ocele
▁8-
▁overe
▁cited
▁rabbits
ustment
▁catalytic
adrenergic
ths
▁viral
Cu
▁strains
▁hospitalization
▁mAb
▁PE
▁microM
operatively
▁fentanyl
▁elimination
atisfaction
4)
verages
kine
▁depres
▁hyperg
7%
57
▁carbohydrate
▁delivering
risk
dial
▁sulfonyl
▁sarc
▁carcinomas
▁atr
▁thresholds
▁spine
▁physiological
▁endothelial
▁APTT
▁ile
▁poverty
romed
▁silic
▁contralateral
▁19-9
▁prognostic
WL
▁2.5
rested
quine
genic
▁nons
▁(15
▁assessed
▁subjec
▁scoliosis
▁utilized
Gl
otype
▁femur
discharge
benz
▁tris
matic
▁Golgi
▁underst
▁cognitive
▁Vaccin
▁prognosis
▁warrants
▁childhood
▁theore
▁artery
3.
▁docum
3-
sia
duc
aptic
▁substituted
▁indi
▁tympan
▁cann
▁ETS
▁vasomotor
▁MAP
▁contractile
tiz
▁sequentially
opres
▁insulin
drome
▁3.5
▁hipp
▁kerat
xual
orectal
EA
▁psychiatric
▁muscul
▁distinguishing
trate
▁injections
itance
▁2-
▁deemed
olus
tif
▁58
▁sensitivity
▁debridement
▁accounted
▁favourable
▁transcription
▁HMO
▁macrophage
-6
odies
▁efflux
▁membrane
▁respec
▁peritoneal
▁chemot
▁Large
centr
▁subun
CAM
▁immunisation
lected
▁striatum
▁15
.1
-1,
▁followup
▁VP
▁epitope
phil
istically
▁multiv
▁(4)
BW
itro
▁thyroid
▁hormones
hern
▁colonization
▁livers
▁Stroke
▁vivo
▁neo
▁staining
▁sciatic
mentation
affinity
▁effector
HB
▁endothelium
▁knee
▁normo
▁highlights
▁purified
ministration
▁atrial
▁vagal
▁hazard
▁hygi
vaginal
▁75
▁interventions
aminergic
arer
▁CCK
razole
▁irrit
hei
▁gon
▁PB
▁embry
▁inserts
▁connective
CSF
▁hypothal
▁radiographic
▁cancell
▁saturation
▁readings
-19
▁vacu
▁plac
▁microm
AO
▁nal
▁mell
▁abortion
vein
▁judged
▁ultim
ATPase
tus
▁hern
▁rele
▁behavi
▁sampl
ogra
▁nutritional
regn
▁7,
▁80%
▁hospitalized
lact
ronectin
idney
▁socio
▁RS
▁vag
▁ambulatory
▁reproducible
ifferenti
▁inherent
▁micrograms
▁hCG
▁systolic
▁macrophages
▁uncommon
chym
▁circulating
▁chan
▁kappa
▁adhesion
onor
▁strom
▁pathogenesis
ovine
acyl
▁fetuses
sulf
▁prevalences
thrombin
terone
▁transcrip
▁depolarization
▁diagnoses
▁chloro
▁initiating
RM
▁AE
▁lesser
estim
1),
▁iliac
▁monkeys
▁visually
angl
▁musc
tabl
ystolic
▁irradiated
▁homogene
▁1.5
▁umbilical
CoA
▁disorders
gans
▁protoc
▁morphologic
▁histologic
mittent
▁endoc
cad
16
uncture
▁examin
omatic
ivary
▁merit
tition
▁doctors
▁GH
▁depr
▁nursing
▁discomfort
tate
▁acute
▁palp
0.
▁nucleotides
undibular
idem
▁ultr
▁bovine
▁psychological
▁discordant
abain
▁Medicare
ocyt
▁pharmac
▁sensory
▁paras
cessive
▁hypoxic
requ
ochrome
ochlear
▁Intra
▁Hep
KD
SPECT
▁clones
▁deficient
▁depolar
estis
ditional
▁splic
oracic
▁merits
▁intragastric
▁infil
▁basal
rowth
▁38
▁nifedipine
▁85
▁selective
▁sensi
kinin
▁tube
▁emphasizes
▁preferen
trition
▁Tumour
▁enzyme
▁inhibits
veolar
mediately
▁inad
▁(0.5
▁EEG
▁ET
▁averaged
rals
▁pyr
ilibr
▁Biochemical
▁antiser
▁nulliparous
▁erosive
otyp
▁mediate
umbar
▁retur
▁lumb
olution
▁statis
▁MT
▁conduc
loride
▁inapp
olute
.9%
yel
▁ASA
HM
▁1.7
▁irritation
▁pate
tinu
▁antec
19-9
▁quanti
▁PTH
▁radioimmuno
▁inducer
ubted
tam
lytic
▁deficit
▁(198
joy
▁solub
0%)
▁minerals
▁eryth
▁inward
▁evac
▁activate
hyd
▁endemic
▁Mg
▁Trials
▁protease
▁modif
▁geriatric
▁sickness
▁blockade
▁patellar
▁SEM
▁diabetes
▁glucagon
▁calves
▁augmented
ignific
▁27
▁modulation
▁cue
▁scre
▁distal
▁cesarean
▁unaware
▁monounsaturated
vant
▁PID
ochondr
ondr
orts
acetate
▁mammalian
ylated
▁Concomitant
▁uncovered
▁spleen
▁GVHD
▁tissue
▁pulp
sis
7-
▁DT
▁Muc
▁cytotox
helium
2%
/10
erican
▁pathologically
▁analyses
▁spectra
▁PD
▁reas
▁abundant
▁technically
▁(100
▁pregnancy
placement
ivoc
▁cows
▁workload
▁irrever
iability
▁Emergency
▁buccal
▁instr
orative
▁impacts
▁canc
atible
osomal
physiological
CCT
▁metformin
▁antagonists
▁polyp
stress
▁projections
erox
▁epid
opic
zole
▁electroph
▁necrosis
▁pregnancies
▁10,
▁requi
▁diabetic
rous
▁colorectal
ifol
▁glycos
▁PCT
▁immunohist
▁encourage
▁inactive
▁impairment
▁surf
bly
-15
▁Surgery
partate
▁evolving
okinetics
▁(18
accharide
▁diets
▁gad
fected
ococcus
resist
▁recor
ulae
▁relaxation
▁microtub
▁ventil
▁Alternative
▁pelvis
▁dye
▁endoscop
iciencies
▁cAMP
▁oxidation
▁identifies
ials
went
atinine
▁monocytes
▁atm
▁tach
▁Throm
▁chromosomes
▁intrarenal
▁targe
▁residual
opia
▁Pregn
+)-
approximately
ectin
▁complic
tivity
▁athletes
glum
tivation
acial
geal
▁pulmonary
acin
▁synthase
▁superv
▁ventilation
▁[125
▁repl
toc
▁IBD
diol
▁dose
▁opioid
▁pyl
▁surrogate
▁Phe
▁indeterminate
▁transloc
▁differentiated
operative
▁arteri
8%
ocardial
▁recipients
▁examination
▁inspection
▁sulf
ophag
▁BMP
▁adequate
▁overd
olip
roscop
49
orest
▁incorporation
▁morbid
▁pharmacy
▁remin
thma
▁reflec
▁dendritic
otropin
trex
▁melan
▁deficits
▁rabbit
▁CSA
genesis
▁lymphocyte
▁polyethylene
▁cataly
▁guided
▁100
uretic
effec
▁methyl
▁suppressing
▁reag
legia
▁10.
▁prostaglandin
tec
otide
▁immunoglobulin
▁ACh
▁subf
gulation
▁squamous
▁cytoplasm
▁+/-
bladder
bacco
▁HC
oskeletal
▁clipping
▁unil
roin
▁backs
itary
▁progesterone
▁modulates
▁improves
tophan
spective
▁hamster
▁40%,
▁cancers
ellar
▁suscepti
▁grading
▁misleading
-2
▁glutathione
▁immunofluores
aning
▁chec
▁adop
▁screening
▁glycogen
▁coeff
▁diluted
▁intramuscular
▁aortic
▁coexist
toxin
▁needle
▁hypog
▁tendency
▁surveys
▁adjuvant
erations
▁overlapping
▁dodecyl
▁enlarged
▁somat
22
▁paradigm
anin
▁symptom
▁ket
oxygen
▁degrad
▁exo
osomes
atoid
▁allerg
injured
▁plasm
ondral
▁endometr
▁cytotoxic
ximum
▁practically
mTc
oxidation
▁localized
econd
▁diagnose
▁superficial
2+.
uvant
▁innerv
asive
▁3
ucine
incip
chers
▁axon
lys
▁PRP
heric
tib
▁drugs
ocrine
▁53
▁isot
-1.
▁maternal
▁ligands
▁pathological
▁dissection
▁0.00
ecal
▁allevi
▁gly
▁ruptured
ximal
▁phagocy
4.
AIDS
▁nmol
erative
peptide
▁histamine
▁inver
▁dys
▁UT
▁lungs
▁callus
▁chori
ameters
mediated
EGF
crip
▁junction
▁mitral
containing
erate
thase
ohy
▁conduction
▁steroidal
Vi
▁AI
▁45
-0.5
5,
▁adap
▁donor
▁epitopes
60
▁polymorphism
▁emotional
eptides
fron
▁warr
▁ischemic
▁intervertebral
▁GSH
▁impacted
▁edema
piratory
▁concentrate
▁atres
▁reactive
▁carbox
▁pacing
▁24
▁cerebral
▁emergency
▁chloroquine
hop
▁isolation
versely
▁68
▁prostagland
▁dors
trin
▁hypothalamic
▁wors
essential
ucleation
▁PCR
▁oligo
▁16
alc
▁viable
▁agonist
▁malle
ameth
▁conclu
▁oesophagitis
▁homologous
▁Lys
84
aid
▁UL
▁ANF
▁resected
▁dilated
omiting
ocytic
▁metast
effectiveness
ituitary
▁introduces
glutin
▁(2
omain
▁Tes
▁catheterisation
▁endos
-14
▁detrimental
▁48
ostal
ographically
▁drops
▁neutrophilic
▁desm
▁androgen
orax
▁potentials
▁shif
▁retic
▁asymptomatic
bility
alsy
▁gastro
opes
▁Alcohol
▁abl
▁tes
▁sinus
▁Steady
ercul
▁unselected
▁anticipated
▁calcium
▁clinically
▁GBS
▁demands
▁moist
tiv
▁colonoscopy
▁cultured
▁compound
Ly
▁proposes
acil
▁1,25
▁thromboembolic
▁prenatal
▁compli
ffs
stro
▁hepat
▁mutations
ograp
▁immigrants
▁assayed
▁contex
▁1.6%
▁arteries
▁(12
lowering
▁rigorous
▁disulf
▁bilateral
▁examinations
▁babies
acetyl
feron
▁respon
▁BS
0%,
▁repor
▁synerg
▁fixation
ancre
encl
▁discus
▁astro
▁temperatures
ducts
▁cigaret
▁prostates
▁clinical
▁59
ece
▁compartment
▁predictor
▁estimating
▁confound
▁trophoblastic
▁exacerbations
40
▁fibers
Ta
▁defic
hesive
▁thoracic
▁toxic
ensity
bral
▁keratin
▁buc
▁microsomes
▁morb
AH
▁deter
▁41
▁Roux
osyl
▁4,
▁promin
oidal
ollicular
orepinephrine
mol
▁infused
▁pylori
▁dietary
▁decreases
▁granule
▁geniculate
▁medulla
▁severity
▁coronal
▁bp
▁uninjured
▁phe
ulin
rhy
ingle
▁ongoing
▁illicit
▁possi
▁depressive
▁fetal
▁ure
▁0.0
lasses
loid
tituted
▁slic
vul
▁heroin
transfer
▁leakage
▁recombin
erop
tility
▁amino
▁lamb
mixed
▁1.2
▁errone
▁gains
▁occlusal
▁CNS
vation
▁complaining
generation
▁69
▁pediatric
stim
▁perceptions
ritis
▁21-
▁guinea
▁gynecological
▁biom
▁occupational
iciency
radi
▁cation
▁declined
phasic
FG
▁identically
treatment
▁throm
ilated
▁yielded
iary
9,
controlled
Ia
kage
▁thir
ocomp
olysis
▁diversity
tions
▁circulation
▁oxid
▁corneal
▁revealing
▁anticoagulation
mates
▁drinking
valent
▁neutrophils
▁pulmon
omers
otomy
athyroid
▁VD
▁postnatal
▁complementary
▁obstruction
▁polyclonal
▁comprehen
birth
odal
▁29
omod
acement
▁(0.1
▁likelihood
eration
▁abilities
▁14
▁wrist
▁PCP
▁incorporated
▁tetr
ygous
▁risks
gain
▁deficiency
▁microns
▁multicenter
gement
▁paradig
▁concordance
▁acidic
▁Experim
▁cues
▁unstable
▁HL
-2-
▁glutamate
monary
▁medial
olved
▁peaks
▁hydrox
▁onc
▁beating
ochem
ochondral
reased
others
▁ACL
otypes
vely
▁MHC
aturated
▁Larger
▁inactiv
thym
▁Nine
▁undisturbed
▁occurring
▁availability
▁acetylcholine
oreceptor
LB
▁attenu
saturated
▁serotonin
▁TB
IFN
▁caro
▁tear
▁Thromb
uppres
▁suppor
▁malign
00
entan
▁experim
▁headache
hemia
▁pretreatment
ocytes
▁UF
▁metabolic
taining
▁inhibition
▁subc
▁mug
▁biliary
▁PMN
▁envelop
▁compliance
▁iod
01
▁rats
▁epiderm
▁COS
agic
uation
▁antigen
▁interp
▁osteoporotic
▁preconditioning
▁subjected
▁ae
keletal
▁brom
▁spectroscop
▁Neither
▁behavioural
hyde
▁(+/-
▁socioeconomic
▁racial
▁hemorrh
▁overweight
▁survival
▁encounters
phosphor
▁nec
▁gangrene
▁thrombo
▁kine
▁pylorus
atent
nee
▁angiography
▁influenz
▁tonsil
reated
-9
▁carotid
▁extre
uccess
▁4.5
armac
▁selec
ustained
MRI
▁deple
▁cardiomyopathy
▁phosphatid
▁utilization
▁radiography
▁wee
▁focusing
▁oss
▁Taken
hap
ioid
▁implicated
▁affinity
eptid
▁ganglion
tific
tence
ulmonary
▁morphology
▁phospholip
▁19
▁heterogene
▁nucleus
years
▁ICS
iated
▁intestine
▁leisure
▁withdrawn
▁7.
▁residency
otropic
▁paraventricular
▁exercised
cysteine
▁transrectal
5)
▁disparities
▁derangement
▁pathogen
▁paren
▁10%
▁PAF
▁OSA
olones
▁cats
▁initiated
▁insufficiency
▁transcriptional
eliac
atest
LF
▁complication
plasia
▁immature
▁arachid
ucle
▁25%
unctional
▁tert
▁venti
vements
▁DST
acental
▁specimens
▁vena
▁1987
ocaine
tering
▁Clin
▁65
rotic
▁37
atitis
▁palli
▁mediation
▁NaCl
utyr
versal
▁validated
UF
▁duct
▁presumably
▁connec
essment
0,000
brain
illance
▁progressive
▁necro
▁TD
▁platelet
▁nonoperative
pS
▁22
vascular
▁retrospective
ylamide
-4-
alanine
▁increasingly
▁erroneous
▁skeletal
▁reimplantation
▁2
▁ESR
trip
▁juven
▁1988
▁thromboemb
▁adi
▁periodon
▁Tren
▁[14
osyn
▁repaired
▁Sout
ergic
▁Mucosal
▁adaptive
▁5%
▁IHD
▁ketamine
81
uran
▁supplementation
▁enteral
erents
▁comprehension
ithelial
LH
plete
▁consultations
▁digestion
▁indomethacin
nutrition
▁inhibited
aired
▁0.8
oreactive
▁heterogeneous
▁61
olesterol
FU
plants
glycerol
hydro
▁caution
fication
oretical
trol
▁eyelid
tors
▁promising
▁Randomized
▁hygiene
▁susceptible
▁bab
arous
hicle
▁coeliac
▁predominantly
▁supernat
▁conservative
astric
titution
GD
vac
▁pressures
▁hydroly
▁aldosterone
▁venous
▁angioplasty
ronch
▁demonstrates
▁measurable
ailing
▁differentially
▁6
▁unin
nec
eptidase
▁coval
▁spati
▁bleeding
▁promoter
▁tolerated
▁constitutional
▁PI
▁abnormality
tiveness
▁HG
▁leuk
oic
▁surgeon
▁empirical
acted
▁perone
▁diabet
▁Kupffer
itant
acts
▁pulses
elvic
▁rebound
detected
▁fever
adequ
▁satis
▁beverages
▁eliminated
▁FD
▁dex
▁79%
oretic
▁disparate
BK
▁targeted
▁pretreated
▁ablation
▁pediatrics
acid
ycl
▁intravenous
▁hemisphere
rectomy
cored
▁synovitis
12.
▁IA
▁widespread
iological
▁posi
itudinal
▁reactivity
tectable
▁cen
▁(0.0
▁2%
lecting
▁oxidative
fec
ogenesis
ineal
MN
▁Hz
▁inappropriate
ogenic
▁uncom
▁resul
▁uterine
asses
▁21
▁invasive
onin
▁ancestor
▁cirrhotic
▁positioning
▁hormonal
amet
olytic
▁regimens
enzyme
▁genome
hydrox
▁chamb
▁adduc
▁synchronous
▁bip
gland
▁NPH
aventricular
arly
▁molecules
mide
▁comparisons
▁ml
▁probe
54
▁plates
▁mmHg
▁elu
▁Inclusion
▁extrac
▁eosin
▁survived
rk
▁elevated
▁parap
versity
▁equivocal
▁bronch
▁evid
elong
CMV
▁amyl
arity
▁alp
opathy
▁operative
atase
▁underlie
▁depic
▁aneurys
▁limb
oural
▁melatonin
▁mM
▁Findings
▁persis
ophore
▁differen
▁irr
▁plur
ulatory
▁nm
1%
arcin
ticular
▁progn
▁tolerance
▁treating
23
▁bolus
ociated
▁hypertrophied
▁stillbirth
▁PP
▁effec
▁developmental
essive
tur
ching
ocyte
▁(7
▁myel
erus
▁testicular
gth
LN
▁meth
-0
tized
▁OT
ithi
▁tachycardia
tically
▁anemia
▁inh
▁prostate
BG
▁neurolog
▁examined
▁practic
phyloc
ointing
▁mast
▁ovarian
omat
ellosis
▁quantit
ithin
ultural
omies
▁hypo
▁statistically
lateral
▁discern
▁baseline
clonal
▁psychotropic
▁sut
▁mutation
▁trough
▁aureus
▁insurance
arean
NAP
▁anastomosis
adily
gesterone
▁cleavage
VR
▁intermittent
▁undetected
siologic
2.
▁0.4
lective
erper
artum
infected
▁(10
▁ranging
▁isch
atonin
▁morbidity
▁52
glumine
▁functioning
▁stere
▁tumors
▁unchanged
planted
sized
▁acquire
urgical
adrenaline
▁onset
▁peroneal
▁substrates
▁synthe
-8
▁profound
▁carriers
▁Older
▁doses
HN
▁consequently
▁monke
hest
▁extensor
▁50
13
▁vomiting
glyc
onous
▁ald
▁multic
ervative
▁cis
▁deserves
▁PAN
▁unevent
▁stomach
▁heterogeneity
▁eosinophilic
▁gp
▁glut
▁identi
ectasis
▁antiserum
itness
tle
0,
▁shorten
▁recur
plication
▁51
▁synergistic
ration
isure
▁pancre
▁HCC
formin
▁underg
urse
▁TC
immune
▁Clinical
▁Cushing
BM
▁phospholipase
▁proton
▁chorio
▁chronic
▁bipolar
aemic
▁cutaneous
ococcal
▁ultrasonography
▁discrimination
▁zinc
▁(50
osine
▁kinetic
▁ART
▁axillary
▁epinephrine
-7)
▁bypass
tory
▁preservation
▁Adherence
RP
opath
dies
▁volumetric
▁mann
ropriately
tures
▁3'
cold
clerosis
acer
▁construc
moid
▁intra
▁potenti
▁fibres
▁depression
oprotein
entral
estive
hydroxy
▁Tests
▁nurses
▁poisoning
aluation
hydr
▁chlor
▁chewing
▁predomin
▁lysis
▁elicited
iron
▁Additional
▁opportunities
venous
▁inotropic
▁capillary
▁consecu
▁cytosolic
▁dete
Ga
▁concom
orphin
▁2.
▁uniformity
opramide
olism
phyl
▁comprehensive
gene
istal
plo
▁macropha
lix
eces
istar
ixation
▁cortisol
▁RM
oglyc
▁apex
acet
uble
▁donors
▁migrated
ipient
▁pineal
▁conducting
▁dilution
itures
▁titers
▁organisms
grees
▁0.2
▁achie
.8
▁genotype
vail
▁capped
▁bronchi
oxia
▁sensorineural
sts
reactive
▁rotational
▁gland
▁symp
▁fracture
urgically
▁gynec
▁prolonged
transplantation
▁recipient
▁follicle
▁saturated
▁differentiation
stem
▁acyl
ureus
anis
▁recombinant
▁calf
anine
▁postoperatively
ontal
▁packing
▁erythrocyte
▁preparation
▁breasts
▁instrum
▁cytochrome
▁viewing
ipher
▁imaging
▁Effective
▁sple
▁Blockade
▁precursor
rone
▁pine
conc
▁plaque
amn
teric
▁paralle
]-
onatal
.7%
▁adolescent
illic
Ki
oglobulin
▁multim
transferase
▁AGE
▁steroid
ociation
ofluores
▁immun
▁VA
▁transi
▁neph
▁35
tization
▁Recurrence
ionine
▁undetectable
obal
▁pneumonia
▁unre
▁2)
▁shortened
MDA
deoxy
▁hemodynamics
▁compe
▁kinase
▁potassium
▁anomal
▁cava
namic
▁coronary
▁establ
▁recordings
selec
rement
▁-0.
▁cocaine
▁validity
▁retin
▁PV
▁chromosome
▁slowed
▁evoked
osts
▁Phy
▁mL
▁SG
▁SCH
▁metastatic
sar
GF
▁11
sensitive
▁orthopaedic
▁manifestation
ylline
afe
▁controlling
▁12-
▁CRP
▁gluten
▁5,
▁7%
▁AMP
▁undes
-7
▁haemorrh
▁affec
▁genic
▁neoplas
▁morphological
▁parental
EO
▁79
▁enzymes
▁cortex
▁determinants
▁recurrent
chymal
onium
▁78
▁anesthesia
▁pituitary
▁cirrh
VT
copic
▁Histologic
ults
▁synthetase
▁regar
▁LV
▁nutrition
tant
▁endpoints
aminated
▁fluor
▁intense
FN
kinase
▁seb
induced
▁cryst
▁overdose
▁fitness
▁1-
▁indefinitely
▁underline
▁unprotected
▁clus
tual
epti
▁subpop
▁1,
▁segmental
▁insuff
▁amyloidosis
onyl
2+,
▁anomalies
contrast
