relations
▁solub
▁Phen
gely
ivary
▁monocytes
odial
▁pulmon
▁acqui
▁subc
vice
▁Steady
▁LDL
▁mellitus
▁tyrosine
▁ganglion
▁restenosis
ocamp
▁transcripts
▁grading
▁PF
▁strom
eptid
▁recessive
▁hypertrophy
▁dysfunction
▁questionnaires
▁microgram
▁elucidate
amino
omiting
aminated
▁reticulum
▁margins
razole
▁bile
▁morphological
▁multifactorial
▁displacement
▁antiser
▁gonad
scop
▁12
▁cyclic
▁monol
ogra
▁angiotensin
▁multim
-0
tiv
▁CMV
▁Chan
▁endometrial
▁propranolol
▁Cox
injured
▁endarte
rological
▁monke
tabl
othermic
tant
▁anatomic
irc
▁murine
▁symptomatic
tively
lated
▁surgical
▁substances
▁underestimated
BK
namic
0.
agit
▁practic
▁contralateral
▁protease
▁strep
▁30
▁polypeptide
associated
ococcal
tection
▁perceptions
▁peptide
OH
▁intermittent
ipit
▁auditory
-67
▁necrosis
Cu
▁Chemical
atase
▁multicenter
ipient
ritish
lead
▁calcium
lusion
hern
omat
▁demonstrates
▁apical
▁regar
teine
▁donors
oradi
▁hypoxia
▁immunore
▁multic
▁pigmented
▁compart
▁Accordingly
tiz
▁fibronectin
▁Alter
▁LH
opulation
odynam
aemic
erican
umulation
hyd
▁subunits
LISA
▁pathogenesis
▁RS
ociation
▁cesarean
gans
▁arter
▁physiology
alact
BV
ministration
thyl
▁potency
ohyd
▁biosynthesis
entary
▁conserved
▁Thirty
NB
CBF
ACS
8-
▁4
ostic
▁inhibitor
75
quine
▁exchan
▁ppm
▁catheter
▁85
oxide
ologic
KA
rected
▁interc
asive
▁shorten
▁specimens
▁perme
oplasm
ignificant
tox
▁antagonist
3,
▁mumol
▁IgG
▁torsion
asic
▁centr
▁GABA
▁metastatic
▁occlusal
aginal
tak
▁evolving
▁circumferential
anin
vated
▁assays
▁melanomas
aptic
▁ionic
70
▁affinity
ophageal
enic
▁exo
▁sepsis
-450
atitis
▁cen
▁defec
▁correlates
obl
dimer
▁reliably
tures
▁resec
utions
▁organs
TG
MH
▁Biochem
▁28
▁glyc
▁rotational
acrylamide
lec
▁dietary
▁appreciably
/-
tyl
▁replication
▁topographic
opsy
ylcholine
▁ascertained
▁physiological
▁homogene
▁HI
▁incub
▁junction
▁reversed
▁gastro
▁inserts
▁Compared
eptin
tro
▁infarction
▁75
▁substitution
bral
▁glutathione
otomy
▁embryos
tion
▁47
hyde
uting
Hg
▁pituitary
▁kDa
▁resto
0%
▁125
▁prescribing
adrenoceptor
▁undes
▁umbilical
▁silicone
▁actu
▁30%
▁ventricular
nai
▁indications
3)
▁desm
▁amines
▁biochemistry
esic
▁laparotomy
DG
▁gynec
▁49
FU
atell
otropic
▁diets
-12
▁femur
▁canc
▁maternal
▁infants
▁porcine
rates
▁inhibitory
iferation
▁linoleic
sion
▁HCC
▁cigarettes
eared
erance
23
▁imaging
▁parame
otor
oxif
▁tracers
▁0
ithin
▁dosing
either
▁3.
▁hap
▁contraction
▁inhibition
▁bran
trop
▁opioid
ocardi
▁0.5
▁prostatic
ropha
▁construc
erence
CSF
▁heterogene
▁1:
▁nonc
▁pate
▁0.05)
▁7
FV
▁rabbits
▁differentiate
▁intrarenal
▁vagal
▁interf
▁prospectively
▁identifies
▁maturation
▁carbohydrate
▁fracture
ailure
aventricular
3%
▁tidal
uble
▁investigating
▁rati
▁anastomotic
90
ration
▁spinal
xia
▁infec
▁hemodynamic
▁endogenous
69
labeled
▁peripheral
avage
▁resul
tens
▁placent
▁benz
▁hippocamp
▁stimulate
ivocal
▁complementary
▁contributes
▁Vac
ituitary
▁+/-
▁cyst
▁evol
▁anatomical
eal
pendent
▁alcoh
lym
▁TB
▁fas
▁intest
▁endpoints
▁organisms
▁filtration
quit
-20
ximal
▁0.000
odic
ergic
entanyl
▁initiating
ectin
phe
65
▁inten
▁compartment
roxim
onset
▁phy
▁repres
▁paren
▁allergic
▁tiss
otassium
teric
treatment
▁lactate
▁ketamine
▁silic
▁susceptibility
overed
▁pigs
ubation
▁Systolic
BW
▁umb
▁RNA
occus
▁0.05).
▁mutants
▁milieu
▁Thir
enia
emia
trition
▁59
▁inadequate
▁locus
▁hydrophob
IgM
▁identif
▁cyclo
▁gradients
rents
onad
27
▁DF
▁fatty
▁chloro
▁depletion
▁40%
▁synerg
spectively
ampl
jec
toc
epit
▁indicative
▁regulate
astolic
hap
riched
clonal
▁excretion
▁reag
oung
▁acco
▁contrac
▁accep
▁reflec
responding
▁oste
ylated
▁distin
▁10.
▁(5
▁consis
itant
▁concurrent
lep
▁BMI
▁audi
vascular
▁bir
opressin
cele
▁norepinephrine
gments
▁10%
astom
▁56
fusion
▁duoden
▁adenoma
▁90%
gative
▁unres
▁lute
22
▁preparations
▁rigidity
-7)
▁prednisone
▁degradation
▁synthe
▁neurons
▁sympathetic
▁persis
▁cystic
▁(20
▁effec
▁thrombolysis
▁intraven
onatal
▁homogen
threatening
orrh
acetate
▁insufficient
▁parap
arous
▁pati
▁unde
ulmonary
▁transloc
tomy
▁anomal
iatric
▁2)
▁resour
farct
▁hernia
▁CG
▁estimating
▁staining
▁causative
ynthe
▁occurrence
4.
▁intestinal
sial
▁atten
▁polym
▁disruption
▁1,
vival
▁toxicity
iatic
▁COS
amus
▁proliferation
▁undergone
▁bovine
▁relap
6,
▁membrane
▁antibiotic
▁followup
▁prolonged
independent
▁graf
▁hypothal
lasts
▁unrelated
▁nitrogen
▁transcrip
▁fati
▁Km
brain
▁0.6
▁soluble
ylamide
dic
▁positioning
iplin
▁anemia
▁80-
▁sciatic
▁currents
▁characteris
▁(0.
▁reductions
seal
athe
▁potassium
▁bronchoscopy
-14
▁antagonists
▁2.5
plas
▁sequentially
greater
▁localization
▁predictors
pyr
▁uptake
tence
▁thresholds
▁hemorrh
tual
ropriate
▁GI
▁femoral
zation
ocyt
/1
chers
ATP
▁Failure
oprotein
feron
▁simultaneous
▁cardiomy
▁validity
▁dislocation
ranial
▁characterize
▁DG
▁immuno
▁striated
▁opi
ecre
8,
▁regimens
▁divertic
▁histamine
ximum
▁uncontrolled
▁0.05
▁extre
▁conformation
▁acyclovir
▁hepat
▁bladder
▁therapeutic
▁TNF
▁proportional
▁intake
▁manifestation
▁promin
Ig
%),
renol
▁olig
▁cyclase
ylate
▁2.
▁cytos
▁transpor
▁synovial
▁Ear
▁HDL
▁chori
▁LF
▁19%
ogenic
▁diastolic
quired
▁verte
▁quantitative
illation
▁sedentary
▁VO
▁avail
▁responsiveness
▁Prospective
▁33
▁reac
▁lamin
▁phagocytic
7)
0-
▁cis
▁renal
oxia
▁feasibility
▁Concomitant
▁ventilation
▁premature
lip
▁nodules
▁adherence
▁lymphocyte
monary
nthe
uria
veolar
▁synaptic
▁10-
▁polymorph
versus
affected
ygen
▁melanoma
esti
▁glomerular
▁prostagland
raine
▁laparoscopic
elec
▁Fc
inic
▁NPC
▁Significant
▁schiz
▁cDNA
unctions
▁calcification
▁coh
▁ATPase
jug
▁occlusion
▁membranes
▁epidermal
▁gluten
▁GTP
▁peritoneal
otypes
8%
▁valve
▁operative
▁serum
▁modulates
vents
▁inducer
▁diame
menopausal
▁hemoglobin
tum
reported
▁3
▁clones
risk
▁PET
▁Considering
▁aor
rogenase
▁prol
▁depr
▁behavioural
▁15%
▁endemic
▁oss
kage
▁bipolar
oglyc
hips
omers
▁adequately
▁worsened
▁injec
ayed
oprote
ophag
odal
▁autosomal
▁fibrin
▁dorsal
unced
▁Biochemical
noise
▁GBS
▁histologic
ipolar
▁Asp
resting
▁mutagen
▁segmental
▁experim
▁platelet
▁carcinomas
terol
▁immunoglobulin
ilical
▁prostatectomy
▁analysed
▁collagen
iminary
cepti
tivity
▁concordance
lix
▁spati
▁rigorous
osomes
▁dete
trum
▁overex
▁mortality
tration
uptake
ospor
onc
athione
PAP
▁sero
▁OC
▁microsomes
▁derange
▁Contrary
▁ranged
▁HN
diol
intestinal
▁investigations
▁postnatal
▁Surgery
▁strains
▁iliac
▁oligo
otox
plantation
▁predic
▁anastom
▁amo
▁marrow
▁morphologic
▁implantation
▁sph
tectable
▁ech
onomic
▁depressive
▁subjected
▁discomfort
▁illustrate
▁bene
▁diagnose
aturated
abain
4)
▁microvascular
▁abolished
▁decreasing
▁preservation
▁shortened
thma
▁sexes
.2
▁neon
itoneal
pH
ignant
glucose
▁cathe
▁elec
eces
▁-0.
▁depolarization
trib
▁diffic
▁metabolism
acil
erally
othel
▁hepar
▁thir
▁subf
gene
terase
▁incubation
lycerol
▁expres
▁2,
76
▁recurrence
atab
opro
▁parental
reatine
idation
▁atrophy
▁36
▁reactive
▁reflex
fron
▁versa
▁cortisol
▁unil
▁assessing
abies
▁compli
▁menopausal
yel
▁microM
osomal
▁correlations
eclampsia
▁surgically
▁neoplasm
▁residues
▁reversible
▁urea
▁efficacy
▁hamster
onor
▁laparo
ulatory
ropriately
▁esophagitis
▁adenomas
▁cochlear
▁saturated
opathy
▁incorporation
tebral
tical
▁neoplas
kade
▁8
asone
▁evaluations
sions
▁mell
▁carcinogens
▁purified
▁pulmonary
28
-3-
orphic
▁prophyl
▁pharmacokine
▁lesion
▁ambient
otropin
▁80
lymph
▁placebo
erox
▁perone
▁capillary
ichia
▁ACh
▁pylori
atest
▁18
ected
omycin
taken
▁reproduc
▁enhancing
▁microsomal
▁contaminated
gesia
15
opausal
▁genotype
lood
tact
▁apex
▁Previous
▁phosphatid
▁muc
dition
tryp
▁Immun
▁nucleus
ctomy
▁51
▁microscopic
▁satis
▁Afric
icin
athy
▁micros
▁detachment
▁inheritance
▁irradi
▁Streptococcus
▁secretory
clerosis
▁erythrocytes
▁tended
▁biochemical
▁athle
▁retic
bladder
▁intramuscular
▁vesic
▁metastasis
7,
▁inh
osts
▁epithelial
▁indicators
▁kinetics
40
▁Atropine
▁thromb
stress
▁anatomy
▁(8
▁psychosocial
▁anesthe
▁summ
▁thre
etal
▁1.6
▁SLE
▁lipoprotein
▁dissection
▁intraoperative
▁hormonal
▁susceptible
▁0.0
▁scans
▁PCP
▁predictor
▁progres
▁resol
anol
▁LS
▁cytology
▁adverse
▁4-
▁microscopy
▁40%,
inositol
▁abdomen
▁cholesterol
▁Doppler
ervical
▁modestly
erad
iol
-1)
▁37
ithiasis
▁6-
cribed
▁determinants
immun
▁chond
plants
▁CABG
▁nucleotides
▁propor
▁hypertension
inj
▁smo
ortic
▁compartments
▁epitopes
oscopic
▁1.3
▁amyloid
gression
2),
▁0.03
▁spermat
▁pS
▁guan
▁HLA
▁NK
iotic
▁periodon
▁nucleotide
erine
▁mM
▁0.00
▁pall
▁heroin
atient
ariate
▁atrial
▁peptic
▁11
▁11,
▁suppressed
▁sucrose
▁gluc
▁extracts
phosphon
▁conclu
effec
▁VL
▁spontaneous
ighted
▁longitudinal
50
▁inactivation
▁HG
virus
▁HCMV
▁palli
ymme
atid
oside
oyl
▁gon
5)
▁tas
▁conductance
▁abd
luc
1.
▁thi
▁soy
adder
orepinephrine
oxin
inally
▁evoked
odies
GH
▁venous
▁tec
▁techniqu
▁empir
hydroxy
olol
▁LD
▁cuff
▁Intravenous
▁neurop
RH
▁mediated
45
▁selective
▁uncommon
tific
▁Hz
34
▁ocul
▁emerg
▁ration
▁derivatives
▁peroxidase
▁ventil
▁epiderm
▁myosin
▁panc
▁exce
loid
2+
glut
gment
▁antibody
▁aneurysm
▁gyn
▁hydrogen
uted
-6)
▁pmol
mature
▁reproducibility
▁macrophages
urethral
▁infiltration
▁septum
▁outpatient
orative
esia
lux
▁20
▁brady
▁frac
▁conjug
▁lis
▁hepatitis
▁radiotherapy
▁occl
ergy
▁spleen
▁2-
▁vena
▁FV
▁tib
▁55
▁excision
▁endoscopic
▁reproduction
tic
▁ablation
▁unexpl
▁adjuvant
▁differentially
▁nm
▁mediation
+)
Ia
▁differentiation
▁preliminary
identical
terone
▁esophag
▁bacterial
istal
oproterenol
▁hydrolysis
▁reflecting
taining
▁DN
kines
▁defic
▁exten
▁reductase
▁propensity
▁lys
arate
teroid
▁hypertro
mol
▁concurrently
PV
esity
legia
▁causal
▁bip
otoxin
ritis
otrop
olgi
▁hydroly
.9
kinin
▁consolidation
▁0.01).
obarb
▁depolar
▁favourable
tif
ffec
▁mAb
economic
▁testicular
▁enrolled
54
▁turnover
ilization
tron
▁100%
mentation
▁systematically
▁48
▁Multiple
iary
▁tris
▁inhibitors
umably
omotor
▁depres
▁severity
▁probes
chol
lastic
ocytic
▁nicot
▁Kup
▁gait
piratory
ints
▁adi
5-
HB
hospital
▁SG
▁limb
ociated
▁Plas
adequ
▁catalytic
6.
▁recons
▁cohorts
▁immunoreactive
roscop
▁atherosclerosis
▁collec
fts
atoid
▁inflammatory
▁micron
orption
▁microbiological
▁wt
iciently
▁morb
14
versely
▁Ara
▁potenti
▁cytosolic
venth
▁undergoing
ifug
onuclear
osocial
▁pT
romed
EGF
▁nuclei
.5%
clin
▁ALT
itus
▁MRI
▁immunos
▁chloroquine
duction
▁lobe
▁lamb
anine
tors
genesis
▁scintigraphy
▁thoracic
tis
osom
▁interventions
gulation
▁alterations
erin
▁corne
▁molar
▁sple
▁dendri
▁cohort
▁migrated
▁fulf
▁utero
▁differing
lact
viron
▁400
utaneous
▁sugges
OA
▁Continu
rotid
olenic
▁satur
erate
siveness
▁preven
trogen
erated
till
▁metastas
▁scanning
▁ery
▁preferable
enzyme
icine
▁vaccines
uin
▁1.
▁metabol
▁lymphoma
blast
eric
umulative
vely
gesterone
affec
retion
comitant
▁topical
▁Swed
▁carbohydrates
entif
odil
▁alp
MRI
▁Muc
▁moderately
ileptic
▁kidne
▁suppres
▁recor
IIIa
▁eluc
sia
▁visually
▁subgroups
▁amputation
▁Whereas
eded
▁radiol
resist
sively
▁concentrations
16
▁instability
▁induces
▁3-
▁emphasizes
▁OA
▁degrad
▁PGE
▁subtype
▁reacted
▁acad
ionine
mTc
ressive
▁mann
ipid
▁rabbit
▁kidney
▁Engl
adily
▁0.4
25
▁sensory
oclonal
▁discom
tization
dominal
▁FH
▁PSA
▁cyt
echanical
▁197
▁hypothalamic
▁foc
▁dilated
rins
▁chan
hion
▁tumor
▁29
▁regulated
▁polymerase
▁tric
▁rectal
▁comparative
lateral
▁cardiomyopathy
▁oils
keletal
▁10(
▁intestine
▁invasive
▁prolactin
sul
▁proce
▁(13
▁pharmacy
▁minimally
▁lec
iciencies
▁mmol
▁tol
▁demonstrating
▁31
hep
▁coronal
▁alkaline
▁measurable
2-
transferase
▁immunological
-6
▁macropha
▁kinetic
▁AE
imin
▁juvenile
▁drin
ostat
8)
▁deficiency
ocytes
▁eliciting
▁enzymes
▁markedly
▁glomer
▁biopsy
pinephrine
▁inflammation
▁70%
ocyte
▁oxid
thym
trin
angl
clic
▁lymphoid
▁Increased
▁catechol
▁predicting
▁selectively
▁atresia
▁electroph
ocul
▁confined
1).
assay
sies
resistant
▁respondents
▁aortic
▁[3
▁chec
▁supplementation
▁RA
▁leukocyte
odium
dose
3-
gth
▁Regarding
▁mutations
ogenesis
▁geriatric
▁fentanyl
49
]-
.2%)
aneously
▁residual
crimin
▁infar
▁Findings
▁morphine
▁Vitamin
▁Ig
6)
ucine
▁inpatient
▁fetal
▁consequent
tig
▁20%
athyroid
▁polypeptides
crib
▁hemodynamics
▁DSM
▁0.8
ogenous
arean
13
urc
▁nosocomial
▁markers
▁chlor
▁synergistic
▁multivariate
▁fasting
cine
▁13
-9
▁Alternatively
▁(1)
▁eosinophil
▁improves
ithi
48
▁physiologic
81
DH
12.
unar
▁traumatic
▁metabolic
▁irritation
▁abnormalities
utroph
▁GV
▁distinguishing
▁PRL
▁substrate
▁perfused
▁iod
▁rationale
▁lithotripsy
▁questionnai
vic
ogens
▁mmHg
▁yeast
▁TGF
chym
▁appropriately
▁PB
▁diagnoses
▁syndromes
▁infused
▁5'
sian
oratory
▁peri
▁perfor
▁chromat
▁histological
▁hypertrophied
▁glut
▁recom
immuno
▁granules
bly
▁NH
▁trac
▁amino
▁intracellular
▁diminished
▁surgeons
▁sti
▁struc
▁seizures
▁Severe
▁stren
▁limbs
▁unclear
inergic
lective
▁hepatic
▁hep
▁recurrent
erations
▁labelled
diagn
lytic
▁42
ifferen
tagland
ophore
▁hypog
ensory
/2
▁modif
▁sten
▁pathology
sors
onucle
wk
▁albumin
▁paradigm
▁inadequ
▁stimulation
▁abnormality
pine
▁hipp
infected
▁Tum
sities
▁intravenous
omial
ronch
tase
illus
minis
▁directional
▁neutroph
▁mitral
▁dissociation
urther
tein
renal
▁recombinant
▁intensive
▁79%
acted
▁uter
▁hypertensive
monstr
IFN
▁progestin
▁therapies
▁ligand
▁elimin
▁streptococcal
▁undetectable
ographically
9-
▁inversely
sorption
nee
itin
trative
4-
orin
inol
osition
▁corneal
▁adjustments
tries
▁retention
ullary
▁ald
▁enzym
sA
▁inges
▁employing
▁oxidase
oglobulin
roin
▁differentiated
ithm
tric
▁pressures
▁0.2
▁plasm
▁targe
▁cirrhotic
astric
▁cortex
▁ambulatory
▁elevated
▁Histologic
▁regis
▁communic
▁distrib
▁discharge
10
▁chamb
opia
79
▁sequel
▁sedation
0.5
▁IA
▁contractions
TNF
3.
▁embryo
ronchial
atrial
bacco
▁overe
▁radioactivity
▁cardiac
▁lipids
uron
thle
▁vivo
▁saline
oagulation
▁lact
▁MEP
imination
cardi
%).
▁Bone
gm
▁biop
-2
▁adrenal
▁obstruction
▁gallbladder
facial
▁resear
selec
ardia
▁coex
leukin
ontal
▁lateral
▁mitochondria
roximately
▁latency
hers
▁cues
▁BP
▁enti
▁decreas
▁LT
▁persist
▁polymorphism
▁respec
▁substanti
▁transient
cyst
alsy
robic
▁25%
▁(4
▁reticul
▁overlapping
▁homogeneity
▁5-
isqu
urys
▁consequently
radi
▁feasible
▁radioimmuno
▁newborns
▁triglycer
▁microc
.7
eroxide
▁.0
▁anat
ellular
trimental
▁tolerated
▁CI
▁RBC
▁enl
phic
acchar
▁24
▁manipulations
▁neurologic
seud
acting
▁pH
▁establ
▁buc
▁saliv
▁metoclopramide
cents
onate
tured
▁previ
▁infections
opathological
▁PEEP
generation
enhanced
▁Hb
▁leuk
▁inhibits
ods
ture
▁resemb
▁scre
▁compressed
tially
▁subgroup
▁cytoplasm
▁APD
aryngeal
▁quanti
▁axillary
contrast
▁pathologic
glycerol
▁arrhy
▁fixation
diagnosed
▁innerv
olysis
rae
▁pyl
ocaine
▁somatostatin
▁unilateral
▁quin
umerous
oscopy
urgical
▁distinctly
9)
▁mammography
heric
uterine
mide
illic
0%,
ectom
▁differenti
rogra
tice
▁keratin
▁exogenous
▁coexistence
▁198
▁skeletal
5,
▁intrinsic
▁vein
rosis
tage
▁58
▁glucocortic
▁perc
▁cultured
▁acetate
▁thromboembolic
▁thrombo
▁hemorrhagic
▁pelvic
▁34
▁anticoagulation
rhy
▁paradig
tead
1-
natal
▁complication
▁prono
▁interv
▁infil
▁bronchial
entral
▁cytotox
▁hormones
carb
▁statistically
▁angiography
itone
IU
▁elevation
▁Escherichia
ophren
▁estrogen
▁decreases
57
▁arachid
▁zinc
▁neurological
▁50
▁homologous
▁testis
vail
▁newborn
▁carriers
yses
▁sut
-2,
▁carbox
ejun
▁80%
▁AO
53
▁35
mittent
▁warranted
▁connec
embr
▁AIDS
▁stained
anish
▁Phy
▁molecule
▁Tran
▁administered
xone
erving
igaret
84
▁transi
▁clon
▁ischem
uvant
▁promo
▁acidosis
▁proliferative
▁resis
▁Pretreatment
▁epit
eration
undibular
▁IU
ochemical
▁apo
Hu
▁cAMP
▁morbidity
erent
2.
▁needles
▁OT
▁Patient
tero
derived
ovascular
▁72
▁melatonin
phenyl
▁diluted
▁chemotherapy
▁spre
▁leukemia
ectomy
echan
▁eosin
-100
▁proximal
▁5
▁periodontal
titu
▁vasodil
▁genotypes
▁assayed
ositol
▁fluor
trate
▁manifestations
ocele
iosis
odynamic
▁attrib
▁1.0
cessive
▁Phe
▁tox
▁linkages
ensitivity
phosphate
uncture
quid
▁26
▁myel
fir
▁tibial
▁attenu
sensitive
▁ovarian
▁socioeconomic
▁substituted
▁synov
▁mutation
▁physici
lac
embrane
▁receptors
▁leakage
▁preventive
▁extracellular
▁tubular
▁5,
idine
gmental
67
▁episodic
▁natri
▁phag
.8
ectomized
▁8.
1,
▁6.
affinity
ochemistry
AIDS
dle
▁noradrenaline
▁PCO
mL
rophy
vac
▁antigens
assi
▁allevi
onin
▁resusc
▁assis
▁stimul
▁radiograph
▁muta
▁demographic
▁ulcer
earance
urine
▁catheters
pation
▁accumulation
20
▁testosterone
▁acetylcholine
uccessful
▁initiation
▁intram
▁PMN
▁ultras
▁metastases
/100
heum
Pa
▁cervix
▁masked
▁removes
ilibr
▁shor
▁differed
▁genomic
oreceptor
▁genome
▁HL
▁suscepti
▁100
trast
4,
1-2
ologous
▁(2)
▁lipid
receptor
glyc
▁reactivation
▁concom
▁agonist
▁sequential
▁retrospective
▁etiology
illary
invasive
▁44
athetic
oxidation
▁cirrh
▁plantar
▁injections
▁cytoplasmic
▁precedes
▁specificity
ults
tensin
▁(19
▁predominantly
▁TG
▁algor
stolic
▁remo
▁alk
orpor
▁awa
ureth
▁reduc
▁rheumatoid
▁RH
▁compe
▁ESR
▁phospholip
▁mRNAs
Tu
▁palp
▁decreased
alian
otypic
versity
anyl
▁calcified
▁cate
▁subtraction
▁rehabilitation
▁mL
▁NB
▁ana
owever
▁45
▁neutrophil
▁LVH
acetyl
Ds
ocular
▁inoc
ilic
▁chor
▁suppor
▁23
activation
▁endothelium
▁sulf
▁2
▁dentists
▁perinatal
protein
positive
▁influx
▁AMP
▁mucosa
▁repaired
▁ow
▁ventricle
▁iso
▁microscop
▁atropine
▁pedig
▁ultrason
▁normo
ece
esthe
jected
▁rejection
▁compounds
planted
▁LC
▁thickening
▁influenza
▁grouped
orectal
CRP
▁randomized
perfusion
activated
▁0.9
▁deletion
▁ischemia
▁curative
osterone
▁(7
▁cervical
LV
▁requi
▁implic
▁hospitalization
▁Magnetic
▁spectro
tions
▁endot
▁unsuccessful
▁interferon
▁antibodies
ivariate
▁nmol
▁pancreatitis
urate
oconstric
▁creatinine
▁synap
operative
oxic
▁ultrasonography
▁valu
▁5.
ophilic
▁receptor
▁selec
LDL
oxid
▁inappropriate
▁uremia
uretic
▁Throm
▁cardiovascular
atheter
▁rCBF
▁inters
▁60
▁psychiatric
tents
▁circulating
valence
▁0.001)
▁bilateral
7%
▁hypo
▁IgE
▁adolescence
▁unexplained
▁cortical
▁Tumor
▁underlie
▁pelvis
▁bic
▁steroid
▁inherent
▁immature
glutin
▁recipients
uccess
▁palliative
▁ach
▁undertaken
▁discontinued
yro
ochrome
▁bowel
roph
tensive
mixed
accharide
▁pathological
▁attemp
2+,
▁Cyt
▁melan
Ca
.5
omerular
▁aggregation
▁bac
▁predominant
asal
▁immunofluores
onium
▁vaccination
▁artery
ostal
onol
▁serotonin
▁ile
▁doses
rowth
▁crest
tinu
▁discus
▁immun
▁stimulus
▁thromboemb
▁indi
▁prevalence
▁highl
ondr
▁allo
amet
olism
▁ossification
▁isch
tained
▁follicular
▁nitro
▁kb
▁hypothyroidism
▁HU
▁membran
▁inactiv
▁LV
▁gamma
▁ANP
trac
▁glucose
▁duct
▁arterial
▁homogeneous
ternational
▁clinician
ginine
otyp
▁malignant
phen
olated
▁obser
▁pancreas
▁0.1
▁dex
estions
▁irradiated
▁prophylactic
▁fibres
▁symp
-1
▁32%
▁SNP
▁cann
fected
▁tach
▁cys
acyl
▁micrograms
▁hemodialysis
▁Stu
mental
gland
2+]
▁preterm
2%
▁objec
▁necro
▁tymp
ught
▁radiography
tention
▁lar
asses
▁lith
▁PKC
▁gradi
▁complications
enzymatic
xual
▁pineal
otides
▁vitamins
▁assessments
minal
▁Nine
▁antic
omod
opramide
▁postmenopausal
▁astro
▁caro
▁counseling
oglobin
oplas
adren
▁RP
andard
▁RAR
▁0.
▁deterior
▁exis
▁insertion
▁muscul
▁untreated
▁abnormal
▁chol
bac
▁cytotoxicity
iliac
omal
▁assessed
apeu
Ba
▁pathologically
controlled
▁deficiencies
▁latent
econd
aceous
▁erg
yroid
ellar
▁beha
plasia
▁arthritis
▁(6
▁concomitant
▁heterogeneity
▁phospholipase
▁amp
ecu
▁Hg
▁phosphatase
odialysis
eak
▁MN
KD
▁excitatory
▁disparity
▁implant
▁CSF
erative
▁inflamm
▁progen
idase
▁buccal
erating
▁interpre
▁CK
ocl
▁elimination
weighted
treated
tel
atment
bility
▁7.
▁perox
2,
▁1.4
rati
din
▁ethanol
▁Trial
▁(15
▁preferen
▁Bec
ureus
▁lymphocytes
▁kerat
dia
▁develops
▁32
cus
▁exclusion
▁extensor
▁basal
iability
▁tamoxifen
epti
▁injected
▁pregnancies
tural
▁VE
duce
▁anesthetized
▁blockade
▁angi
▁gallstones
▁agon
▁withdrawn
▁contamin
vant
oresis
▁epinephrine
EG
▁Increas
opi
ucle
fine
entical
ulae
▁residue
▁tubes
▁22
▁underst
▁repro
▁grafts
1),
▁coeliac
▁hypoxic
▁embry
▁behavioral
▁simult
atectomy
imens
▁MV
▁interacted
▁suppression
30
▁modality
tality
▁12-
▁immig
▁isolates
ithms
▁hypoth
▁mV
regn
years
tate
▁differen
19
▁inver
tension
▁uterine
▁impairment
▁intercostal
henyl
▁Lys
▁antec
▁Neu
▁spontaneously
▁substantially
mia
▁ceased
ditions
ceptive
acin
physiological
▁readings
atif
-5
▁40
kely
Ka
▁ruptured
44
▁metabolite
.8%
ensi
▁coli
▁insuff
▁HSV
2)
▁anastomosis
▁retur
▁verteb
35
▁practitioners
▁pathway
▁prognostic
▁produc
tation
▁dexamethasone
▁endothelial
▁hypers
acerb
osine
▁pretreatment
oidal
▁cereb
▁glands
pecially
▁39
▁vesicles
▁polyethylene
▁Taken
▁acceleration
azole
olus
rone
oracic
▁intrag
relevant
Tc
▁abdominal
▁esophageal
▁unex
▁acute
00
▁aerobic
▁6
▁fron
itance
▁incubated
▁amyl
▁nal
▁progesterone
▁spon
▁rebound
oscop
went
▁nasal
▁distal
sue
odon
amate
zard
lyc
97
▁dodecyl
lasses
▁comprehen
urrent
olip
▁underwent
tive
▁MG
▁deli
▁suture
▁chemotactic
▁fibrob
aemia
▁physi
▁hazard
iably
produc
ostatin
▁labeling
ranolol
▁placenta
opamine
▁nM
aline
urin
▁schizophrenia
▁cortic
▁amin
ectable
▁estradiol
aturation
carcin
ventricular
helial
kinase
▁ratios
▁aort
.6
phosph
'-
▁tryp
▁1-
▁familial
▁relapse
urea
immune
▁reper
ynaptic
actin
▁gallst
geal
orax
▁amyloidosis
▁stellate
▁bypass
▁0.01
modulin
▁ejection
▁unselected
▁hypot
▁abolishes
▁conceptual
▁mitochondr
usp
▁MH
atinine
▁sperm
▁competi
idate
▁phorbol
▁perin
▁kine
▁viruses
itic
idis
▁supple
▁HC
▁detrimental
▁athe
▁assemb
▁overexpression
▁neuronal
adication
▁ure
▁gly
▁evid
ipine
qui
ialysis
oxygenase
▁contrib
mig
▁4,
▁putative
▁seb
▁surgeon
▁aorta
▁prophylaxis
ucleation
-5)
▁CPAP
opo
▁carotid
▁osteoporosis
▁PTH
▁cephal
▁exer
nRH
-1,
▁57
▁retinal
trip
▁blin
rele
▁sci
▁pla
lax
▁gangl
▁acetyl
▁trophob
▁rabb
▁consol
astatic
phyl
responders
▁HPV
▁Cushing
.1
▁rash
▁regimen
▁hypothalamus
▁GnRH
▁90
▁confir
▁tumours
entan
▁Dil
tructural
▁[14
▁epidemic
dent
ochem
▁RM
agic
2%)
▁paraventricular
0,000
▁onset
ameth
▁streptococci
▁drainage
▁birthweight
▁7%
turb
moid
rocy
▁restric
zyme
▁defects
▁wk
-19
▁86
▁protoc
vul
▁38
▁24-
▁inhibited
osome
▁macrophage
apeutic
▁restor
▁inhibit
DNA
▁occupational
▁glucagon
▁obese
▁microv
▁scin
▁resected
▁resection
▁respiratory
▁chewing
▁granul
▁21
▁cla
▁adolescent
sequent
▁GVHD
▁1
onary
▁cue
hydrox
▁apop
rehen
ths
estis
▁renin
dies
onography
essive
▁microm
▁elu
▁prel
▁pneumonia
ococci
▁HS
filtration
▁oxy
udin
lycer
▁haemorrh
▁resuscitation
ustif
ollicular
▁caud
▁activator
▁1.2
▁sodium
▁statis
▁inactive
125
▁congen
-7
▁ventral
▁pyr
▁Removal
▁Samples
NH
▁hemisphere
▁endoc
▁Preoperative
▁aspec
agin
▁tachycardia
-15
▁bronchi
uscular
▁clinics
▁carbohyd
▁WHO
olarization
▁ascertain
rophob
▁binds
▁multiv
▁thyroidectomy
▁prostaglandin
2).
mur
▁pleomorphic
mend
▁enzyme
▁TSH
▁reagents
▁cadaver
ficial
▁insertions
▁extrac
80
rox
▁mucosal
▁(9
▁systemic
▁substitu
scher
phosphor
▁disappearance
olesterol
▁yielded
osal
▁biosynthe
oprec
2+-
▁60%
▁poten
▁0.3
▁150
▁hybridization
duced
▁cleavage
▁99
amycin
birth
truc
▁Plasma
▁pter
▁1)
▁enteral
▁tetr
terminal
-3
amide
coh
▁coronary
▁efflux
▁alve
▁fibroblasts
elan
▁undergo
▁subun
reness
ysm
▁41
alp
▁mammary
▁sulfate
▁alveolar
▁fluores
clo
rants
▁stimulatory
▁congenital
ylation
induced
▁carcin
bumin
▁carcinoma
▁variants
ducts
▁BAL
tance
roma
▁mediates
owel
tory
▁120
tus
otide
▁Patients
0,
rectomy
▁secretion
▁Contr
▁geniculate
▁sarc
▁predictive
▁disrup
▁tomography
▁chromosome
▁follic
functional
lob
cAMP
▁HM
▁electrophoresis
ivation
-9,
▁salivary
▁microtub
▁complexes
▁10
4+
▁Clinical
▁adhe
ycin
gents
▁hypothe
▁aureus
benz
▁donor
5%
pecific
sess
▁deterioration
antial
▁examin
▁acids
▁vasoconstric
▁cytotoxic
eptides
000
▁phe
▁70
spective
ncy
hyp
7.
▁chromatography
▁arth
▁TC
kele
▁ventric
▁3)
▁deficits
▁(198
tisol
tected
hemical
rease
▁prospective
▁biom
▁colloid
▁routinely
▁advan
▁precur
▁201
▁implicated
atical
▁births
tized
▁heparin
▁27
▁monit
▁transcription
▁docum
▁heavier
▁lumbar
▁analyses
oskeletal
▁correlate
▁polyp
▁naltrexone
▁trache
▁RB
▁IIb
▁enrol
▁ket
oag
ustained
stimulated
GV
▁enzymatic
▁coel
▁sacr
MN
ressing
▁retin
▁spi
dehyde
▁detec
▁bronch
phrine
adherent
mented
▁projec
6-
▁Thromb
▁EGF
▁17
oplasty
▁detectable
Ki
▁elicited
▁potentials
▁cutaneous
▁3.5
▁15
5).
estig
heal
▁cholecystectomy
ofol
▁percutaneous
itoneum
iotensin
▁pancre
olytic
prising
▁colonization
trexone
▁collateral
▁intrav
▁histopathology
luent
physiologic
▁usefulness
ropine
▁actin
▁definite
▁lymph
unctional
▁25
▁juven
▁musc
▁metabolites
▁intragastric
▁impaired
▁adolescents
ergency
▁cholest
▁incidence
itamin
opam
▁molec
ograms
▁ultr
▁reproducible
▁ischemic
ompan
▁hCG
▁theore
▁adaptive
tral
▁equilibr
.3
lobin
oA
▁Comparisons
▁soybean
▁alteration
▁favorable
▁poin
▁tissues
alc
▁IGF
anic
feren
▁plaque
▁1.5
▁linole
▁mononuclear
▁perfusion
▁cholinergic
aryn
▁sinus
▁connective
▁epileptic
▁Intra
ococcus
▁(50
▁MCP
essel
encl
▁sphincter
5.
▁reactivity
▁encoun
Phe
▁pene
gia
▁fluorescence
▁combin
▁0.01)
ept
▁AMI
▁monoclonal
otent
▁seroton
▁vaccin
▁positively
ulitis
piration
▁VD
▁(100
licular
ctive
▁500
▁pathogen
okine
▁(2
▁adhesions
▁poorer
▁parotid
▁adenocarcinoma
▁spikes
▁hormone
▁mutant
▁(3
12
▁anomalies
▁vaginal
▁hydrox
▁deformity
▁rhe
9%
tin
▁posi
2/
▁facilit
▁bloc
▁discon
▁200
▁monitored
▁onc
amethasone
ocarcinoma
▁subunit
▁64
ypical
)2
▁lithotrip
▁microb
▁Hyp
▁mono
▁provid
helium
▁cocaine
olones
▁irradiation
▁monkeys
implantation
▁neutrophils
▁Pregn
▁progest
▁ester
▁microns
oceptor
oplastic
▁symptom
▁arteri
toph
▁46
gluc
veness
lys
▁antagon
▁antigenic
▁lesions
▁300
▁terminals
▁52
▁elic
▁secreted
▁adjustment
▁circumferen
tingu
0%)
▁pharmacological
mediately
▁hemat
▁nonadherent
▁nutritional
oic
ameter
▁complemented
56
▁atmosp
urrence
▁chloride
ulph
▁95%
▁adhere
tial
lectomy
cis
herence
▁manu
450
▁comparisons
▁glutamate
▁accel
▁Serum
▁autoimmune
leu
▁wors
idated
mediated
▁physicians
▁studi
▁preoperative
▁cancers
▁gland
ffinity
atories
▁postoperative
▁deprivation
▁epi
▁cerv
▁(1
▁phenotype
▁carc
ovine
osynthe
1%
▁benign
▁engraftment
▁adequ
▁hetero
▁2.0
amn
▁clinically
▁ECG
▁progression
rene
▁cumulative
▁4.
▁Elec
▁supernat
▁CSA
▁cardi
▁overlying
▁obesity
entricular
▁depic
assium
▁thyroid
▁neph
adiol
▁ASA
occi
truction
▁fractures
▁stroma
▁sampl
▁reflux
hea
32
▁ACE
▁omitted
▁criter
-2-
▁cloned
ophil
▁TA
▁injur
▁oxide
tility
▁Mg
amines
▁adminis
▁1.8
▁stenosis
opha
▁arteries
▁neonatal
17
ocusing
erb
▁eryth
▁hazards
▁localized
▁9
▁cholestasis
▁trough
Ra
▁BV
▁transplantation
certain
▁quantit
▁14
4).
▁hams
trol
▁nec
▁fibr
▁thrombin
▁variability
▁cyclosporine
▁(54
▁stimuli
▁splenectomy
lowering
ocrine
▁NP
▁implicate
▁adhesive
▁atheros
isol
11
bular
▁synthesis
▁prescrib
▁consecu
▁empirical
▁sequelae
▁21-
luded
▁5%
oplasmic
▁trypsin
▁uncom
stim
tabol
▁anesthesia
▁comple
venous
▁socio
▁1.7
▁19
▁cG
sive
tering
▁heavi
ortal
▁amput
reast
▁pharmac
.2%
+,
▁rhy
▁excre
▁immunode
▁conduc
vertebral
tam
▁Acute
▁pyramidal
▁phon
rine
▁cava
▁43
onit
▁insulin
▁modulate
▁ADP
fos
▁0.7
occal
lyce
▁androgen
▁fatigue
▁sickness
▁metast
▁mitochondrial
▁PV
cutaneous
scherichia
ocardial
uvate
▁vitro
atural
▁genic
▁ascer
▁graft
ventional
SCC
▁edema
ocortic
▁anaesthe
omized
▁creatine
▁pyram
gic
▁swelling
▁Treatment
▁somat
▁challen
▁synchronous
-10
▁haem
▁dopamine
31
▁extraction
cad
▁16
▁urine
▁urinary
sible
▁ane
▁plas
ochondr
▁substrates
▁perip
▁proteins
▁permeability
▁transfusion
▁chemo
▁deficit
enin
ofluores
▁antiserum
▁IB
-1.
helin
meth
▁plasmin
▁heterogeneous
▁angina
omical
hydro
ffin
▁systolic
▁airway
▁echocardi
tub
-4)
▁correlated
▁laboratories
▁deliveries
▁APC
▁discern
siologic
▁stratification
▁anticoag
78
▁subjec
▁insufficiency
ylase
▁intrac
▁interleukin
regulation
▁toge
▁pathways
graft
▁fragile
▁tracer
▁FS
▁fibers
▁radiological
othelial
vity
▁molecules
eliac
▁BD
▁methyl
▁morphology
ocar
ymptom
testinal
graftment
enol
armac
▁cytochrome
▁overweight
▁PEG
▁deple
▁intrap
▁blot
▁tuber
▁disadvantages
crip
▁endoscopy
itro
▁phosph
dor
▁herpes
▁hypoglycaemia
▁myocardial
▁myocardium
▁enlarged
ediatric
▁contex
▁IgM
▁ae
▁exercised
rotic
nutrition
ineal
▁adenylate
Ts
▁repor
▁PAS
▁reperfusion
▁hygiene
rogenic
▁impair
grees
idney
oru
▁MM
▁ions
▁pulp
rosine
cious
achid
▁immunomod
▁developmental
(+)-
▁ovari
▁axons
LH
▁paralle
▁abl
▁mandibular
▁facilitated
▁underg
▁asthma
adrenaline
▁50%
▁oxidation
▁inapp
▁hepatocytes
▁fetus
▁acetab
▁contractile
▁unstable
▁resistant
▁mec
phal
▁toxin
regulated
▁LN
coun
▁3,
ATPase
,000
▁mucos
acr
4%
▁53
▁dors
▁screened
fal
▁NaCl
▁phosphorylation
ethyl
▁SCH
▁exacerb
bic
▁tran
▁flexion
▁cerebral
teroids
▁examinations
adrenergic
▁medial
▁trig
▁recombin
▁homology
CMV
▁atres
uran
▁phosphate
▁microcirc
▁8-
-8
romes
▁vasomotor
▁digestion
▁inositol
▁affec
▁lumb
▁debr
▁wee
▁adhesion
▁glycoprotein
▁VC
▁0.001).
operatively
.0
-4
▁nig
▁desirable
▁adap
▁gestation
osin
▁quantif
vation
▁electr
▁mammalian
lysis
▁intrauterine
▁ultrasound
▁85%
▁CAM
▁shif
▁traum
tiveness
18
▁prenatal
▁disapp
atine
▁workload
▁discrimin
▁inser
▁infusion
ymp
▁yiel
▁induc
▁differe
▁headache
▁venti
genic
▁dele
omatic
onstric
sych
▁glu
▁mice
▁neo
RNA
alues
▁thal
eptide
▁pneum
totic
ionic
titial
aluation
TK
▁suggestive
▁radiographic
▁polymer
▁sclerosis
▁rats
▁suppressing
lue
▁TK
▁chemot
▁constitutes
luores
▁gastric
ecyl
cysteine
▁oes
iae
▁definitive
▁ATP
loride
kDa
atients
centr
▁clearance
▁viral
85
TB
▁kinase
tradiol
▁effic
oride
oxygen
▁hygi
▁exposures
29
ergen
▁laparoscopy
HF
▁utilization
▁Estrogen
▁conduction
transplantation
endri
▁acet
▁plasmid
tamine
▁resonance
▁ageing
▁IgA
▁migraine
▁(10
MDA
▁postoperatively
urgery
+)-
▁vulnerability
▁IVF
▁CRP
▁glycogen
tically
▁vomiting
▁immunohist
▁staging
MIC
HM
▁Chronic
iasis
▁epithelium
▁3'
▁eosinophilic
▁peptides
illin
omethacin
▁phospholipid
▁aden
ilateral
fec
dial
▁prostate
▁Addition
8.
▁ADH
▁deform
methyl
▁haemorrhage
▁referral
ceptual
▁reagent
▁aerob
omies
▁cigaret
cence
▁IFN
ervations
▁throm
▁reas
▁pancreatic
rested
▁tachyc
▁predicts
▁FSH
ffer
LF
▁cellular
▁ACTH
▁agonists
fat
ivoc
▁appendic
▁tertiary
▁hyperg
▁numb
uoden
siological
▁endothelin
vices
▁stu
▁MHC
▁eradication
▁dosage
acental
embran
6%
olec
ioid
▁(10(
▁intra
idne
▁adop
lobulin
▁diabetic
▁attenuated
60
▁adren
▁induce
▁PRP
(5
▁(12
containing
orbol
7-
▁somatic
nec
cture
▁memb
▁sensi
▁54
atonin
derly
▁subsp
▁endoscop
lesion
estion
▁platelets
▁(3)
tur
Hb
9,
tional
▁follicle
▁exhibited
▁pneumon
▁cataly
ocytosis
▁speculated
▁65
▁unaffected
phosphonate
▁uncomplicated
thmias
acet
▁proton
▁cerebrovascular
▁pediatric
▁preoperatively
iferol
▁tumour
▁vancomycin
ometr
21
▁remission
▁myocardi
▁tumors
sus
▁antigen
ovirus
▁Dopamine
▁GFR
wenty
▁inhibin
inephrine
apamil
99
tec
▁contral
▁mRNA
▁LPS
▁phosphor
osyl
▁evaluating
▁prolif
▁prevalent
▁adenosine
tituted
▁Adverse
▁adjunct
▁cyto
-1-
ronectin
▁PCR
▁accounted
▁endometr
▁judged
▁embryonic
▁hypox
▁clinicians
▁assay
▁hospitalized
▁Surgical
ancre
▁ventilatory
▁dehydrogenase
.4
▁malign
tent
erable
▁validated
▁superficial
▁peroneal
tics
▁Ket
alanine
1)
▁thym
Tn
▁ultim
▁endarterectomy
throm
echn
jun
46
pir
▁palsy
▁stimulated
▁unchanged
opres
▁possi
ignific
thre
reas
▁regression
▁TBI
MV
▁vascular
ostomy
▁polyps
▁erythrocy
▁precursor
▁guinea
orac
▁5'-
▁poisoning
▁GH
stro
deficient
Cer
▁confound
▁induction
lier
ylchol
▁Comparison
reased
▁79
▁equivocal
▁biopsies
▁dialysis
ometh
▁vasopressin
▁oxygenation
▁diabe
ticular
▁prognosis
▁synthesized
▁provocation
▁progn
▁fractions
▁HB
▁SHR
lasting
▁Kupffer
clinical
▁increas
▁myo
anding
adic
ocarcin
▁thorac
opa
▁aspiration
loro
▁dehyd
inemia
▁promoter
▁tes
▁vitamin
▁potent
▁glycos
▁circumference
attern
▁colorectal
▁kidneys
▁influenz
onyl
FH
ilized
▁chl
▁clus
