▁highl
▁hypoxia
zation
▁32%
▁cohort
uding
▁schizophrenia
▁150
34
▁gradients
itamin
ilization
▁acyclovir
▁stratification
lasting
xiety
ivocal
▁seizures
▁benign
idne
▁proct
▁tox
▁molar
▁enhance
▁concomitant
urine
▁pyram
esting
▁assay
▁tiss
▁guidelines
resting
▁circumferen
▁laboratory
▁Biochem
▁precedes
▁exce
▁professionals
5%
▁thrombolysis
Ra
.2
▁restric
▁temporarily
▁indicative
▁neutrophil
amine
▁Pregnancy
renal
▁polymorph
▁aspiration
▁menopausal
ially
▁sequential
iol
ethyl
▁definitive
astatic
▁occl
▁rCBF
imens
▁microb
▁intercostal
▁intensive
acr
▁laser
▁complaints
▁scintigraphy
idated
▁GER
▁chloride
ourable
▁placent
▁clinician
▁melanomas
▁myo
acerb
▁telephone
▁RP
▁reactivation
▁experi
▁cardiomy
▁healthy
▁cyt
▁dysfunction
▁cancellous
arb
enzymatic
▁tet
▁202
31
ceptive
▁chemotactic
▁somatostatin
▁shor
▁tumour
▁preferable
osity
▁asthma
▁undo
ositive
venth
▁simultaneous
▁cadaver
▁LF
▁alterations
helin
▁microcirc
otor
▁40%
▁epidemic
▁embryo
▁assays
▁cochlear
▁prophyl
▁adequ
▁concurrently
▁impaired
▁RB
▁hemodynamic
opl
attern
mL
▁chol
▁Bec
▁randomized
rophyl
▁migraine
GI
▁evaluating
▁practition
ervice
▁identif
ventional
▁interc
lead
▁inflamm
uded
tection
ygen
▁TBI
▁relap
crimin
apse
2/
▁moisture
▁infusion
ometr
▁cholestasis
kers
▁HS
iliac
▁(5
▁deaths
▁restenosis
▁indicators
▁transplantation
licular
reast
▁heavi
osin
▁therap
sion
▁managing
Fs
▁aerobic
▁blin
vents
olenic
▁MRI
.5
▁contribut
▁potency
▁cardiac
▁heparinized
▁mortality
▁undergone
▁HN
eal
ubtedly
▁congen
▁Ket
orotic
▁utero
Ps
▁undergoing
▁presum
▁engraftment
Ev
▁4
▁dexamethasone
▁unresectable
▁ultras
luc
▁pyramidal
▁specificity
▁spi
▁physiology
onset
▁lacking
entary
ensitive
▁chor
▁femoral
▁disparity
▁adenomas
▁5
▁PSA
▁heavier
igaret
▁tol
cture
▁placenta
▁distin
ressive
▁Streptococcus
▁therapy
otom
▁nonc
echn
hemical
▁Samples
▁premature
▁DS
oride
▁haemorrhage
1-
▁HSV
▁Medicaid
▁exposure
▁complemented
spectively
▁deliveries
10
▁sustain
20
▁subtraction
▁HIV
atients
▁speculated
clusive
▁perfor
ceptual
19
urther
oplastic
plic
▁preval
entif
jected
ulitis
▁poorer
roma
wk
▁apop
fusion
▁hazards
rele
▁flexion
▁cultures
▁aorta
▁meaningful
ithiasis
▁Delayed
ullary
▁aimed
▁confron
▁CMV
▁promoting
implantation
▁genotypes
itin
▁involvement
▁birthweight
▁chond
▁PAS
▁implic
aginal
▁ethnic
entists
▁subgroups
▁AO
pies
▁excluded
▁fatigue
▁excision
ploy
▁perip
▁stab
▁57
29
either
▁avascular
dition
▁juvenile
▁streptococcal
▁feasible
▁surgery
▁acqui
eric
▁anxiety
▁LN
▁carcinogens
jug
▁diseases
HF
▁endarterectomy
▁overlying
-1
▁tracing
▁discharge
▁esophagitis
ococci
▁instability
▁beha
ervical
▁glomer
▁Slow
▁familial
▁sequel
▁Treatments
▁symptoms
vated
2-
dimer
▁hepatic
▁reagents
phrine
2,
▁causative
asic
▁tuber
▁preliminary
▁histopathology
▁septum
derly
▁Increased
Ts
oplas
▁disadvantages
▁anatomy
atab
▁heal
▁tibial
duced
▁Paget
▁rhe
▁proce
TNF
▁substance
▁barrier
▁nosocomial
25
piration
▁Percutaneous
ostat
▁circumference
▁antib
▁monit
MIC
▁physician
▁PVR
oscop
▁ascer
▁parag
erable
▁corne
▁rectal
cents
▁ischem
▁schiz
odic
▁constitutes
▁progest
▁susceptibility
▁NB
▁abdomen
▁ulcer
▁TG
▁resuscitation
immunization
trib
0%
▁bronchoscopy
▁manifestations
▁vaccin
▁neurologic
▁latent
▁underestimated
▁RT
▁raises
ture
▁Overall
▁minority
▁palpation
oxid
▁50%
▁perc
tained
▁remo
▁attendance
RD
ediatric
▁pT
▁displacement
▁cervical
▁reasonably
▁WHO
urally
.2%).
relevant
zard
asting
▁IVF
▁adhesive
▁encoun
ectomies
▁advisable
ocusing
▁fatty
rosis
istrib
▁outcomes
▁decreased
▁prol
▁adults
xone
inemia
▁IgM
enh
▁outs
vating
▁gastric
urin
▁CPAP
▁neurological
seal
tebral
▁cere
ufficient
▁expend
▁seropositivity
tive
oice
comitant
▁reper
ophilic
6%
▁metastas
▁counseling
▁unsuccessful
▁BMI
▁preclude
effective
65
MV
▁fiber
tent
▁prospectively
▁insertion
lood
▁hypertension
▁disorder
▁olig
▁Addition
▁FS
▁mellitus
▁musculoskeletal
-5
▁stenosis
gative
andard
entical
▁pronounced
▁coexistence
sor
▁pharmacological
sities
oratory
▁prevalence
▁atten
▁8.
▁CK
▁stroma
44
BP
sess
mong
▁LS
▁preoperatively
▁LC
duction
▁positively
▁mediates
▁UTI
▁plantar
▁oxygenation
▁autosomal
▁cystic
30
sue
▁poorly
mur
▁resour
▁margins
▁vaccines
lyc
tensive
▁genes
antial
▁relating
▁VO
▁continuing
0.5
▁healing
tial
idate
tries
79
ilic
ensory
▁oxy
▁traumatic
▁neutroph
▁saline
phosphonate
relations
educ
▁assis
physiologic
▁adenocarcinoma
emic
aneously
▁specialty
▁MG
▁labeling
▁endometrial
▁vancomycin
▁cyst
oric
positive
▁cytology
thre
ochemistry
▁Chemical
▁excimer
▁palliative
▁80-
graft
▁prostatectomy
athe
consuming
genital
▁topographic
▁psychotic
regulated
▁somatic
iosis
▁FV
▁pati
▁Cycl
▁Tum
▁mamm
▁urinary
▁failures
2%)
▁MN
urys
ureth
▁proliferation
Ns
dominal
▁births
▁APD
▁endoscopic
▁differentiate
tach
▁diagnosed
rophy
▁CM
▁amin
orrh
▁reduc
▁acidosis
▁infiltration
enin
ogenous
cutaneous
Phe
▁colloid
▁symptomatic
abies
tig
hospital
▁glomerular
▁secretion
▁peptic
hep
▁micron
▁chemo
kely
erals
▁inhibit
▁auditory
mature
adder
ileptic
▁molec
ivariate
loro
▁HI
69
▁verteb
▁reagent
▁subtype
▁9
▁eliciting
▁arthritis
▁radiograph
▁advances
▁regis
▁dyn
▁bac
ariate
atheter
▁suspicion
Hu
▁cate
▁unres
ailure
▁multivariate
▁algor
▁suture
▁predic
▁longitudinal
▁stimulation
▁reproduction
PV
▁phon
▁antibiotic
▁remission
▁antibodies
▁VL
xia
▁transient
onad
▁spon
▁ventric
otherapy
▁prostatic
▁appendicitis
▁PF
onit
▁numb
gm
immun
urgery
retion
idement
▁tooth
▁bone
erance
▁tomography
retro
▁obese
.2%
▁insertions
rati
▁reductions
▁glycoprotein
▁eating
▁annulus
cele
▁carc
▁decreasing
▁sepsis
elan
dle
rents
▁spikes
▁lumbar
▁propensity
▁nasal
▁warrant
pation
ayed
sul
▁muc
▁muscles
▁Contrary
▁topical
IIIa
ialysis
tum
▁mild
thle
rae
▁rehabilitation
▁alteration
▁hypoglycaemia
idation
▁Comparisons
▁anatomical
▁lithotrip
▁impair
orphic
▁Bone
▁uter
ffer
ulcer
▁catheters
usive
menopausal
▁hypertensive
46
▁porcine
▁protective
▁tymp
▁adequately
▁minimally
neumon
▁GD
aryn
▁disappearance
▁rationale
respon
olated
▁ultrasound
27
▁concer
▁31-
rogra
▁adhering
tic
▁adenoma
▁exacerb
▁incidence
▁torsion
▁pathologic
pH
ses
▁GE
enol
▁deterioration
▁drainage
▁contaminated
1.
▁spontaneous
▁infected
104
▁glu
▁sphincter
▁amyloid
▁Treatment
DG
▁antegrade
iable
▁physi
(5
▁myoepithelial
identical
▁encouraging
▁LOS
▁causal
▁laparoscopy
patient
ulfonyl
▁develops
▁RH
▁physici
▁Phen
▁Educ
▁fetus
ressing
orac
reatine
▁201
▁overexpression
morph
▁evaluations
▁rhythm
▁surgically
▁structural
rated
▁1.6
▁disks
▁techniqu
▁Patients
▁BV
atell
▁habits
onomic
PB
▁1.
ctomy
yro
▁3-
▁inhib
85
bac
▁transfusion
ergency
ofol
▁SNP
▁scans
▁bloc
▁assessments
▁screened
stolic
▁athe
gmental
pir
▁MBC
gic
▁inflammation
▁lipid
▁polyps
▁alveolar
onol
▁differing
▁investigating
eled
▁immunode
embr
▁gluc
▁metabol
ophren
99
4).
igel
agal
▁rash
▁aspir
▁measuring
▁oils
▁diet
▁adolescents
▁microv
icient
▁substances
▁neon
alian
▁pathology
▁vitro
▁exclusion
▁IgG
▁dislocation
▁palsy
▁injuries
▁classified
lectomy
▁IIb
▁pneumon
oag
anyl
▁perfusion
▁HP
▁histological
▁VE
cyst
udin
▁thromb
▁oxide
▁abd
▁Cox
▁supplement
▁rated
orable
oscopy
▁PEEP
▁fragile
heal
▁10
▁excl
▁anastom
hemo
▁prevention
ipid
▁balanced
▁FT
▁liver
▁clinic
iatic
were
Ti
▁concentrations
▁increas
occi
▁safer
irrh
▁20
▁physiologic
▁sev
trimental
▁OA
amic
▁sph
▁carbohydrates
anding
usions
evaluation
▁psychosocial
▁sequelae
▁locus
▁7
▁prescrib
▁immunomod
▁eosinophil
▁swelling
▁loosening
aline
▁experts
▁correspon
▁agon
quid
kade
▁effectiveness
▁exposures
ypical
acking
▁awa
▁indetermin
▁sedation
▁nail
▁vegetable
▁phy
heum
▁molecule
aryngeal
ejun
▁uncontrolled
▁behavioral
1)
▁diagnos
▁encour
▁trials
▁indication
▁appropriately
▁pter
▁AMI
▁minimize
▁strategies
thal
▁anastomotic
▁preterm
DNA
▁thorac
ospor
▁insult
romes
lesion
.2%)
responding
inj
▁identifying
▁pancreatic
▁arth
facial
97
▁trophob
▁cardi
▁inev
▁15%
▁metabolism
▁enrol
▁cerv
▁elic
▁preparations
lym
▁suppression
▁kidney
▁Accordingly
▁traum
▁overestimated
-9,
▁curative
Mu
▁BP
▁scin
itoneum
▁myocardial
ymp
icine
▁anatomic
▁responsiveness
▁broader
sy
olic
▁ratios
ficial
▁prospective
sions
TG
▁intraoperative
▁GV
▁avoiding
bic
▁participate
eclampsia
orrhagic
▁feasibility
▁DN
▁tric
▁lithotripsy
▁tympanic
▁portions
echan
▁inadequate
ostatin
▁elucidate
76
8.
atid
▁masked
iatric
▁30
▁specialist
▁systematic
▁regulation
▁adherence
illary
▁characterize
▁detectable
▁financ
▁latency
▁infarction
▁thigh
icide
▁gangl
Ka
tin
▁exogenous
▁etiology
▁Increas
▁Systolic
sian
▁cohorts
ercise
▁efficacy
ertion
mia
RH
ught
ervations
▁mobility
oplast
odial
▁considerably
▁carcin
▁creatine
utroph
ascular
▁facilit
enic
▁restor
reness
▁suspicious
▁aort
▁biochemistry
▁trauma
iotic
asone
▁unrel
eptin
▁atrophy
▁inpatient
▁laboratories
▁eyel
▁favorable
▁manufacturers
reement
▁phenotype
▁poin
▁cure
000
associated
▁acetab
70
graftment
▁transurethral
▁deformities
▁atresia
▁irradi
▁intrag
▁hemodialysis
alp
▁GM
▁reac
3,
athy
▁routinely
erin
▁mucos
▁MRC
▁Comparison
▁pharmacists
▁manu
▁alve
▁0
▁questionnai
▁atheros
IU
▁inhibitory
▁infect
matched
▁500
▁herpes
▁cathe
▁striated
ustif
▁Doppler
regulation
erine
▁gallst
▁screw
othermic
oxif
▁SLE
▁satur
▁atherosclerosis
monstr
▁tidal
ampl
diagn
feren
▁characterized
idis
▁cuff
▁rigor
▁31
▁nonadherent
▁assessing
responder
▁Continu
hig
▁pregn
▁Vac
ocar
herent
rying
natal
▁wound
▁determination
▁bladder
▁describ
▁atropine
▁renal
▁inhibin
▁microbiological
▁referral
▁carcinoma
▁TA
▁exhibit
▁laparo
▁hepatocytes
▁vaccination
severe
ignant
▁MV
▁infections
▁Serum
▁challenges
▁pancreatitis
MG
▁physically
▁sedentary
▁correlations
▁60
especially
omotor
reported
▁quantitative
ivation
duce
▁receptors
▁supple
atical
▁attrib
▁awareness
enhanced
oxic
▁syndrome
▁ascertain
onary
ortal
▁discriminative
opathological
▁allergic
ologists
▁predictive
▁disrupt
cardi
▁hypers
▁collateral
othel
▁modest
▁immig
67
ropine
▁anat
tage
▁Afric
▁hypox
▁metoclopramide
▁staging
ateral
▁benz
▁reproduc
ections
FH
▁oxygen
▁multifactorial
iplin
coun
ulates
▁lesion
▁approx
▁melanoma
▁insufficient
▁prophylaxis
▁Dil
acting
▁interacted
▁gallbladder
▁vulnerable
entanyl
clinical
14
▁ration
iably
oplasmic
▁pathway
▁postoperative
▁microc
▁reveals
▁contral
▁Preoperative
▁TAA
▁CABG
OA
▁discusses
▁appreciably
▁biological
▁exis
▁mediated
▁conceptual
▁contamin
▁Engl
▁adverse
▁Whereas
▁rigidity
▁variability
▁tissues
urred
fos
asal
hering
oprote
▁suspic
0-
▁laparoscopic
vival
▁pneum
▁80
odialysis
-3
▁HM
▁modulate
32
▁serum
tected
ighted
▁deform
▁ischemia
▁discrimin
▁inadequ
TK
▁adhere
▁PET
atectomy
▁sour
▁desirable
▁valve
otent
inely
▁-0.5
▁NP
▁bronchial
CRP
▁intake
▁cyclosporine
▁gait
ameter
iminary
▁adjustment
opi
▁mammography
▁ALT
▁stellate
▁hernia
▁implantable
lapping
▁surrog
▁implant
▁attending
▁reveal
▁vitamins
▁metastasis
▁soy
▁Surgical
lec
alues
▁dental
ostomy
▁vaccine
iferol
aemia
mitted
▁tubes
7.
responders
edle
KA
▁fragility
▁ana
▁Pretreatment
lymph
▁uncomplicated
▁complications
▁40
▁putative
▁debr
uptake
▁radiological
▁analys
▁distinctly
utaneous
▁conclusions
▁pS
▁aerob
invasive
▁radiotherapy
▁pregnant
clin
▁versa
▁overex
▁implications
▁cholecystectomy
ibi
▁urine
▁peripheral
12
urea
▁mandatory
▁needles
▁episodic
atrial
▁deficiencies
▁correlated
▁adhe
▁endothelin
cence
yroid
unar
tro
▁respondents
▁deterior
arate
▁thickening
▁preferences
▁hormone
oleic
aints
▁GF
sequent
ysm
▁gaps
▁graft
▁challen
▁adjunct
▁retention
▁HLA
▁mg
▁tamoxifen
▁11,
▁vein
adherent
ectable
6.
▁overl
▁5.
▁smo
▁hemorrhagic
diagnosed
▁reliably
▁emissions
▁medication
1-2
taken
▁reflecting
▁Chest
usp
osocial
▁12
▁calcified
▁achievement
▁gout
▁stren
▁scl
▁pleomorphic
umulative
▁uremia
▁worsened
pT
▁coex
▁intraven
▁ossification
fat
▁excretion
▁ovari
▁resis
▁ageing
mg
odynam
uin
idity
▁reconstruction
▁cerebrovascular
4-
▁clinics
omical
rogen
▁practitioners
▁gradi
tein
▁amputation
▁deem
▁testis
▁surviv
usal
▁Impro
tomy
▁demographic
▁echocardi
▁biop
WB
▁selectively
oplasty
▁MCP
▁institutional
▁lax
noise
▁mucosal
plantation
▁unex
▁hep
▁fractures
▁pall
▁Acute
▁thi
Cer
oung
employ
▁influences
▁accurately
▁Eff
▁inversely
▁mechanisms
▁glyc
▁estrogen
▁pharm
▁oral
erally
▁calcification
▁malignant
icin
▁Considering
▁findings
gely
LV
inated
atories
mend
▁200
▁pigmented
▁linkages
▁meal
tak
▁Kup
78
occal
FV
▁indications
▁moderate
▁nodules
-67
degree
▁pelvic
▁implantation
▁horm
▁modality
▁encouraged
▁neonatal
▁injected
▁unm
▁cumulative
▁ACE
▁enti
▁acad
▁homogeneity
rates
▁recessive
▁shallow
▁syndromes
▁diagnostic
▁oste
▁hypothyroidism
▁endarte
Ds
▁perin
ochemical
▁antic
▁atmospheric
▁uptake
▁facial
▁APC
▁arterial
▁Operative
lusion
▁enl
clim
▁consensus
▁dentists
rox
▁NPC
▁FH
sial
▁tow
rine
oradi
▁adolescence
ocular
▁therapeutic
▁diminished
▁decisive
▁individualized
itr
ognition
▁Weight
▁Contr
▁mothers
▁chest
▁carbohyd
ancies
▁rheumatoid
yses
ocul
atment
▁intrap
▁audit
▁umb
▁abnormalities
▁disability
▁emerg
▁intrauterine
▁unexplained
▁esophageal
▁normalized
21
▁intram
▁PT
▁mec
▁Certain
ithm
eak
erum
▁Cyt
▁clinicians
▁periodontal
▁thickness
▁MI
▁coel
omal
▁barriers
herence
▁illustrates
▁microvascular
▁Compared
▁proteins
▁interv
▁stimul
▁sten
▁arter
▁inflammatory
▁IH
ocl
edullary
lep
▁immunological
▁unrelated
opsy
▁anticoag
▁decreas
▁discon
RB
▁cholest
▁abdominal
▁aging
▁illness
illus
▁follicular
▁lobe
▁surge
ipolar
ventricular
ocked
▁splenectomy
35
sies
iasis
▁detachment
▁spont
▁peripher
▁vascular
▁researchers
astom
▁Removal
▁metastases
ditions
onography
trative
▁provid
▁seiz
trast
phosphon
▁conservatively
lated
▁investigations
CBF
evaluated
▁pH
pendent
weighted
▁mineral
▁Trial
▁cigarettes
▁cereb
▁tas
.6
▁presenting
▁toxicity
hea
80
▁Tumor
helial
▁PCO
▁discom
9%
ithms
▁Adverse
▁feeding
▁Severe
sych
▁supervision
▁soybean
53
omized
▁GI
atient
▁sliding
▁stu
▁previ
▁lesions
ineph
▁unilateral
▁crest
50
amination
cine
▁compartments
▁manipulations
▁lymph
▁usefulness
▁ascertained
▁lipoprotein
opa
▁rhy
▁synov
▁resection
▁coincidence
▁injur
tens
▁adoles
uccessful
vertebral
▁amput
▁biopsies
5-
▁depress
▁PH
PAP
▁moderately
▁questionnaires
resses
▁behaviors
▁stom
carcin
▁vaginal
▁deformity
▁prednisone
▁32
▁neoplasm
▁Vitamin
osom
stant
occus
▁thyroidectomy
ACS
▁hig
.7
▁ey
▁elevation
▁harmful
ocarcinoma
▁angi
▁nerve
▁abnormal
adication
tyl
▁surgical
56
Ba
pite
intestinal
▁determining
▁therapies
osal
phth
▁limbs
ortic
▁tracers
▁parotid
▁surveillance
▁waist
▁predictors
rins
trop
▁cardio
▁haem
▁Dop
eight
▁acupuncture
▁predicts
▁predicting
▁Atropine
▁confined
▁resear
oagulation
▁deprivation
▁advan
▁evacuation
▁regulate
uscular
▁cardiovascular
▁Greater
farct
ectomy
amily
faction
▁enhancing
rolog
5.
▁newborns
▁correlates
ceptions
luent
▁subsp
▁appendic
▁Intravenous
▁ultrason
▁linole
▁correcting
ophil
▁facilitated
▁vulnerability
▁oes
rants
crib
uterine
Hb
▁prevalent
▁MH
▁continence
ternational
▁controversial
oscopic
prising
▁Magnetic
versus
▁athle
▁ADH
▁assessment
▁glucose
▁NH
NM
▁homogeneous
ication
2)
▁carb
▁spinal
▁excre
▁Neurop
▁100%
▁phagocytic
▁HCM
▁prevented
▁Significant
▁10-
▁Swed
▁muscle
oplasm
▁stimuli
▁inhibitors
functional
▁labial
▁BM
▁salivary
nai
gments
ycin
▁decisions
arent
threatening
tact
▁provocation
▁drin
gesia
economic
▁HPV
▁linoleic
▁reperfusion
▁ward
▁justified
▁prophylactic
▁abuse
▁19%
ressed
▁consolidation
1,
▁enucleation
epit
tation
▁reflux
lastic
▁ocul
VL
▁intrav
mented
▁lob
increased
perfusion
ications
▁ventricular
▁nig
erad
totic
▁TK
▁phag
▁sti
ropriate
▁trend
▁enhanced
▁noncom
mental
▁unexpl
▁decades
▁glands
▁contributes
▁OC
▁ECG
▁1
▁relapse
48
▁neurop
seud
▁systemic
▁substantially
▁circumferential
▁acids
▁surgeons
.8%
otomies
omerular
rogenic
▁modestly
▁preoperative
▁displ
ograms
oes
urate
2).
▁bowel
▁85%
▁physicians
▁Failure
imination
▁Prospective
▁RAR
▁suggestive
▁adjusted
▁ethanol
NH
▁scanning
▁fulf
SCC
▁TGF
ilical
▁Dopamine
▁stimulate
ardless
▁follic
▁Hb
▁diagnosis
▁phenomenon
urc
▁HU
sus
DH
dose
▁receptor
▁reactions
▁infection
▁heparin
▁severely
▁congenital
isqu
▁reproducibility
fine
▁LD
itively
▁hepar
activation
▁abolishes
▁outpatient
ritish
iferation
arge
▁autoimmune
opam
orin
▁unde
atched
anic
▁advancement
tical
▁conclusive
▁establishing
▁EMS
▁fold
▁epileptic
▁dosing
rophob
▁explored
▁13
ocial
▁prescribing
▁LDL
trexone
filtration
▁Physicians
▁lobectomy
onate
erated
▁solely
ecre
ostic
▁aden
▁hypothe
▁consol
▁consequent
lux
APC
▁bacter
▁immune
▁counteract
mig
▁consistently
leu
lysis
▁tobacco
▁drain
▁eluc
entric
▁activated
▁preventive
▁enhancement
▁alcohol
▁99
▁tertiary
▁chemotherapy
▁enrolled
odynamic
▁turnover
▁HCMV
▁osteoporosis
sive
▁synthesis
▁diffic
▁prel
▁implicate
▁parame
iant
▁recurrence
BV
▁seventh
▁LVH
▁RBC
▁genetic
▁beneficial
hers
▁infar
owever
isol
umulation
erating
▁ane
His
uated
ologically
▁undertaken
ept
atine
▁DSM
▁disruption
▁Patient
▁obesity
omes
▁tumor
▁chole
ovascular
75
inol
▁GFR
▁employing
▁progestin
▁leukocyte
▁divertic
▁investigated
▁34
28
▁lymphadenectomy
▁affects
▁vitamin
▁providers
▁sexes
othelial
▁lith
▁gallstones
▁eradication
▁4-
▁PEG
guided
rectal
▁iso
▁comparable
roup
▁DF
▁undergo
isture
▁poten
rehen
▁treatments
▁mono
▁VC
tration
▁unc
chol
ronchial
▁naltrexone
▁nurse
1-3
ilateral
▁adhesions
▁demonstrating
Tc
▁burden
▁tumours
anol
echanical
inic
▁sclerosis
▁SB
▁maintaining
▁airway
▁meals
▁Improvement
▁perception
▁improving
9-
▁resonance
▁hepatitis
▁biopsy
ogens
▁saliv
▁Estrogen
▁BD
▁elderly
▁epi
▁compressed
itus
▁rati
▁ventilatory
▁restorative
▁aneurysm
ectom
▁progression
▁gyn
▁pig
▁iatrogenic
▁warranted
IgM
▁molecular
▁regimen
11
▁NT
▁percutaneous
▁DG
icated
▁tracer
rection
urethral
▁cervix
▁synovial
▁mandibular
▁endoscopy
▁resusc
itic
▁suicide
▁lis
▁Tran
▁esophag
▁hypot
▁(54
▁facilitate
▁accumulation
phic
▁aor
▁cannulae
▁influenza
▁perinatal
▁adjustments
gents
IH
ologic
▁silicone
▁HA
▁moles
ilized
▁catheter
opamine
▁streptococci
▁laparotomy
▁intervention
jun
▁weigh
dents
▁fati
▁intrinsic
opulation
▁sustained
▁5-
▁monitored
▁amines
▁2,
▁systematically
▁lipids
▁assurance
ometrial
▁MEP
▁smoking
anish
▁chl
aceous
▁Chronic
▁Denmark
▁rotated
15
ergy
▁opi
▁affecting
▁discontinued
▁infants
esity
▁directional
valence
▁atmosp
Tn
riend
tead
ctive
▁8
itone
▁postmenopausal
▁mucosa
▁decline
▁widening
▁cephal
▁CAM
MH
▁Therapeutic
▁derange
utin
opausal
▁comparative
ocele
▁overe
▁cited
ths
Cu
▁hospitalization
▁PE
operatively
▁fentanyl
▁elimination
4)
▁hyperg
7%
57
▁delivering
risk
dial
▁sulfonyl
▁atr
▁thresholds
▁spine
▁physiological
▁endothelial
▁ile
romed
▁silic
▁contralateral
▁19-9
▁prognostic
WL
▁2.5
rested
quine
genic
▁scoliosis
otype
▁femur
discharge
▁tris
matic
▁underst
▁cognitive
▁prognosis
▁childhood
▁theore
▁artery
3-
sia
duc
▁substituted
▁cann
▁vasomotor
▁sequentially
▁insulin
drome
▁kerat
xual
orectal
EA
▁psychiatric
▁muscul
▁distinguishing
▁injections
itance
▁2-
tif
▁sensitivity
▁debridement
▁favourable
▁macrophage
-6
odies
▁membrane
▁chemot
▁Large
centr
lected
▁15
-1,
▁followup
istically
▁multiv
BW
itro
▁thyroid
hern
▁colonization
▁neo
▁sciatic
mentation
HB
▁knee
▁normo
ministration
▁atrial
▁vagal
▁hazard
▁hygi
vaginal
▁75
▁interventions
arer
razole
▁irrit
▁PB
▁embry
▁inserts
▁connective
▁radiographic
▁cancell
▁readings
▁plac
▁microm
▁nal
▁mell
▁abortion
▁judged
▁ultim
tus
▁rele
▁behavi
▁sampl
ogra
▁nutritional
regn
▁hospitalized
lact
idney
▁socio
▁RS
▁vag
▁ambulatory
▁reproducible
▁inherent
▁hCG
▁systolic
▁uncommon
▁chan
onor
▁strom
▁pathogenesis
▁prevalences
▁diagnoses
▁chloro
▁initiating
▁AE
estim
▁iliac
▁visually
angl
▁musc
ystolic
▁irradiated
▁homogene
▁umbilical
▁disorders
▁morphologic
▁histologic
mittent
▁endoc
cad
16
uncture
▁examin
omatic
ivary
▁doctors
▁depr
▁nursing
▁discomfort
tate
▁acute
▁palp
0.
undibular
▁ultr
▁psychological
▁discordant
▁Medicare
ocyt
▁pharmac
▁sensory
▁paras
cessive
▁hypoxic
requ
▁Intra
KD
SPECT
estis
oracic
▁intragastric
▁infil
▁85
▁selective
▁emphasizes
▁preferen
veolar
▁ET
rals
▁Biochemical
otyp
umbar
▁lumb
olution
loride
▁inapp
olute
yel
▁ASA
HM
▁1.7
▁irritation
▁pate
tinu
▁antec
▁inducer
ubted
tam
▁deficit
▁minerals
▁evac
hyd
▁endemic
▁modif
▁geriatric
▁sickness
▁diabetes
ignific
▁27
▁cue
▁scre
▁distal
▁cesarean
vant
orts
▁Concomitant
▁GVHD
▁tissue
▁pulp
sis
▁DT
▁Muc
2%
erican
▁pathologically
▁analyses
▁PD
▁reas
▁technically
▁pregnancy
placement
ivoc
▁workload
▁Emergency
▁buccal
▁instr
orative
▁canc
osomal
stress
▁epid
opic
▁necrosis
▁pregnancies
▁requi
▁diabetic
rous
▁colorectal
ifol
▁PCT
▁encourage
▁impairment
▁surf
bly
▁Surgery
▁evolving
▁gad
ococcus
▁recor
ulae
▁ventil
▁pelvis
▁endoscop
iciencies
▁identifies
ials
▁atm
▁Throm
▁intrarenal
opia
▁Pregn
▁complic
▁athletes
glum
acial
geal
▁pulmonary
▁ventilation
▁repl
toc
▁IBD
diol
▁dose
▁opioid
▁pyl
▁Phe
▁indeterminate
▁differentiated
operative
8%
ocardial
▁examination
▁inspection
▁sulf
ophag
▁adequate
▁overd
49
orest
▁pharmacy
thma
▁melan
▁deficits
▁CSA
genesis
▁polyethylene
▁guided
▁100
▁suppressing
▁reag
legia
tec
▁subf
gulation
bladder
bacco
▁HC
oskeletal
▁unil
roin
▁backs
itary
▁modulates
▁improves
spective
▁40%,
▁cancers
▁grading
▁misleading
-2
aning
▁chec
▁adop
▁screening
▁diluted
▁intramuscular
▁aortic
▁coexist
▁needle
▁hypog
▁surveys
▁adjuvant
erations
▁overlapping
▁enlarged
▁somat
22
▁paradigm
anin
▁symptom
▁ket
▁exo
atoid
injured
▁endometr
ximum
▁practically
mTc
oxidation
▁localized
econd
▁diagnose
▁superficial
uvant
asive
▁3
incip
chers
lys
▁PRP
heric
tib
▁drugs
▁maternal
▁pathological
▁dissection
▁allevi
▁gly
▁ruptured
ximal
4.
AIDS
erative
▁inver
▁dys
▁UT
▁chori
ameters
EGF
▁mitral
erate
▁AI
60
▁polymorphism
▁emotional
fron
▁warr
▁ischemic
▁intervertebral
▁edema
▁concentrate
▁atres
▁cerebral
▁emergency
▁chloroquine
hop
versely
▁wors
essential
ucleation
▁PCR
▁oligo
▁16
alc
▁viable
▁agonist
ameth
▁Lys
84
aid
▁UL
▁resected
▁dilated
omiting
ocytic
▁metast
effectiveness
ituitary
▁Tes
▁detrimental
▁48
ostal
ographically
▁drops
▁neutrophilic
▁desm
orax
▁shif
bility
alsy
▁Alcohol
▁abl
▁tes
▁Steady
▁unselected
▁anticipated
▁clinically
▁GBS
▁demands
▁colonoscopy
Ly
acil
▁thromboembolic
▁prenatal
▁compli
stro
▁hepat
▁mutations
ograp
▁contex
▁1.6%
▁arteries
lowering
▁rigorous
▁bilateral
▁examinations
▁babies
▁respon
▁BS
0%,
▁synerg
▁fixation
ancre
encl
▁discus
▁temperatures
ducts
▁cigaret
▁clinical
ece
▁compartment
▁predictor
▁estimating
▁confound
▁trophoblastic
▁exacerbations
40
▁fibers
▁defic
hesive
▁thoracic
▁toxic
ensity
bral
▁buc
▁morb
AH
▁deter
oidal
ollicular
▁pylori
▁dietary
▁geniculate
▁severity
▁coronal
▁phe
ulin
ingle
▁ongoing
▁depressive
▁fetal
▁ure
loid
vul
▁heroin
▁leakage
erop
mixed
▁errone
▁gains
▁occlusal
vation
▁pediatric
stim
▁perceptions
ritis
▁21-
▁biom
▁occupational
iciency
radi
FG
▁identically
treatment
▁throm
iary
9,
controlled
Ia
kage
▁thir
olysis
▁diversity
tions
▁circulation
▁corneal
▁revealing
▁anticoagulation
▁drinking
valent
▁pulmon
otomy
athyroid
▁VD
▁postnatal
▁complementary
▁comprehen
birth
odal
omod
▁likelihood
eration
▁abilities
▁14
▁wrist
▁PCP
▁risks
▁deficiency
▁multicenter
▁paradig
▁concordance
▁cues
▁unstable
▁HL
monary
▁medial
olved
▁onc
▁beating
ochem
▁ACL
vely
▁MHC
aturated
▁occurring
▁availability
LB
saturated
▁TB
▁caro
▁tear
▁Thromb
▁malign
00
entan
▁experim
▁headache
hemia
ocytes
▁metabolic
taining
▁inhibition
▁compliance
▁COS
agic
uation
▁osteoporotic
▁subjected
▁ae
keletal
▁Neither
▁behavioural
▁socioeconomic
▁racial
▁hemorrh
▁overweight
▁survival
▁nec
▁thrombo
nee
▁angiography
▁influenz
▁tonsil
-9
▁carotid
▁extre
uccess
armac
ustained
MRI
▁cardiomyopathy
▁utilization
▁radiography
▁wee
▁focusing
▁oss
▁Taken
hap
ioid
▁implicated
▁ganglion
tific
▁morphology
▁19
▁heterogene
▁nucleus
years
▁ICS
iated
▁withdrawn
▁7.
▁residency
otropic
▁paraventricular
▁exercised
cysteine
▁derangement
▁pathogen
▁OSA
olones
▁insufficiency
eliac
atest
LF
▁complication
▁immature
ucle
unctional
▁tert
▁DST
acental
▁specimens
▁vena
ocaine
tering
▁Clin
atitis
▁palli
▁mediation
▁validated
▁presumably
illance
▁progressive
▁necro
▁TD
▁platelet
▁22
vascular
▁retrospective
▁increasingly
▁skeletal
▁2
▁ESR
trip
▁juven
▁thromboemb
▁periodon
▁repaired
▁Sout
ergic
▁adaptive
▁IHD
▁ketamine
81
uran
▁supplementation
▁enteral
▁consultations
nutrition
aired
▁heterogeneous
▁caution
trol
tors
▁promising
▁hygiene
▁bab
arous
▁coeliac
▁predominantly
▁conservative
astric
GD
vac
▁pressures
▁venous
ronch
▁demonstrates
▁measurable
▁differentially
▁6
▁unin
nec
▁spati
▁tolerated
▁constitutional
▁PI
▁abnormality
▁HG
▁leuk
oic
▁surgeon
▁empirical
acted
▁perone
▁Kupffer
itant
acts
elvic
▁rebound
▁fever
adequ
▁satis
▁eliminated
▁FD
▁dex
▁79%
▁disparate
BK
▁targeted
▁ablation
ycl
▁intravenous
▁hemisphere
rectomy
12.
▁IA
▁widespread
itudinal
tectable
▁cen
ineal
MN
▁inappropriate
▁uncom
asses
▁21
▁invasive
onin
▁cirrhotic
▁positioning
▁hormonal
amet
▁regimens
▁synchronous
▁bip
gland
aventricular
arly
mide
▁comparisons
54
▁plates
▁elu
▁Inclusion
▁eosin
▁survived
▁elevated
▁parap
versity
▁equivocal
▁bronch
▁evid
CMV
▁amyl
arity
▁alp
opathy
▁operative
▁underlie
▁depic
▁limb
▁melatonin
▁Findings
▁differen
▁irr
▁plur
ulatory
▁progn
▁tolerance
▁treating
ociated
▁hypertrophied
▁stillbirth
▁PP
essive
tur
ocyte
▁testicular
gth
LN
-0
▁OT
ithi
▁anemia
▁inh
▁prostate
BG
▁neurolog
▁examined
▁practic
▁ovarian
omat
ellosis
▁quantit
ithin
ultural
omies
▁hypo
▁statistically
lateral
▁discern
▁sut
▁trough
▁aureus
▁insurance
arean
▁anastomosis
adily
VR
▁intermittent
▁undetected
2.
lective
▁isch
atonin
▁morbidity
▁functioning
▁tumors
sized
▁acquire
urgical
▁onset
▁peroneal
▁synthe
▁profound
▁carriers
▁doses
HN
▁consequently
hest
▁extensor
▁50
13
▁vomiting
glyc
▁multic
ervative
▁unevent
▁stomach
▁heterogeneity
▁eosinophilic
▁glut
tle
▁shorten
▁recur
▁synergistic
ration
▁pancre
▁HCC
formin
▁underg
urse
▁TC
immune
▁Clinical
▁Cushing
BM
▁chorio
▁chronic
▁bipolar
aemic
▁cutaneous
ococcal
▁ultrasonography
▁discrimination
▁zinc
▁axillary
▁epinephrine
▁bypass
▁preservation
RP
▁mann
ropriately
clerosis
acer
moid
▁intra
▁depression
oprotein
entral
estive
▁Tests
▁nurses
▁poisoning
aluation
▁chlor
▁chewing
▁predomin
iron
▁Additional
▁opportunities
venous
Ga
▁concom
▁2.
opramide
olism
▁comprehensive
istal
lix
eces
▁cortisol
▁RM
oglyc
▁apex
acet
▁migrated
ipient
▁pineal
▁conducting
▁organisms
▁achie
.8
▁genotype
vail
▁bronchi
oxia
sts
▁rotational
▁gland
▁fracture
▁gynec
▁prolonged
transplantation
▁recipient
▁follicle
▁saturated
▁differentiation
stem
ureus
▁postoperatively
ontal
▁packing
▁preparation
▁viewing
ipher
▁imaging
▁Effective
rone
▁plaque
amn
teric
onatal
▁adolescent
illic
Ki
▁multim
▁AGE
ociation
▁immun
▁VA
▁transi
▁neph
▁35
▁undetectable
obal
▁pneumonia
▁unre
▁shortened
▁hemodynamics
▁anomal
▁cava
namic
▁coronary
▁establ
▁cocaine
▁validity
▁PV
▁slowed
▁evoked
osts
▁Phy
▁mL
▁SG
▁SCH
▁metastatic
GF
▁11
sensitive
▁manifestation
▁controlling
▁CRP
▁gluten
▁7%
▁AMP
▁undes
▁haemorrh
▁genic
▁parental
▁79
▁determinants
▁recurrent
onium
▁pituitary
VT
▁Histologic
ults
▁regar
▁LV
▁nutrition
tant
▁endpoints
aminated
▁fluor
▁intense
▁seb
induced
▁overdose
▁fitness
▁1-
▁clus
tual
▁segmental
▁amyloidosis
onyl
▁anomalies
contrast
