feeding
▁reviewed
▁antimicrobial
▁diagnosed
▁thromboembolism
cervical
▁otitis
▁effectiveness
▁cholesterol
▁tolerance
▁infectious
▁diagnostic
▁warfarin
▁childhood
▁classified
▁symptom
▁glucosamine
▁adjustment
▁sensitivity
▁admission
▁maternal
▁nasal
▁reductions
▁glucose
▁colposcopy
▁aspirin
▁prospective
▁pelvic
▁asymptomatic
▁systemic
▁femoral
▁physician
▁symptomatic
▁gastrointestinal
▁imaging
▁athletes
carcinoma
▁clinical
▁CHF
clinical
▁chest
compliance
▁melanoma
▁postmenopausal
▁carcinoma
▁prevalence
▁desmopressin
▁hemorrhage
▁infection
tolerance
▁guidelines
▁fasting
▁irritable
▁concussion
lipoprotein
clinic
▁recommendations
▁PID
▁depressive
▁premenstrual
▁likelihood
venous
▁inflammatory
▁osteoarthritis
▁herpes
▁gestational
▁abstracted
▁smokers
▁fibrillation
▁recurrent
▁asthma
▁prophylaxis
▁mood
▁insufficient
▁weekly
▁heterogeneity
▁dosage
▁dietary
smokers
▁diet
▁headache
▁vitamin
menstrual
▁diabetes
▁ambulatory
▁antidepressant
▁dysfunction
▁mothers
▁relieve
▁regurgitation
▁inhibitors
▁blinded
▁diagnosing
▁ischemic
▁dose
lipid
▁torsion
diagnose
▁fiber
▁untreated
▁investigated
▁incidence
▁Achilles
▁cognitive
therapy
▁Depression
▁bupropion
▁indications
panic
▁metformin
▁laser
▁adequate
▁preterm
▁postpartum
▁ABP
▁fluoride
▁psychological
▁mortality
▁severity
▁smoking
▁IgG
▁Compared
▁decreased
▁hysterectomy
▁elective
▁acetaminophen
▁reflux
▁sunscreen
▁circumcision
▁injuries
▁serum
▁bowel
▁bibliographies
▁trend
▁allergy
▁diabetic
▁emergency
▁hypertension
▁acute
▁plasma
▁overweight
▁nephropathy
▁disorder
▁pioglitazone
▁antagonists
▁lifestyle
▁Scale
▁cultures
nasal
▁corticosteroids
▁thrombosis
▁Overall
▁infections
▁antibiotics
▁screening
▁superficial
▁retrospective
estrogen
▁therapy
▁anticoagulant
▁assessment
▁respiratory
▁rupture
▁medications
▁randomized
▁regimens
▁lesions
deficiency
▁adolescents
▁enzyme
insulin
▁myocardial
▁antibiotic
▁adjusted
▁intake
▁treating
▁atypical
▁progression
▁disorders
▁feeding
▁deaths
▁contraceptives
▁hospitalization
▁survival
▁depression
▁prescribed
▁recurrence
▁angiotensin
▁referral
▁mammography
▁pregnancy
▁baseline
▁knee
▁tissue
▁metronidazole
▁tamoxifen
▁lesion
morbidity
▁odds
▁cysts
▁syndrome
▁morbidity
renal
▁thyroxine
▁illness
▁infarction
▁ultrasound
▁eligible
▁progesterone
▁hepatitis
▁wound
▁coronary
▁exposure
▁pulmonary
▁prevention
▁sodium
▁topical
▁steroid
▁bipolar
▁Randomized
▁perinatal
▁statin
▁weighted
▁intervention
urinary
▁symptoms
▁hypertensive
▁cohort
▁urinary
▁therapies
▁pertussis
▁examination
▁surgery
▁inhaled
▁isolates
▁outcomes
indications
psychological
▁clinics
▁clinicians
thyroid
statin
▁Prevention
▁chronic
▁bleeding
▁compliance
▁apnea
▁pressures
▁pneumonia
▁intravenous
▁questionnaire
▁triglyceride
▁insulin
▁excision
▁hypothyroidism
▁LDL
▁amlodipine
▁antibodies
▁testicular
▁hazard
▁endoscopy
▁corticosteroid
▁acne
vaginal
▁osteoporosis
▁fatigue
▁fracture
▁cardiac
▁bacterial
▁diseases
▁remission
▁foods
▁intraepithelial
▁allergic
▁infected
▁physicians
▁mild
▁prophylactic
▁artery
▁pneumococcal
▁logistic
▁ventricular
inflammatory
enzyme
progesterone
▁deficiency
▁biochemical
▁panic
▁transient
▁complications
▁constipation
▁vaccine
▁benign
▁clindamycin
▁infants
▁transvaginal
▁anxiety
▁cesarean
▁systolic
▁contraceptive
▁vaginal
▁warts
▁treatments
▁mellitus
▁cream
▁intrauterine
▁daytime
▁obese
▁calcium
▁sustained
▁simvastatin
▁venous
▁hormone
▁fractures
▁diagnose
▁urine
▁NSAIDs
▁thyroid
▁prolonged
▁deciliter
▁predictive
▁mmHg
▁menstrual
▁antidepressants
adequate
▁insomnia
▁neonatal
▁cardiovascular
▁pregnancies
▁receptor
▁laboratory
▁Treatment
▁abnormal
▁pregnant
▁lipid
▁examined
▁colorectal
▁ratios
▁subclinical
▁clarithromycin
▁trials
▁drugs
▁disability
elective
▁benzodiazepines
▁cervical
▁diagnoses
diabetic
▁cryotherapy
▁concentrations
▁vascular
▁Patients
▁obstructive
▁vaccination
▁mineral
▁sulfonamide
▁nocturnal
▁muscle
▁diagnosis
▁adults
▁diarrhea
▁angina
▁Clinical
▁elevated
▁resistant
antibodies
▁estrogen
genital
symptom
thyroxine
▁squamous
cholesterol
▁azithromycin
▁Medline
▁vaginosis
vascular
▁onset
▁strategies
▁obesity
▁interventions
▁therapeutic
▁mononucleosis
▁miscarriage
▁prenatal
▁cytology
▁fibre
▁erythromycin
urine
▁systematic
▁HSV
▁atrial
▁biopsy
▁antihypertensive
▁oral
▁lipoprotein
▁ultrasonography
▁elderly
▁guideline
▁genital
sensitivity
▁abnormalities
▁moderate
▁adverse
▁bone
▁outpatient
▁endometrial
▁Secondary
▁concise
▁throat
▁PMS
▁specificity
symptomatic
▁creatinine
steroid
▁spontaneous
▁relapse
▁migraine
▁surgical
▁renal
▁clinic
diagnosed
▁Controlled
▁consensus
▁lowering
▁herbal
▁regimen
▁infertility
▁injections
▁fetal
▁cough
▁peripheral
hypertensive
▁rehabilitation
▁extraction
▁diastolic
▁supplementation
▁findings
▁mmol
triglyceride
▁liver
▁juice
▁spine
▁medication
▁placebo
plasma
▁risks
▁tinea
