▁splenectomy
lec
ustif
tebral
▁chemotherapy
hei
▁ETS
▁suscepti
▁preferences
tization
▁VA
LV
ximal
▁MH
▁referrals
ropriately
▁thi
▁protease
EGF
▁trauma
▁severely
roxim
▁pulp
activation
▁adequately
▁guinea
▁residue
▁gait
▁explored
▁opportunities
▁septum
rous
▁circulating
▁precur
▁pancreatic
athy
rectomy
vival
▁allevi
▁cytotox
▁yielded
▁vasopressin
tition
▁blin
arbox
▁actin
owever
glut
▁polymerase
urine
▁62
▁diagnoses
▁nons
aemic
▁ammon
▁retin
.8%
cardi
eliac
▁techniqu
▁GBS
▁solely
onit
▁decreasing
▁RM
▁(50
▁enzymatic
▁rehabilitation
erence
▁1)
▁toxic
▁portions
ondr
▁MT
▁Phen
▁10-
tenance
▁lysis
▁45
▁antic
▁fluores
▁sensorineural
▁immune
▁asthma
adrenaline
NM
▁reperfusion
ellosis
oes
▁1.
▁homologous
trib
▁verteb
▁chorio
▁annulus
▁hyperg
▁differentially
▁PT
▁localization
▁70%
▁promising
Ns
incubation
▁acyl
▁harmful
obl
▁Biol
▁nal
▁cryst
ece
▁antagon
oglyc
itro
▁laparotomy
tituted
▁glycos
NH
gans
tial
oradi
▁digestion
tensin
lobin
▁OT
anyl
2.
HF
GH
▁nicot
▁40
subunit
▁hemodialysis
▁deformities
▁supernat
▁colonization
▁72
▁resis
▁antiserum
+/
▁inver
▁msec
▁Tran
▁thym
▁Vmax
▁peroneal
▁follicular
utyr
▁examined
▁86
orac
▁deficit
▁Cox
opressin
▁pronounced
rof
▁gains
▁dosing
▁pathologic
pendent
▁transcription
▁plasminogen
▁pedigree
▁collateral
eces
▁loosening
omers
fication
27
▁ester
ileptic
▁behaviors
▁randomized
entary
lastic
▁epidermal
▁undertaken
trip
▁progression
▁slices
▁osteoporosis
▁ICS
amus
▁ald
▁highl
▁carotid
▁2
isqu
▁300
▁lob
▁lax
▁GVHD
▁efflux
▁shif
tomy
tension
sych
rotid
▁physici
▁Considering
▁prospective
AH
CoA
truction
▁platelet
▁suicide
▁prosthe
▁microm
▁justified
▁buc
▁widening
▁inherent
▁synergistic
▁fentanyl
essential
▁fibrob
ycin
▁perceptions
▁urinary
▁injur
glumine
▁TAA
luded
▁cigaret
▁irrit
▁(15
▁juvenile
▁diagnostic
▁GA
▁complemented
▁homology
▁67
▁arteri
▁oxidase
itness
▁diluted
▁aneurys
▁chromat
linked
▁recipient
▁inges
▁vulnerability
▁vaginal
▁resul
▁PI
▁subc
rotic
dominal
ogenesis
reement
▁NP
ocl
ocular
IH
▁resonance
▁introduces
▁reflux
uncture
▁parap
ergen
rants
▁heparin
▁metabolism
▁PMA
▁cartil
▁perfusion
▁infar
gluc
▁fulf
▁ethanol
zation
▁genome
ositive
pir
ectable
▁incubation
ariate
ohy
▁endos
AO
▁mec
▁responded
ognition
aired
BP
▁unc
sus
otor
▁ruptured
oxidation
▁rotated
▁supple
▁pT
Ti
Phe
▁PEEP
▁correcting
▁genotypes
orepinephrine
▁peris
mur
▁suture
ventricular
▁tracers
till
urethral
urther
▁binds
▁FT
▁tet
WL
▁exogenous
osity
years
▁atten
▁23
▁PAS
▁prol
▁supplement
pig
▁everyday
▁lact
▁follic
tile
▁conformation
vertebral
▁venti
▁deficiency
▁phospholipase
▁infec
▁pregnancy
▁drugs
odies
▁alcoh
cine
▁coeliac
▁eosinophil
▁uncomplicated
-[
▁reductase
▁linoleic
▁preven
▁UV
▁knee
▁biom
uated
▁bilateral
▁contractile
tection
nai
bloc
▁phosphatid
cAMP
▁seventh
earing
apeu
▁equivocal
ipit
▁2-
oluble
incidence
▁discomfort
▁systolic
SCC
▁amino
▁screening
▁CTL
titution
▁ascertained
▁athletes
▁TG
adder
ystolic
▁Effective
▁reductions
▁unil
▁TK
▁emergency
▁lam
▁OC
▁40%,
ofol
throm
▁paraventricular
▁saturated
▁HB
bodies
▁mammography
oping
adily
▁resour
▁GTP
▁MRC
▁enhance
▁modulate
▁carbohydrate
▁intervertebral
▁parag
▁dex
▁unex
▁15
▁mitochondrial
▁Plas
▁hypertro
▁induces
enh
ulcer
▁treating
▁attending
omycin
rological
assi
▁prenatal
▁corrective
▁Chest
▁inspection
opoietic
▁maintaining
▁diagnosed
▁coex
▁EEG
▁carb
▁conducting
▁staging
▁hypertrophy
▁versa
protective
▁gallstones
▁agonists
▁radiol
▁depression
mide
▁promoting
retro
▁persis
▁Mn
▁prevented
▁Slow
▁trophoblastic
hep
ilateral
▁endarterectomy
aints
uded
▁inoc
▁obstruction
seal
▁merits
lox
▁vitro
dial
atched
▁unsuccessful
others
▁46
inhib
trast
▁correlated
tox
▁residency
]-
▁3,
▁distinctly
▁gamma
▁paraplegia
uin
ypical
▁eating
▁shor
athione
▁hepat
selec
▁meals
▁pathway
▁unresectable
plantation
adrenergic
▁angiotensin
▁synap
▁nucleotide
▁lith
tingu
▁verapamil
▁Intravenous
▁assay
tidine
▁injections
▁Phe
▁7%
▁ADP
rae
▁symptomatic
0.
▁atmosp
▁10(6)
ept
onatal
▁immuno
2+.
▁steroid
▁elevated
▁intervention
▁hCG
▁hemodynamics
▁morphine
mittent
olated
▁relapse
▁resistant
▁biopsies
34
induced
▁infusion
▁sensitivity
oreactive
idem
iable
amate
ucle
coun
▁angi
usions
CSF
rogen
arers
▁HL
▁somat
▁endometr
lobulin
▁0
▁connective
▁dehyd
piratory
▁HLA
▁arachidonic
-3)
▁auditory
▁anomalies
5)
-4
▁duoden
plication
usp
aventricular
▁ambulatory
▁tubercul
▁anastom
▁laparoscopy
▁tubes
40
trol
▁SLE
aminated
7%
▁10(-5)
icine
▁PAF
attern
mitted
▁chamb
tality
80
illin
▁Greater
urred
▁coel
stolic
tially
▁encouraging
▁enrol
urate
xone
atical
▁bacteria
▁Eight
effec
-6)
itively
▁intramuscular
3%
▁oxygen
▁rash
▁prevalence
▁phagocytic
▁panc
▁norepinephrine
ayers
▁stu
▁trypsin
stro
olytic
dents
▁hypothe
▁chloride
tering
rophy
orax
▁interp
▁lesions
erally
▁avascular
ochemical
▁reversed
hyde
embrane
ploy
4)
BM
▁secreted
▁proliferation
▁201
▁60%
tures
-3-
phos
▁implantable
onin
CGP
▁deterior
▁interleukin
irrh
▁monkeys
ocom
▁oligo
▁tended
▁Clinical
▁keratin
▁survived
▁perone
guided
rangement
ostatin
▁ultrasonography
▁adults
ameters
▁conceptual
▁adjustment
-60
▁valve
▁FSH
ocked
▁mutation
rogenic
eric
ulph
▁wash
▁definitive
▁substitu
/3
omatic
▁strains
rief
▁bloc
▁complication
▁nulliparous
oidal
▁DSM
▁tertiary
▁intrarenal
/10
▁coronary
▁tissue
▁psychosocial
▁adjusted
-4)
ceptibility
tradiol
etus
testinal
teine
▁unrel
/6
▁unde
▁lesser
▁feeding
▁timely
▁poorly
olectomy
itic
▁reagents
ceptual
tle
▁emissions
▁decline
osynthe
▁cytotoxic
othelial
▁Immun
rated
labelled
▁suppression
▁arter
▁illness
▁gyn
▁systemic
▁implanted
▁surrog
urgical
▁Vitamin
▁steroidal
▁putative
▁errone
▁enlarged
▁nail
uding
▁diagnose
▁cues
entical
97
uble
morph
tured
▁antigenic
cephal
▁anatomic
elan
▁postoperative
oglobin
pT
▁yeast
▁surgery
▁percutaneous
▁kDa
tious
ompan
▁artery
▁thyro
▁determination
▁extrac
atment
▁NADP
siological
▁(54
▁phag
osomes
erin
▁enzym
▁120
▁10.
tility
▁discern
▁oxidation
▁caud
▁adaptive
▁bronchi
aturated
▁desirable
▁DG
▁Improvement
▁synthetase
▁EO
▁Inclusion
ching
▁screened
19
▁sickness
▁limbs
▁ligands
tib
▁propranolol
▁syndromes
▁epit
▁ane
mol
gesia
▁epitope
▁mM
tence
operatively
apse
rested
▁inapp
RD
ylate
▁vagal
▁adap
ctive
▁chan
▁SEM
rogra
▁TNF
▁catechol
▁transurethral
▁intermittent
-10
▁challenges
▁heavi
▁Elec
▁ALT
▁topographic
umbar
-14
eight
ially
▁Additional
/2
▁sliding
▁focal
atient
enzyme
▁pyl
lact
cessive
▁radiolab
▁compliance
0%
▁multic
▁declined
▁inositol
ipitation
tensive
▁catheters
▁methyl
2)
▁hormonal
ulin
▁(18
umulative
▁calcified
ithiasis
▁occlusion
▁neurologic
accharides
▁sympathetic
▁phospholipids
▁histologic
▁utero
▁excretion
▁clearance
▁lowered
▁technologies
nutrition
▁callus
▁unin
10
relations
▁NPC
▁Patients
▁transi
tric
overed
▁dialysis
rever
otactic
itudinal
ensitive
▁tobacco
▁neonatal
▁RB
▁neoplasm
▁gastric
ministration
▁clus
▁vag
▁restric
▁bacterial
▁oss
▁Older
versely
▁infection
rease
▁ranged
unctional
geal
▁concom
▁fetal
5).
lectomy
ivation
▁unexpl
▁exhibited
▁beverages
meth
▁proce
herence
▁mortality
occi
greater
▁rele
▁unm
▁arrhythmias
rosine
emic
▁transplant
ipient
tivation
inic
▁Intra
▁genomic
▁synov
inephrine
▁GSH
▁correlations
oratory
▁ablation
ochemistry
▁prevention
▁idi
licular
▁conduc
azole
vascular
▁mammary
▁prolactin
tif
▁diame
▁anesthe
▁cyto
MH
▁warr
▁risks
▁suppor
itures
ifugation
▁extre
-6-
▁emphasizes
▁distinguishing
ifug
phosphate
▁insuff
-2
▁revealing
6.
▁adenosine
▁tach
▁inhibin
uscular
RNA
▁kinetic
▁gp
▁tert
▁inequ
▁experi
▁(17
75
▁acetabular
▁ATPase
▁slowed
ocele
▁+/-
modulin
▁abdominal
▁sple
▁sedation
urys
▁Cytoplasmic
▁suppres
ameth
▁continuing
▁undergone
DNA
tran
▁labeled
▁recess
minal
▁Biochemical
▁aimed
▁intravenous
ensitivity
▁connec
▁Trial
▁(8
amn
oxid
pyr
▁fragile
▁tris
▁Alcohol
ogra
▁waist
plo
TG
athyroid
ocardial
quine
▁intact
virus
▁stimulatory
▁deficiencies
siveness
▁ACL
▁vitamins
▁CPAP
anese
▁serum
11
▁PET
▁transplantation
▁Larger
illus
▁abnormal
LDL
mL
▁trials
14
formin
▁consistently
▁reveal
▁bic
▁clinician
▁withdrawal
▁32
▁ure
oretical
▁Ket
cele
▁PKC
▁creatinine
▁cerebrovascular
▁yiel
▁differentiated
vation
Ds
▁42
LF
▁incub
▁initiating
▁Hep
▁tolerated
▁16
▁NT
▁antagonist
lead
▁behavi
▁vaccin
▁hypers
iol
▁carriers
▁pineal
▁delivering
▁poisoning
▁GFR
▁pyr
▁80%
▁transcripts
hospital
▁excimer
resting
heal
▁sensory
urgery
artum
▁cirrh
nthe
▁HDL
tabol
▁chromosomes
▁enzymes
▁amy
▁postmenopausal
▁subunits
degree
▁meth
ullary
onium
▁wee
▁regulate
▁microv
went
▁thromb
▁striated
▁osteoporotic
▁LV
▁ramus
oskeletal
▁phenyl
RM
▁arrhy
▁mug
RP
iability
▁macropha
▁subtype
otypic
NAP
birth
▁analys
▁1.3
▁cumulative
▁parotid
▁challen
▁adjustments
▁pharmacy
▁7,
▁surround
▁myoepithelial
▁homogene
▁contex
achid
▁kinase
▁conserved
▁laser
-30
▁substrates
▁resuscitation
▁slic
0-
utroph
incip
▁warranted
▁nursing
▁junction
tical
TN
Nase
Tn
taken
ygen
▁tension
▁oste
kine
ceptions
tically
▁esophag
▁acidosis
▁recor
▁influenz
▁phosphorylated
saturated
▁precedes
▁excit
▁systematic
roma
▁15%
approximately
▁surrogate
▁organisms
oric
▁experim
▁regar
▁coeff
uoden
ejun
epam
▁inactive
▁pharmac
▁titers
▁[125
entric
/1
▁Accordingly
ignificant
vail
▁kerat
▁advisable
ologic
ritish
▁sarc
▁immunore
▁PCR
▁angioplasty
▁SG
echanical
-9
▁labelled
stem
▁preferably
hern
▁decisions
▁rhe
estim
▁cen
-0
▁previ
▁phosphate
▁colonoscopy
reactive
▁Stroke
▁gluten
▁99
retion
▁carbohydrates
▁cardiac
evaluated
▁advan
tum
▁struc
feren
VT
▁proliferative
odal
▁eryth
rying
▁bab
▁residual
▁occl
▁saline
▁mamm
▁potency
▁pump
discharge
▁chemot
▁95%
▁Thirty
▁adjunct
kinase
▁multifactorial
▁underst
▁PVR
uccess
trogen
generation
▁inappropriate
▁dyn
▁flexion
▁mild
▁leuk
▁excre
tific
alian
teroids
▁cG
▁stere
ventional
▁HCMV
▁indicators
centr
oreceptor
ineph
▁gonad
▁axons
ths
▁donors
▁follicle
▁benz
▁assessment
Tc
sies
▁immunisation
▁operative
arge
ometr
ocytic
▁overlapping
lective
coh
▁SBA
▁presenting
responders
▁reag
▁endpoints
▁limb
▁hydrolysis
stress
▁coval
epine
iotics
robic
amide
▁PEG
loro
▁naltrexone
▁receptor
Ga
▁sugges
▁cystic
affinity
orin
▁consol
thyl
▁impaired
▁glycoprotein
▁increas
▁evac
▁mast
▁fluoroquin
▁prolif
alc
heric
▁overl
FN
weighted
▁comparisons
▁gastro
▁199
▁retic
▁perc
hion
▁provocation
otropin
▁homogen
roin
▁consis
▁acute
OA
-1-
▁feasible
accharide
▁provid
▁lymphocyte
▁monitored
ctomy
nowled
.6
▁Educ
.0
chers
▁ipsilateral
▁IFN
▁intense
▁selectively
tages
▁fracture
mented
abies
▁exchan
▁labeling
▁8.
▁oxidative
▁hemo
▁pate
▁inhibition
▁hep
▁clinical
▁inadequ
▁56
▁atrophy
ercul
▁1.6
▁Patient
glyc
▁RNA
▁degrad
effective
▁reposition
acr
▁uterine
arb
▁ESR
gulation
▁sulfonyl
▁fiber
▁injec
nucle
loon
orpor
tiveness
▁psychiatric
▁necro
-67
amic
▁10%
▁monocytes
angl
HM
▁antigen
▁astrocy
▁accounted
1%
▁cancers
▁6,
▁ovari
▁juven
▁Increas
▁identifying
▁abolished
▁ultr
▁expressing
9,
▁doctors
▁adhesion
▁liver
▁melatonin
arate
▁reviewed
▁pregnancies
67
▁bladder
▁clinics
▁pregn
▁tiss
▁kine
carcin
▁overd
▁disruption
legia
▁numb
▁serine
▁traum
▁lobe
▁14
▁Swed
▁reproducibility
17
vaginal
▁influenza
duction
pS
acental
▁eosin
tiz
90
▁implicate
▁NaCl
ochondral
oplas
▁0.03
▁cuff
▁deficient
▁dors
▁antegrade
▁THA
▁abnormality
▁influx
oyl
▁advances
▁solub
uron
chond
▁hydrophob
▁hormone
ositol
▁strep
▁CMV
▁sustained
▁sero
▁6-
▁thymus
▁1.7
▁metoclopramide
osom
▁bronchoscopy
▁nonadherent
stant
▁probes
▁progen
▁endothelin
▁SHR
ffer
vul
alues
odil
▁dorsal
▁mutagen
▁1987
erative
toph
7-
▁baseline
▁hazard
▁IIb
88
▁tRNA
▁poin
economic
▁oocytes
▁gluc
▁endot
▁hemisphere
▁perme
astom
)2
leukin
ylamide
▁deficits
positive
▁identif
▁caregi
erals
▁arthritis
53
▁pathogen
▁inflammation
▁adenoma
▁Continu
▁accep
20
▁catalytic
quid
▁enl
▁Routine
▁morbidity
▁diabetes
GF
bic
▁insulin
▁indications
▁22
▁spikes
▁indi
ogenous
-8)
▁algor
▁predominantly
▁adolescence
▁electr
▁exercised
ialysis
▁tympanic
ocyte
56
▁undergo
▁hypertrophied
▁transloc
▁disappearance
▁acetyl
▁glucagon
▁100
▁overe
▁9
▁kidne
▁retina
oplasmic
▁pathological
▁placenta
▁conclusive
▁etiology
▁epiderm
▁promoter
▁Comparison
▁47
2,
▁sclerosis
▁metastas
▁aggravation
▁vitamin
▁assessments
mg
▁DST
ication
▁preoperatively
▁stimuli
▁ADH
▁transcriptional
▁predictive
▁Operative
▁fibers
either
▁substance
▁reveals
ostic
osyn
ophore
eled
▁0.001)
arcin
▁pathologically
▁pathologies
▁intraoperative
▁resting
▁infected
opathy
▁mRNA
▁gout
matic
▁reactivity
▁exacerbations
thmias
▁decades
▁wors
▁Taken
ternational
glutinin
▁peroxidase
▁enrolled
▁3-
▁stimulating
anding
▁cereb
▁fatigue
trative
▁4.
▁complaints
▁irritation
unced
trum
125
▁polyp
olved
roscop
tage
▁lymphadenectomy
▁questionnaires
▁neph
▁phosphorylation
▁lens
▁plas
▁infiltration
▁invasive
tained
▁susceptibility
▁haemorrhage
▁therapist
▁VL
▁extraction
ospor
▁routinely
lateral
▁0.000
▁ovarian
▁stimulus
▁(11
▁precursor
▁Experim
turb
▁hern
▁iatrogenic
tolerated
genic
antigen
▁manifestation
▁[14
▁ortho
hort
eptin
▁statis
▁intravenously
3-
▁virtu
▁racial
▁70
uptake
aced
▁24-
▁alcohol
lycer
▁reproduction
▁sodium
▁construc
▁plates
▁substances
▁morphologic
adequ
seud
▁prospectively
4-
Ka
▁vomiting
35
▁lobectomy
opi
pH
mig
▁intra
ials
▁silic
icient
oproterenol
▁intest
▁atmospheric
odialysis
otherapy
▁femur
cad
6)
sequent
valence
▁Atropine
uretic
imens
▁hypothalamic
lycemia
olateral
▁tymp
bacco
▁diabetic
▁warrants
▁concentrate
ecyl
▁pneum
▁polyps
▁physically
▁fibronectin
6,
▁newborn
60
▁tow
opha
ffec
erum
▁autosomal
IIIa
tance
▁disorder
▁adenomas
▁infarction
▁WHO
tetr
apeutic
▁ranging
▁respon
▁questionnai
▁surviv
ietic
▁ouabain
▁evaluations
▁positioning
clinical
▁progesterone
hered
▁prostaglandin
46
resist
astatic
▁IgE
▁acids
▁kidney
sul
▁medial
▁hemoglobin
▁torsion
▁fever
▁PTH
planted
▁surge
▁heal
▁pleomorphic
▁streptococci
▁practiced
▁melanomas
▁19%
▁atherosclerosis
▁tracer
▁depolarization
▁expenditures
amethasone
ipher
▁UT
▁Phy
▁soybean
▁interf
▁tumors
▁ELISA
▁carbohyd
ranial
▁neurons
78
ropha
▁leukemia
ercise
vating
▁hap
angli
▁leu
opa
▁financ
rehen
epit
▁chloro
▁colorectal
sts
acchar
▁Percutaneous
▁shorten
Ia
▁intrinsic
omod
▁depres
▁nucleotides
iciencies
▁TRH
▁acquire
▁25
▁withdrawn
trus
▁decisive
▁phenomenon
▁7
▁amyloidosis
▁cue
▁acetylcholine
lym
▁fixation
omical
eptid
▁peripheral
▁neurones
▁therapeutic
vated
▁abd
hydr
▁neutrophil
3.
▁lec
▁steroids
containing
CBF
▁DF
▁lungs
▁microscop
▁turnover
acetylcysteine
ameter
▁fibrinogen
arly
immuno
▁mRNAs
olenic
ncy
onset
produc
obarbital
▁nurse
risk
heum
▁pS
▁nitro
▁posi
▁cohort
▁gon
▁dietary
▁rectal
▁achievement
platin
▁1.8
ymptom
▁Significant
sorption
▁0-1
henyl
▁BP
▁esophageal
▁mature
▁deposition
▁guan
▁adren
▁hippocampus
dehyde
▁unchanged
▁IGF
▁43
associated
▁prednisone
▁masked
ocarcin
orest
▁adenocarcinoma
▁practic
▁atm
▁reasonably
▁thyroidectomy
▁depar
▁CSA
▁(0.
▁asymptomatic
ACS
oracic
▁chl
▁RT
▁hepatocytes
oprec
▁prognostic
pecific
itary
rine
helin
85
▁dys
istar
▁discordant
▁gangrene
▁amyloid
▁peptide
otting
othel
▁coronal
▁hormones
▁Medicaid
▁specimens
▁oxy
▁lumb
▁spont
▁differing
ostomy
▁relating
▁vegetable
▁electroph
▁cesarean
▁fmol
iciently
▁potassium
fected
▁PSA
▁Histologic
▁testis
▁DT
▁0.001),
▁cytotoxicity
▁Pregnancy
▁1988
avage
▁initiation
▁hypertension
ventive
ococci
hydroxy
23
▁warrant
idis
▁morphology
57
ovine
▁concer
tus
ceptive
ascular
oleic
▁triglycer
▁retur
▁meaningful
mature
oplasm
▁preservation
arthritis
▁conservative
▁kinetics
15
especially
ollicular
▁effector
▁clones
▁equilibr
ectin
▁cytoplasm
▁peritoneal
▁fibroblast
▁schizophrenia
omes
▁tumour
▁regimen
▁oes
opres
▁regulated
▁inpatient
▁LOS
rement
▁plur
▁utilisation
▁functioning
rosis
▁metabolic
▁chor
obal
▁mammalian
▁isot
ubtedly
immun
adren
treated
ultural
▁horm
▁remission
odynamic
7.
▁hernia
CRP
▁examination
hest
▁abnormalities
derly
▁judged
opl
▁microgram
▁incidence
▁distal
▁anticoag
▁urine
▁secretion
▁contraction
enic
▁providers
gents
▁hams
tration
▁achie
VR
wenty
elvic
2+-
▁myocardium
ococcal
iaz
invasive
aneously
▁RBC
▁controlling
PB
▁microns
ortic
▁synthase
0%)
oconstric
ses
28
▁heterogeneous
▁disagreement
ocortic
IU
▁suspicious
▁LH
ulitis
▁fasting
▁crest
urea
asive
▁Pretreatment
ergy
effectiveness
▁centr
gland
.9
-16
olone
▁palp
▁subsp
cysteine
▁28
▁mmol
▁insertions
▁radiotherapy
severe
-2,
▁abl
▁sequel
oic
genes
iron
▁pulmonary
▁tibial
25
cutaneous
▁elimination
▁safer
▁isoform
▁analysed
oxif
▁8
▁usefulness
-1,
omies
▁exce
▁interventions
matched
▁Denmark
▁ganglion
▁(4
tisol
▁inhibited
▁validity
▁gestation
▁mandibular
icardi
▁immunomod
▁seroton
ivered
estern
-5
▁carbox
▁atres
▁linkages
▁innerv
▁immunobl
▁autologous
▁comprehensive
▁hepar
pies
ulose
erations
▁pig
sions
▁evolving
tead
kinin
▁cAMP
▁regulatory
▁hygiene
▁phosphatidyl
olol
▁backs
mend
▁discus
▁stained
▁classified
▁overestimated
orts
▁chromatography
▁allergic
chol
▁Addition
▁HR
▁cleavage
-100
ograp
phic
thma
stim
▁surgeons
▁episodic
istically
▁normalized
glum
ogenetic
▁deaths
orphic
▁accel
▁fluor
▁empirically
▁pall
▁carcinoma
▁irradiated
ivary
mobil
-19
▁adherence
▁discon
▁sial
gain
itr
▁nurses
aning
▁membran
▁75
▁neon
▁surgically
▁20%
▁proposes
fos
▁immunoglobulin
bly
▁blot
MV
▁congenital
osin
▁reliably
romes
hyp
▁competi
▁perinatal
▁causal
▁tol
▁HN
▁synchronous
▁abilities
▁clinically
▁merit
▁behavioral
olip
▁IgA
▁identically
▁ascertain
000
▁presum
▁endotoxin
osome
▁neurotrans
usal
-15
ithms
▁ana
▁undetected
phasic
▁Afric
ronchial
fentanyl
▁canc
rophyl
▁DN
razole
▁deprivation
▁drain
▁cloned
▁intrav
▁contribut
▁contributory
▁cava
▁stimul
▁chewing
titu
▁adhesions
▁soluble
▁opioid
▁donor
▁mV
▁SGA
▁erythrocyte
▁200
rents
▁ACTH
8-
▁conclu
▁FD
oscop
▁vasoconstric
2-
carb
▁biliary
▁cartilage
▁retrospective
SAP
▁doses
▁molecules
▁cytoplasmic
▁recordings
▁AIDS
▁ration
MIC
▁0.2
▁cadaver
ectom
igaret
▁axon
▁consultations
oceptor
▁assurance
osal
▁insertion
▁0.01).
▁MG
▁progressive
▁Hb
▁implant
▁GH
lusion
▁blockade
▁moisture
▁investigated
▁unre
ewish
▁pathologists
2%
ivoc
▁complementary
▁overdose
▁Compared
▁Surgical
▁absorption
acclim
▁Lys
ohyd
▁Paget
▁conductance
▁mAb
▁plaque
▁stratification
▁fibr
▁optic
▁cannulae
valent
▁instability
▁ips
▁ulcer
kines
▁reduc
▁moles
▁hypothal
▁exclusion
ococcus
implantation
erop
▁disappointing
▁thal
▁microb
zyme
▁CSF
▁thrombo
▁mucosal
▁AVP
▁antagonists
regulation
8)
entif
-12
gments
▁hospitalization
were
▁derangement
▁125
yroid
▁33
ture
sized
hering
▁intrag
▁SNP
▁cirrhosis
▁inev
▁metformin
▁measurable
▁0.8
▁tympan
▁hypo
idine
▁rigorous
▁angina
▁ocul
▁substituted
uation
CMV
▁0.01),
▁lamb
thmic
▁rabbits
oxin
▁grafts
ffinity
▁preconditioning
▁0.01
alities
▁discriminative
▁HI
▁adhesive
okine
▁reas
▁duct
▁ongoing
orectal
fron
cells
istal
▁metabol
▁confined
▁neutroph
▁SDS
▁sequential
▁comparable
▁murine
▁rese
▁counteract
▁monke
▁recur
rophob
▁discre
teric
▁mmHg
▁Whereas
▁ml
13
▁0.7
▁transpor
▁coag
crimin
lyce
▁LF
▁correspon
otroph
▁responsiveness
▁mechanisms
2),
▁symp
▁adenylate
▁histological
▁nerve
▁broader
occus
▁migrated
▁LVH
gesterone
▁prophyl
▁laparoscopic
assium
▁sequentially
wk
▁lys
▁pylorus
tryp
iotensin
▁healing
eration
▁31-
▁analyses
urons
▁heterogeneity
▁hybrid
▁[3
▁variability
▁ventilatory
▁overlaps
iciency
▁detectable
▁400
▁possi
lated
tural
genital
▁unres
▁prevalent
prising
Ly
79
▁PCP
▁constitutional
▁60
▁diets
tected
▁muscle
employ
▁haemorrh
ochrome
amines
lux
plete
▁balloon
ailure
▁lateral
▁50%
▁pharmacological
uccessful
▁efficacy
inated
▁monoclonal
ophren
▁pulses
urc
▁Dil
+-
▁excl
▁3)
▁intragastric
▁indetermin
affec
▁orthopaedic
▁cytochrome
▁suppressed
sy
BG
▁pancreatitis
▁urea
▁differentiate
▁childhood
piration
▁suppressing
▁APD
ardless
plants
▁fitness
▁0.
orative
▁interacted
▁dele
▁hig
▁appreciably
▁drops
▁directional
▁1,25
▁Chemical
tual
▁cys
otom
eptide
▁iliac
▁carc
requ
glucose
▁tuber
▁iod
▁toge
▁26
▁pelvic
▁detachment
▁tracing
odium
9)
▁Surgery
tur
▁anticoagulation
▁placent
▁catheter
▁glyc
ilibr
▁projec
▁unselected
▁instr
▁unstable
.6%
namic
▁maternal
▁preparations
▁HA
acts
▁propensity
▁untreated
▁scintigraphy
adherent
▁radiography
▁ech
▁needles
▁preferable
▁contractions
kground
▁ANF
parative
▁subjected
cepti
acial
erine
trimental
▁thickness
omedullary
clin
▁chec
▁unprotected
oprotein
ustment
▁intestinal
▁thromboemb
▁predicting
▁ECG
hydrox
▁PB
▁fluorescent
▁nitrogen
▁Previous
4,
▁heparinized
▁modulation
▁noncom
▁(100
gmental
▁36
▁hemorrhagic
ancre
▁pretreated
MN
▁synthe
▁swelling
▁0.001).
▁pathways
anine
ophilic
ducts
▁24
▁alp
Ta
▁marrow
▁LC
▁epitopes
▁meal
▁breasts
▁AMI
▁cyclosporine
erance
▁66
▁hydroly
▁ppm
acyl
▁discrimination
erent
veness
▁GnRH
overall
lyc
benz
▁discrimin
▁choline
nec
▁infect
▁curative
▁affec
▁57
▁awareness
▁protective
ignific
▁phosphor
▁stomach
immunization
▁4)
monstr
▁AGA
▁VD
▁GE
▁squamous
semb
onance
opathological
▁GD
▁(3)
▁cocaine
▁inhib
▁1.0
▁analyzed
illary
▁acetab
▁wt
▁improves
▁disorders
▁FV
transplantation
FV
▁eradication
▁aor
▁saliv
▁procedural
gene
-20
mentation
tional
▁reflec
▁hemorrh
▁modulates
▁inversely
▁practitioners
enol
▁antibody
▁AE
▁59
▁polypeptides
▁placebo
acement
▁likelihood
▁acad
▁advised
▁paradig
▁conduction
sities
▁psychotropic
ginine
▁inh
▁utilization
▁intestine
▁hypog
▁replic
▁prel
▁carcinomas
▁onset
▁paralle
▁analogue
▁gangl
▁epidemic
ustained
ograms
▁intercostal
▁dissec
tic
▁rejection
HB
▁mucosa
phosphon
▁progestin
anol
▁occurring
0%,
▁trough
tak
kDa
▁emerg
▁arti
▁subun
▁micrograms
▁caution
8+
iated
▁genotype
▁20-
▁neoplas
phyl
▁expertise
▁peripher
trate
▁COS
▁spectra
natal
▁brom
▁adi
▁beha
▁UF
▁lectin
▁filaments
astolic
silon
▁developmental
▁stimulates
▁demographic
▁advancement
▁parental
▁immunity
▁rationale
ensory
rone
▁assays
▁pati
▁minority
▁athe
▁brady
▁preferen
▁acidic
▁inhibitors
astric
▁Pregn
▁Neither
▁palsy
olus
▁migraine
▁hospitalized
▁coli
▁assessed
tention
ocusing
▁birthweight
▁APC
▁RP
▁vaccines
▁encourage
▁reactivation
▁cataly
▁250
.3%
ensi
vac
▁fibrin
▁empirical
▁physi
ophil
atients
▁Vac
antial
▁preterm
▁nec
▁undoubtedly
ycl
erator
-8
▁Hg
thle
▁histamine
▁polypeptide
▁physiological
▁cyclase
▁complic
▁sequelae
onuclear
22
otoxin
omain
▁plasma
▁cortisol
▁acco
fine
▁chlor
▁regulation
▁platelets
▁technically
rhy
▁attenuated
▁adrenal
▁longitudinal
▁enzyme
▁complications
▁UL
▁sph
▁multivariate
▁viral
▁HAM
▁cited
itone
▁FH
▁targe
functional
▁clinicians
▁supplementation
olesterol
utin
▁acqui
ineural
▁resemb
▁nmol
▁vaccine
▁deter
▁(198
▁metastases
eal
▁anatomical
otox
3)
aginal
▁indicative
tro
5.
icated
Ba
etitive
▁mucos
▁Muc
▁acet
▁subtraction
▁alteration
▁circumferential
▁PD
▁airway
▁48
▁comprehension
onstric
▁overlying
▁UTI
oscopy
▁premature
▁interv
ranolol
▁therap
▁Acute
▁epileptic
▁depic
▁aneurysm
▁thir
-7)
kade
▁nig
▁IA
▁mineral
reness
▁afferent
▁plantar
knee
▁ageing
▁neurop
▁dexamethasone
+)-
▁ligand
echan
▁postoperatively
PAP
▁(2)
▁circumferen
▁fatty
▁pyram
▁heavier
▁sulfonylurea
▁cysteine
▁proteins
▁0.01)
▁structural
▁familial
lep
▁balanced
▁ultrason
▁0.6
▁compartment
partate
▁psychological
ylcholine
▁dendritic
▁salivary
oxide
▁spermat
apamil
opath
▁Eff
▁immunofluores
▁adduc
luc
▁inflamm
▁integrating
▁facial
▁Cushing
AIDS
▁intrac
▁(9
▁analogues
▁groin
▁barriers
▁sexes
.5%
▁perfused
▁TD
▁superoxide
ontal
▁Mucosal
ifed
fed
▁relaxation
esting
intestinal
▁CRP
▁laboratories
▁decreases
▁Large
▁phorbol
▁orally
▁palli
▁cardio
▁pretreatment
sulf
▁obese
▁inhibitor
▁immun
APC
▁employing
▁vagin
MG
rogenase
ressed
osomal
▁pressures
▁rated
ucleation
WBC
▁11,
▁constr
▁hemis
▁somatic
ATPase
▁inhibitory
titial
▁unevent
▁2)
▁frac
▁controversial
▁soy
450
adication
▁currents
▁dopamine
▁muta
▁Therapeutic
▁1.5
▁wk
olones
▁implicated
▁manufacturers
inely
▁consecu
▁HG
tate
▁scans
▁physiology
▁basal
▁lesion
▁2.0
▁CNS
luores
terase
▁agonist
▁VE
▁DFS
▁concordance
▁IH
ecu
aptic
sor
ifol
▁uptake
▁myosin
▁DS
▁1:
▁(2
▁mellitus
▁measuring
oprote
▁apoptotic
amination
ographically
▁52
whe
▁prescribing
▁chains
CAM
▁recons
2%)
▁oxid
84
▁exacerb
▁synovial
tively
▁fractured
ervice
▁weigh
▁spati
▁extracts
arental
▁irrever
▁Thromb
▁Comparisons
▁prono
ocardi
▁96
▁contrac
▁musculoskeletal
▁microsomal
omiting
▁inhibits
anded
mental
▁aspir
▁Streptococcus
▁gynecological
GD
▁Bone
▁interpersonal
FG
▁cytosolic
▁mono
▁Nine
asal
4).
maximal
8.
dle
acetic
▁haem
1).
▁considerably
ophag
▁awa
▁parame
▁Overall
oplastic
0,000
respon
▁spontaneous
▁oxygenation
▁ventil
ulmonary
▁readings
▁mononuclear
▁biological
▁IVF
▁docum
ocial
▁hazards
ocul
▁stroma
▁attenu
▁displacement
▁gallbladder
▁thrombolysis
▁exo
oxygenase
bral
ronectin
ithin
▁anesthetized
RH
ocor
▁terminals
▁Poor
acting
atell
▁dentists
▁Clin
▁arachid
cold
oplasty
hicle
▁197
imination
▁shortening
▁zinc
nitro
▁(6
unts
▁androgen
▁hydrophobic
▁thoracic
▁glomer
▁1000
otent
itance
▁selective
ields
▁ultras
▁disadvantages
ximum
▁quantit
▁adminis
▁cellular
regn
atinine
▁sustaining
▁39
▁respec
amet
▁synerg
tophan
dose
▁avoiding
▁radiograph
▁hyperp
osts
▁0.05
phosphonate
▁membrane
▁microtub
▁pmol
▁elong
phth
▁headache
▁clinic
itally
▁substantially
▁Golgi
oagulation
▁79
▁1%
ignant
▁affecting
▁lis
grees
▁Magnetic
▁cyclic
▁pelvis
atheter
▁ket
▁competitive
idne
odic
▁chest
yses
▁assis
▁carcin
FU
▁MBC
alsy
▁constitutes
itol
▁bip
▁resection
▁68
reported
▁BV
oA
▁21
unar
.2%).
▁managing
olic
helial
▁alve
otomy
▁disparate
▁affects
ffs
▁0.3
▁elicited
oids
▁cholinergic
▁reproducible
▁infections
▁births
▁Chronic
(+)-
▁atropine
▁RS
▁thorac
▁antec
vant
▁obesity
lasses
▁HSV
esic
▁activator
▁congen
▁GI
▁promo
▁respiratory
▁clon
▁erroneous
tyl
▁aerob
▁demonstrates
▁dilated
ocarcinoma
▁characterized
inergic
▁hepatic
▁endemic
▁lumen
onyl
gely
trexone
ubted
▁manu
▁2.5
amine
▁sustain
fec
▁progn
▁2,
cyst
ritis
▁involvement
▁necrosis
erated
▁laboratory
▁simultaneous
onol
▁vena
▁calcium
siologic
gic
▁anion
rolog
chlor
▁agon
opramide
▁OSA
▁Tests
▁recessive
▁encoun
▁potenti
▁Thir
▁decreased
itoneal
jejun
▁labial
omethacin
▁adenocarcin
sors
▁4-
▁glands
perfusion
▁0.9
ucine
▁drin
sive
▁hypot
DH
▁sinus
omat
▁hepatitis
▁chemotactic
▁198
KI
▁examinations
▁LDL
▁initiated
▁phospholipid
▁desm
ertion
▁AI
▁immunoprec
deoxy
▁nucleus
▁cate
▁reticulum
inemia
jec
▁sperm
▁-0.5
▁31
olum
▁(10(
ancies
sess
▁prostagland
▁overexpression
▁EMS
▁Delayed
▁ancestor
▁metabolite
▁cyt
▁implantation
▁favorable
▁ultrasound
rotein
responding
▁burden
▁Findings
▁modif
▁perin
▁traumatic
ylated
▁differentiation
idin
▁NH
umerous
rection
istrib
▁Engl
▁researchers
icide
▁facilitate
ectomies
opulation
▁0.05).
▁prolonged
▁eti
lowering
▁amo
▁pregnant
▁adequ
rapid
arean
iferol
▁vesic
Fs
▁biochemistry
▁nasal
▁Improved
.2%
dimer
▁25%
▁injuries
▁BD
▁athle
▁coupled
▁peptides
▁muscarinic
▁undes
▁melan
▁predomin
31
▁psychotic
EA
▁toxin
▁sten
BK
▁cats
▁11
▁isch
▁30%
ifferen
▁satis
1.
▁corne
▁molecule
▁depolar
▁10(
▁molecular
uterine
4+
▁cerebral
▁feasibility
▁CCK
▁occlusal
▁nonc
atab
▁morphological
▁viewing
.2
▁minimize
▁tyrosine
ovascular
▁2.
▁allerg
edle
jug
erable
acrylamide
▁repor
insulin
ofluores
▁selec
▁creatine
threatening
ufficient
▁cohorts
▁rhy
▁deform
▁adhering
▁BMI
▁electrophoresis
ologists
ropyl
▁prostatectomy
▁gynec
GI
tory
▁enhanced
▁ACh
▁excluded
ylation
▁100%
▁surveillance
▁aging
ondral
▁cyclo
arous
▁Sout
▁mandatory
esium
▁encour
▁adjuvant
▁insult
▁AGE
tabl
▁stellate
▁workload
▁gland
-1)
▁renal
aminergic
▁retinal
▁ischemia
▁oral
▁Severe
▁preoperative
▁intramedullary
▁cervical
76
▁followup
▁autoradi
▁visually
ovirus
▁therapy
▁medication
xiety
KD
81
▁supervision
▁granul
▁socio
luent
utaneous
elec
▁hetero
▁effectiveness
▁trend
▁electrocardi
plied
atories
▁deletion
copic
▁buccal
▁therapies
▁oils
▁pene
▁1.6%
▁HPV
oside
scherichia
▁glu
▁disability
▁dose
▁dissection
RB
▁clamp
▁preval
▁determinants
linolenic
encephal
▁potent
▁accumulation
otomies
▁multiv
104
▁challenging
ynthe
▁rabbit
▁pediatric
▁referral
▁cardiomyopathy
onad
leu
▁endocrine
▁enhancement
▁findings
▁intrap
osterone
-7
▁babies
iosis
idated
▁pter
▁3.0
ulfonyl
▁dete
▁newborns
▁targeted
▁secretory
2).
▁phosphatase
▁manifestations
▁debr
▁bovine
▁apex
iably
▁adolescent
emory
acin
▁canine
▁myocardial
▁collagen
▁periodontal
5%
evaluation
▁tamoxifen
▁embryonic
iatric
ipar
ithelial
▁cerv
▁(19
ostat
▁antigens
orbol
▁precipit
▁requi
reated
▁suggestive
gth
hap
farct
ogenic
ocytosis
▁hemorrhage
▁mg
▁preparation
▁0.5
▁qualit
xia
▁granules
ymme
▁fibres
▁confound
▁reactive
▁emotional
inol
atrial
▁deple
▁dodecyl
▁dye
sively
▁tear
▁refrac
tive
▁reper
carinic
FH
.4
▁nervous
kephalin
▁temporarily
▁0.0
aluation
venous
▁collec
▁aort
▁colony
▁Biochem
ivariate
5-
▁amyl
▁rebound
ocrine
▁anastomotic
ressive
▁microscopic
infected
▁inhibiting
▁Treatment
▁cortic
MRI
tries
atine
▁ventricle
▁thickening
▁surgical
▁7.
▁eyelid
essive
▁amines
▁anticipated
▁.00
Mu
7,
▁guided
▁bipolar
fts
▁axillary
▁schiz
▁intrauterine
▁pylori
▁umbilical
iliac
▁5-
▁deem
▁suppressor
▁Kup
▁13
▁volunteers
▁lithotrip
▁hemodynamic
▁inducer
veolar
▁glycogen
▁estimating
▁chronic
▁screw
iatic
queous
▁IBD
▁angiography
▁intraper
▁approx
▁nutrition
▁mitral
▁CK
ught
▁Samples
▁inters
▁Alternative
▁mobility
▁ions
aline
▁membranes
▁fulfill
iferation
ituitary
▁establ
▁progres
▁mell
▁geriatric
tact
▁organs
cture
.2%)
▁insufficiency
▁focusing
tam
▁-0.
▁disrup
▁experts
menopausal
▁induce
▁dehydrogenase
▁tric
▁vivo
rals
▁tooth
▁hypoglycaemia
▁designing
vices
▁muscul
▁79%
▁fractions
▁PRP
hyd
undibular
▁sulf
▁fold
embran
▁recurrence
lix
▁kb
ulatory
▁consequent
.7%
▁assayed
▁1.1
▁PP
▁locus
atest
▁1-
uvant
illation
tation
▁fractures
mia
▁metastasis
0.5
▁diagnos
ervical
actin
LISA
oresis
aceous
▁19
▁monit
LU
entan
ioid
▁cure
cents
▁immature
1-3
▁consensus
▁RAR
▁cancellous
▁epithelial
▁inactiv
LH
▁Serum
derived
▁eyel
VL
▁diastolic
▁GM
ffin
terminal
▁32%
iatum
▁nifedipine
▁microvascular
lasts
ixation
▁chori
TK
▁polyethylene
▁deformity
▁HCC
▁thrombin
▁85%
Ps
▁50
▁preclude
▁vesicles
▁ery
tect
▁lipids
.7
▁seizures
▁Dop
eroxide
ortal
stages
▁malignant
Hb
▁moderate
▁endarte
%),
▁hypertensive
otone
▁substanti
▁anemia
▁genetic
18
anic
thrombin
▁endothelium
▁34
ochondr
▁glomerular
▁RH
tein
clusive
▁periodon
amily
opes
ropriate
▁hippocamp
▁chromosome
▁paradigm
▁prostatic
▁compound
▁TSH
▁LN
▁eliminated
bac
olute
nosis
PV
▁fibrosis
▁cortex
arotid
1),
▁SCH
▁misleading
▁sciatic
▁0.05)
roximately
imental
▁hind
▁5%
blind
▁pharmacokine
lys
▁nutritional
▁ratios
uvate
▁lymph
▁stenosis
▁lymphoid
▁intensive
▁cDNA
▁LPS
▁adrenergic
▁adolescents
▁compe
▁intraven
▁corrections
2+
yel
▁descending
galact
plasia
thal
▁pituitary
3,
▁comparative
▁8-
▁belie
▁HP
▁concomitant
▁pigmented
illic
hemo
▁lymphocytes
9%
acted
onucle
▁brains
▁triv
trop
99
▁vasodil
▁staining
▁sampl
▁beneficial
▁prophylactic
noise
▁estrogen
▁sucrose
Au
▁irradiation
▁196
▁reversible
▁reagent
thym
tructural
▁immunode
▁demonstrating
▁quin
▁appropriateness
▁ey
50
▁saturation
▁phe
HG
opamine
▁Kupffer
ureth
▁amputation
▁tumours
▁peptic
▁51
▁cirrhotic
ylchol
▁atr
▁5
▁overex
▁glutathione
▁epi
▁smoking
▁(1
lycerol
▁neurolog
▁pathology
hemia
▁cutaneous
oice
venth
monary
▁Increased
ficial
▁49
▁tonsil
ethyl
▁glycaemic
olysis
atectomy
▁determining
▁bowel
▁colloid
16
rected
▁HU
sA
▁attemp
▁heroin
▁subunit
-13
cence
▁scre
▁biop
graftment
▁1.4
▁administered
econd
acetyl
▁attendance
▁underg
▁degeneration
ediatric
ecal
▁neuronal
ocamp
versus
▁clipping
kephal
▁hydrox
tach
▁molec
atitis
rC
1)
▁29
▁edema
▁ward
▁profound
aturation
▁eosinophilic
opsy
▁syndrome
▁reconstruction
ayed
▁permeability
orotic
▁gly
▁ET
mTc
taining
anthine
▁proton
-6
ilep
LN
▁purified
+,
oplast
▁conclusions
trac
ionine
phenyl
hesive
▁dysfunction
tase
▁discer
▁undo
olgi
contrast
▁immigrants
▁diffuse
armac
acer
▁cognitive
▁deserves
▁beats
enhanced
▁adhe
ipolar
onography
▁quantitative
▁predic
▁compressed
▁graft
▁TB
▁deterioration
▁yr
clonal
joy
▁ruptures
▁dendri
▁modestly
▁endoscop
ourable
▁Bec
▁micron
▁bedside
▁exhibit
rates
▁65
▁intracellular
▁audit
▁scoliosis
inj
▁20
▁eliciting
30
bular
▁glutamate
▁attrib
▁physician
iasis
▁embry
▁endogenous
▁localized
vents
▁peaks
▁(13
lesion
▁analges
5,
ressing
▁5.
affected
inally
▁exten
▁cholestasis
▁speculated
▁depress
▁plac
orption
▁spectroscop
▁neutrophils
▁elec
nee
▁apop
edullary
▁Failure
isture
00
▁(0.0
▁plasmin
▁unrelated
▁abolishes
lecting
▁depr
Hu
-2-
▁lamin
embr
idation
ichia
▁Tes
▁accurately
▁respondents
▁PG
▁lymphoma
▁anxiety
▁testicular
▁tubular
▁facilitated
rox
▁150
▁fragility
▁Steady
▁depressed
▁barrier
atase
▁defects
▁cholecystectomy
▁satur
▁spontaneously
enin
▁extensor
radi
▁skeletal
▁antib
▁glucocortic
▁consequently
KA
▁glucose
▁biosynthesis
▁benign
▁discharge
omerular
oscopic
placement
▁VO
▁bolus
▁PGE
▁extracellular
70
ibi
onate
▁seb
▁phy
▁adhere
amycin
▁AO
▁bile
▁theore
▁somatostatin
▁wound
lue
▁ae
▁drainage
HN
▁conservatively
▁(12
▁myocardi
His
-1.
▁onc
▁underestimated
▁Fc
▁mim
relevant
physiological
▁phon
▁contamin
glutin
▁mutants
▁radiographic
▁1
▁spinal
▁bleeding
helium
▁availability
Ev
▁glycoproteins
▁herpes
12.
▁occupational
tral
▁insufficient
▁streptococcal
▁multim
2+]
▁statistically
▁diseases
▁alkaline
▁3.5
eclampsia
.3
▁palliative
tinu
jun
▁prostate
transfer
pite
▁guidelines
▁diabe
4.
▁comprehen
▁strom
ifedipine
▁appropriately
▁pathogenesis
▁utilized
▁discusses
reast
▁aspec
▁Impro
orable
▁identifies
oxia
▁radiological
▁muscles
▁PCT
▁imaging
▁topical
▁BS
tiv
▁echocardi
epti
▁elevation
▁derange
-17
▁Certain
▁Vaccin
oxygen
▁scanning
estis
genesis
ochem
▁objec
▁(10
▁discontinu
omotor
▁mutant
▁Mg
▁inactivation
▁antibodies
▁subpop
▁follicles
versal
ampl
▁morb
esthe
▁organic
▁tumor
▁opi
▁patellar
▁atheros
iotic
▁rCBF
▁repaired
feron
ropine
geons
▁ejection
▁sham
▁albumin
▁tissues
ilization
▁impair
clerosis
▁pacing
herent
controlled
▁striatum
oag
▁ganglia
tig
▁hamster
▁effec
▁activated
plas
ymptomatic
reatine
responder
▁41
▁astro
▁immunoreactive
▁lipid
methyl
▁complexes
▁GABA
itrate
1-2
itant
▁rheumatoid
▁problematic
▁preventive
itamin
oves
▁pyramidal
8%
▁erythrocytes
▁spine
▁microc
▁rati
rowth
mong
odial
▁survival
▁nutr
▁predicts
▁trophob
bility
▁Contrary
▁anastomosis
consuming
iary
▁ethnic
▁potentials
▁mann
ylline
▁synthetic
ivocal
lysis
otype
▁tryp
dies
▁evaluating
vate
-1
urement
endri
▁needle
hers
elong
▁restorative
▁fetus
arer
▁1.9
▁kappa
ometrial
45
▁concurrently
ATP
▁polyclonal
ureus
▁quanti
▁epinephrine
erad
chym
▁sphincter
riend
oxic
▁vancomycin
entanyl
uppres
▁rats
▁BAL
otypes
▁Analy
▁vasomotor
▁Contr
otyp
idney
▁phenotype
▁ascer
▁pH
▁coexist
▁40%
renal
-450
ophageal
encl
▁evacuation
▁heterogene
clim
iplin
▁recipients
▁AMP
unctions
Ts
▁influences
▁adverse
6-
▁lumbar
graft
opic
▁coincidence
▁phagocy
▁contaminated
▁resec
▁ultim
▁fibroblasts
▁Km
▁OA
ergic
crip
estive
tub
▁5'-
▁sebaceous
▁antibiotic
▁Hz
rength
▁uncom
▁implic
▁aldosterone
1-
neumon
▁endometrial
▁adoles
▁disrupt
▁institutional
▁degradation
▁HCM
▁entero
▁1,
increased
▁micros
▁subf
onary
▁latent
odynam
▁7-
▁IHD
phosphor
▁depressive
BW
▁concentrations
/100
adm
hydro
▁kidneys
9-
▁inclin
▁behavioural
▁ventilation
▁recombin
▁90
▁perox
osocial
▁indication
▁excision
▁strain
▁mumol
5%)
▁ventral
agal
▁infused
orrhagic
brain
▁describ
▁embryos
▁hemat
▁enucleation
▁implications
▁positively
iant
▁contralateral
▁PRL
▁regis
▁coexistence
▁immunohist
▁amin
▁hybridization
fusion
▁genes
▁64
▁caro
▁perip
▁endoscopy
ologous
▁biochemical
▁alterations
ronch
resistant
▁Blockade
▁correlates
▁antiser
▁symptom
WB
0,
▁chemo
▁alveolar
▁Treatments
▁increasingly
otide
▁0.05),
ervative
▁differed
▁normo
erus
▁ischemic
▁confron
▁leukocytes
-4-
▁microscopy
drome
lasting
▁differe
▁interferon
ectomized
48
▁resected
verages
ynaptic
▁tolerance
ensity
▁detec
bumin
▁irradi
6%
▁autoimmune
▁isoproterenol
ateral
▁intake
erate
ulates
▁TCR
▁musc
ymp
▁grading
▁viable
▁.0
lymph
▁EGF
▁fetuses
independent
mediately
▁temperatures
Ki
iminary
▁natriuretic
▁TA
69
lapping
▁mitochondr
▁GER
RF
▁uncovered
ectomy
▁bronchial
▁thresholds
▁rigidity
▁diabet
ilical
▁infectious
-9,
▁anatomy
▁defec
▁(0.5
▁specialist
▁illustrates
ditional
moid
▁bac
asting
▁500
sue
tec
adiol
▁prognosis
atonin
▁participate
▁polymorph
erper
▁carrier
▁progressively
▁tachyc
▁corneal
▁thigh
▁(16
.5
▁superficial
▁1.2
▁5,
lytic
▁carcinogens
▁physiologic
▁reac
▁monol
kers
uran
▁HIV
ocar
▁gradi
▁retention
▁segmental
▁produc
tents
▁Physicians
ditions
acking
▁cytos
▁(4)
▁acetate
Cu
▁MV
▁palpation
▁BM
▁subgroups
▁irr
▁macrophage
▁oxide
▁TBI
▁fron
udin
ellar
▁53
▁biopsy
▁indomethacin
2+,
mutant
.8
▁ketamine
yro
▁0.00
▁cows
diagn
nRH
▁genic
roup
▁cultures
▁ambul
▁sensi
aemia
▁physicians
▁10(-6)
▁GF
▁phosph
lore
7)
▁antisera
▁umb
▁minerals
▁cardiovascular
▁contributes
▁evid
▁75%
▁surveys
▁perception
asone
▁Throm
▁restor
erican
▁transcrip
ilic
▁Cyt
▁viruses
▁incorporation
▁unexplained
▁discom
ometh
ecre
tectable
▁Dopamine
▁reflecting
ocellular
olution
65
duced
dine
▁menopausal
▁smo
▁hipp
ysm
▁cathe
▁Prospective
▁myo
uality
renol
inositol
▁latency
▁exposure
▁cavity
▁histopathology
▁shallow
▁scin
49
▁laparo
▁filtration
faction
toc
▁fati
▁VC
▁VAS
▁pneumon
▁spleen
▁disks
▁manipulations
treatment
forming
keletal
▁Plasma
▁cervix
hop
▁nm
▁glut
▁establishing
▁congenitally
▁relap
eak
▁pulmon
▁outs
▁telephone
▁interstitial
▁epidemi
▁prevalences
lected
▁spectro
▁tachycardia
osyl
▁microcirc
▁Removal
enzymatic
▁dosage
▁atrial
▁6
▁appendic
BV
cyt
▁cholest
echn
▁enteral
▁predictor
▁microM
plic
▁probe
ration
▁FS
▁uninjured
▁immunodef
opausal
▁resusc
▁Adverse
truc
▁quantif
▁tes
erox
onor
▁ossification
ithi
inactivation
▁presumably
▁amput
olec
▁strategies
37
▁cann
olarization
▁17
▁bronch
▁reticul
▁regimens
▁toxicity
TNF
▁pharm
urally
▁mum
▁specialty
idity
▁sore
▁elic
tant
entists
▁(7
essment
sensitive
▁38
mitter
Ra
▁diffic
▁neuro
▁intram
oride
▁PV
▁lactate
ulae
▁chloroquine
▁markedly
entral
tumor
▁induc
▁Neurop
▁discussions
▁differen
▁seiz
▁isolates
▁throm
▁cardiomy
▁eluc
▁acupuncture
-3
anish
▁MN
IgM
▁diversity
▁melanoma
tivity
▁63
▁prophylaxis
▁homogeneity
hea
▁testosterone
Hg
▁molar
▁0.1
▁develops
▁SB
▁85
▁abuse
▁sev
▁immunization
▁CM
tagland
▁volumetric
(2+
zard
rins
▁isolation
enteric
operative
▁overweight
▁cholesterol
29
▁hydrogen
▁cere
▁absorb
▁morbid
▁sulfate
▁Preoperative
▁admission
▁HS
▁ANP
ighted
pation
▁specificity
tron
ochlear
▁3
▁inhibit
▁Escherichia
ogens
▁58
▁nomenclature
▁conformational
▁nuclei
24
pinephrine
▁(30
kage
▁lute
▁ventricular
ults
▁reflex
neal
▁multicenter
▁prostates
▁detrimental
12
▁calcification
▁maturation
▁deliveries
▁unaware
▁discontinued
▁estradiol
▁Concomitant
arent
athe
▁uniformity
▁incubated
▁facilit
sion
▁aerobic
▁hypothalamus
tine
▁symptoms
▁habits
omized
4%
MDA
olism
▁APTT
54
iological
▁investigations
▁exposures
▁(20
alanine
ipine
▁muc
facial
▁prescrib
▁uremia
▁Recurrence
obarb
flux
▁enhancing
▁reactions
aid
esity
▁modality
▁modest
▁deemed
totic
▁IgM
▁embryo
▁anaesthe
.1
▁80
urse
VH
▁anat
rocy
▁NB
▁metastatic
ocyt
▁unaffected
▁instrum
▁PE
▁nodules
hig
▁MRI
▁mothers
▁pneumonia
reased
ergency
▁professionals
ilized
▁individualized
▁ASA
▁uneventful
illance
▁raises
▁pigs
aryn
tens
idase
▁epid
▁serotonin
▁undetectable
▁myel
▁shortened
▁synthesized
itoneum
gative
fused
▁arth
▁Systolic
▁10,
crib
loid
atid
▁adequate
▁anomal
opia
▁elu
jected
▁tube
▁uter
▁arterial
onomic
▁Medicare
mediated
otassium
▁severity
▁CAM
▁paren
▁spon
▁poorer
▁depletion
mixed
▁5'
stimulated
asses
opam
eptidase
usive
▁plasmid
▁remo
▁gaps
adrenoceptor
▁porcine
▁Tumor
▁substrate
athetic
tent
SPECT
▁4,
▁femoral
▁replication
ocaine
ingle
▁displ
▁Doppler
deficient
▁moderately
tice
▁radioimmuno
▁favourable
andard
▁Emergency
▁poten
▁(1)
▁compartments
▁abdomen
▁stren
igel
rele
▁immunological
▁cation
▁adop
▁LD
elfare
▁contral
▁precursors
▁silicone
▁resear
▁consolidation
▁postnatal
▁cephal
▁underlie
romed
▁leukocyte
▁chond
▁packing
▁circulation
▁ACE
phil
xual
alp
itin
▁HC
▁infants
▁PMN
▁erythrocy
icin
filtration
▁mice
tized
▁(0.1
▁treatments
orphin
tamine
▁renin
▁gad
thre
DG
versity
▁apical
▁pancreas
▁affinity
▁systematically
▁elderly
sial
▁cytology
aryngeal
vely
▁transient
▁vulnerable
sia
oclonal
trition
injured
▁sedentary
▁aden
▁microbiological
eptides
phosph
▁noradrenaline
LB
▁outcomes
obacter
▁neurological
▁hypothyroidism
▁elucidate
▁sut
▁tomography
sis
▁epithelium
▁interc
trin
▁Randomized
agic
rectal
▁Estrogen
Cer
▁mediated
▁mediates
▁44
▁altered
▁trache
▁ischem
ubation
▁receptors
alact
▁recurrent
▁widespread
ostal
▁transfusion
▁HM
▁stab
▁repl
▁202
▁Cycl
▁chole
▁55
▁ile
▁TC
▁tidal
diagnosed
tions
otropic
▁injected
▁iso
▁enti
▁mL
44
▁nerves
▁susceptible
itus
▁80-
▁cochlear
ocytes
▁aortic
▁disparity
▁venous
▁practically
▁upstream
▁gallst
phrine
bladder
▁compli
labeled
▁rhythm
▁metast
▁uncontrolled
▁validated
▁sti
▁suspension
▁distin
▁stom
▁nM
glycerol
▁microsomes
phyloc
idate
▁malign
terol
▁CABG
▁superv
▁geniculate
▁rotational
▁diminished
,000
▁19-9
▁arginine
▁impairment
ensit
(5
acerb
transferase
▁ventric
ologically
▁anesthesia
arity
▁reacted
▁chicken
urin
▁wrist
2/
▁phospholip
▁evoked
▁defic
▁decreas
ociation
amino
▁MEP
▁MCP
▁preliminary
sian
thase
acet
▁sepsis
▁HMO
▁underwent
▁counseling
▁endoc
▁proct
minis
▁mitochondria
▁(5
▁dislocation
physiologic
▁capillary
▁appendicitis
▁cigarettes
▁vascular
▁encouraged
▁arteries
amous
▁cef
▁Roux
occal
▁olig
tin
▁spi
acil
ellular
umulation
▁inflammatory
▁stimulated
▁4.5
duc
▁PAN
▁homogeneous
acetate
▁bypass
▁healthy
▁PH
▁aorta
▁seropositivity
▁dental
activated
▁outpatient
cored
▁chol
▁undergoing
▁progest
▁nosocomial
oglobulin
▁metabolites
fat
▁exis
▁cyst
oxy
▁tetr
idement
▁dissociation
▁cortical
21
educ
▁mediation
regulated
▁natri
▁ionic
▁circumference
▁improving
▁hypoxic
oung
teroid
▁LT
▁promin
▁investigating
▁socioeconomic
▁tox
▁expend
terone
▁drinking
▁Twenty
▁surgeon
resses
ardia
protein
▁unilateral
▁thyroid
patient
▁35
▁failures
▁acyclovir
rati
▁polymer
▁predominant
▁immunos
▁lacking
▁scl
diol
▁diet
▁remin
▁perfor
▁hypoxia
▁inserts
▁suspicion
▁lipoprotein
▁18
peptide
▁divertic
▁passive
orrh
▁indeterminate
▁10
▁vaccination
▁inadequate
anin
ticular
gm
▁immig
▁MI
spectively
▁incorporated
▁pulse
atoid
▁radioactivity
IFN
▁hypox
▁6.
▁perforations
▁continence
▁unemploy
▁characteris
isol
▁exclusively
▁plasm
▁forskolin
abain
▁causative
▁characterize
▁stimulate
hist
▁neutrophilic
cretion
toxin
▁activate
▁diagnosis
Leu
ications
▁assessing
▁endoscopic
▁recombinant
▁unco
▁minimally
▁12-
▁Weight
▁TPA
osine
▁3'
receptor
▁37
▁residues
dition
▁protoc
asic
▁macrophages
▁polymorphism
ognitive
▁NN
ociated
otides
riched
▁endothelial
spective
▁practition
▁synaptic
kely
▁TGF
▁chick
▁compounds
▁insurance
▁27
▁fatality
▁gradients
saccharide
▁debridement
▁Tumour
32
▁biosynthe
▁bacter
-5)
▁atresia
▁esophagitis
othermic
▁thromboembolic
ylase
▁vein
ections
▁cultured
entricular
ipid
▁suspic
▁3.
identical
ointing
▁AVR
loride
ervations
▁surf
▁(3
▁linole
▁beating
ineal
▁LS
▁pancre
▁sour
▁(+/-
erts
▁restenosis
duce
immune
▁leakage
▁cytosol
▁stillbirth
▁4
▁rigor
▁sulph
8,
▁bone
▁uncommon
▁excitatory
▁30
▁neo
▁aggregation
▁cardi
▁aureus
omal
lood
ithm
▁mutations
▁cancell
▁aspiration
▁subjec
▁margins
▁reproduc
▁12
▁IgG
▁paras
▁forsk
tors
▁GV
1,
▁worsened
▁Tum
▁engraftment
.4%
▁synthesis
▁lithotripsy
▁pharmacists
▁electrical
▁predictors
▁infil
▁PCO
erents
▁54
▁bp
▁(14
thel
▁90%
hemical
▁examin
▁BALB
tics
▁tas
erating
▁21-
▁stimulation
▁hygi
▁demands
assay
osidase
▁abortion
▁proximal
▁PF
comitant
▁MHC
▁0.4
▁fluorescence
▁cis
