otom
▁angiography
phosphonate
▁peritoneal
▁Biochemical
▁dosing
ctomy
▁LPS
lusion
▁clus
▁predicts
▁unic
▁pla
mixed
oten
▁physiological
▁forsk
arous
▁leukocyte
▁stren
▁extensor
odium
▁intravenously
▁Afric
acr
▁mucosa
▁0.01).
▁carbohydrates
▁mucos
▁Cox
ulae
tries
▁tiss
▁Golgi
asive
▁pretreated
▁Thir
tific
5-
lycemia
▁stimulatory
▁substitution
▁VD
hion
▁atres
Hu
▁Prophylactic
▁peptides
ields
▁kerat
21
virus
▁metabol
idine
ophren
▁insertions
▁endarte
▁AO
ietic
▁cortical
▁gly
9-
ifferen
neumon
▁underestimated
▁coel
ondr
▁Multiple
responders
▁leakage
▁adjuvant
7-
▁mitochondrial
▁improves
▁specimens
▁constitutes
▁auditory
sies
▁autoradi
▁NADP
tetr
Ig
ective
▁anat
RH
▁bronchi
ureus
umerous
▁pS
▁incub
▁rats
▁Previous
ighted
/1
▁hippocampus
▁synthesis
▁microbiological
▁extracts
0-
illin
Ba
feron
▁identically
▁genome
aptic
▁decreasing
aginal
epti
▁topical
▁genotypes
▁glycaemic
▁ipsilateral
titial
▁reproducibility
▁hypertension
idin
▁nosocomial
orative
▁NPH
ilical
ogra
▁PCO
omized
▁Kup
-9,
▁clearance
▁cholecyst
ociated
ocaine
▁embry
adication
urine
▁appropriately
▁paren
cele
ffer
induced
▁systolic
ampl
ogenic
gic
▁PID
idement
▁latency
▁fragility
▁exclusion
▁neurolog
mature
▁thi
▁putative
opathy
▁TNF
▁Vac
▁GER
anus
uccess
▁alleviate
▁radiography
88
drome
▁10%
▁cavity
▁injections
▁fibrinogen
▁1.1
▁ETA
▁connec
dents
titu
▁cyclase
▁purified
phal
undibular
linolenic
lateral
-450
ineural
▁PCP
went
▁repres
verages
▁ppm
▁deletion
▁osteoporotic
▁tissues
▁neurologic
▁proteins
▁appendicitis
unctions
oracic
▁kidney
ergic
▁transloc
loro
-7)
GV
▁yr
aceous
rement
▁testis
▁DSM
▁thrombo
embers
quired
ifedipine
▁tubercul
▁amino
▁overe
▁recombin
ocytic
-0
▁prenatal
▁mann
▁soy
▁radiograph
37
▁hipp
idation
toph
▁polyps
▁tib
▁cis
uretic
▁4.5
▁differen
▁tumour
-60
orphic
sible
▁42
▁sciatic
▁CTL
7,
▁glands
▁cirrhosis
▁alve
▁gastric
onyl
arers
▁wors
▁vascular
▁cate
hyp
ocul
ncy
▁coval
▁modulates
▁Treatment
▁tympan
▁inflammation
▁ejection
ellosis
▁microtub
▁LV
▁2
▁tomography
adrenergic
▁clinically
▁LDL
▁obese
tib
▁(18
▁mutants
▁7
faction
▁deem
▁obstruction
▁nifedipine
▁palsy
ivocal
▁cardiomy
▁prevalence
▁ventric
▁cerebrovascular
ochemical
arcin
▁injec
▁cytotoxic
▁questionnai
▁microscop
▁acidic
▁cutaneous
▁prostates
▁ech
▁subgroups
anic
▁warrants
▁progestin
▁uniformity
▁glucose
▁coag
enin
-3)
▁metabolites
▁sulfonylurea
muscular
▁awa
▁ultras
▁produc
▁upstream
▁4
▁confir
▁subjected
▁expres
▁Streptococcus
▁systemic
phrine
▁worsened
▁attenu
teroid
▁Trial
▁endarterectomy
zyme
oxic
▁TRH
46
▁reproducible
▁reductase
▁uni
▁derangement
phosphon
▁gland
▁spectro
▁sensory
▁electroph
oceptor
▁FHR
▁contraction
totic
▁consultations
▁sti
▁pene
▁illicit
tion
▁hydrogen
BK
▁deformity
▁Phe
guided
▁MRC
▁leukocytes
ATP
okinetics
lycerol
chondral
▁junction
▁squamous
utive
▁aspec
▁irrever
ypical
truction
▁vagin
sul
▁pigs
▁digestion
▁receptors
▁cartilage
▁hemoglobin
▁examin
▁analogue
▁0.00
lective
▁deficits
ithms
▁synthesized
agal
▁counseling
▁mumol
▁500
▁assay
ceptual
▁11,
▁AMP
▁spleen
Tu
etitive
▁70%
ulose
▁induction
▁sustaining
mediately
▁Ear
▁induce
▁leisure
Cu
▁perip
▁toge
onol
.1
▁discom
▁ascertainment
▁62
ynaptic
nRH
▁possi
▁evolving
vate
vant
▁NH
.9
tamine
Cer
▁(2
nosis
▁variability
▁immunisation
▁chan
▁brom
sych
▁stimulated
▁cytotox
▁lam
▁60
▁lumbar
▁colonoscopy
▁aort
sulf
▁antigens
▁correlated
▁opioid
cribed
rophyl
▁somatic
▁accounted
▁interpre
LH
hydro
▁rejection
▁cytosol
trative
oung
▁VO
ATPase
▁empirically
UF
urther
ophag
▁affec
▁23
▁hydrox
▁suppression
eric
▁suppressed
▁mediates
▁5
▁dete
▁striated
▁RA
▁polymorph
▁overlying
oscopic
bladder
▁decreas
derived
terase
ivered
associated
nec
enic
ipit
otor
atif
▁adenoma
▁arthritis
▁bp
edullary
▁hypers
ximal
gents
▁diabet
irrh
▁synaptic
▁hams
▁residency
▁precursors
ondral
dg
terminal
▁undergoing
mig
▁plas
tub
▁13
▁laparoscopy
▁underg
▁fatalities
▁pter
▁redund
ithelial
▁dele
idated
owever
▁neuronal
▁67
ubation
/6
cores
ynthe
▁traumatic
▁20%
▁AIDS
▁heterogeneous
▁antibodies
▁neo
▁preferen
▁graft
regulation
ocardi
▁contributes
iton
▁1.4
▁95%
▁influenza
▁inadequ
▁oste
rehen
▁acids
▁pancre
versely
lastic
▁microgram
▁subgroup
tach
▁48
0%
▁differentiated
mur
unced
▁linoleic
▁mmol
omotor
herence
▁infec
avage
dop
▁RBC
4,
▁96
lobulin
▁inclin
kade
ancement
▁benz
▁contamin
ifol
atoid
osom
oA
tabl
▁cervix
▁sepsis
▁synthe
▁lateral
▁selec
▁cytosolic
▁thoracic
▁discon
LV
onin
-4
▁sev
▁54
▁ensured
iol
RNA
▁laparo
▁evaluating
urgery
ofluores
▁surgeons
▁antec
▁ach
obic
▁tumors
trogen
umption
▁endometr
▁31-
▁46
epine
seal
▁histologic
▁epi
astatic
▁eradication
osomes
▁laparotomy
▁ventilatory
▁anastomotic
yroid
▁yeast
asal
omat
▁(14
tics
▁1988
▁discrimin
▁cohorts
▁1)
▁Phy
echan
bic
▁diabetic
▁homogeneity
▁organisms
imens
▁molec
▁ECG
▁amput
▁CNS
▁selectively
siologic
▁biliary
LB
EGF
tabol
gment
crib
▁resol
▁gangl
dition
▁hepatitis
▁Removal
lym
▁metab
activation
scherichia
▁mandibular
▁suppressor
▁perinatal
▁phag
tam
orin
▁occlusal
▁fracture
▁dehydrogenase
agin
armac
IFN
1-2
MRI
▁evaluations
▁microscopy
▁spermat
▁Delayed
▁indi
▁HL
▁titers
▁Consideration
▁3.
▁surrog
▁reversible
▁SNP
▁200
endan
▁epit
▁SHR
tration
▁52
▁feasible
▁psychosocial
▁scanning
▁IFN
itin
▁implantation
▁depletion
▁defic
rocy
▁favourable
ituitary
▁29
minal
anyl
▁transurethral
▁nucleotide
angl
injured
utions
dent
epit
▁modif
▁rCBF
▁perce
enia
▁PTC
adherence
450
increased
▁correlates
▁refraction
▁nitro
▁Hep
▁verapamil
IgM
▁ICS
ostat
▁NaCl
▁(8
▁indeterminate
ovir
ancre
▁regis
▁alkaline
affected
entists
phyl
elec
▁Acute
▁Taken
▁detrimental
▁merits
ocyte
acil
erents
▁inhibitory
▁pathologically
▁prospective
▁emerg
5).
tensin
▁MCP
▁detachment
tured
▁terminals
atial
uppres
mentation
kinase
▁thickening
▁cholesterol
athetic
-12
▁HI
isol
▁shortened
iliac
subunit
▁tert
▁44
▁physiology
ocar
iferation
▁unex
arate
▁indicative
10
anol
▁vivo
▁beha
▁isolates
▁qualit
▁oxygenation
tral
▁focal
▁studi
icine
itance
married
▁immunodef
Nase
hemo
▁disapp
jective
tectable
mented
ayers
opamine
reactive
▁22
phon
▁pancreatic
▁mL
▁arteries
▁adhesive
thma
▁annulus
▁paradigm
▁oocytes
▁quanti
▁supple
illary
▁Ara
▁VAS
▁therapies
/-
▁demographic
tiv
▁myocardium
▁11
▁sut
atories
▁intramedullary
▁symptomatic
ration
▁wk
▁hormonal
▁PB
▁eosinophilic
▁contractions
▁250
▁overlaps
▁streptococci
▁substituted
▁PAS
ducts
▁posi
▁endoscopic
tization
▁metformin
partate
▁Ras
28
▁glutamate
▁Tum
▁ANF
ylation
▁judged
lip
TK
▁reflex
▁fetus
▁overlapping
kephal
iary
-8
ochem
22
▁unevent
▁genotype
▁insufficient
▁anomal
▁assessed
▁40%,
tase
▁tamoxifen
▁HCMV
rogra
certain
▁intestine
oclonal
▁pineal
▁90
▁CCK
esium
fected
ventional
9)
▁comple
▁porcine
▁venous
▁68
anine
▁infused
alan
hyd
ochrome
istrib
uptake
occi
▁dexamethasone
▁nonadherent
▁lys
heum
▁oxidative
▁autoxidation
▁biases
▁chemotactic
▁mAb
5)
▁referral
▁outpatient
itro
▁conduc
▁GTP
▁immunoglobulin
▁follic
▁erosive
▁contributory
▁embryonic
▁vaccines
▁esophag
23
silon
▁corne
tility
▁radioimmuno
▁surgeon
acin
▁phosph
oplasty
▁gangrene
▁hypot
▁GH
▁agonist
▁causation
▁43
▁Excessive
▁MN
▁shor
▁endochondral
▁APC
▁34
omycin
▁EEG
▁Fc
▁occl
tagland
▁poten
veness
▁cataly
▁49
▁0.001).
▁mellitus
NAP
cAMP
▁echocardi
▁199
▁implicate
vul
▁subchondral
▁paradig
bloc
dine
urrent
ipitation
▁collateral
tophan
▁36
acclim
.2%
pir
▁disappearance
▁lobe
▁metabolite
▁accel
idase
▁competi
▁axons
▁corneal
▁tachyc
-2
▁residual
▁removes
zole
▁85%
▁7.8%
▁TCR
▁40
ancreas
▁anesthe
▁excimer
▁equilibr
▁steroidal
▁communic
▁molar
▁heparinized
ostom
PV
▁parotid
▁pover
vice
▁circumference
▁35
▁wt
▁discharge
▁0.05),
▁adap
HG
urc
▁Adherence
▁concordance
▁ossification
cture
▁abnormal
▁0.001),
▁fluor
atical
▁fetal
▁Improved
estion
anish
lood
▁angina
▁schiz
▁amo
▁diap
▁ulcer
▁seropositivity
▁venti
ostal
▁VC
▁unclear
▁Continu
▁postmenopausal
▁inhibition
▁depres
▁oligo
▁maturation
ologic
▁mediation
▁undisturbed
itoneal
▁neoadjuvant
prepared
▁potent
▁specificity
ocardial
ointing
▁birthweight
/3
▁allo
planted
▁(1)
▁microb
-1
▁elu
▁glomer
▁vesicles
▁positioning
rosis
▁tRNA
▁prophylactic
▁monounsaturated
▁cathe
obl
▁markers
vasive
▁noncom
▁elimin
centr
▁monocytes
▁compressed
lec
▁chemotherapy
ojejun
receptor
erance
physiologic
▁socio
▁chec
▁(3)
▁27
unctional
rotid
pinephrine
▁insertion
ipine
ofol
▁amines
trip
▁arachid
▁lymphadenectomy
▁parag
▁depar
▁traum
▁pretreatment
▁conduction
fusion
luded
▁pedig
▁Greater
▁kinetics
okine
taining
▁phosphor
henyl
echn
actin
▁dodecyl
-30
athione
▁precedes
▁stimulus
▁BMP
ochemistry
KD
till
▁perc
phic
▁localized
▁ligand
▁angioplasty
▁oxide
▁IH
amide
▁cognition
▁cytoplasm
bility
reased
▁epithelium
▁noradrenaline
▁oro
CCT
▁1
▁endot
jejun
▁lobectomy
▁abdomen
▁(4
▁consis
loride
thle
▁nutr
▁IgM
stab
urgically
olytic
▁glu
▁10(-5)
▁HU
▁fati
▁globally
▁anastomosis
▁carcinogens
▁grafts
▁preclude
▁resection
▁LN
▁chewing
4%
▁compe
identical
ectable
▁onc
ailure
aem
▁propor
▁predictor
▁concurrently
▁SUP
▁Cushing
▁hypo
▁artery
▁phe
▁recom
HB
▁bile
ffective
▁sensi
▁causative
▁practic
apamil
▁encoun
▁HDL
▁lithotrip
▁epidemi
turb
acental
▁0.2
atum
prising
▁thorac
▁Physicians
odial
▁immunological
▁femur
ometh
▁ACE
▁turnover
▁ICM
▁Contrary
encl
ensitivity
ronous
▁interp
ipar
▁adhesions
125
▁creatinine
▁bloc
▁epitopes
2.
▁iso
tection
▁appendic
esic
encephal
▁cen
▁Surgery
▁tran
tional
itic
5.
race
cad
irc
▁GV
▁kDa
4-
1-3
eration
▁retic
▁antigen
quine
▁adverse
▁polymer
inol
pig
▁biom
▁naltrexone
▁pelvic
osynthe
▁infections
jects
▁sperm
▁gait
▁cyst
▁clamp
osal
▁pulp
▁Phen
▁reactive
genesis
▁pharmacy
rates
fec
▁0.3
▁ascertained
▁bronchiectasis
▁engraftment
orectal
idney
TN
▁alph
nthe
raine
▁aortic
clerosis
ints
ocusing
utin
▁reversed
eck
▁LOS
▁sequelae
2%)
duced
hips
▁196
▁elong
▁bip
▁unexpl
▁implanted
clic
pine
▁ester
omerular
▁uptake
▁resusc
esity
othel
▁chl
3-
osomal
▁rhe
▁vaginal
▁filtration
oside
▁dex
▁guinea
▁superficial
▁hypoxia
▁overd
reatine
hyde
▁Km
▁soluble
teroids
▁subpop
coh
▁neutroph
▁immunore
▁suture
▁pregnancies
ymp
ulting
▁Neurop
iatic
▁acqui
▁38
tolerated
MDA
▁empirical
0.
▁manifestations
employ
▁parental
bodies
CGP
tiz
▁relapse
▁nulliparous
renal
▁muscul
umulation
▁potency
spectively
appropriate
▁potenti
▁antigenic
▁adi
▁prescrib
▁carcinoma
▁biopsies
▁consecu
▁amyloidosis
anin
▁molecules
▁Blockade
▁epidermal
▁HN
obarbital
▁latent
LISA
▁juven
-20
▁cyto
▁ana
▁hepatic
▁indomethacin
atient
edic
rected
▁techniqu
▁poin
▁fron
▁oxy
obarb
ferential
00
▁UL
▁enrol
▁palli
▁sinus
▁uncovered
▁balancing
▁prognostic
80
▁cartil
▁gallst
▁sulfonyl
▁deform
▁mug
▁pancreatitis
▁LD
78
▁lipids
▁IMR
▁migrated
ithm
▁dysfunction
▁saline
▁ambient
▁compli
▁loosening
▁0.01
▁ANP
▁endemic
▁adver
▁conjug
▁caro
▁postoperatively
▁rhy
atability
legia
▁devi
acetic
▁isot
tus
▁spectroscop
▁debr
tition
estig
▁debridement
scopy
▁documenting
▁projec
odic
▁7%
▁PET
odality
0%)
▁Plasma
▁strep
oradi
tors
immune
▁Contr
104
ronch
pies
▁macrophages
ods
01
▁metastas
essional
▁synovial
▁circumferen
▁statistically
ochondr
▁norepinephrine
geons
▁mammography
▁Emergency
▁compartment
ylase
-14
▁elicited
▁vitamins
▁0.05
terol
▁tris
oglobin
▁relied
▁anatomical
▁pneumonia
▁compounds
▁exacerb
▁recombinant
4+
▁3,
ylated
astric
▁lec
▁scoliosis
inj
▁herpes
▁8.
acetate
▁65
▁7-
▁coronal
aminated
trum
ipient
▁ischemic
estive
▁marrow
▁stimulate
▁substanti
▁sulfate
SCE
▁irradi
▁HLA
▁gluten
▁uncover
▁infar
▁bronchoscopy
▁comparisons
▁evacuation
▁0.001)
▁perone
▁1.2
osidase
CSF
ervations
▁PBB
▁estrogen
▁exce
▁ACh
-6-
▁prophylaxis
▁HS
opro
▁enlarged
▁parap
▁antagonists
ejun
▁axillary
▁bene
▁isoproterenol
▁diastolic
LN
ths
27
rever
tual
▁Operative
▁volumetric
▁haem
▁atrial
57
▁confron
quid
ureth
ecal
lasting
▁synthase
▁hemorrhagic
▁carriers
chond
ileptic
▁neon
▁chromat
▁arachidonic
▁contral
▁phy
▁heparin
▁Lys
▁catheters
▁agon
kground
rophob
▁testicular
▁consolidation
▁unaffected
▁chemot
▁overex
Ra
xpression
▁ovarian
▁Medicaid
▁tachycardia
sia
olarization
▁contaminated
▁muta
esia
▁tailored
glum
▁exchan
▁anaesthe
▁rigor
▁repor
otropin
delayed
▁histological
▁replication
3.
▁recipients
▁stimulation
▁identifies
▁MHC
▁intrag
lep
ellular
▁fibr
▁sulph
adequ
▁pathologies
▁16
enzymatic
▁detec
▁regulate
▁transrectal
▁alk
▁IU
namic
consuming
ylamide
▁(1
sive
▁ventral
imin
▁placent
ximum
▁unil
rolith
selec
▁vagal
▁undetected
ifugation
▁CG
▁symp
▁hormones
▁congen
▁10,
athyroid
kDa
▁fluorescent
▁cytology
orrhagic
transplantation
50
adherent
weighted
▁cys
▁phosphorylation
emia
thym
▁lactate
▁electrocardi
▁IgG
▁canc
nutrition
▁cytoplasmic
▁fibrosis
▁somatostatin
▁isoform
tivation
8-
ogens
▁FH
-7
▁autosomal
MN
▁0.9
▁tonsil
▁developmental
/10
otypes
▁preparations
▁56
▁pneum
▁chor
▁adminis
▁acetylcholine
▁quin
▁19%
ectasis
arbox
Ti
idate
▁arginine
▁tes
▁relap
ompan
▁1,
tures
ymptomatic
coun
▁shig
▁acetab
02
85
▁overexpression
clinical
▁hamster
▁lumen
▁plasm
menopausal
▁attentional
▁60%
▁unrel
▁enzymatic
▁reperfusion
tak
▁25%
ologous
▁umbilical
opulation
▁aldosterone
▁distin
▁physicians
▁muc
rhy
seud
▁definite
▁nutritional
▁effec
▁vaccinations
atent
▁follicles
positive
odon
ayed
▁cuff
▁pathogenesis
erating
▁adren
keletal
gely
▁mucosal
ronectin
2)
▁cochlear
▁alcoh
▁undergo
▁.0
▁peptide
▁dissociation
olon
▁vaccination
▁overestimated
▁8-
tent
onatal
▁beverages
ivation
▁DG
▁fatty
▁Engl
▁Biochem
▁90%
▁differenti
atisfaction
itamin
▁impaired
▁antagonist
-[
▁gynec
▁clon
▁Neu
▁79
ariate
▁CAM
HU
ulfonyl
iotics
LDL
rans
esthe
6-
▁pylorus
▁protoc
EG
▁alterations
-2-
▁restenosis
▁utero
▁Findings
othermic
▁poorer
▁neutrophilic
▁erg
xual
ensit
▁skeletal
▁angi
▁acupuncture
▁advisable
▁mutant
▁agonists
▁pharmacological
▁10
▁assessments
xia
▁symptom
entif
▁myel
fentanyl
▁donors
▁renin
▁Medicare
▁metastasis
▁inactivation
▁Estrogen
iciencies
▁immunity
phyloc
utyr
▁LT
▁12-
▁gon
▁optic
▁referrals
12.
▁aiming
▁tumor
▁differentiate
ocellular
▁depolar
▁MG
▁pediatrics
ognition
birth
▁SBA
CoA
-1-
▁endometrial
▁spon
ontal
▁serine
▁intraven
▁angiotensin
regulated
▁antagon
▁thal
▁menopausal
iminary
17
tiveness
▁comprehen
▁stratification
▁intrav
▁COS
▁LF
▁spontaneously
blast
▁discontinu
▁inositol
▁prosthe
▁Intra
ercul
▁0.05)
▁Pregn
resistant
anis
orax
▁Hz
▁behavioral
▁ammon
▁immunobl
ulatory
▁BALB
chers
▁mice
6)
▁bipolar
▁diabe
▁insulin
▁inges
renol
▁fasting
amines
▁Routine
▁polyclonal
clin
60
▁evol
▁medicines
resist
▁fractions
▁enti
▁scre
▁withdrawn
▁exten
▁STI
▁ions
▁ganglia
▁PEEP
ohy
-5
▁respec
▁3)
▁employing
▁continence
roscop
otides
erus
olysis
cence
lasts
▁defects
labeled
lax
▁1.8
amino
▁transcription
ectom
32
jug
▁promin
▁1987
essel
tomy
deoxy
▁phospholipase
▁rebound
moid
▁21-
▁ligands
▁decreases
▁characterize
▁perin
eliac
cis
▁Therapeutic
rological
Phe
▁(19
▁cyt
ronchial
hern
▁resul
▁insufficiency
ymptom
▁elimination
▁receptor
▁5'
▁cation
▁avascular
loid
▁5'-
▁PCR
▁prophyl
atell
▁anatomic
▁assessing
▁cows
▁25
rants
protective
orotic
carinic
+)-
▁adolescents
▁SDS
▁supplementation
▁thir
▁ancestor
ioid
reas
20
76
▁IB
▁seroton
▁chole
▁premature
▁deliveries
.6
▁hemat
▁pharmacists
▁impairment
▁rati
adder
▁glycogen
▁dendri
▁malle
▁PMN
▁supernat
▁influx
▁nal
▁rese
▁1.0
5,
cessive
▁physiotherapy
arean
ostomy
▁examinations
iplin
leukin
vic
▁anastom
▁clipping
▁hybridization
▁1:
▁Mothers
▁laxity
mittent
▁prevalent
▁IVF
fos
rength
+/
▁prostate
athe
▁ACTH
tur
▁UTI
▁Bone
▁endoc
▁depic
▁valu
▁hern
eded
chym
▁validated
▁oes
ravid
▁degeneration
▁tuber
▁ATPase
▁regimens
kele
▁-0.
▁(11
▁efflux
siveness
▁inference
fts
▁positively
▁autoimmune
uterine
blind
ospor
▁(50
▁complementary
▁tyrosine
▁synerg
▁unstable
ditional
▁melanomas
ffe
eptidase
▁injected
▁suscepti
▁1.7
▁vasopressin
eroxide
▁stimul
▁atherosclerosis
peri
▁induc
▁somat
▁circulating
'-
fication
urethral
▁Older
▁psychotropic
▁uncom
▁inten
▁ascer
lac
vit
▁fluoroquin
▁wee
▁GFR
▁urinary
▁hypertensive
saccharide
▁MM
▁proct
rested
immuno
diagn
ialysis
estigated
▁administered
erent
▁rationale
▁tol
▁introduces
▁fixation
emory
▁amp
uccessful
ucle
▁Vitamin
▁radiol
▁WHO
▁preventive
▁maternal
nee
▁corrective
▁discer
▁cirrhotic
ceptive
dic
0.5
11
oural
uvate
uncture
▁exis
ecre
opsy
NH
▁predic
sensitive
▁enl
▁quantif
▁modality
▁Tumor
▁modulate
▁trough
▁fragile
▁tibial
BV
▁synap
▁fibroblast
▁surgical
-4-
▁bronchial
ocarcin
▁3-
▁underst
▁pulses
radi
▁orthopaedic
▁inver
mental
▁incorporation
▁0.
▁acetate
▁fmol
artum
feren
heric
▁inad
▁alveolar
eptides
▁scaled
TSP
ubtedly
▁seb
▁TPA
anese
▁actu
retion
▁suggestive
▁enzyme
▁FSH
▁melatonin
▁ART
derly
phosphate
(2+
tero
▁IBS
▁kine
▁viruses
▁myo
lymph
tensive
▁antibiotic
▁hydrolysis
occal
▁previ
▁peroneal
▁dilated
Hg
▁strom
elan
▁IA
▁retina
▁exo
▁8
glutin
34
▁persis
▁reticul
▁30
▁-0.5
ositol
▁subtraction
overall
▁eluc
▁biop
ctive
54
▁superv
helium
▁diets
ranolol
▁footprint
▁beats
econd
▁Serum
MIC
▁underwent
▁adequ
venous
▁phosphatidyl
olesterol
▁pelvis
dies
▁(9
▁microsomal
▁socioeconomic
-19
▁entero
ochlear
flux
▁mediated
▁rabb
▁Alter
▁radiolab
▁secreted
infarct
KI
▁5,
▁1.
▁gestation
▁sph
▁polypeptides
▁DFS
▁decisive
ught
▁olig
▁blockade
▁Trauma
▁protease
▁cG
▁leuk
oproterenol
methyl
cutaneous
▁Biol
▁residues
-100
▁400
▁7,
inic
▁mM
pH
▁progn
▁phorbol
sian
▁dentists
▁versa
▁congenital
▁3'
SCC
▁Chest
▁peroxidase
▁subunits
chol
▁pati
▁HCM
tis
sion
▁facilitated
▁silicone
▁elic
▁(6
aemic
▁(20
▁consequent
▁homogene
▁creatine
▁persist
osition
▁gamma
▁provocation
alities
rae
insulin
Nor
wenty
▁HMO
tidine
▁confronted
diol
▁GCS
▁laboratories
▁subsp
▁uninjured
▁45
▁causal
▁torsion
▁prolif
atinine
▁differing
Ds
veolar
filtration
agit
opathological
▁complexes
▁58
▁abolished
▁surrogate
▁interc
▁infil
▁adenomas
▁10.
tention
IH
▁criter
ocrine
ulcer
osterone
▁desm
%),
▁synergistic
▁DN
▁distrib
▁hydrophobic
▁HPV
▁heavi
ceptibility
▁disparities
SPECT
▁decreased
resting
▁prudent
▁IgE
ithiasis
▁hypothal
▁seizures
▁alteration
▁1-
vaginal
▁SEM
▁40%
▁20-
glyc
▁omitted
▁adjunct
▁Stroke
Ta
▁BAL
▁ultrasonography
▁AVR
▁paraventricular
oresis
phosph
▁edema
▁aor
▁disks
▁hyperp
3,
6.
cation
▁glycoproteins
▁adrenergic
▁eyelid
▁unsuccessful
▁cardio
economic
.2%)
▁paraplegia
▁thromboembolic
luores
▁scin
effectiveness
discharge
▁inflammatory
▁chol
tively
▁forskolin
lux
▁rigorous
▁radiographic
▁hormone
▁reimplantation
▁tracer
mTc
▁lith
bac
▁nucleus
nowled
▁pathways
.6%
ifug
hers
▁bypass
▁potentials
▁capillary
▁1.3
inear
▁EMS
▁repaired
▁inhibitor
▁chromatography
▁procedural
▁ortho
alian
▁gradi
erally
▁metastatic
▁70
▁disagreement
▁perforations
▁thrombolysis
▁patellar
40
▁aggravation
▁cereb
▁obser
▁deficit
▁molecule
rene
▁keratin
CRP
plate
sial
▁hap
tun
▁thresholds
▁abolishes
ortal
▁microscopic
▁150
▁kb
▁prostatic
▁ventil
▁gout
▁ventricular
▁intrauterine
▁immunization
▁prevalences
▁proportional
stolic
onucle
sus
▁coh
dor
▁Samples
▁Pregnancy
▁thre
▁deple
adrenaline
iological
otox
▁indications
▁flexion
▁HB
▁ow
glut
▁reactivation
eal
▁OT
▁MH
uron
▁potassium
▁musc
acchar
crimin
▁neurop
▁esophagitis
▁homogeneous
▁fas
▁24-
▁plasminogen
▁occupational
▁pmol
▁vomiting
▁establ
▁inadvertent
▁appreciably
0,
▁determinants
▁kinetic
▁abdominal
FV
▁paralle
▁promoter
▁excision
▁arrhy
▁neurotrans
▁caud
▁VS
▁physiologic
19
▁1000
1%
afe
otr
▁Tren
igaret
rine
tingu
ditions
▁nodules
ipolar
chlor
▁lipid
MV
phen
▁intravenous
▁32%
▁(5
assi
uting
atment
▁1.9
ubted
1),
▁stroma
▁fractures
rC
cepti
▁favorable
14
otoxin
otomy
▁ure
▁exhibited
▁Treatments
omia
.3%
otrop
▁metoclopramide
▁restor
oskeletal
adiol
▁glucocortic
hap
▁eliciting
▁0.03
▁IPF
idem
ovirus
▁PAF
generation
▁eryth
▁198
dle
treated
tect
▁shif
ropriately
1-
▁suturing
ilep
▁cerv
ymme
▁reag
▁microm
▁RH
carcin
urons
-4)
▁urea
▁residue
▁gallbladder
ograms
aturated
astom
▁reevaluation
lycer
entricular
xide
▁Healthy
invasive
▁chorio
▁yiel
▁geniculate
▁intrac
▁pathologists
4)
glucose
▁errone
▁adop
▁chond
▁adenosine
▁undoubtedly
▁19-9
▁Ig
entral
etus
▁elevated
erals
ilibr
▁depolarization
uria
▁apo
▁AE
copic
kines
▁scintigraphy
▁measurable
▁carcinomas
ithin
monary
▁10(6)
2-
bral
▁inhibit
tron
▁morb
▁nmol
▁occurrence
inephrine
▁retention
84
▁stained
▁64
▁construc
ergen
▁CSF
▁dialysis
licular
hospital
▁IBD
▁Rout
gm
▁precursor
▁complemented
resses
mobil
▁Elderly
ogenesis
▁pathology
▁inh
▁multifactorial
▁expenditures
▁striatum
▁BP
▁propensity
▁mononuclear
▁calcium
▁hospitalized
▁(3
onomic
1.
▁resec
▁Asp
▁pituitary
▁pacing
▁natriuretic
▁manifestation
▁solub
▁incidence
▁nM
isture
▁TK
▁Mg
▁carbox
▁inserts
onor
ocular
▁pathogen
▁intragastric
opram
▁erythrocytes
▁readings
▁hu
▁milieu
▁10(
odal
▁followup
▁undes
▁mitochondria
▁kinase
▁ceased
-10
▁Comparison
entanyl
graft
▁thrombin
▁embryos
▁uterine
▁vasodil
natal
ardia
▁avail
ycin
▁membran
▁phospholip
▁metast
▁iliac
▁immunomod
vements
rapid
▁scl
▁ket
riched
▁embryo
ophilic
▁diffuse
▁aspiration
iversity
ressive
opres
unar
ivoc
ults
▁(15
▁normo
▁Nine
▁adolescent
▁elucidate
▁timely
▁conductance
▁fractured
ostatin
onate
▁distinguishing
▁cigarettes
arotid
erable
▁ae
Ki
▁immuno
endot
acted
▁urine
stages
-9
otypic
▁incubation
ept
▁cyclosporine
▁Cyt
rotein
illus
▁unres
▁satur
onous
0,000
▁retin
iability
licate
▁50
▁exer
▁membranes
▁cocaine
▁(0.5
▁monol
adic
▁advancement
plas
▁duc
▁leukemia
▁adenocarcin
arental
▁follicular
thmic
▁retur
▁placebo
KA
▁3.0
perfusion
▁stimulating
APC
▁displacement
▁ambul
▁adenylate
▁heroin
erate
▁leu
▁FS
▁PRL
independent
▁.00
-67
▁197
itrate
controlled
▁caregivers
phenyl
Tn
razole
▁collagen
plants
▁preterm
tox
tected
▁monkeys
▁progres
▁fluores
▁ane
▁develops
▁66
▁conclusive
▁metabolism
▁minimally
2+.
lobin
▁perfused
▁thyroid
▁umb
▁resto
▁verte
▁nonc
▁stenosis
trition
▁indicators
urys
aryn
omial
grees
▁4,
▁lifelong
▁hos
▁reactivity
▁6-
uvant
cyst
retro
▁apical
▁lesions
rowth
▁susceptible
iferol
approximately
▁monit
▁interpersonal
AIDS
▁assurance
threatening
▁EGF
essive
rosine
▁foc
ulmonary
▁organs
▁VLBW
▁iod
▁affinity
▁untreated
▁comprehension
adm
atrial
▁enrolled
▁septum
▁oss
67
▁antibody
oxygen
▁External
▁renal
▁androgen
▁reac
▁injur
▁Inclusion
▁astro
trast
▁moles
phe
▁mono
▁intra
SSA
mol
▁tertiary
▁GABA
▁gastro
alact
▁thromb
▁120
tif
TG
▁fetuses
▁preservation
▁complication
▁Significant
▁hetero
▁cholinergic
onad
erated
acerb
▁biochemistry
DG
aemia
▁silic
▁phagocy
▁initiating
asone
ture
itus
effec
▁CRP
▁Accordingly
▁sial
romed
▁uremia
▁Hyp
-6
▁unresectable
ophil
udin
▁juvenile
▁vitro
▁airway
▁CABG
tation
ystolic
▁effector
▁pigmented
▁atmospheric
ropha
+,
inactivation
▁resemb
▁reagents
▁surgically
ulla
lact
▁Adverse
▁phon
6,
▁genomic
rk
▁limb
▁ceph
▁hemorrh
▁inducer
▁restric
omers
▁hypoth
▁125
▁pylori
▁amyl
▁hemorrhage
▁10(-6)
▁1,25
ergency
rotic
erop
fused
.8%
▁concurrent
atonin
▁uncomplicated
detected
opa
tum
cells
3)
▁laparoscopic
greater
▁immature
stimulated
▁screened
▁sensorineural
▁extrac
▁substrate
▁endoscopy
▁RB
▁pH
▁implic
asses
ogenetic
▁questionnaires
99
onuclear
▁streptococcal
tinu
▁BMI
000
embran
▁compart
▁GnRH
▁prescribing
▁anesthetized
▁PGE
▁synovitis
▁recordings
ewish
▁overdose
oplastic
▁polymerase
▁FDG
▁repro
anthine
▁prox
oxif
▁perme
otting
▁acco
otroph
▁patella
trex
▁morphology
▁incubated
tumor
▁chloroquine
▁ELISA
▁ile
▁0.8
▁BV
risk
▁melan
opoietic
TU
▁recor
19-9
▁epinephrine
itively
2),
▁deterior
)2
▁Plas
9,
pS
▁definitive
▁periodontal
▁prel
cored
▁GSH
implantation
ginine
▁thym
▁specialty
ffin
▁endocrine
.4
lated
▁nuclei
▁tach
yro
▁PRP
▁atheros
odynamic
▁asthma
▁testosterone
▁prostatectomy
stress
▁epitope
▁osteoporosis
▁PMA
ustained
▁algor
▁musculoskeletal
▁cervical
andard
▁unilateral
tec
aneously
ignificant
▁sarc
rosclerosis
lore
▁(0.
kely
▁5%
opia
▁53
▁0.000
▁cyclo
ropriate
%).
sors
▁cysteine
▁collec
functional
▁alp
opausal
GH
cardi
roph
▁uneventful
▁ratios
▁transi
▁phosphate
tebral
galact
FH
▁predominantly
▁37
▁AVP
ostic
▁concentrations
2+,
▁ration
▁Percutaneous
oplast
8,
▁episodic
endri
ritish
▁33
▁connective
itures
3%
▁hepat
▁exacerbations
▁analges
reness
▁OC
▁ambulatory
▁erroneous
▁epiderm
phth
▁PAN
erence
▁anesthesia
▁apop
▁PCOS
0%,
idis
▁staging
▁hemodynamic
arthritis
▁compartments
▁utilization
tradiol
mortality
81
▁catalytic
qui
▁upd
▁haemorrhage
incidence
▁evoked
▁Addition
▁sulf
▁ips
produc
▁pathological
duction
▁neph
sequent
▁lamb
▁TGF
▁directional
trexone
▁gad
astolic
▁transfusion
▁transcripts
▁Chan
▁mortality
▁catheterisation
▁recess
▁[3
▁irradiated
carb
olated
▁assemb
▁inhibited
▁proposes
▁distinctions
ansing
amus
atectomy
acetyl
uin
▁rash
▁2.5
▁VE
▁diffic
SAP
▁thrombectomy
▁LS
ectomized
▁subun
▁oesophagitis
gulation
▁microc
▁Hg
▁HCA
▁saturation
plantation
▁centr
▁phagocytic
▁ischemia
▁quantitative
▁unprotected
▁enucleation
gastric
trate
embr
▁consequently
▁consangu
tension
▁accep
.3
▁multicenter
▁ald
▁(198
dehyde
▁prospectively
▁practitioners
▁undo
eak
▁recurrent
▁macrophage
prep
tin
▁distinctly
▁schizophrenia
▁analyses
▁TAA
irrhotic
▁Experim
▁cue
olus
▁apoptotic
▁deli
years
athy
▁GI
▁sclerosis
▁underline
illation
▁elec
▁HAM
▁scans
itoneum
parative
▁cardiomyopathy
▁analysed
urement
tical
fine
▁granules
▁calcified
clonal
▁calcification
erb
▁markedly
olectomy
oxidation
▁susceptibility
oplasm
▁0-1
▁nucleotides
▁transplantation
antial
▁linole
▁homogen
▁deformities
ffec
▁morphological
▁excitatory
▁hydrophob
olateral
estis
lecting
umulative
▁glomerular
▁Continued
HM
▁lesion
oidal
▁physi
▁Ket
oglyc
▁immunos
▁[14
▁4)
▁kidneys
▁athe
▁sten
ectin
▁cytochrome
oic
29
ternational
▁labelled
▁drainage
ithi
OA
-3
eptid
▁disappointing
▁Randomized
▁induces
osine
▁investigating
azole
▁examiners
▁antiser
ertion
▁pharmacokine
53
rectomy
▁fibronectin
▁extraction
▁steroids
ylline
trac
ectomies
ministration
▁CSA
rane
tead
▁cann
▁thymus
▁prono
▁duoden
▁differed
vail
▁increas
gland
inergic
▁LH
▁80
▁uter
▁4-
ocytes
osocial
activated
▁nec
▁experim
▁arti
▁Failure
▁medial
pecially
▁nicot
2/
valent
omethacin
▁microvascular
▁NPC
sue
▁biopsy
▁identif
▁BPs
▁arterial
▁progesterone
mL
▁randomized
▁NSC
itally
IK
▁topographic
▁Stu
▁contex
ovascular
▁pyr
uted
hydrox
contrast
xone
▁intrinsic
▁vancomycin
▁consol
▁remin
yel
ometr
▁80%
▁shortening
▁Escherichia
▁NN
▁ALT
▁routinely
neal
▁dietary
▁epithelial
kinin
itone
▁adolescence
▁widening
▁sham
▁prolonged
oag
sar
▁acyl
▁microv
(5
tence
▁Steady
▁impair
▁hepatocytes
▁arth
-2,
▁warr
▁75%
▁abd
▁sedation
ulitis
▁CI
▁hypog
evaluated
cretion
.5
rele
▁haemorrhages
8.
▁Elec
▁radiotherapy
▁Severe
osyn
▁PMP
urin
▁pathway
kephalin
▁pathologic
iotic
▁quantit
urred
▁shorten
▁infiltrative
▁electrophoresis
lysis
▁ruptured
▁antisera
▁requi
▁cellular
nai
gement
diagnosed
▁2.
▁APTT
oscop
▁cortic
▁acidosis
90
▁staining
aline
▁Analy
▁hazard
CBF
▁integrating
▁rehabilitation
orac
glumine
▁lectin
▁colonization
16
▁basal
▁cirrh
entary
▁tas
▁preferable
1).
▁poisoning
▁confound
▁exercised
olec
▁BD
▁PCT
▁cannulae
tance
enhanced
8+
ameters
overed
▁apex
arer
ysm
yloid
istor
▁hemis
versity
▁Thromb
urse
▁ves
MH
▁sucrose
iosis
▁hazards
▁ablation
▁DF
▁AGE
▁perceptions
▁adhe
▁diame
ichia
osin
ventricular
alues
▁equivocal
aturation
▁tetr
▁struc
▁dislocation
▁TSH
▁albumin
▁conformation
▁ultrasound
▁99
▁stellate
affinity
▁metastases
Ia
ocele
▁uncontrolled
▁contractile
ylate
▁effic
▁simultaneous
alsy
▁chori
▁glycos
▁heterogene
▁ESR
▁dendritic
▁monke
vival
▁tec
▁dorsal
icardi
tel
▁clinics
▁tox
tact
embrane
▁indetermin
ochondral
teric
▁amin
▁allergic
.8
rone
rals
▁instability
▁subjec
Pa
abain
▁Paget
▁splenectomy
gans
▁yielded
oscopy
▁recurrence
▁regar
▁preoperative
▁bovine
-5)
hort
▁0
▁PKC
▁colloid
▁resis
ionic
▁detach
angli
▁acyclovir
▁coli
▁cDNA
▁metabolic
sions
▁AGA
56
▁endogenous
▁10-
▁sequentially
▁hypertrophy
▁macropha
fir
▁7.
▁Concomitant
▁palliative
▁acute
erox
▁OA
ygen
▁adrenal
▁behavioural
▁demonstrates
▁stimuli
▁provid
▁80-
ognitive
▁usefulness
▁binds
hicle
oprotein
▁throm
alanine
otyp
ifed
▁subtype
49
▁ethanol
amethasone
▁intervertebral
▁adherence
bumin
▁neoplasm
knee
tant
heal
▁immunohist
zation
Au
▁orally
ohyd
▁multivariate
▁nm
▁Systolic
▁activator
▁intraoperative
olism
▁proton
▁obesity
mediated
▁subf
tents
ophore
▁advan
omedullary
44
peptide
▁phenyl
rectal
▁catechol
▁gallstones
▁6
▁predicting
▁underlie
▁satis
▁ADH
ocamp
oyl
uran
tric
glutinin
otropic
glycerol
▁Regarding
▁appropriateness
▁pT
tions
tic
▁saturated
comitant
phosphor
▁athle
▁reagent
▁fulf
▁bowel
formin
▁rabbits
▁homology
▁adequately
spective
▁restorative
(+)-
kage
urrence
▁plaque
▁subc
▁microM
▁combin
▁hypothyroidism
▁chamb
oxin
amate
▁Bec
ignific
▁fluorescence
▁anomalies
▁interacted
atine
▁amyloid
onc
ensory
platin
▁numb
modulin
▁undiagnosed
leu
▁hypertrophied
▁excre
vation
assay
ibi
▁morbid
▁derange
▁groin
▁Chronic
omiting
▁grouped
▁reliably
▁segmental
▁unchanged
▁20
▁catheter
▁trypsin
▁5-
itudinal
antigen
▁mec
▁Surgical
▁rheumatoid
▁linkages
▁fibrob
iatric
▁transcrip
▁15%
relevant
▁41
dose
▁0.4
▁OCD
omies
▁tracers
ocarcinoma
▁cumulative
▁contrib
igravid
▁exposures
▁abl
▁(12
uoden
rents
venth
lys
▁asymptomatic
▁morphine
minis
▁occlusion
▁herp
▁propranolol
illic
▁gynecological
genital
8%
gments
lication
▁17
▁PEG
▁neutrophil
▁recessive
operative
▁hypoxic
tituted
urgical
otactic
entan
▁facilit
ographically
▁0.6
▁homologous
rogenase
▁chlor
7.
▁peptic
▁adhesion
tural
▁iatrogenic
▁3.5
▁Whilst
ected
▁(0.1
18
▁summ
▁endothelin
tically
2+]
▁deposition
▁hernia
▁cholest
▁eosinophil
iciently
hei
▁unde
▁frac
cephal
uscular
ococci
▁pneumon
ticular
▁Thirty
.2%).
▁needles
▁epidemic
▁TBI
▁parame
ervative
valence
▁HSV
HN
▁investigations
othelial
otide
mitter
▁gp
▁cancellous
▁subunit
▁postoperative
▁Alternative
▁reevaluated
▁unaware
▁bilateral
▁Hb
▁insuff
VH
osyl
▁degrad
thase
▁MV
35
▁PSA
cents
▁cues
▁bladder
ocyt
▁progressively
▁39
▁rectal
▁assayed
▁excretion
▁CK
oxia
▁msec
▁imaging
▁Premature
.0
maximal
▁graf
▁mutation
▁duct
-6)
▁valve
occus
▁cloned
▁hypothalamic
▁myoepithelial
ilic
▁biosynthesis
ivary
▁minerals
protein
▁unemploy
▁predictive
rati
adren
lapping
▁fibers
▁acceleration
▁preoperatively
▁lute
▁UT
isqu
▁plasmin
97
gesia
▁membrane
▁inters
-0.5
zard
▁sickness
achid
usp
▁conceptual
▁IgA
▁fibres
rangement
piratory
▁sodium
▁femoral
▁margins
AO
pation
iably
▁esophageal
▁phenotype
▁ACL
▁preconditioning
igel
-1.
omain
▁Trials
▁antegrade
▁lymph
olone
versal
▁adjustments
trol
▁Histologic
▁Throm
▁cleavage
2+-
▁rotational
▁pharmac
▁overweight
either
umbar
▁glyc
▁Alcohol
▁79%
uality
▁warranted
vascular
oprec
▁dehyd
▁expressing
thrombin
apeu
▁inactiv
▁smo
▁dors
▁reas
▁aden
▁suprap
▁encounters
▁tet
▁phosphatase
utroph
▁cadaver
▁epileptic
▁aggregation
▁adaptive
▁monoclonal
ece
48
ophageal
▁bran
rophy
atid
▁fatigue
▁polym
▁thyroidectomy
erine
terone
▁24
▁eosin
25
▁headache
ameth
▁Excess
▁Dil
▁hippocamp
▁differentially
▁efficacy
Leu
▁hydroly
▁defec
▁unselected
bacco
iatum
▁pediatric
urally
ipid
terl
gia
asic
▁resuscitation
▁infants
osts
▁Magnetic
▁Imaging
▁spi
▁pyramidal
▁antic
▁estradiol
▁toxicity
▁ovari
▁carbohyd
estions
▁cancers
thyl
tially
▁Atropine
▁inheritance
▁50%
atural
▁cla
truc
ineph
gression
enteric
hea
tive
▁glut
▁(13
odies
▁inpatient
▁progen
DH
▁Whereas
▁(30
▁47
▁55
onit
-15
estim
▁allevi
▁intensive
▁verteb
otassium
▁salivary
nI
bly
▁unrelated
▁polypeptide
eared
▁crest
▁tymp
HF
yses
▁malign
▁Increas
▁diminished
▁transient
morph
▁enzym
▁hep
▁Patient
▁assis
▁disadvantages
▁discusses
▁spre
▁lymphocytes
▁mitral
▁6.
▁rotated
cine
helial
▁regulated
▁ouabain
cold
▁callus
▁Obese
inemia
▁cytos
▁interferon
▁vegetable
brain
▁variants
▁SCH
1,
phos
▁(4)
▁proce
roin
▁births
Ts
aminergic
▁labial
▁ramus
▁poses
▁substantially
▁infusion
▁clinicians
▁Muc
▁empir
▁sexes
reported
/2
▁sebaceous
▁superoxide
trib
fron
▁30%
▁intraper
vac
▁4.
▁demonstrating
iae
▁9
adrenoceptor
▁NK
▁fatality
▁misleading
▁illustrates
▁responsiveness
▁individualized
▁100
facial
-3-
▁nonoperative
opramide
hydroxy
▁Swed
▁canine
clim
▁cytotoxicity
affec
▁Vaccin
▁highl
wk
▁tubular
itant
▁pyl
ilization
▁myocardi
▁natri
▁(100
▁anatomy
tious
▁endos
severe
▁opi
▁autologous
▁lymphoma
▁PF
hep
▁cesarean
▁pate
owel
▁HCC
▁remission
▁endotoxin
▁platelet
orphism
graftment
▁sphincter
▁21
oreactive
▁inhibiting
scop
acial
▁multic
▁coexistence
ulph
operatively
▁impacted
ropyl
▁0.01),
▁challen
2,
tory
▁atresia
▁remo
tro
▁neutrophils
▁heavier
▁anion
▁multim
atest
▁hemisphere
▁systematically
amet
atients
ixation
ections
tran
opha
▁pancreas
▁irradiation
ethyl
oty
olones
▁currents
▁pren
▁psychiatric
rox
▁endothelium
▁analogues
rophilic
ucleation
▁neurones
genic
onance
▁tethered
labelled
IIIa
▁longitudinal
▁DST
aryngeal
stem
▁31
ylcholine
▁murine
▁supervision
ropine
PAP
▁6,
tructural
▁prostagland
▁slices
relations
▁caregi
▁UF
vely
▁microns
▁poorest
Gi
roximately
▁rigidity
▁ruptures
▁virtu
orbol
cyt
▁preferably
▁28
gesterone
jun
▁HM
▁cyclic
omatic
tig
▁serum
atase
lix
7)
▁discordant
▁14
▁TG
▁predictability
olum
onography
phasis
▁22).
▁donor
▁cortex
▁TB
▁inhibits
▁Effective
obacter
hesive
▁contrac
▁resear
▁mutagen
▁disrup
▁anemia
▁necrosis
▁hyperg
▁EO
▁MEP
BW
Ss
tage
▁Preoperative
▁divertic
▁inactive
odialysis
▁astrocy
▁0.05).
▁severity
opressin
24
▁simult
nisone
oxide
▁100%
ylchol
apeutic
▁comparative
FU
FG
oprote
atheter
erican
▁hypothe
linic
attern
▁PVR
eptide
▁NP
▁Discre
▁viral
urate
▁conserved
versus
▁dosage
▁trig
▁endpoints
▁GVHD
▁sequential
▁assays
thel
▁mRNA
▁benign
▁differentiation
▁discus
▁infarction
responder
▁intercostal
luc
▁conservatively
▁unco
▁59
vertebral
▁ketamine
▁multiv
SAH
olis
▁reproduction
▁sci
▁19
gluc
phil
▁carcin
vating
▁oxidase
▁endothelial
▁86
▁descending
▁colorectal
▁micromet
▁stu
▁2)
▁prognosis
lop
▁tryp
ucine
erad
▁trophoblastic
▁peripheral
▁hypertro
▁plantar
▁tolerated
▁lysis
accharide
▁bedside
▁inser
▁practiced
▁electr
▁cigaret
▁exogenous
ressing
RU
▁(7
6%
saturated
▁oxid
DNA
acet
▁pall
▁attemp
▁IHD
▁TA
▁speculated
▁aerobic
viron
transferase
▁15
ervical
▁workload
▁choline
▁vaccin
tyl
rease
ellar
teine
▁ery
▁chemo
vated
65
▁ASA
▁depr
siological
Hb
▁heterogeneity
▁blot
4).
trin
▁pressures
▁RNA
▁abnormalities
▁operative
▁2-
▁morphologic
▁reflux
omal
▁carotid
▁conclu
▁cortisol
odynam
▁drin
▁resistant
aluation
odil
▁SG
▁cava
▁morbidity
▁aneurysm
lectomy
▁deterioration
xiety
▁Dopamine
▁eyel
Cy
▁coex
▁histamine
duce
▁resected
onium
▁abnormality
▁transplant
▁dissection
2%
▁12
12
▁intrap
▁0.0
acyl
clo
▁lar
▁indefinitely
▁localization
-13
Ly
45
▁myocardial
▁Increased
ustment
Ca
▁TC
▁oxidation
▁hemodialysis
▁chloride
▁coronary
▁placenta
ACS
▁preven
▁substitu
-1)
▁feasibility
▁ADP
sA
▁theore
lyc
▁palp
▁pleomorphic
fal
ocor
erations
▁vasomotor
▁capped
mend
▁perox
▁microcirc
▁lept
▁plur
▁gluc
▁retinal
orrh
▁periodon
▁genic
treatment
▁sacr
accharides
▁steroid
deficient
▁precur
▁correlate
inally
rof
▁immunoprec
▁hypoglycaemia
▁Tran
IU
ergy
▁desirable
▁mRNAs
▁lipoprotein
tryp
▁synthetase
▁phospholipid
4.
gmental
▁sple
▁MRI
▁palpation
▁0.7
olol
plasia
▁phosphatid
▁Comparisons
hered
▁replic
▁51
genes
noise
▁Mucosal
icul
mia
▁respiratory
▁interleukin
lyce
▁objec
▁swelling
▁intramuscular
stro
gli
incubation
5%)
▁CMV
tering
▁NB
▁radiological
cious
▁kidne
dominal
▁buc
▁acetyl
hydr
▁cardi
▁lax
elong
▁biosynthe
▁correlations
ociation
▁proliferative
▁mammalian
▁tric
.5%
▁probes
▁bronch
aluable
▁balloon
▁differe
▁APD
▁lymphoid
lob
▁fri
agic
▁IGF
▁hygiene
▁suppres
▁estimating
tine
▁AMI
▁amputation
▁sero
▁promo
▁ATP
▁psychotic
acrylamide
Fs
infected
reet
▁micros
otomies
5%
Wo
▁trache
▁aerob
testinal
udent
▁ultrason
orepinephrine
pyr
▁mutations
▁transcriptional
▁interstitial
oluble
ensi
▁instrum
olip
▁adhere
oagulation
▁etiology
▁locus
▁immig
▁trophob
▁0.01)
▁Intravenous
▁regimen
▁initiation
erum
ecu
-8)
▁phosphorylated
▁modulation
▁rabbit
▁5.
▁202
▁reticulum
queous
▁retrospective
▁inappropriate
▁anticoagulation
▁evid
9%
▁uncommon
tained
▁peris
enon
▁concom
rins
▁visually
▁deficiency
▁percutaneous
▁polymorphism
▁conformational
75
cysteine
roma
ovine
▁selective
▁postnatal
▁neurological
▁unin
toc
▁0.5
▁neonatal
▁saliv
▁syndromes
fat
monstr
▁mammary
meth
▁inversely
ffinity
epam
.4%
dia
▁intrarenal
iotensin
▁grading
▁guan
ilized
▁vein
otent
▁influenz
▁invasive
ilateral
▁neoplas
▁Progression
▁attenuated
▁masked
▁lumb
titution
▁glutathione
▁arter
oplasmic
▁aneurys
intestinal
▁inflamm
▁carbohydrate
tate
▁vitamin
▁RM
▁ascertain
▁glucagon
▁hypothalamus
▁deficiencies
tein
▁enteral
▁Considering
ocortic
▁arrhythmias
▁infiltration
▁RP
▁buccal
▁validity
▁progression
oride
▁suppressing
▁tubes
▁(16
▁haemorrh
▁manipulations
ogenous
thre
▁granul
▁sequel
▁Ultrasound
▁acet
▁OSA
NB
vices
▁ventilation
▁derivatives
utaneous
assium
▁Recurrence
▁interf
▁Doppler
roxim
forcement
ritis
atab
▁reposition
▁extracellular
▁(+/-
opi
▁LC
▁75
tivity
thmias
quit
kine
▁disparity
▁reductions
▁CPAP
▁undertaken
▁tympanic
orpor
▁distal
▁spati
ignant
▁depressive
▁1.6%
▁chromosome
▁reper
tice
ussion
▁1.5
▁prednisone
ventive
▁congenitally
romes
▁disparate
▁lis
▁dye
▁(10
▁inadequate
elvic
▁Clinical
▁doses
▁targe
istar
▁oils
lier
ococcus
▁ionic
▁antiserum
oretical
alp
▁microsomes
▁RAR
▁refrac
▁reproduc
▁bir
▁discomfort
▁emphasizes
▁manu
▁SLE
▁ocul
▁inapp
▁limbs
▁MBC
▁undergone
tens
▁contralateral
▁fibrin
▁atrophy
/100
▁thyro
erative
▁diluted
▁vena
cus
oglobulin
15
▁diagnose
pT
inatal
▁implant
▁discern
lead
taken
osome
▁kappa
oreceptor
▁biochemical
-16
orphin
▁predominant
▁deprivation
CMV
▁prolactin
lox
▁detectable
▁implantable
pecific
ameter
trop
jected
▁adenocarcinoma
uble
Tc
▁VL
▁curative
▁cultured
▁stillbirth
▁transpor
▁tended
▁cephal
▁discontinued
▁RS
▁mell
scher
▁intermittent
▁coincidence
▁reduc
▁Vmax
▁innerv
tized
sively
physiological
▁moderately
hemia
LU
▁fibroblasts
inhib
▁acad
entical
tisol
▁zinc
▁spinal
▁chloro
pap
▁modestly
▁cholecystectomy
▁vulnerability
immunization
▁cerebral
▁ultr
eptin
▁strains
sess
iasis
▁nig
▁(2)
▁prostaglandin
.7%
▁hygi
▁Chemical
▁cohort
▁bic
trimental
opo
onary
▁soybean
▁glycoprotein
olgi
1)
▁cystic
umably
orption
oleic
alc
▁intracellular
▁dissec
▁reflec
icin
▁radioactivity
▁Alternatively
etal
▁erythrocyte
echanical
▁intest
tial
throm
ormone
▁phospholipids
phasic
▁filaments
▁enzymes
evaluation
▁carc
nucle
LF
▁immunoreactive
2+
ediatric
▁0.1
▁immun
▁cef
▁isch
▁mmHg
▁precipit
▁Roux
]-
urea
▁permeability
ducible
luent
▁HG
▁stimulates
▁2.0
▁cardiovascular
regn
▁correcting
ourable
▁lymphocyte
13
▁pulmonary
ficial
WBC
▁LVH
▁85
▁newborns
▁FD
▁substances
▁eti
▁Kupffer
▁nasal
lue
mide
▁statis
ilated
continu
▁fentanyl
amycin
▁peri
▁Improvement
▁Tumour
▁hemo
▁muscarinic
toxin
▁newborn
otential
vents
▁problematic
▁FV
eces
▁atropine
▁pyram
▁pedigree
▁unexplained
▁adjustment
▁necro
imination
▁intram
▁hemodynamics
▁plasmid
ollicular
▁characteris
▁immunode
+)
▁interv
▁perfor
▁[125
istal
▁degradation
▁72
▁dopamine
▁implicated
-17
▁localities
sities
.7
▁adduc
geal
▁acetabular
▁+/-
hering
▁platelets
▁Mn
▁erythrocy
▁regression
▁tidal
▁micrograms
mation
▁physici
▁ETS
abies
omod
▁GBS
atitis
ometrial
immun
▁docum
▁labeling
▁confined
▁57
▁proliferation
ionine
ositive
▁respondents
,000
▁triglycer
▁anticoag
▁proximal
▁accumulation
loon
▁cardiac
▁coeliac
farct
▁triv
▁IUD
▁utilisation
▁GPs
▁merit
trus
erator
oru
ullary
70
▁secretion
▁PTH
▁brady
▁26
▁substrates
▁hospitalization
anding
▁methyl
erin
ortic
▁inoc
robic
▁optimizing
vein
▁onset
lowering
ectomy
▁counteract
gative
ocl
opam
▁polyp
gth
▁vesic
▁18
▁infectious
▁arteri
▁illustrate
oplas
▁deficient
▁SGA
▁(10(
sorption
esting
▁THA
benz
▁(0.0
helin
inositol
▁thromboemb
icacy
ocytosis
▁300
piration
gene
ffs
ococcal
▁chromosomes
responding
lesion
▁suppor
▁hyperfiltration
▁amy
▁Larger
▁2,
TNF
▁(54
▁3
▁Prospective
▁lithotripsy
▁inherent
▁HC
▁afferent
▁trac
erving
▁immunofluores
lytic
ivariate
▁resour
▁melanoma
▁migraine
▁interventions
onset
▁discriminative
reast
▁clinician
▁diagnoses
jec
▁PV
▁ganglion
▁hCG
▁sugges
▁GE
▁histopathology
oxygenase
▁201
▁ultim
acetylcysteine
WB
▁progest
vity
▁vasoconstric
▁hepar
▁geriatric
▁therapeutic
▁blin
▁attrib
▁atten
cale
▁inhibitors
edle
olenic
din
69
tality
bular
▁cholestasis
▁reflecting
▁familial
dial
30
▁intestinal
▁32
▁hypox
▁diagnos
tages
▁malignant
▁mV
▁bac
▁ranged
esti
ustif
▁nomenclature
31
▁perfusion
▁neurons
amn
otone
▁predictors
▁gradients
▁serotonin
▁toxin
▁endoscop
acting
▁1.6
▁Patients
TB
▁sampl
8)
▁lact
▁concomitant
essential
adily
eclampsia
▁polyethylene
▁63
▁elevation
Ka
▁Cytoplasmic
inusoidal
ineal
▁recons
-1,
▁inhibin
crip
▁clones
▁gonad
Ara
▁aorta
▁sympathetic
▁IIb
▁circumferential
▁adhering
hig
▁disruption
▁memb
lasses
iology
▁synov
▁micron
onstric
▁extre
▁pulmon
mutant
idne
▁bolus
▁coexist
rogenic
▁gyn
▁secretory
▁resonance
▁myosin
pendent
enol
▁bacterial
▁intake
▁audi
▁Pretreatment
aventricular
stim
oconstric
▁intrapartum
.2
▁reacted
▁preliminary
▁enhancing
▁Immun
enzyme
OH
▁ischem
▁Compared
oratory
▁follicle
erper
▁aureus
▁irritation
▁spontaneous
▁panc
▁spikes
ranial
dimer
omical
▁atmosp
▁nitrogen
▁complications
oxid
▁ageing
▁sedentary
earance
▁cAMP
79
▁monitored
▁undetectable
▁ventricle
7%
2).
▁mitochondr
hemical
▁tumours
▁actin
▁lamin
▁prol
containing
ecyl
▁synchronous
▁1%
