▁abdominal
▁gastrointestinal
▁fatigue
▁idiopathic
▁peripheral
▁ultrasound
▁obesity
▁bibliographies
▁weighted
▁nedocromil
▁cohort
▁uncomplicated
▁progesterone
▁Trial
▁assay
▁anemia
▁atrial
▁prospective
▁Efficacy
▁regurgitation
▁mortality
▁referral
▁daytime
▁digoxin
▁clinicians
▁hemorrhage
cutaneous
▁miscarriage
▁otitis
▁resistant
▁ischaemic
▁cutaneous
▁cardiovascular
▁abnormalities
▁breastfeeding
▁intraepithelial
▁specificity
▁abnormal
▁vaginal
▁aspirin
▁topical
▁simvastatin
▁anticoagulant
▁reflux
▁concussion
▁redundant
▁lymph
▁urine
▁concentrations
▁adolescents
▁metronidazole
▁gestational
▁colorectal
diabetic
▁azithromycin
cervical
▁adjustment
▁prophylaxis
▁obese
▁corticosteroids
morbidity
▁decreased
venous
▁thyroxine
▁nephropathy
▁antibiotics
▁carvedilol
▁creatinine
▁osteoarthritis
▁osteoporosis
▁ischemic
▁relieve
▁herpes
▁abstracted
▁fractures
elective
▁randomized
▁regimens
▁mmHg
▁erythema
▁testicular
vaginal
▁therapeutic
▁metabolism
▁spontaneous
▁cytology
▁biochemical
▁antidepressants
▁intrauterine
▁migraine
▁overweight
▁placebo
▁thromboembolism
vascular
symptom
▁thyroid
▁progression
▁carcinoma
deficiency
▁intravenous
▁diagnosing
▁coronary
▁antagonists
▁Secondary
▁initiation
▁Compared
▁headache
▁extraction
▁ABP
▁pneumonia
▁estrogen
▁amlodipine
▁sulfonamide
▁onset
▁postmenopausal
▁diuretic
▁fibrillation
▁stool
▁torsion
▁warts
▁sunscreen
▁fibre
▁antihypertensive
▁nasal
▁alopecia
▁subclinical
▁angina
▁births
▁gastric
▁hyperthyroidism
▁imipramine
▁occurrence
▁bipolar
▁lipoprotein
▁lithium
▁clindamycin
renal
inflammatory
▁serum
▁eczema
▁allergy
▁cruris
▁elective
▁proximal
▁mmol
▁incontinence
▁calcium
▁deciliter
enzyme
▁prolonged
▁heterogeneity
▁lesion
▁deficit
▁interventions
▁obstructive
progesterone
symptomatic
agonists
▁circumcision
▁atypical
▁postoperative
▁lipid
▁neonatal
▁pharmacological
▁percentile
▁malignant
▁infectious
▁prognostic
▁corticosteroid
▁desmopressin
insulin
▁Treatment
▁dietary
▁inhibitors
▁decreases
▁erythromycin
▁intrapartum
▁recurrence
▁symptomatic
▁fracture
▁augmentation
▁cysts
statin
▁psychiatric
▁PMS
▁fetal
▁Achilles
lipid
▁diabetic
▁neuralgia
▁isolates
▁HSV
▁neoplasia
▁cryotherapy
▁melanoma
▁recurrent
▁reductions
▁fluoride
▁ratios
▁contraceptive
▁acute
▁hyperplasia
▁faecal
▁mellitus
triglyceride
▁prophylactic
▁Clinical
▁examinations
gastric
▁retrospective
▁logistic
▁artery
▁remission
▁pressures
▁caries
▁acetaminophen
▁contraceptives
▁mitral
▁Depression
▁prevalence
▁randomization
▁hypertensive
▁hernia
▁supplementation
▁systemic
▁superficial
▁constipation
▁infants
▁Controlled
▁pertussis
▁venous
▁paracetamol
estrogen
▁reproductive
▁subgroups
▁glucosamine
indications
▁prenatal
▁mononucleosis
▁amoxicillin
▁hypertension
▁hormone
▁antibiotic
▁hypothyroidism
▁pregnancies
▁bowel
▁deficiency
▁investigations
▁transient
carcinoma
▁Patients
▁excision
▁discontinuation
▁adverse
▁incision
▁acne
▁invasive
▁pioglitazone
▁agonists
▁transvaginal
▁sodium
▁hemoglobin
▁relapse
▁guideline
▁diagnoses
▁insufficient
▁smokers
▁thrombosis
▁myocardial
▁fluoxetine
▁bupropion
▁cervical
▁receptor
▁warfarin
▁febrile
lipoprotein
▁Risk
▁NSAIDs
thyroxine
▁perinatal
▁congestive
▁dosage
▁triglycerides
▁incidence
▁databases
▁hepatitis
▁occult
▁ambulatory
▁systolic
menstrual
urine
▁gestation
▁bacterial
▁endoscopy
▁preterm
▁biopsy
▁complications
▁Screening
▁progestogen
▁hazard
▁sulfate
▁rehabilitation
▁reuptake
▁clarithromycin
▁diagnose
▁infertility
▁urinary
▁nocturnal
▁diuretics
▁antidepressant
▁hysteroscopy
steroids
▁ultrasonography
▁refractory
▁steroid
▁microalbuminuria
▁lesions
▁inhaled
▁antihistamines
▁asthma
▁regimen
▁vaccination
▁steroids
cholesterol
▁vaginosis
▁untreated
▁respiratory
▁lovastatin
▁regression
▁concise
▁benzodiazepines
▁inflammatory
▁CHF
▁terbinafine
▁oxytocin
▁ventricular
▁benign
arthritis
▁injections
▁cholesterol
▁Randomized
▁pulmonary
▁pravastatin
▁dermatitis
▁symptom
▁antibodies
▁ROC
▁clinics
▁renal
▁postpartum
▁ovarian
▁elevations
steroid
▁triglyceride
▁Medline
▁mammography
▁infarction
▁intake
▁rupture
▁therapies
▁outpatient
▁pneumococcal
▁Prevention
▁vascular
▁IgG
urinary
diagnose
▁maternal
▁pelvic
▁apnea
▁blinded
▁cesarean
▁Scale
▁PID
▁premenstrual
▁cardiac
▁insomnia
▁diarrhea
nasal
▁endometrial
▁prescribed
▁enzyme
▁LDL
antibodies
▁bronchoconstriction
▁CIN
▁imaging
▁induction
genital
▁metformin
▁tinea
▁menstrual
▁femoral
thyroid
▁predictive
▁insulin
▁lowering
▁questionnaire
▁morbidity
▁indications
▁asymptomatic
▁infusion
▁herbal
▁ulcer
▁anticoagulation
▁infections
▁diastolic
▁surgical
▁allergic
▁hormonal
▁vitamin
▁fasting
▁glucose
▁irritable
▁tablets
▁hospitalization
▁physicians
▁colposcopy
▁angiotensin
▁elevated
▁TSH
▁antimicrobial
▁heparin
▁tendon
▁impairment
▁impaired
smokers
▁hysterectomy
▁arthritis
▁thyrotropin
▁genital
▁tamoxifen
▁depressive
▁squamous
▁atopic
hypertensive
▁dysfunction
▁severity
▁statin
▁subgroup
