▁intense
▁prel
▁opioid
eptin
▁echocardi
asal
▁fractures
▁vena
▁differen
▁urinary
AIDS
▁cere
▁sampl
▁assessing
relations
▁paradigm
Mu
tions
▁ovarian
▁Samples
▁esophageal
utroph
ileptic
leu
▁laboratories
▁leakage
▁acqui
▁inadequate
iferation
▁ongoing
▁thir
▁neurop
▁molar
enh
▁simultaneous
▁reasonably
▁longitudinal
▁thrombolysis
▁MRI
▁SB
▁segmental
▁tox
▁indications
obal
APC
▁inpatient
▁differentially
▁prolonged
▁rigidity
▁achievement
stolic
sue
▁PF
▁peripher
tent
emic
▁decreas
▁saturated
▁linole
▁stimulation
tak
▁compressed
legia
▁burden
BM
▁cohorts
sul
adily
▁statistically
▁enti
▁approx
▁PP
▁esophag
FH
▁vein
▁spati
▁thromb
Ps
▁comparable
OA
▁psychosocial
trop
▁chlor
orative
▁cervix
▁colonization
▁judged
iminary
▁depr
▁correlates
▁Vitamin
veolar
▁vulnerable
▁medial
▁discharge
▁Increased
▁urine
yro
Tc
ophil
ighted
antial
istrib
▁soy
▁consequent
▁inserts
mL
keletal
▁tumors
▁hep
genic
▁cervical
▁interventions
▁depress
▁exo
▁meal
▁Muc
▁endpoints
▁deficiencies
iable
▁manifestation
▁bronch
▁RBC
ternational
▁sepsis
effective
▁identif
▁affects
▁preoperatively
▁worsened
▁Surgical
▁glomer
▁heavi
▁eosinophil
▁pharmac
lysis
ystolic
econd
▁hospitalized
ophilic
▁pleomorphic
▁asthma
ococcal
ication
▁mandibular
opam
hospital
▁surge
▁Biochem
▁aor
▁bipolar
▁autosomal
▁drops
rated
▁temperatures
geal
rous
▁peptic
▁restenosis
versely
plantation
dose
▁AO
▁reactions
▁minimize
▁aorta
opsy
▁HIV
cardi
▁wee
sts
▁immature
erine
▁cure
▁dys
▁concentrations
▁meals
▁pregn
▁fatty
▁hypoglycaemia
▁disruption
tle
ourable
degree
▁mediates
▁fever
▁nec
rophob
▁adequately
▁surgeon
urgery
thma
otype
▁Cox
▁validated
▁SLE
▁manipulations
▁ACE
GD
▁barriers
▁implications
▁gangl
▁measuring
acer
▁schiz
arly
filtration
▁needle
ffer
▁Tran
▁severity
oplast
bral
▁cen
ilical
stro
icin
▁nerve
▁psychological
▁supplementation
idis
▁implantation
▁neph
▁Accordingly
CBF
bac
▁physically
ioid
▁inflammation
▁cereb
▁melanomas
arity
▁hepar
▁cardi
▁Neither
▁hemorrhagic
▁resour
▁intercostal
reatine
▁chronic
▁mucosal
▁circumferen
▁corne
▁COS
▁hospitalization
▁plaque
omotor
▁beneficial
▁chond
menopausal
tering
idney
atical
▁morphologic
igaret
ocarcinoma
▁incidence
ficial
quid
▁malignant
▁diabetic
ymp
▁overweight
▁enteral
▁broader
▁PE
pir
▁inadequ
▁mamm
▁vascular
▁UL
lective
▁intraoperative
chol
▁mutations
▁accurately
▁RT
Hb
▁challenges
hyd
▁VD
clin
▁surveys
onyl
▁indicative
▁catheters
osts
▁conservatively
▁diversity
▁alveolar
▁adjuvant
▁tow
▁retrospective
▁naltrexone
▁surf
▁wors
ospor
treatment
ithiasis
▁detectable
▁manu
sor
▁distal
▁salivary
▁exce
fat
tum
▁diagnose
urther
▁HM
▁dosing
▁uncontrolled
EGF
owever
▁biochemistry
rolog
▁concomitant
▁gastric
▁portions
ceptive
▁epinephrine
retion
ections
▁Contr
▁invasive
ariate
▁pyramidal
▁cytology
▁acidosis
▁consistently
▁femoral
onit
birth
▁overex
▁transi
▁predictive
▁favorable
▁fetus
▁insufficient
rents
▁ane
ygen
▁sulf
▁toxicity
itamin
aventricular
▁polymorph
eration
▁organisms
▁discomfort
▁vagal
ially
▁vaginal
years
ediatric
▁behavioral
idated
▁rhe
aid
▁bladder
▁synerg
▁depressive
ivation
aminated
▁thigh
ologists
tomy
▁doses
▁technically
▁versa
atab
▁modulates
ollicular
▁parap
▁implicate
licular
iliac
ostatin
ituitary
▁RP
yroid
▁neoplasm
oprote
echanical
omical
▁sev
▁readings
atell
▁menopausal
▁gaps
▁slowed
▁occupational
▁MG
▁resis
▁caution
▁sten
seud
hea
▁ventricular
rogra
▁homogene
▁pyl
▁suggestive
▁complic
▁Bone
▁HS
iciency
echn
▁conservative
▁affecting
razole
▁concom
ipolar
▁discern
vation
▁radiographic
▁pineal
▁disks
roin
▁PET
▁dislocation
▁caro
▁moderate
▁HPV
▁Patients
▁infected
▁dentists
▁saline
▁controversial
mature
▁aort
▁arter
▁Comparisons
glum
▁cochlear
▁emerg
▁regar
▁ultras
▁detachment
ervations
ialysis
lated
▁pathogen
▁HP
▁perc
hep
idity
▁preparation
▁disadvantages
gulation
▁Phe
atheter
▁anastomotic
▁silicone
ulae
▁stomach
RH
▁beating
▁zinc
▁causative
▁Ket
▁multim
oglyc
▁suppressing
toc
▁providers
umulative
▁treatments
▁endoscopy
ocaine
▁cohort
ometr
▁morbidity
▁maintaining
▁deform
▁prednisone
otyp
▁tubes
induced
▁cutaneous
▁reproduc
▁tolerance
▁traum
agic
▁hypox
▁lipoprotein
▁antibodies
▁IgM
▁improving
mental
▁modulate
▁Continu
▁injected
▁esophagitis
ochemistry
acerb
▁RM
▁racial
▁awa
▁evac
▁predominantly
▁babies
▁algor
itively
▁disappearance
osocial
▁soybean
▁surviv
▁preval
reast
▁airway
▁spinal
▁Overall
▁minimally
sial
idne
▁precedes
▁tric
aturated
▁rati
▁fatigue
▁tol
▁nosocomial
ept
▁cate
▁physiology
lep
▁cited
▁undergo
amic
entral
▁heal
atched
▁reconstruction
▁placenta
ithin
▁follic
ociation
▁divertic
tro
▁atrophy
▁chl
▁physiologic
▁discrimin
▁seventh
▁histopathology
▁increas
▁apex
▁rated
▁ultr
vail
▁dose
olute
▁melanoma
▁juvenile
▁inhibit
RB
▁abnormality
▁adjustments
sities
▁neurolog
▁nonc
▁disability
▁surgically
▁examination
▁evaluating
▁PT
versus
itant
▁complaints
spectively
▁ratios
ologically
▁balanced
dle
▁systemic
▁moderately
▁lob
▁vitamins
▁ana
odic
▁cholestasis
▁anticoagulation
iferol
thle
▁paradig
▁Serum
▁overe
▁nig
▁atrial
inic
cysteine
ullary
▁inhib
▁aureus
▁schizophrenia
▁necro
▁counseling
itin
▁Acute
▁palp
▁protective
seal
▁variability
▁Contrary
▁headache
▁predictors
▁tes
▁adenomas
▁pituitary
▁MI
▁delivering
LF
opathological
▁hypertension
▁LF
▁endoscopic
▁topographic
▁phe
amination
▁cigarettes
ociated
▁phon
▁phenotype
▁renal
▁hig
▁temporarily
▁ALT
romes
▁metastasis
versity
▁syndromes
▁rotational
▁somatic
tical
▁hypog
▁parental
olated
ochem
illus
bic
▁vancomycin
▁feasibility
▁sut
enhanced
iciencies
▁maternal
PV
▁Significant
GF
▁thresholds
▁bypass
▁repl
▁resected
▁encoun
▁premature
ventricular
▁anomalies
▁deformity
▁oils
diagn
▁nucleus
▁infiltration
▁uncommon
▁endoscop
▁determination
vents
lix
▁regulation
▁stab
oice
▁displacement
▁discus
▁compartments
▁unresectable
▁laboratory
ergic
▁specificity
▁proce
▁Educ
▁widespread
olysis
▁metastas
▁nonadherent
▁adults
oic
▁underlie
prising
armac
ximum
▁trophob
oplasmic
inemia
▁cerebral
▁MEP
ovascular
▁intraven
▁preterm
▁hepatocytes
ressed
arb
gm
opulation
▁prevented
DH
▁requi
▁fulf
operatively
▁utero
▁questionnai
▁IVF
BV
▁congen
DG
▁athletes
MIC
MN
▁radiotherapy
▁expend
▁Sout
▁undetectable
▁abortion
▁quantit
TK
▁canc
▁decline
regulated
▁insulin
▁smo
tead
odialysis
▁coel
▁lymph
▁putative
▁prenatal
▁ascer
otomies
▁Estrogen
comitant
▁gait
▁unrelated
▁efficacy
▁diseases
pendent
▁ET
athe
phic
▁preservation
▁lipid
▁diagnostic
osity
sian
sies
HB
PB
▁behaviors
pH
orax
▁immunological
▁rectal
▁hepatic
▁presenting
lesion
▁undes
▁ischemia
▁packing
▁clus
▁microbiological
▁silic
▁superficial
fine
▁gallstones
▁acetab
▁elucidate
▁emotional
▁unm
▁aneurysm
▁deliveries
▁pregnancy
▁mann
inely
▁shor
▁occl
▁LC
▁differentiate
nee
▁alteration
▁Intravenous
ameter
▁PCO
▁reliably
▁exis
▁preventive
▁epi
cad
▁dexamethasone
▁trials
▁stren
▁influenza
▁pylori
▁influenz
cence
▁LVH
ensity
▁enl
▁Dil
loid
▁remission
▁RS
▁hypoxic
osom
▁physici
▁angi
▁unsuccessful
▁suspicion
ctomy
▁AE
odal
asic
▁complication
▁prostatic
▁episodic
immune
▁indicators
▁cannulae
vul
onatal
▁inappropriate
tens
▁ventric
▁implicated
oag
▁evid
VL
hers
▁ocul
▁seropositivity
identical
▁diagnosed
ctive
kely
▁preoperative
▁decades
▁shorten
ensitive
omes
▁AMP
▁assays
▁systematically
ths
▁trough
▁tissues
▁referral
▁vaccine
▁respondents
▁prol
sia
ogens
▁IA
anin
▁inhibitors
▁herpes
iary
ught
▁immun
▁haemorrh
▁diagnosis
▁speculated
▁strom
▁GV
▁gland
▁assessments
uptake
▁pati
MH
▁Surgery
EA
▁reductions
ilic
bility
▁septum
▁preferable
▁Patient
▁ECG
eces
inated
hemo
ocar
▁modest
▁chor
▁vomiting
▁feeding
▁GBS
▁susceptibility
oidal
▁HCMV
▁stimul
▁questionnaires
▁considerably
eight
▁cocaine
incip
▁predomin
▁FV
totic
▁Dop
KA
▁failures
▁heroin
▁abl
▁mucosa
▁recipient
▁hemodialysis
▁spine
tation
patient
▁pharmacological
▁anxiety
▁chol
▁fati
▁specimens
ethyl
▁reveals
Ga
▁analyses
▁mediation
▁hormonal
▁surgery
▁interc
gth
▁coexistence
ropriately
▁differing
▁parotid
tebral
▁allevi
▁microvascular
▁phagocytic
▁amputation
▁sequelae
sion
▁sour
▁mechanisms
▁mL
wk
▁limb
▁examined
▁tobacco
▁pancreatic
▁carbohyd
▁Compared
▁anastomosis
▁Prospective
▁evoked
▁mammography
▁carcinogens
▁NH
opausal
▁hypertrophied
Cer
▁hypothyroidism
▁reproducible
threatening
renal
▁viable
▁appreciably
▁undergone
▁fibers
perfusion
thal
ergency
▁endarte
▁radiography
tive
ignant
▁satur
lateral
▁CRP
▁carb
▁decisions
▁gains
▁alterations
▁feasible
omod
▁coex
ivary
▁prophylactic
rophy
▁pneumon
▁ile
ypical
▁remo
▁inducer
▁uptake
▁stimuli
▁intrarenal
▁annulus
iol
▁cholecystectomy
▁consensus
▁screening
▁resuscitation
▁metastatic
▁proteins
▁abdominal
▁irrit
▁examinations
utin
▁correlated
opamine
elan
orectal
▁hemisphere
▁cesarean
iosis
▁tumour
▁musc
▁inflamm
▁synchronous
▁cultures
▁FT
▁flexion
▁reflux
IU
▁enrolled
▁screened
▁undertaken
▁ischem
urea
▁overexpression
▁subf
▁ey
lowering
ressive
▁outcomes
▁coeliac
olved
▁oss
▁tomography
oplasm
▁manifestations
atoid
▁reperfusion
▁relating
▁cyt
ellosis
▁deficits
▁excre
▁crest
ithm
▁restric
▁Whereas
▁sequential
▁staging
▁atmosp
▁supplement
ustained
▁synthe
▁circumference
▁regulate
▁intrag
▁positively
▁exhibit
▁discrimination
▁amyl
ults
▁tamoxifen
▁pancre
▁gradients
itro
▁institutional
▁contamin
ensory
ameth
▁oxygenation
ucleation
trexone
mig
▁hazards
▁systematic
▁mellitus
▁oxy
either
tained
oes
▁clinicians
▁testis
▁grading
eclampsia
rae
▁limbs
▁modestly
cele
▁PB
usive
ograms
▁HG
▁contex
▁pharmacy
▁arthritis
BW
▁leukocyte
▁adjusted
▁excluded
activation
erate
▁ascertain
▁myo
oplastic
aginal
oride
rested
lected
▁cue
lusion
placement
▁resusc
jected
▁haemorrhage
▁aimed
Ds
cutaneous
▁elimination
▁aerobic
▁ket
▁PEEP
▁positioning
▁gly
▁sphincter
▁enhance
▁structural
▁unexpl
tries
▁connective
▁umb
▁hepat
▁predicting
▁sti
▁somat
acts
▁treating
occi
▁mild
▁neon
▁therapeutic
otomy
VR
riend
phosphonate
urethral
▁ultrason
asses
ardless
▁palli
▁Preoperative
ocytes
▁genotype
▁carcinoma
▁deter
▁fragile
▁cadaver
▁hypothe
▁laparo
uccessful
▁poisoning
▁analys
▁abilities
onin
ications
▁benz
▁alcohol
entanyl
graft
sensitive
▁displ
▁sedentary
▁macrophage
reported
▁gluc
▁concurrently
▁RB
▁enhancing
▁cholest
▁rebound
▁Impro
▁postoperative
▁aspir
▁workload
▁ketamine
ostomy
quine
▁circulation
▁plantar
▁IgG
▁drugs
▁targeted
osin
▁develops
▁harmful
ceptual
▁collateral
arous
▁ventilation
▁Streptococcus
ancies
▁thi
usp
lymph
icine
kers
▁instability
omies
▁practically
trast
▁myocardial
▁lacking
▁modality
▁restor
erals
▁perip
▁cerv
▁adequ
DNA
oplas
▁dex
▁striated
▁survival
▁Considering
bly
▁diluted
▁visually
▁shif
▁smoking
invasive
ignific
▁discontinued
dition
associated
▁tracers
▁promising
▁dental
intestinal
atrial
aints
▁SNP
RP
▁rCBF
▁Histologic
▁characterize
▁increasingly
▁alve
▁APD
dimer
graftment
▁endothelial
opa
atine
andard
rele
ampl
were
▁neutroph
erin
iated
onate
▁disrupt
▁hormone
enin
erable
eric
oxif
weighted
sized
astom
sis
▁participate
▁deficiency
▁establishing
▁muscle
acet
▁subtraction
▁aspiration
▁behavi
iant
urin
▁phenomenon
▁vitro
lym
▁desm
rection
TNF
▁chan
▁horm
▁risks
▁stom
▁ASA
aemia
▁mucos
▁predicts
helial
▁seiz
▁propensity
▁SCH
▁spont
▁follicular
▁meaningful
▁thorac
▁depic
aryn
▁ultrasound
▁concentrate
natal
▁ischemic
radi
amn
▁testicular
entan
▁PSA
▁placent
▁isch
▁anat
▁empirical
▁mitral
▁undergoing
▁vaccines
▁localized
▁avoiding
Tn
▁intram
otent
▁intermittent
ipid
▁contaminated
▁somatostatin
▁GM
▁inflammatory
▁endemic
erican
kade
kage
▁chest
▁healthy
▁synovial
opl
▁guided
▁facilitate
zation
ulatory
gely
oxia
mur
▁morphology
▁inhibitory
ronchial
▁anastom
▁cephal
▁compli
▁prognostic
▁exogenous
▁progestin
▁vitamin
iotic
▁muscles
tected
▁carcin
▁gradi
▁endothelin
▁adverse
▁knee
▁allergic
Ts
▁occlusal
▁antib
positive
orin
▁HU
▁torsion
monary
vascular
▁oxygen
▁bilateral
illic
tant
stant
lastic
trip
▁intrap
nutrition
fron
▁migraine
▁insult
othel
▁mec
reement
▁pregnancies
▁Tumor
▁acquire
▁warr
▁pate
▁mediated
▁evaluations
▁plates
▁adjustment
▁transient
▁anticipated
orable
▁compartment
▁perfusion
▁perone
▁carbohydrates
usal
▁reagents
▁facial
lyc
▁recurrent
LV
oagulation
rectomy
▁newborns
▁interv
▁socio
▁biom
▁acad
▁withdrawn
▁heterogeneous
alues
eliac
roup
▁amput
aryngeal
athy
▁psychiatric
▁skeletal
ogra
▁pulmon
piration
ysm
▁genotypes
▁medication
▁multifactorial
esity
apse
valence
▁PEG
▁transplantation
istal
▁prevention
▁Bec
▁atropine
▁infar
▁epid
▁fitness
▁nail
▁prescribing
ostic
▁compliance
▁linkages
yses
▁carriers
imens
▁ovari
ophag
anyl
▁correlations
▁polymorphism
▁trend
▁physiological
▁nal
▁infil
▁bac
▁abdomen
alc
▁correspon
otor
▁beha
▁adhesions
acil
▁immunode
▁sclerosis
▁hypot
▁abolishes
▁screw
▁GFR
▁exposures
▁carotid
▁comparative
▁sedation
ervative
▁tuber
vival
urate
erative
▁Concomitant
▁metabolism
▁concordance
▁symptoms
olic
▁provocation
eled
▁cortisol
▁cognitive
▁linoleic
▁nurses
ecre
zard
▁creatine
▁stellate
▁MHC
▁perfor
▁quantitative
▁adaptive
ropine
▁TD
▁monit
▁Thromb
embr
▁dilated
epit
▁tertiary
gmental
nai
▁infect
▁likelihood
▁contral
rogen
adherent
uncture
hern
glyc
▁highl
formin
ocular
uin
▁cancell
▁surgical
PAP
itr
▁perception
ologic
▁clinician
▁reproducibility
▁dietary
tial
anish
▁arterial
▁kidney
▁substantially
▁thromboembolic
▁auditory
Ia
tein
▁CABG
▁LD
▁poorer
▁Pregn
ayed
onomic
▁laparoscopy
▁oste
ocul
adder
▁AMI
▁CPAP
▁molecule
tectable
▁gallst
▁cardiac
igel
▁cann
▁ward
▁FS
cessive
aneously
itance
matic
arean
▁colorectal
teric
▁estrogen
ocl
▁opi
ministration
▁chloride
▁pH
▁impaired
alp
▁recessive
controlled
implantation
▁demands
▁randomized
▁valve
▁gyn
▁labeling
▁inver
▁unilateral
▁heterogeneity
▁Addition
acting
▁inhibition
▁clinical
orrh
▁improves
clinical
▁findings
▁symptomatic
▁complemented
▁amines
▁postmenopausal
oradi
▁inspection
▁challen
omatic
▁DS
▁pneum
▁bacter
▁suture
heric
mend
▁establ
idement
gative
▁deaths
▁inhibin
▁focusing
lys
abies
ilized
▁prophyl
MRI
▁chloroquine
astric
moid
effectiveness
ocusing
▁aortic
▁Adverse
▁ruptured
ocyte
opic
▁synthesis
oric
▁rheumatoid
operative
vant
ses
▁contralateral
ervice
▁attending
dominal
▁CK
▁relapse
▁selective
▁pathologically
▁arteries
▁immune
▁elevated
isol
▁atten
▁WHO
reness
▁reas
▁gynec
▁hazard
idate
▁adoles
▁glu
imination
inol
▁operative
▁reactivation
acental
▁subjected
▁diffic
▁impair
▁appendic
▁tear
▁underg
▁ventilatory
omat
▁tas
jug
▁preferen
▁antec
vertebral
▁receptors
▁cues
atitis
▁clinically
▁ESR
▁Hb
▁justified
erations
▁implant
▁deficit
▁ultim
▁peripheral
▁employing
ailure
▁NT
isqu
▁SG
▁rationale
oscop
▁conclusions
▁anticoag
▁proliferation
FV
▁iliac
▁secretion
▁PH
▁weigh
▁HLA
▁cyclosporine
xual
rine
▁elevation
tinu
vac
▁experi
▁Vac
contrast
▁bronchi
tific
sych
ulates
▁comprehensive
illance
▁palliative
▁Systolic
erad
▁concer
▁rash
▁oligo
oplasty
▁Tum
▁thoracic
▁oxide
olism
ivocal
esting
▁sensitivity
ration
▁hypers
▁angiography
▁vasomotor
cture
▁transfusion
▁adherence
▁spon
erally
▁intrav
ercise
▁paras
▁ration
▁resear
▁thyroidectomy
▁normalized
crimin
SCC
▁injur
▁tissue
▁unde
omal
MG
▁financ
▁pter
▁pathology
▁cumulative
▁consolidation
ocial
▁metabol
▁intervention
▁melan
ochemical
▁poten
transplantation
uated
▁prescrib
▁ageing
▁eluc
▁DT
▁determinants
mong
▁morb
▁endoc
bladder
luc
▁prognosis
▁locus
▁survived
rati
▁irritation
▁sustained
▁aden
▁pronounced
▁tooth
olenic
ectom
opathy
osomal
▁pall
▁periodontal
unar
▁pancreatitis
▁symptom
▁abuse
oxic
▁intra
Ki
▁dyn
▁colloid
▁cyst
▁CSA
oxidation
facial
▁Trial
▁LN
▁muscul
▁enucleation
aning
▁PRP
gents
▁Tes
atest
▁excision
acking
▁immunomod
tus
asone
▁olig
▁deprivation
▁OA
otherapy
▁regimen
▁ascertained
▁lithotrip
▁metabolic
▁verteb
▁anemia
▁responsiveness
▁validity
▁influences
▁juven
enzymatic
▁progressive
ulitis
▁unc
illary
▁emphasizes
▁encouraging
▁alp
ontal
▁tracing
▁Failure
▁pulmonary
▁hypertensive
▁trophoblastic
▁laser
▁decisive
▁pediatric
▁presum
▁onset
▁hernia
▁functioning
▁assay
▁reagent
▁paraventricular
▁masked
odial
▁ulcer
▁utilization
▁radiograph
▁epileptic
▁latency
▁tumor
feren
▁HA
▁GD
tic
▁endometr
▁enhanced
▁childhood
alian
▁insertion
▁depression
rins
▁usefulness
▁diagnoses
amet
▁Eff
olones
▁hemodynamic
▁potency
▁mortality
▁venous
▁theore
▁lis
▁receptor
▁DG
▁deterior
ococci
eak
▁migrated
▁chemo
mTc
▁neurologic
▁ae
▁eliciting
oxid
▁experim
▁AI
hest
ivariate
▁vulnerability
▁buc
▁axillary
undibular
matched
gesia
▁chemotactic
▁eradication
▁acyclovir
ocytic
▁cystic
▁complications
▁physician
essive
NM
▁lith
▁shortened
▁BM
oscopic
cents
plic
▁metoclopramide
tin
▁dissection
▁IIb
ostat
▁drin
▁uter
▁perin
ronch
▁contribut
itary
▁lumb
▁pathogenesis
▁diminished
▁postnatal
▁tumours
udin
▁hepatitis
rants
▁radiological
▁recurrence
ulin
Ns
▁Clinical
▁chole
onary
▁kerat
occus
ureus
▁VL
▁MH
▁reac
mented
▁engraftment
▁practic
idation
▁Dopamine
▁practitioners
Ev
▁instr
nec
▁Removal
▁geniculate
atories
▁examin
odynam
iatric
▁advan
▁corneal
▁consequently
gic
tual
▁tidal
KD
diagnosed
odies
▁seizures
risk
▁clinics
▁FD
▁anatomical
▁postoperatively
▁GVHD
▁platelet
▁iso
erance
▁Afric
resting
▁warrant
▁Increas
▁DF
▁hemodynamics
tors
tage
▁Kupffer
▁uremia
▁solely
urgical
▁FH
▁comprehen
▁regimens
▁muc
▁fiber
asting
▁contributes
▁irradi
▁outs
▁chemotherapy
icide
▁spikes
▁thickening
economic
▁coronary
aired
▁eosinophilic
entric
opramide
▁demographic
▁VE
▁discon
▁DSM
▁ethnic
▁pelvis
▁explored
urc
▁HL
clusive
▁gallbladder
derly
▁professionals
▁laparoscopic
ece
▁initiating
▁chec
pite
▁PV
aluation
ocyt
Cu
▁researchers
atient
jun
▁drain
opia
ocele
▁margins
lasting
▁endometrial
▁rehabilitation
▁insufficiency
unctional
▁ADH
▁genetic
▁acids
iatic
▁mandatory
▁clinic
▁adenocarcinoma
▁biop
▁ethanol
▁facilit
▁carc
▁prophylaxis
duction
▁repaired
Ba
▁overlapping
▁Weight
▁discriminative
ials
ancre
▁estimating
▁selectively
ventional
▁athle
ploy
▁mothers
ofol
▁ossification
▁describ
▁Additional
▁scans
▁prostatectomy
rehen
▁microcirc
▁agonist
▁histological
▁genes
▁pulp
atectomy
▁guidelines
▁gluten
▁synov
▁distinguishing
▁infections
▁PAS
▁chewing
ineal
stim
▁thromboemb
iasis
▁birthweight
▁waist
▁Chronic
▁blin
▁atm
▁stenosis
alsy
helin
▁modif
▁Findings
▁Chemical
▁prospective
monstr
▁topical
▁provid
▁peroneal
▁percutaneous
adequ
▁tiss
athyroid
▁micron
▁confound
▁wound
▁nutritional
physiologic
ucle
▁BP
▁ablation
onol
▁oes
▁irr
▁latent
▁pneumonia
▁adequate
▁osteoporosis
▁anatomy
tec
mittent
▁PI
▁physi
▁indication
relevant
▁agon
▁tymp
lood
▁satis
dial
▁serum
▁bloc
▁adop
sive
▁hygi
▁antibiotic
▁needles
▁tolerated
▁catheter
ogenous
ture
trimental
▁pigmented
iably
▁activated
▁rhythm
▁underestimated
▁physicians
▁molec
▁sickness
▁LDL
▁healing
Hu
lectomy
▁pressures
echan
▁infarction
▁derange
▁identifies
entary
▁glyc
▁follicle
▁BMI
▁histologic
aemic
▁thrombo
▁preferences
▁followup
▁strategies
▁inversely
▁apop
▁congenital
otropic
▁OC
▁Throm
▁cathe
▁infants
mg
▁regis
▁favourable
regn
▁metast
▁dysfunction
functional
▁demonstrating
▁amyloidosis
▁aerob
▁femur
▁neo
uation
omerular
▁obesity
lux
entical
▁nursing
▁classified
BP
▁Large
oracic
▁microm
▁raises
mide
▁sensory
▁GI
Ka
▁Comparison
▁Denmark
▁emergency
ateral
▁MCP
eal
▁buccal
ograp
▁HCC
severe
▁cirrhotic
▁calcified
▁drinking
ritis
▁circumferential
▁neurological
▁implic
▁TBI
coun
▁rigorous
▁hCG
ycin
ectable
▁doctors
bacco
onography
▁pS
▁pharm
▁poin
▁streptococcal
▁anatomic
▁bronchoscopy
▁pelvic
ceptions
▁fracture
▁myoepithelial
▁fentanyl
BG
onium
herent
▁conceptual
▁throm
osal
GI
▁illness
▁ultrasonography
▁lipids
▁profound
▁drainage
▁adhere
▁cuff
itone
▁sexes
▁IH
▁glycoprotein
▁melatonin
▁pathway
enic
▁cancers
▁athe
utaneous
▁neutrophil
▁Taken
▁edema
▁advances
itoneum
▁scintigraphy
▁decreased
ergy
▁DN
▁preparations
▁turnover
▁debr
▁diet
▁antic
noise
▁ure
▁cava
▁TG
ivoc
oskeletal
▁unre
▁parame
▁pig
ureth
▁attrib
sions
ervical
▁biopsies
venth
▁exposure
▁continuing
▁PD
▁curative
▁inherent
NH
▁immig
▁Doppler
rectal
adication
▁insurance
▁saliv
uterine
▁BD
▁births
▁exercised
tyl
▁TB
▁controlling
▁CAM
tate
▁revealing
onor
▁PCR
acted
▁mineral
rox
▁elic
▁evolving
▁microv
▁comparisons
▁sequel
ipient
CRP
▁palsy
▁malign
▁reag
▁stroma
tact
▁glucose
tig
ingle
▁artery
ustif
▁achie
▁bone
▁haem
▁recur
▁adhesive
▁bronchial
▁seb
▁GF
▁stratification
▁atres
▁uncomplicated
AH
▁APC
▁excl
▁elu
▁hygiene
mitted
▁homogeneity
duc
▁BS
▁OT
othermic
▁overl
thre
▁eating
▁severely
opi
▁measurable
crib
ritish
▁Steady
▁liver
▁availability
educ
CMV
▁abnormalities
fusion
▁periodon
phrine
▁pyram
vely
▁TGF
▁suspic
▁unres
▁pharmacists
▁therap
▁glomerular
▁toxic
▁minority
▁occurring
ographically
▁epidemic
▁relap
▁intrauterine
ortic
▁promoting
ascular
▁anomal
▁biological
▁warranted
▁geriatric
tensive
yel
ocardial
iplin
trol
▁pregnant
cine
▁investigated
▁injections
gland
encl
▁defic
▁familial
▁socioeconomic
chers
▁excretion
▁exclusion
▁discom
icated
herence
▁NP
▁Physicians
amily
heum
▁therapy
▁plac
immun
▁tibial
taining
▁Atropine
▁multicenter
ropriate
▁progest
fos
▁glands
▁disorder
▁adolescent
▁Engl
▁ACL
uvant
▁shallow
▁mobility
▁VO
tection
▁ganglion
▁subtype
▁subsp
▁enrol
▁reproduction
▁distin
ithms
uded
▁vaccination
▁hyperg
▁lesion
▁discordant
icient
BK
▁bab
tur
▁sph
▁nasal
sess
▁Severe
ximal
▁HI
anding
▁rele
olution
▁TC
ithi
▁abd
▁distinctly
oprotein
▁cigaret
▁rhy
▁stu
▁ambulatory
orac
▁suppression
▁TK
genesis
loro
erating
▁embry
▁synergistic
▁Treatment
▁disorders
itic
▁insertions
▁behavioural
▁vaccin
amine
▁awareness
heal
▁spi
▁stimulate
regulation
anic
astatic
▁intramuscular
▁decreasing
▁unil
▁Cyt
atment
▁obese
hemical
▁sciatic
▁enlarged
▁NB
omiting
sequent
MV
▁microc
▁directional
mixed
▁intake
▁CMV
▁ventil
oscopy
▁infection
istically
▁CM
▁differentiation
▁Kup
▁perinatal
ococcus
▁differentiated
▁techniqu
▁adjunct
▁pathological
▁monitored
respon
enol
▁confined
His
▁amin
uscular
Phe
▁fold
▁multivariate
▁etiology
HF
▁intragastric
▁MN
especially
▁spontaneous
▁specialty
▁appropriately
omized
orts
rates
▁umbilical
xone
▁eosin
▁onc
▁desirable
▁heavier
cyst
▁adenoma
▁thyroid
duced
asive
▁intravenous
▁perceptions
▁biopsy
▁laparotomy
▁atresia
▁hypoxia
onset
requ
▁irradiated
iron
▁routinely
▁progression
orphic
▁identifying
uccess
▁recor
▁inapp
▁intensive
▁substituted
▁vag
▁eliminated
▁Pretreatment
▁sulfonyl
aline
▁overlying
▁deterioration
ilateral
▁scre
▁consol
usions
ostal
▁lobe
▁effectiveness
▁RAR
phosphon
▁reper
▁acute
▁subgroups
▁polyps
▁streptococci
entif
▁respon
ipher
▁heterogene
▁chloro
urine
rone
▁accumulation
▁metastases
▁atherosclerosis
▁VA
▁multic
▁disparity
▁endarterectomy
▁resection
▁scl
▁syndrome
urys
onad
▁determining
▁leuk
▁NPC
▁prevalence
▁calcification
▁bip
pation
▁pT
▁autoimmune
centr
▁atr
▁prospectively
▁presumably
▁outpatient
▁atheros
anol
▁bowel
▁mono
▁substance
▁supple
hap
▁inh
▁predictor
▁hemorrh
▁Clin
▁microb
▁porcine
▁VC
▁substances
▁extensor
▁phy
IIIa
▁habits
rogenic
ectomy
▁Intra
carcin
venous
sus
mentation
▁genic
▁molecular
▁investigations
umulation
▁nurse
▁complementary
▁facilitated
▁constitutes
responders
▁previ
▁cardiomy
▁tracer
stress
▁neonatal
▁barrier
▁characterized
▁membrane
ycl
▁involvement
▁homogeneous
HM
sy
▁interacted
▁numb
▁LV
▁HSV
▁benign
▁chori
▁thickness
▁glut
WL
ultural
▁fixation
trative
▁diabetes
▁systolic
▁tris
ditions
vated
▁progn
▁surveillance
▁arth
▁HN
atonin
▁extre
mia
▁conducting
▁underst
ophren
oung
▁necrosis
▁fluor
lead
loride
▁aging
▁embryo
clerosis
▁practition
▁unexplained
▁lithotripsy
▁prostate
▁PCP
diol
oratory
▁unstable
tam
▁opportunities
ducts
▁elderly
lact
▁injuries
TG
▁Tests
▁adhe
▁LS
▁HC
▁detrimental
▁heparin
roma
RD
VT
uran
tif
▁TA
▁Biochemical
▁traumatic
odynamic
▁polyethylene
▁pathologic
▁nutrition
▁unselected
▁intrinsic
arate
duce
▁normo
▁sustain
injured
▁investigating
▁BV
▁reduc
▁suicide
▁infusion
▁equivocal
▁prevalent
▁multiv
trib
▁nodules
▁poorly
aceous
tration
▁resonance
namic
▁impairment
inj
luent
▁demonstrates
▁imaging
▁exacerb
▁MV
lec
▁adolescents
▁oral
occal
acr
▁Magnetic
▁Phy
angl
▁Phen
arent
▁scanning
▁adolescence
▁wrist
ejun
▁assessment
▁trauma
▁abnormal
farct
▁lesions
gments
▁predic
▁therapies
▁coronal
▁encour
▁amyloid
▁swelling
▁scin
▁chemot
▁Cushing
▁telephone
▁unex
▁preliminary
▁mell
othelial
▁deformities
▁causal
ACS
▁reveal
▁phag
▁surgeons
▁enhancement
▁Swed
atients
▁uncom
▁retention
▁sequentially
resses
▁hypo
atid
itus
▁assis
▁fetal
▁lumbar
▁cardiomyopathy
▁reflecting
ilization
▁Certain
erated
taken
▁cerebrovascular
▁splenectomy
▁Lys
▁Cycl
▁RH
ressing
attern
spective
ortal
▁graft
xia
rosis
romed
▁definitive
Ra
estis
arge
IgM
▁cardiovascular
▁mg
responding
