arrh
▁glucose
▁exten
▁experim
▁2
▁LH
▁modulation
▁placenta
▁Myocardial
hydro
▁8.8
▁diffuse
icep
▁stab
▁statistically
▁awareness
▁discriminate
2-
▁perioperative
phyl
▁intervention
▁reduc
inergic
▁balanced
▁prolif
-12
▁diarrhea
▁cytoplasm
anded
▁7
teroidal
ifedipine
erating
parathyroid
▁3.
▁molecules
5%
98
▁77%
▁Alzheimer
molecular
tence
▁intravenously
▁(32
▁successive
▁11
▁heterogene
▁bactere
-45
tition
▁smo
▁catheter
▁asthma
▁standardized
▁inhibitor
▁Tran
ectin
acid
embran
▁uterine
▁deaths
oag
ventilation
ifug
▁intact
▁clinical
▁attenu
▁synthetase
encephal
▁lactation
etine
▁clamp
tase
atase
plication
hyde
apeutic
iasis
sies
▁Twelve
▁bab
▁angi
▁5.7
▁74
▁bleeding
▁tas
▁carbox
▁PRL
▁graft
tryp
hospital
▁diuretics
▁possi
-450
-30
▁28%
▁enl
▁recombinant
ervical
His
hep
amphenicol
atment
▁73%
▁hypoglycemia
▁gon
▁ineffective
▁serine
rophob
feron
▁0.01
▁coronary
oprotein
▁mmHg
vival
%),
9),
dial
-10
▁(56
erin
▁700
▁poorly
upus
▁interv
▁bronchitis
jun
▁kidneys
▁smokers
hest
▁adul
etan
▁neurop
7),
sors
apanese
▁inhibitory
▁yiel
ilization
dine
▁Chronic
▁trache
aicin
uminal
▁adren
Ds
aryn
▁110
▁TRH
opha
▁pulse
roup
▁acco
▁enalapril
IU
▁screening
oxic
uprofen
▁fibr
▁1.3
▁pneumon
IFN
▁slic
0-
▁assessed
▁crucial
onad
▁thymus
jected
ocin
▁4%
▁ulcer
0.9
▁symptom
▁supplemented
0.3
▁lec
▁dyn
▁pathological
▁0.01).
olic
▁exhaus
▁17%
▁controlling
▁secreted
ogens
tral
▁LPS
▁mammary
▁ovaries
▁hormone
nine
taz
▁38
coated
▁Sixteen
tact
▁prolonged
cycl
▁hippocamp
▁antibiotic
▁decreases
▁approx
eptides
▁blockade
▁mortality
blockers
▁paren
ication
▁aneurys
oprote
▁endoscopy
▁aden
▁healthy
rocyte
rogen
tention
gluc
▁21%
▁sedimentation
▁acquisition
▁stained
▁pathology
olism
oyl
olus
robic
▁mec
▁4.5
▁muscle
▁parame
▁abdomen
▁elicited
rocy
▁spasm
▁113
▁immunity
▁synerg
▁schiz
▁premature
▁conditioning
▁stimulatory
▁predic
▁Measure
▁receptive
ositol
vac
▁CRP
68
achn
tages
▁Eighty
▁nitroglycerin
▁86%
bacco
▁yielded
▁opioid
99
▁114
▁Phen
tors
cyt
▁functioning
▁eliminated
CAM
▁9.5
▁70%
▁supr
▁bolus
trogen
▁dexamethasone
▁74%
▁alcoholic
-6-
ulin
▁109
▁kidney
▁fluorescence
fts
▁theore
inase
Rs
▁ACh
▁awake
ancies
▁strongest
▁197
▁sial
ignant
▁follicular
yzed
▁Alz
79
oric
▁determines
acyl
▁positively
▁intolerance
▁anaerobic
▁1.
ffer
▁saliv
▁contral
▁0.4
reased
▁anesthetized
▁inducing
▁reliability
▁ethanol
onine
94
▁normalized
-6,
▁dilatation
loid
▁distress
▁ppm
oplasm
▁ACTH
bular
umerous
▁1
▁suscepti
lyce
▁87
▁polymer
▁cerv
▁ket
▁fluoro
▁hypertensive
tigo
▁7.1
-3-
▁(100
BM
▁aor
▁hypertrophy
amic
▁Nine
▁subunit
▁immunobl
otypic
▁synovial
▁gonadotrop
trib
▁Additional
▁1985
▁unrelated
▁cephal
▁excessive
phil
▁decreasing
▁pylori
opi
▁cAMP
▁voluntary
85
▁67
▁kit
▁thresholds
▁tamoxifen
ocrine
DNA
▁fron
idine
▁interfer
minal
sus
00
▁achieving
odium
▁Plas
responsive
▁Recent
itary
ymptom
ituit
5;
▁Streptococcus
trated
▁10(6)
thi
▁progesterone
▁testicular
▁glycoprotein
▁HbA
▁automated
2+]
.5%
fec
amel
▁corticosteroids
ochemical
▁stain
PV
▁mast
▁elevated
▁hamster
▁(33
▁cohort
▁inhibit
ycline
▁elevations
▁Abnormal
▁NaCl
▁consis
▁96
bic
▁lymph
▁radioactivity
▁gland
▁osm
▁lamin
▁arrhythmia
osom
▁0.09
cysteine
▁82
▁8.0
tics
▁yeast
▁antigenic
▁probes
▁DT
▁decreas
orpor
▁ventral
▁identif
▁adenocarcin
agonist
vices
▁Km
▁electrolyte
▁4.2
▁88
▁cancers
▁mRNAs
▁(198
▁adulthood
ejun
▁practic
idate
▁aneurysms
▁promoter
atched
▁involvement
▁cytotoxicity
density
▁underst
achnoid
opausal
lives
▁hemo
gic
-34
adily
-14
ximal
▁196
▁injections
razole
▁muscarinic
ercul
▁potassium
▁(300
▁arteri
plied
tioned
▁6.5
▁(1.4
▁folate
▁aldosterone
▁pati
onate
ionate
namic
▁analgesic
cessive
▁RNA
▁potency
▁Higher
mL
▁metabolites
▁methotrexate
▁spine
▁beneficial
▁physici
▁polys
▁muta
34
pregn
▁evaluating
onstric
▁developmental
▁accounted
olol
brile
▁cleavage
▁suppressed
▁antagonist
0%),
chloride
▁interc
▁uterus
▁analgesia
ietic
▁lute
▁follic
▁Mg
▁stool
▁CHD
▁recurrence
▁angina
▁oxygen
▁differing
▁parental
▁viral
urgical
containing
crimin
▁LT
▁herpes
▁77
▁79%
▁cyst
▁paired
▁immunogenic
omat
▁unstable
▁40%
▁comprehensive
▁quantitative
▁pharmacological
▁measurable
▁morb
▁glycol
erent
19
mend
▁hepat
▁bp
▁attenuated
▁induce
tality
▁moderately
▁evid
▁phag
crib
▁stere
80
jec
esity
▁0.17
▁experi
tening
▁mell
▁saturation
▁satur
▁tomography
▁superf
mitter
tee
▁25,
74
00,
essive
2%
▁comprised
ituitary
resting
▁graded
chol
▁homogene
▁molecule
▁corticosteroid
▁activator
ophore
▁potentials
▁prevalence
▁4.0
▁microM
▁capsaicin
▁estradiol
▁quantified
▁mamm
tory
▁Doppler
▁1.2
▁enrol
14)
/4
▁dehydrogenase
▁hemodynamic
▁inositol
athy
▁seronegative
ominant
▁resonance
▁adhe
-7
▁lys
geal
▁definitive
▁76%
tic
▁hydrophobic
▁diarrh
tility
▁Addition
▁fasting
risk
avage
▁(8
▁postmenopausal
ecal
▁58%
▁enteric
trate
▁diaz
▁spectroscop
▁classified
ichia
tisol
gus
▁assessments
▁ori
Hb
▁trich
▁alteration
▁glycosylated
▁intense
icient
▁solely
tif
▁intake
▁unm
icated
▁exce
▁comparisons
▁intramuscular
▁cataly
▁behavioral
▁questionnaires
edema
▁infants
maximal
▁fibronectin
-35
▁calf
▁accumulation
▁cytoplasmic
▁195
abies
▁determinants
utaneous
ionine
▁deform
▁captopril
kets
ostic
regulation
▁elic
▁TI
▁contamin
▁incis
▁lasted
uppres
▁artery
cence
▁routinely
tives
▁resection
seven
▁102
▁0.15
▁fluc
▁grading
40
▁nifedipine
▁(80
▁socio
▁atropine
osts
▁cavity
▁ane
▁noninvasive
▁cured
▁cyclosporine
▁reflux
▁excluded
▁depolar
▁electrical
oprost
▁TGF
▁prescribed
▁antibody
uled
▁EGF
chym
▁phospholipid
▁chamb
▁diuretic
ylamide
▁fluores
▁neurolep
▁serologic
sives
▁135
▁encephalopathy
▁cyclooxygenase
▁0.18
▁39%
ulmonary
▁infertility
▁embolism
embry
▁BAL
titial
▁neurotrans
▁newborns
▁pretreated
▁carbohydrate
iciency
▁deleterious
▁nuclei
thood
cardi
▁infarct
▁diabetes
▁sensitivities
▁pts
▁alcohol
▁irradi
ospor
▁vomiting
▁socioeconomic
loro
rangement
▁cardi
ximum
▁exacerb
▁MH
▁schizophrenia
▁rabbit
▁60%
▁magnesium
▁(1.6
▁55
topril
▁+/-
▁101
▁medications
▁chromat
▁stom
infected
▁newborn
▁TNF
▁outpatient
osal
▁restr
▁augmentation
▁99
-2
▁affec
▁2-
▁reas
▁neutropenia
inely
▁jaund
▁blockers
▁sampl
▁erythematosus
posure
▁ciprofloxacin
epti
1-
▁childhood
49
▁forskolin
▁8%
▁postprandial
▁averaged
▁bromocriptine
▁PCO
▁acqui
▁(10
▁reser
tual
▁disorder
unts
▁conclusions
reactive
▁duct
▁calcification
▁congestive
▁infection
▁gastro
truction
cyclic
▁cartilage
▁8.3
▁revascular
▁pigs
▁ultim
rogenic
▁intracellular
▁metast
gene
▁brainstem
▁proce
▁carc
opathy
▁lipids
▁affects
▁aimed
▁pathways
▁lymphoma
arbox
▁amputation
▁venti
▁ischemic
ventricular
-5)
clerosis
▁dietary
▁amput
▁therap
▁abscess
HF
thase
▁HBsAg
▁concentrated
▁82%
▁polyethylene
traum
▁15,
ynaptic
▁500
▁cDNA
7.
▁intest
▁gangl
kinin
▁monit
havi
▁68%
▁Calcium
▁Cancer
tamine
▁diame
10
onephritis
▁suppression
▁prosthe
▁rhin
ffin
▁15-
ncy
▁5,
odil
▁89
arate
▁molar
plicated
lep
venous
▁93%
▁7.5
▁46
▁LDL
▁thromb
ergency
idated
▁intrinsic
▁600
amino
triglycerid
▁microscopy
▁carbohydrates
▁coated
reast
▁filaments
itro
▁phospholipids
▁(38
ocyt
▁(0.5
▁(4-
▁substances
▁Evaluation
▁100,
▁adrenal
▁IgM
▁mmol
▁thi
▁PV
cemia
▁lavage
▁extracts
▁kappa
13
▁cann
▁reliably
▁plaques
mature
▁resour
▁ligament
63
▁alterations
▁rati
▁ips
▁8-
▁transit
▁antiser
onor
▁prophylaxis
11
▁nucleotides
▁10(
entral
ported
iaz
▁defic
▁nicot
otropic
▁plasminogen
▁cirrhosis
olesterol
▁manifested
0.4
▁pharmacokinetic
▁119
▁stimul
▁bronch
ascular
▁cis
▁canine
▁progression
▁evolved
▁diagnostic
▁describ
▁plasmid
▁relapse
tile
▁causal
▁24,
▁supplement
▁repl
osity
▁neuro
▁retardation
▁rated
▁postmortem
okinetic
▁Nineteen
▁depletion
▁calories
▁4.7
▁pregnancy
azolam
▁occl
ighted
▁fecal
▁1987
▁proliferative
quid
echn
▁islet
▁reticulocyte
▁oxidative
itals
usate
▁guinea
▁30
▁schedules
tia
▁fibrin
▁PT
▁fibrob
▁50,
▁differentiate
bral
▁3.3
▁glutamate
▁dendri
▁DMP
▁algor
▁SDS
▁suppressor
oreactive
▁breathing
▁latent
▁differed
▁promp
▁contralateral
▁pene
ocytes
centr
▁uro
▁transcripts
▁HR
ogra
▁5'-
orectal
▁Leu
▁survival
▁depressed
▁persis
hea
kDa
▁organic
▁3.9
amily
▁minority
ecre
ochondr
▁prospective
timulation
asone
▁63%
promazine
itonin
▁38%
retic
▁nerves
▁diminished
▁opioids
zard
-3)
▁amniotic
▁impairment
▁fibros
▁extensor
▁arrhy
▁systemic
▁raises
▁purified
▁Clinical
▁dosage
▁coli
tering
orrh
▁numb
.0%
▁24-
tine
zyme
▁suicide
usp
(1
▁steroids
-1-
amate
gents
▁dete
▁unresponsive
selec
▁recruited
urin
ongest
▁spinal
▁erythrocy
▁300
tivation
▁influx
000.
▁thyroxine
ginine
▁133
▁severely
▁140
▁marrow
33
▁-5
▁polyp
▁carcinoma
▁smear
tein
▁sputum
▁1:
▁caution
▁cutaneous
opathological
▁infectious
▁digestion
▁polypeptides
▁myocardium
▁0.9
▁cathe
esium
▁percutaneous
▁caries
▁catechol
ocon
effec
glyc
▁inactiv
usive
▁9.2
▁metabolite
roscopic
▁chloro
▁hypothal
entricular
▁parac
▁ELISA
▁unchanged
ctomy
▁stimulated
▁assay
osome
▁distal
endri
versity
▁continuing
▁regurgitation
▁Tissue
terol
ylate
rati
▁antigens
▁implicated
▁RR
tenance
▁ischemia
▁perip
▁wors
▁nmol
epam
▁mothers
transferase
▁nm
▁acute
▁compartments
▁bacteria
gesterone
▁(2.5
▁0.001).
▁hypertro
▁rehabilitation
oceptor
aryngeal
ranial
▁resting
▁11,
▁2.6
▁supernat
rotic
oplasty
sorption
opa
-100
▁cytosolic
idazole
-17
▁pancreas
invasive
▁apical
▁1.7
51
ayed
▁dehyd
▁challenges
▁vertebral
elan
thma
testinal
▁Levels
▁births
▁rup
▁47
▁genetic
tions
idin
▁(28
▁scans
▁Bacter
▁cytology
▁inconsistent
inesterase
atical
45
22
▁arteries
▁retrospective
seud
▁modalities
▁estimating
oxygenase
-0.
▁admission
▁(48
▁vaccin
osin
xone
romes
▁40,
▁mildly
▁dex
ometh
▁glyc
▁ureter
▁injected
iatum
▁4
▁excl
▁lumbar
▁ovari
27
▁sulfate
▁tobacco
▁intra
ATPase
▁(39
5%)
▁phosphate
▁presum
effective
▁protoc
▁(95%
ausea
▁144
▁enrolled
ses
▁(0.4
erad
▁molecular
▁receptor
▁analyzed
rected
lipid
omies
▁identifying
▁allele
▁transmitted
4%)
oglyc
▁HC
▁100
39
▁IFN
uation
▁pharm
▁discontinu
▁chains
adjusted
illus
▁renin
alian
yses
▁unilateral
amycin
▁qualitative
.5
adiol
lact
acting
-23
erox
▁buc
▁20,
piratory
+,
emic
▁postoperative
itant
▁influenzae
▁intravenous
▁hypercal
▁soy
ocarcin
0.6
▁eosin
trop
▁casein
▁histologic
▁dys
▁suspected
▁surgeons
▁laboratory
▁Gluc
▁biopsies
tradiol
weighted
orin
▁CAD
▁exhibit
▁18%
▁adhesion
▁bovine
▁substanti
availability
amol
▁focusing
▁obstructive
30
tical
aneously
▁contraceptive
receptor
▁hydrogen
▁tended
▁recurrences
▁3).
▁poorer
▁lapa
uded
▁104
hist
▁ranged
▁lymphocyte
▁angiotensin
▁9%
ipr
iciently
onomic
▁SHR
▁fixation
▁(1.2
450
HDL
▁stimulate
▁intestinal
ellular
▁atr
duction
▁2000
▁summarized
▁115
otoxicity
▁35
opath
▁poten
▁proton
▁lactate
4)
▁mononuclear
▁behavi
fusion
0.0
▁132
MH
▁enti
▁precur
▁4)
▁recurrent
▁16%
▁referral
▁122
▁titration
effects
▁malignancies
insulin
▁tube
▁consumed
▁suggestive
▁Disease
omized
directed
iatric
▁aspiration
▁chec
matched
▁Factor
▁80%
▁widespread
▁overnight
oscop
▁ib
▁PMN
ochrom
irubin
▁stepwise
▁87%
▁0.20
▁aspirin
▁carcinomas
▁58
0%
acchar
aemic
▁dysp
▁neoplas
▁plasmin
▁hypertension
▁depressive
aline
▁chorionic
pli
▁irradiated
atients
▁41
▁therapies
3/
▁0.001)
▁phosphatase
Gl
▁nal
anic
▁biop
▁microscopic
Bs
phosphon
lobin
▁21,
entical
illar
yel
88
▁insulin
ophen
ruc
▁Approximately
▁treadmill
▁17
transfer
erate
-1.1
▁anesthetic
▁epithelium
throm
120
▁attrib
astric
2%)
▁lupus
▁peritoneal
▁therapeutic
▁degrad
RP
▁hypoxia
▁117
▁1980
▁abnormal
▁citrate
▁enhance
4+
▁inactive
▁0.04
▁complexes
▁regulating
95
dered
8)
▁shortened
▁cys
▁substance
▁20
▁immunization
▁colorectal
acil
▁retrospectively
aminergic
61
▁muscul
acts
▁rhythm
▁wk
▁subf
▁disturbances
▁elec
▁optimum
▁progn
▁direc
▁deple
▁oxidation
-0
ATP
▁peaked
.1%
.3
▁initiating
▁antimic
1%)
▁cen
▁virtually
▁Americ
26
osyl
▁41%
DH
▁microsomal
-3.
▁substrate
▁radioimmuno
eal
▁rheum
▁ongoing
▁(1.5
▁risks
▁tumour
▁incontin
▁inges
▁DS
olute
ociation
▁findings
glycer
▁electrocardi
6-
piration
early
▁(75
4),
roscopy
▁infections
illary
partate
▁correspon
▁dehydration
▁111
abd
hydropyridine
tens
▁reveals
▁10,
▁apnea
2+
▁cervical
▁lens
olution
▁hypoxic
yroid
▁admissions
▁recons
▁conduction
inic
▁prophyl
ologous
economic
50,
▁auditory
▁competent
▁MT
▁attributable
idone
▁macropha
▁bicarbonate
inated
▁mum
▁challen
ordance
ucl
▁dihydro
▁lith
▁infil
▁granul
ophilus
▁AI
/12
sensitivity
oride
2.
aginal
sibly
hyd
▁PKC
pite
▁placement
▁rotavirus
▁ovarian
▁margins
▁measuring
▁plasm
▁avoidance
exposed
yro
ocaine
▁0.000
▁duplex
uran
▁concep
▁mumol
▁6.4
▁88%
▁Seventeen
72
turb
zation
▁multim
▁markedly
▁PMA
▁pyr
timal
ethylene
tabol
▁adduc
▁maintaining
scherichia
▁[125
▁helical
oste
tle
▁coordination
▁survived
treated
▁epiderm
▁pancreatitis
ylase
▁liver
▁0.10
▁kinase
tomy
▁nons
▁prevented
▁glut
▁concer
▁postoperatively
IgA
▁(42
arrhy
ropriate
▁contracep
▁quanti
yroxine
accharide
▁EB
▁amiloride
rine
▁grain
▁ile
omotor
▁infusion
▁resul
tyl
▁uncom
▁enlargement
▁cytoch
▁hemoglobin
▁0.12
▁Hg
▁ventricular
omes
▁(+/-
▁TCR
ceptive
▁regulatory
▁intram
▁UV
butamol
irub
▁histamine
▁decisions
▁knee
▁spectro
▁natri
ialysis
▁Sixty
▁catalytic
asting
▁encour
.6
▁tymp
▁discon
▁induc
rein
▁31,
triglycer
0.7
▁fracture
ocomp
▁20.
siveness
▁NP
▁45
▁efficacious
▁demonstrates
▁proximal
tration
▁phorbol
▁fetal
9,
35
ostomy
tituted
▁Combin
oxyl
ariate
▁couns
ofl
▁produc
▁(14
▁0.3
▁macrophages
4%
▁0.13
▁regulate
▁infusions
acental
vaccin
▁rupture
▁emulsion
▁assis
cys
▁pressures
atid
▁ions
tro
▁benzodiazepine
▁yielding
▁neoplasia
pig
▁immunode
ecu
▁thrombocyt
▁71
▁60-
▁hypothalamus
▁dysfunction
▁reactive
▁techniqu
yste
thym
robial
▁mug
▁ect
tub
cholesterol
occus
▁33
▁potent
titu
▁reproducible
▁peroxidase
▁hep
SAID
▁HLA
▁diagnoses
▁polyc
LV
tructural
▁anesthesia
▁fatigue
ipine
▁Preliminary
tically
athe
lym
▁0.05
▁spor
flamm
▁decreased
▁selective
lasses
▁postpartum
▁puncture
▁Treatment
▁needle
▁recombin
▁immunized
▁transi
▁exposure
5,
5%,
▁neuropathy
▁imaging
▁spleens
▁aerobic
bodies
▁14-
echan
▁0.05),
overed
tent
bacter
▁(40
onyl
▁seropositive
+)-
▁exclusively
▁ventilation
eight
▁glucocorticoids
toc
▁insufficiency
▁170
▁sulph
▁congenital
antial
▁Likewise
▁toge
▁sepsis
tropin
▁struc
▁subc
▁0.02
▁intensive
plete
erence
▁retard
▁Patient
▁33%
▁10,000
▁anatomic
▁phosphor
▁stimuli
▁wheat
▁osteoporosis
12
▁cystic
vul
▁gases
moking
▁genome
▁atrial
▁electroph
iary
▁7.8
labeled
hydr
▁3.4
lec
▁depolarization
▁HIV
titis
▁extrap
▁pyrid
▁unex
▁enamel
aemia
▁Acad
▁moderate
otherapy
▁spleen
▁RS
▁sinus
rox
▁hypot
▁1989
3),
▁implanted
▁100,000
pregnant
▁adhesive
adren
▁noradrenaline
▁89%
▁fibroblasts
▁differen
▁reper
▁.00
▁nervous
▁pooled
▁placental
mentation
69
▁Consequently
▁-3
▁meals
▁tach
▁bloc
▁100-
8),
▁[14
▁reproduc
6)
arbonate
▁37
▁msec
oidal
▁Surgical
FSH
-13
▁pretreatment
41
gated
▁extre
acet
orated
▁29
▁predictive
ensitive
▁edema
-22
▁preven
▁neurologic
apse
years
▁acetylcholine
▁0.07
▁reflects
sensitive
▁organisms
induced
▁oes
▁-4
▁34%
▁reactions
apamil
▁(10.
ergy
Ts
▁attain
oderm
▁considerably
phrine
.3%
▁statis
▁CB
▁tendon
▁tibial
▁ech
▁pump
▁transplantation
▁prostate
tally
ughter
▁coupled
▁babies
ystic
▁inactivation
oratory
▁4).
keletal
▁14,
▁56%
▁feeding
atation
▁characterize
▁sut
physiological
▁compe
▁preoperative
▁62%
▁73
thirds
ameth
▁107
▁transcriptional
▁caloric
▁cartil
tiary
▁gyn
▁GTP
oic
▁homogeneity
inemia
53
▁norepinephrine
▁neutrophils
▁ure
▁deter
▁bacterial
▁tablets
▁nodules
▁embryo
▁articular
▁LN
▁indication
▁alcoh
▁supplementation
OA
▁metastatic
▁0.1
vitamin
▁persisted
▁SG
.9
▁neonates
▁healing
▁morbidity
prandial
▁triglycerides
▁(43
▁mAb
kephal
▁cultured
olated
▁immunodef
▁sero
▁4.3
▁irr
▁GnRH
▁Swed
▁toxic
▁Haem
▁relapses
vian
alsy
▁Patients
▁(26
▁mild
ifed
▁medial
BP
osynthe
▁VT
amine
▁entero
59
FU
▁cerebro
▁endothelial
aminophen
▁twofold
▁35%
otype
▁ald
▁vascular
▁nerve
▁radiotherapy
hypertensive
▁failures
epine
▁ATPase
-19
hydroxy
▁gestational
ophren
▁perfusion
71
-7)
▁sodium
iotics
▁cats
▁soluble
tur
▁57
ysm
▁evoked
▁kb
▁endoscop
unced
▁epitope
▁inters
-70
tures
▁cysts
▁31
omycin
jac
▁hipp
romycin
▁histology
▁euth
▁marginal
▁uncommon
▁esophag
▁physician
▁prostatic
▁gp
▁differentiated
▁relaxant
gely
▁loos
▁bup
▁prognostic
▁fibrosis
▁protease
ologists
▁abnormalities
ocl
▁endo
▁81%
▁91
▁blot
▁prospectively
▁inhibiting
▁toxin
▁thrombosis
▁preparations
lusion
▁hematologic
▁construc
fed
▁Thir
:1
▁aortic
▁stimulating
▁4,
▁consistently
uterine
▁abolished
▁valve
clinical
trus
▁undere
▁adolescent
organic
▁3.0
▁cytologic
▁IGF
icin
▁analogue
dle
aturated
▁HB
▁compositions
▁astro
bly
▁Bec
▁Examination
▁HSV
oustic
▁relaxation
cture
▁hemorrhage
▁Sout
accharides
▁shif
trin
▁compli
▁inflammatory
65
azole
▁dosing
mg
▁ascorb
▁51
stim
unctional
▁grades
▁dental
adrenergic
ilibr
▁PTH
▁14
saccharide
tively
▁clonidine
odine
incubation
lycemia
▁deposition
▁proportions
▁grains
▁TS
patients
▁abnormally
▁108
immuno
▁gains
▁angiography
▁preval
ocyte
sor
ylated
educ
▁electromy
▁0.0
ochemistry
agic
▁44%
▁psor
▁(25
thyroid
42
plast
-6)
▁predomin
aminase
5-
▁chest
▁allergy
▁pep
Gs
93
8+
▁128
▁mice
otroph
▁hig
▁11-
phyloc
▁multic
7%)
▁postural
▁clinics
▁injec
▁hydrochloride
▁cuff
▁subun
▁hemorrhagic
▁acros
-1)
▁2.
▁exud
▁heal
▁54%
▁reinforce
rometry
▁flora
cAMP
▁verapamil
▁17,
▁quin
▁199
▁disrup
▁epidural
▁regurg
▁canc
▁replic
▁55%
▁correlates
phasic
3;
▁rigid
▁limb
acin
inyl
▁chicken
▁synthetic
▁carbam
▁polypeptide
ducing
▁Subjects
▁utilizing
GH
92
86
tec
loon
▁adenosine
▁hind
▁encephal
elic
ilic
igaret
▁organs
▁ovulation
1.
lue
▁degradation
▁lipid
▁simultaneous
▁alveolar
9.
▁FSH
▁perception
2,
▁0.1%
▁ingestion
oxif
▁hazard
▁endoscopic
mortem
antibody
rief
otre
▁habits
▁infarction
▁7.
▁DBP
▁CNS
▁trunk
Hg
▁0.5
ylchol
▁albumin
nucle
▁3,
▁adults
vascular
lox
▁forsk
/10
▁retention
tency
orts
▁antagonists
limb
▁undergone
tative
habil
125
▁stimulus
▁0.25
ycin
▁deficiency
▁12,
▁94%
▁sheath
▁probe
▁(3)
▁currents
▁0.03
vular
▁monocytes
▁conserved
▁imipramine
adrenaline
▁frac
▁Evidence
▁recordings
21
toph
▁250
induc
▁symp
▁Oral
▁infected
▁exis
▁glycos
▁GA
▁demonstrating
-50
hydroxyp
▁arachid
▁retinopathy
▁Hep
▁optic
etent
▁spati
ochem
▁exaggerated
ploy
▁facial
▁hybrid
:3
▁excluding
ocyst
▁cyt
▁solub
▁succin
▁unil
olved
obacter
▁complaints
▁26
▁likelihood
▁transaminase
▁kinetics
▁insoluble
plasia
▁juice
▁predominant
uppression
▁intrauterine
▁65
▁aspartate
▁116
atoid
plas
▁arthritis
hyp
▁20%
lude
▁(44
▁bowel
▁athletes
formations
▁GM
▁panc
tetr
2,000
.8
eptid
▁follicles
▁isolation
ensitivity
▁tiss
▁BP
oside
▁anticoagulant
▁123
gthen
ocardial
▁pancre
-2.
▁dias
entile
▁protective
▁lep
▁nicotine
▁analys
ropyl
usal
▁incom
▁concentrations
▁pulsed
anine
▁arous
▁0.01)
▁hyperglycemia
MG
ergen
plications
ysts
▁agonists
salt
onography
58
▁flexor
▁fibroblast
enh
▁circumference
▁hepatocytes
▁estrogen
▁(23
▁anat
▁horiz
▁morphological
▁lob
▁examining
▁sugges
sess
tivities
▁13
▁Eight
▁asthmatic
▁Meas
▁enlarged
rowth
▁employment
imeth
▁exhibited
irds
▁autosomal
▁projec
sions
▁enzym
▁ventil
▁sple
▁(12
otypes
▁drugs
▁hospitals
▁throm
▁elu
▁sequelae
▁13%
38
ortal
letion
▁cardiovascular
▁thal
▁ligation
▁elastic
teroid
tate
+-
▁hydrophilic
▁deoxyrib
▁presumably
tin
oscopy
▁efficacy
icide
▁Increased
astolic
▁ESR
▁prol
▁4.8
▁HP
▁afferent
aptic
▁alumin
▁61
▁36
▁fatty
ogenesis
4,
▁ocular
onin
▁chlor
rowing
FN
▁0.2
▁22
allium
▁mutant
83
▁lacks
initi
▁pneumoniae
▁detecting
uresis
▁Ultras
▁excision
▁Increasing
▁circulation
▁blocker
▁simplex
▁influenz
arachnoid
▁Subjec
pyr
▁peptide
▁cryp
olarization
▁57%
tensive
▁menstrual
▁5%
▁vasoconstric
▁65%
▁Fifty
lyc
mental
▁antiarrhythmic
▁cough
osclerosis
▁urinary
▁randomized
derly
▁ouabain
albumin
▁strep
▁hams
trol
uretic
terin
icine
▁incid
▁preventing
▁Comparison
▁haem
▁therapy
aturity
anthine
▁refractory
thal
▁3%
▁basal
▁differentiation
lysis
▁keratin
plemented
▁placebo
▁trends
▁(5
ceived
▁deviations
▁morphine
▁preterm
▁Phase
▁neonatal
rophy
▁thir
▁underg
.2%
▁neon
▁inversion
▁rele
▁(50
▁vivo
eak
▁Tiss
▁dissociation
9).
feren
▁exclusion
▁0.9%
▁cros
helium
▁slowed
▁requi
▁anesthe
▁carb
mitted
▁uric
-4
▁hypox
▁glutamic
▁glycoproteins
▁mutagen
tinguish
▁activated
rays
positive
▁behaviors
5),
▁synthesis
▁shortening
▁(500
establ
▁cran
▁sham
yx
▁cytochrome
▁thrombin
▁ascertain
otassium
▁stren
▁tox
96
idic
ureus
▁(6
▁anomalies
▁screened
▁4-
3%)
▁erythrocyte
enal
▁2%
▁foods
▁synthase
tak
▁aggressive
▁gluc
▁overt
▁locus
pread
inositol
tries
▁10(-6)
▁4.
▁PP
▁inhibits
▁triglyceride
▁isot
▁weighed
▁connec
▁pregnancies
▁defects
▁126
5%),
▁14%
▁distinguishing
▁pellets
▁impair
organisms
sy
osine
orh
nec
▁clearance
▁LC
▁induces
▁striatum
▁discontinued
▁descending
▁responsive
▁18
vated
▁multicenter
▁centers
▁initiated
▁antidepress
ept
▁(21
▁emerg
▁complication
▁outflow
20
▁hydrop
▁1988
urons
▁Diagn
▁(0.0
-16
▁contraction
▁Statistical
▁explored
▁identi
▁.0
▁competitive
▁inhibition
▁nucleotide
▁alkaline
▁mineral
▁drin
▁5
▁calcium
athyroid
luding
▁Reduc
rosis
ocardi
ucine
▁reductions
anad
▁incub
▁peroxide
▁staging
phosphor
▁restenosis
▁extracorporeal
▁underwent
▁unres
▁anemia
0,000
truc
▁agglutination
olamine
otri
ilateral
rological
▁progressed
▁predictor
▁Relative
▁improving
▁epilepsy
▁endemic
ucle
▁serological
▁controver
▁cyto
▁12
▁BCG
tus
▁emergency
▁supplements
▁(19
▁sequentially
▁ammon
▁anastom
▁49
▁residual
▁12.5
▁duodenal
thyl
▁2.4
▁epinephrine
responding
▁extrac
▁accidents
operatively
0,
lytic
▁transluminal
0)
▁ana
▁inducer
gans
▁respiratory
▁cranial
onit
▁withdrawn
genic
ropine
▁[3
▁mitral
▁encomp
▁0.05).
▁aorta
▁endocrine
▁syndromes
▁0.06
ithin
lys
▁lateral
▁horm
acute
▁creatinine
▁vesicle
▁Intr
gland
▁decline
▁TC
thmatic
▁acetyl
ithi
▁rabbits
iotic
▁5.0
▁chromosome
spective
▁somatic
56
andard
▁cerebrovascular
helial
▁endometrium
▁diets
▁logistic
▁epidemiological
▁computerized
otent
benz
▁pneumonia
▁scanning
onset
▁trimester
▁tachycardia
oglobulin
▁regulation
▁immunoreactive
▁microbi
▁varies
▁rhe
▁42%
▁cortic
exc
acted
adder
▁medication
▁mL
▁dosages
▁histological
▁isch
▁insignificant
▁normotensive
▁paral
onazole
▁athe
3)
.9%)
4).
omiting
▁electrolytes
▁diet
▁headache
▁embry
ondr
▁macrophage
hydrox
resistant
▁0.05)
▁virtu
▁practitioners
IgM
urnal
▁1,25
osamine
produc
▁mV
rolog
arly
▁1000
▁inoc
▁decarbox
▁platelet
▁bladder
tene
▁Plasma
ytoin
▁aspec
▁objec
28
acrylamide
▁putative
▁tryp
23
▁excitatory
▁20-
▁thyroid
▁cooling
opamine
▁clinically
▁mutation
▁vesic
▁selec
▁sour
▁intub
▁qualit
▁mM
sibility
▁validated
acetic
otoxic
▁prednis
sion
▁intrav
▁monthly
▁centr
▁(46
▁pathologic
▁PSA
▁promin
▁fluorescent
2+-
diabetic
▁27
ositi
▁carriers
▁traumatic
ereb
▁phosph
▁duoden
▁incontinence
▁carrier
▁inhib
osus
-1.
olysis
▁mood
ologically
▁estrogens
▁congen
alp
▁increments
▁Estim
▁obesity
▁abnormality
▁laser
▁accid
▁conges
▁40
,000
▁inhibited
▁cation
▁2.8
▁necrosis
ulph
17
aminop
60
▁complic
▁3.1
▁neuronal
▁0
▁insufficient
▁micrograms
▁6-
▁tumor
MN
tensives
▁surgery
▁threefold
oretic
▁sorb
▁ventricle
▁17-
▁abortion
▁exag
▁inherent
idase
RF
▁intestine
▁affinity
amn
▁mitochondr
▁-6
▁ascorbic
▁elevation
sistent
▁meal
▁microorganisms
▁nutrition
esophageal
▁surgically
eryth
▁1.5
▁undergoing
▁efficac
oprec
▁1983
-8
▁examinations
3).
▁(1
ficial
▁persists
.4
▁remo
ulose
peptide
▁tertiary
▁(45
.00
▁onset
▁attemp
rofen
▁belie
respective
▁phenyl
yrib
▁cG
▁6.6
▁traum
▁0%
▁metabolism
-2)
▁treating
▁vag
▁nutritional
CAP
orepinephrine
▁interleukin
▁localized
▁bronchial
▁scre
▁perfor
amphetamine
aund
▁hap
uble
▁visualization
▁oxytocin
▁pacing
planted
▁concurrently
urther
▁elderly
average
▁bone
▁3)
▁dermal
▁oste
▁90
▁mU
▁questionnaire
▁dysplasia
▁hospitalized
▁ND
NH
ovine
▁16
-5
tural
yclo
▁strom
sulf
▁myc
converting
200
tussis
▁antic
▁secretion
rever
ration
aternal
▁peptides
▁sperm
▁6,
▁(17
▁declined
▁sedation
▁reveal
siologic
gth
▁94
▁limiting
toxic
eprazole
▁perinatal
▁regar
▁Twenty
14
▁drain
▁31%
▁discharged
astatin
8%)
77
▁5-
▁ejection
orphin
▁pathway
▁chromosomes
▁manipulation
▁antibodies
atest
ameter
glycoprotein
▁dissec
▁illness
▁recipients
▁antibiotics
▁maternal
▁offspring
grees
▁unc
llate
ecyl
illance
gestin
▁severity
▁analyses
▁fluoride
▁diabetic
▁0.75
▁86
ults
▁syndrome
▁hospitalization
▁esophageal
▁hematoma
▁fever
▁Thirteen
▁25%
assi
▁pituitary
▁cholest
▁PG
▁concomitant
▁synaptic
▁0.11
achid
▁ionized
▁cigarette
▁electrophoresis
atinine
▁elective
ronchial
▁metastases
▁saturated
glut
▁Hyd
tinu
duc
▁lamb
RNA
oneph
ucas
armac
/3
kelihood
▁mEq
▁aggregation
▁66%
▁PEG
bearing
▁105
▁acidic
▁bypass
▁1.25
dies
omers
▁targeting
▁immunoblot
▁pate
▁upstream
▁solitary
asal
estrogen
▁deoxy
▁VO
▁assessing
atitis
100
▁19,
▁initiate
▁renal
▁penicillin
reactivity
▁Subsequent
▁practition
othal
0.8
▁32
pressing
▁immunotherapy
tional
▁hydroly
▁stric
▁sph
elec
▁sti
▁intracranial
▁53%
▁2,
▁heterozygous
▁labeling
▁focal
▁cultures
▁capsules
▁validity
▁operative
▁Unlike
▁PI
0.
ochrome
▁5.
▁demonstrable
▁amn
▁nitro
▁Functional
▁deterior
▁ey
ocytic
odal
retin
▁lacked
glucose
▁substrates
▁antioxid
▁68
erebral
▁arterial
▁ae
62
galy
obarbital
terone
▁bip
CSF
▁regulated
▁(0.1
▁hepatic
▁natriuretic
ropathy
ensi
adequ
▁deox
▁myel
romy
▁ulc
itrate
tious
▁atherosclerotic
▁90%
ipramine
▁pneum
epithelial
tidine
uncture
▁53
▁1986
▁Thy
▁fulf
ranolol
64
measured
iteal
tensity
occal
▁caffeine
▁esterase
▁fractures
metic
▁competence
▁cesarean
▁femoral
lactam
▁crosso
▁effusion
▁(27
▁extracellular
▁chor
▁heterogeneity
▁incorporation
intestinal
▁cortex
acr
▁ambulatory
virus
▁chond
▁reductase
▁propionate
▁docum
ffeine
2/
▁retin
▁subjective
▁effectiveness
▁effec
▁7%
▁infec
dose
▁vein
ischemic
tents
▁fibrinogen
tisone
▁1)
7)
oes
▁Candida
▁depression
6),
▁pigment
eptide
▁9,
▁39
▁transplant
▁19
GD
Phe
utyr
▁48%
▁thrombo
▁glomerul
oids
▁PD
▁cytos
▁accep
teroids
▁aspir
nai
▁capillary
▁perforation
▁collec
▁exceeded
leukin
atrial
ovirus
▁91%
▁superoxide
▁prednisolone
▁ischem
▁lowering
▁maturity
▁7,
rectomy
protein
▁membran
▁gastric
erance
ications
▁instr
acetyl
▁brom
bac
▁immunoglobulin
oluble
opoietic
▁interventions
▁IgG
▁106
3%
ercise
▁benz
▁gly
8,
otides
▁71%
ylcholine
▁infused
▁determining
▁spon
▁(20
▁adherence
▁calor
▁neutroph
▁relap
▁sampled
orphine
▁colitis
▁tetrac
▁repor
▁adap
▁Myc
▁2.5-
▁pig
▁Mn
ardia
-80
.7
ofluores
mediated
▁susceptibility
rates
▁fibres
▁sequenced
▁inhibitors
1,
▁15%
▁5.5
▁formulations
▁chronically
▁exploration
▁respon
entric
▁staining
▁mammalian
▁poin
tumor
tance
▁stratif
▁immunos
▁52%
0%.
▁benzo
▁9.0
▁67%
▁phospholipase
amid
ophil
iloride
▁physiology
▁sulf
▁adequ
▁Eleven
spectively
ilized
▁vigorous
▁(10(
▁eryth
amuscular
▁1.8
otting
glutin
enic
opres
amous
angiotensin
sive
▁antid
▁metabol
▁200
▁dye
▁establ
▁implic
rologic
itin
▁tubes
▁tetracycline
▁serum
▁relie
▁hypo
▁tumours
▁obese
▁leukocytes
▁choles
▁multiv
▁Increases
actin
ograms
▁nondiabetic
▁confirming
▁HL
opic
▁nausea
▁latex
ectomized
▁hemorrh
▁previ
ypical
▁incidence
rosemide
activated
18,
▁adjustment
ophys
galact
uron
▁methodology
▁kDa
▁granules
▁3.5
LDL
▁incubated
▁mitochondrial
hion
echanical
▁Significant
psych
▁confound
▁8.5
▁96%
lycerol
derived
▁immunoprec
openia
▁adminis
▁lumb
▁qualitatively
unctions
ritin
▁75
▁6%
ventil
▁bic
okine
▁circulating
BT
ospasm
▁atten
rease
amus
▁bilateral
500
viral
▁testis
▁intrap
tiv
phic
▁lungs
▁brush
▁spontaneously
▁esophagus
▁diagnosed
▁polymerase
▁isoproterenol
▁elimination
▁noc
▁intermittent
▁tol
▁50-
hetamine
▁inadequate
▁accounting
8.
▁recr
cepti
lastic
ostatin
▁5.4
▁thrombus
▁enzymes
glycerol
▁nurses
▁insertion
mediately
ogenicity
tant
uric
▁displ
lux
ediatric
▁urea
diagn
▁reperfusion
▁colony
▁antis
hydrop
▁400
phosph
▁muc
▁5.2
tized
▁donors
▁10-
▁onc
tabl
▁specimens
ithm
idne
▁adip
iol
▁leuk
crip
▁-0.
asic
▁shor
▁7.2
▁arachidonic
▁6
olec
▁salbutamol
▁23%
▁transc
▁Seventy
▁Tes
▁plac
/100
▁systolic
orbol
▁doubled
▁irradiation
▁(18
▁thereafter
▁Significantly
▁polyclonal
ocarcinoma
▁stres
oA
▁70
sA
ture
▁contractions
▁8.2
▁cows
affec
clonal
▁suspension
▁axons
▁influenza
▁systematically
▁abd
▁immunocomp
▁pertussis
amination
▁comprising
▁squamous
▁monotherapy
flammatory
▁excretion
▁chemically
▁coenzyme
▁desm
▁sexually
tizing
iazide
▁ester
▁conservative
▁instrum
▁indomethacin
molec
-1
cortisone
▁PH
luores
ulum
ffinities
▁attending
oclonal
▁increas
67
▁volunteers
esic
▁peripher
▁alternating
▁CAP
generation
▁baseline
▁(15
vail
▁selectively
▁rats
▁TM
▁demands
▁metoprolol
▁7.9
▁occlusive
▁intracerebral
TSH
▁diastolic
ymptomatic
▁97
▁bipolar
▁mening
plantation
▁dodecyl
▁30%
▁phy
▁calcitonin
▁electroly
▁micros
minute
▁40.
▁ipsilateral
57
▁sensitivity
aryng
otide
GF
▁synthesize
▁hippocampus
▁ultrasound
urea
clin
▁9-
▁(16
▁TA
▁hypercalcemia
▁patches
▁cyclase
-20
▁1.4
▁lesser
10,
▁pyl
queous
▁tissue
lamy
▁homologous
▁hir
▁45%
▁ml
▁paralle
ostatic
▁mucosal
▁vaccinated
▁swit
▁antib
▁echocardi
▁outpatients
▁sput
▁malignancy
▁dementia
▁137
tial
▁viruses
▁recommendations
▁hygiene
▁ultras
pation
reness
▁112
▁malformations
▁perox
000
▁50%
▁hydrolysis
▁endotoxin
deoxy
▁Hz
▁wound
▁examination
▁4.6
▁variability
ylic
▁glucocorticoid
▁idiopathic
abdominal
▁polymorph
tran
acrine
▁dialysis
▁unaffected
▁adversely
▁secretory
▁indus
▁adjusted
▁adoles
▁83
▁secretagog
▁PGE
forming
▁Golgi
]-
▁66
▁rheumatic
▁retic
▁MRI
▁trials
▁clones
ayers
▁susceptible
▁plas
RR
▁immunohist
hemat
lasts
▁verbal
▁serotonergic
▁evaluations
▁transient
▁compounds
▁neutralizing
▁formulation
arent
▁ET
▁attenuation
matic
opr
3,
iph
▁inversely
▁(1)
epines
▁Previous
▁investigators
▁7.7
assay
▁47%
▁chick
▁terminals
lated
ocamp
▁nig
rated
▁cumulative
▁restric
amphen
asive
▁epit
respon
▁seiz
1).
▁chemotherapy
73
▁Positive
▁autoantibodies
▁endothelium
97
lymph
▁transloc
▁assays
▁nonc
▁MIC
▁vitro
▁airway
▁hybridization
▁pregnant
46
sian
ocellular
▁Calc
▁3.2
▁amino
▁discontinuation
▁presumed
▁18,
▁seroton
▁CN
onvul
▁monke
▁mellitus
▁occupational
▁accurately
▁amplification
▁tetr
titution
▁osmotic
▁plateau
▁veins
floxacin
▁smoking
▁0.5,
▁(11
amines
▁oxygenation
obl
tained
▁bradycardia
ceptions
phosphate
▁tracts
▁Lymph
▁antagon
▁indi
▁42
▁inhaled
10.
▁diabe
4.
▁parox
▁Overall
▁2.0
▁1970
stimulating
▁disclosed
amethasone
▁esters
▁somat
▁precursors
▁altered
▁coeff
rents
▁Serum
▁expressing
▁analges
ithelial
▁FT
▁immun
▁clot
▁nephropathy
▁arter
▁confirmation
▁BM
oung
rogenase
2)
▁murine
▁hygi
▁digoxin
▁junction
estern
▁adi
▁hCG
dL
6%
xual
idation
▁1.6
▁85
▁juvenile
requ
entified
▁superficial
▁diseases
.2
▁cessation
▁differe
15
90
▁retur
▁chemicals
-2,
▁embryos
tured
▁prostagland
▁trypsin
4/
prising
▁AIDS
▁transferrin
brom
tron
▁incomp
▁neutrophil
▁5)
▁structural
▁correlated
yrox
▁pharmacologic
▁76
▁phenomenon
▁acces
▁streptococci
▁progestin
▁caud
▁mediated
lood
onegative
▁rectal
olig
quine
▁30.
semb
▁tes
motic
▁3
▁surround
▁modality
8).
▁pmol
▁hyperp
▁198
▁surgeon
▁PCR
▁pathogenesis
▁spikes
▁ferritin
▁ventric
▁contractile
▁79
▁gonadotrophin
▁48
▁Fourteen
▁IgE
▁transverse
independent
ocar
▁coagulation
acement
-18
▁inh
▁2.2
alact
▁30-
▁prono
▁phospholip
▁OA
▁fetus
▁48-
▁cloned
igible
▁adenylate
▁acetic
▁diazepam
kely
tox
▁hetero
henyl
▁ranging
▁-1
▁233
▁uptake
▁thickness
carb
teral
till
mia
phenyl
▁ultrasonography
▁confirms
6,
eled
absorption
▁spontaneous
▁sequential
▁membrane
▁2)
molality
plic
▁maturation
aturation
▁160
▁excised
▁parathyroid
▁16,
parathyroidism
▁resec
▁synthe
▁protec
treatment
ophilic
▁conformation
▁rehabil
▁colonic
indolol
dominal
▁(30
plies
xia
orac
▁saphen
opl
50)
feeding
.6%
sequent
atab
▁compound
duced
▁brady
▁HPV
oxifen
▁cytotoxic
-60
▁resistant
▁NH
ontal
tiz
▁collagen
▁improves
▁10.0
▁triglycer
rosy
▁somatostatin
▁labelled
▁targeted
▁sucrose
▁steroid
▁poisoning
300
▁Fc
▁mitochondria
▁tric
▁34
▁127
▁physicians
▁atheros
▁splen
▁DF
▁genes
andida
▁residue
natal
▁Thirty
otomy
1/
▁lidocaine
leu
▁0.14
▁CCK
oporosis
▁methionine
admill
▁HI
▁hyperplasia
▁1990
▁lam
▁kine
▁leakage
▁consensus
Cu
▁percentages
▁BALB
▁cholinergic
▁neutrop
oreceptor
▁hyperlipid
▁fiber
▁permeability
affected
▁retinal
iminary
renol
ociated
▁SEM
▁chloride
43
orrhea
muscle
▁proliferation
▁durations
otrexate
▁correlations
▁125
▁GH
24
dehyde
▁rheumatoid
▁creatine
-6
eration
odipine
▁84
eroxide
▁thym
-90
idis
▁criterion
▁LV
conver
▁grafts
fected
▁histopath
▁dipyridamole
▁carotid
▁phosphorylated
▁5.3
(2+
▁28
▁bacter
▁glucocortic
▁reflex
7,
▁amphetamine
▁implying
▁analysed
0.1
▁ganglion
▁acet
▁29%
▁diversity
▁assessment
▁satis
▁emo
▁outbreak
▁25-
▁150
▁oxy
▁ligand
▁1-
▁23
sively
▁10
▁postin
▁disability
▁reflecting
pran
bladder
▁suppres
▁contex
▁sarc
oxide
▁derm
▁conjunction
leuk
resist
▁leukocyte
▁32%
reduced
achol
▁bile
threatening
▁responsiveness
ritis
teine
▁interf
▁disturbance
▁additionally
▁eligible
▁cyclic
roximately
▁autoradi
▁nM
venty
▁lymphoid
▁lis
ocortic
SDS
▁stimulation
▁fluids
▁Forty
▁gamma
opressin
▁Peak
▁deterioration
▁130
▁xyl
▁tachyc
infection
▁vesicles
▁subunits
▁synthesized
▁80
ealand
▁omega
blood
▁ICU
▁supple
existing
gm
▁mRNA
▁Mortality
▁titers
▁wee
.0
aryl
aid
ateral
▁conductance
▁Prel
mega
▁symptoms
▁cure
▁wt
ignificant
▁characteris
▁2.5
▁remission
▁Maximum
▁acids
▁Compared
▁aerosol
▁mechanisms
▁ethnic
▁exogenous
▁malignant
ylline
olesterolemia
75
partum
▁defec
▁gradi
▁3.8
▁6.9
12-
▁competi
▁anaesthe
▁92
▁monol
▁reversed
hers
▁erythrocytes
▁62
▁(9
▁regimens
▁crossover
▁6.3
▁84%
tization
▁glycogen
▁electr
▁atypical
▁6.
tation
ogenic
▁indicators
regn
▁chol
▁minimally
comitant
olone
▁weakly
▁eluc
▁220
lyl
▁43%
luded
▁conformational
yrid
▁luteinizing
▁hyperb
▁oocytes
roscop
▁progressive
yridine
.9%
▁fibrillation
-1).
taining
▁64
▁121
▁achie
odop
▁electrodes
▁inhal
▁juven
25
▁commercially
▁neurones
▁weigh
ressing
urys
▁microns
▁27%
ygen
▁symptomatic
tiveness
0%).
▁Dop
▁aberrant
▁ery
oxy
▁normo
modified
▁euthyroid
▁spont
▁Staphylococcus
trover
▁reticulum
methyl
▁neph
RH
9%)
▁amo
▁TPA
olip
▁wash
abain
▁monkeys
tential
itol
▁vitamin
▁residues
▁latency
lamp
▁aluminum
▁familial
veness
▁crom
mobil
iability
▁suppor
▁shorten
aind
▁menstr
Cs
platin
▁PB
▁normalization
erents
▁pregn
LH
▁phosphatidyl
▁instruc
renal
astom
▁IgA
▁cholesterol
sized
▁24
▁reviewed
52
pendent
▁92%
▁2.3
erated
▁venous
eliac
kage
lycer
▁clus
urations
▁judged
▁splenic
▁1,
ctive
▁fati
▁microtub
▁PLP
▁LR
▁hyperg
▁interstitial
▁gentamicin
▁hyperch
fetoprotein
▁doses
▁lithium
▁decade
▁excre
▁perfused
esin
ocated
▁adipocytes
ermal
▁LM
▁HDL
▁CHF
uccess
76
drug
merc
▁TP
▁bioavailability
▁hormones
▁hydrox
april
▁reproductive
▁(22
▁rhy
▁Fib
▁subcutaneous
▁atrophy
▁hypothalamic
▁chronic
▁progres
▁effector
assium
▁favorable
stimulated
▁advan
-2-
oprolol
▁filtration
olgi
▁enhanced
/2
0.2
roxim
▁biliary
▁131
▁surveys
▁autologous
▁mann
▁epidermal
▁epithelial
MV
▁HA
▁gels
▁3.7
▁concom
▁amph
44
▁implants
▁consecu
itamin
▁replication
▁porcine
terase
▁ejac
▁ascer
▁strategies
▁examin
▁mutations
essation
2).
tagland
▁binds
▁0.001),
amicin
▁genital
▁ratios
▁prenatal
▁angioplasty
▁ankle
▁(4)
18
▁refrac
(+)-
illin
▁MHC
▁7.6
▁NADP
9-
▁inflamm
▁incorporated
ymp
▁kinases
ritic
▁visits
▁intraper
▁resemb
▁preventive
tum
▁pulses
▁diagnosis
▁metabolic
▁85%
▁drainage
▁1.0
thmic
▁gonadotroph
▁microscop
▁multivariate
▁enhancement
kinase
owever
▁terat
▁37%
▁absorp
▁145
▁lumen
▁tuberculosis
/8
▁quantif
sue
▁endometrial
48
▁pleural
▁13,
▁exagger
taken
horm
▁PAF
▁antimicrobial
uvate
▁hypotension
▁brains
▁paradox
etoprotein
▁benign
55
▁prognosis
▁attitudes
erge
▁5'
trial
pir
uretics
▁fractions
atosis
▁124
▁topical
▁Experim
▁prophylactic
▁pathophysiology
▁Sodium
angl
pH
orbent
▁insuff
8-
▁adop
ohyd
▁15
▁responded
▁freeze
▁heavi
partic
.4%
▁enzymatic
eptidase
▁colonization
▁fibers
▁nucleus
▁limbs
▁59
▁guidelines
▁Ace
▁spi
▁transcrip
▁pH
▁glands
▁78
▁Reduction
▁nec
▁Arter
▁biosynthesis
modulin
▁regimen
▁actin
ogl
adm
thmias
-25
anin
▁350
▁biological
▁(150
oproterenol
immune
▁potenti
▁psychological
▁Neither
osocial
▁dissection
▁adverse
▁intraven
▁103
apid
▁1.1
ortic
▁pelvic
-1.0
eptin
PCR
inflammatory
▁determination
titute
tric
associated
inj
pinephrine
riched
▁agon
▁cef
▁critically
▁isoform
▁bac
pecific
0%)
stolic
▁comparable
ophy
▁(0
▁95%
omegaly
▁protr
ronectin
▁72
▁glutathione
▁Clin
icardi
sant
avail
onary
▁AFP
ocys
ocial
▁hormonal
▁8.4
ergic
▁blacks
▁diffic
▁oxid
onucle
▁participating
▁hypers
kground
31
ingle
▁lectin
▁subgroups
▁98%
▁26%
meas
trical
ipheral
wenty
▁biosynthe
promoting
▁experimentally
▁discrimin
▁arth
▁plaque
pain
responders
elves
▁tissues
▁120
LISA
▁preparation
trum
▁bacteremia
▁reac
▁sugars
▁establishing
oradi
▁dox
xate
▁arginine
▁adolescents
iline
600
▁acetate
▁proteinuria
▁MI
▁hepatitis
obenz
▁incision
ocytosis
esthe
▁chan
cine
▁saphenous
▁epidemiologic
▁wounds
▁compartment
▁affecting
-4)
▁zinc
▁spermat
entif
▁hyperthyroidism
▁dimethyl
▁deficit
▁overl
▁bathing
▁adenocarcinoma
▁acutely
▁investigated
odies
▁recor
▁93
▁microb
siological
▁cereb
▁untreated
tension
idity
rhy
▁passive
▁homology
▁surf
5.
▁ank
▁1%
▁81
▁proteins
BH
▁PE
▁60
▁LD
1;
ffec
▁tolerance
ilep
▁withdrawal
▁tubular
orption
fat
▁androgen
toxin
▁9
▁22%
went
ditions
.7%
ferrin
gative
▁fluor
kine
▁mature
mong
▁lesion
4;
▁cerebral
▁hepatocellular
opril
▁isolates
▁-7
-36
▁cate
▁(3
▁118
▁cellular
iant
-4-
▁concentrate
▁reactivity
▁dermatitis
tially
ampl
immun
▁dermat
▁accel
▁resc
kers
illation
▁(31
▁depres
chlor
iotensin
▁EEG
ticular
enicillin
▁presenting
▁Severe
ffinity
▁(1.0
▁Initi
osomes
▁labeled
▁Caucas
▁peripheral
▁Hear
inephrine
▁cortisol
ogenous
▁eti
incip
▁Recently
▁perin
▁(24
▁olig
oresis
mol
▁54
itus
azepam
▁atenolol
▁manifestations
omethacin
▁tolerated
▁abuse
▁clinic
▁Biol
▁dors
arge
▁retina
▁ranitidine
▁subpop
▁testosterone
ymme
restricted
▁daytime
Mu
▁vasodil
▁impaired
▁extraction
6.
▁cytotox
▁inadequ
▁recur
▁aging
istar
▁predicting
▁800
▁6.2
▁inappropriate
▁biochemical
▁hypothyroidism
▁(4
▁thromboemb
▁Epid
tivity
▁prednisone
▁98
ompan
ronch
acterial
▁excit
ectom
▁commerc
▁gonad
▁hydrophob
ospitals
trac
▁cyclospor
▁AMP
)2
fused
▁propranolol
ophageal
ields
atient
▁conduc
▁malign
anol
anding
▁hepar
▁perceived
▁asymmetric
7%
▁trauma
▁paras
ially
labelled
tracted
rosine
▁balloon
▁allergic
36
opes
▁deletion
▁transpor
▁Fifteen
▁lasting
MDA
▁69
▁glucagon
▁lact
oracic
atology
78
othi
coh
farction
sia
▁decarboxylase
rotid
▁72%
▁97%
tig
▁substitu
▁99%
atible
▁0.8
▁uter
▁smears
entia
▁contaminated
▁ward
6%)
▁50%,
▁contributing
▁pharmac
▁mobilization
ching
32
▁2.1
▁endot
▁invasive
▁puls
▁molec
osterone
▁subarachnoid
▁12%
lobulin
▁enzyme
▁complications
▁muscles
▁46%
monstr
itoneal
xime
▁0.
▁cardiac
aced
▁aqueous
▁GABA
▁antigen
▁mono
adian
▁perme
▁glomerular
▁4.9
▁pediatric
fraction
eric
▁subjec
▁Increas
▁Interestingly
▁methyl
▁questionnai
placement
▁mucosa
terminal
▁exchan
▁yr
▁oxidase
omal
▁Individual
▁functionally
0%,
▁expiratory
ipro
▁8.
▁thems
▁ligands
▁Survival
▁disorders
arb
-24
▁reacted
▁ablation
▁weekly
▁antiserum
▁ANF
▁temperatures
▁0.5%
▁surge
▁homogen
▁occurring
injection
meth
▁vaginal
▁8
▁doubling
plants
▁uncomplicated
1%
▁Hb
bumin
olateral
▁facilit
▁peaks
▁progressively
▁monitored
▁2.9
3-
▁44
oprol
▁corne
▁ionic
9%
sych
idney
▁compliance
corrected
▁Injection
▁reversible
▁distin
azol
▁slices
▁coag
embrane
▁lysis
▁discus
▁transcription
▁equilibr
▁promo
▁interviewed
dition
▁meth
▁perc
▁genotypes
29
kines
▁secrete
▁nonpregnant
HB
▁pronounced
tage
imens
▁etiology
atell
▁activate
opathic
▁psychosocial
/6
2;
▁myocardial
▁absorption
ureth
▁specialized
etitive
▁EE
▁atopic
farin
▁discre
BG
▁consciousness
shaped
▁neurogenic
▁immature
▁washout
▁78%
▁chromatography
66
▁Holter
uoden
▁lacking
▁WHO
/1
otropin
▁61%
▁Scale
▁0.01),
oxid
▁1.9
▁suture
▁exposures
uscular
oconstric
▁tumors
1),
▁bronchodil
▁(2)
▁furosemide
▁choline
▁immunosorbent
▁Leuk
▁Concentrations
ials
▁prostaglandin
ressed
▁contrac
▁surveyed
▁phosphorylation
▁CSF
loxacin
▁amin
ulatory
▁1/
glutinin
.8%
▁kidne
▁scientif
▁enhances
▁lymphocytes
aired
erative
▁carbohyd
▁exhibiting
▁luteal
▁receptors
▁serolog
▁turnover
enteric
▁intran
▁analogues
▁arti
▁occlusion
obarb
▁10.5
▁monoclonal
iable
47
▁0.7
ifferen
▁injur
▁(0.
▁radiological
▁localization
thre
▁adequate
▁microvascular
micro
▁stu
▁stratified
▁reticul
▁gradual
-3
▁adenomas
-1,
linked
-9
administration
▁Escherichia
▁sten
ovascular
▁suppressive
▁vaccine
▁Afric
▁comparative
inamide
▁11%
cephal
/24
▁anomal
▁indications
▁heparin
▁Elec
▁leukotri
▁preferen
▁genomic
▁detectable
▁immunofluores
▁ANP
atectomy
▁cere
▁gonadotropin
▁clon
urate
▁immuno
▁lipoprotein
▁50
aric
▁abrupt
5)
Ps
osomal
bility
▁pharmacokine
▁progen
▁radiol
7).
vents
ucose
▁epidemi
▁upright
trained
cents
▁administered
▁75%
5%).
▁specificities
▁constituted
▁morphology
▁anhydr
ipit
minis
▁129
▁enlarge
▁slowing
▁psychiatric
▁genotype
▁cirrh
▁guan
acerb
▁tooth
oxin
▁initiation
▁Subsequently
▁conclu
apsulated
▁coval
▁endogenous
arrhythmic
▁supra
▁2.7
▁10.
▁VA
▁(13
ologic
▁agonist
▁idi
▁Whereas
ulant
brain
trates
▁gestation
▁surgical
ensity
▁hyperthyroid
▁spectra
▁83%
▁cruc
ectomy
ynthe
0.5
▁saline
▁oral
olytic
▁leukotriene
▁13-
▁biphasic
▁lipophilic
glycerin
mittent
▁vasopressin
anking
▁(7
oscopic
▁95
athione
itone
▁continuously
▁predominantly
▁dramatic
▁phosphatid
odiaz
radi
▁beats
▁hered
▁characterized
▁termination
▁predis
▁implications
37
-65
▁donor
▁serotypes
▁Haemophilus
1)
▁salivary
amide
▁36%
duce
EA
otoxin
coun
▁intrac
▁opi
▁5.6
▁irrit
▁surveillance
▁intermedi
ullary
▁microgram
▁capsule
▁5.8
▁quantit
tensin
oplasmic
▁systematic
▁epid
▁injuries
tissue
▁weighing
▁meningitis
adrenoceptor
2+,
▁adrenergic
thmia
▁predictors
nthe
▁glomer
▁synap
▁0.00
4-
ubation
▁19%
▁subjected
▁cognitive
▁biopsy
▁mg
enol
ellar
deficient
ignific
▁neurons
ographically
thrombin
hemical
▁cytosol
90)
sectional
▁0.08
ifugation
10)
▁9.
▁stenosis
▁alanine
▁arrhythmias
▁efflux
▁infar
▁nonspecific
▁undertaken
16
▁urine
▁omeprazole
ylation
3.
sis
odynamic
versely
6).
alc
▁-2
ometr
blind
▁ampicillin
▁iod
▁elas
rous
oxygen
▁degeneration
orec
▁outcomes
▁discharge
mented
▁rejection
zymes
▁reass
▁innerv
CoA
▁sustained
▁HS
▁iso
idespread
onuclear
▁3.6
roma
▁antidepressant
▁12-
▁adjus
▁myocardi
ophag
▁nitrogen
▁kinetic
▁nasal
▁bacteri
▁ECG
fem
▁nursing
▁artic
▁pancreatic
▁incubation
▁precursor
▁64%
▁inflammation
▁FEV
▁immune
▁inspiratory
icillin
▁TSH
▁radionuclide
5).
▁dorsal
▁respec
▁Ninety
▁astrocy
bloc
▁pulmonary
(2
▁anxiety
▁dissemin
ropha
▁myosin
▁43
▁hypothe
enzyme
▁52
otox
▁56
▁emphasized
▁disseminated
▁10%
ulates
▁EG
▁6.1
▁assayed
TG
▁substantially
▁lowered
carinic
amole
▁treatments
ycl
struc
▁hydrocortisone
▁40-
-[
▁averaging
▁stomach
▁targe
▁ulcers
▁physiological
tations
▁circulatory
orough
athetic
▁5.1
ipitation
▁perit
▁prolactin
▁strain
ypro
arynx
▁Insulin
▁25
▁manu
▁immunore
▁carcin
BV
veolar
▁abor
▁specificity
▁vaccination
wes
-15
▁abdominal
wk
▁reag
▁obstruction
▁hemat
mokers
▁63
▁7-
▁copper
▁weakness
▁trend
▁dose
menopausal
2),
affinity
▁3-
▁serotonin
▁undergo
▁hypothyroid
▁hereditary
▁investigations
▁cortical
▁tyrosine
▁olive
▁posi
▁lutein
▁cryst
▁tubercul
▁dele
tophan
▁nocturnal
▁platelets
apeu
▁asymptomatic
▁affinities
▁emotional
VT
▁0.35
vation
vely
▁detec
valence
ocor
▁(1.3
▁antisera
▁dopamine
▁sensory
▁fetuses
monary
▁Coronary
▁answ
isol
oreal
rele
▁membranes
ococcal
▁3'
▁ganglia
▁bilirubin
▁interferon
▁polysaccharide
▁arousal
inally
frequency
▁phenotype
▁radiographic
▁24%
▁examined
54
▁semen
▁inver
itr
▁Vmax
controlled
▁sympathetic
tingu
traction
▁linearly
▁cyclo
▁transfusion
▁ADP
▁leukemia
▁embryonic
operative
greater
50
▁utilization
▁strains
▁tension
▁microsomes
yclic
▁postnatal
▁chloramphenicol
▁hypog
▁erythromycin
▁provid
arean
▁orally
▁beha
inhib
▁(2
fib
urine
eces
alanine
▁odds
ethyl
otyp
9)
70
urgery
▁fertility
tosis
tice
acetate
7-
▁allergen
nRH
▁8.6
▁Immun
▁melanoma
8%
trition
▁4.4
▁anticoag
otor
▁8.1
▁adequately
omerular
tive
▁21
earing
▁sediment
▁skeletal
▁sensi
estis
▁aureus
▁enal
▁toxicity
▁absorb
▁longitudinal
10-
▁modest
oplas
▁100%
iagn
oglobin
▁tightly
releasing
▁lesions
median
.1
▁melan
▁usefulness
▁constr
▁reflec
itidine
▁dextro
▁plasma
▁mutants
▁autoimmune
tead
▁0.6
▁4.1
▁radiolab
▁prevention
▁epitopes
