▁vaccination
▁molecule
clin
hydroxyp
▁revised
▁pediatric
.1%
▁ampicillin
▁abnormalities
▁intraven
▁excretion
▁levodopa
▁adequ
turb
olus
phosphon
▁antidepress
▁vaccinated
poor
isole
▁hypotension
induced
▁1.5
▁pancre
▁sedation
▁clinics
▁adrenal
▁progestin
▁rup
▁comparative
▁clom
▁antibiotic
dominal
romes
iability
▁infusions
▁lumbar
upus
▁prol
▁contraction
▁293
▁pancreatic
▁propionate
▁(500
▁22%
oxic
tified
▁underst
▁cytochrome
▁balloon
▁crosso
▁antidepressants
▁smo
▁sodium
▁(400
▁gonadotrophin
4)
▁diaz
istar
▁glycol
▁2000
▁regulating
itro
▁Optimal
llate
/3
ecal
regn
▁splenectomy
atell
▁0.1%
ayed
▁Depending
urgical
gression
▁lupus
▁4)
-34
▁diastolic
rofen
90
▁cavity
▁tuber
▁(2.5
sul
17
▁melan
rele
▁0.34
.0
▁Calc
▁Higher
▁prednisolone
ergency
ulla
▁persist
▁fractions
▁infectious
▁acetaminophen
,000
▁12%
esium
▁(24
▁cyt
▁interpretations
▁decarboxylase
▁120
▁142
astatin
▁30.
acil
▁nadir
ontal
▁dox
▁5
ucle
▁tolerability
▁0.64
ermal
▁ventricular
tero
4,
enteric
-16
▁Sixty
otox
▁candidiasis
amol
▁300
onas
ogenicity
Ls
▁capsules
▁polycystic
▁Acet
ilol
▁suppor
▁pate
▁postin
adian
▁ulc
▁hypokal
▁beha
ergy
trial
cortisone
istal
▁tablets
rosis
parathyroid
▁modalities
▁calf
menopausal
18,
▁11.6
▁dextrose
absorption
▁stepwise
-18
tions
▁Leu
▁elevate
▁subarachnoid
isolated
▁0.06
▁62
▁iso
urgery
▁165
▁specificities
▁Thirteen
topril
▁inversely
▁invasive
ipolar
ostomy
▁fatigue
▁uncommon
▁transluminal
1),
▁aneurysms
▁adjustments
▁systematically
▁(23
▁Severe
omatic
▁undere
olol
osyl
ept
otoxicity
▁fluids
uretics
▁TSH
tations
▁CHD
▁nifedipine
went
osts
▁vaginal
promoting
▁0.48
▁palpable
▁behavioral
▁progression
▁dosing
▁intram
amicin
▁endogenous
chid
▁glut
prising
▁normalization
tisone
▁otitis
▁multicenter
-0.
▁vitamin
▁tamoxifen
▁routinely
53
▁comple
ensi
▁8.8
vice
▁relapses
▁220
loro
▁(11
▁88%
▁HI
atients
administration
▁10%,
▁interfer
▁subgroups
-1000
tiv
nec
▁serological
▁preexisting
▁colos
▁methodological
▁erg
44
▁pancreatitis
IgM
amethasone
enem
▁prospective
28
▁6.4
intensity
▁esophagus
arrhythmic
duced
▁crom
▁streptococci
inopril
▁Ear
▁pulses
itoring
▁urinary
▁200-
tro
▁68%
▁Doses
▁instrum
etent
tebral
▁amiloride
▁0.4%
▁52
/9
olamine
▁Eighty
glycerin
7%)
▁sugars
▁acqui
lysis
aturation
▁neutrop
▁poorer
▁allele
40
ymp
▁inversion
rotal
▁HL
▁intolerance
▁angina
▁(67%)
▁assis
vaccin
▁ventil
▁hygi
▁agon
▁minus
▁gluten
▁concordance
ventilation
7).
▁22
xone
▁congenital
▁smears
siveness
▁masked
inesterase
▁11.8
▁restric
▁hypothalamic
fine
▁perone
▁critically
▁seroton
▁presumed
▁dermal
▁allergens
4),
notic
▁postoperative
oderm
▁magnesium
mature
▁gonadotropin
ture
epine
▁muc
tec
▁opioids
atab
orbent
▁practitioners
athyroid
tration
▁CAD
▁hepatic
▁14.5
▁compartments
▁9.5
▁polyc
▁46,
▁elevation
▁threefold
▁109
ropath
chlor
lym
▁linearly
floxacin
▁hypocal
▁incis
▁splenomegaly
▁Forty
▁0.2%
▁(1.0
▁physici
▁(9
▁modif
seud
▁Screening
▁111
.4%
▁loos
▁metastases
▁12,
▁81%
LR
astric
▁ineffective
▁bip
▁lisinopril
ispanic
▁azathioprine
resist
▁incidence
▁curric
▁thrombocyt
▁competence
▁0.14
▁inflammatory
atient
▁extensor
▁cytoch
▁9,
▁interc
▁0.75
▁recurrent
▁-0.
▁prostatectomy
86
▁fetus
▁abd
ughter
▁tendon
▁ison
tance
ycin
▁multiv
6-
▁diabe
▁sequenced
▁Ace
▁recurrences
arate
▁chol
▁verapamil
▁(24%)
▁13.3
▁immunoblot
acental
▁prevalence
viron
▁(0.4
0-
▁fluoxetine
▁familial
▁3
smokers
ophilus
positive
itriptyline
▁Transi
crip
▁tiss
▁modifying
chers
▁100%
▁nocturnal
▁0.6
▁Significantly
▁thresholds
▁quadrup
▁pharmacokine
sectional
▁encompassing
▁fibros
▁outlet
romised
yclo
5%),
eptic
responders
▁vomiting
lowering
▁unclear
▁98%
▁morb
olitis
▁Chlamydia
olism
▁Transient
▁ulnar
ochemical
-24
jac
lated
▁amn
▁calculi
ipheral
urrence
▁unaffected
▁concomitant
▁39%
rometry
attern
▁bicarbonate
▁reas
acerb
cis
▁49
▁cic
▁symptom
▁births
-22
▁diazepam
▁irrig
▁incid
moking
▁Depression
▁MM
▁immunosorbent
▁ischemia
cessive
▁antenatal
▁multivariate
molecular
ulant
iotic
ovascular
▁poten
▁eradication
▁(76
▁Compared
amide
▁PEG
▁Acad
▁(2),
▁Combin
GH
7%
20
▁dizziness
oag
HF
▁0.19
▁Sulf
▁ibuprofen
▁absorp
48
▁clonidine
▁stimulants
▁56%
ischemic
▁obser
▁exacerb
▁worsening
▁tendons
▁17%
▁assessing
tam
▁preserving
▁immunogenic
olec
▁2.1
individual
▁Replacement
/6
angiotensin
azepam
▁interf
din
mL
2.
aemic
▁sti
▁139
ocyt
▁confers
▁osmotic
▁thyroid
5;
▁(70
▁subfractions
ypical
ticular
opr
23
rents
▁2)
▁conception
tiary
▁20%
▁resistant
▁perfor
▁neurotrans
jected
▁60
▁107
▁128
iplinary
▁supplements
▁(15%)
▁injected
ysts
lob
tensives
▁ferritin
▁37%
opramide
ophen
▁radiography
▁avail
opulation
▁Addition
tissue
NB
2-
retic
▁endarterectomy
terone
ameter
▁gonadotroph
▁Sensitivity
▁28
▁0.60
▁(250
▁unstable
tious
tant
onephritis
▁diabetic
▁dissection
▁0.3%
▁compounds
romy
▁assessments
▁-10
igaret
echn
-2
▁questionnai
8)
▁750
▁Infants
▁121
▁dermat
▁serum
vedilol
▁(33
selec
▁quantit
atum
▁2.5%
inj
▁Escherichia
12-
▁percentile
immune
▁positives
▁Bacter
64
tir
0%),
till
9,
▁nasal
chol
rease
▁4.2
sive
▁ascorbic
▁chlorpromazine
diagn
▁intest
▁trimester
hips
yel
thirds
essive
▁uniquely
▁psycho
teria
▁detectable
.9
actam
▁triglycerides
amycin
▁(50%
▁3.9
▁extrac
▁investigators
▁0.28
▁hypothal
▁esters
▁arteriosus
▁immunogenicity
▁persis
exposed
▁chan
▁2.7
▁102
invasive
▁(1),
▁76
determined
▁0.65
▁glycosyl
herence
▁propor
▁1.9
administered
▁Estrogen
▁chlor
▁dysplasia
▁Symptom
clic
▁166
ronch
▁angiography
blocker
▁Secondary
▁counseling
ymptomatic
onin
▁discom
atoid
▁CDC
▁contaminated
▁biphasic
▁receptor
▁stu
▁simplex
piratory
onstric
aminase
protein
▁24
oretic
▁stratif
▁quinine
▁topical
▁discomfort
ionic
oprol
▁187
vascular
▁(0.
▁rotavirus
MH
▁hematuria
▁41%
▁yielding
tally
0%.
▁prophylactic
MW
▁Candida
▁CAP
▁thrombotic
▁compartment
▁Hyper
▁extre
onography
▁ICU
ethyl
blockers
▁attributable
27
erant
meth
▁270
azole
▁(22
▁0.62
kage
▁regression
▁elimination
▁(25%)
pirone
contrast
1;
▁attemp
.8
▁Significant
crib
1.
▁blot
91
▁80%
▁fasting
early
opar
▁chewing
eprazole
adjusted
▁rhin
▁unexpectedly
(6
oil
▁formulation
▁venous
▁abdomen
▁undergone
ignific
lamydia
▁radiological
ulitis
timal
▁158
▁87%
▁theoretically
▁adverse
containing
▁2.5,
▁19
treatment
▁optimum
▁40%,
stress
▁anomaly
▁objec
▁5.7
▁dextro
olam
▁0.54
eeding
▁BMD
▁strains
▁100,000
trover
omat
fraction
▁angiotensin
▁swit
ococcal
ogenous
▁neonatal
▁vascular
43
meas
othiaz
ritis
▁disturbances
ocrine
▁intrav
▁substitution
▁testosterone
thick
▁spontaneous
▁daytime
▁proce
▁selec
▁stent
▁discharge
triglycer
▁arter
▁serologic
▁Hyp
.5.
▁lumb
osac
▁antipsych
▁epidemiologic
▁diminished
▁metronidazole
jun
▁33%
▁unipolar
▁carcinoma
▁ingu
eclamp
itone
▁infants
200
▁attain
astatic
▁fluc
▁1990
▁EB
▁pell
▁HS
▁fibrosis
▁duplex
▁specificity
ardia
tents
▁2.5
▁homogeneity
porting
aldosterone
▁confir
▁lowering
oskeletal
87
18)
vail
▁qualitative
▁0.52
▁obstetric
▁Phen
▁quotient
▁schiz
▁premature
atosis
▁plateau
▁couns
37
▁118
thyl
tical
▁buspirone
▁asthmatic
▁strokes
blood
▁plas
▁cyst
▁glyc
▁0.70
▁30%,
risk
▁pem
▁insignificant
4%)
▁TP
▁cystic
▁rheumatic
cemia
▁pyr
▁(8
retin
▁deviations
osal
▁0.25
amines
esic
▁heterozygous
▁plaques
▁(150
▁cartilage
▁membran
▁gonadotrop
▁predicting
▁logistic
▁maneu
-90
▁evaluations
▁oss
▁scalp
▁113
▁tox
▁luteal
gm
▁Urine
oconazole
tussis
tency
▁methodology
▁latex
▁10,000
10)
▁10.7
▁glycoprotein
▁menopause
androgen
▁morbidity
ranial
initi
▁0.04
▁(1
phine
▁hypog
▁abstinence
AFP
▁84%
lep
▁(16
tiguous
)],
anding
anic
phil
▁omega
▁admissions
▁malformations
▁Arter
▁syphilis
luded
▁influenz
▁ascer
▁IgG
▁modality
6;
▁eliminating
▁LD
▁HSV
▁90
6,
▁Likewise
▁10,
vertebral
▁0.98
diagnosed
▁17-
▁sero
xate
▁symptomatic
occal
oxicillin
ranolol
ocytes
1)
▁50-
▁enalapril
▁cytologic
▁151
▁1980
▁185
9)
▁7.8
▁perc
▁(=
ogl
▁nitro
▁intran
▁13%
▁incontin
▁Diagnostic
▁cortisol
apine
diabetic
imens
▁18%
azone
▁grains
sion
▁cerebro
▁mobilization
▁50,000
▁(1.6
▁rupture
▁obstetr
thmatic
▁(92
▁85%
▁inhibitory
plasty
▁-6
3;
ocortic
tition
flammatory
▁0.66
50
▁164
▁referral
ordial
-9
(1
▁persisting
temperature
▁tetrac
tigo
▁adequately
osin
▁dexamethasone
acetic
▁transmitted
▁diffic
assium
erad
▁statistically
erent
rhy
▁socioeconomic
▁203
▁1%
pine
▁Holter
▁4-5
▁99
dic
psych
mokers
▁cuff
▁anhydrase
▁reversed
▁tas
▁rebound
▁152
▁atropine
▁7.6
▁ery
▁0.01
00,
opro
▁ana
iteal
▁cutoff
▁(67
phosph
▁fibr
▁reversing
▁(42
duction
hea
▁psoriatic
cepti
▁63%
▁RAS
orption
idney
▁11.5
leuk
4-
▁progest
plas
▁mIU
▁prescribing
achn
▁cardiovascular
ographically
Hyp
ochrom
▁examining
▁psor
▁testicular
▁pneum
▁palsy
entile
▁scientif
▁verte
ipid
▁enrolled
orrh
▁cyclosporine
▁isoniazid
8]
▁corticosteroid
▁0.49
▁ket
▁physiological
ocomial
trum
▁60-
▁hypoth
▁Trial
▁dehyd
▁polym
▁abnormality
▁elic
▁retard
▁identifiable
▁carc
▁9.0
HDL
zard
▁jaund
vular
▁88
▁numb
▁66%
▁13-
▁IU
▁(10.
▁recipients
▁malabsorption
tin
47
▁86%
▁0.23
▁2,
▁benzodiazepine
▁Fifteen
▁electrodes
▁phon
▁sten
asic
orectal
.0)
▁7
▁infec
▁(21
▁immunocomp
moderate
▁solitary
▁deterioration
acin
-70
▁fung
▁nausea
▁sple
inol
▁4.7
pregn
significant
▁glands
▁pyl
▁100
ocytosis
▁precur
▁hepat
▁Vitamin
▁68
roxy
oxetine
▁methotrexate
oxif
ereb
▁3.2
▁compli
sodium
▁suscepti
▁osm
▁hir
▁serologically
ymptom
▁endoscopy
▁implants
▁85
▁ionized
ods
6%)
322
▁0.76
mediately
▁quantif
▁aspec
▁exhaustion
▁valve
▁endoc
▁Twelve
8).
tural
▁herni
▁anemia
acting
▁penicillin
▁posttreatment
▁0.99
▁antioxid
daily
▁acutely
▁lacks
▁14
▁36%
▁200,
.9%)
tinu
▁tibial
owel
▁unilateral
▁monit
▁appropriately
▁postmortem
uran
reatine
acids
▁adolescence
▁bumetanide
ffin
yrib
▁0.22
▁maturity
▁supr
/12
▁7.5
▁physicians
▁cephalosporins
▁fibrillation
▁qualit
▁heavi
either
▁satis
▁serotoninergic
▁181
Gs
icine
▁gynec
▁systolic
▁16
bral
▁41
omethacin
▁6-
▁(95
25,
▁86
▁evol
▁supplemented
enal
resistant
▁reactivity
thromb
▁outpatients
/4
ococcus
▁spinal
bumin
otonic
▁lovastatin
▁pharmacologic
edding
▁circumference
▁nondiabetic
▁salbutamol
▁bac
-5)
ureth
▁initiation
▁sensitivities
irubin
▁9.9
▁chorionic
ophag
acr
▁adjustment
▁traum
rowth
ophy
uprofen
othal
▁provid
▁(84
sied
▁carp
▁experim
▁hemat
luding
▁contamin
lobin
opa
▁nonc
▁fertile
▁stratified
▁persists
▁adenomas
▁Alz
▁sediment
▁electroly
▁pathologic
▁techniqu
▁0.15
aryngeal
▁insufficient
▁untreated
scop
▁hemorrhage
orrhea
▁correlates
▁protoc
iasis
▁hydroly
▁0.47
▁spon
▁precursors
▁placental
xime
▁Myocardial
▁NSAID
▁thromboemb
66
▁Surgery
▁0.01).
▁60%
▁autosomal
▁spre
▁48
▁socio
osom
▁2.6
▁juven
▁stimulation
▁bacteri
odon
▁hypogonad
▁8.3
▁communic
▁Multiple
▁resis
▁21%
000.
ocusing
▁exer
▁avoidance
▁sampl
▁endoscopic
▁potent
7)
hep
▁PEF
sych
▁Measure
▁ankle
olerance
▁Oral
▁nodules
▁hepatotoxicity
▁249
▁spleens
▁possi
▁TM
geal
▁15,
oretically
odds
▁5.2
▁anhydr
42
▁canc
▁neurogenic
▁accep
vic
▁commerc
▁RR
5),
▁133
▁Fourteen
▁occult
▁urea
dihyd
▁168
▁cardiac
57
glycer
▁6.5
DH
▁(32
▁5000
▁arthritis
▁Calcium
eclampsia
▁predominant
6)
omial
opathy
▁chlamydial
icillin
▁23%
ithin
▁Relative
ardized
▁whee
ituit
examin
▁mucosa
tice
▁(18
ichia
▁nitrogen
▁nec
econd
ochem
▁162
aminated
▁retinoids
▁MH
▁gly
▁repor
ilization
▁dermatitis
▁brainstem
tur
▁prenatal
▁propranolol
feron
24
sively
▁antigen
▁(16%)
2/
/7
▁56
-1
▁damaging
oxid
sibility
▁concentrations
median
angl
sibly
enicillin
▁defec
molar
okinetic
▁hypothe
loxacin
▁polyp
ticle
▁oxytocin
▁25,
▁suppressive
▁99%
▁malignant
motic
▁cohort
▁topically
▁23
▁erythrocyte
▁ratios
▁46
▁vigorous
ventional
▁tib
▁-2
77
▁memb
▁hypoxic
▁quanti
timate
▁squamous
immun
▁ovulation
▁marginally
omal
▁amoxicillin
▁defects
▁dietary
/2
▁4.
versely
▁confound
imination
oratory
▁dye
ospor
▁flexor
▁PSA
▁21,
69
▁clot
▁(56
▁initiating
▁7.2
▁incision
osamine
▁substances
▁correlated
▁tricyclic
▁90.
reased
etoprotein
2)
mental
carotene
▁infarctions
tyl
▁ingestion
73
▁Prospective
▁splen
▁termination
▁recor
▁1960
▁protec
▁neoplasm
▁5,
▁emboli
tics
orac
▁66
▁requi
.1,
▁195
ediatric
▁enlargement
▁citrate
▁antiarrhythmic
▁EG
usp
63
sess
measured
▁acute
▁inadequ
▁adjusting
▁Consequently
iol
▁vancomycin
▁deleterious
▁MIC
▁yielded
▁stools
▁fla
▁AFP
illin
▁inges
releasing
26
▁nephropathy
▁grouped
▁phenotype
▁prophylaxis
ochrome
▁bipolar
hospital
▁anticholinergic
taining
▁potassium
▁osteoporosis
▁(100
-17
▁hypothyroidism
▁Thirty
▁titration
atible
terin
ocor
▁actin
coronary
▁impairs
▁3-
oxygen
▁adi
titis
▁histology
▁tremor
ofl
▁implicated
▁pim
▁percentages
▁lymph
.1
▁124
▁intravenous
▁(31
aturia
partum
▁0.55
acchar
pressing
▁definite
ylic
▁83
▁5)
▁malign
obl
onc
▁12.
▁(63
▁correlate
parathyroidism
55
olated
▁calcitonin
lyb
▁readings
▁estrogens
IgA
▁cysts
.0,
▁gastric
0)
▁Insulin
0,000
cture
▁microscop
▁VV
▁pneumonia
omotor
▁42
lobulin
▁zinc
Ts
▁offspring
10,
fal
▁38
▁progressed
yzed
tia
▁wk
▁7,
tomy
▁Hear
▁methadone
-66
inemia
sives
average
12.
▁132
▁fetal
▁Respiratory
amphen
tivation
▁atten
▁bladders
▁detrimental
cutaneous
▁radiographic
▁carbohydrates
▁decarbox
traumatic
▁agonist
▁tomography
▁perioperative
▁detec
5-
▁sucralfate
▁150
▁0.30
▁tubercle
oglobin
-100%
▁5.0
▁complications
▁hospitalization
ungal
▁stimul
▁alb
antoin
▁pec
▁plasm
echanical
-60
▁clamping
▁(26
▁complication
terase
▁48%
▁Neu
▁1986.
armac
amuscular
▁nebul
▁colonic
odine
▁gentamicin
tingu
weighted
▁HPV
▁114
tisol
▁electrolytes
▁transaminase
▁0.43
▁Complications
▁Hb
▁colonization
reas
bac
▁physi
▁tolerate
▁menopausal
▁mucos
wes
PCR
▁PCR
▁titrated
-2).
▁localized
▁167
▁2.
▁advan
600
▁cyc
▁newborns
ocarcinoma
▁calorie
▁subgroup
tosis
▁leukotriene
▁6.1
adders
▁79%
▁130
patients
▁Streptococcus
▁quoti
0.8
▁24,
▁OA
▁10.4
▁(1.2
▁192
▁hemorrh
▁intrauterine
idase
.7
▁differen
aric
timulus
Ra
▁lith
▁mann
▁efficac
usate
▁antibiotics
dition
▁caloric
▁occlusive
▁prescrib
-20%
aryng
▁pH
.5%
▁allevi
▁6.6
▁IB
▁0.40
tures
▁unrelated
▁reliability
▁cereb
DV
umetanide
▁hyperg
▁outflow
▁rash
ordin
availability
▁contraceptive
▁NP
▁Comparing
3.
▁(94
vac
oprolol
olesterolemic
▁TMP
▁neoplasia
▁elec
▁twofold
▁dyspnea
▁156
pregnant
trast
venty
razole
22
atology
▁proximal
▁recurred
▁radiologic
▁articular
atical
ominant
bearing
produc
▁Exercise
▁anoxic
aryl
▁limbs
eric
▁sulf
fir
▁61%
▁simult
▁carbam
▁hyperlipidemia
▁supra
hetamine
8.
tis
▁hormone
▁lipid
▁Estim
▁IgM
thood
▁pyrid
▁89%
▁randomized
▁neurolep
▁hairy
enol
▁mite
▁39
▁manifested
openia
▁condensed
▁bup
▁pelvic
atectomy
▁atherosclerotic
▁transient
▁endo
teroidal
entral
▁subc
▁summarized
▁alcoholic
▁depres
▁influenzae
▁hyperch
▁heterogene
clinical
troph
▁atenolol
1).
ocin
▁89
triglycerid
13
▁simplified
-400
▁nonf
▁clinician
21
▁145
tein
tif
▁Clinic
oidal
Hg
▁prostaglandin
ration
lec
cad
▁acids
▁incomp
▁superficial
nine
0.
3,
▁CG
-50%
▁0.97
▁hydrocortisone
caro
odular
▁40%.
▁Mild
ariate
▁Registry
ffe
blind
▁regimens
▁hospitalized
▁Comparative
▁predominantly
▁artery
rati
▁intrap
cribed
▁4.6
▁Coronary
generation
▁fati
▁retinal
anking
▁carriers
gus
▁underwent
jec
▁bilateral
▁bacteremia
promazine
▁subdural
arous
▁thromboembolic
▁Fifty
▁manu
▁cranial
eak
▁divertic
▁(0.6
▁infancy
▁Exc
▁responsiveness
▁minimally
rected
▁amput
▁159
▁progn
▁1983
▁10-
▁5.8
hydr
kely
▁seropositive
▁AO
aminophen
▁repro
restricted
▁77%
▁preparations
▁alanine
▁51
▁creatinine
▁proportions
1:
▁exce
89
-2.0
teroids
▁adherence
hypertensive
insulin
▁parox
▁thi
▁62%
atally
▁112
ventricular
▁menstr
illus
▁respiratory
▁hypocalcemia
tage
▁37
▁stratification
▁101
82
▁monitored
▁analgesics
▁intercourse
olytic
▁synovial
trates
▁benzo
▁Engl
organisms
▁gon
opamine
▁92
ecu
tionally
▁usefulness
▁sexually
ducing
▁streptococcal
▁pregnancies
▁GAD
▁immunization
imeth
▁69%
▁mU
▁0.27
ergen
▁foc
resis
anide
opam
vitamin
cyt
▁resour
▁lesion
▁20-
creatinine
▁pep
▁hydrop
tory
▁confirms
▁200
▁reser
▁enl
odies
▁hypertension
ophil
▁oste
▁(50
tension
▁calor
▁intermedi
▁metoprolol
▁dipyridamole
▁differed
▁neon
▁leuk
▁physiology
▁emo
▁thir
effects
inamide
▁3%
▁pigment
▁lymphocytes
phal
0.3
olig
rox
Tu
▁dysfunction
4/
▁efficacious
sus
▁Ig
trop
onad
▁DBP
strain
▁-0.0
chloride
▁duodenal
▁thirds
▁reduc
▁computerized
vivors
TSH
idne
▁oxy
▁endometrium
▁pertussis
oracic
▁underestimated
▁psychiatric
▁analgesic
▁gases
▁intrac
▁amplification
lamy
opus
tional
▁hyperthyroidism
▁Lact
tine
anad
▁embry
▁unresponsive
edema
omegaly
ucose
2),
▁1.
rays
stim
▁129
▁myc
▁herpes
▁Assess
▁thyroidectomy
▁0
asses
▁hemoglobin
▁implying
▁MRSA
-14
ysm
▁polyethylene
OH
▁dementia
otoxic
osus
▁eccentric
.5
▁carbonic
-13
▁elevations
▁(50%)
idis
▁subcutaneous
▁7.
▁54%
▁193
▁construc
▁endometri
ocardi
▁30%
▁adipocytes
oprotein
▁intraepithelial
▁(60%)
acterial
▁Increased
eded
▁stres
00
-3
-19
inic
▁neurop
uncture
ostatic
urea
exercise
▁coordination
▁captopril
illar
ulants
▁undergoing
▁myocardial
ocl
uin
67
icep
▁sequentially
rance
▁(0
▁dias
obenz
▁Abnormal
eal
▁ulcer
▁yeast
▁questionnaire
▁suture
▁latent
▁Seventy
ectable
▁withdrawn
▁parac
▁acet
▁8%
▁hypothetical
▁TS
▁cruc
▁anesthesia
▁abl
▁aspartate
▁perforation
▁Myc
pig
▁parental
▁1.7
▁nonsmokers
▁0.50
▁adop
ruc
▁fulminant
▁femoral
▁Thir
elan
▁Neuro
▁10.0
▁103
▁terat
▁psoriasis
▁antagon
▁PCO
▁hepatitis
trol
▁smear
▁TC
▁HB
▁tac
▁35-
▁indi
▁duc
Bs
bacter
▁efficacy
reactive
39
posure
▁keto
anol
▁neutropenia
▁autoantibody
▁0.07
▁aggression
▁104
▁cros
▁deform
▁induce
▁angioplasty
ionine
▁valpro
BMI
▁rehabilitation
▁gradi
▁weakly
▁0%
albumin
▁reproduc
.00
▁fatty
▁Doppler
▁119
▁bilirubin
▁122
▁(82
chlorothiazide
acute
▁reversible
▁adjus
▁caro
utions
▁(28
trin
▁CRP
▁constituted
ervical
▁gonad
▁18
portant
onate
▁cumulative
enters
▁0.44
▁reproductive
▁substanti
▁chloride
pli
▁leukocyte
▁lacked
▁106
▁mildly
▁2.8
▁practitioner
▁empir
▁migraine
ociation
▁spasm
▁LV
irds
▁0.56
tig
▁45%
athioprine
▁criterion
uted
dia
▁hyperb
▁94%
tential
/8
tran
ducts
▁glomerul
tioned
idone
▁vitamins
-1).
▁aluminum
/24
▁persistently
▁(5
▁uncontrolled
▁diets
erate
rosemide
urate
acet
▁atrophy
ults
▁desm
76
plemented
▁exhibiting
▁hypon
▁5.4
▁cerebrovascular
▁contracep
▁voluntary
▁(80
▁(1.5
▁hyperthyroid
▁(8%)
▁anticonvulsant
▁folate
ometri
▁bradycardia
▁Combined
▁sonography
▁prognosis
▁5%,
thmic
astolic
▁1-
▁hygiene
▁fracture
9;
▁9-
sensitivity
▁SG
tent
▁Progesterone
2%
▁HLA
SAID
lood
▁LM
▁(48
▁(5%)
▁Apgar
aturity
tigu
yclic
▁1.6
▁noninvasive
▁decreases
▁agglutination
▁147
▁11%
▁fas
▁retention
▁tran
▁sput
▁endpoints
articular
▁8.1
▁unchanged
▁Risk
radi
▁resol
3%)
▁Increases
▁leukotri
lytic
4;
▁0.
▁900
dine
▁100%.
▁(3
ucl
mol
ected
▁48-
▁promin
▁diarrh
▁infertility
▁17
▁postnatal
▁Identif
▁60.
leu
pecific
uled
▁varicella
▁2.3
000
▁endometrial
▁antif
▁conges
▁54
orpor
▁amniotic
▁algor
agin
▁83%
▁secreted
▁13,
0.0
▁perfusion
▁regimen
▁20.
▁inhaled
▁arterial
19
3-
.6%
vices
tively
▁erythematosus
flamm
▁stren
venous
otting
25)
orh
amphetamine
34
abd
ophilic
responsive
▁Examination
gia
yro
▁biopsy
▁Findings
▁investigations
9).
▁circulatory
▁hyperglycemia
▁144
▁occl
▁palp
▁medically
▁0.45
▁ank
▁0.12
▁duoden
▁35%
▁irregular
80
▁Functional
▁analogue
▁stenosis
phen
▁discon
▁gestation
▁lifest
▁SPL
▁pati
adder
▁31
▁51%
▁neuropsych
7.
mented
▁Reduction
▁placebo
ofil
▁orally
-6
▁caries
▁exceeded
▁Bac
▁71
OA
▁resonance
▁(38
thmias
▁decreas
▁aspirin
ritish
▁severity
SBP
▁inhibitors
▁interventions
▁aureus
7,
▁modeled
▁196
▁Alzheimer
▁DMP
.0%
▁variability
▁deficit
eared
▁regurg
▁transfusion
▁bronchodil
▁55
▁344
▁placent
brom
▁antis
ecre
▁antibody
molec
▁paternal
▁paral
▁allergic
▁tumors
uting
uplex
icin
▁expressing
affec
▁Ib
▁selective
-20
▁dosage
▁consecu
embry
▁immunized
osclerosis
▁enrol
LH
odopa
▁(99
▁opioid
amus
ximal
▁dihyd
▁2.5-
vian
▁retur
▁8-
▁augmentation
▁favored
▁(7%)
ocysteine
▁preterm
▁Eleven
▁hazard
▁inappropriate
▁53%
▁uv
▁insulin
▁43%
▁75
▁doses
tained
DNA
▁abnormal
lyce
▁acces
osomal
▁simultaneous
▁Caucasian
▁anomal
vity
odipine
muscle
plementation
▁8.0
▁antidepressant
▁prolactin
▁Evaluation
▁LMW
0.1
ditions
▁febrile
▁melanomas
asone
hydrox
-1.2
▁4
▁IgA
idazole
▁dopamine
▁confirming
▁transplant
▁20,
▁compositions
spective
tensive
etence
opres
▁attenu
▁DF
▁microorganisms
▁reticulocyte
thma
centr
erving
oste
▁increments
iminary
teral
ximum
65
robial
stro
▁discriminant
▁Reduc
tide
▁-5
▁addic
▁cen
opause
▁80
78
▁kidney
▁susceptibility
▁cyclospor
▁genotype
▁(3)
▁carbohyd
▁cyclo
▁acyclovir
EMG
▁recordings
▁immunos
▁exud
▁36
years
▁ultrason
49
▁saphen
▁24-
▁1986
▁testis
▁exis
▁transverse
▁BV
▁tubercul
▁0.08
▁chlorhexidine
▁(93
CRP
▁reac
gestin
▁Lymph
▁halves
▁anatomic
▁perin
▁recr
▁previ
4%
▁excision
▁cerv
▁186
tate
▁30%.
▁nodule
▁viral
▁differentiated
▁15%
▁rheum
▁benign
-2)
oluble
▁latency
▁hyperlipid
▁encomp
▁(2
ths
esia
▁bladder
▁adhesive
▁hydrophilic
12
▁cate
▁0.80
▁vaccin
oagulation
▁titers
▁0.20
▁quantified
▁cultured
▁nonresponders
▁96%
▁CHF
assi
acted
▁pharmacy
hion
▁retrospective
▁hypo
oplasia
▁tol
▁buc
▁wors
▁40%
▁paroxys
coated
▁hematologic
roat
▁junction
▁improves
▁combin
▁epilepsy
▁280
▁immun
▁hered
▁postoperatively
aceous
▁3,
▁2.9
▁shorten
▁effusion
comitant
▁clu
▁adulthood
disc
fractions
▁1)
▁Histologic
▁infar
▁horiz
hydration
▁graded
▁72
▁fluoro
tive
▁symp
▁21
(3
▁(3.0
6.
sia
▁(2.6
roxen
itonin
▁11.
▁retin
▁hetero
1-
otri
▁inver
▁arrhythmia
▁105
▁cann
▁pathology
▁estrogen
▁deposition
▁esterase
▁eryth
▁91
▁demonstrable
▁8
▁kinase
6%
▁Gluc
natal
within
▁clon
tially
▁relap
▁biop
▁experimentally
5)
▁59%
▁Chronic
▁73%
letion
▁0.13
havi
izine
0%).
▁inadequate
▁equivalents
▁bronchoscopy
kets
▁sham
▁hypertro
▁sulfate
rogenic
▁9
upuncture
▁cholest
alian
▁19%
▁postural
ogens
▁Staphylococcus
▁cortic
▁sorb
▁HDL
▁infrequent
▁Injection
▁bloc
▁NSAIDs
dered
osacral
▁conflicting
uminal
Cs
ifed
▁elective
▁Afric
▁exhibited
▁transi
▁studi
▁Concentrations
▁PMS
14,
ficial
▁converting
▁obese
▁favorably
▁synthesize
amel
-6,
pecies
orsal
▁blockers
dent
▁celiac
ilep
ampl
1.1
▁adenocarcinoma
▁suction
▁1500
▁58%
▁31,
yrox
farin
▁exten
▁derange
ller
▁cesarean
▁microvascular
▁tolerated
▁kinases
▁126
ococci
▁vasoconstric
▁amo
700
▁197
▁(40
▁10%.
▁hypoglycemic
▁nonex
▁0.2,
▁intermittent
▁anaerobic
ologic
▁43
ipril
▁(300
▁Sixteen
▁125
irub
▁multis
reening
▁paroxysmal
▁cerebral
▁substantially
▁171
Rs
onidine
aginal
orin
etan
▁Nineteen
▁neuroleptic
▁3.1
▁lesions
▁injur
1/
coh
iotics
adication
100
tronic
▁hypothyroid
feeding
▁600
▁0.1
▁shortened
ivary
▁salivary
▁deliveries
0%,
▁Bacterial
▁contractions
▁cohorts
molality
▁nicotine
olone
▁3.0
▁murmur
▁longitudinal
jury
ctive
-5
infection
▁malignancies
▁Thyroid
▁unil
ighted
▁transcription
▁trac
▁vein
▁phosphate
▁(27
▁incom
Ig
▁pneumon
98
▁prognostic
▁carbamazepine
6).
▁arth
▁peripheral
▁esophageal
4.
▁3.8
▁superiority
▁digoxin
▁parathyroid
▁equivocal
▁lumen
▁antec
-7
mum
▁stric
potassium
▁hypertensive
▁97
▁atopic
▁lowers
▁gluc
▁74
▁Clinical
hydrop
vul
adren
▁0.05
▁defic
tic
SDS
erance
▁enhances
16
▁dysp
▁adren
▁20,000
▁seronegative
▁interleukin
▁recruited
▁uniformly
roscop
▁vesicles
▁59
▁venti
ophila
▁micros
imentation
okine
bly
ylase
▁6.9
ionate
▁asymmetric
▁thems
tensity
▁57
▁(9%)
5).
▁20%,
▁reflex
56
▁hypotonic
▁unfractionated
▁53
▁limb
cys
renal
vastatin
erable
▁differing
96
▁anticoagulation
▁malignancy
thi
estions
▁relaxant
▁uterine
▁LVH
uccess
▁phenyl
eptide
ophren
▁imaging
45
▁glucocortic
▁sutures
▁secretagogues
▁ow
eliac
▁mell
7,000
▁edema
▁nif
▁puncture
▁neurologic
yx
▁1000
eryth
▁neutralizing
establ
ifedipine
▁extracorporeal
▁aerosol
▁identif
120
ferrin
▁131
roin
▁derm
tituted
melan
▁calcification
9),
▁bathing
▁schedules
▁islet
▁morphine
▁Hep
disciplinary
▁modestly
tron
▁anxio
dural
epti
▁lep
estion
/10
▁1989
▁microbi
▁psychosocial
▁incub
▁35
▁concurrent
idation
▁polys
▁functionally
▁sci
LDL
▁ultr
rocy
▁Oste
▁anomalies
▁statis
▁seb
▁80%.
uretic
▁accessibility
iphene
umably
59
▁uptake
▁insufficiency
ometh
▁(43
▁therapeu
▁esophagitis
ypro
Pa
▁Comparison
▁fossa
▁hyperactivity
50)
5%,
2;
▁-1
▁Whereas
▁formulations
▁validated
cious
▁90-
41
▁intensive
NH
▁0.5
▁coag
oung
▁benzyl
-45
▁cef
40)
▁regurgitation
▁nylon
▁27
abies
gment
▁creatine
▁allergy
feren
▁42%
▁effic
fusion
▁distinguishing
▁bioavailability
reness
▁antagonist
effec
entical
▁methionine
▁8.2
▁margins
▁fecal
▁intra
plast
viral
▁saphenous
▁spacer
scher
ventil
▁Factor
IU
▁biochemical
▁pla
▁Treatment
▁contraceptives
▁eradic
sian
▁estradiol
▁pharmacokinetic
Cu
merc
otropin
▁nonsteroidal
odop
51
rowing
▁(49
ortal
.6,
▁arousal
▁vitro
▁affec
uria
▁casein
tening
azepine
▁140
▁DVT
avail
▁devi
▁Epid
aind
▁postpartum
▁potenti
agonists
▁uterus
▁hypercalcemia
atitis
▁Maximum
thoracic
welling
▁tes
79
60
▁79
enzyme
▁8.4
▁hemorrhagic
▁mEq
odil
▁33
▁phosph
urin
84
alc
▁guinea
▁traumatic
▁27%
itant
azep
-50
▁8.6
corrected
raine
▁chor
▁fluor
opathology
▁abnormally
▁treadmill
teroid
uric
ystic
▁alternating
▁91%
▁pulsed
mia
▁benzodiazepines
iae
▁diuretic
atif
▁Disease
▁indus
▁ovaries
▁teratogenic
mittent
▁produc
▁0.1,
.7%
▁judged
▁29,
loride
ealand
▁198
▁endemic
▁hemo
▁scre
▁intake
▁obesity
▁3.3
fiber
entified
-65
▁undergo
▁deviation
▁(17
▁antibodies
odia
▁diffus
2,
▁infrared
▁55%
▁0.29
▁115
azoline
ovastatin
azol
pH
▁4-
bladder
▁70-
▁9%
osterone
▁pneumoniae
▁clinicians
▁graft
odium
▁epidural
▁Diabetes
owever
▁propensity
ritic
threatening
sies
▁63
▁75%
▁confounding
▁elevated
trac
▁3).
opril
▁cys
▁cytology
hyp
avage
▁skeletal
▁5.1
0.9
▁splenic
▁identi
aturated
oglobulin
inum
▁0.0
▁dilatation
▁Conventional
▁Haemophilus
18
ucas
erebral
brile
▁cured
▁72%
▁irritation
▁choles
▁enamel
▁1.25
▁pylori
▁goiter
▁Swed
3/
otypes
▁16%
▁(95%
▁congestion
yrid
▁adap
conver
▁diagnose
▁overt
ocaine
▁brom
▁mitral
▁blinded
▁successive
▁effec
▁serotypes
enin
▁lapa
iline
2,000
▁vertebral
asal
▁Initi
%),
▁bic
▁0.24
▁proteinuria
2]
coun
▁metoclopramide
▁covari
▁nonpregnant
7;
ithelial
14
▁positively
ropathy
▁moderately
oneph
▁unres
gely
▁focal
idated
estis
▁80-
▁fixation
respective
▁artifact
onine
opo
▁adolescent
▁0.21
▁transferrin
▁instrumented
cellular
▁cutaneous
▁neonates
▁gradual
▁postmenopausal
▁256
▁increas
▁unexplained
tral
▁prospectively
▁antim
▁coli
inally
zyme
▁shor
▁discontinu
ordance
tracted
ophys
reasing
▁84
▁ureter
wk
▁inducer
-40%
▁177
rosy
▁excised
onyl
▁bony
32
▁preoperative
▁paradox
throm
▁9.7
ustained
▁worsened
genic
▁renin
epines
▁thyroiditis
mend
hene
lyl
▁Patients
-3.
▁immunocompetent
▁psychomotor
-35
▁neutroph
▁therapies
▁inpatients
▁tec
ameth
▁ADA
5,
▁0.63
▁gland
-4
0.2
▁plasmin
imodipine
▁Epidemi
▁histologic
▁respec
31
▁vulgaris
▁stimulant
▁Infection
▁hydrochloride
▁allergen
ocyte
▁scanning
ailure
8-
▁premenopausal
▁secretagog
▁drainage
▁gum
▁Preliminary
-12
-0
osocial
▁0.4
▁relapse
dil
ithromycin
▁interacted
▁expec
olesterol
▁radiograph
▁coronary
▁embolism
▁ofloxacin
▁proceeded
58
▁tach
▁ECG
lamp
ocys
etine
▁50,
xual
▁ach
▁enzyme
▁Thy
▁ae
▁succes
▁47
▁remo
▁recom
▁echocardi
▁saliv
▁amputation
▁65%
adic
▁32
▁1:
april
▁Viral
▁toxicity
▁expres
▁(46
▁inflamm
▁perox
▁detects
ogenic
FSH
amn
▁initiate
reast
glucosidase
butamol
inase
roscopy
▁Subjects
apamil
▁methyl
romycin
0.6
▁sequelae
▁serotonergic
heum
Ca
▁64
ints
tative
▁10.
ardias
acrine
.6
▁5.5
onegative
traum
entif
azolam
oprim
dial
▁50%
▁deoxy
ocar
▁71%
▁genotypes
ignant
▁accid
▁deoxyrib
ectin
lamin
admill
▁95
earance
elves
odiaz
▁gastro
▁Nine
oxin
tility
reported
▁5-
▁glutamic
▁dosages
ycline
▁causal
anine
▁1200
8%)
BH
▁resul
▁enal
▁1,
andida
▁resec
▁110
▁Investig
▁muscul
gulation
450
▁slowing
cence
▁ejection
▁biopsies
greater
▁emphasized
ductive
▁adul
ilateral
▁laparoscopy
encephal
▁Regarding
▁protr
▁amph
unar
reases
▁CABG
▁unusually
tensin
▁neutrophil
rein
▁12
▁9.
▁tended
▁1970
▁700
▁34
▁augmenting
90)
▁fum
▁29
▁pleural
▁5.6
responding
trib
aminop
tection
reactivity
▁mellitus
arrh
uppression
▁tubes
▁4).
▁averaged
ervations
▁thrombus
lact
▁predisposition
▁abstin
lactam
71
▁uncomplicated
▁proton
▁(25
▁heavier
▁differe
▁(45
▁0.33
▁1.1
-72
▁1.2
▁exposures
anat
95
▁discontinued
umerous
arbonate
▁calcium
▁epidemiological
▁LDL
▁trig
▁calcified
▁67%
▁93%
▁(18%)
▁cla
▁2%
ronchial
▁lor
.4
▁inconsistent
▁5.
▁untrained
glycoprotein
▁disseminated
▁characteris
ffer
▁ligament
▁urine
▁ane
▁examin
▁bromocriptine
▁residual
iagn
▁uric
▁instruc
▁electromy
▁amp
▁adhered
zation
onatal
thre
▁hypoglycemia
▁poin
erated
▁69
▁3.4
▁staging
▁26%
onvul
▁doubled
▁coagulation
▁androgen
arynx
▁173
▁0.26
achial
▁14,
▁aden
▁127
-4.
▁bowel
▁inten
▁subsets
accharide
▁Increas
2).
▁impairment
▁epidemi
tinguish
gluc
▁97%
▁1/
ociated
▁furosemide
▁diarrhea
▁plantar
urrent
▁nosocomial
▁examinations
▁ori
yridine
▁Increasing
▁paradoxical
▁sputum
▁measurable
▁glycemic
▁1.5-
▁coated
plenic
▁carbohydrate
▁fractures
▁ester
▁sedim
▁189
traction
tropin
99
▁promp
gesterone
lox
7),
▁qualitatively
gents
▁paren
rine
cus
▁reticul
▁membranes
Cer
▁77
▁attrib
Hb
▁(0.9
bility
▁Lipid
▁congestive
▁succin
▁serogroup
▁Interestingly
▁demonstrates
▁34%
mortem
▁audi
▁30-
▁EE
▁compares
/30
▁lactation
▁PGA
entia
▁indomethacin
oscopy
▁fulfilled
▁breaths
▁(47
epam
▁systemic
cancer
▁refractory
itin
▁optimally
▁0.10
roph
iatic
▁chemotherapy
perature
toc
tens
▁(79
uterine
oxide
oyl
antibody
▁0.9%
▁12.0
52
▁82%
-8
▁12.5
tial
eces
▁spikes
thyroid
▁analges
▁colorectal
▁promptly
▁arose
ophysical
▁32%
75
▁dorsal
▁conductance
▁HbA
▁thyroxine
omies
▁uncom
scherichia
sequent
▁sugges
▁108
ocyst
▁asthma
lycer
▁Elevated
rogesterone
▁satur
otyp
1%)
▁rhy
▁positional
▁supplementation
▁bronchodilator
ospasm
atrial
▁38%
agonist
▁recurrence
▁BCG
▁neomycin
▁57%
controlled
▁160
ressive
leb
tum
▁contiguous
▁ablation
limb
allium
▁abscesses
▁scarring
▁nonin
erence
iplin
▁manipulation
▁detrusor
associated
▁0.78
▁sorbitol
gthen
▁170
▁aerobic
▁Leuk
▁exploratory
zymes
tus
▁0.46
▁40-
▁nonselective
oporosis
▁conjunction
81
▁0.17
▁2.4
▁practic
▁discriminate
ipro
▁washout
▁250
imin
97
▁183
ensitivity
▁78%
otrexate
▁affinities
dor
piration
▁theore
orec
histamine
nee
▁reinforcement
▁arous
0.7
▁(75
▁amphetamine
sulf
titution
▁aqueous
aline
oride
NIDDM
▁luteinizing
apsulated
▁uro
heat
yroid
▁mammography
▁123
▁exag
▁cancers
terol
queous
▁29%
▁ranged
▁135
▁0.7
3)
ositi
otrop
Ds
thmia
▁40
▁leakage
fetoprotein
-1.5
kine
tinent
▁renovascular
▁unnecess
arean
▁necrotizing
veness
galy
▁0.42
▁impair
▁pharmac
▁preven
▁triglyceride
▁summ
lusion
anin
PV
ocardial
▁(62
▁suppres
▁comprised
emia
aternal
▁airflow
▁paired
sions
6),
atural
▁xyl
xia
▁responsive
▁lipophilic
▁hypers
▁inhal
▁administered
▁musc
idine
▁ketoconazole
enil
▁0.3
▁contex
▁3.6
▁infrequently
▁consis
▁glomerular
▁birthweight
▁secrete
▁heterogeneity
38
▁lateral
▁percutaneous
monary
▁87
▁intractable
tact
▁27,
▁isolates
▁glycosylated
▁thrombo
▁350
▁comprising
potential
utaneous
rologic
▁(12
▁lymphadenopathy
▁newborn
plen
▁hemorrhages
omerular
88
▁enlarge
retion
9%)
▁(1.4
tric
▁valu
▁4.9
antial
▁subf
▁desaturation
▁lis
▁0.11
▁discus
5]
▁tetracycline
onor
▁reflecting
achol
0.4
ocellular
▁Highly
▁syncope
▁unex
plants
ralfate
▁tuberc
▁6.3
▁metabolism
▁5%
esity
▁steroid
▁microscopic
▁blin
▁RS
▁glucocorticoid
▁Bec
oxazole
▁elastic
▁maternal
▁1.5%
%).
▁antid
70
▁atypical
tenti
▁44
▁fetuses
▁cis
▁10.2
300
▁coping
apid
▁ejac
▁Adverse
▁lipids
LV
▁17,
trated
▁demonstrating
ectomy
▁Survival
tering
▁retardation
utable
▁manifestations
▁insoluble
/100
-80
horm
opathic
▁0.00
▁deficiency
▁-4
▁nutritional
uble
vaccinated
▁trimethoprim
-1.
▁apnea
▁ambulatory
▁intracranial
▁econ
▁asymptomatic
▁30
tually
adrenergic
▁DSM
▁90%
▁ELISA
▁saturation
▁inh
▁20%.
▁hysterectomy
olones
▁ventilator
▁dimethyl
atation
▁disclosed
▁crossover
▁underg
▁bacterial
-15
▁92%
▁tuberculosis
▁prophyl
▁Atrial
▁challen
▁81
▁antic
▁rheumatoid
dL
tention
▁airway
▁7.7
ternational
▁ductus
▁enti
▁20
-23
▁Hypertension
94
▁capsaicin
▁synthesized
ovirus
keletal
▁134
▁rhinitis
▁filtration
▁nitroglycerin
110
▁diagnosing
▁(1)
▁clamp
▁tric
▁genital
5.
▁64%
▁47%
▁26
tiveness
▁drinkers
▁satisfactorily
▁ultim
conduc
buterol
▁enteral
▁80,
68
ethylene
▁incomplete
15
▁subjective
▁shedding
▁occurrence
▁cephal
gressive
andard
▁lavage
▁nig
1,
roscopic
opi
▁pneumococcal
▁-3
▁98
▁reflux
▁(7
▁intestinal
▁surgical
▁inherent
certain
▁(6
sue
▁perit
▁alp
athic
▁acetic
▁infarct
▁tibia
8%
amet
uestion
33
▁11,
itus
leukin
adin
esin
▁encephal
▁0.67
-25
▁hypot
▁irrigation
tically
▁restenosis
▁Systolic
▁orthostatic
▁deli
▁restraint
athy
▁carcin
▁albumin
▁mmol
roma
▁hypertrophy
▁correlating
toxic
▁superf
4]
▁stool
50,
▁0.02
▁classify
36
emide
▁8.5
▁mening
teric
onide
arbox
▁Evidence
500
nish
▁8.
▁triglycer
erb
▁(4%)
bran
▁enzymes
valence
-1.0
▁postnatally
otent
▁smokers
operatively
▁(30
▁11
peptide
odal
vival
tested
ausea
▁ciprofloxacin
▁subclinical
gative
-1.1
54
idating
▁0.03
ancomycin
.2%
▁PPD
trogen
▁phleb
▁tumor
▁146
▁contrib
▁beats
ortic
▁6
omatosis
▁metast
▁12-
▁Subjec
▁carotid
▁unrecognized
▁osteoarthritis
9.
▁154
▁thromb
▁scans
▁capillary
▁Haem
▁glycos
▁ND
▁veins
▁25
▁infections
▁electr
14)
-125
ticularly
800
trical
61
pation
▁adip
sible
ayers
▁retinopathy
▁radionuclide
▁Feeding
3]
▁chl
▁compart
▁controver
▁establ
▁16,
▁nontoxic
casein
▁pretreatment
▁ranitidine
▁3000
mur
▁verbal
▁depressive
▁Americ
3%
▁(2)
-52
▁atrial
▁coh
▁mice
ctomy
▁skinfold
▁3.
pecially
▁prednisone
▁retrospectively
erally
▁-7
yste
iotensin
vely
▁CIN
bic
3),
▁bolus
▁uteri
▁imipramine
▁unselected
▁sulfoxide
10
▁obstructive
rates
▁reproducible
tism
isol
▁sedimentation
lycemia
umulative
▁direc
▁receptors
▁(4)
▁(15
ytoin
idin
▁autoimmune
salt
-1)
arial
▁caffeine
▁kidneys
▁stringent
lac
inergic
▁surveyed
▁Surgical
▁100-
▁torsion
▁(1.3
▁activator
4).
▁pressures
▁conduc
/20
▁thrombosis
:1
▁2.2
▁95%
▁glomer
▁respir
▁mono
▁thromboembolism
▁progesterone
▁endotracheal
8),
▁Prel
obronchial
urine
▁overweight
▁Dip
▁endocrine
▁idiopathic
tual
epithelial
▁0.38
▁occupational
abdominal
illi
▁40.
▁capsule
▁acetyl
ophageal
0.5
▁surgeon
▁ascertain
▁10.5
▁tymp
directed
▁incontinence
▁diuretics
▁weighed
oscopic
ulatory
▁1.0
▁doubling
▁weighing
▁averaging
▁definitive
▁65
▁multin
▁hyperplasia
▁208
▁136
▁25-
▁800
▁multim
▁137
▁probes
▁ESR
▁sheath
▁histological
▁anticoagulant
deficient
cysteine
▁117
▁(54
▁diagnoses
hap
▁predictor
▁exaggerated
estrogen
▁viruses
▁predictive
▁7-
▁hematoma
FEV
HB
▁predic
bodies
▁carcinomas
tizing
▁outbreaks
ureus
opausal
▁immunotherapy
organic
▁Tiss
▁Hg
lipid
▁LN
ffec
adm
enia
▁Subsequently
10-
iparous
lude
▁progres
▁validity
▁appendic
tel
▁subjec
▁estimating
▁oxygenation
▁revascular
▁choline
▁exhaus
reduced
aicin
▁immunoglobulin
pran
fate
adine
▁Ps
▁suppression
▁concurrently
ziness
▁(19
▁felodipine
▁euth
▁rhabdomy
▁67
▁deox
▁Meas
▁repres
▁fulf
▁10
▁(75%)
gth
-10
▁0.90
▁ultrasound
▁serolog
quine
▁TCA
phic
partate
▁199
▁glucocorticoids
▁schizophrenia
▁sut
▁throm
▁2-
▁analyses
induc
▁19,
nisolone
roscopically
▁juvenile
▁triceps
oprost
▁dehydration
30
▁therapeutic
▁neph
▁resear
▁preventive
▁CI
ipine
▁peri
intestinal
▁anxiolytic
▁soy
▁cartil
cents
▁noc
vated
▁injec
inflammatory
iloride
▁incompletely
74
▁Positive
▁Diagn
▁50%,
▁Scale
thickness
▁6.2
lyc
▁gyn
ASA
▁amin
stin
oscop
onucle
uscular
▁agonists
▁Magnetic
▁70.
▁0.9
▁hypercal
▁longus
▁lipoprotein
▁elemental
▁6%
▁1.00
▁developmental
▁Pregn
▁disturbance
athiop
▁resection
▁13.2
▁prostatic
▁alcoh
operative
formations
actin
sors
▁31%
▁extracts
botic
▁chemically
fec
oplasty
▁concom
.2
▁dissemin
hyd
tured
▁4.0
▁soluble
▁sati
▁antithrombotic
▁90%.
▁cran
▁immunity
▁Fib
▁protracted
(2
▁TI
▁aerob
▁enteric
▁granulomas
onset
▁Rates
▁excretory
▁14%
▁500
▁MRI
85
olesterolemia
▁arti
versity
▁0.18
▁datab
tives
lys
▁LT
▁penile
▁78
▁antagonists
▁acros
onazole
otassium
▁erythema
lux
gated
▁mortality
▁49%
▁chloramphenicol
orated
▁jaundice
adone
▁Extensive
▁isch
bacco
▁nonspecific
▁headache
▁conditioning
▁eti
acid
29
▁cortisone
micro
▁10.8
▁concep
etal
▁Hyd
ipr
erating
▁differenti
▁Serum
itamin
▁6,
urnal
▁14-
▁abor
▁spor
loid
▁encephalopathy
Ba
▁positioning
▁toge
.9%
▁7%
▁inser
▁0.36
▁6.
acycl
▁96
▁trich
amid
omized
tation
gic
pain
aund
▁1.8
▁205
▁pulmonary
▁acetate
▁25%
▁prolonged
93
▁11.2
onary
opsy
5%
▁188
odic
▁LR
ritin
▁76%
▁rigorous
onit
▁cervical
▁perip
▁ligation
▁decayed
▁carbonate
hers
▁ovarian
▁elimin
xyl
▁donors
oic
▁onset
▁deterior
▁blocker
omiting
-2.
▁ure
▁alcoholics
tiz
plasia
▁0.35
▁11-
taz
▁sepsis
▁mononucle
▁etiology
▁antimic
▁predictors
▁Ventricular
▁regulate
yses
▁lute
▁quantitative
▁inspiratory
▁hypox
▁0.58
itrate
▁4.8
▁Subsequent
-6.
▁glucosamine
▁polysaccharide
▁Tran
timulation
▁supple
▁Sodium
ceptive
▁nonsignificant
▁presentations
▁bronch
oppler
ongest
ostic
adequ
sant
▁elicits
▁aberrant
▁EI
▁Intr
▁esophag
▁benz
▁reactive
▁0.09
urther
▁Patient
▁Angiotensin
▁prescribed
▁15-
▁antich
▁50
▁(44
▁4000
▁regained
▁anat
▁(4-
▁electrolyte
▁reductions
▁rats
1%
▁fertility
▁inducing
unctional
farction
▁elas
/18
▁discontinuation
▁dors
▁(90%)
▁nasopharyngeal
/1
idic
▁monotherapy
▁infarction
▁surgically
▁basal
▁adolescents
▁mec
ithm
▁1
▁Specifically
▁abscess
▁neuropathy
▁aids
▁0.5,
▁somatic
▁155
▁expectancy
▁suppressed
urys
▁4.3
▁normo
▁Benz
▁influenza
▁(14
LISA
predic
▁operative
▁anticoag
▁Assessment
▁inhibitor
▁coenzyme
▁stimulus
.8%
▁tracts
▁arrhythmias
▁retic
EG
udin
cine
▁prednis
▁sensi
▁1.3
▁thre
drug
▁bran
▁0.2
inoc
phor
▁intramuscular
-100
ifferen
▁Retrospective
▁(0.5
▁Few
lives
▁hep
luc
▁assessed
▁0.95
▁WHO
▁7.1
▁0.5%
elec
25
▁struc
▁400
▁expiratory
lax
▁duct
ecretory
indings
ulsive
tene
3).
▁gestational
mega
fat
▁acad
▁100,
agic
▁13
lies
▁46%
erative
oconstric
▁Ultras
▁(0.0
cemic
qui
▁poisoning
▁gonorrh
erver
▁nicot
▁peaked
▁ultras
ignificant
▁thereafter
erge
▁emerg
ilus
72
▁hazards
antibodies
▁infusion
▁aspiration
▁oils
quit
▁3.7
▁gels
▁corticosteroids
olysis
▁94
▁pulmon
enec
▁meningitis
▁placenta
▁exclusion
amphenicol
▁(69
▁bir
▁40,000
TG
▁discharged
▁decreased
osition
▁helical
▁55-
▁Tissue
10.
▁steroids
ingers
▁Estimates
-70%
▁pretreated
92
▁inflamed
▁induction
46
0,
concentration
▁Seventeen
▁pituitary
tivities
▁differentiate
▁Pneum
▁excluding
▁visualization
▁bactere
arrhy
ressing
ergic
▁bronchitis
ipit
▁Statistical
ithi
ioid
▁ischemic
ospitals
▁sampled
titute
pir
▁infertile
▁standardized
iatric
vents
▁receptive
▁competent
quisition
entricular
▁inflammation
▁70
quired
▁93
▁amitriptyline
ported
othi
▁OC
▁generalized
▁vesicle
▁clinically
▁microb
▁peroxide
35
▁postprandial
▁hepatocellular
▁inhibit
vation
▁immunobl
converting
▁bronchial
▁Therapy
▁menstrual
otine
▁markers
▁assay
▁glucose
▁wee
▁1.4
▁(39
▁0.8
▁durations
▁illnesses
▁accounted
▁HBsAg
▁52%
▁157
▁glycer
.3
indolol
▁graf
▁attenuation
iazide
▁Mortality
▁inguinal
▁necro
▁chec
▁lar
lier
▁indo
amole
▁4.4
▁3.5
▁cryp
0).
5%)
ystag
expressed
▁emulsion
▁markedly
▁peritoneal
cholesterol
▁erythromycin
▁screened
uresis
▁1985
oplasm
orphine
treated
▁lidocaine
onomic
eptin
hydropyridine
▁melanoma
▁spi
idespread
▁flora
thrombotic
ylated
dose
▁4%
▁23,
▁194
9-
▁dex
▁Caucas
▁hydrox
▁cholinesterase
▁116
idate
ilic
7-
illary
itidine
▁ulcers
▁persisted
▁abdominal
kelihood
▁indicators
▁grading
elic
▁rati
▁ocular
0%
▁assays
▁antimicrobial
▁outpatient
5%.
▁hypothesize
embran
ffeine
inyl
▁cardi
▁syndromes
duce
(5
▁CN
9%
▁sedative
▁dihydro
▁comparisons
sA
▁omeprazole
ovis
▁evaluating
tropine
▁mL
▁questionnaires
-36
erican
enyl
achnoid
ocomp
▁Failure
▁7.9
▁(1.9
▁hereditary
▁arteri
▁61
/1000
▁reliably
▁rehabil
dle
2%)
oreal
stimulating
▁atyp
▁ppm
oxine
▁172
.10
▁Nutrition
▁metastatic
▁45
▁18,
▁pellets
▁predis
▁(4
▁anesthetic
▁163
ograms
▁pathophysiology
ilin
ipramine
lip
▁panc
▁posi
▁ascorb
▁extrap
esophageal
▁injections
▁70%
▁PLP
▁metabolic
cyclic
▁evid
▁kidne
:3
▁descriptive
▁indications
▁uter
▁intracerebral
▁Beta
osid
▁233
▁PV
▁pyel
▁fluoride
▁FEV
echan
fib
1-2
▁hydrogen
▁340
injection
essation
▁angi
eration
▁induc
▁obstruction
▁colitis
▁28%
yroxine
▁cholesterol
▁warfarin
▁remission
▁cessation
▁20)
▁9.2
83
▁excre
gesia
▁14.
▁rhe
8,
▁enlarged
▁73
▁semen
▁adversely
▁lact
▁clus
▁lithium
▁ect
▁bypass
▁rectal
▁4.5
▁antioxidants
▁176
vant
gA
▁auditory
▁ruptured
struc
▁acidic
apanese
▁quin
rography
▁RA
▁normotensive
▁weighted
prandial
otroph
▁44%
▁BMI
▁detecting
▁intub
▁2.0
▁fulmin
▁pts
▁Ninety
esti
▁multic
▁Factors
▁commercially
alp
▁15.
▁surgeons
▁COPD
oxifen
aryn
▁11.0
otre
▁3)
▁(72
alsy
▁dor
▁10%
dens
▁histopath
▁congen
irc
▁interferon
ritten
0%)
▁4.1
mentation
▁74%
▁distal
cyst
▁categorized
enic
rocyte
▁sickness
▁renal
methyl
oxyl
▁plasminogen
▁cyclooxygenase
▁preceding
▁decreasing
▁suggestive
▁insertion
▁chronically
▁1987
▁polymyxin
erin
▁tertiary
economic
regulation
tors
▁0.41
.3%
▁2
nai
▁favorable
hydro
▁lutein
▁perinatal
tion
tivity
▁targeting
▁parity
▁criter
BV
▁Approximately
▁heparin
▁pooled
ectom
▁symptomatology
tox
▁(10
▁analgesia
▁reflec
ocated
▁15
quid
▁granuloma
62
▁(20
spectively
▁saturated
400
8;
▁ultrasonography
▁ferrous
adily
▁hyperp
▁ech
▁Levels
omycin
▁encompass
partic
ygen
▁5.3
▁frac
▁endoscop
sistent
▁granul
11
ffinities
▁impaired
▁histamine
hexidine
ulose
▁58
opathological
▁24%
▁dairy
▁autoantibodies
▁40,
otor
▁eighth
▁82
▁ventilation
arachnoid
▁drin
▁euthyroid
5%).
-8,
ubs
albuminuria
