▁mild
▁disability
▁controlling
▁deformity
▁cycloplegic
▁catheter
▁onset
▁anticoagulation
▁alcohol
▁creatine
▁hormone
symptom
▁resonance
▁infants
▁deaths
▁Patients
▁expenditures
▁diagnosed
▁tomography
▁vaccine
▁decelerations
▁infection
▁emotional
▁mutation
▁cholecystectomy
▁staging
▁glucose
▁symptomatic
▁palsy
▁mobility
▁awareness
▁reviewed
▁pressures
▁abnormal
▁fractures
▁insurance
▁drugs
▁diagnosis
▁outcomes
▁receptor
▁PET
▁lateral
▁availability
▁metformin
▁cervical
BP
▁scoliosis
▁ICU
▁pregnancies
▁kidney
▁survival
▁ventilation
▁differentiated
▁schizophrenia
▁mothers
▁reflux
▁smoking
▁cohort
▁surgical
▁discharge
▁asthma
▁thyroid
▁assessment
perfusion
▁attending
▁Mosaic
▁rectal
▁GERD
▁aggressive
▁investigated
▁resistant
▁pelvic
▁paediatric
▁myomas
▁predictive
▁ultrasound
▁leukocyte
▁effectiveness
▁gland
▁maternal
▁prevention
▁enteral
▁feeding
▁diseases
▁percutaneous
▁insulin
▁mortality
▁unchanged
▁venous
▁cerebral
creatine
▁hemorrhage
▁Overall
▁radiographs
▁resection
▁interventions
▁clinical
▁Medicare
▁diabetes
▁urine
▁complications
▁neonatal
▁pulmonary
▁hCG
▁LOS
▁acupuncture
▁hemoglobin
▁demographic
▁depressive
▁prophylactic
▁carcinoma
▁professionals
▁ARM
▁cystectomy
▁Emergency
▁tube
▁medication
▁perceived
▁pregnancy
▁intensive
▁HIE
▁Students
▁infections
▁blinded
▁sensitivity
▁healthcare
adjusted
▁relapse
▁uptake
▁recurrence
▁aspiration
ICU
▁menopausal
▁physician
▁bleeding
▁specialist
▁examined
▁dexamethasone
▁questionnaire
▁trend
▁rupture
cerebral
▁monthly
▁ischemic
▁untreated
▁transfusion
▁pneumonia
▁rats
▁stratified
▁necrosis
▁renal
▁tertiary
▁stenosis
▁prescription
▁Cancer
▁inflammatory
▁knee
▁peripheral
▁clinic
▁clinician
▁exposure
▁nursing
▁sodium
▁insertion
▁patella
▁adenocarcinoma
▁offspring
▁mucosa
▁recurrent
▁benign
▁atrial
▁seizure
▁chest
▁ischemia
▁bone
▁spinal
▁tumor
▁moderate
▁fentanyl
▁illness
▁hypertensive
▁implantation
▁intravenous
▁squamous
▁mice
▁cardiac
▁findings
▁hospitalized
▁consensus
▁screening
▁Significant
▁demographics
▁injuries
▁initiation
▁joints
▁Patient
▁odds
▁examinations
▁atrophy
▁plasma
▁arthritis
▁oral
▁retrospective
▁immunohistochemistry
▁muscle
▁laboratory
▁secretion
▁postoperative
▁categorized
▁gestation
▁pregnant
▁pyloric
▁genes
▁transplantation
▁influenza
▁infarction
symptomatic
▁admission
▁perfusion
▁carotid
▁fetal
▁ventricular
▁acute
▁pancreatic
▁histology
▁GDM
▁nurse
▁morbidity
▁vitamin
vascular
▁tailored
▁spontaneous
▁medications
▁therapy
▁chemotherapy
▁intraoperative
▁gastrointestinal
▁strategies
▁logistic
▁saline
▁compliance
▁cues
▁susceptibility
▁hazard
▁knees
▁contamination
▁metastasis
stenosis
▁healing
▁complication
▁graft
▁expectancy
rectal
▁admissions
▁trauma
▁psychiatric
▁aorta
▁elevated
▁migraine
morbidity
▁treatments
▁syndrome
▁coronary
▁pulse
▁aortic
▁bypass
▁therapeutic
▁deprivation
▁elective
▁Questionnaire
▁vaginal
▁ratios
▁radiotherapy
▁parotid
▁urinary
▁diagnostic
▁amputation
▁mediated
▁epinephrine
▁malignant
▁comprehension
▁Treatment
▁bilateral
▁invasive
▁thresholds
▁carriers
▁molar
▁vascular
cystectomy
▁disorders
▁poorly
▁infusion
▁inhibitors
▁sectional
▁pathologic
▁lesion
gastric
▁clinics
▁arteries
▁Median
▁myocardial
▁tumour
▁prostate
▁artery
▁adjustment
▁emergency
▁bronchiectasis
▁caregivers
transplantation
▁metastases
▁disorder
▁prolonged
▁airway
▁telephone
thyroid
▁wound
▁fixation
▁multivariate
▁VAS
▁chronic
▁cardiovascular
▁drinking
▁ovarian
▁symptom
▁dose
▁contralateral
▁mmHg
▁facial
▁fracture
▁residency
▁abdominal
therapy
▁guidelines
▁anxiety
▁fatigue
▁BP
▁perception
▁ward
▁intervention
▁Retrospective
▁doctors
▁specificity
▁arterial
▁symptoms
▁PRISM
▁appendicitis
▁preoperative
▁Doppler
▁gestational
▁aureus
▁fasting
▁elderly
▁classified
lateral
menopausal
▁incidence
▁Cox
▁decreased
▁angiography
▁psychotic
▁imaging
▁limb
▁examination
adequate
▁cTnI
toxicity
▁hypertension
▁antibiotics
▁hepatitis
▁eating
▁lesions
▁isolates
▁serum
▁tibial
▁hypoxia
▁scans
▁atresia
▁metastatic
▁antibiotic
▁headache
▁questionnaires
▁axillary
▁concentrations
▁mineral
▁severity
▁binge
▁liver
▁tumours
▁centers
▁eligible
▁gastric
▁ultrasonography
▁remission
▁placebo
▁tissue
▁adequate
▁specimens
▁mellitus
▁flexion
▁diabetic
▁aneurysm
carcinoma
▁baseline
differentiated
▁progression
▁physicians
▁laboratories
▁practitioner
▁pancreas
▁parity
▁valve
▁needle
▁biochemical
▁prognostic
▁concordance
▁needles
▁adjusted
▁laparoscopic
▁prospective
▁syringe
▁anatomic
▁suspicious
▁Scale
▁scintigraphy
▁inflammation
▁surgery
▁obesity
▁biopsies
▁lectures
▁adults
▁radiographic
▁hospitalization
▁ethnic
▁tumors
▁hospitals
▁systolic
▁diagnoses
▁lymph
▁anesthesia
▁reperfusion
▁prosthesis
▁impaired
▁Compared
▁socioeconomic
▁pelvis
▁prevalence
▁obese
▁providers
▁Clinical
▁cancers
▁vaccination
▁evacuation
▁laparotomy
▁toxicity
▁depression
▁intact
▁complaints
▁screw
▁nasal
▁impairment
venous
▁residual
▁bowel
▁longitudinal
▁gluten
▁suppression
▁respondents
▁dissection
▁appendectomy
▁diet
▁Statistical
genes
▁biopsy
▁antigen
arthritis
▁inhibin
