▁hypoxia
zation
▁32%
▁cohort
▁compounds
▁schizophrenia
▁150
34
▁gradients
itamin
ilization
▁acyclovir
▁stratification
lasting
▁exten
ivocal
▁seizures
▁benign
idne
▁GABA
▁tox
▁molar
▁enhance
▁concomitant
urine
▁pyram
▁assay
▁tiss
▁guidelines
▁bacteria
resting
olarization
▁circumferen
▁laboratory
▁tryp
1).
▁Biochem
▁precedes
▁consis
▁ester
▁exce
▁professionals
okine
5%
▁thrombolysis
Ra
.2
▁restric
▁temporarily
produc
▁indicative
▁platelets
▁neutrophil
amine
renal
▁polymorph
▁aspiration
▁menopausal
ially
▁sequential
▁vesic
iol
derived
ethyl
▁definitive
astatic
▁occl
▁rCBF
imens
▁microb
▁intercostal
▁intensive
acr
▁laser
▁complaints
▁elec
▁scintigraphy
idated
▁chloride
odium
▁placent
▁clinician
▁melanomas
▁myo
acerb
▁telephone
▁RP
▁reactivation
▁experi
▁cardiomy
▁healthy
▁cyt
▁dysfunction
acchar
arb
enzymatic
31
ceptive
▁chemotactic
▁somatostatin
▁shor
▁tumour
▁preferable
osity
▁asthma
venth
▁[3
▁simultaneous
▁cadaver
▁LF
▁alterations
▁precur
helin
▁microcirc
otor
▁40%
▁epidemic
▁embryo
▁assays
▁cochlear
▁prophyl
▁adequ
▁concurrently
▁impaired
▁RB
▁yiel
▁hemodynamic
opl
attern
▁sperm
▁10(
mL
▁chol
▁Bec
▁characteris
▁randomized
oresis
▁migraine
fts
GI
▁evaluating
▁practition
ervice
▁identif
▁coli
ventional
▁interc
lead
▁inflamm
uded
tection
ygen
▁TBI
▁relap
crimin
tagland
apse
terol
2/
▁infusion
ometr
▁cholestasis
kers
▁HS
iliac
▁(5
▁deaths
▁restenosis
▁indicators
▁transplantation
licular
reast
▁heavi
▁incub
trogen
osin
▁therap
sion
▁phosphate
▁aerobic
▁blin
vents
olenic
▁MRI
.5
▁contribut
amate
▁potency
▁toge
▁28
▁cardiac
▁TNF
▁mortality
▁undergone
▁inoc
▁HN
eal
▁ligand
▁congen
▁Ket
▁utero
Ps
▁undergoing
▁presum
▁engraftment
▁dehyd
jec
▁4
▁dexamethasone
▁ultras
tively
▁pyramidal
▁specificity
▁spi
▁physiology
onset
▁ACTH
▁lacking
entary
ensitive
▁chor
▁femoral
▁disparity
▁adenomas
▁5
▁PSA
▁lact
tance
ropha
▁heavier
igaret
▁tol
cture
▁placenta
▁distin
ressive
▁Streptococcus
▁therapy
▁cys
▁synthesized
▁nonc
echn
hemical
phosph
▁collec
▁Samples
▁premature
▁DS
oride
▁antigens
▁fluorescence
▁haemorrhage
1-
▁HSV
truction
/2
▁exposure
▁complemented
spectively
▁deliveries
10
▁hypertro
▁sustain
20
▁subtraction
▁HIV
▁cortical
atients
▁speculated
clusive
▁perfor
ceptual
19
urther
oplastic
kDa
▁contraction
plic
▁monoclonal
▁preval
entif
jected
ulitis
▁poorer
roma
wk
▁apop
fusion
▁hazards
rele
▁flexion
▁cultures
▁aorta
▁meaningful
ithiasis
ullary
▁aimed
▁CMV
▁promoting
implantation
▁genotypes
itin
▁involvement
▁birthweight
▁chond
▁PAS
▁implic
aginal
▁ethnic
▁subgroups
▁AO
▁excluded
▁fatigue
▁excision
ploy
▁perip
▁stab
▁57
29
either
dition
▁juvenile
▁streptococcal
▁feasible
▁dopamine
▁surgery
▁acqui
eric
▁anxiety
▁LN
▁carcinogens
veness
jug
▁diseases
HF
▁granul
▁endarterectomy
▁overlying
-1
▁induce
▁tracing
▁discharge
▁esophagitis
apeutic
ococci
▁PG
▁instability
▁beha
ervical
▁glomer
▁familial
▁(1
▁sequel
▁symptoms
vated
2-
dimer
tub
▁hepatic
▁reagents
▁antagon
▁stimulated
phrine
2,
rogenase
▁0.3
▁causative
(+)-
asic
▁tuber
▁preliminary
▁histopathology
▁infec
▁septum
derly
▁Increased
Ts
oplas
▁disadvantages
plied
▁anatomy
atab
▁heal
▁tibial
duced
▁rhe
▁dorsal
▁proce
adren
3%
▁actin
TNF
▁substance
▁barrier
▁nosocomial
25
▁polypeptide
piration
ynthe
ostat
▁circumference
▁antib
▁33
▁albumin
▁monit
MIC
▁differe
▁inhibitor
▁physician
oscop
▁micros
▁replication
▁ascer
erable
▁corne
▁rectal
cents
▁ischem
▁schiz
▁marrow
odic
▁constitutes
▁IGF
▁susceptibility
orption
▁NB
▁abdomen
▁ulcer
▁TG
▁resuscitation
trib
▁markedly
0%
▁bronchoscopy
▁manifestations
▁vaccin
▁neurologic
▁latent
▁underestimated
▁(9
▁RT
▁raises
ture
▁Overall
▁minority
▁antagonist
oxid
▁50%
▁perc
tained
▁remo
RD
ediatric
▁pT
▁displacement
▁mitochondr
▁cervical
▁reasonably
▁WHO
relevant
zard
asting
▁IVF
.3
▁adhesive
▁encoun
ocusing
▁fatty
rosis
.9
▁Escherichia
▁outcomes
▁decreased
▁hybridization
▁prol
▁adults
bumin
xone
inemia
▁IgM
enh
▁outs
▁subunits
▁gastric
urin
▁neurological
seal
tebral
▁39
▁cere
▁expend
9)
tive
oice
comitant
▁reper
ophilic
6%
▁metastas
▁counseling
▁unsuccessful
▁BMI
▁(3)
effective
65
RNA
MV
▁fiber
tent
▁prospectively
▁fractions
▁insertion
lood
▁hypertension
▁1.0
▁disorder
▁olig
▁Addition
▁FS
▁mellitus
lycerol
-5
▁stenosis
itol
gative
andard
entical
▁pronounced
▁coexistence
idase
sor
▁pharmacological
sities
oratory
▁prevalence
▁atten
▁8.
▁CK
▁stroma
44
BP
sess
▁125
mong
▁regulatory
▁LS
▁preoperatively
henyl
▁LC
duction
▁positively
roximately
6,
▁mediates
▁plantar
▁Plas
▁oxygenation
▁autosomal
▁cystic
30
sue
▁poorly
mur
▁nucleotide
▁resour
▁margins
▁vaccines
lyc
tensive
▁genes
antial
▁relating
▁VO
▁continuing
0.5
▁healing
tial
apeu
idate
tries
79
ilic
ensory
▁oxy
▁traumatic
▁neutroph
▁saline
▁peptides
phosphonate
relations
oside
educ
▁assis
▁sodium
physiologic
▁adenocarcinoma
emic
▁nervous
aneously
▁MG
▁labeling
▁endometrial
▁vancomycin
tox
▁cyst
oric
positive
▁cytology
thre
till
ochemistry
▁Chemical
▁palliative
▁fibroblasts
▁80-
orpor
graft
athe
▁topographic
regulated
▁somatic
▁epithelial
iosis
▁FV
▁pati
▁Cycl
▁cytoplasmic
▁Tum
▁abolished
▁mamm
ATP
▁urinary
▁failures
2%)
▁MN
urys
ureth
▁proliferation
Ns
dominal
▁births
▁APD
▁endoscopic
▁progres
▁differentiate
▁diagnosed
▁0.01).
rophy
▁CM
▁amin
orrh
▁reduc
▁acidosis
▁infiltration
▁microscop
enin
▁0.
ogenous
cutaneous
Phe
▁colloid
▁symptomatic
abies
tig
hospital
▁glomerular
▁26
▁secretion
▁peptic
hep
▁micron
▁chemo
kely
▁inhibit
▁auditory
mature
▁antibody
adder
▁molec
ivariate
loro
▁HI
69
▁verteb
▁reagent
▁subtype
coh
▁9
▁eliciting
▁arthritis
▁advances
▁regis
▁dyn
▁bac
ariate
atheter
▁25
▁suspicion
Hu
▁microgram
▁cate
▁unres
ailure
▁multivariate
▁algor
▁suture
▁predic
▁longitudinal
oglobin
▁stimulation
▁attemp
▁reproduction
amus
PV
▁IFN
▁antibiotic
▁remission
▁antibodies
▁VL
xia
▁transient
onad
▁spon
▁ventric
otherapy
▁prostatic
▁PF
onit
▁numb
gm
immun
urgery
amide
▁peptide
retion
▁tooth
▁bone
erance
▁tomography
▁obese
.2%
▁defec
▁insertions
▁chick
rati
▁reductions
▁glycoprotein
▁eating
cele
▁carc
▁decreasing
odil
▁sepsis
elan
dle
rents
▁spikes
▁lumbar
▁nasal
pation
ayed
▁chromatography
▁muc
▁phosph
▁muscles
▁6-
▁Contrary
ylcholine
▁topical
IIIa
ialysis
▁occlusion
tum
oclonal
▁mild
ffec
thle
rae
▁rehabilitation
▁alteration
assi
▁hypoglycaemia
18
idation
▁Comparisons
zyme
▁anatomical
▁lithotrip
▁impair
orphic
▁Bone
▁uter
▁plas
ffer
Hg
▁catheters
usive
menopausal
▁hypertensive
46
▁porcine
▁protective
▁tymp
▁adequately
▁minimally
tics
▁GD
aryn
▁0.05).
▁disappearance
▁rationale
respon
olated
▁ultrasound
27
▁concer
rogra
▁testosterone
tic
otides
otox
▁adenoma
▁exacerb
▁incidence
▁torsion
▁pathologic
pH
ses
enol
▁deterioration
▁drainage
▁contaminated
1.
▁spontaneous
▁infected
▁glu
▁sphincter
▁amyloid
assium
▁Treatment
DG
▁mmol
iable
▁physi
identical
▁encouraging
▁causal
▁laparoscopy
patient
▁develops
▁RH
▁physici
▁Phen
▁fetus
ressing
orac
reatine
▁201
▁overexpression
▁(6
▁evaluations
▁rhythm
▁surgically
▁structural
ositol
rated
▁1.6
▁diastolic
8,
▁cyclo
▁techniqu
▁Patients
ocardi
▁neurons
▁BV
▁lys
atell
▁habits
onomic
PB
▁1.
ctomy
yro
▁3-
▁inhib
85
bac
▁reticul
▁transfusion
ergency
ofol
▁SNP
▁scans
▁bloc
▁assessments
▁screened
stolic
▁athe
gmental
pir
gic
▁inflammation
▁lipid
astolic
▁polyps
▁erythrocy
▁alveolar
onol
▁differing
▁investigating
eled
▁immunode
embr
4,
▁gluc
▁metabol
ophren
99
4).
▁rash
▁aspir
▁measuring
▁angiotensin
▁oils
▁diet
▁adolescents
▁exhibited
▁microv
icient
▁substances
phosphate
▁myocardi
▁GA
▁neon
alian
▁LT
▁pathology
▁vitro
▁exclusion
▁IgG
▁dislocation
▁palsy
▁injuries
▁classified
lectomy
▁IIb
▁pneumon
oag
anyl
▁perfusion
▁HP
▁histological
▁VE
▁suppressed
cyst
▁perme
udin
athetic
▁thromb
▁oxide
,000
▁leukemia
▁cyto
▁abd
▁Cox
▁supplement
▁rated
receptor
orable
rocy
oscopy
▁PEEP
heal
▁membranes
pecific
▁10
▁excl
▁(1)
2+
▁anastom
▁prevention
▁bacterial
lyce
▁balanced
▁FT
▁liver
▁clinic
iatic
were
▁0.05
▁concentrations
▁increas
occi
▁20
▁physiologic
linked
trimental
eptide
▁OA
ecu
amic
▁sph
▁carbohydrates
▁198
anding
usions
▁psychosocial
▁sequelae
▁locus
▁7
▁gamma
▁prescrib
▁immunomod
▁eosinophil
▁swelling
aline
▁correspon
▁agon
quid
kade
▁effectiveness
▁exposures
ypical
▁awa
▁sedation
▁nail
▁phy
heum
▁molecule
aryngeal
ejun
▁uncontrolled
▁behavioral
1)
▁encour
▁proximal
▁trials
▁indication
▁appropriately
▁stimulus
▁pter
▁AMI
▁minimize
▁strategies
thal
▁anastomotic
▁preterm
DNA
▁thorac
ospor
▁intestinal
▁insult
romes
endri
lesion
.2%)
responding
inj
▁kDa
▁17
tional
▁identifying
▁pancreatic
▁arth
facial
97
▁trophob
▁cardi
▁15%
▁metabolism
▁enrol
▁cerv
▁elic
▁preparations
lym
▁suppression
▁kidney
luores
▁Accordingly
▁traum
▁renin
-9,
▁curative
Mu
▁BP
▁scin
itoneum
▁myocardial
ymp
icine
▁anatomic
▁extracellular
▁responsiveness
▁broader
sy
olic
▁ratios
▁phosphor
ficial
▁prospective
sions
TG
▁intraoperative
▁GV
▁avoiding
bic
▁participate
▁clearance
▁underwent
eclampsia
▁feasibility
▁DN
▁tric
tral
▁lithotripsy
▁portions
echan
▁mumol
▁inadequate
ostatin
▁elucidate
76
8.
atid
▁masked
iatric
▁30
▁systematic
▁regulation
▁adherence
illary
▁characterize
▁detectable
▁financ
ensi
▁latency
▁infarction
▁thigh
icide
▁gangl
Ka
tin
▁exogenous
▁etiology
▁Increas
▁Systolic
sian
▁cohorts
ercise
▁degradation
▁efficacy
mia
RH
ught
▁mobility
▁3,
▁initiation
▁considerably
▁carcin
▁creatine
utroph
ascular
▁adren
▁facilit
enic
▁restor
reness
▁amo
▁aort
▁trauma
iotic
asone
eptin
▁atrophy
▁inpatient
▁laboratories
▁favorable
▁phenotype
▁poin
▁cure
▁agonists
methyl
000
associated
▁fibrin
▁strain
70
graftment
▁perox
▁atresia
▁irradi
▁intrag
▁hemodialysis
alp
▁GM
▁fibrob
▁reac
▁produc
3,
athy
▁routinely
erin
▁mucos
▁residues
▁Comparison
▁manu
▁alve
-10
▁0
▁questionnai
▁atheros
IU
▁inhibitory
▁infect
matched
▁0.001)
▁500
▁herpes
avage
▁suppres
▁cathe
▁striated
ustif
▁Doppler
regulation
erine
▁gallst
▁screw
othermic
▁0.6
oxif
▁SLE
▁thym
▁absorption
▁satur
▁atherosclerosis
monstr
▁tidal
ampl
diagn
inally
4%
feren
▁characterized
idis
▁cuff
▁31
▁struc
▁nonadherent
▁assessing
▁(4
▁Continu
terminal
▁pregn
▁Vac
ocar
herent
natal
▁wound
▁determination
▁bladder
▁describ
▁atropine
▁renal
▁inhibin
▁microbiological
▁referral
▁carcinoma
▁TA
▁exhibit
▁laparo
▁hepatocytes
▁vaccination
onucle
▁immuno
ignant
▁MV
▁infections
▁18
▁Serum
▁challenges
▁pancreatitis
MG
tradiol
▁(0.
▁exchan
▁physically
▁sedentary
▁correlations
tension
▁60
especially
omotor
reported
▁quantitative
ivation
duce
▁receptors
▁supple
atical
▁ranged
▁attrib
▁awareness
enhanced
▁1)
oxic
▁syndrome
▁ascertain
onary
ortal
itoneal
opathological
▁allergic
ologists
leukin
▁predictive
▁disrupt
▁dehydrogenase
cardi
▁diabe
▁hypers
▁collateral
othel
gluc
▁modest
▁immig
67
ropine
2+]
▁anat
tage
▁Afric
▁blot
▁hypox
▁metoclopramide
▁staging
ateral
▁benz
alact
▁reproduc
FH
▁oxygen
▁multifactorial
iplin
▁incubation
▁hydrolysis
coun
ulates
▁lesion
▁approx
▁melanoma
▁insufficient
▁prophylaxis
▁Dil
acting
▁interacted
▁gallbladder
▁vulnerable
entanyl
clinical
14
▁ration
iably
oplasmic
▁pathway
▁postoperative
▁microc
▁reveals
▁contral
▁Preoperative
▁endogenous
▁CABG
OA
▁LH
▁appreciably
▁biological
▁exis
▁mediated
▁conceptual
▁contamin
3)
▁Engl
▁70
▁adverse
thyl
▁murine
▁Whereas
▁rigidity
▁variability
▁tissues
fos
tile
▁20%
asal
▁administered
oprote
▁suspic
0-
vival
▁pneum
▁80
odialysis
-3
▁HM
▁modulate
32
▁serum
tected
ighted
▁polymerase
▁deform
▁ischemia
▁discrimin
▁inadequ
TK
▁adhere
▁PET
atectomy
▁sour
▁desirable
▁valve
otent
inely
osome
▁NP
▁bronchial
▁intake
▁cyclosporine
▁gait
ameter
iminary
▁adjustment
opi
▁mammography
▁ALT
▁stellate
▁hernia
otassium
▁implant
▁cholesterol
▁attending
▁reveal
▁vitamins
▁metastasis
▁soy
▁Surgical
▁mum
lec
alues
▁dental
ostomy
▁vaccine
iferol
aemia
mitted
▁tubes
▁(8
7.
responders
KA
trum
▁equilibr
▁ana
▁Pretreatment
lymph
▁uncomplicated
▁complications
▁40
▁nitro
▁putative
▁debr
uptake
▁radiological
6-
ylation
▁analys
▁panc
▁distinctly
utaneous
tice
▁conclusions
▁pS
▁aerob
invasive
▁radiotherapy
▁pregnant
clin
▁versa
▁overex
▁analyzed
▁implications
▁cholecystectomy
▁urine
▁peripheral
12
lycer
urea
▁mandatory
▁mutant
▁episodic
atrial
▁deficiencies
▁correlated
▁adhe
▁endothelin
cence
yroid
unar
tro
▁respondents
▁deterior
arate
▁thickening
▁preferences
▁hormone
aints
▁GF
sequent
▁projec
ysm
▁kinetics
▁gaps
▁graft
▁Twenty
▁challen
▁adjunct
labeled
6)
▁retention
▁HLA
▁mg
glut
▁tamoxifen
▁11,
▁kidne
▁vein
adherent
ectable
6.
▁overl
▁5.
▁smo
olec
▁36
▁hemorrhagic
diagnosed
▁reliably
▁medication
opha
▁extracts
1-2
taken
▁reflecting
scherichia
usp
osocial
▁12
▁calcified
▁achievement
▁stren
▁pleomorphic
umulative
▁contrac
ellular
▁coex
▁intraven
fat
▁excretion
▁ovari
▁resis
▁ageing
mg
▁mutants
▁0.9
odynam
uin
idity
▁reconstruction
siveness
ichia
▁cerebrovascular
4-
▁clinics
▁nM
ylate
omical
rogen
▁practitioners
▁gradi
tein
▁0.7
▁amputation
▁polymer
▁testis
▁surviv
usal
▁Impro
tomy
▁demographic
▁echocardi
▁biop
▁selectively
oplasty
▁MCP
▁institutional
▁mucosal
plantation
%),
▁unex
▁hep
▁fractures
▁pall
nthe
▁intact
▁Acute
▁thi
Cer
oung
▁72
▁influences
▁accurately
▁lamin
▁substrate
▁Eff
▁phosphorylation
▁synthetic
▁inversely
▁mechanisms
▁glyc
▁hybrid
▁estrogen
▁pharm
▁detec
▁oral
erally
▁calcification
▁malignant
icin
▁Considering
▁findings
▁endot
gely
LV
inated
atories
mend
▁200
aturation
▁pigmented
+,
▁linkages
▁meal
▁tyrosine
tak
▁Kup
78
occal
FV
▁indications
▁moderate
▁nodules
-67
▁PGE
degree
▁pelvic
treated
▁implantation
▁horm
▁modality
▁.0
▁neonatal
▁injected
▁unm
▁cumulative
▁ACE
▁enti
▁acad
▁homogeneity
rates
▁recessive
tural
▁shallow
▁syndromes
▁diagnostic
▁oste
▁hypothyroidism
▁nuclei
▁endarte
Ds
▁perin
ochemical
▁antic
▁competi
▁labeled
▁uptake
▁facial
▁APC
▁arterial
lusion
▁enl
▁induc
▁subunit
▁consensus
▁dentists
rox
▁NPC
▁FH
sial
▁tow
rine
oradi
▁incubated
ocular
▁therapeutic
▁diminished
itr
▁Contr
▁mothers
▁chest
▁carbohyd
ancies
▁rheumatoid
teroid
.0
yses
ocul
atment
▁intrap
▁umb
▁cellular
▁abnormalities
▁disability
orbol
▁emerg
▁intrauterine
▁unexplained
▁esophageal
▁normalized
21
▁intram
▁PT
▁sero
▁mec
otoxin
▁Certain
ithm
eak
▁fluores
amino
▁Cyt
▁clinicians
▁periodontal
▁thickness
▁MI
▁coel
omal
▁barriers
herence
minal
▁microvascular
▁secretory
▁Compared
▁proteins
▁chains
▁(2)
▁interv
▁stimul
▁adenosine
▁sten
▁arter
▁inflammatory
ocl
lep
▁immunological
▁unrelated
opsy
▁anticoag
▁decreas
▁discon
RB
▁cholest
▁abdominal
▁epit
▁aging
▁illness
illus
▁follicular
▁lobe
▁surge
ipolar
ventricular
▁splenectomy
35
sies
iasis
▁detachment
▁spont
▁ery
▁peripher
▁vascular
▁researchers
astom
▁Removal
▁metastases
ditions
▁recons
onography
trative
▁provid
7)
▁diame
▁epithelium
▁seiz
trast
phosphon
lated
▁investigations
CBF
▁pH
pendent
▁toxin
weighted
▁mineral
▁Trial
▁cigarettes
▁cereb
▁tas
▁23
ompan
.6
▁presenting
▁toxicity
hea
80
▁EGF
▁Tumor
helial
roxim
▁PCO
▁discom
9%
ithms
▁Adverse
▁feeding
▁Severe
sych
▁soybean
53
omized
▁GI
atient
▁stu
▁previ
ohyd
▁lesions
turb
▁unilateral
▁potent
▁adrenal
▁crest
50
amination
cine
▁compartments
tensin
▁manipulations
▁lymph
▁enzym
▁mRNA
▁usefulness
▁ascertained
▁lipoprotein
opa
tality
▁mitochondrial
▁rhy
▁synov
▁resection
▁acco
▁cDNA
rosine
hyp
▁injur
tens
▁bile
▁adoles
uccessful
vertebral
▁amput
▁biopsies
5-
▁depress
▁PH
PAP
▁moderately
▁questionnaires
▁vesicles
▁behaviors
▁stom
.4
carcin
▁vaginal
▁deformity
▁prednisone
plas
▁32
▁neoplasm
▁Vitamin
osom
▁lymphocytes
stant
occus
▁chromat
▁thyroidectomy
▁Hg
ACS
▁hig
.7
▁ey
▁elevation
▁harmful
ocarcinoma
▁angi
▁nerve
▁abnormal
adication
tyl
▁surgical
56
Ba
▁0.1
pite
intestinal
▁determining
▁therapies
osal
▁alcoh
▁mice
▁limbs
ortic
▁tracers
▁parotid
▁surveillance
▁predictors
trop
▁immunore
▁haem
▁Dop
eight
RF
▁predicts
▁predicting
▁Atropine
▁confined
▁resear
oxy
actin
▁adminis
▁deprivation
▁advan
▁0.5
▁regulate
uscular
▁cardiovascular
-1)
farct
ectomy
amily
▁mature
▁enhancing
rolog
5.
▁newborns
▁correlates
ceptions
luent
▁Intravenous
tured
▁ultrason
▁linole
ophil
▁facilitated
▁vulnerability
▁oes
rants
▁cytos
crib
uterine
Hb
▁axons
▁prevalent
▁MH
ternational
▁controversial
oscopic
prising
versus
▁athle
▁ADH
ffinity
▁assessment
▁glucose
▁NH
▁90
NM
▁homogeneous
ication
2)
▁carb
▁spinal
▁objec
▁excre
▁cortic
▁100%
▁phagocytic
tabol
ffin
▁prevented
▁Significant
▁10-
▁Swed
▁muscle
oplasm
▁stimuli
▁inhibitors
functional
▁BM
▁metabolites
tially
▁salivary
nai
▁plasma
gments
ycin
▁decisions
arent
8)
threatening
tact
▁provocation
▁drin
gesia
economic
▁HPV
tase
▁linoleic
▁reperfusion
▁ward
▁resting
▁justified
▁prophylactic
▁0.001).
▁abuse
▁19%
ressed
▁consolidation
1,
epit
tation
▁reflux
rease
lastic
▁ocul
VL
▁intrav
mented
▁lob
▁collagen
perfusion
ications
▁ventricular
▁nig
erad
totic
▁TK
▁phag
▁sti
ropriate
▁trend
▁3.
▁enhanced
mental
esthe
▁unexpl
▁decades
▁glands
▁contributes
▁OC
▁ECG
▁1
ologous
▁predominant
▁relapse
48
▁neurop
seud
▁systemic
▁substantially
▁circumferential
▁acids
▁surgeons
.8%
▁prolif
▁(3
ylchol
olol
omerular
rogenic
▁preoperative
▁displ
ograms
omycin
oes
urate
2).
▁bowel
▁intest
▁85%
▁physicians
▁Failure
▁electrophoresis
imination
▁3)
▁injec
▁inactivation
▁Prospective
▁RAR
▁acet
▁suggestive
▁adjusted
▁ethanol
NH
▁scanning
▁fulf
SCC
▁TGF
ilical
▁Dopamine
▁stimulate
ardless
esic
▁follic
▁pigs
▁altered
elec
▁untreated
▁Hb
▁respiratory
▁diagnosis
7,
▁phenomenon
trac
unts
▁hetero
urc
sus
DH
dose
▁receptor
▁reactions
▁infection
hist
▁heparin
▁severely
tric
▁congenital
-4
isqu
▁reproducibility
fine
▁LD
▁hepar
▁4.
▁Immun
activation
ylase
▁abolishes
▁outpatient
ritish
iferation
arge
▁0.01)
▁autoimmune
opam
17
orin
▁unde
atched
anic
tical
▁establishing
▁(19
▁fold
▁epileptic
▁dosing
rophob
▁explored
▁13
lobulin
siological
▁sugges
ocial
▁LDL
trexone
filtration
▁substitu
onate
▁42
erated
▁solely
ecre
ostic
▁aden
▁hypothe
▁consol
▁consequent
lasts
lux
▁RNA
▁bacter
▁immune
minis
mig
▁constr
▁consistently
leu
lysis
▁tobacco
iotensin
▁tension
▁immunos
▁drain
90
▁eluc
entric
▁activated
▁preventive
▁enhancement
▁alcohol
▁99
▁tertiary
▁chemotherapy
▁enrolled
odynamic
▁turnover
▁HCMV
cepti
carb
▁osteoporosis
sive
▁0.05)
▁synthesis
▁diffic
▁prel
▁implicate
▁parame
iant
▁pathways
▁recurrence
BV
▁seventh
▁intrac
▁LVH
▁RBC
▁genetic
▁beneficial
hers
▁infar
▁neuro
owever
tingu
isol
umulation
erating
▁ane
▁intracellular
truc
unctions
entricular
erent
His
uated
ologically
▁undertaken
ept
atine
▁DSM
▁disruption
▁Patient
▁obesity
omes
▁tumor
ovascular
75
inol
▁GFR
▁employing
rotid
▁progestin
▁leukocyte
▁investigated
▁34
28
▁cyclase
▁affects
▁vitamin
▁providers
▁sexes
othelial
▁lith
▁197
▁gallstones
▁neuronal
▁eradication
▁4-
▁PEG
▁iso
▁hemat
▁comparable
roup
▁DF
wenty
▁undergo
▁poten
rehen
▁treatments
▁mono
▁VC
tration
▁unc
chol
ronchial
▁lateral
▁naltrexone
▁nurse
ilateral
▁adhesions
▁demonstrating
Tc
▁burden
▁tumours
anol
▁anesthe
echanical
inic
▁sclerosis
▁biochemical
▁SB
▁maintaining
▁airway
▁meals
▁perception
▁improving
9-
▁resonance
▁hepatitis
▁biopsy
ogens
▁saliv
▁BD
▁elderly
overed
▁epi
▁compressed
itus
▁rati
ocamp
▁ventilatory
▁aneurysm
pinephrine
ectom
▁progression
▁gyn
▁pig
▁complexes
▁warranted
IgM
▁molecular
▁regimen
11
▁NT
▁percutaneous
osterone
▁DG
icated
▁tracer
rection
urethral
▁cervix
▁synovial
▁mandibular
▁endoscopy
▁resusc
itic
▁ech
▁suicide
▁lis
▁Tran
▁esophag
▁hypot
▁(54
▁facilitate
▁accumulation
▁electr
▁soluble
phic
▁dele
▁aor
▁influenza
▁perinatal
▁adjustments
gents
ologic
▁cyclic
▁silicone
▁sulfate
▁HA
lobin
▁membran
ilized
▁catheter
opamine
▁streptococci
stimulated
▁laparotomy
▁resec
▁placebo
▁intervention
jun
▁weigh
titu
▁fati
▁microscopy
▁intrinsic
opulation
▁sustained
▁5-
▁monitored
▁amines
▁2,
▁systematically
▁lipids
▁MEP
▁smoking
anish
▁chl
aceous
▁Chronic
▁hippocamp
▁mV
15
▁pulse
ergy
▁opi
▁clon
▁affecting
▁discontinued
▁infants
esity
▁directional
valence
assay
▁atmosp
Tn
riend
▁gonad
oceptor
tead
ctive
▁8
adiol
itone
▁postmenopausal
▁mucosa
▁promo
▁decline
▁cephal
▁preven
▁CAM
MH
▁derange
opausal
▁comparative
idine
▁resistant
/1
ocele
▁overe
▁cited
▁rabbits
adrenergic
▁viral
Cu
▁strains
▁hospitalization
▁PE
▁microM
operatively
▁fentanyl
▁elimination
4)
▁depres
▁hyperg
7%
57
risk
dial
▁sarc
▁atr
▁thresholds
▁spine
▁physiological
▁endothelial
▁ile
romed
▁silic
▁contralateral
▁prognostic
WL
▁2.5
rested
quine
genic
▁nons
▁assessed
▁subjec
otype
▁femur
▁tris
matic
▁underst
▁cognitive
▁prognosis
▁childhood
▁theore
▁artery
3-
sia
duc
aptic
▁substituted
▁indi
▁cann
▁vasomotor
▁sequentially
▁insulin
▁hipp
▁kerat
xual
orectal
EA
▁psychiatric
▁muscul
▁distinguishing
▁injections
itance
▁2-
tif
▁sensitivity
▁favourable
▁transcription
▁macrophage
-6
odies
▁membrane
▁respec
▁chemot
▁Large
centr
▁subun
lected
▁15
.1
-1,
▁followup
istically
▁multiv
BW
itro
▁thyroid
hern
▁colonization
▁vivo
▁neo
▁staining
▁sciatic
mentation
HB
▁knee
▁normo
▁purified
ministration
▁atrial
▁vagal
▁hazard
▁hygi
▁75
▁interventions
razole
▁irrit
▁gon
▁PB
▁embry
▁inserts
▁connective
CSF
▁hypothal
▁radiographic
▁cancell
▁readings
▁plac
▁microm
▁nal
▁mell
▁abortion
▁judged
▁ultim
ATPase
tus
▁rele
▁behavi
▁sampl
ogra
▁nutritional
regn
▁hospitalized
lact
idney
▁socio
▁RS
▁vag
▁ambulatory
▁reproducible
▁inherent
▁micrograms
▁hCG
▁systolic
▁macrophages
▁uncommon
▁chan
onor
▁strom
▁pathogenesis
ovine
terone
▁transcrip
▁diagnoses
▁chloro
▁initiating
▁AE
1),
▁iliac
▁visually
angl
▁musc
tabl
▁irradiated
▁homogene
▁1.5
▁umbilical
▁disorders
▁morphologic
▁histologic
mittent
▁endoc
cad
16
uncture
▁examin
omatic
ivary
▁doctors
▁GH
▁depr
▁nursing
▁discomfort
tate
▁acute
▁palp
0.
▁ultr
▁bovine
▁psychological
ocyt
▁pharmac
▁sensory
▁paras
cessive
▁hypoxic
requ
ochrome
▁Intra
KD
▁clones
estis
oracic
▁intragastric
▁infil
▁basal
▁38
▁85
▁selective
▁sensi
▁emphasizes
▁preferen
▁enzyme
veolar
mediately
▁ET
▁pyr
ilibr
▁Biochemical
▁antiser
otyp
▁retur
▁lumb
olution
▁statis
▁conduc
loride
▁inapp
olute
yel
▁ASA
HM
▁1.7
▁irritation
▁pate
tinu
▁antec
▁quanti
▁inducer
▁deficit
0%)
▁eryth
▁evac
hyd
▁endemic
▁Mg
▁modif
▁geriatric
▁sickness
▁diabetes
ignific
▁27
▁cue
▁scre
▁distal
▁cesarean
vant
ochondr
ondr
orts
ylated
▁Concomitant
▁spleen
▁GVHD
▁tissue
▁pulp
sis
▁DT
▁Muc
▁cytotox
helium
2%
erican
▁pathologically
▁analyses
▁PD
▁reas
▁technically
▁pregnancy
placement
ivoc
▁workload
▁buccal
▁instr
orative
▁canc
osomal
▁antagonists
▁polyp
stress
erox
▁epid
opic
▁electroph
▁necrosis
▁pregnancies
▁requi
▁diabetic
rous
▁colorectal
▁impairment
▁surf
bly
▁Surgery
fected
ococcus
resist
▁recor
ulae
▁ventil
▁pelvis
▁endoscop
iciencies
▁cAMP
▁oxidation
▁identifies
ials
went
▁atm
▁tach
▁Throm
▁intrarenal
▁targe
opia
▁Pregn
+)-
▁complic
tivity
▁athletes
geal
▁pulmonary
acin
▁ventilation
▁repl
toc
diol
▁dose
▁opioid
▁pyl
▁Phe
▁differentiated
operative
8%
ocardial
▁examination
▁inspection
▁sulf
ophag
▁adequate
olip
49
▁incorporation
▁pharmacy
thma
▁reflec
▁melan
▁deficits
▁rabbit
▁CSA
genesis
▁lymphocyte
▁polyethylene
▁cataly
▁guided
▁100
▁methyl
▁suppressing
▁reag
legia
▁10.
tec
otide
▁subf
gulation
▁+/-
bladder
bacco
▁HC
▁unil
roin
itary
▁progesterone
▁modulates
▁improves
spective
▁40%,
▁cancers
▁suscepti
▁grading
-2
aning
▁chec
▁adop
▁screening
▁coeff
▁diluted
▁intramuscular
▁aortic
▁needle
▁hypog
▁surveys
▁adjuvant
erations
▁overlapping
▁enlarged
▁somat
22
▁paradigm
anin
▁symptom
▁ket
▁degrad
osomes
atoid
injured
▁plasm
▁endometr
▁cytotoxic
ximum
▁practically
mTc
oxidation
▁localized
econd
▁diagnose
▁superficial
uvant
asive
▁3
incip
chers
lys
▁PRP
heric
▁drugs
ocrine
-1.
▁maternal
▁pathological
▁dissection
▁0.00
▁allevi
▁gly
▁ruptured
ximal
4.
AIDS
▁nmol
erative
▁histamine
▁inver
▁dys
▁chori
mediated
EGF
crip
▁mitral
containing
erate
▁AI
▁45
5,
▁adap
60
▁polymorphism
▁emotional
eptides
fron
▁ischemic
▁edema
piratory
▁concentrate
▁atres
▁24
▁cerebral
▁emergency
▁chloroquine
versely
▁prostagland
▁dors
▁wors
ucleation
▁PCR
▁oligo
▁16
alc
▁viable
▁agonist
ameth
▁conclu
▁Lys
84
aid
▁resected
▁dilated
omiting
ocytic
▁metast
ituitary
glutin
▁(2
▁Tes
▁detrimental
▁48
ostal
ographically
▁drops
▁desm
orax
▁potentials
▁shif
▁retic
bility
alsy
▁gastro
▁abl
▁tes
▁sinus
▁Steady
▁unselected
▁anticipated
▁calcium
▁clinically
▁demands
tiv
▁cultured
▁compound
acil
▁thromboembolic
▁prenatal
▁compli
stro
▁hepat
▁mutations
ograp
▁contex
▁arteries
▁rigorous
▁bilateral
▁examinations
▁babies
▁respon
▁BS
0%,
▁repor
▁synerg
▁fixation
ancre
encl
▁discus
▁temperatures
ducts
▁cigaret
▁clinical
ece
▁compartment
▁predictor
▁estimating
▁confound
40
▁fibers
▁defic
▁thoracic
▁toxic
ensity
bral
▁buc
▁morb
AH
▁deter
oidal
ollicular
orepinephrine
mol
▁pylori
▁dietary
▁decreases
▁geniculate
▁severity
▁coronal
▁phe
ulin
rhy
ingle
▁ongoing
▁possi
▁depressive
▁fetal
▁ure
▁0.0
loid
vul
transfer
▁leakage
▁recombin
tility
▁amino
mixed
▁gains
▁occlusal
vation
▁pediatric
stim
ritis
▁21-
▁guinea
▁biom
▁occupational
iciency
radi
treatment
▁throm
iary
9,
controlled
Ia
kage
▁thir
olysis
▁diversity
tions
▁circulation
▁oxid
▁corneal
▁revealing
▁anticoagulation
▁drinking
▁pulmon
otomy
athyroid
▁VD
▁postnatal
▁complementary
▁comprehen
birth
odal
▁29
omod
acement
▁likelihood
eration
▁abilities
▁14
▁wrist
▁PCP
▁risks
▁deficiency
▁multicenter
▁paradig
▁concordance
▁cues
▁unstable
▁HL
-2-
monary
▁medial
olved
▁hydrox
▁onc
▁beating
ochem
reased
vely
▁MHC
aturated
▁inactiv
▁occurring
▁availability
▁attenu
▁TB
▁caro
▁tear
▁Thromb
▁suppor
▁malign
00
entan
▁experim
▁headache
▁pretreatment
ocytes
▁metabolic
taining
▁inhibition
▁subc
▁compliance
▁rats
▁epiderm
▁COS
agic
uation
▁antigen
▁subjected
▁ae
keletal
▁Neither
▁behavioural
▁socioeconomic
▁hemorrh
▁overweight
▁survival
▁nec
▁thrombo
▁kine
▁angiography
▁influenz
-9
▁carotid
▁extre
uccess
armac
▁selec
ustained
MRI
▁deple
▁cardiomyopathy
▁phosphatid
▁utilization
▁radiography
▁wee
▁focusing
▁oss
▁Taken
hap
ioid
▁implicated
▁affinity
▁ganglion
tific
tence
▁morphology
▁phospholip
▁19
▁heterogene
▁nucleus
years
iated
▁withdrawn
▁7.
otropic
▁paraventricular
▁exercised
cysteine
5)
▁pathogen
▁10%
olones
▁insufficiency
eliac
atest
LF
▁complication
▁immature
ucle
unctional
▁venti
acental
▁specimens
▁vena
ocaine
tering
▁Clin
▁37
atitis
▁palli
▁mediation
▁validated
▁presumably
▁connec
illance
▁progressive
▁necro
▁TD
▁platelet
▁22
vascular
▁retrospective
▁increasingly
▁skeletal
▁2
▁ESR
trip
▁juven
▁thromboemb
▁periodon
▁repaired
▁Sout
ergic
▁adaptive
▁ketamine
81
uran
▁supplementation
▁enteral
nutrition
▁inhibited
aired
▁0.8
▁heterogeneous
olesterol
FU
hydro
▁caution
trol
tors
▁promising
▁hygiene
▁bab
arous
▁coeliac
▁predominantly
▁conservative
astric
GD
vac
▁pressures
▁hydroly
▁venous
ronch
▁demonstrates
▁measurable
▁differentially
▁6
nec
▁spati
▁promoter
▁tolerated
▁PI
▁abnormality
▁HG
▁leuk
oic
▁surgeon
▁empirical
acted
▁perone
▁Kupffer
itant
acts
▁rebound
▁fever
adequ
▁satis
▁eliminated
▁dex
▁79%
BK
▁targeted
▁ablation
ycl
▁intravenous
▁hemisphere
rectomy
12.
▁IA
▁widespread
▁posi
▁reactivity
tectable
▁cen
fec
ogenesis
ineal
MN
▁inappropriate
ogenic
▁uncom
▁resul
asses
▁21
▁invasive
onin
▁cirrhotic
▁positioning
▁hormonal
amet
olytic
▁regimens
hydrox
▁synchronous
▁bip
gland
aventricular
arly
▁molecules
mide
▁comparisons
▁ml
▁probe
54
▁plates
▁mmHg
▁elu
▁extrac
▁eosin
▁survived
▁elevated
▁parap
versity
▁bronch
▁evid
CMV
▁amyl
arity
opathy
▁operative
atase
▁underlie
▁limb
▁melatonin
▁mM
▁Findings
▁persis
▁differen
▁irr
ulatory
▁nm
1%
▁progn
▁tolerance
▁treating
23
ociated
▁hypertrophied
▁PP
▁effec
essive
tur
ocyte
▁(7
▁myel
▁testicular
gth
▁meth
-0
tized
▁OT
ithi
tically
▁anemia
▁inh
▁prostate
BG
▁examined
▁practic
▁ovarian
omat
▁quantit
ithin
ultural
omies
▁hypo
▁statistically
lateral
▁discern
▁baseline
▁sut
▁mutation
▁trough
▁aureus
▁insurance
arean
▁anastomosis
adily
gesterone
▁cleavage
VR
▁intermittent
2.
▁0.4
lective
▁(10
▁isch
atonin
▁morbidity
▁functioning
▁tumors
▁unchanged
planted
sized
▁acquire
urgical
▁onset
▁synthe
-8
▁profound
▁carriers
▁doses
▁consequently
▁monke
hest
▁extensor
▁50
13
▁vomiting
glyc
▁multic
▁cis
▁stomach
▁heterogeneity
▁eosinophilic
▁glut
tle
0,
▁shorten
▁recur
plication
▁synergistic
ration
▁pancre
▁HCC
▁underg
▁TC
immune
▁Clinical
▁Cushing
BM
▁chronic
▁bipolar
aemic
▁cutaneous
ococcal
▁ultrasonography
▁discrimination
▁zinc
osine
▁axillary
▁epinephrine
▁bypass
tory
▁preservation
RP
opath
▁mann
ropriately
tures
clerosis
acer
moid
▁intra
▁potenti
▁depression
oprotein
entral
hydroxy
▁nurses
▁poisoning
aluation
▁chlor
▁chewing
▁predomin
▁elicited
iron
▁Additional
venous
▁consecu
▁dete
▁concom
▁2.
opramide
olism
phyl
▁comprehensive
gene
istal
▁macropha
lix
eces
▁cortisol
oglyc
▁apex
acet
uble
▁migrated
ipient
▁pineal
▁conducting
▁organisms
grees
▁0.2
▁achie
.8
▁genotype
vail
▁bronchi
oxia
sts
▁rotational
▁gland
▁symp
▁fracture
▁gynec
▁prolonged
transplantation
▁recipient
▁follicle
▁saturated
▁differentiation
ureus
▁recombinant
anine
▁postoperatively
ontal
▁packing
▁preparation
▁cytochrome
ipher
▁imaging
▁sple
rone
▁plaque
amn
teric
▁paralle
onatal
▁adolescent
illic
Ki
oglobulin
▁multim
transferase
▁steroid
ociation
▁immun
▁VA
▁transi
▁neph
▁35
▁undetectable
obal
▁pneumonia
▁unre
▁2)
▁shortened
▁hemodynamics
▁kinase
▁potassium
▁anomal
▁cava
namic
▁coronary
▁establ
▁cocaine
▁validity
▁retin
▁PV
▁chromosome
▁slowed
▁evoked
osts
▁Phy
▁mL
▁SG
▁SCH
▁metastatic
GF
▁11
sensitive
▁manifestation
▁controlling
▁CRP
▁gluten
▁7%
▁AMP
▁undes
-7
▁haemorrh
▁affec
▁genic
▁parental
▁79
▁enzymes
▁cortex
▁determinants
▁recurrent
onium
▁pituitary
VT
▁Histologic
ults
▁regar
▁LV
▁nutrition
tant
▁endpoints
▁fluor
▁intense
FN
induced
▁fitness
▁1-
▁clus
tual
epti
▁1,
▁segmental
▁amyloidosis
onyl
▁anomalies
contrast
