▁seroconversion
roscopy
aminob
▁limbic
▁TNP
95
▁Platelet
▁Tyr
▁depolar
▁antid
ypical
▁hamster
greater
▁preservation
hion
89
▁benz
▁Inhib
▁hered
▁calories
▁transcribed
▁prognostic
▁tric
ealand
▁87
▁bip
jury
aind
ulence
glycoprotein
ycline
yocardial
▁adhesion
esic
▁exerts
▁transpos
▁Recep
odeoxy
▁chyl
▁osteoc
▁mAbs
▁adsorption
▁proximal
fibr
▁traits
▁Mortality
ials
▁MPO
▁260
▁0.87
▁enhancer
▁fathers
hydrop
▁reacts
▁supine
sorption
rosy
ocusing
▁assessments
▁7.3
▁Bone
▁smoking
▁radiography
▁compares
▁commercially
▁42,
▁persisted
▁vertebral
cholate
ications
IH
unting
/10(6)
▁aflatoxin
▁kallikrein
▁5.2
FSH
▁abortion
▁MAbs
▁aureus
▁parat
▁basilar
▁emin
▁hydrolys
pressing
▁selectivity
▁strengths
NM
antigen
▁immunotherapy
▁BU
▁RSV
generation
▁synthesized
olved
-90
▁zoster
▁-6
▁prednisone
▁schizophrenia
▁transformants
tually
▁microliter
▁transmitted
▁prel
▁microU
▁quin
▁5.0
▁inducible
arbonate
▁(10(-8)
▁specialized
▁mucus
odular
resis
▁tendency
▁mammals
▁offspring
▁synapses
CoA
▁archite
▁Aden
▁Contr
▁poten
atical
hydroxy
visc
▁cGMP
▁CaCl
▁rheumatic
▁COOH
.5)
▁Fifteen
▁genomic
erin
▁hapl
▁physi
otroph
▁CFU
▁9.4
▁(48
▁resultant
▁acupuncture
▁semin
clonal
▁islets
▁epidemiology
-30
▁aggregates
zation
▁adjusting
lobulin
chicine
▁SHR
▁prepro
▁vulnerable
▁39%
▁tubercle
▁(+)-
▁lymphokines
▁1.75
▁inability
ohydrate
uitable
▁insurance
idis
mandibular
▁expiratory
▁venom
▁Enzyme
▁manipulation
▁cruzi
metic
chlor
▁(0.6
sively
▁somat
rologic
▁titration
▁instrumented
atible
immunoreactive
▁isotonic
fractionated
▁paracrine
▁analgesia
▁myocardium
▁peroxisomal
▁Diabetes
▁throat
▁transpor
▁(6)
▁fractional
▁tendon
▁0.97
62
▁cephalospor
▁gyr
tracellular
▁65
▁possessing
▁amoxicillin
▁nonf
▁phosphoprotein
abbit
▁lymphadenopathy
▁notably
▁adherence
▁proteins
methylene
▁consistently
iplin
▁juven
▁conflu
▁intensities
▁45-
▁concentrated
▁axons
Bs
▁providers
acyl
▁anat
8-
▁resusc
▁corresponded
▁proximity
ulinemia
+.
▁ureteral
▁intracerebral
▁carrier
▁neoplastic
▁121
tering
▁depletion
▁GRF
gluc
▁255
orin
apeptide
▁DRG
▁comprising
idate
▁EGF
▁loci
▁stomach
▁CAT
osage
zard
▁participating
▁myogenic
▁ingu
▁nonsur
▁superfusion
▁benign
iodothyronine
▁sulphate
▁56,
ortical
▁antibiotic
atment
otypes
pran
▁posti
▁medial
▁Highly
▁azathioprine
▁corneal
▁malign
▁restr
▁aimed
▁32
▁24-
▁meaningful
otrip
MAb
▁anoxia
TCA
▁instrum
onitis
▁Immun
primed
▁(0.8
▁Incubation
▁nodule
▁infections
▁Increased
oplasmic
▁28
▁accurately
vitamin
orts
▁tube
▁opi
ungal
▁122
ranged
▁denat
▁MCA
▁UDP
▁lactose
▁cava
▁quantitate
▁abrogated
himbine
▁350
▁prostheses
▁fulminant
aceous
aric
▁amelior
▁Fc
iphene
articular
anking
▁lorazepam
ispanic
▁degradation
▁(99
gressive
▁pressor
▁deaminase
▁footprin
▁detector
restric
▁spi
▁construc
oblastoid
▁Chlamydia
-1+
▁zinc
otoxicity
▁lob
▁lam
ifferenti
▁susceptibility
.8%)
▁poorer
▁6.3
aminoglyc
▁passages
▁recurrence
▁sedimentation
▁ib
▁Proc
oprecipitation
queous
▁adenosine
osity
▁progest
▁0.005),
icep
ceptions
▁0.001).
▁undetected
urium
▁cardioplegic
▁7.9
▁interacting
▁promoter
▁Inde
▁suppor
▁calibr
PEG
▁1.9
▁0.40
translated
pyr
▁Tc
▁TRH
)-1
azole
▁dextro
▁sphingomyel
tinu
inositol
▁intral
▁suture
▁Specificity
ositi
▁thiol
▁Drug
reness
▁psychiat
oflurane
▁workplace
:5
▁xanthine
▁electrode
▁omega
▁inoculation
▁BSA
▁ACh
▁crystals
▁dithiothreitol
▁substances
▁cimetidine
▁lovastatin
▁thymidine
▁postoperative
▁FU
▁scle
▁radioligand
▁mammalian
▁motoneurones
▁diagnosing
mature
▁tol
▁euth
▁submuc
▁pellet
▁polymers
▁efflux
▁evolved
▁biliary
adenosine
▁74%
▁CHF
tisol
▁2%
▁enl
▁serotypes
▁Conventional
▁enteral
▁spas
▁arising
▁alcoholism
threatening
▁transcrip
▁183
maximum
▁104
abd
▁polymorphism
▁laser
istar
▁monophasic
▁conclusions
8+
▁aspartic
▁gonadotroph
▁frozen
▁NH
▁Relative
alact
▁tyrosine
▁CTP
▁Willebrand
▁coordination
roma
-600
gut
▁cruc
▁anatomic
▁81%
▁microb
▁intram
▁glutamic
tening
▁hemodialysis
ochondr
teral
▁laryngeal
▁employing
▁(5.0
▁intercellular
/10(
▁0.0001).
▁attitudes
▁hypercal
▁substanti
▁TMP
▁Complications
▁cyclo
vaccin
▁(200
ETE
▁subclasses
unts
▁6.1
sive
▁(16%)
vertebral
▁pulses
▁coval
▁emo
▁13%
322
absorption
trous
▁submucosal
ygo
erative
▁spermatozo
▁medulla
acts
▁ml
uronium
▁PFC
mber
▁Peripheral
▁banding
▁polypeptide
▁unrelated
obase
▁Ventricular
taz
▁shunt
▁Secondary
-65
▁lambs
▁chlamydial
▁measurable
▁eryt
▁attenuation
▁seropositive
▁outs
diagnosed
▁intra
cellulose
▁fivefold
▁nervous
▁TGF
iable
▁questionnaires
▁recipient
tiveness
▁ultrasonic
reed
oracic
▁(-)
▁bioassay
▁transmitter
adminis
gland
▁mammography
▁potency
▁0.01),
▁Plate
▁milder
▁longitudinal
▁achieving
▁reti
piper
▁determinations
▁Amin
▁wounds
▁adequate
24,
▁(5-
▁inward
▁lobe
▁inferred
▁(8
oxybenzamine
▁10(6)
-8,
▁linole
▁Elevated
tigmine
amethonium
▁0.001
▁muscles
▁parathyroid
kinson
▁radiographic
▁bifurc
suppres
rowth
▁ison
▁overe
▁0.55
▁retin
▁reticulocyte
▁mercury
▁doubled
isol
mTc
▁LPL
▁158
▁aor
▁5-10
▁24%
2-
▁mesenteric
▁impairment
▁scre
▁microenviron
▁lyso
▁mating
▁0.60
ervo
▁enriched
▁epithelial
▁vesti
▁allergy
▁atheros
alas
▁explants
▁[35
aluation
-0
acetyl
opha
▁porcine
attered
thanolamine
1]
▁LMW
▁IVC
▁0.25%
▁CNS
▁intramuscular
▁cosmetic
▁potentials
mol
▁grades
▁hyperglycemia
timate
▁employment
▁(89
rosine
▁mutagenesis
uracil
▁Differen
sodium
onad
ivacaine
temperature
-(2-
▁chloroquine
30)
bilities
▁mA
▁prednis
xiety
hemat
(1
▁stellate
atonin
icidal
▁adsorbed
▁effectors
▁48
▁phasic
naph
▁unchanged
▁cessation
▁scinti
iminary
▁PW
macroglobulin
rophy
TSH
rophob
▁utilization
▁synergistic
abies
coh
▁SRIF
ifferentiation
▁75-
▁solub
▁surfact
▁Gly
▁glucocortic
(1)
▁cistern
▁therapy
▁Pb
▁sulfate
pyruvate
ulmonary
▁pressures
▁controversy
molar
▁mononucle
▁effusion
▁(50%
▁CCK
▁80%,
▁sut
▁regulated
▁polymerase
▁bradyc
tle
gran
itre
ogran
▁evoke
▁adrenoceptor
5;
▁Concomitant
CRP
▁VH
hyp
ordant
▁proteinase
itol
▁sulfhydryl
imetic
▁depolarizations
▁GDP
▁rectal
▁breeding
▁cigarette
▁89%
▁necro
ameters
▁facilit
▁eluc
▁vinblastine
▁FV
▁Klebsiella
(3
▁RB
▁phosphoc
▁compound
▁7.
▁31
▁Oxygen
ropriately
▁cortic
venth
converting
▁3
▁demonstration
▁hydrolysis
molec
▁sulfoxide
▁abnormality
mong
.3
▁rupture
▁suppres
▁10(8)
yroid
▁synaptic
▁malignancy
▁urinary
▁prenatal
▁secretagogues
retin
▁occlusion
▁rRNA
100
▁globulin
▁sphinc
▁promotes
turing
▁microliters
▁(36
▁seronegative
▁circadian
▁diffic
▁0.01
▁43
tructions
▁perikary
▁blotting
▁eti
orec
amic
▁tiss
▁BLM
▁ovaries
▁effectiveness
▁spati
▁enflurane
ticle
▁PLC
▁metabolite
▁brush
▁DS
enicill
▁recognizing
▁manu
▁disulfide
▁enzymes
▁rejection
atrial
derived
▁LTR
▁HLA
▁EMG
▁0.02)
opeptide
▁rt
▁irritant
86
being
▁approx
▁teratogenic
xanthine
▁amyloid
posi
ograms
stant
derly
▁77
▁gon
▁activators
ipramine
density
ticular
▁follicle
▁pK
11,
plast
▁(20%)
▁hydrolyzed
dil
glycerol
-4-
▁nonsignificant
▁cardiopulmonary
▁taurine
▁165
▁hemisphere
▁demands
▁fertilization
▁leukemia
▁1.5%
▁trials
▁preoperative
▁fetuses
▁determinants
▁ether
▁atm
▁iontoph
▁affecting
▁clom
-3-
▁Gln
▁182
▁cotransport
0)
ulitis
▁Prospective
▁aromatase
kinje
▁arterial
▁functionally
▁zymosan
▁nonresponders
phasic
▁incubated
▁symptomatic
glutin
idium
erated
rendipine
▁9.
▁examining
▁urine
entia
▁spherical
▁heparan
enolone
nitine
▁PB
▁phy
▁atyp
▁Actin
▁antiarrhythmic
▁nonc
▁visc
▁afterload
endorphin
▁atopic
▁179
▁neurones
▁catalyze
▁Asc
(4
▁fluor
▁migrating
▁subclinical
▁aging
heximide
▁correlates
▁tended
adrenoceptor
▁cyclosporine
▁pylori
▁cohort
ortic
▁ligated
▁noncompetitive
▁aorta
▁regained
rested
lep
▁Kd
ughter
cycline
▁OC
▁1988,
▁resemb
fiber
▁Genetic
5.
orrhea
ponin
▁junction
ochrom
▁similarities
▁polycystic
▁enrolled
▁rebound
▁schiz
▁3).
▁vanadate
▁ejection
immun
atitis
aemic
▁17-
▁thiop
▁compromise
▁exert
▁vimentin
▁Thr
▁fertil
.6
▁100
cholesterol
▁cyto
▁digitalis
flammatory
ffer
▁Plasmodium
▁acuity
▁predominant
▁unfol
▁neurokinin
▁bumetanide
sia
2)
▁2.2
▁(1).
▁arachidonic
▁comprised
quine
▁marginally
▁moderate
▁8.3
▁200,
lymer
▁qualitatively
▁tracts
▁bism
▁adjusted
-7)
ivered
▁Nutrition
▁doxazosin
▁peric
▁opiate
chol
fate
▁ischemia
▁0.72
▁phantom
▁suspic
▁synchronized
▁gastroenteritis
▁0.43
▁fluorescent
olone
▁periodon
▁lymphocytes
andard
▁HTLV
horm
▁climb
anoids
▁Accordingly
▁30.
reflex
▁infertile
▁transloc
▁transverse
▁vaccin
▁Tes
▁94
▁guanidine
activation
▁coma
▁Kup
▁inulin
▁Mycobacterium
insulin
anide
▁IIb
oids
thym
▁gestation
rophenol
▁secretagog
dC
▁outpatient
▁automated
PGF
ifers
4),
▁EDRF
▁(32%)
▁predisposition
▁ions
45
▁hemodynamic
▁modest
▁achievement
▁80,
brids
▁benzodiazepine
rague
▁salic
▁meningitis
MTV
▁ppm
rocytes
▁fibrinogen
plasts
▁ulnar
▁flashes
▁immunode
▁flavin
▁permits
otyrosine
▁450
▁supras
▁chromosome
eprazole
▁LTB
▁innerv
tubulin
treatment
liters
▁antagon
opause
▁buccal
▁anxio
dehyde
▁(71%)
▁tes
asal
▁trapped
cortisone
fat
gold
▁2.9
▁heavier
▁granulocyte
▁caffeine
▁molar
uity
borne
▁trimeth
tryptophan
▁hydr
▁hazard
umptions
HCO
▁intrarenal
▁nal
▁(28
▁myocardial
▁suppressing
▁fibrillation
▁7,
▁retinoids
▁respec
▁HeLa
▁stiff
▁amin
▁asthmatic
trol
3-
▁ganglia
▁complic
admium
▁cocaine
▁(1989)
▁sputum
sorb
▁MgATP
▁kDa
▁repression
▁vasculature
▁gangli
▁discon
▁favoring
tetrahydro
lusion
plete
▁28%
▁HA
▁Estim
▁fluc
▁forskolin
8)
▁shortened
opulmonary
▁condyl
▁appreciable
transferase
▁hormones
ffec
odend
▁8.9
▁nmol
thle
▁quail
▁188
▁weakly
▁abuse
▁Sulf
yron
ilibrium
66
ensitivity
▁differentiate
▁twitch
▁codeine
▁degeneration
▁inactiv
titial
11-
▁(3
opathology
enil
▁micrograms
osoma
▁115
ferrin
roscopically
▁cytokine
▁exhibits
▁PT
orded
▁determines
▁metastasis
roglobulin
▁homogene
vitro
▁vesicular
▁comparisons
▁BM
dopamine
▁selectively
▁anion
▁PBL
ulfonate
iliac
▁24
▁hydrolase
▁breathing
apo
▁waking
▁concom
soluble
▁0.1
▁fluorescence
▁theta
kground
▁tetracycline
▁paralysis
▁papain
▁innervated
▁artificially
▁permeation
▁differed
atab
idym
hesus
-48
▁bronchodilator
▁EG
▁intense
▁experiencing
▁remod
▁mtDNA
bodies
▁.000
▁Biophys
vive
uccin
▁Extr
▁acetylcholine
▁microsomes
▁bicuculline
sparing
▁cigaret
▁Significant
essation
ameth
.5,
▁homose
azol
1%
iotensin
adone
▁geographic
▁49,
▁synapt
▁promin
▁leakage
▁antiserum
quir
▁recombin
▁IAP
iph
adm
▁obstruction
▁contracep
▁diastolic
1;
atell
ropath
▁50%
▁(2.5
icine
▁isoforms
▁daltons
▁barium
1-
▁blast
▁birthweight
▁inversely
▁cyan
▁disloc
▁phyl
tenti
▁1.4
▁SG
immunized
ulatory
▁chond
▁mitral
▁Insulin
▁awa
▁emergency
operated
-17
▁synthesis
▁dimethyl
▁apprec
▁ulceration
▁depolarized
▁laminar
▁potassium
▁7.6
EGF
▁eliminating
▁pulmon
▁inoc
▁leuc
▁synthetic
▁CGRP
▁antiv
▁sero
▁18.
▁Indi
▁5.7
▁dete
▁enhancing
rostened
▁coincided
ocystis
▁pleural
trone
▁recessive
▁menstr
▁psychiatric
▁clustering
gol
0.7
▁mutants
obacter
▁oval
▁sarcoplasmic
▁prostatic
cemic
▁transferrin
▁oligonucle
▁depr
imodipine
ustif
▁elimination
▁furthermore
▁15-
▁occurring
apride
▁ovari
incubation
▁allosteric
▁antibodies
porting
imethyl
▁Salmonella
ervative
▁inver
▁probing
▁afferents
enyl
otting
▁divalent
olesterole
glycerin
▁latency
▁alkyl
thiazide
▁breed
ncies
Hodgkin
▁eIF
▁Apo
trisphosphate
▁156
▁ascorbic
FGF
▁phenotyp
▁albuminuria
placebo
▁citrate
▁vacu
▁lysine
airy
▁30%
▁polymer
▁WK
▁(1986)
▁shifts
▁distric
▁1-2
methylxanthine
▁eradic
▁Kine
▁immunoglobulins
▁shor
▁transgenic
▁glomer
▁surveys
ceptive
ichia
orbid
▁myometr
ectomized
▁chromatographic
▁hap
20,
coag
▁programmes
estim
▁microbial
▁endings
▁congr
▁elective
▁192
yzed
▁53%
▁optimum
▁PH
PB
▁parenchymal
▁hydroph
1:
▁1.
orated
carinic
▁internalized
oprol
▁practitioners
phosphor
▁undertaken
-8-
▁colonic
▁surgically
androsterone
▁hospitalization
imus
▁cG
imide
▁sensitized
▁Increases
▁basolateral
▁Repeated
iparous
▁0.21
opathy
5%,
psin
▁MV
▁transection
▁occluded
▁aldehyde
▁palli
▁solubility
▁evidenced
▁contex
▁conjunction
amisole
▁DF
ynthe
mental
▁217
▁disturbances
▁pyruvate
▁necropsy
▁ewes
olytic
choline
rangement
▁pulp
▁necrotic
▁hydrogen
accharide
oradi
▁ramipril
▁ration
▁bonding
▁parab
▁compliance
▁malignancies
ygen
Kd
chlo
▁MPA
▁zym
▁sporo
▁vegetable
parag
▁IDDM
▁spanning
▁peaks
▁infectious
▁docum
rogen
▁chloramphenicol
▁GS
conjugated
.9%)
▁ultrasound
▁0.29
▁cyclosporin
▁cyst
▁sigma
▁chorio
reement
▁continuing
▁musculoskeletal
▁ketone
▁7.7
▁pineal
-6
atally
▁prolif
naud
▁12.5
.9%
▁70%
▁oligonucleotide
▁19,
▁116
▁irr
▁cytotox
▁dominance
▁defic
▁lisinopril
acycl
▁bile
astom
▁spermine
▁valvular
▁natriuresis
▁unim
8).
▁(10(-6)
▁1986.
▁epid
-10
▁hemorrhages
enriched
▁antinoc
▁Myocardial
▁cephalosporin
▁constitutive
tionally
▁chimer
▁beef
dii
▁outpatients
▁cavity
NGF
(3)
renzepine
▁1990,
ventional
▁phyto
▁satur
▁impairs
▁surge
▁Concentr
▁axonal
▁Thy
▁hypoxia
60)
▁60%.
CHO
mediated
▁charcoal
▁confirms
minal
adine
▁Additional
NMR
oderm
▁transiently
biotic
▁Leu
▁capsaicin
iazide
▁90%
residue
ifornia
tively
▁asparag
ympathetic
▁7.8
▁amph
blockers
IgG
▁incubating
▁amphib
▁contributes
▁pseudop
▁resin
▁Fraction
cytochrome
orectal
▁ascribed
magglutinin
▁perioperative
▁postulate
thromb
▁Michaelis
PAF
▁31%
ectom
umerous
7.
akalim
▁femur
dered
▁96%
2%)
▁Brain
▁fasting
▁tetrac
▁calorie
▁vesicles
▁novo
▁filtration
▁epithel
▁cytoskeleton
▁Clinic
▁catalyzes
▁phrenic
▁regis
▁gallstones
▁15%
▁preliminary
▁glioma
▁diabe
restricted
▁0.0
▁PRL
▁purity
▁ips
▁inorganic
▁fatty
chase
tails
▁pene
▁rhabd
▁homologous
stim
terase
▁uv
EPO
+-
ylchol
▁25-
▁polysaccharide
olution
▁acces
▁exploration
trical
▁gonorrh
▁cytosolic
5,000
▁chondrocytes
▁yielded
▁airway
▁catalysis
▁tilt
edding
▁bronchodil
▁pulsed
erate
▁anaesthetic
▁colloid
▁0.14
▁gp
▁bismuth
▁hypertension
Leu
-10(
ureus
sectional
tillation
▁PAH
▁prone
opam
tocin
▁cGy
▁unex
▁(50%)
uble
38
estive
▁WHO
▁repeats
▁dialysis
▁plates
▁OV
▁Adriamycin
motic
:2
▁freshly
▁suicide
▁undetermined
udine
▁pontine
▁enzymic
Ti
neoplastic
▁cutoff
▁evaluating
opramide
arboxylic
▁repolarization
exis
▁microns
▁resum
▁0.27
▁PSA
glial
gued
▁33
29
▁regulator
▁hens
▁(58
▁uridine
▁develops
▁0.5
▁glucocorticoids
Ls
▁EPO
athic
▁HPLC
▁foetal
▁hospitalized
nRH
▁neomycin
▁parasite
▁genit
▁worsened
▁stratum
▁irreversible
▁perip
carbohydrate
▁ET
aryng
▁isomers
▁descriptive
▁globular
tory
▁RU
adrenoceptors
▁reproducibility
▁stimulated
▁(1.3
▁2/
▁5%
▁adjustment
▁testosterone
▁ESR
ducts
▁methanol
▁washout
plic
▁disper
otransferase
▁(0.4
▁7.0
-120
▁colliculus
ysin
oric
vating
▁psoriatic
▁transplant
-9
seud
▁3-
▁Physicians
▁nominal
▁nonp
▁cocul
▁gluten
▁derangement
▁hypothalamic
otox
▁justif
▁Epstein
perature
transplantation
▁homogeneity
▁castration
▁ole
Hg
▁findings
-2
Gl
imetric
▁doses
▁(3.0
Ts
▁wake
▁MgCl
lymph
▁aberr
▁deter
opressin
osomes
▁hematopoietic
▁intravascular
▁multic
▁uptake
▁labial
ochemistry
▁tentatively
otone
oic
ucine
▁fibrinolytic
lpr
/5
▁tachyc
▁chloroplast
▁serologically
▁monol
▁selective
lives
enec
▁10(
▁LTC
▁barbit
▁multis
atology
ocellular
venous
▁OD
▁termed
▁knees
▁metoprolol
▁VV
▁UT
▁wedge
rosophila
▁proce
▁BF
athiop
000.
▁fibrinolysis
▁dilated
▁endarterectomy
▁strep
▁ultimate
ostat
▁chloride
▁vag
▁ligation
▁fulfilled
gthen
▁77%
▁ecz
▁adrenergic
▁classified
▁granuloma
ituitary
(-)-
▁macromolecular
▁trophic
▁0.002).
▁62
▁endogenous
▁clearance
thoracic
▁splic
perfusion
▁endoscop
▁uterine
▁MRSA
▁pyro
-32
▁rodent
▁(29
▁severity
kilobase
▁0.34
tilis
odialysis
▁elevate
▁progressively
▁palm
▁intolerance
▁syncope
physe
▁1-
▁eligible
▁basal
▁EGTA
▁painful
101
▁blots
▁AVP
together
itary
reported
▁randomised
▁pharmacological
▁monkeys
kling
-500
▁cortisone
tices
▁uncoup
▁Lung
▁lipoxygenase
▁dobut
▁expresses
▁hydration
▁unilateral
▁(21
Gly
fused
eroxidase
▁inspiratory
aternary
▁201
SMC
▁abrup
▁0.
▁symptom
▁reflexes
▁(3.8
GTP
▁tymp
▁structural
▁enzymatic
▁excretion
▁malformations
roscopic
yclo
ulates
▁proliferation
amphetamine
subunits
▁agonist
plasma
phosphatidyl
(+)-
itamin
▁confers
▁juvenile
▁withdrawn
tomas
▁Experim
ogenously
▁fibrils
▁amine
▁dissociation
ilol
achial
titu
ocytic
▁commerc
▁apical
▁hygiene
▁Dip
▁Cumulative
araldehyde
ignific
▁intracellularly
▁mammary
rescine
▁circumference
existing
▁Experiment
▁lax
▁(0.2
4/
oscop
▁foods
▁AE
▁serum
▁diminished
▁harmful
▁isomer
▁msec
enicillin
eration
▁abl
▁stimulus
▁SEM
ANP
▁dichro
▁lactating
-400
▁libitum
fec
▁metabolically
▁dairy
phosphatase
permissive
▁auditory
▁Oral
▁feline
▁differentiating
▁dietary
-6-
tia
opoietic
roprusside
amellar
▁morphogenesis
▁instr
▁lesioned
▁carcinomas
▁ubiquitin
/9
▁unde
▁pKa
odalton
▁TLC
▁propensity
oselective
▁absorp
neumon
surgical
▁biopsy
▁isozyme
anuary
macrophage
92
odic
▁emergence
▁lipids
erad
▁Doses
▁-0.5
63
abec
▁mucosa
▁accordance
ytes
▁extracorporeal
▁(26
reases
▁afferent
▁repor
▁periventricular
rever
▁delays
▁(125
arrhy
ardized
amino
▁plex
▁Assess
▁ricin
▁nevertheless
orubicin
▁Different
▁4.1
sensitive
umbers
▁poliovirus
▁immunoreactive
embrane
▁kd
▁programmed
residues
▁68
▁hams
▁questionnaire
▁stimulator
▁thymocyte
▁reservoir
▁onc
▁(5
oes
▁1200
Ni
▁conductances
▁exocytosis
▁reentr
renaline
▁embolization
▁glycosylated
vascular
testosterone
nitrophenyl
▁19%
brile
▁epidermis
▁rifampin
▁cathepsin
▁infiltrates
▁restric
▁senes
▁opioids
itance
▁propionate
▁GD
▁polyunsaturated
▁contradictory
▁0.15
▁specimen
ordance
▁hypotensive
▁valine
▁augmenting
▁1987.
dalton
▁catheter
▁biologically
ganglionic
otomy
ocated
ellular
▁superf
▁evaluations
▁endothelin
▁adjunct
▁hormone
timulus
▁histone
uprofen
▁contamination
helical
0%)
▁polarization
▁disrupted
▁1970
stin
indolol
galy
▁absorptiometry
▁weighing
▁enanti
▁measuring
▁stric
▁homogen
▁neuroendocrine
▁prolactin
welling
▁72
▁discriminant
▁spon
▁intraper
▁isch
▁1,3-
▁dressing
▁Pregn
▁Drosophila
▁(1.8
▁lamb
ropyl
▁93%
▁spinal
eliac
▁163
ailure
▁hippocamp
▁supportive
▁serolog
▁ovariectomized
toxicity
▁nucleolar
-]
bular
▁Nucle
▁55-
▁leukotriene
operiod
lact
cholic
▁dystrophy
▁athe
LTB
yroxine
odeoxycholic
ophilic
▁belie
-7-
▁INH
▁extravascular
▁fimbr
▁vibration
▁subtype
▁Morph
alveolar
▁adenocarcinomas
▁decades
▁structurally
▁myeloma
▁trough
bumin
▁antral
▁1),
allium
▁mug
NAc
orbidity
tise
▁fist
▁GFAP
▁anorexia
▁LM
minis
▁norfloxacin
▁freeze
▁Eco
▁locomotor
rease
▁tablet
▁rele
▁immunocomp
▁arrhy
arb
▁atrophic
▁OA
▁surround
▁wee
▁(500
phil
olipid
duce
▁Registry
▁inducers
exposure
▁microvilli
▁corpora
HLA
osyl
▁recurred
▁treatments
clerosis
▁surgeon
▁centres
▁collic
▁ipratropium
▁acetone
▁reveals
▁sarcoid
grown
ylamide
▁PtdIns
rachial
▁endotoxin
▁clinicians
75
▁91
▁Measurements
▁CBA
▁participate
tro
▁(10(
odium
ameter
▁ampicillin
▁antipsychotic
physiological
▁jugular
▁infec
oblas
otor
▁GAD
▁deline
Ins
▁soleus
▁microinjection
▁melanoma
▁fixation
▁periphery
▁peptides
repres
▁kidney
▁termini
▁aims
▁caro
▁capacities
▁photoreceptor
▁sciatic
▁titr
▁PD
▁neoplasia
▁RI
dihydro
hydroxylation
▁purine
▁hypotonic
▁serotype
▁ventilation
▁outcomes
▁Median
▁0%,
▁congestion
▁depolarizing
terminus
tiazem
▁digestibility
tituting
aneously
▁mimic
▁SCH
▁supple
aventricular
inflammatory
▁migraine
phylaxis
▁hematologic
▁excitation
▁allergic
▁midazolam
▁hematoma
▁fever
▁palsy
▁simulated
▁1/
▁adriamycin
127
icides
▁antifungal
▁seizure
tead
▁confirmation
▁suppressive
▁Subsequent
athetic
▁WR
▁26%
▁Tissue
▁87%
▁glycoproteins
▁hypotheses
implantation
notic
tensives
▁overestimated
-18
▁esophag
▁platinum
▁identifying
▁quantitative
odal
▁availability
▁hyperplastic
▁untranslated
▁Engl
▁resear
▁trend
▁344
▁polyamines
▁homeostasis
oxazole
▁refined
▁CSF
tive
▁pep
▁intracellular
▁SOD
rone
▁dys
▁Sequence
inyl
▁restrictive
▁enhances
urred
EMG
▁replicated
▁neuropsych
▁CAH
▁Bec
▁250
avail
99
▁0.22
lasts
ositol
▁palmit
▁600
▁sweat
▁concep
▁cues
▁leukotrienes
omatostatin
▁seminal
geneic
▁Immunobl
ochem
▁Hg
pressure
▁facial
7%)
▁IFN
labile
▁hypokal
Ps
▁antagonist
opes
ching
▁phenobarbital
▁dizziness
▁(30
▁hypoglycemic
▁freed
▁oncogene
odynamic
▁ependym
▁2-4
▁tenderness
▁mucosal
▁6.
amine
▁Estrogen
olitis
▁resis
▁neutropenia
▁musc
▁chronotropic
trig
▁dox
apse
thmic
atosis
▁myopathy
2+-
viral
(2+
physeal
▁reviewed
itonin
▁2.5%
itudinal
acterial
▁ori
0%.
▁disulf
epi
graphic
kinin
osyltransferase
vessel
▁OKT
▁redox
▁mesothel
9;
▁heavi
▁headaches
▁efficacious
opamine
ervations
atinum
ocortex
▁overex
▁preload
▁peroxidase
▁obstetric
romedial
▁projections
keto
▁MMC
▁circumflex
▁1,000
▁diagnostic
oxicillin
▁disposal
▁99%
▁emboli
▁attained
▁elongation
▁ADR
▁PAF
▁extensor
▁surveyed
50
▁poin
▁visualization
tiguous
▁manifestation
▁Symptom
orepinephrine
▁Stimulation
▁gallst
▁bronch
0.8
▁schem
▁morbidity
▁arteriolar
▁abundant
ithelial
electro
▁Glu
oride
▁scans
▁cerebrospinal
ervated
▁autoregulation
▁surgery
incubated
▁Biochem
ocalization
4)
18
▁protec
▁ventromedial
4,5)
▁immunoassay
▁CML
▁improves
▁anesthetic
▁microgra
110
▁bending
▁cyt
othi
tism
▁ribosome
▁sympathetic
▁necrosis
▁myotub
▁consensus
▁Abnormalities
▁palate
cortic
▁comparatively
ecal
▁singlet
▁cephal
▁differentially
▁(15%)
▁(62%)
▁isoelectric
osides
-5'-
▁Atrial
▁vascul
▁prevalences
▁promoting
Rb
▁275
▁humoral
▁stratified
▁buc
otropy
thmias
▁MIC
▁9%
▁(3)
▁Enh
▁spor
▁0.64
▁AI
ocorticoid
▁fmol
▁nitrate
rangements
▁thalamic
▁1.5-
▁diame
▁sphe
ropine
▁criterion
tact
deoxyglucose
▁detox
▁priming
▁10.2
▁Sephadex
▁necrotizing
DH
trating
▁secretions
▁quantitation
▁absorb
▁gonadotrop
▁(2.0
▁practitioner
▁oocyte
▁anemic
hydrox
lastic
renol
rological
glucose
▁internalization
▁HCC
▁octa
▁histochemistry
▁phenotypic
▁nicotinamide
▁(63%)
▁extravas
ogenin
mega
▁Infection
▁DT
▁intoxication
-1
oxidation
▁Biol
▁5.9
▁anaerobic
▁cofactor
▁chamb
▁adaptive
pired
▁-40
gulatory
▁immune
▁Seventy
▁corticotropin
adders
▁unsuitable
▁ecological
▁43,
▁alleles
▁synthe
-40
▁stimulates
▁sedative
▁9.3
▁differe
▁3.0
▁Abnormal
▁developmental
▁densely
▁transc
mediately
▁alterations
▁antitumor
asone
shaped
truc
TPA
oreg
▁parenchyma
▁(63
▁collagenase
▁benzodiaz
▁Stro
▁vitre
idation
▁calcitonin
aryotic
▁negatively
▁Pharmac
▁silica
▁0.74
▁indis
▁cartil
▁chori
▁extravasation
loon
▁nig
▁4.5%
diabetic
sied
▁hydroxyl
▁therapies
ologically
▁luteal
▁blas
oriented
▁(18%)
hydroxyphenyl
terol
cys
▁insoluble
▁.05)
evoked
▁neutralized
▁(60
educ
▁Statistically
▁cellul
▁bones
▁osmotic
▁primates
ardipine
otype
▁haplotypes
▁VT
tectomy
infusion
osom
arly
ritin
▁epithelium
▁11.0
▁lumin
▁reabsorption
▁SCC
dUrd
▁discharged
▁replication
▁swelling
translational
▁conges
▁deficiency
PKC
▁187
truction
azosin
ophy
▁bactericidal
iprofloxacin
▁0.09
▁irrever
tyrosine
▁Tox
▁Biochemistry
▁portions
▁virtually
▁encouraged
osylation
▁aggres
▁constitute
▁IGFBP
▁9.1
▁deple
▁regulatory
▁antigenic
▁Prel
odiaz
▁vitamin
▁gastr
▁Iso
25
creatinine
▁pharmacologic
▁congen
urc
▁(25
▁cyclooxygenase
▁flexion
▁Urinary
▁flaps
▁muc
▁multim
▁deleterious
▁thyroid
▁Neurop
phine
▁146
▁intimal
▁concentrations
▁pharmacokinetic
arate
transfer
odil
▁enlargement
substituted
agic
▁0.04
pressive
allikrein
oAbs
▁nurse
▁14.
▁acquisition
▁cholec
▁oxytocin
tives
▁heteroz
▁lens
▁osmolality
renal
roxic
▁secreting
▁amitriptyline
▁Bacteroides
▁clonogenic
10.
▁synthase
▁Entero
▁chromophore
▁surrog
inemic
▁joints
87
▁nuclei
olig
▁antagonistic
▁chemotaxis
▁VLDL
targe
▁bronchoconstric
▁sugars
▁0.02),
▁adoles
▁145
▁Rating
▁trauma
methyl
▁selen
sor
▁spike
▁clind
▁sham
▁rearrangements
▁demonstrating
▁Meth
▁esters
peak
▁bacterio
exercise
▁livers
▁examined
▁nodules
ufficient
▁(38
▁subcl
▁reperto
astically
▁microtubules
-34
▁insertion
12
85
▁platelets
Phe
▁suppression
archite
▁curative
trypsin
▁erosion
-80
700
▁mediates
▁Graves
igand
▁diseases
stem
▁ectopic
▁quantified
▁pregnenolone
▁diarr
▁glutaraldehyde
▁enlarged
▁antidepress
▁systolic
ocyst
1-1
(1,
compartment
▁4.2
▁exercises
4%)
ipital
▁prostaglandins
▁oriented
▁175
▁virions
▁exceeded
itin
▁sarcomas
▁manipulations
▁amplified
▁Bacter
HF
▁doxorubicin
ocamp
▁erythemat
ucleotide
▁-0.
yses
expressed
chymal
▁cholesterol
▁3'-
▁cardiomyopathy
▁psi
tonin
▁MT
olich
▁diarrhea
▁factorial
▁Twelve
resid
▁phospholipid
▁nursing
▁EcoRI
▁gingiv
▁heterosexual
▁descriptions
olecular
sts
▁kain
▁laboratory
▁amygdal
IDDM
ller
▁0.71
▁efficacy
▁Criteria
▁pathogenic
▁ribosomal
▁stimulating
▁intraocular
trogen
ietic
▁ICP
▁endocardial
urones
▁periplas
ompan
antibodies
angiotensin
▁retinoic
▁203
▁actuarial
▁discontinuous
-39
ethylene
atectomy
▁lineages
otre
▁TPN
emius
▁exposure
▁colpos
▁195
▁85
▁erythrocyte
achid
average
▁punct
▁peripher
▁fibrillar
▁reactivation
▁deposits
myc
▁genotype
▁thalamus
▁(92
▁hybridized
bruary
40)
▁cylind
lebsiella
▁posth
injection
▁verapamil
mAb
▁reductions
▁sple
▁leucocytes
450
▁energe
▁aromatic
isomer
▁adduct
▁LFA
.2%)
▁anesthetized
▁AK
cture
▁incontin
103
apanese
▁stenosis
▁adenomas
▁doctors
toriness
▁11.5
tition
lected
atoxin
▁clearances
▁ey
virus
▁encephal
▁Fifty
polar
▁aortic
▁conductance
regulated
▁incision
▁exce
olymer
▁(88%)
▁1-3
▁targeting
▁stimulatory
plications
imetry
▁2.1%
osome
▁sonic
mobil
▁releasing
▁GV
▁7
▁scl
▁dial
▁20%,
uspid
▁proceeds
▁densit
▁antigens
meth
CAM
▁laboratories
▁0.44
▁regurgitation
icardium
weighted
lactam
aspartate
▁clustered
▁ald
▁discriminate
▁anaemia
▁disability
isters
▁ultrastructural
istically
▁0.81
ylon
▁proportions
▁0.83
monstr
tosis
▁fistula
▁ultrastructure
PW
ofol
▁diuretic
ographies
▁30
▁80%.
▁derange
tine
examin
umic
▁resemble
▁Intra
vastatin
▁cytology
▁astro
▁proes
▁bacilli
▁97
▁phagocytes
1%)
▁NG
▁FE
kinetic
▁inducing
▁luteinizing
▁cerebro
ilin
▁transcripts
▁neuros
assessed
▁visits
tochemistry
kers
▁chymotrypsin
▁aeti
▁neutrop
▁halves
▁extrinsic
▁trypan
▁13.
▁blockade
▁ect
▁lumb
oxamine
IIIa
▁fluores
▁Few
▁vaccine
▁Adverse
erum
▁paras
▁lor
tigu
▁acrome
HV
esity
▁cascade
▁postre
▁utilizing
▁objectives
▁ionophore
▁supers
▁ADA
onvul
▁remo
22
▁grading
omonas
▁imaging
▁antimicrobial
▁1989,
▁incid
▁residues
▁98%
▁adoption
▁Cardi
▁inguinal
terin
ocul
▁tomographic
▁glut
ometh
▁Lys
▁reveal
▁6.7
562
▁retur
erebral
▁infarct
▁APC
achnoid
ofl
▁alve
blocking
▁compensated
onephritis
▁digoxin
▁duoden
▁stiffness
invasive
▁TATA
▁retrospectively
-200
▁permeable
▁hysterectomy
▁broth
▁mononuclear
▁7.1
▁ank
atridine
▁muscul
acement
▁dendritic
▁11)
▁27
▁HDL
oxif
7),
heal
thma
epithelial
▁peptid
▁Approximately
▁constric
▁balloon
myristate
▁(57
▁capsule
stress
inducible
▁histograms
▁cuts
▁baboons
▁0,
▁cardiople
▁ionized
▁autoradi
▁androgens
▁increas
▁mcg
▁233
▁osteoarth
▁consumed
othermic
ported
▁killer
▁postin
▁exercised
▁exceptionally
rometry
antigens
-28
▁formulation
▁synap
▁ipsilateral
▁1000
▁1/2
▁dopaminergic
▁HF
▁(300
▁schistosom
otriene
▁phenomenon
▁cros
tral
-19
61
dural
▁analgesic
▁exogenous
▁quiescent
urther
▁transient
▁retrie
▁intrag
EPs
▁objec
▁incis
keleton
▁(150
▁AML
▁peritoneal
▁densities
lym
▁tape
▁RNAs
▁Interleukin
10-
throm
▁agglutin
7-
▁Ae
▁follicles
▁ODC
▁cholesteryl
sian
▁immobilized
▁sphero
▁serological
▁11-
▁inherent
▁butyrate
▁successive
ancreatic
▁pmol
▁tris
haem
operatively
1,
▁Subst
▁diz
ystitis
▁nox
ivation
▁phon
▁sarcoma
30,
tir
▁contractility
▁nonex
▁elec
▁chondroitin
▁acidosis
▁infrequent
hexyl
▁anions
▁stresses
▁Fetal
ocriptine
▁origins
ergic
▁embryonic
duced
▁162
tents
▁complaint
▁chromat
▁inconsistent
▁overl
bisphosphate
▁indole
EDTA
▁elic
▁steroidogenic
▁trin
▁sput
▁1989
usions
▁138
▁packed
PGE
▁infective
▁fetus
▁(68%)
▁mimicked
▁continuity
▁20
tee
oscopy
▁covalent
osus
▁compressive
▁insom
▁KB
maximal
Tn
MV
▁superfused
▁stringent
▁leuk
▁excl
lofen
▁elbow
▁bioavailability
▁mongrel
9%)
15
ergency
▁neuromuscular
▁avid
operative
▁fibers
▁succinate
▁hybrids
osteroid
▁estrus
▁BMD
median
▁tracheal
▁Staphylococcus
vian
▁sulf
▁mucous
▁physiology
erine
▁ELISA
▁32%
▁198
▁0.02).
adrenaline
▁Rates
▁binocular
▁paradoxical
▁Dose
▁7.4
▁electrophoresis
▁spp
▁40%,
teria
▁mildly
▁DNAs
▁liters
▁exagger
▁discrep
▁antigen
ocytochemistry
▁controversial
▁ethylene
▁likelihood
▁acetaminophen
▁psychotherapy
▁effected
300
▁spindles
▁salivary
00,
▁glucagon
▁unid
▁recru
▁0.77
▁prevented
▁Retrospective
▁contraceptive
▁tension
▁damaged
ainide
▁Progesterone
▁negl
usp
exposed
▁98
▁exchan
▁respiratory
▁augmentation
lated
▁exploratory
▁BCG
▁ranitidine
▁5).
▁currents
▁surf
▁indicative
toph
▁EPA
0/
uppression
conjug
▁obesity
▁Pseudomonas
contrast
▁renovascular
▁interneurons
▁anomalous
▁incomp
▁advan
▁illumin
▁caudate
-)-
▁64%
▁0.42
▁echocardi
▁excitatory
▁30%.
▁mitotic
▁Large
▁labeling
▁Smoking
rospor
▁antide
oconazole
▁thirds
3/
▁recombinants
▁spirometry
ubilized
tetr
▁creatine
-198
▁atropine
▁AUC
renic
▁pneumoniae
▁13.2
▁CIN
▁risks
▁worsening
▁aids
▁undergone
▁0.88
▁0.49
▁47
▁impulse
▁lipid
▁mechanisms
▁methylene
▁1988.
▁cortex
▁reproduc
▁fractionated
irradiation
▁nasal
▁psychomotor
▁MoAb
▁fluo
▁Tris
14
▁hypothal
▁agarose
trum
othane
lyc
▁Cys
▁subtle
▁exposures
▁lith
▁lectin
roscop
▁21.
ygous
eminal
▁steroid
▁scintigraphy
▁estrous
▁splanchnic
▁22%
▁constituted
▁crosses
▁oxygenated
2%
leucine
▁mild
VLDL
inephrine
▁kPa
▁percentages
▁fragmentation
clusive
BT
▁Diagnostic
▁evoked
dition
▁allogeneic
▁tolerance
exper
▁trout
▁psor
▁matur
ipr
teric
▁neurological
▁breakdown
)2
itant
fluoro
-9)
▁endocytosis
▁colos
▁glomerul
▁influenzae
▁deform
ophore
ropha
▁morphologically
ilum
▁inducer
▁(28%)
▁Sensitivity
▁velocities
▁additionally
▁nascent
▁evaluates
BAL
▁aneurys
ithium
hans
▁hypocalcemia
▁endothelium
▁dehydration
▁precipitate
▁chan
▁3),
phic
▁subnucle
carbox
HDL
▁methionine
▁difficul
arent
▁mathem
▁remn
▁Alzheimer
▁viability
▁myotubes
▁1---
▁mmol
lyce
▁aluminum
▁perikarya
▁dissolved
▁umb
▁dioxide
▁InsP
mRNA
▁pyrimidine
adap
▁exhaus
▁cytosine
▁mobilization
ifed
▁Sertoli
▁chemically
▁phosphorylated
▁intron
▁vasoconstrictor
etition
▁AMI
1210
posal
▁trachomatis
▁1%
idating
▁thickening
▁Simultaneous
▁predominantly
73
▁unres
opropyl
tum
igible
astolic
▁posttrans
▁44
▁spermidine
▁hypon
▁autonomic
▁panic
▁hemag
▁3000
▁pneum
▁TSH
▁artery
rometer
▁analogs
▁BMI
Nase
▁3%
▁oes
▁hydrox
▁PHA
▁disten
▁nocturnal
▁iodinated
▁myelin
▁ryanodine
▁800
illance
▁mechanically
▁distal
▁chromosomes
.1,
jun
▁athle
romethyl
▁sympathe
▁IgA
luding
▁contribut
thysm
▁vasodilatation
0-
parathyroidism
terious
▁thigh
agastrin
▁amacrine
▁CN
chlorothiazide
▁cytoskeletal
▁114
planch
▁acad
▁occult
muc
▁RFLP
valvular
roxy
▁beads
▁exacerbations
cessive
alanine
▁eluted
tens
pharose
▁elong
▁isoenzymes
ermal
ivariate
▁triam
▁rIFN
razole
▁emptying
▁lasted
platin
itals
▁metastatic
phor
▁Serum
▁Staphyloc
toma
arone
▁anthrop
▁stimul
▁LV
▁epilepsy
▁secretory
▁prescribed
▁TM
econd
▁PaO
▁obstructive
hormonal
▁indo
▁desirable
▁attending
▁225
went
issive
▁aneuploid
rophyll
▁wash
▁occupancy
▁malignant
58
uran
▁alumin
▁outlet
ositis
thmatic
ections
▁hyperpolar
▁polys
▁antagonized
fron
▁89
ralazine
entral
▁disorder
oxin
▁125
▁cultured
▁competent
ymme
▁multil
▁protamine
▁kcat
tein
▁albumin
▁2.3%
▁immunobl
rosemide
▁BAL
▁hippocampal
enol
▁60
eptides
▁1,25(
▁affects
▁arbor
▁encompass
▁symmetrical
▁identifiable
▁judged
▁tau
▁8-
inopril
▁heterogeneous
ressed
▁monomeric
uminal
▁tow
▁illness
▁unre
▁modulate
▁cement
.2
ranial
onam
▁0.05)
▁subunit
spective
▁immunogenicity
▁phages
etitive
▁arrhythmia
▁feeding
apeutic
optimal
-6.
▁collab
▁Subcutaneous
▁plas
57
▁dynorphin
▁3.5%
▁parity
▁carbonate
ofluores
▁snail
▁5.3
alim
▁AChE
▁sati
oblastic
roprus
tructed
▁meperidine
▁immunodef
▁oxidative
▁1.6
oconjug
centr
▁dithi
▁Continu
▁allergen
[3
▁Renal
▁43%
▁probe
▁deterioration
▁Spontaneous
▁71%
▁fibrob
▁neuroleptic
▁DEAE
acholine
oxybenz
▁CHO
▁Cox
10,
.0,
▁Respiratory
▁LPS
ogeny
▁occlusions
▁ketamine
▁ventilatory
▁trophoblast
obac
▁leucocyte
hydroxydopamine
▁cesarean
▁alcohol
▁PP
▁correc
▁nitrous
▁glyc
▁repetitive
phosphon
▁(7
individual
▁5.1
ludes
▁mutated
▁paternal
▁sectioned
▁outbreak
▁medications
▁nasopharyngeal
otoxins
▁warfarin
▁100%.
connec
▁papillomavirus
▁testis
▁(1.6
▁emphasis
concentration
▁Adult
otrophs
▁lenses
▁endoscopy
▁dimers
▁choro
▁interviewed
▁diagnosed
produc
77
hCG
cardiac
.0%
▁osteoarthritis
othal
▁midline
▁Analyses
macropha
▁deoxyrib
▁patency
▁seas
▁metastases
▁enteric
▁cleavage
▁plac
acrine
▁(3),
▁intakes
▁BT
▁weaned
▁Centers
bindin
esin
adex
▁nons
deficiency
▁Eighteen
▁helix
▁induc
termined
▁cytologic
yronine
▁prednisolone
▁0.20
▁stu
▁decarbox
ropo
▁dihyd
ercul
▁eosinophil
▁motone
▁cytolytic
▁IMP
▁intramolecular
▁(84
CRF
▁AO
▁smears
▁Comparison
azem
acetate
ronate
inic
▁superoxide
thms
▁gelatin
spectively
▁recruitment
▁PEF
▁1.25
▁diagnosis
ostic
DTPA
▁sepsis
▁scientif
▁epsilon
▁cation
▁chor
▁apoA
▁regulation
▁76
▁antagonists
▁pouch
ellar
▁eczema
▁Measure
zotocin
iatric
▁dodecyl
oplasma
31
▁androstenedione
▁autoradiography
ocarb
▁penile
▁energies
uretics
eptide
ATPase
▁predominance
embryonic
▁microscop
▁7.5
▁CsA
▁responded
▁oestradiol
▁somatosensory
▁routinely
▁79%
resting
▁PGI
▁nights
lora
phot
hist
▁positional
▁questioned
aemia
▁1.5
▁apoB
Fc
▁algor
▁10,
▁clinically
▁quantit
ulent
+,
▁relaxing
LAK
▁peroxis
▁recycling
fos
▁discrimination
vedilol
occal
terologous
5%.
▁scaven
ialysis
omyosin
twitch
▁tetan
sives
▁tetrodotoxin
▁succes
MG
trodotoxin
ximide
▁correspon
HSD
▁atherosclerosis
▁aberrations
atous
▁1.06
renz
idone
▁VO
▁Arterial
toc
izine
rosal
▁55
▁sutures
▁Histologic
▁slices
▁isolate
▁physiologically
▁PDGF
keratin
:6
NMDA
onucle
▁epinephrine
▁nif
▁catecholamine
▁identi
▁elastin
partate
umetanide
tructive
▁strokes
▁neuropil
▁Tum
Kyoto
alc
▁Intr
trib
▁cyc
helium
▁49%
▁intrauterine
▁serially
▁GABA
▁dopamine
42
▁TA
▁40,
▁acceptance
▁neoplas
▁fulmin
▁carp
▁APD
▁enhancement
▁overestim
▁Arter
▁sustain
/100
uin
▁veins
cents
▁endoscopically
▁-15
uclear
▁adolescent
▁homogenate
gangl
▁aqueous
▁indirectly
▁aggregation
▁perfusion
ication
valence
chloride
sisted
turnal
▁favors
▁30,
▁basement
▁16-
▁heterogeneity
ralfate
▁Langerhans
▁RV
▁degrad
▁intervention
farin
▁Prac
▁AH
▁procollagen
▁rostr
▁uncontrolled
▁yearly
▁340
▁10(-8)
▁neonatal
▁predomin
thrombin
▁thymus
▁Inhibition
▁osmolar
▁1969
▁initiate
Ki
alsy
▁dihydrofolate
▁admissions
▁Trial
▁aberrant
PMN
▁neurob
plen
▁Purkinje
jec
▁untrained
agonists
▁radioimmuno
▁immortal
▁autoantibody
▁iodine
phospho
iruses
▁complementary
▁coupled
▁suckling
opeptides
▁147
▁132
▁fitness
idine
▁152
igenic
ithi
▁creatinine
▁sonography
▁tumorigen
▁weighed
▁amylase
2(+)-
▁grafting
0%,
hemagglutinin
▁weighted
▁3.7
aced
posing
▁extraction
▁indefinite
▁decade
▁estimating
▁0.86
▁erythropo
NIDDM
▁galactose
oproterenol
▁Acet
rents
▁suppressor
▁laminin
▁nausea
▁palp
tite
Ala
▁mec
▁gradients
ylcholine
enic
▁sequel
▁titers
▁Thirteen
▁PGA
ondon
▁characteris
ithin
ifferentiated
▁13.9
▁Eff
atine
▁bicycle
▁ocul
▁propagation
▁oleate
onuclease
▁magnocellular
▁(4-
corrected
ovastatin
urospor
▁ranging
threshold
▁cardiac
oxone
▁lympho
▁predictors
▁kit
▁microm
-33
▁myel
▁beneficial
▁prescriptions
▁(69
▁organelles
▁hyperch
-1-
▁heifers
▁projected
▁recirc
▁Optimal
ognition
ygdal
▁Dise
ocar
-5)
tolerance
▁cations
▁filament
▁staging
▁1
acking
-24
▁Synthe
▁(2-
▁autoreg
46
▁freezing
thi
▁mitogenic
ecum
dimethyl
▁2.0
▁unfav
▁100-
▁washed
oside
▁optic
hepar
▁20)
titis
▁vomiting
▁blacks
▁recurrences
▁45%
▁microvessel
+/-
▁pig
▁periodontitis
-1;
ethylmaleimide
▁symp
micro
responsive
▁synov
▁10%.
▁febrile
▁barb
▁(95%
dyle
▁deficient
▁tectum
drug
opolysaccharide
anded
▁disrup
▁ingestion
▁degran
orphyrin
▁seated
▁androgen
▁underestimated
▁premature
▁bouts
▁cholinergic
▁affective
▁contributing
rought
▁twofold
erance
▁intensive
reast
▁GF
▁genic
▁endemic
plasia
ilical
▁acinar
▁voiding
-3)
.3%)
catalyzed
▁raphe
▁tetrap
Mg
▁proteolysis
depr
▁14,
iliary
▁8.2
acetic
▁appendicitis
-50%
▁slowing
▁endometrium
▁reac
▁classify
olamine
▁myo
enopus
▁perif
▁solubilization
▁lymphoid
▁10)
▁sial
ece
ACTH
▁carotid
▁mothers
▁diacylglycerol
imid
Dawley
disc
▁hypertrophy
▁reagent
-14
▁weaning
▁1980
▁pulsatile
ffinities
ogens
▁constipation
▁decayed
▁sperm
▁6,
▁phenytoin
uestionnaire
▁capillary
▁nonspecific
tization
▁ventilated
Ox
▁Combination
▁migrate
eradish
▁aerobic
upus
▁cytos
perg
feron
aid
▁Examination
▁erythromycin
sy
▁leukotri
carboxy
▁posi
3+
Glc
ocyanin
▁subdivided
▁40.
▁Exposure
frontal
▁facilitation
▁reproduced
▁maxillary
metabol
PDE
▁techniqu
▁admission
▁HL
▁gains
▁proteases
othyronine
▁placebo
▁therapeu
IgA
▁epitope
▁Reduction
bac
▁lapa
▁evac
osomal
▁Leuk
nutrition
▁mosaic
ovascular
▁mediators
urations
▁prol
arachnoid
▁pumps
Ns
▁cultures
12,
▁inhibits
ereb
▁nicotine
▁proline
▁seminiferous
▁immunoprec
▁ligament
▁DNP
▁rhin
▁13,
labelled
ubiqu
▁recombinant
▁63%
▁injec
alian
ortal
▁plasminogen
▁analogues
▁Interestingly
Vmax
▁yeast
urosporine
▁RPE
▁41%
▁exclusion
▁allogra
▁CABG
▁Antibodies
▁chicken
ioid
▁neurom
▁2.4
▁(79
robial
glycer
▁48-
potential
▁preserving
tious
botic
▁deaths
oretic
▁morb
▁rifamp
▁predictor
▁hazards
mum
▁catab
▁osm
▁feasible
▁tritium
▁hepatotoxic
▁vena
▁Increas
1.1
▁competing
enh
▁transduc
helial
▁osteoclasts
rection
▁rost
duction
▁umbilical
ophores
▁kinetics
▁asymptomatic
ochle
anyl
▁COS
▁KCl
▁Weight
▁exaggerated
ylene
posure
▁VP
▁cervical
ureth
entif
rogenic
oterol
▁NADPH
▁horseradish
▁preoptic
▁aden
▁ADH
▁coronary
▁PI
-125
Hu
▁bradycardia
glutinin
-7.
ylic
0.2
▁Finnish
MHC
▁junctions
▁calor
▁ech
responding
▁95%
▁dramatic
▁proliferating
▁arteriography
▁alcoholic
▁dex
RBC
▁HC
▁methodological
60
▁depress
▁hypothyroid
otrophic
epam
▁correspondingly
▁congenital
8,000
▁ibuprofen
zable
uctose
▁genesis
▁gonadotropins
trin
▁hemolysis
5%),
▁autocrine
▁prosthetic
▁streptokinase
▁phenomena
▁HbA
▁dib
-26
▁antithrombin
▁motif
▁contour
chym
▁phenylephrine
▁(8%)
▁128
ternational
▁characterised
▁Hyd
▁acros
▁proliferative
osaminidase
▁analogous
▁obli
anine
▁micron
▁1981
▁5
▁colonies
▁adenylate
▁guanylate
▁influx
▁80.
ophosphate
▁ophthalm
▁70%.
▁narrowing
▁parasympathetic
▁granulomas
ydig
▁26
▁pancreatitis
▁myof
▁slopes
▁440
▁hypers
▁potenti
▁myocytes
▁1976
▁2000
ovine
▁cytochalasin
▁chest
▁3.1
acr
yrene
▁follicular
renin
▁+/-
▁Therapy
pread
▁downstream
yrosine
oplatin
4]
▁unsaturated
oconstric
tin
orporeal
aline
▁biopsies
▁rash
▁pancreas
▁sour
▁ionomycin
ophen
▁duct
▁radioactivity
▁PDE
leuc
▁transplants
▁oncogenes
▁0.1,
▁ribosomes
,000
▁peptide
▁intox
oactive
▁experts
▁unpredictable
▁pathology
▁2'-
▁progestin
▁hydrophilic
icients
iaz
▁deduced
diss
▁(9
▁Transient
▁40
▁preven
▁provoke
▁coagul
▁4
▁0.11
90)
5]
▁discharge
oxal
▁potencies
▁precursor
methylation
▁pigs
ochondrial
ypro
▁ulcerative
▁paradigm
▁stratification
▁corpus
incip
▁TT
▁emotional
▁pregnant
▁tobacco
▁detrusor
ulin
▁(1/
▁CAP
▁rhy
▁Crohn
cyclo
▁cirrhosis
▁triti
▁glu
▁13-
▁.00
▁Sleep
▁(2%)
▁habits
▁iatrogenic
▁hemorrh
▁carcin
▁formaldehyde
umptive
pite
▁percutaneous
(2+)-
▁oligodend
othione
▁cytokines
▁amphotericin
▁asbestos
apsulated
imentation
▁shocks
azep
▁1974
▁accounted
▁resting
olerance
rofen
▁strands
▁saline
▁gonad
▁hemo
▁segmental
▁supernat
IgM
▁8)
▁stain
▁venti
▁progn
▁goats
otide
▁SCLC
▁pertussis
▁libr
▁electroencephal
vant
arity
prednisolone
▁sleeping
▁respects
▁subjective
▁8.4
elvic
▁originated
meas
▁chimeric
anad
ospecific
▁68%
▁cryst
arean
cAMP
▁Lyt
tyl
▁erythropoietin
▁0.9%
hene
▁13.3
ighted
osid
▁endocardi
▁analyzing
tole
▁alters
▁dors
▁strikingly
:4
▁infancy
tabol
20
▁intrap
TNF
violet
▁defects
51
▁catechol
▁healed
▁0.7
▁TCDD
▁2,3-
planchnic
▁MLR
.0
▁pyel
riton
omatis
▁responsiveness
tember
LH
▁lamina
▁cirrh
▁bilaterally
ergy
▁CRF
▁fibroblasts
oxetine
▁synthetase
▁cholest
▁tachycardia
ositive
▁dihydro
▁marrow
▁methylated
▁electrostatic
urine
▁monensin
hydr
▁lectins
oprim
▁lumbar
▁mt
▁organic
▁24,
Ds
unctional
▁reticulum
▁Thereafter
▁fertile
▁subcutaneous
▁attributable
47
▁Survival
▁400
▁DSM
GF
moking
▁intraepithelial
▁MHz
▁hydroxyp
▁fluconazole
prising
▁frontal
opic
dependence
icide
▁EMA
▁protocols
ocap
▁degranulation
onor
entgen
▁0.06
trast
▁entero
▁ASA
▁immunostaining
▁119
irradiated
▁PCP
▁radioactive
▁EEG
▁135
ogl
▁PTH
cGMP
▁turnover
okine
▁tox
▁homoz
▁cathe
▁atresia
▁Tx
▁Membrane
kely
53
▁erythrocy
▁epidemic
▁skull
▁radicals
▁thrombo
▁186
▁concurrently
▁ances
▁asymmetric
▁loos
iphenyl
9.
▁5000
▁ile
▁originating
compart
▁faeces
▁staphylococcal
▁mEq
]-
▁uterus
amethasone
▁0.2
▁radios
▁LH
▁controlling
▁tolerability
▁neuropath
▁nodal
▁swine
▁0.69
asive
tryptamine
trient
▁AII
▁inoculated
▁Viral
imolar
illin
▁Recently
2+]
▁Isolated
▁1.2
▁76%
▁DCA
▁depolarization
oinositi
rolase
▁transcription
ucose
▁conjugates
ethoxy
▁debris
▁viral
organism
esides
▁atenolol
onegative
▁leukaemia
▁37%
70)
▁unequ
▁verbal
phadex
▁nonfatal
▁membrane
▁lysozyme
▁thyroglobulin
arrhythmic
▁eighth
bral
ranolol
▁elu
▁Changes
▁GABAA
▁critically
ystic
▁nosocomial
▁esterase
▁shear
▁elucidated
responsiveness
▁aldosterone
▁naloxone
▁ane
▁diets
educed
2).
▁spro
▁persistence
oagulation
formyl
▁oxygen
▁fluctu
rox
RB
▁sensitivities
▁persis
▁macromolec
2+.
phage
.5%,
▁(65
▁gels
▁hypothermic
▁Cardiac
▁dose
▁.2
▁172
anthrene
encephalic
▁1987
▁metabolites
▁transfect
▁hospitals
▁reproducible
▁choles
▁Subjects
▁bic
▁Disease
▁14
mur
feren
▁responders
▁nitrite
▁epicardial
▁50%,
▁codons
▁palpable
▁methyl
▁TB
▁acini
blastine
usal
thase
▁Streptococcus
▁120
rogesterone
lue
▁inhib
▁metaphase
▁HB
▁mediator
▁duplication
▁apne
▁(0.0
affec
omical
oligo
▁counseling
▁mitogens
▁thymocytes
▁chronic
▁Mn
▁unstimulated
ysm
osine
eptidase
▁diethyl
-5,
▁triglycer
reactivity
▁arrhythm
▁Ace
▁onset
▁actin
lowering
▁opson
▁(250
▁neoplasms
omeric
▁chlorhexidine
▁susceptible
▁recurrent
▁21
orh
▁alteration
▁pathogenetic
▁bone
teroid
lycemic
▁worms
NK
adrenal
▁preterm
▁hyperlipidemia
coal
▁superc
opar
peptide
▁skeletal
▁atherosclerotic
▁overweight
▁arrhythmias
▁distor
ecia
▁colonoscopy
▁rheumatoid
▁describ
▁minimize
bloc
▁dilatation
▁prevention
▁1.4%
erox
0%).
particularly
achol
▁chym
ximal
▁anionic
▁carcinogen
▁SPECT
▁nurses
pituitary
▁chromosomal
80
▁pyramidal
hepatic
▁buspirone
▁2.5-
▁42%
▁precipitated
▁rosette
▁predictive
carb
▁TDI
▁tomography
▁tremor
olones
▁223
▁psychosis
▁cellulose
▁bombesin
▁gag
▁initiation
▁pelvis
▁proliferate
tonic
gated
habil
▁radiologic
lux
▁cervix
▁293
aminophen
▁liposomes
▁folate
▁chec
muscle
▁4000
opa
▁750
.7
▁Dex
▁4).
▁ionic
▁albino
▁lysate
fective
piride
roxicam
ysed
▁diges
▁Asn
▁(6
inhib
▁dB
▁probes
ectomies
acetamide
ropriate
▁transcript
▁prefrontal
3).
atchard
▁distress
▁capsules
▁Sero
requ
▁illus
▁saturation
▁0.30
▁dilution
▁GVHD
lysine
ivac
▁124
selective
▁histological
▁inges
▁(19
▁intrac
▁LS
▁neurogenic
-1.1
▁typhimurium
▁drinking
▁cytometry
▁solubilized
▁inactivate
▁2',
▁vasodilator
▁molars
enin
functional
▁microcirc
pirone
▁piper
▁longus
rays
▁tegmental
▁ghosts
▁rIL
tries
▁predic
ogenous
▁melatonin
olarization
glucuron
▁(67%)
▁manganese
onary
▁gangl
▁25%.
▁cDNAs
▁infiltrating
obarbital
▁Infusion
alcip
▁Perc
▁243
▁immunocompetent
▁terminus
▁Extracellular
▁67%
kets
▁varies
enteritis
trition
alose
▁carcinogens
▁intake
-8
▁(100
▁cardiovascular
▁polyc
tested
▁preval
▁dehydro
▁phosph
▁interruption
Tx
▁-2
▁eosin
ocaine
▁normals
▁answ
hydropyridine
▁subpopulation
▁fibroblast
▁pediatric
casein
▁ileum
▁distension
▁monos
▁histamine
▁deprived
taining
▁excitability
▁cytoplasmic
▁attenuated
▁prosthe
▁cooper
▁180
▁investigators
▁contraceptives
▁3.3
▁72-
▁Prolong
▁angio
▁strom
OA
▁overload
nish
-5.
▁leprosy
rati
▁38
▁adrenalectomy
▁0.12
▁multin
▁4.3
▁histology
▁melan
▁arter
▁lamellar
▁hydroly
▁synaptosomes
10)
▁panc
▁biosynthe
mineral
retro
tox
▁tumour
▁21-
▁phagocytic
tissue
pregnant
oplastic
▁infiltration
▁quisqualate
▁50%.
▁ester
▁artic
▁introduc
▁cured
▁methotrexate
▁branching
▁vagus
▁bolus
▁Nineteen
+]
▁awak
▁Statistical
▁550
▁36
▁bromocriptine
reening
▁gout
ensity
▁GA
immuno
oste
▁Nine
deple
8]
▁microtubule
▁Subs
▁peptic
▁(66
▁endocarditis
forming
▁compli
▁encephalopathy
▁HS
▁adhere
idases
▁82
▁puls
▁transplantation
▁Removal
promazine
▁alopecia
▁nicotinic
▁substantia
▁Computed
▁isotope
SOD
zine
▁antibacterial
▁Replacement
SAID
intensity
▁enal
▁78
▁WBC
CEA
modified
▁gly
imazole
▁asial
▁bronchi
▁graded
ylase
difference
▁hGH
-3
▁magnesium
plants
▁ery
osin
▁astrocytes
unctions
▁theore
uding
▁LN
▁Plas
utroph
▁granulocytes
0.5
-67
▁reserpine
onography
▁antif
▁Identif
VIP
▁176
BSA
1+
▁disorders
ylate
nitros
▁cortical
▁aneup
osol
respective
MIC
▁BK
aired
▁Transi
▁Muscle
▁expectations
▁MDA
ogra
▁measles
▁condens
▁paren
▁CAL
▁lidocaine
vivors
▁staining
▁38%
▁GI
▁supplemented
AVP
▁Dietary
▁hypo
▁interf
▁relating
oproliferative
▁glaucoma
ept
avage
▁unfolding
▁anesthetics
▁abruptly
▁Breast
-1,
▁equilibr
▁stained
▁debr
▁19-
sities
▁RII
tics
▁venous
permine
▁94%
omn
▁CaM
▁moiety
▁microscope
▁orific
49
▁detec
oprostol
▁desatur
dihyd
▁pharmacokine
▁angiographic
▁urtic
administered
▁protective
unately
▁exudate
ovirus
▁valpro
▁introducing
▁Epidemi
▁lifestyle
▁lesions
▁toge
▁isot
▁cloning
▁cys
openia
omorphine
▁practition
iplinary
▁complementation
▁kinases
▁prescription
▁cancers
▁Surgery
▁Inventory
urin
▁lysosomes
▁splenocytes
▁insensitive
▁cycloheximide
▁normalization
▁specificities
43
▁Forty
▁amputation
▁agglutination
onium
kinesia
-64
▁2.5
▁productive
▁iodide
icin
▁colorectal
▁serogroup
▁fasted
▁(5%)
wes
▁experim
attern
▁crosso
amicin
▁(31%)
iesis
▁superim
▁geniculate
▁8.7
▁pars
▁metoclopramide
▁(2.6
tidine
-27
▁nonselective
▁(7%)
reduced
▁etoposide
6%
selec
▁immunore
comitant
erebro
▁dias
▁amlodipine
cardi
▁(199
galactose
▁cyanide
oleucine
sized
▁cycling
▁conformation
orac
▁218
▁enroll
▁vulgaris
▁sten
mg
▁4.4
▁pipette
▁aggregated
▁64
▁adverse
-88
stimulation
▁responding
120
erable
▁influences
▁9.7
vac
-21
▁favorably
rP
esium
▁quies
▁220
adequ
ucle
▁therap
▁sinusoidal
semin
▁eug
▁acetic
6-
▁PMS
▁norepinephrine
▁Respon
PAP
▁cirrhotic
▁inapp
▁lungs
▁thyroiditis
▁thyrotropin
▁epidemiologic
rometh
▁proteoglycans
▁rup
▁esophagitis
▁irrespective
▁pneumonitis
▁phosphatid
altered
▁xenografts
▁epididym
▁Scatchard
obases
▁LF
▁MDR
▁fractures
▁herpes
leukin
resist
ffinity
▁bovine
▁Sprague
▁toxins
lovir
▁Molecular
▁46%
eled
▁perme
▁dividing
physiologic
▁kinin
▁clinical
▁absorbance
onatal
ocomp
▁Various
▁topoisomerase
▁retrograde
▁PMNs
▁[2
osum
kelet
▁dyne
.6%)
▁monocytes
▁induces
▁centrally
averine
oratory
▁phosphates
benzyl
reductase
mitters
▁mesang
▁underwent
▁ontogeny
dA
▁MMS
39
phenylalanine
▁Pretreatment
gag
▁inpatients
▁(93
▁Phen
tetra
▁substituted
kage
▁bursts
cinolone
amido
expressing
▁pH
▁tooth
istribution
erence
▁150,
▁grain
terolog
59
ture
▁wavelength
▁PCA
▁anemia
ziness
▁BD
onidine
ymp
2;
medicated
▁50-
▁sharply
BH
▁benzene
▁myoglobin
▁cruz
▁42
▁Wistar
▁elastase
▁glia
▁glutamate
emide
idespread
▁acidification
matched
▁erythema
▁multiv
otrexate
▁(13
▁Saccharomyces
▁16%
▁colitis
aturia
▁assessing
glyc
clamp
▁anesthe
▁asparagine
oA
were
oplas
▁sinus
▁embryos
▁transforming
▁abrog
▁sacc
yro
olestero
▁reversibly
gA
▁sampled
plantation
▁protr
▁pHi
azolium
▁neutrophils
▁cann
▁diphen
▁mannose
▁projecting
conditioned
dyn
▁PPD
▁(1
▁radiograph
roat
▁308
▁glycerol
▁messenger
▁myristate
ceived
▁hypotension
▁15%.
▁exerted
fine
▁warts
▁parox
▁oxygenation
/20
ongest
▁secretion
oxon
▁validated
▁truncated
idovudine
▁ICU
▁6%,
ochrome
▁analgesics
tors
olam
▁0%
▁anastomosis
▁mast
▁calcified
▁33%
UV
▁mediating
▁adjus
▁dysfunction
▁(24
▁190
▁whee
▁positioning
pain
pontaneous
cancer
eroxide
▁branched
▁steroidogenesis
▁monocyte
▁isolates
▁topical
72
tris
▁focusing
▁uter
esting
gnetic
▁accidents
▁trigeminal
▁reversed
▁88%
sess
0.3
ordial
infected
monophosphate
eryth
opr
▁regulate
▁PMA
▁precursors
▁(25%)
▁(43
▁nutrient
▁persistently
▁methadone
▁retic
guan
▁41
▁hypertrophied
▁Estimates
ubicin
▁glycolytic
uation
adjusted
▁(33
▁summarized
▁weigh
itidine
▁immunosuppres
ongue
pendicular
▁FMLP
olgi
▁pathogenesis
▁nip
▁annually
▁soy
▁chel
▁hig
▁99
▁17,
▁villi
echanical
affected
arynx
▁exceeds
vices
▁clamping
embran
▁anxiety
-1.2
▁virtu
turally
methoxy
▁forearm
kephalin
▁mmHg
amidine
▁diagnos
inergic
▁105
▁deformities
▁absorption
embry
▁gallbladder
otericin
gm
adecan
▁conformational
▁thym
ensory
▁Cycl
▁(14
▁stools
early
▁aryl
emic
140
▁dramatically
▁boutons
conversion
ophilus
/4
▁estrogen
▁Experimental
▁localize
phosphatid
▁uve
▁antibiotics
▁unil
▁230
▁accounting
enclamide
▁0.03
▁(16
trus
-2.5
▁Rats
▁sterile
alues
▁Conversely
▁parv
adication
▁polypeptides
▁lateral
▁tryptophan
opathological
▁unbound
94
▁isoprenaline
EBV
▁Activation
▁Glucose
effects
▁protons
azepine
strand
▁(46
ogluc
▁NaCl
heresis
isolated
▁mineralization
mortal
▁PCR
▁gonadotrophin
zot
▁infrequently
▁investigations
▁cerv
▁RS
▁6)
ocytes
▁incorporated
▁alkaline
▁benzodiazepines
omatosis
▁mim
hemoglobin
-40%
▁myeloperoxidase
intestinal
illation
▁accompanying
▁moieties
▁-1
▁collecting
regn
▁cris
▁53
▁10-
▁carcinogenesis
▁cholecystokinin
▁synerg
▁206
osteroids
tronic
▁prescribing
opoiesis
helix
HIAA
▁nitro
▁triglyceride
▁arti
oglut
ucleated
natally
▁mares
0%),
▁(12.5
▁unin
icated
2318
distal
▁categorized
tophan
▁starvation
▁gonadal
▁scanning
▁multicenter
reactive
▁0.36
▁perfor
▁preparations
otri
▁athletes
▁241
▁oocytes
▁dementia
enolpyruvate
ensi
ctive
▁fungus
▁replic
▁ethnic
otoxin
▁8644
▁HCV
▁1.1
▁antioxidants
▁analyzed
▁46
▁134
FEV
daily
▁sucrose
▁heterologous
▁vite
▁Nit
▁syndrome
▁elevation
▁latent
▁0.94
ults
▁diameters
▁spots
▁PaCO
▁alternating
▁Exc
▁Clostridium
▁Schwann
cad
ducing
▁clon
▁attain
▁exhibit
▁guinea
FV
ighting
henyl
▁profound
ischem
acted
▁healing
osamine
epti
▁excre
inj
▁serine
▁shifted
▁preferential
▁Thir
▁schedules
▁gastrocnemius
▁resembling
▁distin
▁Cul
▁plexus
▁lesion
▁polarity
▁synapse
▁60.
▁bronchitis
▁promoters
▁Acute
▁parac
▁accumulated
ycin
▁supplemental
▁lavage
▁spectroscopy
▁malaria
+/
▁enzyme
DPAT
cephalic
▁hypot
▁lymph
▁(50
▁MCF
zyme
▁airflow
▁144
VT
▁2)
▁warr
rhy
ymptomatic
▁iso
▁divergence
▁dispersed
▁awareness
anol
amet
▁impair
othalamic
▁DHA
-1000
▁subun
▁Severe
▁adrenoceptors
osterone
▁Eleven
▁bowel
floxacin
▁CVD
▁rigorous
yx
▁adrenocortic
▁patent
apamil
▁70
▁decreasing
▁8.8
▁1.2%
▁drinkers
▁inhibiting
▁KD
▁synovial
▁prostate
▁1,4,5-
▁anhydrase
mmol
pinal
▁trophob
CHD
ellum
▁crest
▁ATPase
▁amo
▁Extensive
▁neurons
▁stenotic
▁heterogene
crimin
▁apoE
▁indus
▁elderly
▁embry
vail
▁kerat
opi
▁convul
▁rhesus
▁rearrangement
roup
▁subjec
▁electrocardi
▁standardization
effective
:1
▁paralle
▁lytic
▁dams
siella
▁aggra
inase
▁dental
▁preincubated
▁serologic
tryp
▁CoA
ipit
▁1.7%
▁lacked
4%
venty
arge
▁DH
▁endot
insensitive
leuk
▁infrared
▁morphology
▁elicit
▁rhabdomy
tase
kade
IAA
▁hCG
adecanoyl
▁Significantly
▁FcR
▁operative
▁MLC
▁Recombinant
▁Braz
antagonist
▁mediast
roin
▁coil
▁FEV
uridine
▁glycosylation
▁Hind
▁-8
▁CRH
▁postsynaptic
vul
▁tibia
▁thrombocyt
▁170
▁margins
DNA
▁aeruginosa
▁Histological
dialysis
▁2.8
▁Higher
▁viewing
▁20.
▁assis
▁spind
AFP
▁recycl
ophysiological
▁swimming
▁27,
uretic
▁FGF
▁depres
tetradecanoyl
▁intracoronary
▁horm
microglobulin
▁intrahepatic
entified
▁plaques
tig
▁ROS
▁8.5
▁fura
9,
▁limbs
▁ACE
alate
formations
hetamine
▁positivity
FU
ressive
▁sequentially
▁49
▁hypercalcemia
lobin
▁luminal
▁arteri
▁kilobases
▁asymme
▁intub
oxygenation
acron
▁macroscopic
▁Tf
▁metall
iosis
LDL
▁descrip
dibular
▁tolerant
388
▁150
fraction
▁adenocarcin
▁phosphorus
▁227
nine
▁0.98
arcomas
▁lysosomal
▁ure
▁diazepam
▁CMV
opeptidase
▁splicing
▁depressed
especially
▁vaccinia
teroides
▁varicosities
▁ulcers
xone
▁olive
▁fum
▁effec
anate
▁CBF
▁challen
▁6.9
strual
▁adhesive
▁mono
▁flexibility
▁lactation
▁210
▁(20
▁0.28
tradiol
purified
▁kidne
▁vincristine
▁ANG
▁leaflet
▁speculate
secre
▁Immuno
▁plating
▁challenges
▁Sout
▁Pt
albumin
▁Systolic
feeding
▁amniotic
▁chlor
omerular
▁headache
▁bacteria
▁ket
▁nadir
ocial
osylated
astatin
glucosamine
-99
vinyl
▁seiz
/12
prin
▁aminoglyc
thel
hexidine
lycerol
▁perinatal
▁conducting
▁0.91
ginine
▁terat
▁23,
RV
▁surfactant
▁GGT
lipoxygenase
▁modalities
▁40%.
▁phospholipase
▁ischem
▁respondents
ancomycin
▁Groups
eal
▁muscular
▁fossa
ogeneic
▁cytoch
▁Compared
angi
▁interference
▁fibro
ulae
kelihood
severe
▁metast
▁determination
▁virulent
69
▁acids
▁phospholip
uoden
requency
tipation
lective
▁hepatic
circuit
▁radionucl
▁aerosolized
▁shar
▁fentanyl
gestin
iferous
▁anatomy
▁allelic
▁phag
▁fractionation
▁hepar
0,
mercapto
▁cochlear
▁mitogen
degree
▁acyclovir
plicity
▁Evidence
respon
rected
tic
olesterolemic
▁lateralis
stranded
▁deem
opoly
▁91%
rine
synaptic
▁triglycerides
▁ventilator
▁comparable
▁NADH
▁developmentally
▁affec
atinine
ifug
▁leth
owever
▁Caucasian
▁substrates
▁recognizes
ogaster
▁spermatids
▁205
Cs
▁extrac
▁215
▁cerevisiae
▁carries
▁pons
▁KA
elec
formin
▁contras
triatal
▁behaviors
ilateral
vus
▁motoneurons
▁digesti
omegalovirus
▁cavities
ograp
▁skeleton
aturation
▁compartment
struc
ductive
▁[125
/8
pigs
ytoin
▁receptive
generating
▁cortisol
▁statis
▁Hepatic
TCR
▁(1.7
geal
GSH
uvate
▁receptor
▁instability
ostatic
▁insulin
▁bp
aginal
▁preparation
▁resembled
▁detergent
▁complications
iably
▁compounds
ocytotic
▁hepatocyte
▁dyspnea
▁maturity
propyl
▁kidneys
otent
saccharide
▁relapses
▁23%
ographically
▁glucosamine
▁vein
tation
▁isoenzyme
▁10.
▁12.5%
▁DL
▁lactic
matic
▁questionnai
inally
▁diabetic
▁glomerular
-2.
▁nephrotic
▁sporadic
▁arterioles
▁nerves
▁2-3
▁quantify
▁telephone
▁locus
ylcholinesterase
▁22,
▁54%
inamide
alp
▁regulations
▁renders
▁alkal
flanking
▁clarified
.1)
▁refr
▁postulated
plasmin
▁axial
▁focal
glucosidase
▁tidal
rief
▁0.5,
▁shif
▁GTPase
▁histories
criptional
▁anterograde
▁inflow
acillin
effectiveness
▁interrup
▁Chronic
▁severely
▁1:1
affinity
▁subarachnoid
▁spectrometry
cotic
/1000
▁glycine
▁hypothermia
▁Sixteen
▁polyethylene
chers
▁solvents
▁jejunum
hormone
molality
romal
▁fibrosis
▁posttreatment
▁concomitant
▁adenylyl
lood
▁qualitative
spectrum
▁ammonium
▁interacts
▁polymorph
▁alp
▁infiltrate
▁intrat
▁arteries
▁1990.
Ev
DG
▁lutea
▁titrated
unar
▁struc
▁encodes
▁vaccines
▁Sequ
▁fluoxetine
sulf
▁terminals
▁ulc
▁thio
▁activates
▁recombination
oyl
▁rods
▁sows
embedded
▁CDC
▁.001)
6)
▁addiction
ocytopenia
▁phosphorylase
▁transi
bly
▁51%
▁nucleus
▁Milk
omethyl
▁Tg
▁6.2
▁renin
plas
▁sarcomere
mannose
-150
.4%)
▁biphasic
▁lysates
▁bronchial
▁strips
ejection
teryl
odgkin
▁Cellular
▁anastom
iability
▁mite
endazole
▁galact
▁monolayers
▁dinucleotide
▁gonadotropin
sensitivity
▁emphasize
▁correlating
peroxidase
▁discomfort
▁spasm
activating
▁isozymes
▁ganglioside
▁disadvantage
▁superficial
▁intracranial
▁0.89
▁Cells
▁dobutamine
▁Tests
▁fibrous
▁tandem
▁hydrophobic
▁aspiration
▁morphological
urane
▁pharmac
ypass
ventral
april
tized
arbox
▁inactive
▁dendri
▁maturation
▁dimer
▁0.000
▁TCR
▁pollu
opharyngeal
▁diffuse
ocholine
▁segregation
▁(75
▁modeled
maleimide
ographs
▁chlorpromazine
▁discom
▁phenotype
▁iris
▁nephritis
▁readings
▁mediated
▁circulating
▁phosphatidic
▁Benz
loid
▁trends
idase
▁modulated
edema
▁intragastric
▁sclerosis
▁standardi
olipids
▁excessive
▁socioeconomic
oreceptors
▁inclusions
inoc
▁Assessment
ignant
▁invariably
opl
▁contraception
unctiv
arachid
-4
▁syncy
omal
▁1,
▁8.
▁0.59
tide
▁examines
▁Combin
▁Multiv
▁litter
▁trich
lyb
▁reticular
antibody
▁gentamicin
▁incub
enzymes
▁BP
▁childhood
▁albic
▁TS
Mu
▁restoration
▁HBsAg
▁monomers
▁semiqu
▁infertility
▁sclero
-13
oxifen
▁sensory
bromo
▁intim
▁preferentially
-[
itrate
▁RT
phied
ostr
hydroxyd
▁testes
allik
▁vegetables
▁specialty
▁threefold
▁2-5
▁microv
nucleotidase
▁PGF
▁undetectable
▁desensitization
▁distortion
▁(86%)
▁5.6
▁occl
▁Clostr
▁Bacterial
anoid
Cu
▁12,
▁proton
▁phenylalanine
▁3,4-
oxane
▁Addition
▁peritonitis
▁carbox
▁aort
37
▁dermatitis
▁antiviral
sulph
▁jejunal
▁Physi
▁neurolep
▁AKR
▁HPV
antoin
▁unlabeled
▁streptococci
▁biosynthetic
▁lae
▁myosin
His
voltage
▁shaft
junction
fibrin
itro
▁duplic
phragm
urys
▁bulb
athe
pore
acting
▁tetr
▁20%.
▁Prol
▁poisoning
▁Sodium
▁edema
lebrand
RR
▁atrophy
ecretory
▁11,
▁Previous
▁thereafter
omyces
▁infection
▁originate
▁scattering
▁antisense
▁LD
▁infectivity
▁adversely
▁ae
ensin
▁escal
▁urgent
▁decreases
▁0.001),
linked
▁transients
▁enlar
▁urea
▁1500
▁linearly
▁disappearance
▁10(-7)
fed
otropin
Ile
▁puncture
▁limb
▁manufacture
▁estradiol
ELISA
▁eosinophils
▁rehabilitation
▁undergo
▁irradiated
▁submaximal
▁dihydropyridine
odontic
▁LDL
tile
elic
oresis
siologic
tenance
▁haemoglobin
▁ceftriaxone
▁lymphomas
▁Trp
▁sialic
▁canc
rocyte
▁haplotype
▁analges
▁smokers
▁nigra
hydroxyp
▁suspended
▁interne
▁torsion
▁antagonize
▁cochle
▁ICAM
▁genes
-90%
▁cigarettes
ullary
▁(6-
▁screening
▁argues
ficially
▁neurochemical
▁impedance
torchid
▁quinidine
▁stimulant
imbr
▁eradication
▁14%,
/6
▁transfection
▁ate
otropic
▁stepwise
ikary
lysin
▁0.41
▁TK
phs
retic
▁agar
▁TP
▁paired
▁responsive
▁permanently
pir
▁51
▁lipophilic
▁0.18
▁babo
▁2.3
▁pound
▁blasts
▁modality
gp
▁3-5
▁1(
ventricular
▁PF
▁suggestive
▁reactions
▁BW
atropium
genesis
olab
▁surviving
▁presumed
▁decisions
▁operon
▁EPR
fatal
▁0.05).
▁esophagus
ithine
▁spacer
▁126
▁4-6
▁anesthesia
▁excit
▁monitored
nons
lec
▁synchronous
▁mell
▁solvent
▁dermal
antagon
trically
▁clonal
35
▁decreased
▁glycol
▁antibody
amination
▁targeted
▁2.4%
tence
ichloro
▁ingested
▁abor
▁fron
WL
▁streptomycin
▁Uptake
▁tumours
▁DMSO
▁meiotic
▁CSA
gonal
▁hemoglobin
▁inhibited
▁295
▁(52
▁chemicals
▁aspirin
▁0.24
▁RNA
▁dorsolateral
▁Phosphor
▁NSAID
▁rabbits
▁hematocrit
▁anap
patient
▁quanti
phyrin
aryn
▁hamsters
▁mucos
▁15
▁nephropathy
13-
▁60,
▁FD
▁spindle
illary
▁sequelae
-6)
flamm
▁pancre
400
▁wean
5'-
▁ECM
▁ICa
▁MN
ominant
deriv
▁thallium
▁survival
ASA
▁heme
▁revised
▁129
▁prosthesis
(+)
▁nephrectomy
▁anaerob
▁psycho
▁(82
▁arises
▁cerebellar
▁ethical
oncogene
▁elevating
etence
▁uncom
deoxy
▁quantitatively
▁vege
▁disadvan
▁averaging
-20
▁resistant
▁thrombin
▁oscillations
▁phage
yste
itone
▁0.65
-20%
▁Natl
▁pI
▁excretory
▁raises
▁prevail
▁10(-4)
Glu
▁quantitated
▁specialists
▁(4
nthe
▁coexis
▁CAPD
tric
▁PG
▁baroreceptor
▁plasmin
regulation
exc
▁OT
▁208
sion
tative
EAE
▁adrenaline
▁rigid
GTT
▁(10
▁prostacyclin
▁hyaluron
▁altitude
▁histochemical
▁biosynthesis
ocalcin
▁carvedilol
▁acute
▁postnatally
tropine
cephal
▁immunoblotting
▁implantation
▁chloro
▁accessory
phospholipid
▁orifice
urgery
▁eukaryotic
thymic
▁aetiology
odies
▁vertebr
HCl
tioned
▁muM
ffin
cytes
CTL
▁copper
Bmax
▁schizophrenic
▁histidine
▁hyperthyroid
fusion
▁hypnotic
ogenesis
▁investigator
▁(1)
▁inositol
▁nephro
▁0.6%
rostenedione
disciplinary
ymptom
▁18
▁suction
▁12.
▁murmur
▁molecules
atization
▁reconstructed
▁centr
▁130
▁parietal
olization
▁69
▁axon
dopa
▁buffers
▁0.70
▁saturating
▁uncommon
ocytosis
▁affinity
▁weekly
-36
▁attitu
▁anaesthe
determined
-96
robic
Ci
▁(23
▁1988
▁adequ
entric
▁macrom
▁(41
▁nodular
▁6.4
▁failures
vely
▁complaints
dense
▁endpoints
▁20,
▁secretin
▁intran
▁GFR
Cys
rates
▁spontaneously
lymphocytes
▁GABAergic
▁repaired
▁157
uplex
▁viscosity
▁hepatocellular
▁transfected
hyd
▁stimulants
siveness
▁attemp
▁multivariate
NV
ulators
▁biological
▁29,
▁enalapril
▁chemistry
▁proteoglycan
sis
▁cytological
prol
▁-3
▁thermodynamic
▁frog
-2.0
▁SPF
▁guanosine
▁IgG
▁postprandial
▁arteriosus
▁expenditure
▁continuously
rogenesis
siological
▁cerebellum
hig
▁starch
▁principally
phoresis
▁mitomycin
▁importantly
▁1985
▁133
0.4
pendence
erebr
▁topo
▁restor
9),
yelinated
▁carbohydrates
▁7%,
-2-
▁refrac
▁melanogaster
▁crossover
▁immobil
▁transducer
obese
▁cisternae
isqu
▁(10(-4)
isely
▁10.7
oides
tants
armac
▁interc
velength
sial
▁placenta
reacted
▁tac
▁establishing
PCR
▁seizures
▁degraded
roitin
epid
▁athymic
isobutyl
romy
omethacin
tituted
titution
14,
organization
▁granul
▁(75%)
▁contiguous
▁diploid
▁atypical
▁intranasal
▁splenomegaly
olipoprotein
takes
▁investigated
ritish
tensity
imidazole
▁ileal
▁homology
▁ferric
▁90%,
ycl
-300
hest
▁hybridoma
▁Concentrations
▁subcellular
▁ketanserin
ocyanate
oneph
▁denatured
▁statistically
poor
▁(198
ubation
nai
▁11.6
oprec
trained
ionine
AH
▁10(3)
▁uremic
iated
▁Rather
▁cytosol
▁uteri
▁saturable
crib
▁physiologic
bility
▁nonlinear
idol
9%
-1.
▁Findings
trip
ieties
▁PGE
▁Raynaud
▁estrogenic
▁exis
measured
▁NF
▁morphologic
fetoprotein
▁differentiated
▁subunits
convul
▁disseminated
▁reconstituted
▁anatomical
associated
▁larval
▁zidovudine
▁256
▁unm
mL
otonic
ynure
etine
▁drastically
▁commiss
▁heterodimer
7).
tene
▁hind
▁1986
herol
▁diabetics
▁traumatic
▁chemilum
transformation
▁ultraviolet
▁Oste
000,
aminobutyric
▁nonpregnant
▁goat
▁nebul
▁dyes
radi
▁atr
acerb
otides
thyl
sies
ses
▁immunoprecipit
▁alcoh
▁Cardiovascular
▁embryo
▁contamin
▁1.00
▁fecal
obut
▁glycoprotein
herence
▁neurotoxic
▁binds
▁bac
illar
▁survivors
sors
▁juice
▁addi
▁10(9)
stained
loro
▁shel
▁cere
▁retinal
▁locomotion
timulation
▁iod
ensitive
▁uro
▁afl
parathyroid
▁allograft
5%).
vaccinated
ithm
▁macrophages
▁progenitors
opril
▁detecting
▁deterior
▁hairs
transferases
chid
▁diarrh
▁rated
▁contractile
▁focuses
▁myeloid
▁lining
sA
abdominal
oprotein
5%
▁microf
▁prerequisite
▁prothrombin
▁epidemiological
▁indoor
indings
competitive
▁Antis
▁GHRH
cryst
▁ovulation
▁adjuvant
▁scin
▁25,
▁Bam
nec
▁laparoscopy
▁wheat
▁gradi
▁interfer
▁limiting
▁(0
nee
▁outgrowth
otypic
▁falciparum
▁catabolism
▁tyros
▁pharm
▁nuclease
▁249
▁mening
▁fumarate
▁amput
▁viruses
▁adducts
▁ruminal
coated
▁adduc
▁2),
atisfactory
▁superimposed
96
▁alloster
▁bladder
▁trimethoprim
erule
ilep
imidine
▁dosage
nexin
ologic
▁diuresis
▁Pros
▁strain
▁precordial
▁bim
▁Statis
asting
▁intravenously
▁biotin
▁rotational
▁placement
mide
▁([3
▁relie
activities
ipient
pG
tib
versely
▁toxic
▁transthoracic
▁VA
▁pellets
▁vigorous
orption
plied
▁vivo
▁hypertro
▁sarc
▁tibial
▁counterpart
▁autoantibodies
▁electrodes
▁olfactory
entary
.3,
▁nipple
▁(47
▁oxidant
▁EPSP
eric
▁FN
▁photon
astatic
▁catheters
endocrine
electrophoresis
▁ultr
-79
▁powder
▁stres
▁LHRH
▁strepto
▁outward
▁mutations
aryngeal
▁infarc
aminergic
aned
▁Purified
oxim
3)
echan
▁Likewise
▁surviv
otopic
50)
romes
▁keto
▁intestinal
▁leukemic
▁logistic
▁reliably
▁splenectomy
tial
receptors
▁(1987)
▁reliability
tyline
▁agon
▁atten
▁helical
▁neph
▁stromal
iatum
▁indeterminate
▁nifedipine
▁92%
▁myocardi
▁comparative
5)
▁maintaining
▁resected
olute
-3.
▁Treatment
▁perfusate
ivocal
▁adenoma
▁inflammation
▁intraluminal
ardiac
▁iden
▁Shig
▁deferens
heric
yrate
▁electrolytes
▁mU
onset
olism
▁intact
▁choline
▁10.0
ometr
▁pronounced
imination
▁confirming
▁drin
▁concanavalin
oxic
tality
▁distinctive
▁nutrients
▁weakness
encephal
ventil
▁reduc
▁UTI
▁coag
acchar
▁7)
▁constriction
▁Plasm
▁cranial
aptic
▁GM
▁mycobacter
▁tetanus
▁mediastinal
.3)
▁hydrop
enal
▁thrombolytic
▁CHD
▁sph
▁crystall
▁cleaved
▁GLUT
▁washing
▁reflecting
▁rota
▁steers
uodenal
▁oxidoreductase
▁advancing
▁pathogen
▁interfere
1).
▁localized
▁amplification
▁saturated
▁Electrical
▁ABP
▁Educ
nitroso
/30
▁TIL
▁Exercise
athy
concentr
▁hype
▁inhibin
▁flap
▁junctional
▁9.8
▁vibr
▁reporter
▁235
▁defec
▁paroxys
▁anoxic
▁incremental
▁moderately
isal
ecu
▁augmented
glucuronidase
▁pneumonia
▁nickel
▁viable
inely
81
▁(54
▁evacuation
▁80-
▁latex
▁20%
▁cuff
▁Caucas
▁0.67
▁germin
trients
▁contradic
▁tumors
▁(67
▁compete
▁incom
ophylline
▁covalently
▁viscer
▁kb
▁preovulatory
▁crystalline
carbon
/24
pation
▁vasoconstric
▁resour
▁voluntary
▁alanine
▁cardio
▁roentgen
30
▁gating
▁rhythms
▁oxidase
▁(31
▁toxicity
▁carcinogenic
▁naive
▁implying
▁medication
agonist
odop
▁HMG
eclampsia
promoting
▁cysteine
▁valve
ratio
▁spectroscop
▁ethn
aterals
▁surgical
▁inflation
hospital
▁PKC
-(1
adder
odermal
▁inflammatory
▁transmural
▁coenzyme
▁lumen
oluble
▁quantification
▁Surgical
tron
itic
▁gait
▁preventing
▁condensed
▁0.45
▁strand
▁acqui
amid
thal
▁mutagen
oflav
HETE
▁biochemical
▁glucuronide
▁5.4
▁(5)
▁virulence
▁14.5
▁simultaneous
scherichia
▁depleted
▁Individual
iper
ofil
lysis
▁hepatectomy
▁Injury
▁Improvement
plantable
▁prepubertal
aminobenz
tracted
▁brainstem
▁conclusive
▁tachy
▁calf
▁pathogens
▁behavioural
igl
amuscular
▁assay
▁NB
▁incompetence
▁40%
onate
mentation
▁alcoholics
▁adhered
▁colonization
▁VSV
hea
▁reticul
igaret
▁infants
▁gluconeogenesis
▁monthly
▁2.8%
▁1983
▁127
farction
▁promising
▁biom
eeding
▁yohimbine
tally
nucle
▁serology
▁Ringer
▁10(-3)
▁sacrificed
▁equivalents
▁Feeding
▁TD
▁7-
▁carboxy
▁examination
▁cadaver
▁lact
angl
▁1978
▁Experiments
▁137
▁incap
▁5)
▁HSP
driven
▁12%,
▁subdi
▁increments
MH
▁pretreatment
criptions
▁acoustic
▁trunk
▁Hybrid
▁methacholine
▁bony
▁owing
▁emphyse
otidase
▁physici
▁pallid
▁0.2-
▁sheath
tiz
▁adipose
eptid
ostomy
▁(3-
▁pooled
▁skinfold
▁FFA
zymes
ontal
0),
▁amphetamine
▁sickness
▁hypere
▁muscarinic
CSF
▁parie
▁autopsy
▁mutagenic
▁enti
▁118
ysts
▁overlapping
uculline
synthe
charged
▁.0
lactate
▁irrig
▁Candida
xime
Thr
racene
▁antich
▁Retro
▁chromium
▁heterodim
▁ultrasonography
▁Holter
▁dischar
tivation
dihydroxy
▁particulate
▁Cushing
▁ascorb
tages
▁HIV
enedi
▁membranes
▁mans
▁aneurysms
▁malabsorption
.9
glycero
aund
▁specimens
ostatin
▁hypocal
▁0.025
▁resonance
▁menopausal
resistance
tially
atening
ipine
▁Successful
▁ligand
▁subjected
▁131
ometrial
ially
▁requi
inone
▁logar
▁prophylactic
▁2,3,
▁57
▁departments
▁22-
▁lacks
▁(10.
▁reoperation
▁Vitamin
▁postoperatively
▁Flu
▁burden
▁Surprisingly
advan
esarean
▁Values
accharides
▁varic
▁subacute
▁syngeneic
denat
▁recur
entan
▁hairy
▁demyel
▁interstitial
ivary
-35
▁reasonably
▁anticoagulant
loxacin
▁cysts
▁manifestations
▁sensitivity
-100
rostagland
▁cutaneous
▁Antibody
▁nitrendipine
ceptual
▁inflamm
▁emerged
▁dissolution
▁Ultras
▁corticos
trations
▁rhe
▁perceived
▁endometrial
▁muscle
▁500
▁amiodarone
▁plated
▁rumen
▁gases
▁Mg
tamine
▁oesophageal
endri
▁kinetic
monary
1),
▁permeability
.2,
19
▁.01).
.2%
0.9
dT
▁0.23
▁modif
amily
▁1989.
▁Ery
▁jejun
▁endocrine
/2
obal
ocortic
8%)
-3,
stole
▁tic
▁ascending
▁[32
tically
oporosis
▁chicks
▁feces
cnemius
▁lasting
ithromycin
▁0.54
▁deuter
▁hemat
▁DG
idazole
▁angiotensin
atrop
taldehyde
xia
▁2.6
▁reass
▁cDNA
▁mitochondria
▁3',
▁TPA
ayers
ocyt
▁RR
▁inhibitors
▁neuropathy
omes
200
dip
▁investigating
sided
▁stabilized
▁breaths
Hyp
oreactive
▁LAK
ociated
gic
▁lymphoma
▁discharges
▁yolk
▁propria
▁4.0
▁fibr
▁euk
toid
omically
ilized
▁posture
▁conditioned
luores
malignant
▁bronchoscopy
▁psychological
▁Subsequently
▁constr
▁(76
junctional
▁FS
▁biop
▁cil
(6
▁Depression
▁prematurity
▁immunological
▁Radi
▁GAP
▁controver
▁maneu
▁connec
▁dissected
orrh
azepam
MSH
▁unselected
-801
tub
.00
astric
▁metabolism
▁5%.
▁overt
▁spikes
"-
▁Adenosine
heum
▁(55
irradi
▁stressed
▁borderline
▁retarded
▁granule
tempor
▁fiber
▁proteinuria
▁phentolamine
▁septal
▁perit
SDS
▁paral
▁endothelial
chloro
atoid
▁emphasized
osan
ncy
▁0.75
▁opioid
▁isolation
tochem
▁Strep
▁noncom
▁vestibular
.7%
▁endoscopic
▁detergents
▁saliv
▁168
▁chorionic
▁uncomplicated
ancies
▁examinations
▁hybrid
▁3)
consuming
▁resec
▁actinomycin
▁dehydrated
hentic
RF
▁sustained
▁arom
▁23
▁hygi
▁lys
▁anis
▁presentations
lamp
ozo
%),
sue
▁aerob
receptor
uron
▁proteoglyc
▁TC
▁plasmids
▁Intravenous
▁beliefs
▁backbone
heat
▁incubations
▁histi
▁divergent
troph
2]
▁paramagnetic
dL
▁kcal
▁90
gely
▁streptoc
▁228
▁discrimin
membrane
▁subgroups
▁sulfonyl
▁paraventricular
3,000
6),
specificity
▁discontinu
▁hereditary
▁subcutaneously
ischemic
edle
uterine
ollagen
▁furosemide
▁maternal
▁clindamycin
-4,
ipitation
▁mesenchyme
ocular
▁phleb
fted
carotene
▁anae
▁adenine
ensities
▁hydroxyproline
enters
▁flas
▁placent
7%
▁substitu
▁implants
▁neutroph
▁Preliminary
▁bFGF
▁ovariectomy
▁(1.1
▁diaz
▁2.7
▁(95
▁slic
ylated
▁autologous
▁definitive
▁90%.
▁cobal
mM
▁conclu
odopsin
▁0.56
▁irradiation
tense
▁haem
esthetized
▁injected
▁involvement
▁exceeding
trate
▁dye
▁39
versity
▁(1),
phosphates
▁normo
rase
▁osteocalcin
▁62%
▁micelles
moderate
▁Calcium
plastic
RNA
▁FSH
▁occlusive
Ba
▁causal
ignificant
▁denervation
posterior
▁clinician
▁0.8
▁cartilage
▁61
therapy
▁fascic
tivity
▁suspensions
▁differen
▁ischaemic
ediatric
▁hyperthyroidism
▁Suc
▁prospective
▁casein
-[3
ostal
▁epitopes
▁arth
▁thickness
▁drank
▁decarboxylase
▁Patients
filtration
triglycerid
▁carbam
▁otitis
▁immunosorbent
600
▁chickens
▁tryptic
▁86
▁benzyl
▁elicited
-38
▁ankle
▁264
▁damaging
▁bull
▁(0.1
▁bathing
▁transluminal
▁noninvasive
▁ambulatory
▁knee
▁acco
▁meals
elves
▁obtaining
▁Consistent
▁newborns
tensin
▁mesenchymal
▁154
▁8.0
▁cisplatin
▁Intracellular
lectomy
▁Injection
▁8
▁Clin
▁indi
▁parame
▁guan
▁medically
cyclic
▁radioiod
▁10.5
▁stab
▁micromolar
5),
▁presynaptic
merc
▁Induction
▁mood
▁vitro
▁hapten
▁predicting
▁Krebs
▁palliative
asic
▁elab
▁facilitates
imurium
omedial
▁0.0001),
oprolol
▁carboxyl
▁lysed
inhibited
▁BL
▁distorted
▁muta
▁0.01,
▁presumptive
▁hetero
▁carboxylase
ocin
▁presum
▁insuff
▁physician
▁lifest
▁Nons
onuclear
hydryl
himb
▁trabecular
▁anticonvulsant
▁ipr
▁randomized
uric
▁addic
pregn
▁GPI
▁pentobarbital
▁clot
uresis
bladder
sorbed
▁lymphatic
▁Diabe
▁142
▁capability
tant
▁pepsin
▁HP
▁somatostatin
▁endarte
actam
▁WGA
benzo
okinetic
▁DOCA
▁aggressive
▁positives
aerobic
▁orthostatic
itus
athered
▁pathological
▁Repe
trimester
trates
portun
▁(62
.7%)
▁reconstitution
▁incidences
▁arachid
▁angioplasty
ofruc
▁declined
▁necrop
▁abnormally
▁complexes
▁15.
odine
▁reinforcement
▁DVT
coronary
▁0.3%
operox
▁peaked
▁saphenous
▁rises
omere
▁avidin
relations
alciparum
imotor
▁atrial
▁silicone
▁erythematosus
illaries
ionate
▁mediate
mented
▁3.8
▁GnRH
▁0.51
▁DHEA
GABA
▁1985,
▁carbohydrate
▁equipotent
▁Seventeen
▁tricyclic
▁antic
serine
▁micrometer
WK
▁wk
▁oxime
▁periv
▁50,
22,
▁Sera
▁spont
supplemented
ipolar
▁(36%)
▁titer
▁mosa
▁phosphate
▁synthesize
▁herni
▁unexpl
▁permeabilized
▁enrichment
▁2
▁monoamine
▁insemin
▁carbamazepine
▁phosphodies
▁impulses
nourished
▁attainment
▁pericardial
▁Reduc
▁restraint
▁transitions
azoline
tivated
▁ribonuclease
phyl
uded
thre
▁outbreaks
▁thresholds
▁consequent
▁wound
▁spine
▁captopril
▁infar
▁1:
▁myofibr
releasing
▁subfractions
▁(18
arms
ionyl
-450
ammonium
▁mamm
▁electrochemical
stimulated
▁relaxant
64
▁sensitiz
▁rectif
▁Gd
▁transplanted
▁dyst
▁poli
▁rats
▁5,
▁(39
oreductase
▁superiority
▁nitric
acet
▁adminis
▁intraven
3]
tential
▁hemorrhage
▁80
▁pathophysiology
▁1991
tations
▁glial
▁equivocal
▁PAS
▁examin
▁deposited
CDD
▁17
▁dexamethasone
overed
▁pM
oceptor
▁Consid
corticosterone
▁immunoblots
▁grafted
adiol
▁supplements
▁paraffin
▁natri
▁intima
▁TcR
osensory
▁organs
▁capsid
▁mitochondrial
▁accid
▁circulatory
coup
methionine
riched
▁undergoing
admill
▁murine
▁.1
44
▁challenged
esthe
▁professionals
-(3-
▁poorly
timal
▁TI
.5%)
operidol
▁intraoperative
▁stret
▁employe
alkyl
▁NIH
▁sonographic
▁autoanti
▁recruited
▁reside
▁2,4-
▁antagonism
▁cran
rography
tration
▁outflow
▁30%,
▁spleen
▁4,
▁cationic
▁parenteral
▁wearing
▁1982
▁dehyd
▁VF
▁sarcolemmal
WB
▁1984
▁mong
PAGE
aminop
-1),
▁nucleoside
▁ductus
▁advances
▁rotavirus
▁Triton
oprost
▁sequestration
valine
▁(17
▁reapp
▁diabetes
▁postural
▁inhaled
▁Maximal
▁LAD
▁relieve
BW
uestion
▁NP
▁Veter
▁acetyl
▁levodopa
▁sclerotherapy
ococci
▁orally
▁(44
▁Cyt
Gs
▁17.
')2
▁abdominal
▁RNase
▁Together
▁anastomoses
▁(40
positive
▁0.05),
caro
▁accel
fluores
▁accep
ressing
▁schizophren
▁deferen
▁123
▁Apparent
pyrid
▁(64
hemical
rotic
▁dispersion
▁molec
▁infusion
▁spray
athioprine
▁encompassing
oglobulin
iscal
ethanol
▁dentate
▁parturition
▁28,
IgE
.5%
▁BALB
epine
▁cen
▁1,0
▁4.5
▁glycemic
)],
▁abolished
▁normotensive
.3%
hern
▁NAD
emin
▁(4)
▁swit
▁widespread
▁defective
▁Ala
▁10(-9)
BG
▁soma
▁physically
ECG
▁arthritis
▁0.38
isomerase
limiting
▁relaxed
irub
▁MU
8),
▁(24%)
iant
▁membran
▁epididymal
otid
▁micros
▁aggression
▁Peak
▁pacing
▁1960
▁supplement
▁determinant
▁reproduction
▁plasmid
▁capillaries
▁lesser
kDa
▁Meas
cyst
▁conservative
▁phenyl
▁upright
▁sensitization
125
urgical
▁monit
▁arousal
sepithelial
▁hypox
▁meth
▁bacteriophage
▁intras
ffeine
▁sexes
▁neuropeptides
▁22)
▁prompted
uthen
▁(90%)
▁droplets
▁chronically
▁adrenal
ulline
▁GE
oxia
-70%
leu
ospitals
cellular
▁vasodil
▁ECGs
▁estrogens
▁underst
▁adipocytes
▁percentile
▁Barrett
BV
4'-
mentioned
▁reagents
▁endometri
▁neuron
▁-0.0
▁assessed
▁pyr
▁conjunctiv
uginosa
▁unresponsive
▁197
▁isoleucine
▁replicate
▁glands
▁resorption
▁intrathecal
▁Nal
oreceptor
ocysts
▁monoclonal
-1.0
oleoyl
orax
puts
▁resuscitation
▁3.9
▁155
▁organism
galactosidase
▁(0.01
▁pump
▁drainage
iary
ylyl
▁genetic
posable
▁formalin
▁duplex
▁blastoc
▁abolish
-45
▁lymphocyte
▁sedation
emak
▁ferrous
▁chow
▁PGs
▁HepG
pyrene
▁pregnancy
▁ocular
▁lethal
▁MK
OV
▁epithelia
▁polymerases
natal
terminal
▁eliciting
ipid
uvant
▁preceded
▁pectoris
▁villus
▁heparin
tual
▁(22
▁retrogradely
▁pall
schemic
▁postmortem
▁glucocorticoid
▁dextran
estradiol
▁fluctuations
▁predicts
aturated
54
▁spores
uccessful
▁0.84
▁resonances
iotics
▁househ
umulative
▁tablets
▁72%
rein
▁phospho
▁interpretations
▁sodium
▁predis
▁alkali
800
imeth
▁overexpression
amyl
▁sulfur
▁9.6
▁validity
▁pituitary
▁electrically
▁tuberc
▁bilateral
▁spiral
▁Gs
ocompatibility
▁11%
HRP
▁septic
▁(1990)
▁insignificant
adherent
iomas
atient
orable
▁ventral
lesion
▁grains
lamydia
crip
▁phagocytosis
arterial
transformed
vents
▁(0.
rences
▁stains
▁physic
▁cooperative
▁potentiation
aceu
▁RAS
▁polymorphic
▁PEG
▁164
▁(4.0
licular
arous
pirin
▁4-
▁RP
entile
oglyc
-4)
000
▁anticoagulation
▁(10(-7)
500
tran
▁neuraminidase
▁respon
olated
▁forsk
▁cardiomy
▁acceptor
▁specialist
▁whereby
▁trache
▁pubertal
▁DD
▁prolongation
coupled
▁translational
▁colony
▁stroma
andros
▁cohorts
▁pyram
6).
azone
▁transp
aterally
▁homogenates
▁thyroidectomy
▁temporally
opulation
▁insec
7,
▁prescrib
▁extras
▁apop
ingle
anavalin
▁embolism
atest
▁VE
▁1-4
▁oxid
▁apolipoprotein
▁Impro
▁insertions
divided
trimental
▁hydroxy
.1
▁diminish
▁overnight
▁anhydr
▁modeling
▁209
echn
▁Growth
▁sedim
▁cure
gesterone
▁tubercul
▁angl
▁pathways
▁microsp
▁HBV
▁assembled
adapted
▁-0.7
▁islet
▁pretreated
▁inh
▁(1.4
▁cystic
▁encephalitis
▁occupational
▁tet
▁degen
▁Evaluation
3;
▁metabol
▁57%
mia
athyroid
▁prospectively
▁linkage
rehen
HSV
▁(56
▁ureth
▁referral
▁microvessels
amphenicol
130
▁glucone
culture
oxygen
▁MAO
▁intracor
anthine
▁implant
▁Recent
▁vWF
▁recA
oxy
normally
▁systematically
▁pS
▁81
▁1600
▁9.0
trover
▁disruption
colem
▁thrombosis
▁fluidity
lastoma
7,000
ogenes
myr
▁descending
omiting
gth
▁supplementation
▁corticosteroids
▁3.6
IIb
▁bypass
▁unsuccessful
▁16
yclic
▁concentrate
▁rigor
▁intravenous
baseline
▁stom
apid
▁cephalosporins
▁18%
▁noradrenaline
diastolic
▁alkylating
▁respir
valent
▁0
▁13
lytic
GI
yrin
▁3-4
00
▁sti
▁231
jected
otin
▁Inte
tomy
▁0.99
oice
plication
▁(400
▁calcium
▁dismutase
iflu
units
▁oss
▁photoreceptors
uncture
▁physicochemical
▁ongoing
ineal
enkephalin
usate
-29
tent
▁satis
rolateral
6.
onide
▁supernatant
anserin
▁prostaglandin
▁hyponatremia
▁virul
▁constituents
▁neurop
▁bilayer
▁Haem
▁cyclospor
yrox
hers
osacral
▁handic
▁oviduct
▁anomalies
oxide
▁NT
▁66
▁rumin
▁conto
▁hir
olesterolemia
gus
6,000
itriptyline
▁clomiphene
4;
ophysical
▁electr
▁ultrastruc
▁coping
▁dextrose
amn
erge
▁hypogonad
opecia
▁actively
ancre
▁tas
▁ascorbate
▁Apgar
▁positively
▁myrist
▁albicans
PV
▁acr
▁imidazole
prisingly
▁abnormalities
▁(+/-
▁pharmacists
▁hypoxemia
▁Plasma
plenic
▁endoc
3),
▁tuberculosis
▁precur
▁arb
achn
▁Preincubation
economic
utyryl
▁anxiolytic
52
▁retinol
▁relap
omers
obl
▁OM
▁frac
avir
▁vancomycin
▁contaminated
nary
▁Factors
▁germinal
▁forebrain
▁360
yrib
▁90.
arcoma
▁permissive
treated
▁MAP
79
▁threonine
▁0.6
▁mosquit
labeling
▁vitamins
▁centrifugation
uates
ploy
▁EBV
loidy
▁injur
▁psychosocial
iptine
▁mesen
▁0.47
organisms
▁107
▁10%,
rocy
▁discus
▁0.62
▁.01)
▁Subjec
▁responder
prandial
▁arteriovenous
▁cereb
▁79
▁surveillance
▁malformation
-50
earing
90
▁chlo
oproteins
ilution
utaneous
▁discrepancy
erver
▁metaplasia
▁glucose
▁tonic
roxim
▁recordings
▁ganglionic
▁fatigue
▁ascertained
▁3.5
▁diagnose
▁protoc
-100%
▁HBe
▁oxidation
▁monocyt
rophen
▁0.35
▁altering
▁linoleic
▁100,
▁survived
PTH
▁menopause
▁axillary
phyloc
atized
▁300
▁spectro
▁quantif
▁(80
▁75%
▁151
▁spectrin
assi
▁peroxidation
▁Individ
▁monovalent
0,000
graphy
omies
▁doxycycline
ecre
▁56%
▁221
▁16,
▁monke
▁grafts
▁methodology
▁Golgi
▁pacemak
▁PN
▁penicillin
planted
▁anaesthetized
▁detrimental
▁irrigation
EA
▁PRP
▁capsular
▁cystitis
▁-0.6
▁presumably
▁Bmax
▁ketoconazole
▁-20
mortem
dividual
amide
▁hyperplasia
istal
▁reinfor
▁infrequ
eak
▁weaker
▁siblings
▁undes
▁Maternal
▁sequencing
▁abscesses
▁tubular
▁regar
▁caud
▁stere
mend
▁markedly
yrid
▁40-
▁(94
▁iliac
▁lep
▁cytochemical
▁Glut
▁Prevention
5-
myrist
sistent
▁discre
▁choroid
▁oximetry
abilized
▁phosphoryl
▁BV
sibly
▁(97
▁Km
▁COPD
▁barrier
sions
▁perivascular
▁EBNA
▁tamoxifen
▁dendrites
▁hyperactivity
▁possi
▁progenitor
rogra
glutination
anesthetized
reducing
▁babies
▁concer
bic
▁dissoci
▁antisera
▁progeny
▁6),
▁chylomic
▁quinacrine
osynthe
▁prolonged
/1
▁roset
▁92
▁daytime
oidal
hyde
mittent
▁shorten
(2
▁AMP
mitter
▁excised
xate
Ra
ventilation
▁(60%)
▁squamous
▁0.17
▁eccentric
▁ovalbumin
orough
untary
▁avian
▁testicular
▁renal
iron
Cer
.4%
▁substance
▁monomer
tened
folate
▁lengthen
▁xyl
-7,
ocytoma
▁(1.5
▁naproxen
▁schist
▁dele
▁untreated
VL
uris
acyclin
▁trabec
▁neuropeptide
▁VL
ifferen
▁hyal
▁hindlimb
▁Eighty
▁33-
▁messen
▁shedding
▁endo
▁suspicious
▁3.4
havi
▁savings
▁hyperins
▁82%
▁Tn
thymidine
rowing
tose
loidal
Ms
▁46,
▁oils
pig
▁perturbations
▁transferase
▁aminopeptidase
▁syndromes
▁managing
plemented
▁exclusively
▁mitosis
▁lacto
▁Carb
▁surgeons
▁signaling
▁extensively
18)
▁NADP
turb
mitochondrial
labeled
▁medullary
▁penetration
▁malnutrition
▁genetically
▁Combined
▁oligosaccharide
2),
▁purification
▁deoxyribonucle
kerat
regulatory
▁follic
▁refine
▁disturbed
▁mL
▁ineffective
▁patches
▁adherent
▁amino
totic
iagn
▁chemotactic
▁pancreatic
▁4),
othiocyanate
▁cefaclor
▁relaxation
phosphate
▁CDDP
▁emerg
▁intercourse
▁hepatotoxicity
filaments
▁minimally
obutyl
▁abr
▁macrophage
▁Comparative
partum
▁Hib
▁65%
▁CAD
▁unusually
▁myot
▁reflex
▁anticancer
▁staphyloc
ulses
▁15.8
▁collateral
▁4.6
▁classifications
ficial
Ga
BM
tetric
▁protease
▁hypothesize
unced
▁jaw
▁microgram
▁antim
▁10(5)
cine
▁0.80
0.1
containing
▁GTP
rophenyl
▁tauro
▁Overall
itating
▁compartments
▁substrate
loride
uptake
rometric
▁12)
▁hepatitis
▁intestine
▁puberty
▁(34
▁14-
blocker
▁nucleotides
Km
▁cumulative
▁inhibitor
ocys
redoxin
▁tracing
irone
-1).
ubular
▁symme
▁mum
tured
▁1987,
▁motility
▁(37
▁cef
▁stratif
▁noc
piratory
7;
▁Coronary
▁1.6%
▁antiser
▁practically
▁considerably
▁perone
▁candidiasis
▁reversible
▁immunohist
▁EI
▁hemopoietic
▁(2
▁reperfusion
▁Immunohist
▁comprise
▁syring
▁adhering
▁trichloroacetic
▁lineage
▁slowed
▁nitroprusside
amate
▁immunity
▁phenol
▁flour
▁neuronal
omatous
▁gangliosides
▁heterozygotes
ausea
▁alveolar
SEM
olysis
erop
anav
▁audit
aminidase
▁0.03).
▁2,
ocarcin
▁hormonal
▁megakary
▁discs
taken
▁radiological
▁inotropic
traumatic
▁ejac
▁PE
▁stoichiometry
▁hypoxic
▁deliveries
▁Oc
0.
▁researchers
emias
▁chromaffin
▁mesoderm
▁treadmill
tage
▁lactate
ration
▁Diagn
▁purified
moid
▁1).
▁oste
▁serotoninergic
lyl
thrombotic
▁morphometric
▁elemental
limb
▁adequately
▁chick
▁reciprocal
▁0.02
▁0.76
▁warranted
▁cellular
AIDS
isole
▁Sepharose
▁streptococcal
▁indications
rolog
yridamole
▁exogenously
▁Intrac
▁numb
▁emulsion
▁Amino
▁preferen
▁excreted
▁bladders
erating
sAg
▁pyrophosphate
▁exten
▁IgE
adrenergic
▁establ
razolam
▁5.
-2).
pended
flurane
▁obstetr
▁warran
▁multidrug
▁7),
▁glandular
ollen
perme
sequent
▁averaged
▁bacteriuria
▁Epid
▁typh
ovol
▁unstable
ologous
▁colchicine
▁oleic
▁manufac
▁noxious
▁solute
▁sorb
▁bacteri
▁clinic
omyel
▁spreading
▁(%
▁shortening
dle
imentin
▁inactivation
▁dermat
ipril
▁enhanced
▁palmitate
▁relevance
olic
▁pati
▁hydroxylase
▁15)
▁102
▁catalytic
▁depressive
▁subpop
▁ICI
aethyl
▁BN
oreactivity
▁monoxide
uronic
▁conditioning
ardia
▁intrad
▁maxima
paired
▁9.9
▁Measurement
▁corne
▁carbonic
▁yielding
▁precipit
▁lipoprotein
▁LR
▁putative
▁hyperthermia
▁fluorescein
▁diffraction
ampl
▁collaterals
▁Incidence
▁fibrin
▁(27
TG
▁ploidy
18,
usive
▁unaffected
▁implications
▁1991.
▁disclosed
estis
▁blot
▁quinolones
endothelial
▁postpartum
atase
▁dosing
cephalus
▁cats
sants
▁imaged
▁paroxysmal
rals
▁incorporation
▁vasopressin
roline
▁confound
triphosphate
PLC
▁55%
blockade
▁70-
▁microorganisms
▁Rb
itoneally
▁visceral
▁contralateral
▁gyn
▁10(-6)
▁relieved
▁Ia
▁SMC
▁ChAT
▁interviews
▁primers
▁transit
epines
▁hypothetical
▁varicella
tococcus
traction
▁oxalate
▁arabin
dial
phenyl
ocon
inhibitory
▁corticosteroid
bran
▁30-
▁elicits
▁seasonal
tagog
27
▁smoked
▁attrac
▁sorbitol
▁androgenic
▁subf
▁transcriptional
▁9,
lamy
▁phosphatases
olateral
▁depended
▁glucuron
stro
▁cytomegalovirus
assium
▁confined
▁microsomal
optic
▁hydrocarbon
PAT
▁subc
▁hyperlipid
versus
osts
▁behaved
hep
▁18,
tropin
▁chromatography
▁leucine
▁parental
▁Urine
▁0.3
▁mobility
edded
▁IK
transplant
▁100,000
▁ultrac
rosis
▁conduc
erent
roblasts
▁HR
▁subend
▁immunocyt
injected
▁(53
▁tolu
▁lowering
▁deviations
ovarian
▁Comparing
▁induce
▁visualized
.1%)
anic
▁mandible
▁waveform
▁elas
▁encouraging
▁10.4
▁0.52
▁shrin
▁discontinuation
▁haemat
▁monolayer
▁diversity
▁overlapped
▁Doppler
▁35
▁thorac
protein
▁adenocarcinoma
tingu
romised
▁comprises
1.
▁60-
ocyte
cutaneous
▁infil
rocal
subs
americ
▁2.
▁embryonal
9)
▁oblique
▁EE
ucl
8;
▁clones
56
▁ternary
▁0.58
▁muscimol
▁Fib
▁socio
oxyp
ecan
▁biologic
0).
encl
▁positioned
glycine
▁FITC
▁3.
rele
atches
▁ultra
▁fructose
MuLV
thirds
▁workload
▁folding
kinase
aldehyde
▁iodo
▁suspicion
▁evid
ministration
▁Mild
▁cytometric
▁vacuoles
▁8.6
▁striatal
▁Absolute
hydration
98
▁enrich
▁6%
▁antioxidant
▁recor
▁Whole
▁nude
▁drops
ganese
▁suppressed
▁mannitol
▁inbred
▁enteroc
▁amenorrhea
▁microp
pli
▁93
▁83
▁immobilization
tus
opia
▁strongest
▁75%,
▁GER
▁trigg
▁causative
ulph
▁histopathologic
▁constitutively
▁microscopy
▁Differences
▁9
▁DMP
▁MW
ugular
▁aneurysm
idinium
▁Fluores
isite
▁histologically
▁keratinocytes
▁HV
▁parasites
▁digested
▁kits
▁sexually
▁demonstrable
acil
▁thoracic
▁TCA
proline
▁interventions
odipine
nisolone
shock
ellae
▁Evid
ateral
▁reas
▁intermedi
▁competi
▁holo
▁MBP
oprote
▁catabolic
▁pell
tice
▁ERP
▁mellitus
▁cough
▁selec
▁allergens
▁homolog
▁rodents
▁Partial
▁73%
▁osteoporosis
ologists
▁Physical
▁spermat
▁epiderm
▁masked
vular
▁Chemical
▁glycosyl
effec
tection
▁constitutes
▁reactivity
▁[1
▁antis
onit
▁34
▁cylinder
▁expec
▁PLP
illion
▁comprehensive
▁inhibition
ocrine
▁lobes
▁110
ulant
▁adul
guanine
oxan
▁gradual
ilic
▁3'
▁reconstruction
▁infarcts
reased
▁formulations
okinase
▁dichroism
▁reflux
lactamase
wk
▁activating
▁tubes
tif
uthenium
ntolamine
▁6.8
upuncture
▁soluble
growth
▁spermatozoa
▁osteoblasts
duc
▁immunod
▁conjugate
▁attenuate
▁endocrin
▁AFB
▁imipramine
▁bactere
▁naf
▁transposition
▁hippocampus
▁correspondence
▁Tran
llate
icardial
▁fric
▁methylation
▁quenching
▁CPR
▁promp
CNS
▁endotracheal
charomyces
ysto
▁hyperg
▁immunogenic
▁Haemophilus
▁adults
▁idi
onstric
▁(1,
tisone
LN
▁differs
▁mandatory
iliar
929
▁Electro
▁localization
DOPA
▁indication
▁Nuclear
▁efferent
▁baro
jac
.2)
▁catheterization
.8
▁glycolysis
▁persists
▁ORF
▁bif
▁equimolar
oglycan
▁Ninety
jug
dotoxin
82
erents
▁cytochromes
▁cerebrovascular
▁undere
▁metabolic
▁echocardiogram
essive
▁Female
▁salts
enem
▁generations
▁embryogenesis
amylase
▁pelvic
▁Hear
▁lysis
HIV
▁atres
chains
titute
▁olig
independent
▁regurg
ponential
▁epidermal
▁ventil
▁accumulation
▁remarkably
▁.001).
umbar
▁seques
▁benzoate
▁seb
▁chl
▁nerve
▁peripheral
▁tolerated
▁apoprotein
▁infected
▁amel
▁hexamethonium
romycin
26
ticularly
▁regeneration
▁carbachol
▁mutation
▁colic
▁arcuate
obronchial
▁harves
▁propofol
kephal
Barr
▁hydrocortisone
▁characterized
PRL
▁inactivated
▁excluding
oreal
▁abdomen
vember
▁conservatively
▁000
▁0.2%
▁chains
tional
▁blocker
▁temperatures
BP
▁Biochemical
tam
▁hrs
triglycer
▁histones
yltransferase
▁postischemic
▁enrol
administration
▁modulates
ocardi
▁theophylline
▁Laboratory
trial
▁prolapse
▁prevalent
▁4%
▁resolving
▁0.46
▁CCl
▁Tumor
noradrenaline
iloride
▁physicians
▁8,
electron
▁RBC
▁IIB
▁triad
▁inadequ
▁ero
▁dilation
▁myelinated
▁ventrolateral
▁neurites
▁hyperpolarizing
▁ischemic
▁hypothesized
▁ozone
▁encomp
▁exhibited
▁Myc
▁molecular
▁collec
9).
▁certainty
▁contracted
▁stimulation
▁acin
.6%
▁discern
▁subpopulations
ervoir
atients
▁enzymatically
▁suspected
▁dissemin
olip
▁sca
▁incorporate
chool
4-
▁Maximum
unsaturated
▁cobalt
▁rati
4,000
▁influenza
ronectin
▁transaminase
spar
▁strains
23
-75
cycl
▁derm
▁tertiary
▁37
▁Diff
sulfate
▁familial
plasty
dine
Trp
▁healthy
polyacrylamide
▁doubling
▁depression
▁progression
collagen
▁starved
ophil
alasin
▁passive
▁agglutinin
aortic
▁EPSPs
▁contraind
)-2-
▁cords
▁withdrawal
▁extremities
▁Dys
▁neuro
▁expense
▁ward
directed
▁oligos
▁intraperitoneal
▁practic
▁117
▁Baseline
▁ureter
▁acyl
▁splen
83
oblast
blood
▁Glc
▁stoichi
▁10(-1
atories
▁bleomycin
▁satisfactorily
▁thems
▁allele
▁0.005).
▁34%
▁couples
97
SMR
▁sarcolem
▁HCl
▁pups
tention
tilled
▁simplex
▁contral
▁fluoro
▁syphilis
▁69%
▁78%
uary
▁grise
▁haemorrh
▁behavioral
▁UV
▁triphosphate
ygotes
electric
▁pige
▁pregnancies
tate
onucl
▁observers
▁predictable
SHR
▁recons
▁pem
compared
▁nicot
▁EH
differentiated
▁concordance
▁Determin
osmotic
birth
▁preventive
▁unexplained
23187
▁Grade
riamycin
proven
silon
▁biochemically
▁glycosaminoglyc
▁cataly
▁kHz
aethylammonium
▁digestion
▁MF
▁declines
amethoxazole
▁centers
▁regen
▁apparatus
▁structured
▁Authors
▁Infants
▁IGF
itoring
▁transduction
▁bundles
▁termination
turition
▁spines
▁oedema
▁inpatient
▁VIP
▁neo
▁direc
▁myocyte
▁microspheres
▁irreversibly
butyrate
▁underg
-22
▁173
tenolol
5).
▁potent
▁pathophy
tak
▁TF
91
fractions
▁activated
▁immunologic
secreting
▁insufficient
▁Systemic
▁dysp
▁correlations
-0.
▁reser
▁catalase
▁hsp
▁accessibility
▁dissection
▁dialys
▁relapse
bile
48
▁isometric
▁mutans
▁Kupffer
▁hematuria
▁angiography
▁hepatocytes
▁pneumon
▁reacted
▁(0.25
▁rho
▁horiz
entanil
▁scarring
▁haemodynamic
▁coded
▁900
▁immuno
▁atria
thanol
smokers
vaccination
▁Neuro
▁Recombin
urnal
▁PET
▁sugges
▁Pulmonary
▁striatum
▁10(4)
▁splenic
lycemia
▁136
clinical
▁irrit
▁cytokeratin
.6,
indole
NH
▁52
▁caudal
strain
▁irradi
orporation
▁leukocytes
▁10
▁administered
▁teen
controlled
▁tracer
tinent
▁keratin
▁preeclampsia
▁(15
▁0.95
ystolic
▁sulph
▁unlabelled
▁bacteremia
:1)
▁inters
▁reinforce
▁adrenocortical
cence
uanti
▁abduc
▁cage
ulum
▁113
▁epit
▁monkey
▁femoral
▁exons
inated
▁antidepressants
subunit
▁connective
▁desm
▁elast
romed
exin
▁polymerization
▁SMS
▁warrant
iatr
irubin
▁carb
▁0.7%
▁hatching
▁vulg
▁segreg
occlusion
ococcal
▁5%,
▁uric
-10)
fentanil
▁diltiazem
▁Phy
8,
▁compositions
▁vesicle
▁emphysema
▁exud
amol
▁hypoglyc
▁repressor
0.00
▁cmH
▁ana
▁personality
▁pyrid
▁pigment
▁stren
▁Angiotensin
graft
▁nonsmokers
▁Recom
ospinal
SCLC
▁deox
ocarcinoma
-8)
▁arginine
▁labeled
▁chambers
tectable
akary
titutes
▁biotinylated
▁0.48
oate
▁gonococcal
anadate
▁polyamine
utin
▁baroreflex
▁primate
ubertal
CAP
IFN
▁abstin
▁reversal
▁molecule
▁bonds
▁laevis
▁0.8%
▁glauc
ystag
▁alkylation
HN
-11
▁MCV
▁redistribution
pendent
▁latencies
▁vitronectin
(1,4,5)
▁54
anin
4.
▁rabbit
lude
otine
/+
▁protects
▁0.61
▁spleens
▁52%
▁inversion
▁intrinsic
▁stenoses
▁esophageal
etaz
▁glycos
▁differing
▁ablation
▁(-)-
▁chemotherapy
▁Risk
4,
▁DTH
fib
▁carpal
▁thromb
▁Patient
▁40,000
▁280
faction
▁5-
▁favored
▁appendic
▁LTD
▁preincubation
iteal
filament
ophageal
-12
▁gynec
▁rehabil
▁Scale
▁neurotrans
▁PV
ANF
ceptible
▁abilities
osocial
▁obliter
▁[14
▁menstrual
▁putrescine
▁leukocyte
olesterol
/7
▁Hig
▁Glyc
▁caries
dose
▁appetite
GH
Gln
▁1.6-
▁apnea
▁Recovery
▁Obs
▁BA
▁devised
▁OB
▁(42
aning
▁Protection
▁hepat
▁0.4%
▁theoretically
etween
▁fracture
ocine
70
▁screened
siology
▁cataract
▁1986,
▁12
▁preoperatively
osidase
▁azide
▁triacylglycerol
idne
▁pathologic
▁carbohyd
▁crani
occus
▁cholecystectomy
▁Lp
▁translocation
▁eliminated
:00
▁(12
▁idiopathic
▁articular
▁nondiabetic
ofuran
▁motivation
9-
▁NHL
▁chemot
acental
▁vitreous
▁AIDS
perfused
organic
ylation
▁cholinesterase
▁plasm
trop
0.6
iclovir
▁stabilization
▁atrium
oglycerate
▁4.
▁needle
.0)
inemia
rospinal
▁implanted
▁isop
▁quisqu
▁favourable
▁fused
▁fusions
adren
▁antec
ocysteine
▁sterol
▁staurosporine
▁iat
▁Effects
▁meal
▁ascertain
▁physiological
atite
▁ammonia
▁fold
▁toxicities
▁flora
▁perox
▁hypoglycemia
RP
oposide
▁cornea
▁vesic
imens
▁ratios
▁thymic
endix
▁arous
▁Animals
▁Thromb
oplasty
▁PGD
sych
pinephrine
▁etiologic
▁extrusion
▁incompletely
occi
▁5'-
▁ventric
▁enhance
▁1)
▁incontinence
▁hep
▁randomization
▁plantar
itr
drome
olus
▁cyclase
tures
3.
▁elution
▁jaund
00-
▁submandibular
placement
▁neurologic
▁maximally
▁singly
tability
▁Eight
▁transepithelial
tained
▁Hb
▁encoun
▁mandibular
▁autosomal
▁pigmented
▁pulse
▁bupivacaine
▁consul
▁Phe
▁clues
ritis
▁4.8
acer
etan
reatine
gene
cg
inating
Tc
vival
▁hyperb
▁(0.3
▁irritation
▁quinine
rotid
▁Samples
atched
▁glycer
▁thromboembolism
▁(45
▁IA
▁exon
▁trapping
micrograms
infection
▁cyclic
enhanced
motor
▁propranolol
▁brains
partic
▁HCO
▁salvage
tokinase
▁papaverine
idated
stimulating
ituit
▁inhalation
▁lupus
▁tolerate
▁Thirty
▁3.2
▁0.50
ylephrine
oblastoma
▁progesterone
▁infarctions
omyelitis
▁181
▁immunofluores
philic
▁Enterobacter
▁illnesses
▁pea
▁nonsteroidal
▁lipoproteins
▁twin
portion
dihydroxyvitamin
▁anticipated
▁immun
▁nitroglycerin
ammon
▁radionuclide
iceptive
▁antin
▁carinii
▁bioactivity
iotic
▁exacerb
oag
▁nucleotide
ocardial
▁erythroid
▁influencing
▁vagal
▁packing
▁fluoride
▁restenosis
▁regulates
▁wt
orphine
▁institu
deprived
▁166
terone
-52
▁Leydig
othre
acylglycerol
▁ducts
▁POMC
calmodulin
▁repl
arginine
▁upstream
ATP
▁mandi
RIA
amycin
▁donors
PSPs
▁neurotoxicity
▁histo
cysteine
▁ofloxacin
▁histologic
▁6.5
▁phosphor
luc
diabe
udin
▁supernatants
▁75
onyl
tocop
▁lute
-72
▁isoproterenol
▁phosphatase
uated
▁systole
▁85%
lining
▁tumorigenic
oplasia
▁Vmax
▁213
▁utilized
▁membranous
▁28-
azolam
▁homosexual
▁mice
▁electrogenic
tract
▁helic
ocks
▁reperfused
▁diluted
▁10(-10)
▁Dop
▁saliva
▁cytoplasm
▁retrovirus
▁excision
▁ethyl
▁.05).
apsular
▁adap
▁stabilizing
irds
6,
▁stent
▁adi
ulous
grees
inescence
1,000
plicated
▁Laser
ogenic
▁neutrophil
▁laparo
▁myc
aturity
oplasm
▁thrombi
▁curric
alb
▁0.16
ascular
▁mumol
▁diaphragm
▁NaF
▁pheochrom
▁laparotomy
▁171
▁extracts
amethyl
established
▁(1.9
abin
▁Monoclonal
▁Organization
▁isoniazid
▁microelectro
▁amiloride
78
▁fetal
▁hypother
▁320
▁refractory
▁hemisp
▁resembles
4+
▁pector
ophag
▁dialysate
▁heated
▁osteoporotic
▁enkephalin
anat
▁cep
▁swallow
▁DP
▁45
▁Screening
linking
ococcus
omat
▁112
▁congestive
▁ciprofloxacin
▁nutritional
1/2
▁12-
▁mM
▁(1000
▁elevated
▁inhal
▁PRA
phosph
▁visually
▁appreciably
▁systematic
▁cardi
▁grip
induc
▁flies
▁Beta
▁SDS
tebral
seven
▁scars
▁predominated
quat
▁fourfold
PAC
dione
▁preschool
▁Pain
▁CB
▁amn
▁haemorrhage
ulcer
▁duodenum
ectin
▁pate
▁trach
▁56
▁distinguishing
▁swim
▁radiol
▁2-
▁193
-201
▁antimic
elan
tical
▁kine
▁ciliary
▁genome
▁(32
▁rhythm
▁interferon
2+)
▁proteolytic
▁bilayers
▁insufficiency
assay
▁BH
▁optimally
-78
olase
▁4-5
▁159
▁hypokalemia
▁asymmetry
▁gastro
▁reflec
▁smo
▁epilep
▁31,
▁tissues
▁interacted
▁improving
ensitization
ulsive
▁radiographs
▁perception
▁decline
▁84
▁polyp
RH
▁86%
▁vascular
▁compensation
▁autoimmune
▁10,000
(2)
▁wors
▁aspec
▁unrel
acked
▁ubiquit
erally
iciently
▁electroph
▁accelerated
crist
▁receptors
eight
▁-10
▁0.005)
▁0.13
▁ophthal
opyr
▁saphen
▁8%
melan
▁NSAIDs
▁acetate
▁acutely
▁bacterium
▁MRI
ruc
28
▁beats
▁psoriasis
▁bab
▁coex
hydroxys
GD
ighteen
▁instillation
▁7%
▁goiter
▁Hep
apeu
ifedipine
imol
ochemically
▁cAMP
rinary
▁diet
▁rhinitis
▁ethanol
▁chemo
psych
MDA
▁35-
0.0
▁ultras
menopausal
▁suspension
▁bacter
▁trypsin
▁repertoire
▁9.5
▁infusions
PHA
▁compensatory
▁cannula
▁acidic
initi
25,
athione
▁acrosome
▁HRP
▁reacting
▁lowers
▁persisting
oneu
▁sensi
▁avoidance
▁suprac
▁tear
▁midbrain
robenz
▁vertebrate
▁11
▁anaesthesia
ometri
2+/
oskeletal
▁effluent
2+,
▁cotrans
▁titres
937
▁diseased
oung
▁maneuvers
▁intercal
osac
▁neutralizing
▁perturbation
tilb
▁25%
uronal
7)
ocortical
▁cloned
▁celiac
ohns
88
▁MI
▁denaturation
▁(9%)
▁phenotypes
▁liver
omotor
wenty
▁1975
▁wrist
ximum
cein
▁granulosa
▁anteced
▁spermatogenesis
▁bup
▁0.79
▁tumor
▁rhodopsin
25(
isopropyl
▁108
gative
▁thi
▁neoplasm
▁RF
▁papill
▁luteum
▁displacement
▁0.2,
kD
41
amagnetic
▁analyse
onomic
▁prazosin
▁drip
icient
▁progen
yramine
odiazepine
▁gamma
▁blunted
▁tracers
Asp
▁inoculum
▁Neither
▁chimeras
▁exchanger
ertion
▁Increasing
▁supra
▁vertebrates
▁epidemi
▁mechanics
▁satisfactory
▁80%
▁lymphaden
▁(1.2
▁0.5%
▁kD
retion
▁durations
▁DHT
▁NMR
▁beds
▁arachidonate
▁ovine
▁parap
▁PTCA
▁carriers
▁transcriptase
acid
▁preexisting
ACh
40
agittal
▁prostagland
othelial
▁splice
▁polarized
▁(1988)
▁symptoms
▁triceps
▁hypothalamus
otrypsin
▁gestational
▁anomal
▁oxy
oppler
▁mixtures
tium
ductase
semb
phila
▁sarcoidosis
▁Kinetic
▁hypertonic
▁3',5'-
▁anomaly
▁electromy
phorbol
hap
▁Consequently
▁OH
carnitine
▁analys
andida
▁(2,
▁conjugated
▁corticosterone
(2-
▁1.0,
▁immunized
▁cytotoxic
modulin
restingly
▁LT
▁overview
-1)
▁thrombolysis
3%)
▁carnitine
▁Initi
▁agonists
▁Delayed
▁extre
▁diarrhoea
▁deletions
5%)
▁2.1
▁adop
▁196
▁continuation
omycin
ofib
▁SLE
lycero
▁photoperiod
▁explored
▁collagen
dR
▁immunization
▁displaced
▁47%
▁inadequate
▁70.
▁29%
▁diminution
▁hypercapnia
utyr
▁ribonucle
▁Metabol
▁PU
▁brady
/3
resolution
▁identif
▁(1.0
▁EB
▁aspir
▁deposition
▁ovid
eruleus
▁donor
13
▁(10%
▁adjustments
▁planes
▁240
vaginal
▁8%,
azin
▁occipital
2'-
▁conserved
iuria
▁notic
▁underestim
oglutarate
▁rearranged
diol
▁Cancer
inesterase
thickness
▁soybean
▁cytogenetic
▁hydrochloride
▁NGF
▁oestrogen
▁troponin
▁newborn
▁101
▁catalyzed
toli
urea
▁bipolar
serum
▁conflicting
▁199
▁recr
luent
▁16.
▁ganglion
▁codon
▁ultracentr
acids
▁mV
▁enlarge
▁dismut
▁CM
▁sigmoid
▁efficac
1/
MN
▁characterizes
▁haloperidol
▁radiolabelled
▁hemodynamics
▁immunoblot
▁FT
acute
orbent
ociation
▁abscess
▁SPL
▁jaundice
▁adren
dU
romyces
▁curriculum
▁(0.5
▁worm
▁0.0001)
omatic
uantitative
ectable
otherapy
11.
▁inconclusive
PPP
▁inhibitory
Sepharose
▁systemic
▁Mice
oplasts
-13-
▁mep
grams
▁harb
▁(10(-5)
IGF
▁hypertrophic
▁postinjection
▁elongated
▁therapeutic
▁foci
▁pA
▁achie
▁individualized
razosin
amous
▁serotonin
odds
incub
▁exhibiting
▁sampl
▁tightly
fected
▁1,25-
▁anore
▁fibres
▁50
▁cate
▁covari
ometers
schem
hydroxylase
▁immunos
▁Recurrent
veness
▁nitrogen
▁hybridization
▁silic
nour
▁potentiating
▁ornithine
frequency
▁139
▁Basal
▁blinded
▁sensation
▁300-
idic
pharmac
othel
▁facilitated
▁survive
▁serotonergic
affin
▁diurnal
▁kappa
▁intermittent
▁ulcer
onine
CBF
▁larvae
▁vicin
▁mesencephalic
▁hypothe
▁potentiate
oxyl
▁histopath
▁9)
▁109
ymethyl
▁fec
▁deficiencies
▁spontaneous
▁DAG
odg
▁calculi
▁dentin
▁allevi
xyl
▁5'
▁Percoll
▁MG
otoxic
▁reproductive
▁hyperp
▁consequently
▁chol
▁[3
omegaly
▁0.05,
▁140
▁(2),
▁appropriately
▁Stress
▁altered
obacterium
enone
▁EDTA
▁GMP
▁Chrom
▁SRBC
▁4;
▁divertic
▁labelled
▁ventricles
▁spectrophot
▁0.78
estern
▁polyclonal
▁sedentary
65
▁xen
systolic
▁0.63
▁radiolab
▁Hodgkin
olol
▁0.4
▁5.5
▁(2)
ylline
▁glycogen
17
▁traum
▁(0.9
▁fractions
▁NMDA
▁rhythmic
▁buffered
-1.5
▁Dental
▁unc
▁biology
mercap
▁hypertensives
▁inappropriate
keletal
▁dorsal
▁Gluc
approximately
▁urethral
5,
▁births
▁granules
▁adolescence
▁emissions
▁pollen
▁recruit
▁favorable
▁transported
utaneously
▁heating
▁hemolytic
oxid
glia
▁7.5%
▁50,000
Ly
:3
▁consecu
trac
▁relaxations
▁Thyroid
▁unrecognized
ondr
▁gilts
olipin
.5.
▁bulls
▁couns
tified
▁exponentially
▁ductal
carbons
3'-
2/
itoneal
ditions
albuminuria
▁postmenopausal
▁implicated
ields
▁introns
▁88
cells
gradely
pecific
otom
▁seroton
dominal
▁hepatoma
neph
▁microscopic
▁castrated
▁SBP
▁ABR
▁occasional
▁twins
▁CLL
Gy
▁Caucasians
omized
peritoneal
DCK
▁granular
▁drugs
sizing
▁motifs
▁carbonyl
▁microelectrodes
▁calmodulin
induced
▁progressed
adily
▁10%
▁vicinity
tenosis
▁caloric
▁15,
▁vasoactive
itively
apatite
▁gluc
▁etiology
▁transporter
oxine
aldosterone
▁(85%)
tracheal
dies
▁immunologically
▁groove
▁fibre
▁somata
galact
▁smear
▁unexpectedly
aminase
▁emesis
▁indicators
▁victims
sus
▁retention
▁Almost
ulants
▁abnormal
▁spectra
tabl
rotoxin
▁epidural
etent
▁pestic
▁previ
▁TEA
rinone
▁intensely
▁utero
▁Retin
lox
▁lumbosacral
▁hybridomas
▁neocortex
▁fibros
▁attrib
entricular
▁PMN
▁incidence
▁leukocytosis
▁blin
▁fluids
▁subdural
encephalon
▁detachment
erant
tiv
▁cadmium
▁phosphoinositi
entanyl
▁(72
▁stimulate
10
▁0.00
17,
globin
▁galanin
▁extremity
tinguish
atid
enzyme
▁vaccination
▁(70
▁1979
-6,
▁carc
▁nucleic
▁modulating
▁scalp
11
▁hipp
▁amygdala
▁97%
▁PEP
▁rectum
▁microM
▁antenatal
▁denti
cyt
ayed
▁postnatal
▁200
ashing
-15
▁concomitantly
▁uncoupling
▁competitively
▁analogue
icillin
▁coordinated
brom
roximately
▁hypophys
▁correlated
▁gm
▁Lact
till
▁phi
▁antero
▁(11
▁0.1%
▁sequential
▁strategies
eces
▁ascer
openic
▁absorpti
▁calibration
▁competitive
▁morphine
olec
▁subtypes
344
▁Lipid
▁epileptic
▁radiotherapy
genital
▁dimeric
1-2
gulation
asions
▁genomes
▁AU
▁hydroxylation
▁parenchym
▁plastic
▁hypercap
enching
▁contractions
oil
interferon
▁invasive
proteins
▁perforation
▁lymphocytic
▁brach
▁-7
▁dispro
AII
▁Tiss
▁respiration
ostasis
▁fourteen
orphin
14)
▁kinase
▁odds
▁11.8
enteric
▁0.9
▁quotient
▁(78%)
▁dehydrogenase
▁tubule
ropathy
epiandrosterone
tensive
▁caution
▁envelop
▁gingival
BMI
DV
globulin
Gal
adian
▁elucidate
arine
▁Lym
assisted
▁kainate
tur
▁instruc
▁atmosp
▁metronidazole
oalveolar
▁filaments
▁MICs
▁yr
bearing
establ
▁graft
▁isoform
▁amide
MK
PSP
▁analyses
▁eryth
▁electrolyte
▁(4%)
▁backgrounds
▁identically
▁phospholipids
▁CEA
anding
▁undergoes
irectional
▁disturbance
resistant
tructural
▁inhibit
▁71
▁Throm
6;
ophila
liteal
.1%
RIF
tailed
▁varicos
▁stably
▁piglets
▁centrifug
▁apomorphine
▁stationary
hemo
▁mRNA
kine
▁(51
▁reag
▁deoxy
▁polyacrylamide
▁complication
▁10.8
▁devoid
bacco
▁mutagenicity
▁160
▁ovarian
idity
34
aicin
▁injuries
-60
▁denervated
▁RL
▁0.19
▁retard
vated
▁periodontal
▁duodenal
erican
▁residual
▁resul
▁111
platelet
▁acquire
hydro
Pen
-5
HM
▁Torr
▁sequenced
FN
▁beating
▁pyl
surface
tRNA
▁electrical
iatic
▁1.3
▁thal
hydraz
helin
▁270
uccess
iol
▁paralleled
▁genotypes
:0
etoprotein
▁papillary
▁IgM
teroidal
32
▁perc
depleted
romic
▁27%
Lys
plies
▁pneumococcal
▁phosphatidyl
▁somatic
▁prophylaxis
▁brachial
estrogen
▁Average
▁66%
iasis
▁antioxid
uscular
▁cooling
HPLC
▁anticonvul
rophic
▁DNase
21
▁throm
▁Invent
▁confluent
trated
4).
▁neuroblastoma
▁LDH
▁interv
▁(20%
▁distinctly
butyl
▁mann
▁sagittal
▁unmodified
oxygenase
▁MHC
▁homogeneous
▁volunteers
▁natriuretic
bacter
▁gastrin
▁maize
▁calcification
ochemical
actin
immune
▁asbest
OHDA
▁confounding
▁orthoped
▁tetra
▁Effec
12-
orbol
▁specificity
▁pim
initiated
▁nylon
▁compromised
▁accumbens
▁100%
sul
omotion
▁triflu
▁hypoxanthine
iciency
radiation
▁macromolecules
lix
▁neurofilament
▁(35
▁transfusion
▁polymyxin
▁antib
▁Lyme
bino
▁LC
▁constituent
rogenase
▁Parkinson
enzym
▁amplitudes
inol
glutamyl
tiary
▁semen
▁4.7
amphen
▁endometr
▁estrone
▁DBP
▁mineral
weed
producing
dIns
▁displ
▁revascular
roxen
otassium
▁ruptured
▁prophyl
orsal
.8%
▁genital
▁phosphatidyle
cepti
▁demonstrates
icardi
▁vaccinated
bred
▁HSV
▁185
tussis
▁6
▁obese
atellite
▁Except
▁baseline
rostaglandin
▁21,
hop
1)
16
▁amines
▁gastritis
▁spliced
hypertensive
▁retina
▁catar
rae
▁vagotomy
ogenetic
▁intrathe
▁Positive
▁229
▁ND
LISA
▁filamentous
▁9-
usively
▁thyro
▁11.
topril
olet
▁sphing
▁remodeling
▁guanine
▁0.001,
brain
▁remission
▁thrombus
▁AFP
▁cited
arrh
▁volunteer
▁lipolysis
▁189
ynaptic
reasing
▁relapsed
▁experimentally
▁59%
▁malate
▁autop
▁tubules
▁basophils
fts
▁deprivation
▁marginal
imetidine
▁DMBA
mitted
▁substantially
▁ultim
▁dibutyryl
rectomy
esophageal
▁complexed
▁vaginal
▁determining
▁crom
▁adolescents
▁Americ
▁dissec
▁pacemaker
vix
ocor
exponential
▁25
▁migrated
esicular
▁thir
viruses
▁1,2-
▁nonin
▁preganglionic
▁48%
▁eradicated
tocopherol
▁coincident
▁61%
▁flexor
conver
opyran
▁vasospasm
▁fermentation
orotic
nitro
▁polymorphisms
vae
▁consultation
amus
▁activate
atching
plying
▁qualit
▁GAL
ergen
▁alkalin
Pt
55
▁evolutionary
presenting
▁tricuspid
▁provid
▁conjugation
▁Previously
▁upward
osclerosis
▁tuber
▁CRP
▁0.07
▁puber
▁illumination
assively
▁NM
▁succin
tension
▁plasma
▁behavi
-70
▁1.8
▁elevations
▁44%
▁7.2
▁prodrug
▁212
▁constructs
▁nM
▁83%
▁phorbol
▁hypertensive
▁Whereas
▁incubation
▁innervation
▁microvascular
3,
▁tubulin
▁macropha
84
▁neutralization
atidyle
▁gland
▁Magnetic
▁reper
▁compe
▁chewing
▁convulsions
▁58
-16
MLP
▁progressive
▁experi
▁injections
▁contracture
LV
▁electroly
umented
▁Tolerance
▁feasibility
▁occlusal
ophys
Fs
▁astrocy
▁Fourteen
▁eicos
▁carcinoma
▁radiolabeled
lodipine
opres
▁modulation
cyte
▁effector
▁GST
GlcNAc
▁MH
▁cytotoxicity
▁solitary
yto
GFR
ilts
▁labile
▁bacterial
▁normalized
▁abd
▁enantiomers
▁cream
▁73
6%)
▁detectable
▁hourly
▁Numerous
uled
ecyl
▁diagnoses
▁plateau
▁circumferen
2+
▁mg
▁neonates
monella
▁organisms
▁extrav
▁uninfected
▁ascites
▁Continuous
▁sediment
▁Levels
+)-
▁nm
▁0.001)
Tyr
glutamate
within
▁cleft
facial
▁urokinase
▁counterparts
▁fulf
▁antidepressant
▁yiel
otherapeutic
▁perpendicular
▁retinas
▁nicardipine
▁crude
▁clus
▁recommendations
▁Bronch
▁aeros
▁0.66
amines
tance
ribosylation
toxin
▁bradykinin
▁19
▁resc
.10
chest
▁detects
▁nociceptive
▁reversing
▁(197
ohyd
▁pore
▁canine
▁conformations
▁demographic
fluorouracil
ogenicity
ronch
▁Elec
oustic
▁lacking
▁ECG
▁halothane
ardias
▁ammon
sibility
▁bronchoalveolar
cristine
▁pools
neu
▁mAb
▁fati
ishman
▁influenz
▁harvested
▁1.15
▁TG
buterol
▁intrav
tagland
▁regenerated
▁(3%)
.3.
▁insult
years
▁brom
▁infarction
▁prerequ
▁excluded
▁promo
▁competence
luded
LPS
nithine
▁degenerative
letion
▁cerebral
▁ultrason
▁modestly
herent
ADP
ogold
opsy
opathies
▁glutamine
ensitized
ietin
ystokinin
umbens
▁0.33
▁assayed
▁phe
availability
▁immersion
▁thromboxane
mokers
▁59
▁clotting
iodo
▁retinopathy
▁clu
▁asthma
▁clinics
▁mIU
▁adulthood
roxyprogesterone
▁heterozygous
▁cooperativity
▁intractable
apine
8.
▁-5
▁arterio
▁mesangial
▁accumulates
▁analysed
▁suppresses
▁recipients
▁anticholinergic
▁institutional
▁serosal
▁adenovirus
clin
titude
▁indomethacin
gans
▁Comparisons
rous
▁symptomatology
▁swabs
patients
▁0.57
▁quoti
▁crucial
▁ata
▁phosphorylation
odopa
▁substitutions
▁oxide
▁bloc
▁90-
▁106
▁hyperther
▁pharmacy
RNP
▁12%
▁equine
▁paradox
opausal
antial
▁electrom
▁vap
nucleotide
▁700
▁solely
proliferative
0%
▁endonuclease
▁venules
etidine
roso
piration
▁tRNA
(-)
▁inverted
▁intest
▁manifested
▁dissociated
arum
increased
▁reactive
DHT
epit
▁Factor
▁HI
dependently
▁fertility
▁95
▁allografts
▁synergistically
ocl
▁reductase
▁aerosol
▁SIDS
▁bromide
▁TNF
rotal
▁whey
▁gt
▁0.01).
▁29
▁initiated
opath
▁suscepti
▁hyperox
▁22
▁5.8
arose
▁initiating
▁infra
atids
▁regimens
▁digestive
▁primed
▁63
▁Alz
othreitol
▁traction
androgen
▁deficits
▁intermediates
▁transmembrane
▁dermis
performance
▁angina
▁motile
▁cerevis
ipheral
▁evaluable
▁tryp
▁0.05
▁ligands
▁14.8
▁Unlike
wann
▁(45%)
▁expend
ariate
▁0.26
▁EA
pulse
iciencies
▁neurite
▁nephron
ethyl
▁monotherapy
IU
▁contraction
▁0.93
▁6.0
coding
thmia
▁thromboemb
▁Lymph
▁erythrocytes
azoxan
▁ergometer
molecular
weekly
▁36%
ploid
amel
▁calves
2(
ifugation
▁0.01)
▁reinfection
▁conferred
▁ventricular
▁74
▁239
▁antithrombotic
▁Responses
▁felodipine
otyp
opathic
▁precipitation
tumor
▁pregn
lational
▁laminae
▁96
testinal
SBP
▁dyn
▁177
▁ars
veolar
▁plaque
▁oxidized
▁angiogram
2.
▁Taken
avirus
▁Failure
▁intubation
osarcoma
▁steroids
▁dysplasia
▁hypothyroidism
-1/
▁hypog
▁bicarbonate
▁secreted
quinone
▁24)
▁cryp
▁tissue
▁faecal
▁planar
thyroid
33
▁Phosph
▁noradrenergic
fluo
▁virion
▁salmon
troduction
▁20,000
ospor
▁IOP
lymphocyte
▁exercising
▁steep
tions
▁9.2
▁implic
aryl
ophils
ocyan
▁triggering
▁impaired
▁Escherichia
▁angi
▁bleeding
▁Afric
-25
▁mesenchym
▁wards
▁consis
▁regulating
▁immunoglobulin
▁projec
▁1990
▁chromatin
TRH
▁usefulness
ocrit
▁Acad
▁coated
▁encour
▁imposed
▁pts
mole
▁tetramer
▁metallothionein
roximal
rated
ophren
▁fibronectin
.5
▁CTL
genic
67
▁pyridoxal
▁heal
▁affinities
▁platelet
▁Clinical
▁balanced
teine
▁GH
eclamp
▁prono
responders
▁negligible
ervical
2,000
▁attenu
76
▁residue
▁paradig
▁papilloma
▁desaturation
▁AChR
tribution
7,8-
▁clonidine
illus
▁condensation
cemia
▁167
▁perin
▁Tryp
36
▁decompression
▁650
▁imbal
obenz
▁integrin
▁polyps
▁euthyroid
oclonal
▁expressing
93
▁(58%)
▁expectancy
▁reflects
fem
▁unidentified
inum
-66
▁lis
-7
acrylamide
▁Functional
ospasm
▁assays
▁enamel
▁deletion
ophasic
eptin
▁ACTH
▁interrelations
▁ellip
▁outlined
tomycin
lycer
▁enzym
▁discontinued
clerotic
▁lecithin
benz
▁septum
▁rheum
▁isovol
▁enthal
▁treating
▁1.0
▁empirical
▁amounted
▁Twenty
idinyl
▁epididymis
▁variability
12.
▁Cd
▁200-
▁0.05%
▁BMT
coun
omegal
▁NIDDM
▁eminence
▁GSH
▁leukemias
othionein
pretreated
assays
tec
obarb
▁Compound
▁150-
▁(49
HB
▁promptly
salt
▁trimester
lethal
ths
acements
▁potentiated
▁coeff
▁Protein
▁PAP
oxo
lipid
either
ioma
Daw
▁CPB
Hb
▁considerations
ritic
▁adip
▁functioning
▁placental
urons
▁Prevalence
71
▁minority
ejun
▁8.1
50,
▁pulmonary
ctomy
iodarone
opharynx
ograft
▁strengthen
ercise
▁spastic
ocomial
traum
▁eating
▁20-
▁0.90
asses
▁anticoag
▁torque
▁tendons
▁benzo
POA
▁biased
▁mortality
aminated
▁microtub
▁gastric
ulose
▁ADP
toxic
▁quadrup
▁nutrition
▁sucralfate
▁homozygous
-31
▁lec
glut
▁unaltered
▁decreas
▁ferritin
oea
▁PAI
▁appra
-23
eptic
▁PIP
▁coeruleus
▁3;
▁transfusions
▁lethality
▁declining
yel
▁peroxide
▁Sixty
▁ranged
▁regenerating
▁presenting
▁17%
▁ischaemia
ypeptidase
alyzed
▁lymphoblastic
▁crystal
▁PCO
▁proteinases
thood
▁facilitate
oporotic
▁characterize
atibility
dipine
▁cystein
▁injecting
▁opac
▁-4
deficient
▁regimen
▁mutant
▁guidelines
abain
▁endoplasmic
▁streptozotocin
▁58%
idov
▁Postoperative
▁coagulation
▁cones
ilibr
iliated
▁stool
▁0.08
▁antrum
▁thromboembolic
acquired
▁infused
▁steadily
68
phosphorylated
▁coli
▁parotid
kines
▁5),
▁toxin
risk
▁globin
▁defibr
opian
▁stabilize
phosphamide
gesia
▁unipolar
▁cis
▁isotype
▁airways
▁elastic
▁HM
Ep
▁conduction
KD
ostigmine
ustained
▁cows
phrag
ovulatory
▁oral
▁12.0
enoic
ipro
▁Pneum
▁fundus
▁protracted
▁Calc
▁resistances
▁monophosphate
▁ubiqu
▁destro
orrect
phosphorylation
▁ANF
▁circulation
▁effusions
.4
▁sphincter
▁metals
▁exag
lamin
▁valves
CFU
▁catecholamines
minute
atation
▁11.2
▁kary
PMA
▁CK
▁premenopausal
▁standardized
▁67
▁1.7
▁lamin
▁perfused
▁utilize
▁analytical
8%
▁14%
▁apex
othiaz
oarth
tria
▁Diabetic
▁mature
ipher
-4.
mitoyl
▁cognitive
yoto
44,
oblasts
▁nephrotoxicity
▁6-
iline
lys
25)
▁beha
phthal
amole
▁polyaden
yanodine
▁topography
▁interfering
▁3/
▁ventricle
quid
RD
▁mitochondr
embr
▁exhaustion
▁pathway
(5
▁Trypan
▁hyste
▁35%
gmental
▁1.05
TGF
thio
▁3,
▁extrap
▁ouabain
▁interleukin
divid
▁fluxes
▁thermo
▁thyroxine
▁1,25
2,
itability
butamol
▁deficit
▁drain
GMP
▁unfractionated
phrine
▁mRNAs
algia
▁103
▁neighboring
potassium
▁6).
predic
▁stimuli
▁Medicare
BK
▁simian
▁antipsych
▁DBA
heres
aints
acin
/10
▁labelling
▁retardation
▁thrombotic
▁ovary
▁abstinence
▁nec
namic
▁biopsied
900
▁18-
teroids
CCK
tivities
ilization
▁(+)
▁nontoxic
ABP
tural
▁Simult
▁tach
▁EIA
▁sha
▁lymphoblastoid
▁trachea
▁flanking
▁consciousness
▁fungal
atases
4,5-
idney
▁0.10
▁dP
▁0.82
▁subcortical
▁endurance
onazole
▁0.25
Rs
pendym
▁lipase
urate
▁immature
iferative
acial
inducing
entical
▁glutathione
▁Bacillus
blind
▁21%
▁LVH
▁Hypertension
▁contrac
▁consistency
stolic
idin
▁tritiated
omod
▁sulfated
▁microbi
▁accumulate
spin
itum
osal
sant
▁possesses
lasting
▁increasingly
lived
ovalent
▁computerized
angerhans
-2)
▁2.5,
▁envelope
▁arthro
▁prognosis
ucas
▁PBMC
pH
▁salbutamol
▁4.9
tizing
▁subtilis
▁produc
24
▁absorbed
▁pharmacodynamic
rectomized
▁gum
▁carcass
▁lymphokine
significant
▁amyl
▁acet
▁60%
▁diuretics
tigo
▁194
▁prostatectomy
▁gyrus
ronchial
▁atri
▁comprehen
▁blockers
▁cardioplegia
▁39,
▁ventricul
crystall
▁prevalence
▁dosages
GnRH
oflu
▁sickle
uppres
xual
▁neurotensin
oretically
oxyrib
▁nadi
▁avoiding
▁Swed
▁84%
ureas
▁rhod
/18
▁supr
▁hemorrhagic
▁resection
seous
▁neon
▁sinusitis
▁diphosphate
▁RIA
▁carin
▁lowered
▁cholera
▁MAb
▁additive
▁extracellular
histamine
▁clamp
▁melanomas
conduc
▁lithium
▁hydrophob
▁mucin
tility
▁inflamed
gents
▁abrupt
▁2).
▁isoflurane
▁provoked
rozen
-43
portant
▁electrophoretic
-5-
▁assessment
▁NI
HCV
▁retroviral
ometrically
orpor
▁omeprazole
▁diverged
▁1.16
tency
▁Phase
▁1,25-(
▁glomeruli
▁6.6
lasses
▁rostral
actone
▁bilirubin
74
▁10(7)
▁retrospective
▁Certain
ectomy
▁SKF
▁differentiation
▁uniquely
▁dipyridamole
▁cytochrome
▁lutein
operoxidase
▁10(-5)
▁transitional
inhibition
▁awake
▁secrete
▁REM
onin
yridine
activated
▁topically
ystectomy
chemical
▁abundance
aternal
diagn
-2,
-44
3%
pA
▁exocrine
oscopic
▁activator
tinguishable
▁fores
▁BamHI
▁ANP
▁targe
▁intracerebro
ografts
▁aspartate
oglobin
▁progres
utyric
▁PLA
▁4)
oventricular
vation
▁adhe
▁Hz
▁vasodilation
▁metabolized
