55
▁occlusion
ondr
▁HI
▁doctors
▁enrolled
▁fracture
.2%
▁Cells
▁lungs
ticular
▁drinking
▁depress
lectomy
▁rotated
▁subtype
▁proximal
ochem
▁numb
▁mucosa
▁pathologic
▁cocaine
▁unre
▁manu
agal
▁pharmacological
orotic
onium
▁dentists
▁residues
▁atmosp
iciencies
▁potent
▁pathological
▁caud
▁cohorts
29
▁tracer
▁referral
▁behavioral
▁identifying
▁mutation
▁3.3
▁striated
▁estradiol
▁implantation
lastoma
▁refractory
▁nal
▁lesser
▁stillbirth
roma
▁inactive
tidine
▁oligos
valent
▁chloride
▁SCH
▁saturation
▁dissec
▁overd
▁superoxide
▁screened
crimin
ynthe
▁aneurys
▁gon
▁Biol
anish
▁reflects
▁preoperative
▁nosocomial
trac
robic
▁5
▁monitored
▁spermat
tenance
▁verteb
▁urea
ayers
+,
▁poorer
▁immunofluores
▁quantitatively
▁Denmark
▁gonadotropin
oes
▁0.
▁prolactin
▁gout
▁envelop
▁chamb
▁Nine
▁mothers
▁canine
tec
▁chick
hest
atrial
itoneum
ocele
gic
opa
unts
▁oste
▁blocker
olysis
▁interferon
▁athletes
▁3.4
vating
▁nucleus
▁decisive
▁fractions
▁centr
▁alleles
▁10(-4)
ellum
oblasts
▁retrospective
▁spectra
pendent
7%)
▁Greater
ysm
▁prognosis
patient
▁40%,
EA
osine
▁68
▁intrag
omiting
tific
▁paralle
▁sial
arly
tant
▁tymp
stranded
▁thromboemb
orts
ressive
(2+)-
▁desm
▁antagonized
▁CCK
bic
ylate
▁Recent
▁projections
▁agon
▁hydroxyl
▁drin
▁55
tage
RH
tures
▁0.05)
▁thal
▁Accordingly
ubtedly
reast
▁VO
ovirus
▁autoimmune
▁thymus
▁tubercul
▁commerc
▁pulse
tility
lytic
▁vancomycin
bearing
▁198
▁inhibits
▁colonies
deficient
▁85
▁Chest
plas
effectiveness
ilization
▁colonic
▁accel
▁backs
discharge
urons
▁immunodef
▁classified
gluc
alact
▁12-
▁prevention
cessive
▁reac
diagnosed
▁androgen
ustif
▁explored
▁cervical
▁salivary
▁OA
HN
▁inh
▁conservatively
▁synov
+]
aminated
▁overl
▁intramuscular
▁analysed
olytic
diabe
▁predomin
sively
▁nm
▁adenylate
▁glucose
▁strains
▁subjec
▁rhythm
ometr
66
▁analges
▁warranted
mend
selective
▁utilized
ture
▁Dopamine
▁restenosis
▁chromosome
▁yiel
▁aggregation
iated
▁encoun
ecal
▁sickness
omethacin
▁previ
.2
▁respec
▁harmful
urethral
▁secretory
▁pharmacokine
▁ALT
▁addi
asal
▁contribut
▁thrombo
tality
▁polymorph
toph
▁chromatin
▁meaningful
▁16
itively
▁diminished
▁hypotension
▁junction
thmias
hap
▁biopsies
▁20%
▁rehabilitation
▁manufacturers
▁wee
▁stren
▁microscopy
▁fibroblasts
90
▁glucocortic
▁syndrome
omes
▁cholest
▁sten
▁biosynthe
▁peroxidase
thym
isqu
▁accumulation
semb
▁surgeon
▁episodic
erad
▁causative
▁radioactivity
tran
81
▁53
ustained
▁developmental
▁calcified
▁cholec
▁FSH
sis
onary
▁shif
trate
sy
▁immunohist
▁CRP
▁routinely
▁35
divid
▁ganglia
▁antagonist
▁tRNA
lys
arate
▁4)
▁10(
▁insurance
▁tau
▁asthma
▁FS
trimental
pir
▁stimulated
▁thromboxane
▁analogs
▁Bone
▁MRC
▁0.001).
▁unin
ervative
fected
▁suppression
▁oligonucle
teroid
▁HL
▁causal
▁GABA
PAP
▁invasive
▁cadaver
▁affecting
▁fetuses
▁physi
▁sensitivity
▁(14
opathic
▁PCR
deoxy
▁accessory
▁attemp
▁lymphadenectomy
otropic
▁evac
▁edema
▁acetylcholine
▁indicators
▁LD
▁corticosterone
▁suspicion
entan
▁screw
▁inducer
▁sediment
▁glands
▁pretreated
▁tracheal
▁accurately
▁32
▁examin
▁smokers
FU
▁activating
oate
▁contamin
▁Tests
zymes
▁lact
▁suture
▁cortex
▁collagenase
▁congen
uin
4-
▁ect
▁evoked
▁annulus
▁physically
▁susceptible
ocomp
▁exo
▁asymme
▁alcohol
estive
ocon
▁conclusions
▁hypog
▁surveys
▁40%
▁implications
▁angina
▁functionally
tophan
atheter
▁pharmacy
EGF
▁tissue
virus
▁symptoms
BG
▁lethal
▁aspec
▁nurse
▁severity
▁autoanti
▁insufficiency
▁theore
▁aerob
▁carcin
atible
▁seropositivity
▁genes
▁diagnostic
gth
rozen
alp
▁PF
roin
▁tubule
▁decades
▁monkey
▁gonad
rehen
,000
▁cytotoxicity
▁unilateral
5.
▁digestion
▁paradigm
▁100%
▁spon
▁glutamine
▁progressive
▁alveolar
reatine
lusion
▁perone
▁organisms
lasting
lep
▁lectin
▁ward
▁epid
▁satis
trin
▁needle
▁indeterminate
▁inhibit
icine
▁RBC
▁consensus
▁adenosine
▁cG
▁sulfate
▁AI
adrenergic
▁ineffective
▁pene
idin
selec
▁neonatal
▁adhesion
epine
▁intestinal
duc
▁[125
veolar
terol
-9
▁psychotic
fed
-8
▁chest
apamil
▁overweight
▁adrenergic
ivation
▁pathology
onuclease
▁isch
ucle
▁stom
sized
embrane
▁restorative
▁valve
▁initiating
▁epsilon
▁insertion
▁molecule
▁seb
partate
mobil
▁DN
▁exposure
▁phosphatid
▁AGE
▁colonoscopy
▁Dop
piratory
otomy
▁deficiencies
▁+/-
wk
alsy
TK
▁cutaneous
ohyd
ituitary
▁deple
imens
▁thir
onit
▁lumb
▁RF
riched
▁slic
▁receptor
▁chemotactic
▁IgA
▁instr
▁acetate
▁unexplained
iotensin
▁chor
DH
▁seventh
▁adequate
-1,
sus
▁molar
amous
ometrial
chlor
atine
glutinin
plasia
loxacin
isture
▁cryp
▁reflux
sych
▁utero
▁anticoagulation
▁phage
▁ablation
▁82
▁morphology
▁satur
▁cancell
Ga
terminal
rates
▁5,
▁tibial
▁70%
▁GFR
▁awa
▁AE
▁extracts
atectomy
▁calf
▁ventilatory
urther
moid
▁perc
▁saline
▁RB
ithm
reased
atation
▁ischemic
▁antigens
▁selectivity
▁ossification
oxone
▁granul
▁Experiments
▁prol
heric
▁angioplasty
adherent
▁subunit
▁homogeneous
uble
▁characteris
▁investigations
▁reactive
ece
ranial
▁endemic
▁donor
tach
▁sut
▁kinetic
athione
▁compe
▁lavage
▁epilep
▁organic
tif
▁venous
▁RV
▁postnatal
▁quin
▁(15
▁apex
3%
▁PKC
▁promo
▁3.2
▁Compared
27
ovascular
30
▁NF
▁(50
▁undergone
rological
iant
▁neph
olec
▁vascular
▁increasingly
NM
ducts
▁multic
▁Hz
▁intense
micro
▁ultrason
ulcer
oA
▁transi
▁99
▁latent
▁vesicles
▁glycine
ulfonyl
▁inositol
▁recur
▁mesenteric
▁hepatic
▁residue
▁suggestive
▁Sout
▁contributes
sul
olipid
▁96
titial
▁radiolab
▁interstitial
chym
iosis
stress
▁rhe
onography
▁lithotrip
▁compounds
▁glial
▁3.0
testinal
emic
▁Clin
▁ongoing
▁cAMP
▁fibers
▁anxiety
▁pter
▁venti
amic
▁collagen
▁nerves
treated
▁brains
opic
▁neutroph
▁65
iotics
▁stimuli
pation
▁respiratory
▁TRH
veness
cyt
yel
IU
7-
-0
▁CsA
▁CRF
▁striatum
siological
▁phenyl
iciency
ivocal
▁socio
▁pate
▁progressively
mitted
▁AVP
ograms
siologic
utyr
▁versa
ially
▁IGF
▁Kup
▁abilities
ogenous
▁NH
-1
▁micrograms
▁PG
▁gp
▁etiology
▁depression
uminal
dimethyl
▁dors
thel
tam
▁cysteine
injured
PB
▁pressures
▁HIV
operated
45
▁replic
▁lobe
▁oral
▁motone
▁tes
▁correlations
▁wean
ophore
▁currents
▁tertiary
maximal
▁practically
owever
▁ambulatory
▁eluc
▁anticipated
▁raises
▁unchanged
ophren
▁Findings
.1%
▁Intra
▁Contr
▁fulf
arean
▁irrit
▁ANF
▁chec
▁5)
▁Fifty
nine
%),
▁fibres
▁metabolic
▁diabetes
ocyt
▁belie
▁questionnai
▁newborns
ameters
Ly
▁0.01),
▁differentiated
▁undertaken
▁underwent
▁inward
acchar
▁suspicious
▁phospholipid
▁Increas
inemia
pinephrine
▁thromb
hern
0.0
▁allogra
▁Effective
2.
rection
-30
▁analogues
▁heal
▁kidneys
▁-0.
▁epidemi
osyl
▁EMS
▁debr
▁agonist
▁pyr
▁IgE
Ra
▁Hg
erance
grees
▁7.
▁recipients
▁88
aminase
osocial
▁cartil
▁suicide
▁Steady
quine
▁phi
▁mitochondria
▁diagnose
▁locus
▁brom
oratory
▁ruptured
▁labeling
▁dysfunction
▁barrier
▁disparate
amily
▁(0.5
▁bolus
▁scin
▁endoscopic
▁flexion
▁mediation
▁complications
anol
phth
▁palsy
ospor
othelial
kines
ylic
▁PAS
ulmonary
ithiasis
▁[3
pharose
employ
▁barriers
40
▁effector
▁transfected
▁(0.
hemo
▁rati
▁5.5
▁nodules
ellar
BM
▁racial
▁aspiration
estis
amines
▁inoculation
▁plateau
▁69
▁pyl
▁trials
46
▁coag
▁microm
▁immunized
▁splenic
ensitization
▁spikes
▁haemorrhage
▁microv
ifedipine
▁inflammation
▁tuberculosis
atonin
ogeneic
▁relapse
▁cataly
▁MHC
amn
trol
▁FD
atched
▁spontaneous
cholesterol
ileptic
birth
iminary
ncy
aminergic
▁50%
▁trauma
▁pT
▁coronary
resistant
▁antigenic
▁excitation
ardless
▁anat
▁Immun
▁immunos
▁pathway
urally
ampl
wenty
▁obese
▁phosphorylated
econd
▁anastomotic
▁73
etan
▁cryst
ococcal
▁ageing
▁ae
phragm
▁5'
▁resear
coh
openia
▁resistant
▁granule
tingu
▁enhancing
▁mamm
▁speculated
1-2
▁bloc
▁vomiting
undibular
▁phosphorylation
▁(95%
▁precur
▁infiltration
▁Vmax
avage
oradi
▁secretion
5),
▁LOS
tured
roximately
▁potency
▁evaluations
fec
▁isot
versity
/100
odial
▁fibrob
▁ips
tensin
▁deem
▁facilitated
▁dete
▁hemat
▁constric
-24
▁synthesis
▁histopath
▁GSH
lesion
▁abuse
▁10,
▁tissues
▁postoperative
▁brady
▁5.
▁variability
▁inadequ
▁clinical
oag
▁reactivity
-11
ynaptic
▁chronically
▁physiological
▁lipoprotein
▁undes
▁cytotox
▁0.25
-6)
▁uncom
responding
acental
▁hippocamp
▁DH
3.
tory
▁80%
▁neutrophils
threatening
trast
affected
▁medullary
▁Large
▁engraftment
▁ischem
▁reproduc
urc
MRI
RF
▁immunity
tradiol
▁Tes
▁arachidonic
▁specimens
▁keratin
▁deficient
sies
8,
sia
seud
▁eosinophilic
1-3
ipid
17
leu
▁endoscop
turally
▁treatments
▁pulmon
▁olig
galact
▁presumably
▁elucidate
▁needles
▁affinity
-40
▁EBV
▁embryo
▁mum
▁dischar
▁zinc
▁elimination
▁cyto
ATP
▁plates
▁reviewed
▁cereb
▁gels
▁necro
▁Twenty
▁elevated
▁bic
3,
eptin
assium
▁intercostal
▁worsened
▁pituitary
taining
▁approx
▁placental
▁pump
▁iatrogenic
▁79%
truc
▁bicarbonate
▁resis
icep
▁ET
▁sensi
▁malign
▁Experim
retro
▁amplification
▁vivo
urys
antigen
▁0.02
roup
onyl
▁76
adrenoceptors
▁substances
▁cholestasis
▁urinary
gland
helial
▁guinea
▁1.1
▁noncom
▁Ket
thyroid
effec
▁80
▁63
▁catheters
ensitive
▁(6
▁financ
ulph
▁displ
▁analyzed
▁biliary
▁suppor
▁breakdown
▁proteolytic
ximide
▁substantially
▁axillary
▁cerebellum
radi
▁noc
▁substance
bular
adren
tact
anyl
▁discrimin
▁influenz
▁anatomic
2%)
ardia
▁hydrogen
▁GnRH
▁4.
▁Mn
tin
▁Operative
▁87
▁reproduction
28
▁mg
idine
▁discom
▁98
▁lacking
▁Acute
▁ventricular
▁achie
▁autoradi
▁Patients
▁10.
enhanced
otoxic
▁aorta
enteric
▁thymidine
▁(10
▁anae
▁perip
▁contraction
▁resection
▁cartilage
▁adolescent
▁micros
itr
▁vulnerable
-10
▁emerg
eight
ocarcin
▁prevented
▁effec
▁admission
idney
▁radiolabeled
▁uncomplicated
▁degeneration
rolog
olesterol
▁advancement
▁caro
▁Pregn
▁antegrade
▁retin
ilibr
ophy
▁amyloid
VL
▁bipolar
▁FH
▁ester
▁58
▁ovarian
▁excit
▁opi
▁heterogeneous
▁periodon
sive
phosphonate
▁axons
▁conductance
aired
unting
▁upstream
▁pregnancy
▁regulation
responder
neumon
▁25
▁epithelial
▁GH
ventional
▁auditory
astolic
▁synthase
▁IBD
acet
hyp
ipit
20
▁affec
oxia
▁tooth
▁theophylline
▁10(-7)
▁bladder
thase
3).
▁cDNA
▁exon
▁ure
▁corpus
induced
▁Biochemical
▁algor
▁correlated
▁fluc
usate
▁collateral
▁conduc
tate
▁palpation
▁usefulness
▁erythrocy
uvant
▁HCM
▁heroin
ervations
▁vasomotor
▁APC
fine
diagn
▁myel
independent
▁distal
▁thresholds
▁posi
▁burden
rosine
▁Intravenous
iciently
esity
▁perox
▁emotional
-4
tituted
▁BAL
irrh
-8)
▁hypoglycaemia
▁clinician
▁cerv
▁periodontal
▁mechanisms
onstric
▁cytochrome
▁comprehensive
▁musc
VT
ducing
▁ventral
dominal
mittent
▁disper
rested
▁MT
APC
modulin
▁molec
receptor
lec
▁implant
▁30
▁carbohyd
▁polymer
KD
▁incidence
▁20-
▁coeliac
79
identical
▁extracellular
2+]
▁eyel
▁precursors
phosphamide
oleic
ceptual
rease
▁plasmid
▁intestine
▁Phe
ACS
Leu
▁thickness
▁unevent
▁questionnaire
▁olfactory
▁encouraged
▁41
▁sciatic
tric
▁8-
▁ventil
phosphor
▁connective
entary
▁hospitalized
▁substitu
▁detergent
terase
adenosine
▁cardiovascular
sities
▁Thirty
▁histopathology
▁electrodes
▁residual
▁opportunities
minis
▁musculoskeletal
▁Paget
▁consis
▁nurses
▁silicone
▁discrimination
▁adults
▁perme
▁objec
▁dendri
▁respondents
▁amput
rophob
▁resonance
▁surgery
▁potentials
▁withdrawal
▁traumatic
▁Removal
▁stellate
▁precursor
tomy
rowth
▁nifedipine
▁0.0
ophylline
▁isolate
abies
ficial
▁microscopic
▁adjunct
▁competi
▁reas
▁depletion
▁adduc
▁linkage
▁bip
Ki
▁motility
facial
▁conclu
traction
MDA
▁TPA
tral
minal
▁meals
meth
thymidine
▁phospholip
▁reactivation
▁gradi
electro
ensory
uated
▁chains
heres
herence
▁LVH
▁healthy
▁contralateral
▁loosening
▁4,
▁93
▁organs
lastic
-13
▁docum
uclear
▁depleted
oracic
rhy
▁GMP
▁mortality
▁OSA
▁macropha
ylcholine
ifed
▁lobectomy
▁substrate
▁clinicians
▁hamsters
▁deterior
▁colloid
▁cyclase
4+
▁reflecting
BK
▁preparation
ymptom
nucle
ensi
▁socioeconomic
erals
▁hernia
ocardial
stro
lobin
ufficient
▁tumour
acts
▁sham
▁stratification
olenic
trypsin
bloc
▁assessments
▁neoplas
nutrition
linking
yro
▁toxicity
▁vein
▁directional
tetr
▁72
oplastic
▁radicals
▁35%
▁infusions
▁retinal
▁protoc
▁myosin
▁confron
▁phosphatase
▁specialty
▁43
otassium
brain
▁malignant
▁.00
ervical
queous
▁inflammatory
▁(1
nai
▁adhe
▁identi
▁tumor
▁infar
▁nitrogen
▁rele
etitive
CoA
▁lax
▁LC
▁torsion
ogra
▁compressed
rever
sial
▁enzymes
ositol
ogenicity
fos
ymme
anded
▁prostatectomy
▁epidemic
▁conserved
ections
▁5.0
▁progest
▁CNS
▁unselected
ocytes
▁sampl
▁esophag
▁myelin
▁37
▁radiological
azol
▁fever
▁(3)
▁polyethylene
▁murine
▁gynec
▁electr
▁degrad
▁150
-14
▁59
▁acetyl
diol
▁oes
▁quantitative
▁(4
▁mening
acement
▁methionine
▁60
▁(19
oscop
▁eryth
▁gradients
▁mug
▁hydroxy
▁morbidity
▁epithelium
▁progres
▁construc
ognition
▁steroid
▁immature
▁specificity
▁investigated
stim
phasic
pite
▁Measure
lox
tabl
▁childhood
atients
▁Increased
-3-
▁2.5
ifol
▁bacterial
2),
▁cere
▁ultrasound
▁erythrocytes
▁glu
▁termination
▁discusses
▁activate
▁neuron
▁magnesium
esic
▁muta
▁rostral
▁adenocarcinoma
▁19
▁lis
▁distinguishing
throm
▁symme
ronch
44
genic
helium
▁altered
oglobulin
25
bladder
clusive
hemical
▁0.2
▁participate
▁5'-
gative
inol
▁axon
blind
▁myocytes
orpor
▁interventions
▁progression
atient
▁excre
▁discern
ineal
▁197
▁conduction
▁blockade
▁carb
ffec
PV
▁physiology
▁conditioned
▁renin
▁positively
siveness
▁pmol
ught
graft
▁pig
▁inhib
▁irreversible
▁antiser
▁RM
▁chond
thyl
PSP
▁SDS
▁steroids
▁recombin
ials
▁(4)
▁Chemical
▁muscles
▁prognostic
ilateral
▁impairment
immunization
uran
▁implantable
▁immun
4)
trop
▁bronchial
▁1.5
▁sinus
▁bronchi
▁ovari
▁carbohydrates
▁overestimated
▁follic
otent
▁activated
entif
ocyan
▁frozen
oderm
luc
▁endoc
▁laparotomy
▁psychosocial
rous
▁frontal
▁6.5
sors
ceptions
▁EGF
▁symptom
rated
▁peptic
RP
ostat
▁appropriately
▁1986
urin
ylephrine
▁decreas
▁endothelium
▁TNF
unctional
phosphate
▁PMN
amethasone
titution
▁predominantly
containing
crib
▁thrombosis
tions
-4)
rae
▁MBC
gene
▁unil
orrh
ostomy
ritis
▁BALB
oluble
▁cuff
▁susceptibility
▁modulate
orax
▁100
▁deletion
▁instability
▁tear
▁nucleotide
▁membran
▁Educ
▁normalized
▁ultra
▁pharmacists
▁postsynaptic
▁80-
▁chlor
▁withdrawn
▁microsomal
▁metastatic
ectable
▁broader
▁muscarinic
▁anesthe
▁0,
▁tomography
azole
▁inoculated
▁polypeptides
astric
10
▁mim
▁GTP
.0
gm
osidase
natal
geal
ffinity
▁lamina
▁luminal
▁tracing
olol
▁immunological
oxy
▁HA
▁modestly
▁allergic
otone
▁neurological
monstr
ofol
▁intrauterine
▁antic
rants
▁calcification
opha
▁acin
▁epidermal
▁aqueous
▁chemo
▁involvement
▁MEP
growth
▁titers
▁BMI
▁microc
terone
risk
atid
▁PAF
▁phosphatidyl
▁IVF
▁pathways
▁attendance
ayed
▁selec
atical
legia
iol
aning
▁infected
5%)
▁lens
▁parotid
▁conclusive
▁optimum
▁mutant
aventricular
▁quantit
▁biochemistry
▁2.7
▁hydroxylase
▁prenatal
▁influences
▁decisions
CBF
▁linkages
▁negatively
▁disruption
▁rated
▁cation
▁ionophore
ipient
▁uncommon
▁adjustment
ourable
▁1.6%
▁1.4
▁2-
▁paraventricular
▁experi
▁preparations
tinu
iferol
▁utilization
-19
▁supernat
▁cyt
orable
▁intravenous
fts
▁endothelin
oprol
▁heparinized
▁202
▁demands
▁stab
▁preventive
odies
entral
tase
▁2.4
▁sedation
▁elong
lobulin
2)
▁spike
▁continence
angi
▁physiologic
▁PGE
hyd
3-
FN
▁surgeons
▁morphological
▁HPLC
▁strain
onomic
▁reversible
▁abl
▁atm
▁therapy
5,
▁immunoprec
▁fibrosis
ollicular
▁adop
▁enl
osity
ecyl
were
▁isoform
acin
dition
▁RP
valence
▁arrhy
▁repl
▁decreased
▁inters
▁homogenates
▁extensor
mTc
▁carbachol
median
▁indicative
▁volunteers
▁CSF
▁prono
.9%
▁densities
▁advisable
▁ulcer
▁uremia
▁resec
▁genotype
▁Sprague
tially
omal
▁presenting
▁shifts
▁messen
▁glutamate
chers
▁Comparison
▁thromboembolic
▁alteration
omies
▁HCC
adiol
oreactive
tivation
▁guan
guided
mixed
▁schiz
oretic
olism
ropriate
▁Cushing
▁galact
▁migraine
dimer
▁deformity
▁wash
▁ESR
▁vagal
▁reduc
▁targe
▁birthweight
aemia
▁90%
▁artic
▁soybean
▁gallstones
osides
▁leukocytes
▁misleading
▁ACE
▁iso
▁ANP
LH
ygen
▁pharmac
▁aging
▁MCP
▁promoting
▁74
▁turnover
▁metabolites
▁Chronic
▁latency
▁1.7
▁nicot
▁comparable
▁occurring
increased
▁naloxone
idis
▁UTI
▁Delayed
tained
ositive
▁phospholipase
elvic
▁intra
▁sustain
heal
▁ana
▁struc
▁prospectively
▁septal
▁HDL
▁monke
▁thickening
▁prednisone
anic
enin
5,000
▁myocardial
97
▁undergo
▁injections
▁superficial
]-
▁46
▁0.01
▁illness
▁AMI
▁influx
▁GER
▁actin
▁glomerular
▁allele
ochrome
▁coronal
▁PCT
▁viral
▁analyses
achol
▁laparo
itro
▁telephone
▁IFN
orepinephrine
enzyme
▁Fc
▁individualized
▁SNP
▁syndromes
▁focal
▁scanning
▁retrograde
▁creatinine
▁IIb
▁synthetic
educ
7.
▁innervation
▁hypo
13
▁pregnancies
▁gallbladder
achid
dents
ucine
▁erythrocyte
▁implicated
▁phosphodies
▁regeneration
▁blast
▁interfere
echanical
1%
Fs
▁surgical
▁Cyt
▁hemodynamics
5).
weighted
▁Surgical
▁conservative
▁verapamil
ectom
oxygenase
encl
gulation
ighted
eptidase
sions
itals
sequent
▁reproducibility
erating
HB
luores
▁irradi
▁septum
▁spati
ogenic
▁saliv
1)
▁diagnosed
utaneous
2/
▁1987
trogen
ompan
▁adolescents
▁differentiation
▁cholecystectomy
▁overdose
▁carcinoma
drome
▁kinase
▁prophylactic
ograp
opl
▁heterogene
▁eosinophil
orin
▁retur
+/
plantation
▁polymerase
.2%)
ranolol
▁lymphoid
▁enti
85
▁depressive
▁waist
▁biochemical
tle
▁osteoporosis
▁suscepti
▁implic
ocarcinoma
▁ventricle
▁DST
▁Tran
▁activator
▁fibrinogen
(5
▁diabetic
▁4
▁atten
▁adhere
▁adequately
▁thiol
▁DP
▁.0
plastic
▁kerat
▁0.8
▁discharge
▁cytotoxic
gmental
tructive
▁unres
▁rationale
▁confound
▁22
▁cardiac
▁sensory
▁progestin
▁NT
tensive
▁30%
▁inspection
▁reticul
edle
▁multivariate
▁behavi
8.
▁placebo
tagland
▁palp
taken
▁1988
▁hCG
▁laparoscopy
▁Americ
▁42
▁adenocarcin
▁LS
▁23
▁reagents
▁substrates
LDL
▁metastases
olus
▁challenges
▁calcium
▁follicular
▁Prospective
▁TCR
▁morphologic
orec
▁thrombolysis
▁(13
▁poorly
▁COS
▁describ
herent
▁cytos
▁endarterectomy
▁fold
▁amines
mur
▁Radi
6%
WL
▁31-
ureus
▁monocytes
ritish
retion
▁postmenopausal
▁intermedi
▁PI
▁births
▁disks
▁femoral
▁Plas
▁epit
▁sph
▁deprivation
-20
▁TAA
▁outpatient
▁deficit
erop
▁renal
▁toxin
▁foci
kinin
▁dimer
▁transfusion
▁exercised
▁DS
phyl
▁pathologically
adily
▁Samples
trated
▁standardi
ocaine
▁hypoxic
▁prospective
▁amo
▁PTH
▁transplanted
▁consequent
▁mediated
▁eliciting
adequ
versely
prising
▁inhibitor
ensitivity
▁atropine
▁6)
▁definitive
▁medial
▁duodenal
▁prostatic
▁incubated
▁discre
39
▁hep
mega
Phe
▁bile
▁practitioners
▁neuro
▁gly
▁pigs
▁regen
▁contractile
▁ASA
100
▁CPAP
▁hemodialysis
▁20.
.5%
lateral
▁phe
NK
ologists
ascular
loon
▁evacuation
▁infection
▁proportions
▁adrenal
▁allevi
totic
▁cows
iotic
opia
▁membranes
▁cesarean
▁hippocampal
49
▁intrinsic
lysis
▁sulph
▁pathogen
osynthe
▁tyrosine
▁pneumonia
inositol
▁hepatocytes
astatic
▁KCl
▁menopausal
▁0.000
▁UT
▁encourage
▁idi
▁pyram
▁tolerated
▁autop
▁consol
otypic
▁antagon
udin
▁exchan
▁discon
▁incubation
hypertensive
ologically
▁tympanic
▁correcting
▁antagonists
▁MAP
▁Patient
gents
respon
lapping
▁56
▁glucagon
derived
▁inoc
gans
▁synovial
▁homology
▁pneum
▁plaque
▁recr
sue
tition
▁tetr
▁tol
eptides
plete
▁staging
▁fluids
▁proliferative
▁myo
▁secreted
urse
centr
rotid
▁infectious
▁parathyroid
▁inversely
zard
▁histamine
▁pleomorphic
▁49
▁vacu
▁1
▁alterations
▁3.5
IIIa
▁Whereas
0%,
vated
responsive
gesia
ureth
▁21-
24
adder
▁choline
▁lactate
Tc
▁complemented
▁CMV
▁synapses
illation
▁messenger
▁subf
▁surveillance
ercise
▁efficacy
▁hypertrophy
▁naltrexone
▁testosterone
▁granulocyte
7%
▁apparatus
▁Doppler
▁PD
▁LPS
ubation
▁ipsilateral
dibular
▁amyl
▁forskolin
ococci
▁potentiation
▁pelvis
▁avascular
arent
▁detectable
▁complication
seal
▁molecular
▁eating
SPECT
erin
▁hygiene
odic
▁polypeptide
placement
▁chori
▁antibody
▁umb
▁TA
▁Escherichia
▁2.6
▁50
▁somatic
▁conges
erine
ipr
▁muc
32
tyl
▁reconstruction
▁subcutaneous
▁corticos
▁14
▁NMDA
icients
assi
▁pancreatitis
▁tow
▁Dil
▁endothelial
ylated
▁adhesive
ofluores
romes
▁19%
▁500
iferation
▁horiz
▁contaminated
▁labeled
rague
▁gastrin
noise
lact
itone
oprec
accharide
▁gad
arb
fused
▁diffuse
mol
▁antec
▁24
ifugation
▁plantar
▁familial
▁endometrial
▁peripher
hers
▁remission
aneously
▁Adverse
okine
▁therapies
▁10(-6)
aldehyde
▁validated
▁conceptual
▁tolerance
HM
▁4-
▁2)
86
▁HS
regn
▁promising
▁spectroscop
▁eliminated
▁rotational
▁microbiological
▁inges
tering
-17
▁dendrites
▁strom
▁statistically
▁prophyl
▁organism
stem
▁reveal
▁compound
▁decreases
▁infusion
▁abnormal
▁Severe
▁Streptococcus
▁genic
▁acids
▁exclusion
athe
▁phorbol
.8%
hydr
▁nons
▁recordings
otyp
invasive
▁leukemia
6-
▁lithotripsy
▁1%
-3)
cine
▁cue
▁Vac
▁tube
▁(198
▁vag
▁pneumon
fusion
12
esium
formin
▁rectal
▁indications
alian
▁interleukin
▁ELISA
eptide
Ev
▁propensity
rectal
▁amin
Nase
3)
▁inhibitory
▁cirrh
▁anticoag
pyr
erent
▁infused
▁1.3
▁catecholamines
amide
asting
.8
▁(54
▁reagent
▁oxid
▁aldosterone
▁supernatant
ecre
▁hams
▁hypothyroid
▁phy
▁squamous
▁insult
bility
myc
▁heavier
▁reflec
yroid
▁ionic
unar
▁reser
orac
tectable
uctose
urium
8%
ergic
▁laparoscopic
▁fentanyl
oride
▁electrical
▁fron
mL
ocked
opres
▁(17
▁improves
cephal
▁attrib
cysteine
leukin
▁epitopes
GF
phosph
▁extrac
▁averaged
enh
▁acad
▁discontinu
▁temporarily
glutin
▁refrac
▁kDa
▁2.3
▁technically
▁rigor
▁stimulus
▁dialysis
▁ery
rologic
▁sperm
▁intermittent
otype
▁Wistar
odal
▁acyclovir
ometh
▁slowed
▁dendritic
▁localized
▁immune
posure
▁silic
▁radiography
▁sple
▁cytoplasm
esting
▁WHO
▁examined
▁smoking
▁improving
▁proteins
▁circumference
labelled
▁metabolite
▁cerebral
▁vitro
▁HR
endri
.5
▁evid
▁filtration
▁airway
▁synthe
▁TD
LB
▁providers
▁canc
▁palli
planted
ctive
▁dyn
dial
Dawley
▁reproductive
▁dosage
▁poin
teine
▁endotoxin
▁cats
▁cirrhotic
▁hippocampus
▁junctions
topril
▁drain
▁alcoh
▁amputation
▁cathe
▁subsp
▁binds
▁failures
▁thyroid
▁sequelae
iliac
▁cancellous
▁mature
▁lysine
▁lipoproteins
▁appendic
ectomy
▁concom
▁augmented
ancies
▁26
▁jejun
▁cations
rine
tors
.4%
▁ket
▁hind
adm
▁PRP
jected
▁acupuncture
▁circumferential
iatic
▁nig
-5-
sor
▁Addition
▁surrog
▁54
▁nonadherent
4%
coun
▁delivering
▁bronch
▁0.4
▁streptococcal
uron
▁depressed
▁probe
▁degen
▁Eight
▁abundant
▁predominant
▁Histologic
18
▁obesity
▁constr
▁cancers
▁250
▁dietary
omical
▁protease
-5)
60
estern
rele
▁donors
6%)
▁amyloidosis
▁disorders
31
▁PET
▁regar
ylase
▁suspected
tus
2%
immune
▁acqui
▁insulin
operatively
▁overlapping
▁tachycardia
▁3.
▁(11
▁traum
▁afferents
▁labelled
▁endometr
jec
xiety
ocytic
▁radiol
clinical
▁nucleotides
▁sev
▁exce
▁36
consuming
ostal
▁suppres
▁hemisphere
.3
cyst
enzymatic
▁PP
urane
▁peaks
▁radiograph
▁scl
▁supplement
▁adenomas
▁multicenter
rone
▁DG
▁professionals
▁atheros
faction
▁survivors
anding
▁decline
▁preclude
▁pertussis
▁underst
▁ultras
▁lamin
▁neurom
▁elevation
rins
▁errone
35
▁risks
▁ATPase
▁comparative
▁intraoperative
000
▁hospitalization
▁pelvic
▁electroph
▁grading
▁reliably
▁atrophy
▁protective
april
▁fibrin
osterone
-16
▁ethyl
▁vaginal
▁1.
atase
▁elic
oside
▁continuing
▁CM
▁confined
namic
▁frac
▁efflux
▁minimally
▁PMA
▁vaccination
actin
pT
mentation
▁PEEP
▁HPV
▁exis
osal
▁prostagland
stolic
▁disulf
▁hazard
▁Preoperative
ameth
▁influenza
oric
generation
▁splic
▁homogene
umerous
▁impair
▁untreated
▁unex
▁Rats
▁lipid
siology
urred
▁leukocyte
▁packing
▁treating
vian
genesis
▁cyst
▁GVHD
▁radioactive
▁cef
▁qualit
glut
▁forsk
entists
ejun
lected
11
▁prostate
tened
/10
ocial
functional
▁oils
▁TBI
▁bab
▁favorable
▁diastolic
roxim
odil
▁ascertain
overed
▁fluoride
▁ey
▁reag
otin
▁9
genital
▁glut
▁injec
▁Eff
▁normotensive
onor
nthe
▁seizures
▁induc
embran
▁osteoporotic
phosphon
uvate
▁diagnos
uation
▁elec
▁RS
▁neuronal
iper
-6
▁78
▁enucleation
▁extraction
▁epileptic
asive
▁ventric
epam
▁parame
ilic
▁DSM
▁postoperatively
▁Overall
osts
NH
tics
sts
▁67
▁adap
▁discriminative
▁Systolic
▁ganglion
▁heme
▁stenosis
▁considerably
▁supplemented
▁tox
▁anesthesia
▁bleeding
▁differentiate
otides
▁practition
accharides
ostic
▁39
▁compli
tig
▁intervertebral
inic
▁structural
▁mitochondr
▁gestational
▁abnormality
▁incorporation
luent
▁diabe
▁6.
▁clonidine
▁cigarettes
▁anastom
-18
▁mice
▁haem
▁disability
▁translocation
▁aggres
▁7
▁indi
▁predicting
▁arteries
▁omega
ximum
▁enteral
▁substituted
▁0.6
▁PT
tocin
▁mitochondrial
▁gland
▁hyperp
▁neutrophil
▁hemodynamic
▁weekly
53
▁amn
▁guidelines
BP
astom
▁hormones
henyl
itamin
▁nursing
▁achievement
▁nuclei
▁synap
usp
ylline
:1
▁IHD
▁exposures
resses
▁oocytes
▁HB
▁acidic
▁splen
▁tubules
trexone
opathological
▁adjuvant
orative
▁unsuccessful
kers
ystolic
▁Muc
▁cephal
▁Clinical
▁subun
▁shor
▁1:
kage
mg
▁ECG
ertion
▁rabbits
years
otherapy
▁differing
▁Medicaid
▁paren
▁examination
▁audit
ulatory
▁outs
▁hypertensive
▁uterine
▁athle
▁kappa
▁determinant
.4
▁monit
▁antib
▁oxidation
occus
▁(30
▁subjected
mediately
8)
iable
▁recombination
FV
sess
▁rheumatoid
▁microsomes
aline
▁bilateral
125
▁exceeded
rosis
▁fibrillation
▁cultured
▁irr
▁expressing
▁epitope
▁adipose
ffer
▁Additional
trical
▁meth
▁3.6
▁graft
orphic
▁tachyc
▁RT
▁carriers
0.5
opulation
releasing
▁calor
▁adaptive
▁resour
▁solely
tative
▁perfor
▁undergoing
▁3,
▁depolar
ociation
▁catechol
▁predicts
▁angi
▁granules
▁12
▁develops
▁modulates
▁diagnosis
▁mM
▁Magnetic
▁illustrates
▁immig
▁metoclopramide
▁sclerosis
plic
▁leuk
▁Phen
▁diversity
versus
▁carbox
▁moles
▁coincidence
▁minority
▁managing
▁oxidative
▁clinic
elec
69
▁7-
▁unaffected
▁measurable
▁10(6)
▁safer
▁200
CMV
▁remo
FG
forming
▁respon
tized
ministration
▁mammary
▁muscle
▁balloon
▁macrophage
carcin
obl
▁vitamins
▁cleavage
GD
matched
platin
▁SG
istically
▁propranolol
plants
▁unde
▁immunoglobulin
attern
▁Golgi
lix
occi
▁exhibited
tively
8%)
otomies
▁VA
▁hyperg
▁hyperplasia
▁copper
▁spinal
9-
▁tric
▁concordance
▁validity
▁chan
▁(20
athy
▁endpoints
-100
(+)-
▁3)
tries
▁0.1
ocusing
▁chromat
igible
uscular
▁preventing
▁thymocytes
tub
Daw
ogenesis
▁PSA
▁potentiated
oyl
▁irradiation
▁insertions
ophil
oprote
▁veins
▁1000
Ti
physiologic
▁horm
▁hepar
48
▁prostaglandin
▁pall
▁profound
▁Thir
3%)
▁spectroscopy
▁0.04
▁moiety
▁pharm
23
▁lesions
▁sympathetic
▁modif
▁resting
▁captopril
anav
DG
▁depic
eration
▁poisoning
▁discordant
▁TB
hering
▁surgically
▁doses
mide
▁seiz
▁plac
▁lymphocytes
▁ultim
RD
▁mL
▁10-
▁pep
went
ipine
▁HCMV
cells
pinal
ostatin
gments
ivary
positive
hydro
tives
▁repor
▁catecholamine
▁gluc
▁pressor
▁ech
▁babies
▁retention
▁examinations
▁tet
▁inadequate
▁therapeutic
▁adjusted
opi
lymph
▁vulnerability
▁resul
▁aimed
oxin
ercul
rophyl
▁comprised
▁oxygenation
ximal
oplasmic
▁prolif
itus
▁distinctly
▁hydrophob
▁regimens
thal
mig
▁FV
▁mononuclear
▁perinatal
▁fibre
aid
▁pancreatic
umbar
angl
▁endoscopy
▁declined
▁exert
▁coval
ulose
tection
▁coexistence
▁neoplastic
▁suppressing
▁slices
▁artery
oids
▁Medicare
▁hypothyroidism
▁gains
obal
▁habits
-12
lycer
▁focusing
▁molecules
▁hypothe
▁undo
erative
▁HN
crip
▁percutaneous
▁affects
CSF
▁phosphor
▁40
comitant
incubation
▁chicken
450
▁kine
clim
▁chole
+-
▁persisted
▁differe
▁excluded
▁cytoplasmic
▁mmHg
lux
farct
▁panc
▁strep
opsy
▁compartment
▁precedes
16
ypical
phenyl
▁transpor
▁alve
▁cholesterol
▁nonc
▁neurolog
▁arrhythmias
idol
▁hormone
ociated
▁7%
▁counseling
▁benz
▁nasal
▁8.
▁carc
▁avoiding
renal
▁transduction
▁125
▁melanoma
illus
▁moderate
▁(5
ubiqu
acetic
▁3%
▁lumbar
▁aden
ceptive
ithin
▁wk
▁Plasma
▁physician
rents
oskeletal
▁anastomosis
▁lateral
sensitive
sorption
▁indetermin
▁chromosomes
▁buccal
▁diffic
▁6-
▁immunoreactive
▁fmol
▁poten
▁Lys
▁correlates
▁tryp
2+
ergen
▁1,25
oscopic
anin
ipher
▁cisplatin
sibly
▁Slow
75
▁18
ths
uccessful
▁2%
▁MI
19
odialysis
▁neoplasm
▁wrist
▁Tum
▁shortened
▁cros
▁LH
4%)
▁preferen
▁unrelated
ylation
▁rCBF
▁microM
▁infarct
▁gallst
▁elu
▁tiss
ication
▁muscular
▁17
▁interv
▁pyruvate
arbox
antial
▁stimulating
associated
osamine
▁intake
▁subgroups
▁tended
bacco
▁Considering
▁21
▁heparin
tically
▁rabbit
TNF
▁cortic
9)
▁0.01)
▁inev
▁pS
▁divertic
▁sarc
▁52
ration
erum
ritin
▁thyroidectomy
▁11
▁exacerb
43
▁colony
-2)
▁VC
▁CTL
▁enriched
gely
▁disrupt
▁atherosclerosis
adication
▁Cd
▁HLA
▁limb
otre
RB
▁mammography
opamine
▁abolished
andard
▁occl
tious
▁hydrophobic
reactive
▁HG
▁glycos
▁segmental
▁intrarenal
▁Mg
▁antibiotics
▁agonists
tetra
88
▁accumulated
inephrine
▁institutional
▁homogeneity
MIC
alc
ocular
▁stimulates
ulin
otide
activated
▁retina
lasts
itary
▁fetus
▁heterogeneity
kephalin
WB
▁unexpl
phic
▁77
▁kb
atibility
▁surge
▁assays
▁arter
▁preferable
hion
▁vaccin
▁immunode
▁VP
▁attenu
transferase
vely
▁trypsin
▁85%
▁Taken
trus
2,
protein
▁employing
teral
▁elicited
▁cohort
▁diluted
clin
▁hormonal
▁porcine
▁ketamine
▁38
▁transplant
▁fibronectin
tiz
▁HU
glyc
▁disrup
sA
▁recipient
▁Km
orest
▁derange
▁overexpression
ochondr
6)
▁premature
vail
lycerol
▁swelling
urgical
▁encour
▁myocardi
▁psychiatric
▁10(-5)
▁counteract
ressing
▁coel
▁vasopressin
▁MH
▁vesicle
ucleation
hyde
▁supple
piration
▁scre
kine
▁(100
▁LDL
orrhagic
▁neurones
▁75%
tial
▁Bec
▁desirable
▁hybrid
▁replication
4.
MH
erox
icide
▁UL
tice
▁2.1
▁reveals
thma
acyl
▁knee
▁31
▁cure
carinic
▁beats
▁plasmids
tages
▁islet
▁fati
▁synthesized
▁Engl
▁cytosolic
▁excitatory
▁allogeneic
▁descending
▁rash
vul
▁0.001),
▁maturation
▁macrophages
▁assay
▁70
▁tamoxifen
▁Kd
menopausal
polyacrylamide
ateral
▁neurons
▁retic
▁physici
ofl
oresis
▁cortical
▁injur
ellular
oscopy
Ts
▁abnormalities
▁reperfusion
▁abolishes
▁sustained
▁mucosal
oung
▁ethanol
▁Elec
▁Neurop
▁saturated
icardi
▁envelope
Hu
eak
▁0
7)
otoxin
▁inactivation
▁lam
▁OT
▁pregn
▁sphincter
ifferenti
▁acetab
ingle
▁paras
enol
reement
▁(25
▁papill
▁scoliosis
5-
bac
▁complic
▁inhal
▁stric
acial
IgM
▁adhering
imination
▁biom
ocytosis
enic
▁hydroly
▁lamb
▁48
▁cyan
▁pylori
▁-0.5
▁intensive
▁atr
▁recurrent
1).
▁carcinogens
▁occlusal
cele
▁mammalian
CAM
ocar
▁enzymatic
▁estimating
▁lymph
▁techniqu
utroph
▁Impro
thle
▁tendency
▁leucine
▁199
ethylene
▁predictor
▁acute
▁plasmin
▁cholinergic
▁tobacco
▁ulc
▁(2)
▁ppm
treatment
▁anemia
▁atres
ipitation
teric
▁Contrary
thre
rophy
▁contrac
▁plasminogen
80
istal
▁juvenile
ialysis
▁behaviors
kground
urine
▁viewing
implantation
▁SHR
▁plas
▁differentially
▁purified
▁assayed
▁deterioration
ifferen
▁monol
▁possi
eric
▁natriuretic
▁subtraction
▁thrombin
asses
erate
▁NADP
kephal
▁61
▁vasoconstric
▁consultations
▁amph
ophils
▁insuff
▁clon
immun
▁concomitant
▁disturbances
▁epi
5%
▁adenoma
odiaz
tation
amino
▁throm
▁toxic
▁ile
▁passive
▁esophagitis
▁baseline
tive
istrib
▁arginine
▁sour
mong
21
▁inver
▁labelling
▁inserts
▁ocul
ullary
ternational
▁reacted
▁blockers
ocor
ophageal
▁endogenous
quid
arous
0%)
▁inactivated
olarization
▁rup
-450
▁awareness
ocardi
loid
▁6
titu
▁correspon
▁32%
▁capillary
Tn
▁(7
▁cavity
▁normo
idated
▁oxy
greater
idase
zyme
ocul
▁fatty
▁synerg
▁quanti
tead
▁NADH
▁feasibility
▁defects
ivered
▁thigh
▁breathing
xual
▁encodes
▁schizophrenia
▁biological
▁cochlear
▁attenuated
▁cortisol
▁spind
▁ACL
teroids
amyl
ortic
▁consistently
▁femur
jun
opramide
feren
▁mAb
6.
/3
saccharide
osomal
omonas
▁bowel
▁intrac
hydrox
ovine
tivity
▁28
▁bacteria
0,
razosin
▁supplementation
▁appreciably
▁Swed
▁19-9
carb
iatric
▁innerv
opathy
▁isop
▁disappearance
▁AO
▁reversal
▁favourable
regulation
icardial
▁angiography
stant
▁connec
▁79
▁lymphocyte
apeu
tro
timulation
▁sequel
▁dehyd
fron
▁dex
▁nmol
itonin
▁incom
▁echocardi
▁testicular
▁microgram
▁excision
▁apical
lated
▁stromal
4).
▁induces
▁glucocorticoid
lead
aceous
▁enzym
acylglycerol
oxidation
spective
▁enlarged
▁asymptomatic
▁widespread
▁Cox
arrhy
▁lowered
▁selectively
▁irradiated
▁identif
▁NADPH
▁aortic
athyroid
▁dilated
▁dele
▁GM
licular
▁basement
▁supervision
ectomized
▁preterm
▁parental
tiv
▁Inclusion
▁rejection
▁CFU
▁0.7
▁corne
▁absorb
▁hazards
▁severely
▁polyacrylamide
▁transplantation
dine
ichia
▁recombinant
▁iliac
▁7.4
ensities
▁tach
▁ligands
MV
tron
▁BS
▁morb
▁trache
▁33
▁manifestations
oxygen
▁GA
▁lys
stimulated
keletal
▁preservation
▁rats
▁endocrine
▁acquire
▁pregnant
▁hypertrophied
▁leukotri
idation
▁stret
▁adverse
▁mucos
glycerol
(2+
▁duoden
▁chloroquine
0,000
▁reper
perfusion
Gl
ATPase
▁inhibin
▁adi
electric
▁cyclic
▁migrated
▁47
▁pulp
opoietic
uncture
trition
▁GI
otom
▁abortion
lyl
atories
-9,
earing
vaginal
oxic
▁monoclonal
physiological
▁uter
▁PH
1,
▁sequentially
ithi
tamine
▁islets
▁distin
opes
▁insufficient
0.
armac
▁clinically
aemic
▁muscul
▁adoles
▁grafts
kade
▁laboratories
onate
▁exten
▁obstruction
itant
▁SEM
athetic
▁ADP
▁FT
Cu
▁Changes
▁10%
derly
▁immunore
▁BV
nec
▁oxidized
illance
▁progen
▁mandibular
▁DF
urgery
ectin
luded
tical
Ka
▁mimic
▁NPC
▁transcript
▁adequ
tur
sulf
▁metastasis
1.
▁83
▁implanted
SCC
rangement
▁hemo
▁glyc
oglobin
▁intracellular
▁extre
▁inhibited
▁discomfort
▁polyp
amus
▁MG
▁establ
elan
▁regis
▁soluble
tent
▁MRI
▁randomized
ycin
▁killer
hea
-7)
▁orally
oidal
oplasm
▁microb
epit
omotor
diastolic
▁transferrin
sian
BV
▁(12
▁aureus
▁herpes
▁95%
▁Improvement
▁initiated
bral
itol
acil
▁rostr
▁drugs
truction
▁mutagen
▁86
2+,
▁mellitus
odynamic
▁metastas
onuclear
idement
▁anion
▁phagocytic
1-
▁ejection
▁maternal
▁(2
▁dislocation
eal
ochemical
▁immunization
feron
requency
icin
65
▁epinephrine
plication
tisol
▁interf
▁excimer
▁DT
▁ischemia
amet
▁peptides
▁predic
ronchial
glum
amycin
atest
▁stained
▁fluor
▁tension
▁depolarization
plied
▁Cardi
▁triglycer
Hb
▁wt
ields
1/
▁.05)
▁180
▁radiographic
▁GBS
▁coli
▁intram
▁calmodulin
lue
▁(0.0
▁HC
otypes
▁Concomitant
▁moderately
ubicin
▁indomethacin
▁reasonably
▁injected
▁investigating
▁histological
▁metabolism
▁clus
▁ligand
▁UV
bumin
ygo
▁histologic
hep
▁centers
▁mitogen
▁sodium
(1
▁medication
▁debridement
ariate
▁neon
erable
uded
▁elderly
▁viruses
dose
▁malignancy
▁mec
-2
▁ratios
▁tumors
▁cues
▁enhancement
▁assessment
oagulation
▁terminals
fat
▁somat
transplantation
acting
▁questionnaires
rotic
▁cava
▁leakage
▁viability
amine
ulitis
▁crude
lycemia
▁NaCl
toxin
ontal
▁compartments
lym
▁synthetase
▁aort
▁quantif
▁84
ching
▁discontinued
▁resusc
▁microcirc
▁adjustments
▁irrever
ulae
▁endarte
tum
▁polyclonal
▁congenital
▁GF
▁LN
opam
▁2.2
▁pancreas
▁51
ffin
▁judged
▁contral
immuno
▁cultures
isol
tib
▁25%
Ala
▁toge
responders
▁mumol
▁difficul
eptid
▁trough
▁dorsal
ectomies
▁complexes
▁prophylaxis
hospital
acrylamide
▁phosphate
▁trophob
onatal
▁highl
hemia
▁beha
▁tidal
▁fetal
▁hap
▁healing
▁exclusively
▁resuscitation
▁hypertension
▁permeability
▁functioning
/6
▁inapp
iplin
▁linole
▁diame
▁prescrib
▁CABG
▁0.001)
▁immunomod
▁fluorescence
ivoc
▁consolidation
incip
▁multiv
▁coupled
▁ADH
▁outcomes
▁Significant
coup
ailure
oice
▁recessive
amination
othane
olateral
▁expend
▁fibroblast
▁trend
▁ultrasonography
▁microvascular
cAMP
▁oxidase
▁nutrition
▁sulfonyl
▁0.00
▁hypot
▁15%
▁followup
▁microtub
▁75
▁sexes
▁hypothalamus
▁stimul
▁peripheral
ensity
venous
.7%
▁sulf
▁proteoglyc
ibi
▁Ia
▁lysis
▁gait
▁immunobl
▁SB
▁behavioural
▁preoperatively
▁transcription
▁(9
▁tryptophan
▁hypox
▁1989
▁phag
oproterenol
▁sarcoma
▁induce
▁infarction
umulative
olgi
oplas
▁regimen
ancre
atinine
▁regulatory
▁BP
▁nerve
ithms
▁cardio
density
▁benign
▁characterize
▁biopsy
▁detachment
2+.
rectomy
▁inhibitors
tents
morph
duced
▁stimulation
▁subpop
tability
▁Pregnancy
approximately
▁isolates
▁8
▁carbohydrate
rief
▁projec
▁synergistic
34
NAc
LF
▁bp
▁dexamethasone
▁preven
▁tubular
▁IH
▁IA
▁intact
odg
▁positioning
aints
▁embryonic
scherichia
▁degradation
exis
▁hig
▁subunits
1),
rati
phyloc
▁parap
▁intragastric
▁HP
▁cate
▁12,
▁acet
▁characterized
▁attending
14
▁manifestation
uptake
-15
▁provocation
obarbital
insulin
▁imaging
atment
kely
IGF
▁1.9
▁mediates
▁vaccines
▁deform
▁tuber
▁lyso
ediatric
▁GV
inated
▁dehydrogenase
iatum
▁hemorrhage
▁laminin
▁intrap
▁lesion
OA
subunit
▁Kupffer
▁drops
▁preferences
▁intervention
▁GD
rox
olated
▁systolic
▁inpatient
ospitals
▁PGF
tally
26
▁catheter
▁somatostatin
▁fractional
▁arteri
▁pathogenesis
Ba
▁EEG
phrag
ortal
▁7.5
▁CSA
ervice
▁methyl
▁sequential
▁0.5
▁circumferen
▁glomer
cardi
▁leuc
▁inflamm
▁concer
▁collec
Ps
▁constitutional
eces
▁66
mediated
▁Hb
▁survived
▁urine
▁hydrolysis
▁deter
▁overlying
ploy
▁limbs
▁resemb
arge
▁mRNAs
transfer
▁Weight
▁1.6
▁serine
▁aerobic
lyc
arer
essive
00
▁apolipoprotein
▁undetectable
▁codon
▁dosing
▁ACh
▁facilitate
▁precipit
▁circulation
▁APD
igel
▁fractures
▁emissions
▁11,
▁interc
▁glutathione
▁vegetable
▁(+/-
▁visually
oxane
▁Cycl
104
▁seas
▁stu
tebral
▁homogen
▁glycoproteins
▁Neither
illic
▁fitness
tructural
4,
▁relating
aturated
nRH
▁gluten
▁Serum
▁PE
especially
ococcus
▁Thromb
tox
apse
tration
▁selective
▁beneficial
▁Continu
▁hypothalamic
▁Phy
▁adherence
9,
▁placenta
▁10
▁neurologic
mia
▁diet
▁localization
usive
▁epiderm
▁electrode
▁PB
semin
▁electrocardi
▁topographic
22
▁5%
▁1)
kinase
▁NP
▁availability
▁analys
▁responsive
▁detec
▁anaerobic
odium
-3,
▁HM
▁LF
▁athe
▁CK
▁evolving
▁TK
▁responded
stimulating
▁chromatography
▁arom
resting
▁Percutaneous
▁compliance
idne
ineph
▁ions
▁(8
▁PV
▁clamp
-1.
▁prescribing
▁PCO
▁assessed
▁Atropine
regulated
▁likelihood
▁stere
▁viable
▁reductase
orphin
-2-
monary
▁fasting
▁spi
▁prosthe
+)-
▁electrophoresis
pecific
urea
▁hypers
▁2.
▁deliveries
otropin
BW
▁underlie
▁cen
vascular
▁accounted
apeutic
▁rigorous
▁cumulative
70
tryp
▁catalytic
▁marrow
▁120
opulmonary
TG
cad
Gly
▁demonstrates
▁exogenous
acetate
▁increas
▁monkeys
▁irritation
▁MN
▁responding
Hg
▁deposition
odynam
▁moisture
▁defective
▁shortening
▁circulating
timal
▁AIDS
▁Trial
▁cardiomy
entical
hesive
▁acco
.2%).
▁gestation
▁metabol
clonal
▁tas
tein
▁palliative
otor
▁eradication
▁genome
▁abdomen
▁systematically
▁intraven
tens
▁specialist
lood
▁Afric
▁dilution
▁60%
uppres
▁monomer
AH
▁shifted
-5
otox
▁noradrenaline
HF
54
▁preliminary
▁depres
assay
▁sugges
ropine
▁disadvantages
oreceptor
cents
▁restric
▁diseases
▁cerebrovascular
His
▁29
▁fluorescent
▁experts
▁oss
▁laser
▁(3
asic
▁peptide
▁margins
▁sliding
unctions
▁contex
▁neurop
▁0.01).
thrombin
motic
amate
▁20
oplasty
degree
▁cyclo
▁controversial
▁manipulations
▁readings
▁consecu
aryngeal
▁antiserum
▁(0.1
5)
ubted
ignific
affinity
heximide
ogenes
▁hepatitis
▁persis
▁unm
▁colonization
▁lob
Mu
rogen
aced
▁determination
ionine
▁placent
▁embry
▁2.0
chymal
▁absorption
▁incorporated
▁practic
▁biosynthesis
▁membrane
▁undetected
▁emergency
nee
▁cGMP
IFN
▁unc
tension
molec
▁regulate
▁surround
▁serotonin
▁accep
alanine
operox
▁suppressor
ropha
▁soy
▁markedly
▁nail
ilep
obacter
▁hemorrhagic
mented
▁carboxyl
▁nutritional
erally
▁strategies
▁LT
▁stimulate
▁succin
▁staining
ellosis
▁abor
▁desensitization
ymp
▁mann
▁smo
aryn
▁immobil
icated
jug
FH
aginal
▁promoter
▁depr
▁transient
▁conformation
▁0.05
▁morphine
▁LHRH
▁plur
▁arachid
▁solub
▁suppressed
▁parag
▁centrifugation
vant
▁incub
▁hemoglobin
estim
▁spine
▁GE
▁advances
ographically
▁VIP
▁enhance
▁cellular
▁justified
▁pretreatment
▁diarr
▁aspir
▁exhibits
▁natri
▁mild
ogenetic
.7
-1)
opoly
▁restor
▁liver
ulates
▁potenti
▁terminus
▁62
▁TGF
▁additive
▁kinetics
▁apprec
loro
eled
▁disulfide
▁hypoxia
bly
▁overex
▁relaxation
ults
▁thoracic
▁revealing
agic
▁neo
▁ventilation
▁overe
onol
▁proliferation
▁medulla
▁endoplasmic
▁mineral
oceptor
▁competitive
▁haemorrh
▁cannulae
▁umbilical
▁atrial
▁shunt
▁carotid
▁300
CRP
ergy
▁perfusion
effective
itrate
Cer
▁empirical
tumor
▁astrocy
▁biop
▁hospitals
onset
uretic
▁seroton
▁decreasing
▁chewing
7,
dle
phil
▁laboratory
▁Vitamin
ocamp
▁myocardium
reported
orectal
inhib
▁perception
erican
▁hamster
.6%
orbol
▁anesthetized
ologic
tected
▁genomic
▁27
▁transcrip
▁inhibiting
tine
hop
▁0.05),
▁cardi
helin
▁establishing
▁encephal
▁requi
▁mutations
olip
▁infect
pies
▁clinics
▁AMP
▁scintigraphy
▁cervix
▁prevalences
embr
ffeine
heum
▁fertil
▁emphasizes
chol
▁pineal
▁cytokines
ultural
▁coex
▁ald
▁differed
-67
▁lysosomal
▁anatomical
▁infections
▁vaccine
ioid
▁shorten
▁conformational
▁proce
▁appendicitis
▁NB
▁Comparisons
filtration
glucose
▁eosin
▁psychological
benz
▁5-
fib
▁34
Ds
iability
▁Emergency
tussis
aminop
mental
▁[14
lyce
▁follicles
loride
▁deaths
▁proton
omat
▁lymphoma
phrine
▁spontaneously
duction
olones
▁caudal
atoid
8-
▁fluctu
▁thorac
▁facilit
ginine
▁infec
▁aspirin
▁masked
▁ACTH
▁mast
oactive
hig
▁pancre
▁1.0
absorption
.6
▁testis
aluation
▁produc
▁dial
▁tracers
ocyte
▁ethnic
▁3
▁gamma
▁facial
LV
▁pyramidal
▁atmospheric
iron
▁perfused
opausal
▁clones
▁calves
usal
uary
▁PCP
▁probes
▁microscop
tance
rogenic
▁resected
vertebral
▁intraper
reness
▁Forty
matic
▁NGF
▁shar
asone
▁hemorrh
▁Failure
.1
itoneal
▁warrant
▁libr
▁regurg
▁Alcohol
▁modulation
▁autosomal
▁administered
olone
lowering
▁IgG
omerular
educed
epti
▁15
▁mobility
ergency
▁PRL
ocellular
▁bacter
romed
▁biphasic
▁dose
▁responsiveness
▁Treatments
pH
▁vena
▁physicians
▁opioid
▁(10(
▁bone
▁widening
▁TC
▁mandatory
otting
cepti
▁(18
▁substanti
occal
▁multim
ropyl
infected
▁vitamin
olute
silon
▁pH
15
▁impaired
▁RH
igaret
▁homologous
▁rhy
▁minerals
2).
omycin
tile
▁HSV
▁intrav
zation
▁rigidity
▁operative
▁assurance
▁stroma
affec
▁fixation
▁pigmented
kDa
▁myc
acted
▁1.8
▁bac
renol
▁inherent
▁inotropic
osin
▁44
RNA
olamine
▁temperatures
▁maintaining
▁discus
lasses
▁adolescence
▁thereafter
produc
olved
▁3-
▁synchronous
▁stain
▁detrimental
▁carcinomas
otri
▁blot
▁peroneal
0)
▁chemot
▁subc
vation
▁15-
▁polymorphism
▁effectiveness
▁complementary
oic
▁predictors
▁stimulatory
▁BM
ivariate
anthine
omers
▁msec
▁1,
2-
obarb
▁estrogen
ilized
rogenase
▁coeff
etween
-6-
clamp
▁rebound
▁newborn
67
▁vasodil
▁mRNA
osome
▁duct
▁nec
▁systematic
▁preferentially
▁surviv
▁hydrox
▁guided
▁transcripts
▁presum
turb
▁identifies
▁neutrophilic
▁blin
-7
▁Estrogen
entricular
DNA
▁melanomas
▁kidney
rected
istar
eliac
ditions
acerb
▁paradig
▁dys
▁7,
hydroxy
▁(16
/1
▁histologically
▁hemisp
itance
-4-
▁scans
acr
▁13
▁spleen
▁mono
▁nitro
ept
▁eti
razole
▁dissection
▁amino
▁autologous
37
▁polyps
▁enrol
ilical
▁progesterone
▁sero
▁corneal
controlled
▁(5-
oxif
▁norepinephrine
▁chol
▁aor
idate
▁tonsil
▁hypothal
▁MV
atell
▁plasma
▁enhanced
▁prevalent
ignant
▁melatonin
▁modest
▁pediatric
12.
alues
▁4.0
▁reactions
▁71
▁measuring
0%
venth
▁mitral
economic
▁oxygen
rogra
▁hybridization
▁OC
▁cystic
ygous
▁catab
▁pati
idity
▁nervous
rocy
ozo
ipolar
▁gastro
ventricular
▁thyro
▁axonal
▁oxide
▁hipp
vents
uding
▁potassium
ronectin
▁phospholipids
▁arti
▁balanced
▁transmembrane
▁lumen
▁injuries
▁infil
▁ane
oglyc
▁apop
mature
arity
-3
▁NMR
▁coexist
illary
▁comparisons
trib
▁systemic
▁3'
▁spont
▁juven
adian
▁underg
sorb
▁arthritis
▁entero
erated
▁longitudinal
cutaneous
▁tubes
▁cytosol
▁luteal
▁Previous
▁0.05).
itin
▁intravenously
▁plasm
▁Throm
▁radioimmuno
ylamide
activation
.3%
itudinal
onad
olution
2318
▁heavi
▁ration
▁iod
▁alp
▁assessing
▁pronounced
▁excretion
either
▁interacted
▁tert
▁4%
▁lipids
ocl
iliary
▁IgM
▁transloc
▁antigen
othermic
▁ranging
▁reversed
iloride
▁rheum
▁topical
mitter
▁ICS
entanyl
▁deformities
GH
▁RAR
evaluated
▁antibodies
▁continuously
▁esters
▁recurrence
pig
▁Therapeutic
▁anatomy
▁residency
ctomy
VR
▁inducing
▁dissociation
▁fatigue
sion
▁perin
▁modality
▁liposomes
▁BD
▁researchers
ocrine
arbonate
rying
methyl
▁headache
▁Physicians
▁buc
▁hetero
osomes
eroxide
▁oligo
▁inhibition
encephal
▁dye
contrast
▁0.9
▁geriatric
▁ingestion
▁1.2
▁chl
▁antisera
KA
▁uptake
echan
▁filament
oxide
▁fragility
olic
oxid
▁fluores
▁platelets
ietic
edullary
▁deficits
78
▁melan
▁loci
▁nonspecific
▁infants
atab
uccess
xone
▁onc
▁wors
▁microns
▁instrum
)2
▁VD
till
▁anomalies
▁experim
▁cirrhosis
umulation
dehyde
▁pacing
uterine
▁gangl
thmic
▁cardiomyopathy
ylchol
▁VE
tic
▁putative
Ns
sibility
▁24-
.9
ophilic
▁exacerbations
▁dental
anking
duce
▁identically
▁hygi
▁ultr
▁cerebellar
vival
urate
▁controlling
▁evaluating
▁regulated
▁isoproterenol
6,
▁(1)
▁embryos
LN
-[
84
▁4.5
▁skeletal
▁meal
57
▁RNA
gesterone
▁unrel
▁receptors
▁pulses
▁progn
▁prolonged
▁indication
▁relap
▁repaired
▁follicle
▁ammon
eclampsia
▁thym
▁streptococci
▁Surgery
intestinal
▁arth
▁Leu
▁nM
oprotein
▁analogue
▁89
▁challen
ocortic
olipoprotein
▁hepat
▁chromosomal
▁bovine
▁dodecyl
▁alkaline
▁cann
▁targeted
▁feeding
▁gyn
▁basal
▁Pretreatment
▁CAM
▁endot
▁Tumor
▁constitutes
trative
▁phenotype
▁symp
▁concentrate
▁ouabain
▁pulmonary
▁equilibr
▁serum
▁cys
▁chloro
▁adren
▁reproducible
relevant
▁afferent
tiveness
▁filaments
labeled
▁unstable
▁determinants
dies
uoden
▁cyclospor
oclonal
▁cigaret
adrenaline
▁survival
lective
▁1-
▁ascertained
▁30-
othel
▁abdominal
▁demonstrating
Ia
ethyl
inergic
▁Treatment
▁400
inely
▁vesic
/2
▁0.03
▁findings
▁colorectal
▁albumin
▁LV
▁adminis
romy
anine
99
▁disparity
▁screening
▁curative
yses
▁prel
omod
▁caution
▁57
FGF
▁proct
▁VL
▁yr
56
▁ovary
▁linoleic
unced
2+-
▁201
tak
▁TG
▁cited
▁virtually
cence
▁deficiency
▁statis
▁concurrently
IH
onucle
▁Meas
▁genetic
xia
▁promin
▁splenectomy
▁intest
oplast
saturated
relations
▁encouraging
▁plastic
ochemistry
▁strand
AIDS
▁implicate
▁mV
▁3.1
▁bronchoscopy
luding
▁gastric
▁weigh
nitro
graftment
onin
▁sti
otroph
▁Biochem
ses
ecu
MN
▁virtu
8+
echn
▁symptomatic
tention
▁prednis
▁cyclosporine
▁diets
▁subtypes
abain
▁predictive
iaz
▁abd
▁workload
toc
▁clearance
▁chorio
0-
▁inactiv
MG
▁thi
ifug
▁cytokine
▁2,
erents
▁glycerol
▁caffeine
9%
-60
▁necrosis
▁PEG
▁initiation
▁ultrastructural
▁transurethral
▁diagnoses
▁glycoprotein
osom
rals
ameter
1%)
odgkin
usions
peptide
▁synaptic
▁recor
▁creatine
aturation
▁multifactorial
aptic
▁tumours
▁cloned
▁consequently
▁Inhib
requ
▁anaesthe
▁isolation
▁chemotherapy
▁neurotrans
▁genotypes
▁95
evaluation
▁enzyme
atitis
▁lute
▁warr
clerosis
▁mutants
-2,
▁transcriptional
▁lec
▁reductions
ithelial
operative
tabol
tional
tization
esthe
▁crest
inj
LISA
▁Certain
iary
roscopic
▁prevalence
▁plex
▁comprehen
severe
illin
utin
acetyl
▁yielded
▁uncontrolled
▁optic
spectively
▁sedentary
▁simultaneous
▁TSH
▁Hep
▁reticulum
▁peritoneal
▁wound
▁fiber
▁kidne
ycl
omatic
toxic
linked
GI
▁underestimated
tual
▁micron
vac
▁phosph
▁angiotensin
▁onset
▁surf
ications
▁provid
▁chronic
▁myoepithelial
▁mediate
1/2
▁suspension
▁fibr
▁disorder
▁aneurysm
▁determining
▁lith
5'-
▁livers
▁glycogen
▁shallow
▁defec
▁gaps
▁ml
▁adhesions
olecular
essential
▁exhibit
vices
ymptomatic
▁2
▁platelet
▁45
hist
▁alanine
trip
▁suspic
▁6,
▁inappropriate
▁acidosis
▁yeast
orption
acking
▁conducting
-1-
▁reflex
50
▁metast
▁portions
▁0.3
icient
▁stomach
▁demographic
ophag
acer
▁tris
▁radiotherapy
▁perceptions
▁phon
▁mell
▁accelerated
▁derangement
iably
▁therap
resist
▁astro
▁esophageal
▁defic
76
▁196
tural
▁carrier
iasis
▁occupational
chloro
entric
erence
opressin
▁spectro
▁minimize
▁acyl
▁sucrose
▁complaints
▁cognitive
▁bypass
▁ascer
▁triglyceride
▁cytology
▁sepsis
▁phenomenon
▁geniculate
inally
cture
ignificant
omized
▁hypertro
▁contractions
▁excl
▁immuno
oconstric
▁atresia
▁differen
ropriately
opath
▁mmol
▁anomal
roscop
▁feasible
ogens
erations
▁preval
▁unresectable
▁assis
▁recons
▁beating
bodies
trum
tence
acid
▁displacement
▁64
▁concentrations
▁purification
ologous
▁ranged
▁labial
▁2.8
▁90
▁SLE
▁advan
▁equivocal
▁8,
adrenoceptor
▁drainage
itic
▁dopamine
▁trophoblastic
riend
ressed
▁antibiotic
▁fragile
▁limiting
▁arterial
▁cis
▁PVR
▁heteroz
