lec
▁chemotherapy
▁suscepti
tization
LV
ximal
▁thi
▁protease
EGF
▁trauma
▁severely
roxim
activation
▁guinea
▁residue
▁septum
rous
▁circulating
▁precur
▁pancreatic
athy
rectomy
▁cytotox
▁yielded
▁vasopressin
▁actin
owever
glut
▁polymerase
urine
▁nons
aemic
▁retin
.8%
cardi
▁techniqu
▁decreasing
▁enzymatic
erence
▁1)
▁toxic
▁portions
ondr
▁MT
▁10-
tenance
▁45
▁antic
▁fluores
▁immune
▁asthma
adrenaline
▁reperfusion
trib
oes
▁1.
▁homologous
▁hyperg
▁PT
▁localization
▁70%
obl
▁nal
▁cryst
▁antagon
oglyc
itro
▁glycos
NH
gans
tial
oradi
▁digestion
tensin
lobin
2.
GH
▁nicot
▁40
▁supernat
▁72
▁antiserum
▁Tran
▁thym
▁follicular
▁examined
▁86
orac
▁deficit
opressin
▁pronounced
▁dosing
▁pathologic
pendent
▁transcription
▁collateral
eces
27
▁ester
▁randomized
lastic
▁epidermal
▁undertaken
▁progression
amus
▁ald
▁carotid
▁2
▁300
▁lob
▁efflux
▁shif
tomy
tension
sych
rotid
▁physici
▁prospective
truction
▁platelet
▁synergistic
▁fibrob
ycin
▁urinary
▁injur
luded
▁cigaret
▁(15
▁diagnostic
▁GA
▁arteri
▁oxidase
▁chromat
linked
▁recipient
▁vaginal
▁resul
▁PI
▁subc
rotic
dominal
ogenesis
ocl
▁NP
ocular
▁resonance
▁reflux
ergen
▁heparin
▁metabolism
▁perfusion
▁infar
gluc
▁ethanol
▁genome
pir
▁incubation
ariate
▁responded
aired
BP
otor
▁supple
Phe
orepinephrine
ventricular
till
urther
▁binds
▁exogenous
osity
▁atten
▁23
▁prol
▁lact
▁follic
tile
▁venti
▁deficiency
▁phospholipase
▁infec
▁pregnancy
▁drugs
odies
▁alcoh
cine
▁reductase
▁preven
▁UV
▁knee
▁bilateral
▁contractile
nai
▁phosphatid
cAMP
apeu
ipit
▁2-
▁systolic
▁amino
▁screening
▁TG
adder
▁reductions
▁emergency
throm
▁saturated
▁HB
adily
▁GTP
▁enhance
▁modulate
▁carbohydrate
▁dex
▁unex
▁15
▁mitochondrial
▁Plas
▁hypertro
▁induces
▁treating
omycin
rological
assi
▁maintaining
▁diagnosed
▁carb
▁hypertrophy
▁agonists
▁radiol
▁depression
▁persis
▁prevented
hep
ilateral
aints
▁inoc
▁obstruction
▁vitro
dial
▁46
▁correlated
tox
]-
▁3,
▁gamma
ypical
▁shor
athione
▁hepat
selec
▁pathway
adrenergic
plantation
▁angiotensin
▁synap
▁nucleotide
▁lith
tingu
▁assay
▁injections
▁7%
▁ADP
▁symptomatic
0.
ept
▁immuno
▁steroid
▁elevated
▁intervention
▁hCG
▁morphine
mittent
olated
▁relapse
▁resistant
▁biopsies
34
induced
▁infusion
▁sensitivity
iable
amate
ucle
coun
▁angi
CSF
rogen
▁HL
▁somat
▁endometr
lobulin
▁0
▁connective
▁dehyd
piratory
▁HLA
▁auditory
5)
-4
▁duoden
plication
usp
▁ambulatory
▁anastom
40
trol
7%
icine
mitted
tality
80
illin
stolic
tially
▁bacteria
effec
-6)
3%
▁oxygen
▁prevalence
▁panc
▁norepinephrine
▁stu
▁trypsin
olytic
▁hypothe
▁chloride
rophy
▁lesions
ochemical
▁reversed
hyde
embrane
ploy
4)
BM
▁secreted
▁proliferation
▁60%
tures
-3-
onin
▁deterior
▁interleukin
▁monkeys
▁tended
▁Clinical
▁keratin
▁survived
ostatin
▁adults
▁valve
▁FSH
▁mutation
rogenic
eric
ulph
▁substitu
▁strains
▁bloc
▁complication
oidal
▁coronary
▁tissue
▁adjusted
tradiol
testinal
teine
▁unde
▁feeding
▁poorly
itic
▁reagents
tle
▁decline
osynthe
▁cytotoxic
othelial
▁Immun
rated
▁suppression
▁arter
▁illness
▁systemic
urgical
▁putative
entical
uble
tured
▁antigenic
oglobin
▁postoperative
▁yeast
▁surgery
▁percutaneous
▁kDa
ompan
▁artery
▁determination
▁extrac
atment
siological
▁phag
osomes
erin
▁enzym
▁120
▁10.
tility
▁oxidation
▁caud
aturated
ching
▁screened
19
▁limbs
▁propranolol
▁epit
▁ane
mol
▁mM
tence
operatively
apse
ylate
▁vagal
▁adap
ctive
▁chan
▁TNF
▁catechol
▁intermittent
-10
▁Elec
-14
eight
ially
▁Additional
/2
atient
enzyme
▁pyl
lact
cessive
▁compliance
0%
▁multic
▁declined
tensive
▁catheters
▁methyl
2)
▁hormonal
ulin
▁occlusion
▁sympathetic
▁histologic
▁excretion
▁clearance
10
▁Patients
▁transi
tric
overed
ensitive
▁tobacco
▁neonatal
▁gastric
ministration
▁clus
▁vag
▁restric
▁bacterial
versely
▁infection
rease
▁ranged
unctional
geal
▁concom
▁fetal
5).
ivation
▁exhibited
meth
▁proce
▁mortality
occi
greater
▁rele
rosine
emic
inic
▁Intra
▁synov
inephrine
▁correlations
ochemistry
▁prevention
▁conduc
azole
vascular
▁mammary
▁prolactin
tif
▁diame
▁anesthe
▁cyto
▁risks
▁suppor
▁extre
ifug
phosphate
-2
6.
▁adenosine
▁tach
uscular
RNA
▁kinetic
▁experi
75
▁ATPase
▁+/-
▁abdominal
▁sple
urys
▁suppres
ameth
DNA
▁labeled
minal
▁intravenous
ensitivity
▁connec
▁(8
oxid
pyr
ogra
TG
athyroid
ocardial
▁intact
virus
▁stimulatory
siveness
▁serum
11
▁transplantation
illus
▁abnormal
LDL
mL
▁trials
14
▁bic
▁consistently
▁reveal
▁32
▁ure
▁creatinine
▁yiel
▁differentiated
vation
▁42
▁incub
▁tolerated
▁16
▁NT
▁antagonist
▁behavi
▁vaccin
▁hypers
iol
▁carriers
▁pineal
▁pyr
▁80%
▁transcripts
resting
heal
▁sensory
▁cirrh
nthe
▁HDL
tabol
▁enzymes
▁subunits
▁meth
ullary
onium
▁wee
▁regulate
▁microv
went
▁thromb
▁LV
▁arrhy
RP
▁macropha
▁subtype
otypic
▁analys
▁1.3
▁cumulative
▁challen
▁surround
▁homogene
▁contex
achid
▁kinase
▁conserved
▁laser
▁substrates
▁slic
0-
incip
▁nursing
▁junction
tical
taken
ygen
▁tension
▁oste
tically
▁esophag
▁acidosis
▁recor
▁influenz
▁excit
▁15%
▁organisms
▁experim
▁regar
▁coeff
uoden
ejun
▁inactive
▁pharmac
entric
/1
ignificant
ologic
▁sarc
▁immunore
▁PCR
-9
▁labelled
hern
▁rhe
▁cen
▁previ
▁phosphate
▁99
▁cardiac
▁advan
tum
▁struc
feren
▁proliferative
odal
▁eryth
▁bab
▁residual
▁saline
▁mamm
▁potency
▁pump
▁chemot
▁95%
kinase
▁underst
trogen
generation
▁dyn
▁mild
▁leuk
▁excre
alian
teroids
centr
▁gonad
▁axons
▁donors
▁follicle
▁benz
▁assessment
Tc
sies
▁operative
arge
ometr
ocytic
coh
▁presenting
▁reag
▁limb
▁hydrolysis
robic
amide
loro
▁receptor
▁sugges
▁cystic
affinity
thyl
▁impaired
▁glycoprotein
▁increas
▁mast
▁prolif
alc
▁overl
FN
▁comparisons
▁gastro
▁retic
▁perc
otropin
▁homogen
▁consis
▁acute
-1-
accharide
▁provid
▁lymphocyte
▁monitored
ctomy
.6
.0
▁IFN
▁intense
▁selectively
▁fracture
mented
▁exchan
▁labeling
▁8.
▁pate
▁inhibition
▁hep
▁clinical
▁inadequ
▁56
▁atrophy
▁1.6
glyc
▁RNA
▁degrad
effective
acr
▁uterine
arb
▁fiber
▁injec
orpor
tiveness
▁psychiatric
amic
▁10%
▁monocytes
angl
▁antigen
1%
▁cancers
▁ovari
▁Increas
▁abolished
▁identifying
9,
▁adhesion
▁liver
▁melatonin
▁reviewed
▁pregnancies
▁bladder
▁pregn
▁tiss
▁kine
▁disruption
▁numb
▁traum
▁lobe
▁14
17
▁influenza
duction
▁eosin
tiz
90
▁NaCl
oplas
▁0.03
▁dors
▁abnormality
▁influx
oyl
▁solub
uron
▁hormone
ositol
▁strep
▁CMV
▁sustained
▁sero
▁6-
▁1.7
osom
▁probes
▁endothelin
vul
odil
▁dorsal
erative
toph
▁baseline
▁gluc
▁endot
▁perme
astom
)2
leukin
ylamide
▁deficits
positive
▁identif
▁arthritis
53
▁inflammation
20
▁catalytic
quid
▁enl
▁morbidity
▁diabetes
GF
bic
▁insulin
▁indications
▁22
▁indi
ogenous
▁predominantly
▁electr
ialysis
ocyte
56
▁undergo
▁transloc
▁disappearance
▁acetyl
▁glucagon
▁100
▁overe
▁9
▁kidne
oplasmic
▁pathological
▁placenta
▁etiology
▁epiderm
▁promoter
▁Comparison
▁47
2,
▁vitamin
mg
ication
▁stimuli
▁predictive
▁fibers
▁substance
▁reveals
ostic
ophore
eled
▁0.001)
▁resting
▁infected
opathy
▁mRNA
▁reactivity
▁Taken
▁peroxidase
▁3-
anding
▁cereb
▁fatigue
▁4.
unced
trum
125
▁polyp
olved
roscop
tage
▁neph
▁phosphorylation
▁plas
▁infiltration
▁invasive
tained
▁susceptibility
▁extraction
ospor
▁0.000
▁ovarian
▁stimulus
▁precursor
turb
genic
▁statis
3-
▁70
aced
▁24-
▁alcohol
lycer
▁sodium
▁construc
▁substances
▁morphologic
adequ
seud
▁prospectively
4-
35
pH
▁intra
▁silic
icient
oproterenol
▁intest
odialysis
otherapy
6)
uretic
imens
▁hypothalamic
bacco
▁diabetic
ecyl
▁pneum
6,
▁newborn
60
opha
ffec
tance
▁disorder
▁infarction
apeutic
▁ranging
▁respon
▁questionnai
▁surviv
▁progesterone
▁prostaglandin
resist
▁IgE
▁acids
▁kidney
▁medial
▁hemoglobin
▁fever
▁PTH
planted
▁surge
▁heal
▁atherosclerosis
▁tracer
▁depolarization
amethasone
▁interf
▁tumors
▁carbohyd
ranial
▁neurons
ropha
▁leukemia
ercise
▁hap
opa
▁chloro
▁colorectal
sts
acchar
▁shorten
▁intrinsic
▁depres
▁nucleotides
▁25
▁phenomenon
▁7
▁acetylcholine
lym
▁fixation
omical
eptid
▁peripheral
▁therapeutic
▁neutrophil
3.
▁lec
containing
▁lungs
▁microscop
▁turnover
arly
immuno
▁mRNAs
ncy
produc
risk
▁nitro
▁posi
▁cohort
▁gon
▁dietary
▁rectal
▁1.8
ymptom
▁Significant
sorption
henyl
▁BP
▁esophageal
▁mature
▁guan
▁adren
dehyde
▁unchanged
▁IGF
▁43
associated
ocarcin
▁adenocarcinoma
▁practic
▁(0.
oracic
▁RT
▁hepatocytes
oprec
▁prognostic
pecific
itary
rine
helin
▁dys
▁amyloid
▁peptide
▁hormones
▁specimens
▁oxy
▁lumb
▁spont
▁differing
▁electroph
▁potassium
fected
▁testis
▁cytotoxicity
avage
▁initiation
▁hypertension
hydroxy
23
▁morphology
57
ovine
▁concer
tus
ceptive
ascular
▁triglycer
▁retur
mature
oplasm
▁preservation
▁kinetics
15
▁clones
▁equilibr
ectin
▁cytoplasm
▁peritoneal
omes
▁tumour
▁regimen
▁oes
opres
▁regulated
▁functioning
rosis
▁metabolic
▁chor
▁mammalian
immun
adren
treated
▁horm
▁remission
odynamic
▁examination
hest
▁abnormalities
derly
▁judged
opl
▁microgram
▁incidence
▁distal
▁anticoag
▁urine
▁secretion
▁contraction
enic
▁hams
tration
▁achie
wenty
▁myocardium
iaz
invasive
aneously
▁RBC
▁controlling
▁microns
ortic
0%)
oconstric
ses
28
▁heterogeneous
ocortic
▁LH
urea
asive
▁Pretreatment
ergy
▁centr
gland
.9
▁28
▁mmol
▁radiotherapy
-2,
oic
▁pulmonary
25
▁elimination
▁analysed
▁8
▁usefulness
-1,
▁exce
matched
▁ganglion
▁(4
tisol
▁inhibited
▁gestation
▁seroton
estern
-5
▁carbox
▁innerv
▁hepar
▁pig
sions
tead
kinin
▁cAMP
▁regulatory
olol
mend
▁discus
▁stained
▁classified
orts
▁chromatography
▁allergic
chol
▁Addition
▁cleavage
-100
phic
thma
stim
▁normalized
▁deaths
▁accel
▁pall
▁carcinoma
▁irradiated
-19
▁adherence
▁discon
itr
▁membran
▁75
▁neon
▁20%
fos
▁immunoglobulin
bly
▁blot
MV
▁congenital
osin
romes
hyp
▁competi
▁clinically
▁behavioral
olip
▁IgA
000
▁presum
osome
usal
-15
▁ana
▁Afric
▁canc
▁deprivation
▁drain
▁cloned
▁intrav
▁stimul
titu
▁soluble
▁opioid
▁donor
▁mV
▁200
rents
▁ACTH
8-
▁conclu
oscop
▁vasoconstric
2-
carb
▁retrospective
▁doses
▁molecules
▁cytoplasmic
▁AIDS
▁0.2
ectom
igaret
oceptor
osal
▁insertion
▁0.01).
▁progressive
▁Hb
▁implant
▁GH
lusion
▁blockade
▁investigated
2%
▁complementary
▁Compared
▁absorption
▁Lys
ohyd
▁conductance
▁mAb
▁plaque
▁fibr
▁ulcer
kines
▁reduc
▁hypothal
zyme
▁CSF
▁mucosal
▁antagonists
regulation
8)
entif
-12
▁125
yroid
▁33
ture
sized
▁0.8
▁hypo
idine
▁substituted
▁lamb
▁rabbits
oxin
▁grafts
ffinity
▁0.01
okine
▁reas
▁duct
orectal
▁metabol
▁confined
▁neutroph
▁sequential
▁comparable
▁murine
▁monke
▁recur
rophob
▁mmHg
▁Whereas
▁ml
13
▁0.7
▁transpor
crimin
lyce
▁correspon
▁responsiveness
▁mechanisms
2),
▁symp
▁adenylate
▁histological
▁nerve
occus
gesterone
▁prophyl
assium
▁lys
tryp
iotensin
▁healing
eration
▁analyses
▁heterogeneity
▁hybrid
▁[3
▁variability
iciency
▁detectable
▁possi
lated
tural
▁60
▁diets
▁muscle
ochrome
amines
lux
plete
▁lateral
▁50%
▁pharmacological
▁efficacy
inated
▁monoclonal
ophren
+-
▁excl
▁3)
affec
▁cytochrome
▁suppressed
sy
BG
▁pancreatitis
▁urea
▁differentiate
▁childhood
piration
plants
▁0.
▁dele
▁hig
tual
▁cys
eptide
requ
glucose
▁iod
▁toge
▁26
▁pelvic
odium
9)
tur
▁catheter
▁glyc
ilibr
▁projec
▁instr
▁unstable
namic
▁maternal
▁preparations
▁HA
acts
▁untreated
▁ech
▁contractions
▁subjected
cepti
▁thickness
clin
oprotein
▁intestinal
▁ECG
hydrox
▁PB
▁nitrogen
4,
▁(100
▁36
MN
▁synthe
▁swelling
▁0.001).
▁pathways
anine
ophilic
▁24
▁marrow
▁LC
▁epitopes
▁meal
▁cyclosporine
▁hydroly
acyl
▁discrimination
erent
veness
▁GnRH
lyc
benz
▁discrimin
nec
▁affec
▁57
▁protective
ignific
▁phosphor
▁stomach
monstr
semb
▁(3)
▁cocaine
▁inhib
▁1.0
▁analyzed
illary
▁wt
▁disorders
▁aor
▁saliv
gene
-20
mentation
tional
▁reflec
▁hemorrh
▁inversely
▁antibody
▁polypeptides
▁placebo
acement
▁conduction
ginine
▁inh
▁utilization
▁intestine
▁hypog
▁prel
▁carcinomas
▁onset
▁paralle
▁gangl
ograms
tic
▁rejection
HB
▁mucosa
anol
▁occurring
tak
kDa
▁emerg
▁subun
▁micrograms
▁neoplas
phyl
▁peripher
▁spectra
natal
▁adi
▁beha
astolic
▁developmental
▁parental
ensory
▁assays
▁pati
▁athe
▁preferen
▁inhibitors
astric
▁Neither
olus
▁coli
▁assessed
tention
▁RP
▁cataly
ensi
▁fibrin
ophil
atients
antial
▁nec
ycl
-8
▁Hg
▁histamine
▁polypeptide
▁physiological
▁cyclase
▁complic
onuclear
22
otoxin
▁plasma
▁cortisol
▁acco
▁chlor
▁regulation
▁platelets
rhy
▁attenuated
▁adrenal
▁longitudinal
▁enzyme
▁complications
▁sph
▁viral
itone
▁targe
▁supplementation
olesterol
▁acqui
▁nmol
▁vaccine
▁deter
▁(198
▁metastases
▁anatomical
otox
3)
tro
5.
▁acet
▁alteration
▁PD
▁airway
▁48
onstric
oscopy
▁premature
▁interv
ranolol
▁Acute
▁nig
▁aneurysm
▁thir
▁mineral
▁neurop
▁dexamethasone
+)-
▁ligand
echan
▁postoperatively
▁(2)
▁fatty
▁pyram
▁proteins
▁0.01)
▁structural
▁0.6
▁compartment
ylcholine
▁salivary
oxide
▁spermat
apamil
opath
▁immunofluores
▁inflamm
▁facial
▁intrac
▁(9
▁sexes
.5%
▁perfused
ontal
▁relaxation
intestinal
▁decreases
▁phorbol
▁pretreatment
▁obese
▁inhibitor
▁immun
MG
rogenase
ressed
osomal
▁pressures
▁constr
▁somatic
ATPase
▁inhibitory
titial
▁2)
▁frac
▁soy
450
▁currents
▁dopamine
▁muta
▁1.5
▁wk
▁implicated
▁consecu
▁scans
▁basal
▁lesion
▁2.0
luores
terase
▁agonist
ecu
aptic
sor
▁uptake
▁myosin
▁DS
▁(2
▁mellitus
▁measuring
oprote
amination
ographically
▁52
▁chains
▁recons
2%)
▁oxid
tively
▁spati
▁extracts
▁prono
ocardi
▁contrac
▁microsomal
▁inhibits
anded
mental
▁aspir
▁cytosolic
▁mono
asal
4).
8.
dle
▁haem
1).
▁considerably
ophag
▁parame
▁Overall
oplastic
0,000
respon
▁spontaneous
▁ventil
ulmonary
▁mononuclear
▁biological
▁docum
ocial
▁attenu
▁displacement
oxygenase
bral
ronectin
▁anesthetized
RH
▁terminals
acting
▁Clin
▁arachid
oplasty
▁197
▁zinc
▁(6
unts
▁androgen
▁thoracic
▁glomer
▁selective
▁ultras
ximum
▁quantit
▁adminis
▁cellular
atinine
▁39
▁respec
▁synerg
dose
osts
▁0.05
▁membrane
▁pmol
▁clinic
▁substantially
▁79
▁affecting
grees
▁cyclic
▁ket
idne
▁chest
▁assis
▁carcin
FU
itol
▁bip
▁resection
oA
▁21
olic
helial
otomy
▁affects
▁0.3
▁elicited
oids
▁cholinergic
▁reproducible
▁infections
(+)-
▁atropine
▁obesity
lasses
▁HSV
esic
▁activator
▁congen
▁promo
▁respiratory
▁clon
▁demonstrates
▁dilated
▁characterized
inergic
▁hepatic
onyl
gely
▁2.5
amine
fec
▁progn
▁2,
ritis
▁involvement
▁necrosis
erated
▁laboratory
▁simultaneous
▁calcium
siologic
gic
rolog
▁agon
▁encoun
▁potenti
▁Thir
▁decreased
itoneal
omethacin
sors
▁4-
▁glands
▁0.9
ucine
▁drin
sive
▁hypot
DH
▁sinus
omat
▁hepatitis
▁chemotactic
▁198
▁examinations
▁LDL
▁phospholipid
▁AI
▁nucleus
▁cate
▁reticulum
inemia
jec
▁sperm
▁31
▁(10(
ancies
sess
▁prostagland
▁metabolite
▁cyt
▁implantation
▁favorable
▁ultrasound
▁perin
ylated
▁differentiation
▁NH
umerous
rection
▁facilitate
▁0.05).
▁prolonged
▁amo
▁pregnant
▁adequ
▁vesic
▁nasal
.2%
▁25%
▁injuries
▁coupled
▁peptides
▁melan
▁predomin
31
EA
▁toxin
▁sten
▁cats
▁11
▁isch
▁30%
ifferen
▁satis
1.
▁corne
▁molecule
▁10(
▁molecular
4+
▁cerebral
▁nonc
▁morphological
.2
▁tyrosine
ovascular
▁2.
jug
acrylamide
▁repor
ofluores
▁selec
▁creatine
▁rhy
▁electrophoresis
tory
▁enhanced
▁ACh
▁excluded
ylation
▁100%
▁aging
▁cyclo
▁Sout
▁adjuvant
tabl
▁gland
-1)
▁renal
▁retinal
▁ischemia
▁oral
▁preoperative
▁cervical
ovirus
▁therapy
▁medication
▁granul
luent
utaneous
elec
▁hetero
▁effectiveness
▁trend
plied
atories
▁deletion
▁HPV
oside
scherichia
▁dose
▁dissection
▁preval
▁determinants
▁potent
▁accumulation
▁multiv
ynthe
▁rabbit
▁pediatric
leu
▁cardiomyopathy
▁enhancement
▁findings
▁intrap
osterone
-7
idated
▁dete
▁secretory
2).
▁phosphatase
▁manifestations
▁bovine
iably
acin
▁myocardial
▁collagen
▁periodontal
5%
▁embryonic
iatric
▁cerv
▁(19
▁antigens
orbol
▁requi
gth
ogenic
ocytosis
▁mg
▁preparation
▁0.5
xia
▁granules
ymme
▁fibres
▁reactive
▁deple
▁dodecyl
sively
tive
▁reper
.4
▁nervous
▁0.0
venous
▁collec
▁colony
5-
▁amyl
ocrine
▁microscopic
infected
▁Treatment
▁cortic
tries
atine
▁ventricle
▁surgical
▁7.
7,
fts
▁schiz
▁umbilical
▁5-
▁13
▁volunteers
▁hemodynamic
veolar
▁glycogen
▁chronic
▁angiography
▁nutrition
▁mitral
▁CK
▁inters
▁mobility
▁ions
aline
▁membranes
ituitary
▁establ
▁progres
▁mell
tact
▁organs
▁insufficiency
▁disrup
menopausal
▁induce
▁dehydrogenase
▁tric
▁vivo
▁tooth
vices
▁fractions
hyd
▁sulf
▁fold
embran
▁recurrence
lix
▁kb
ulatory
▁assayed
▁PP
▁locus
atest
▁1-
uvant
tation
▁fractures
mia
▁metastasis
0.5
actin
LISA
oresis
▁19
▁monit
entan
▁immature
▁consensus
▁epithelial
▁inactiv
▁Serum
derived
▁diastolic
▁GM
ffin
terminal
lasts
▁thrombin
▁85%
▁50
▁vesicles
▁ery
▁lipids
.7
▁seizures
▁Dop
eroxide
▁malignant
▁moderate
%),
▁hypertensive
▁substanti
▁anemia
▁genetic
18
▁endothelium
▁34
ochondr
▁glomerular
tein
opes
ropriate
▁hippocamp
▁chromosome
▁compound
▁prostatic
▁TSH
▁eliminated
olute
bac
▁cortex
1),
▁0.05)
roximately
▁5%
▁pharmacokine
lys
▁nutritional
▁ratios
uvate
▁lymph
▁stenosis
▁intensive
▁cDNA
▁LPS
▁compe
▁intraven
2+
yel
plasia
thal
▁pituitary
3,
▁comparative
▁8-
▁belie
▁HP
▁concomitant
▁lymphocytes
9%
acted
onucle
trop
99
▁vasodil
▁staining
▁sampl
▁beneficial
▁estrogen
▁irradiation
▁reversible
thym
▁immunode
▁demonstrating
▁quin
▁ey
50
▁phe
opamine
▁tumours
▁51
ylchol
▁atr
▁5
▁glutathione
▁smoking
▁(1
lycerol
▁pathology
▁cutaneous
monary
▁Increased
ficial
▁49
ethyl
olysis
▁determining
▁bowel
16
rected
sA
▁attemp
▁subunit
cence
▁scre
▁biop
▁1.4
▁administered
acetyl
▁underg
▁neuronal
ocamp
▁hydrox
▁molec
atitis
1)
▁29
▁edema
▁profound
aturation
▁syndrome
▁reconstruction
ayed
▁permeability
▁ET
taining
▁proton
-6
+,
▁purified
▁conclusions
trac
ionine
tase
▁dysfunction
olgi
armac
▁cognitive
▁adhe
onography
▁quantitative
▁predic
▁graft
▁deterioration
▁dendri
▁endoscop
▁Bec
▁micron
▁exhibit
rates
▁65
▁intracellular
▁20
30
bular
▁glutamate
▁attrib
▁physician
iasis
▁embry
▁endogenous
▁localized
vents
5,
▁5.
affected
inally
▁exten
▁plac
orption
▁neutrophils
▁elec
00
▁plasmin
▁unrelated
▁depr
-2-
▁lamin
idation
ichia
▁accurately
▁PG
▁lymphoma
▁anxiety
▁testicular
▁tubular
rox
▁150
▁depressed
▁barrier
atase
▁defects
▁satur
▁spontaneously
radi
▁skeletal
▁antib
▁glucocortic
▁glucose
▁biosynthesis
▁benign
▁discharge
▁VO
▁PGE
▁extracellular
70
onate
▁phy
amycin
▁bile
▁theore
▁somatostatin
▁wound
lue
▁ae
▁drainage
▁(12
▁myocardi
-1.
▁onc
▁Fc
▁contamin
glutin
▁mutants
▁1
▁spinal
▁bleeding
helium
▁availability
▁herpes
tral
2+]
▁statistically
▁diseases
▁alkaline
.3
tinu
jun
▁prostate
transfer
pite
▁diabe
4.
▁strom
▁pathogenesis
reast
▁aspec
▁muscles
▁imaging
tiv
▁echocardi
epti
▁elevation
oxygen
▁scanning
estis
ochem
▁objec
▁(10
omotor
▁mutant
▁Mg
▁inactivation
▁antibodies
▁morb
esthe
▁tumor
▁opi
▁atheros
iotic
feron
ropine
▁albumin
▁tissues
▁impair
clerosis
herent
controlled
oag
▁effec
▁activated
plas
▁41
▁astro
▁immunoreactive
▁lipid
methyl
▁complexes
▁GABA
itant
▁rheumatoid
itamin
▁pyramidal
8%
▁erythrocytes
▁spine
▁rati
rowth
mong
▁survival
bility
iary
▁potentials
▁mann
▁synthetic
lysis
otype
▁tryp
dies
▁evaluating
-1
endri
▁fetus
45
ATP
ureus
▁quanti
▁epinephrine
erad
chym
oxic
▁rats
▁BAL
otypes
otyp
▁phenotype
▁pH
▁40%
renal
-450
ophageal
▁heterogene
▁recipients
▁AMP
unctions
▁influences
▁adverse
6-
▁lumbar
opic
▁resec
▁ultim
▁fibroblasts
▁Km
ergic
crip
tub
▁5'-
▁antibiotic
▁Hz
▁uncom
▁implic
1-
▁endometrial
▁adoles
▁degradation
▁1,
▁micros
onary
▁latent
phosphor
▁concentrations
/100
hydro
▁kidneys
▁ventilation
▁recombin
▁90
▁perox
▁indication
▁excision
▁strain
▁mumol
▁ventral
▁infused
brain
▁describ
▁embryos
▁hemat
▁implications
▁positively
iant
▁contralateral
▁PRL
▁regis
▁immunohist
▁amin
▁hybridization
fusion
▁genes
▁perip
ologous
▁biochemical
▁alterations
ronch
resistant
▁correlates
▁antiser
▁symptom
0,
▁alveolar
otide
▁differed
▁normo
▁ischemic
▁microscopy
▁differe
▁interferon
ectomized
48
ynaptic
▁tolerance
ensity
▁detec
bumin
▁irradi
6%
▁autoimmune
ateral
▁intake
erate
ulates
ymp
▁viable
▁.0
lymph
▁EGF
independent
mediately
▁temperatures
iminary
▁TA
▁mitochondr
RF
ectomy
▁bronchial
ilical
▁defec
▁bac
▁500
tec
adiol
▁prognosis
atonin
▁participate
▁polymorph
▁tachyc
▁corneal
.5
▁superficial
▁1.2
▁5,
lytic
▁physiologic
▁reac
kers
▁HIV
ocar
▁gradi
▁retention
▁produc
tents
ditions
▁cytos
▁acetate
▁MV
▁BM
▁subgroups
▁macrophage
▁oxide
ellar
▁53
▁biopsy
2+,
.8
yro
▁0.00
nRH
roup
▁cultures
▁sensi
aemia
▁physicians
▁phosph
7)
▁umb
▁cardiovascular
▁contributes
▁evid
asone
▁restor
▁transcrip
ilic
▁Cyt
▁viruses
▁incorporation
ometh
tectable
olution
duced
▁smo
▁hipp
▁cathe
renol
inositol
▁latency
▁exposure
▁scin
49
▁filtration
toc
▁fati
▁pneumon
▁spleen
treatment
keletal
▁Plasma
▁nm
▁glut
▁relap
eak
▁outs
▁spectro
▁tachycardia
osyl
▁dosage
▁atrial
▁6
BV
echn
▁microM
plic
▁probe
ration
opausal
truc
▁quantif
▁tes
erox
ithi
▁presumably
olec
▁strategies
▁cann
olarization
▁17
▁bronch
▁reticul
▁regimens
▁toxicity
TNF
▁mum
idity
▁elic
▁(7
sensitive
▁38
▁diffic
▁neuro
▁intram
oride
▁PV
▁lactate
▁markedly
entral
▁induc
▁differen
▁seiz
▁isolates
▁throm
▁cardiomy
▁eluc
-3
▁melanoma
tivity
▁prophylaxis
hea
▁testosterone
Hg
▁molar
▁0.1
▁85
▁CM
tagland
zard
operative
▁cholesterol
29
▁hydrogen
▁cere
▁sulfate
▁admission
ighted
▁specificity
tron
▁3
▁inhibit
▁Escherichia
ogens
▁58
▁nuclei
pinephrine
▁lute
▁ventricular
ults
▁reflex
12
▁maturation
▁estradiol
arent
athe
▁incubated
▁facilit
sion
▁aerobic
▁hypothalamus
▁symptoms
omized
4%
olism
▁investigations
▁(20
▁exposures
ipine
▁muc
obarb
▁reactions
esity
▁modest
▁IgM
▁embryo
▁anaesthe
.1
▁80
▁anat
rocy
▁metastatic
ocyt
▁unaffected
▁PE
▁nodules
▁MRI
▁mothers
▁pneumonia
reased
ergency
ilized
▁pigs
aryn
idase
▁epid
▁serotonin
▁undetectable
▁myel
▁synthesized
gative
▁arth
crib
loid
atid
▁adequate
▁anomal
▁elu
jected
▁uter
▁arterial
onomic
mediated
otassium
▁severity
▁paren
▁spon
▁depletion
▁5'
stimulated
usive
▁plasmid
▁remo
adrenoceptor
▁porcine
▁substrate
athetic
tent
▁4,
▁femoral
▁replication
ocaine
ingle
▁displ
▁Doppler
▁moderately
tice
▁poten
▁(1)
▁compartments
▁stren
rele
▁immunological
▁adop
▁LD
▁contral
▁postnatal
▁cephal
▁leukocyte
▁chond
▁circulation
▁ACE
itin
▁HC
▁infants
▁PMN
▁erythrocy
icin
▁mice
tized
▁treatments
tamine
▁renin
versity
▁apical
▁pancreas
▁affinity
▁elderly
sial
aryngeal
vely
▁transient
sia
oclonal
trition
▁aden
eptides
phosph
▁noradrenaline
▁neurological
▁elucidate
▁tomography
sis
▁epithelium
▁interc
trin
agic
▁mediated
▁44
▁altered
▁trache
▁ischem
ubation
▁receptors
alact
▁recurrent
▁transfusion
▁stab
▁repl
▁55
▁ile
▁TC
tions
otropic
▁injected
▁iso
▁enti
▁mL
44
▁nerves
▁susceptible
itus
ocytes
▁aortic
▁venous
phrine
bladder
▁compli
labeled
▁rhythm
▁metast
▁sti
▁suspension
▁distin
▁stom
▁nM
glycerol
▁microsomes
idate
▁malign
terol
▁diminished
,000
▁impairment
transferase
▁ventric
ologically
▁anesthesia
▁reacted
2/
▁phospholip
▁evoked
▁defic
▁decreas
ociation
amino
▁preliminary
acet
▁sepsis
▁underwent
minis
▁mitochondria
▁(5
▁capillary
▁vascular
▁arteries
occal
▁olig
tin
acil
ellular
▁inflammatory
▁stimulated
duc
▁homogeneous
acetate
▁bypass
▁healthy
▁aorta
▁dental
activated
▁chol
▁undergoing
oglobulin
▁metabolites
▁exis
▁cyst
oxy
▁tetr
▁dissociation
▁cortical
21
educ
regulated
▁natri
▁hypoxic
teroid
▁LT
▁tox
terone
▁drinking
▁Twenty
ardia
protein
▁unilateral
▁thyroid
patient
▁35
▁polymer
▁predominant
▁immunos
▁lacking
▁diet
▁hypoxia
▁lipoprotein
▁18
orrh
▁10
▁vaccination
ticular
▁MI
spectively
▁pulse
atoid
▁radioactivity
▁hypox
▁6.
▁characteris
▁plasm
abain
▁characterize
▁stimulate
hist
▁diagnosis
ications
▁assessing
▁recombinant
▁12-
osine
▁3'
receptor
▁37
▁residues
dition
▁protoc
asic
▁macrophages
ociated
otides
riched
▁endothelial
spective
▁practition
▁synaptic
kely
▁TGF
▁chick
▁compounds
▁27
▁gradients
32
▁biosynthe
▁bacter
-5)
ylase
▁vein
▁cultured
entricular
▁3.
▁surf
▁(3
ineal
▁pancre
▁sour
duce
immune
▁4
8,
▁bone
▁30
▁aggregation
▁cardi
▁aureus
omal
lood
▁mutations
▁subjec
▁reproduc
▁12
▁IgG
▁paras
tors
▁GV
1,
▁Tum
▁synthesis
▁electrical
▁infil
▁54
▁90%
hemical
▁examin
tics
▁tas
erating
▁stimulation
assay
▁proximal
▁PF
▁MHC
▁0.4
▁fluorescence
▁cis
