▁HSV
▁inhibin
▁recessive
tation
.2
▁necrosis
cepti
▁demographic
ysm
▁inhibitor
5)
piration
▁feeding
▁follicle
heric
olic
▁Tumor
▁vag
-8
tox
ications
▁anxiety
3,
ociated
rated
▁knee
10
▁evaluations
omat
▁peripheral
▁molecule
aemic
omiting
ectom
▁persis
▁increasingly
▁accumulation
▁chloroquine
operatively
▁11
▁complications
▁glomer
▁rele
▁facilitate
▁validated
▁mumol
▁swelling
▁tox
▁encour
▁inflamm
▁hemorrhagic
elan
loro
▁confound
▁mitral
placement
▁correspon
▁residues
/1
osin
▁adjustment
ylchol
▁preparations
▁0.1
▁aspiration
▁latent
▁synthesized
rocy
tural
inely
▁selec
18
▁monoclonal
▁hCG
▁cervix
▁mucosal
▁cervical
rectomy
▁emergency
Cu
tant
▁failures
▁0.
acil
▁disappearance
idase
▁analyses
▁uncomplicated
99
▁prophylactic
ocytes
▁transfusion
ologous
90
▁modulate
▁inactiv
▁mobility
mong
uptake
▁nal
▁progestin
▁exce
▁coli
▁atmosp
▁parap
▁presenting
▁peripher
entricular
Hg
rhy
▁atherosclerosis
▁cephal
ocytic
▁rabbit
▁injur
▁osteoporosis
▁fold
atest
▁vomiting
stim
▁auditory
▁congenital
▁16
tic
▁hydrox
▁occl
MG
▁methyl
▁systolic
ocul
▁reper
▁elevated
.2%
▁correlations
▁vena
▁tiss
▁lesion
▁somatic
▁2.5
▁interc
▁perc
▁proce
▁guidelines
▁leuk
oric
1),
▁routinely
ensory
▁mechanisms
ocl
▁temperatures
▁Removal
▁extensor
▁injected
▁RB
Ki
▁wee
osity
fts
▁focusing
▁bypass
▁evaluating
▁consequently
▁constr
sies
▁utero
ecre
▁improves
osal
ochemical
▁facilit
pecific
▁adherence
ivocal
tries
▁thigh
▁cerebral
itant
▁hepat
▁drinking
▁catheters
0-
ensi
▁outpatient
▁dyn
▁bladder
▁statistically
ergy
▁diminished
▁resonance
▁uter
▁85%
▁reac
▁diabetes
▁autosomal
olated
olysis
resting
▁NP
▁recombin
▁conclu
▁chol
aryn
▁acet
▁clinically
▁PB
▁relating
▁preval
▁VL
versus
ogens
▁VA
cine
▁atheros
▁tes
ospor
▁antic
▁acqui
▁facial
▁pyram
▁pelvis
▁chest
▁positively
▁depres
▁fibrin
icient
▁insufficient
▁epit
▁baseline
▁LC
▁promising
▁cultures
idne
thyl
athe
▁cardiac
▁practic
▁axillary
▁behavioural
lasts
▁bovine
4-
▁retin
▁alve
▁questionnaires
vul
▁HL
unctional
associated
▁femur
▁OA
titu
▁comprehen
▁38
▁wors
rection
minal
BP
.1
ximal
▁decades
▁blot
▁hemisphere
▁consis
aturated
▁recur
gluc
▁hep
▁morb
▁0.5
▁infiltration
▁preventive
atients
▁15%
▁5.
▁toge
tact
▁irradiated
▁oes
▁cytochrome
▁ambulatory
▁concomitant
▁esophageal
▁cataly
oxy
▁8.
▁measurable
▁4.
olytic
▁bac
ochemistry
itol
▁mann
PB
olesterol
▁stimulus
▁longitudinal
BV
▁APC
▁cellular
▁pretreatment
otype
oscop
omal
▁metastases
usp
perfusion
▁PE
iosis
▁macropha
ogra
▁assessing
▁dys
▁glu
▁traumatic
▁calcification
DNA
▁transient
sion
▁hemodialysis
▁organisms
▁pS
▁oxide
jug
▁vesic
▁phag
▁exten
▁40%
▁operative
▁murine
itro
imens
▁diagnosed
ostomy
▁mellitus
▁cohort
▁assessed
onset
▁polymer
▁irr
▁mRNA
ylase
▁transcription
▁phenomenon
▁incorporation
yses
▁implant
ervical
▁ana
▁steroid
erating
ymp
▁fetus
▁cereb
▁parental
▁unstable
oxia
▁5
onium
RF
▁congen
▁subgroups
▁palli
▁regis
▁elec
▁feasible
oside
▁antagon
▁consistently
oes
▁measuring
▁juven
▁lys
erate
▁plac
▁neurop
▁epinephrine
regn
▁membran
▁superficial
lyce
▁synov
ctomy
▁diseases
▁pancre
tead
ylate
erance
▁repl
▁conclusions
▁GABA
opic
▁pati
weighted
▁decline
▁anticoag
apeutic
▁enlarged
otomy
ameth
ulae
▁muc
tin
9%
▁hypers
▁porcine
amic
taining
▁intensive
▁contex
▁0.9
▁gallst
▁agon
quine
erine
▁angi
▁intra
▁influenza
▁tumour
▁29
▁suppression
▁transplantation
gland
othelial
respon
▁intact
omical
sue
▁neurologic
relations
▁(8
▁prol
▁vaccination
▁membrane
▁relap
ication
▁amin
▁Increas
▁genotype
▁Phen
NM
▁bronchi
▁.0
▁monit
▁0.3
▁pyl
tiv
▁proliferation
▁hypoxic
tial
▁subf
transferase
▁prenatal
▁myo
ministration
▁sensi
▁biochemical
oprote
odal
▁ovarian
▁screened
BG
▁impaired
enhanced
Mu
▁degrad
opha
▁intrinsic
illary
hern
LV
▁esophag
▁staining
leu
▁uncom
▁adenosine
▁subunits
▁cumulative
▁MH
▁6-
▁iliac
▁autoimmune
▁Surgical
▁bronchial
trop
thal
40
▁thym
▁defec
▁displacement
▁7.
fec
▁solely
▁anomalies
▁cere
▁37
▁dilated
▁atten
0%
tif
▁toxicity
otor
▁enl
▁Contr
utaneous
▁nasal
▁exis
+)-
▁cesarean
veness
▁preoperative
13
▁pronounced
hydrox
▁dors
eptin
▁cyto
isol
▁maintaining
▁usefulness
▁preoperatively
3-
▁vitro
▁pyr
▁urine
▁PET
aints
▁collateral
▁pelvic
▁lymph
▁tobacco
cysteine
▁10(
▁deform
▁insufficiency
000
lix
tivity
▁altered
erative
▁prophyl
▁survived
tained
▁symp
▁thickness
▁depression
7%
▁elucidate
▁chromosome
▁underg
ensitive
▁DF
▁unil
▁LS
ochrome
▁MN
tase
▁fever
▁amyl
▁chromat
▁renal
coh
siveness
▁nerve
stimulated
▁thresholds
▁muscul
▁Continu
▁dorsal
romes
▁intrauterine
▁testis
heal
▁carotid
▁1)
▁clinical
▁plasma
tional
uvant
xual
▁125
▁stomach
▁PCP
▁favourable
46
▁fractions
adder
▁bile
▁ischem
atment
▁calcium
adiol
oplasm
osom
▁regar
▁laser
▁ultrasound
▁mec
-1)
.8%
▁dete
▁selectively
▁psychiatric
▁determining
▁ventilatory
RNA
▁poorer
▁behavi
▁laboratory
▁thickening
▁GVHD
▁lob
▁reagents
▁cystic
▁multim
▁adenoma
▁cardiomy
▁excre
▁enhanced
▁alterations
▁leakage
opausal
▁GF
usive
▁cigarettes
ediatric
iotic
▁promo
▁haemorrh
▁infusion
▁edema
▁ml
sian
▁reveal
▁attenu
▁abortion
▁neo
2%
▁ultrasonography
epti
rogenase
▁distin
▁granul
▁19
tak
▁dose
dial
▁postoperatively
▁instr
▁stimulation
versely
▁198
▁cate
▁remission
▁prolonged
ortal
▁2)
vival
▁stimulated
▁prevalence
▁predic
▁complic
▁2,
▁perox
entan
▁cortic
▁widespread
▁etiology
lasting
31
▁lipoprotein
oresis
▁eluc
▁dehyd
tically
▁mortality
opl
▁ultim
▁findings
▁estrogen
▁correlates
▁rheumatoid
▁endoscopic
uran
▁substrate
▁anemia
tence
totic
illance
▁flexion
▁alcohol
0.5
dose
▁compartments
His
▁selective
amily
▁untreated
rogen
estis
▁inappropriate
ece
otides
odialysis
▁experi
wenty
▁nons
▁insertions
-1.
▁metabolic
opi
▁proximal
▁exclusion
▁chemo
adrenergic
▁eating
▁oxid
▁biopsy
▁margins
▁macrophages
▁tumor
lastic
ressed
▁sepsis
hep
orax
▁inh
▁limbs
▁injuries
▁mutant
ancies
eal
▁cyt
▁clon
▁discrimin
▁resuscitation
6)
▁immunos
▁pharmacological
▁infection
uscular
▁athle
-6
11
▁respon
▁phosphorylation
alian
▁cultured
omes
▁challenges
▁rectal
venous
tens
▁homogeneity
▁acids
▁microM
85
▁sciatic
▁Clin
▁consequent
▁transi
▁follic
utroph
ulatory
▁ile
6.
immun
▁adequate
▁quantit
▁poten
4%
▁cAMP
ergency
▁ward
▁haem
tive
oglyc
▁prel
▁deterioration
▁reflec
▁liver
olved
▁paras
▁fracture
crib
▁molar
▁tryp
▁obese
controlled
▁indication
rogra
otassium
VL
anyl
▁AMI
valence
50
olol
▁tomography
itamin
owever
▁echocardi
ellular
uation
▁endometr
▁shor
▁bipolar
▁neuro
trib
amn
▁nonc
ighted
mitted
▁hemodynamic
▁GA
▁increas
▁IA
▁clinic
urea
kers
onography
▁spikes
▁Significant
▁(0.
assium
▁arterial
▁anatomical
nutrition
athy
▁suicide
▁colorectal
▁circumference
mittent
▁detectable
oplastic
▁intramuscular
▁SG
mental
▁phagocytic
ococcal
▁Kupffer
▁excl
▁unde
▁infected
▁predictor
▁immunode
▁2
ompan
▁pate
glyc
teroid
▁RT
▁90
▁gallbladder
▁fixation
▁ventil
▁MI
▁linole
ronch
▁ventric
trac
▁macrophage
ceptive
erated
mature
▁bowel
▁characterized
▁indications
▁facilitated
▁+/-
▁mum
▁syndrome
▁pathological
▁PCR
MIC
▁rats
razole
▁sodium
▁enhance
ithi
kage
▁myocardi
▁TG
▁Neither
▁preterm
▁surf
▁concentrate
osine
.0
▁Streptococcus
▁RNA
▁adequ
▁reactions
▁carbohydrates
▁doctors
▁bilateral
▁neutroph
gents
▁abdominal
▁enzyme
▁phenotype
fected
tility
▁promoter
glut
ondr
▁responsiveness
▁Concomitant
▁adop
▁subc
icated
▁thir
roximately
▁attending
▁decreases
ilization
▁fati
▁childhood
▁3,
▁occupational
▁10.
▁protective
▁22
comitant
▁adjuvant
loid
▁collagen
1,
prising
ximum
▁Mg
sensitive
▁enrol
▁intake
▁underwent
▁atr
78
▁embry
1-
derly
▁1.0
lysis
tyl
/2
▁monitored
anic
olism
▁lymphocytes
▁vein
▁viral
esity
pir
ologists
idation
▁glucose
▁molecular
▁regulatory
▁undergone
oxid
plication
65
▁distinguishing
▁modality
ariate
▁Intra
▁moderately
Tc
iciencies
▁serum
▁exhibited
▁fetal
▁prevented
▁examinations
▁respondents
▁secretion
▁anatomy
▁sti
▁remo
▁postmenopausal
▁cava
▁opioid
▁Comparison
▁lacking
▁10
▁carbohyd
▁ascertain
▁stimuli
▁nutritional
▁intrac
siological
19
▁adrenal
▁bab
▁CK
▁latency
▁nig
astolic
▁(19
▁IIb
▁establ
onit
▁conduc
ropriately
▁targeted
▁questionnai
▁hypog
▁antiser
▁impair
▁pediatric
▁Plas
atine
▁LD
▁cuff
▁gastric
▁onc
▁shortened
urys
▁gangl
▁diffic
-3
▁carcinoma
ffin
onomic
54
▁favorable
tized
▁weigh
▁kinetics
▁smoking
▁throm
▁variability
-0
▁ESR
tus
rested
▁analyzed
▁progressive
▁Swed
▁20
oratory
▁septum
▁chemot
▁systemic
▁reperfusion
▁eosin
▁placenta
▁adolescent
▁atm
yel
▁Sout
▁cancers
▁expend
▁scin
▁hypothe
▁ethnic
▁provid
▁ulcer
uble
responders
▁platelets
▁peptide
▁laparo
▁characterize
ochondr
▁depr
went
▁75
▁relapse
▁stren
▁micron
▁demonstrates
▁coronary
plic
iol
▁previ
idney
▁multic
▁ganglion
ivariate
lobin
▁glut
▁dysfunction
35
▁evoked
▁RP
▁NT
idis
▁genic
effective
▁cardiovascular
▁benz
▁intracellular
▁describ
tec
ensity
▁stenosis
itus
▁diagnoses
▁epithelial
▁26
▁minority
▁satis
▁molec
▁mature
sized
▁anastomosis
▁iso
▁scanning
▁potency
▁lateral
▁competi
▁preservation
angl
▁restor
MV
olip
plas
4).
▁excluded
▁antigens
ophil
▁mutations
▁chemotactic
▁kerat
iatric
▁150
xia
▁synerg
▁judged
▁vagal
▁0.01).
ocial
▁GD
▁affec
zard
▁intrag
▁potenti
▁symptoms
▁FS
▁dental
intestinal
▁sph
hospital
▁inducer
itic
30
zyme
▁purified
ositol
▁intervention
▁fatigue
▁elic
ometr
astric
▁immun
▁9
▁pylori
▁subunit
taken
▁endothelin
▁0.001).
▁demonstrating
▁unc
asone
▁constitutes
acet
▁infar
9-
▁nutrition
▁efficacy
▁shorten
▁nucleus
lec
▁morphologic
-1,
tent
▁inhibition
▁restenosis
rosis
▁labeled
osome
▁incubated
▁curative
▁pulmonary
keletal
▁defic
2-
▁tumors
▁melatonin
▁drin
oag
iminary
▁receptors
▁pig
▁contralateral
cents
▁LN
▁precur
▁fibrob
ture
lesion
▁infections
▁mediated
▁cytology
▁causal
▁electroph
helin
▁diame
▁physicians
ocarcinoma
oglobin
▁chlor
▁mucosa
▁comparable
rine
▁13
▁normalized
▁poin
▁cann
▁57
▁leukocyte
tual
▁oxygenation
▁amyloid
▁Hg
arent
▁ane
▁subun
tro
97
▁mmol
▁aorta
▁radiographic
gm
▁immune
▁hypoxia
▁aort
▁strains
ctive
▁adminis
▁homogene
▁fentanyl
phosph
▁chemotherapy
▁cyclase
▁HI
kDa
▁ethanol
▁FV
▁salivary
tate
▁vaccine
▁imaging
▁effectiveness
▁sexes
▁proteins
▁intravenous
▁plas
▁Intravenous
▁spi
alues
▁tumours
eptides
▁79%
▁antib
▁seizures
6-
▁receptor
ophilic
▁substantially
bac
▁alteration
echn
▁lith
▁disorder
iably
▁IgG
▁elderly
▁predicting
▁HCC
▁pregnancy
▁therapeutic
diol
ateral
▁substituted
BM
treatment
▁statis
▁corneal
tomy
▁affecting
ylation
ociation
PV
▁insulin
rous
▁microscop
▁200
▁enzym
▁cen
HF
▁antibody
▁surveillance
atical
opath
▁impairment
▁improving
▁distinctly
aryngeal
▁healthy
▁challen
▁clones
▁inflammatory
▁parame
atectomy
matic
▁lamin
oclonal
▁antibiotic
idity
▁plates
ureth
▁colonization
bladder
rates
risk
▁GV
▁connective
▁molecules
ovascular
▁polyethylene
ontal
▁recombinant
tub
▁psychological
▁conservative
▁carriers
▁cytoplasmic
▁mono
▁(3
▁atrial
44
▁epileptic
NH
IgM
▁silic
▁susceptibility
57
▁predominant
▁TNF
▁topical
ethyl
▁5-
▁kDa
▁cocaine
urin
bumin
▁Overall
▁wound
moid
▁WHO
entanyl
▁hyperg
▁phosph
▁cirrhotic
▁analys
▁genetic
ylated
fron
▁prevalent
▁discus
ropriate
amus
▁mV
ffer
▁Pretreatment
atell
▁neon
▁vascular
▁30
▁isch
lective
▁PG
piratory
BW
▁1.5
andard
▁consensus
▁TC
opathy
▁rehabilitation
▁31
▁IFN
ucle
▁cardi
▁phosphor
▁synthesis
tively
3)
▁hepatitis
▁comprehensive
sus
▁paradig
ronchial
▁reactivation
tors
.4
▁HLA
.9
▁biom
▁infil
▁12
▁contamin
receptor
▁70
▁gly
rehen
▁1.7
▁radiotherapy
▁graft
centr
▁induce
▁27
geal
▁targe
▁immunore
ropha
▁drugs
▁dex
27
thle
▁physician
▁60
jec
positive
▁chond
▁BM
▁differentially
▁periodontal
▁estimating
▁herpes
▁hepatocytes
5%
▁diabe
▁phe
▁tas
trogen
32
▁epid
▁mothers
▁spine
▁ration
Hb
▁Throm
▁staging
▁yiel
chol
RP
▁fulf
containing
-1
inated
icine
▁thrombolysis
▁anastom
69
bic
usal
oplas
▁hybrid
▁CMV
acchar
ycin
▁basal
apse
▁pineal
tabl
bral
▁medication
Ds
graft
▁chec
▁sequelae
▁0.8
wk
eptide
▁vivo
▁underst
▁1-
▁1.
adherent
▁ketamine
seud
▁affects
▁horm
▁prednisone
▁heterogeneity
▁psychosocial
▁restric
▁endoscopy
bacco
29
▁Tran
-10
▁ery
ophren
▁canc
▁CRP
versity
▁VE
uded
▁adolescents
▁perfor
▁reflecting
▁melan
▁8
▁exposures
▁chromatography
rele
▁0.05
▁umb
ialysis
▁toxin
▁electrophoresis
▁aerobic
4,
▁33
-9
▁erythrocy
▁MRI
▁satur
ventricular
▁Samples
▁GM
▁implicated
▁behavioral
responding
2,
▁recurrent
8%
▁compliance
▁PF
▁Hb
3%
14
▁0.4
▁benign
omerular
▁reconstruction
thre
illus
▁postoperative
▁cerv
▁guinea
▁nitro
▁clus
▁prospectively
▁eryth
avage
▁aden
▁kidney
▁GI
▁symptom
▁hazard
ituitary
▁controversial
▁bloc
▁ure
fat
tric
▁sperm
overed
derived
▁FT
onor
▁discon
▁melanoma
▁metast
▁compartment
▁synergistic
▁artery
▁pituitary
▁buc
▁hydroly
▁algor
sis
▁advances
5-
2+
tabol
▁surveys
produc
▁agonist
▁linoleic
otox
▁insertion
▁assessment
▁sensitivity
▁immuno
esic
enol
▁hormone
▁advan
erin
▁spont
▁recor
eak
▁quantitative
vely
75
-5
gative
▁1
▁microvascular
lobulin
▁lumbar
▁tol
ipher
sions
▁PSA
FN
▁dosing
▁metastatic
▁membranes
▁SLE
▁sphincter
22
▁inhibitory
▁tidal
PAP
▁desm
▁follicular
▁attrib
anding
▁suppor
▁progres
▁chick
▁somat
mentation
▁minimally
79
▁survival
▁hig
▁tymp
▁profound
▁prostagland
▁referral
icide
ocyte
ulates
6,
enh
MH
▁supple
▁epidemic
▁intraoperative
▁schizophrenia
echan
asal
▁cyclic
▁investigating
▁amines
▁Phe
▁pregn
urine
0%)
vents
▁connec
▁Serum
yroid
▁(5
gic
immune
▁cytotox
ivation
▁putative
▁preven
ograms
▁acidosis
▁deficiencies
0.
plied
▁contributes
roxim
OA
▁GH
▁pathway
▁197
▁portions
▁infants
ogenic
▁surgical
ropine
genic
alp
mend
▁HC
ilibr
▁amput
phrine
▁ae
▁deple
cture
▁Chronic
▁comparisons
▁antagonist
educ
oceptor
lep
rati
▁mg
▁cure
▁exhibit
5,
regulated
▁gains
actin
tering
▁practition
▁meth
▁onset
clinical
▁25
▁chori
▁hepar
7.
▁(2
diagn
▁potassium
▁trials
clin
tration
ygen
vated
▁sustained
mia
▁PI
roup
gmental
▁abuse
▁stroma
onucle
toc
00
▁juvenile
▁preliminary
▁trophob
iciency
gth
▁respec
▁epithelium
▁contral
quid
sial
▁polymorph
▁Accordingly
▁ultras
▁corne
▁techniqu
▁dopamine
▁kine
▁supplementation
erox
ophag
grees
▁caution
▁medial
operative
duce
48
▁mice
ials
tical
▁bacter
phosphon
▁ongoing
▁assays
▁VO
▁synovial
▁fractures
▁sensory
▁uptake
▁resected
▁awareness
▁metabolism
▁detec
ditions
▁micrograms
▁GFR
tensin
▁migrated
▁adenocarcinoma
▁pathogen
idine
▁degradation
▁unilateral
ocar
▁0.6
▁TGF
acr
▁decisions
▁cues
▁embryo
▁enti
▁Bone
namic
▁sclerosis
osocial
▁MV
renal
acting
▁2.
▁excision
▁HA
urgical
dle
▁Compared
sive
▁preparation
▁amo
aline
stolic
▁phy
▁28
▁reliably
▁turnover
ascular
▁mandibular
hydroxy
mediated
▁apex
arly
sor
▁obesity
▁cyclosporine
▁socio
acts
minis
▁posi
▁moderate
▁enzymes
▁controlling
otent
▁aor
▁rabbits
VT
▁prevention
▁utilization
▁gradients
▁carcin
▁airway
▁fluores
▁predictive
▁substances
antial
▁exacerb
▁resour
▁heterogeneous
▁physici
EA
▁nurse
▁bacterial
▁employing
tinu
▁neurological
▁contraction
▁radiological
▁myocardial
▁concentrations
assi
WL
▁reproduc
▁examined
▁abnormal
▁biological
▁ischemia
▁occlusion
▁participate
oprotein
▁mmHg
atab
ustif
radi
▁creatine
▁manu
▁reag
▁stimul
▁inhibit
▁amino
▁irradi
▁intermittent
▁dele
ureus
▁immunological
▁hepatic
otide
aginal
▁10-
▁immature
▁HP
▁perip
tured
▁synchronous
▁shif
facial
▁inherent
▁cholesterol
oung
23
unts
▁pancreatitis
istically
▁testicular
herent
igaret
▁sero
▁39
▁pharm
▁intraven
tality
▁causative
▁inversely
▁predicts
▁80
▁spon
▁subjec
pendent
▁adoles
▁abilities
patient
▁HIV
-7
▁angiography
▁neurons
▁strom
▁cortisol
echanical
eliac
ortic
▁cochlear
kely
HB
phosphate
ographically
▁geniculate
nec
otropic
67
AIDS
apeu
occi
oradi
▁lumb
▁newborns
▁modest
sess
▁undertaken
▁Biochem
▁paralle
veolar
▁mM
▁discontinued
olarization
orption
arge
▁injec
GD
bly
▁NH
▁progn
▁thyroid
activation
▁toxic
8.
▁pregnant
astom
vascular
TG
omotor
▁saturated
▁effec
orpor
otherapy
▁irrit
rae
▁randomized
▁disruption
▁1,
▁determinants
▁ventricular
dominal
▁reductions
▁ischemic
▁infec
▁investigations
hemical
tures
▁enhancement
▁implantation
▁mamm
28
▁(1
▁reas
duction
▁injections
▁differentiation
onyl
▁50%
oidal
▁COS
tig
▁diagnosis
▁cognitive
▁rotational
▁ventilation
▁sulf
▁11,
▁TK
▁respiratory
▁seiz
▁vesicles
2.
▁continuing
▁Tes
▁emerg
▁prostate
odies
▁extracellular
▁symptomatic
otyp
▁cathe
▁zinc
▁plaque
eration
▁AI
coun
▁diluted
▁morphology
sequent
▁Kup
▁metabolites
▁regulate
▁comparative
▁surgeon
mL
gesterone
▁cys
▁percutaneous
▁multiv
▁thi
▁Patient
▁grading
ceptions
entral
▁(9
▁sequentially
phic
tension
ilateral
▁cyst
iant
▁socioeconomic
1.
ration
occus
▁cDNA
▁systematic
53
feren
▁deficits
▁(4
▁viable
oic
spective
▁actin
▁strain
▁strategies
▁2-
omies
matched
▁gluc
▁influences
uccess
2).
economic
enic
sities
▁rhythm
▁4-
▁LH
▁deter
athetic
1).
induced
adequ
▁gradi
ypical
▁thoracic
▁drain
ulin
▁streptococci
▁arth
▁atropine
▁physiologic
▁dexamethasone
▁dissection
Ps
▁achie
▁babies
▁pH
▁chloride
oxidation
regulation
▁0.7
▁syndromes
%),
▁phosphate
▁beha
eces
▁elu
▁contaminated
▁athletes
onary
▁DG
▁depressive
▁homogeneous
▁adenomas
▁endothelial
▁soluble
▁extre
uncture
romed
▁endot
ullary
gene
▁examin
▁substance
21
▁100
▁bip
▁deficiency
tur
▁nM
▁outcomes
▁enrolled
▁32%
inic
▁acco
crip
▁treating
▁complexes
▁assay
▁metabol
▁spontaneous
60
▁intest
xone
8,
▁deaths
ameter
▁vaginal
▁eosinophil
▁pathologic
lated
▁nuclei
spectively
sy
▁LV
yro
inj
ffec
plantation
▁incidence
▁tracer
▁32
cardi
entary
▁gamma
▁3.
▁predictors
▁mediates
▁[3
▁perinatal
▁vaccin
20
▁resection
mide
▁adren
▁correlated
ignific
▁chan
▁anat
ofol
▁deprivation
▁PP
▁opi
▁athe
▁genes
orin
tics
▁pyramidal
▁ECG
▁doses
ynthe
▁suppressing
▁platelet
15
▁abnormalities
▁34
icin
▁hygiene
▁Comparisons
▁ACE
▁microm
▁21-
agic
▁meal
Phe
▁bronch
▁excretion
4)
▁simultaneous
▁carcinogens
▁balanced
▁unsuccessful
▁paradigm
▁stom
▁79
amino
▁suscepti
idated
▁endemic
ithin
occal
hea
terminal
lym
▁uncommon
▁presumably
▁marrow
▁aging
▁glyc
▁encoun
▁histological
▁saline
ologically
▁anatomic
dition
▁concom
▁adequately
ingle
▁multicenter
▁unm
▁reagent
▁cytos
▁23
omycin
▁biopsies
monary
till
aptic
othel
▁regimens
▁thromb
,000
birth
▁reduc
▁complication
▁BP
▁inver
urc
▁fiber
▁risks
idate
ycl
-2
-4
ressing
▁Afric
oplasmic
5.
mg
▁induc
▁thorac
aired
▁TB
▁alveolar
acerb
clerosis
▁interventions
▁hormonal
▁coex
▁amputation
▁umbilical
▁indicative
▁differentiate
eled
ogenesis
▁raises
tingu
ostatin
opa
▁14
thma
inemia
sts
▁valve
mented
rease
▁AMP
▁synthe
▁interv
▁potent
▁therapies
▁histamine
▁DS
▁supplement
odium
▁unexpl
-67
▁hypertensive
rophy
▁perfusion
▁chronic
acin
ayed
▁invasive
▁locus
▁CM
▁scans
▁desirable
▁neuronal
▁experim
▁markedly
▁PCO
lymph
▁instability
anin
adily
ocyt
itance
4.
▁awa
IIIa
essive
▁parotid
lycer
▁polypeptide
▁compound
lyc
urgery
▁abnormality
▁undetectable
ithm
▁hypo
▁cortical
oscopic
▁prognostic
▁6
▁hospitalized
▁diversity
▁minimize
mediately
▁familial
▁involvement
▁retic
emic
▁atrophy
▁chloro
vation
▁needle
▁possi
ults
ficial
▁exogenous
▁manifestations
▁phospholip
▁structural
▁resusc
▁nm
▁pharmac
mTc
▁mineral
hyd
urate
▁genotypes
opathological
▁clinics
▁48
adren
atched
treated
ploy
iasis
▁reflux
▁likelihood
▁85
aluation
▁theore
▁Treatment
▁heterogene
▁hypothal
▁alcoh
▁functioning
omized
▁tamoxifen
▁debr
atoid
▁tric
cence
▁antigen
▁differentiated
▁mitochondr
▁implications
osts
▁headache
DH
▁albumin
atitis
▁stu
▁nurses
49
▁decreasing
▁labeling
jun
ially
arb
tions
▁Bec
▁42
atid
▁ASA
nai
▁carb
.6
Hu
0,
▁ACTH
▁emotional
25
▁unchanged
▁19%
ovine
▁ADH
▁tolerated
▁PT
76
▁hypox
▁progression
rogenic
pation
▁somatostatin
▁45
▁suture
▁lobe
▁recipient
▁predominantly
▁undergoing
ses
▁prolif
▁aimed
▁Lys
▁laparotomy
alsy
▁vitamin
▁pancreatic
physiologic
▁4
▁tertiary
▁maternal
▁bone
▁tissues
▁99
▁intense
▁heavi
▁concurrently
▁abdomen
▁clearance
aid
▁retrospective
ocardial
▁rated
▁pall
▁identifying
▁haemorrhage
▁potentials
▁rhy
▁circulation
▁arteries
CBF
▁muscles
7,
rolog
▁IGF
▁aspir
tein
▁allergic
reast
▁trend
▁aneurysm
▁explored
▁neutrophil
onate
▁thromboemb
▁physiological
iotensin
▁3
acement
.8
▁acute
▁0.05).
▁ey
crimin
80
▁perception
▁requi
▁hetero
tory
opamine
▁activated
▁tolerance
▁microb
IU
▁placebo
▁extracts
acted
ampl
▁aureus
▁births
▁resul
▁asthma
osomes
acental
encl
▁sampl
▁exchan
▁prospective
▁surgery
lux
▁pulp
▁adverse
KD
▁abd
fos
erad
▁inadequate
bility
▁skeletal
tage
▁normo
entric
▁surgeons
orectal
▁36
amine
▁mL
▁sedation
▁catheter
▁trauma
▁panc
atories
▁scintigraphy
▁electr
▁definitive
TNF
atient
▁initiating
▁polyp
▁severely
▁cerebrovascular
pite
ostic
▁gon
▁overl
▁substitu
1)
▁tubes
▁nec
▁3-
▁crest
▁fluorescence
ocaine
▁perin
truction
▁inadequ
▁ovari
ectomy
tially
▁inhibitors
▁Cyt
esthe
▁intestinal
▁tooth
▁diagnostic
▁inapp
▁kidne
anol
hest
▁femoral
▁practically
▁plasm
▁oxy
▁unrelated
ilic
onad
▁availability
▁fibers
MN
▁tracers
9,
▁heal
natal
▁subjected
tensive
▁35
▁diabetic
▁spati
▁elevation
menopausal
▁fatty
▁surviv
▁differing
trip
lood
asic
terol
.5
▁perme
▁antibodies
▁HS
▁Large
▁ablation
▁mutants
▁buccal
▁microv
itin
0%,
mol
▁prognosis
▁Acute
▁lipid
▁establishing
▁promoting
▁endometrial
▁Dop
▁hygi
▁Cox
▁extrac
▁ascer
amination
▁practitioners
▁indi
years
▁enhancing
▁venti
▁barrier
itoneal
▁0.0
▁heparin
▁PD
▁50
▁HPV
olute
▁fluor
▁reveals
70
▁classified
DG
kade
▁peptic
▁nursing
uterine
▁dietary
▁adjusted
abies
lusion
▁sulfate
▁pathology
ignant
▁SCH
▁21
fusion
▁rati
zation
tradiol
▁metastasis
▁incub
aemia
▁Whereas
▁cardiomyopathy
athyroid
▁adhe
phyl
vac
▁distal
▁pneumonia
monstr
▁lesions
▁anesthe
sia
▁adhesive
2)
transfer
▁smo
oracic
▁sut
▁administered
osterone
onin
▁reproducible
▁overex
RH
oplasty
oxic
▁eliminated
▁myel
▁morbidity
atrial
▁incubation
vail
▁microcirc
itr
▁glycoprotein
▁diet
▁mell
EGF
arate
ritis
aventricular
▁poorly
BK
▁RBC
▁endogenous
ejun
▁pressures
ilical
▁sple
GF
▁500
▁HM
uccessful
aturation
ylcholine
amate
▁Patients
▁Addition
gely
▁demands
▁0.2
▁repor
▁15
▁regimen
▁influenz
▁tracing
▁burden
▁occurring
▁hypot
▁RS
▁adults
osomal
2+]
▁cigaret
▁saliv
▁absorption
requ
hers
▁surge
▁traum
tile
▁lipids
▁chor
▁affinity
ercise
▁microscopy
▁concer
▁overlapping
threatening
ept
▁pneumon
▁201
▁17
▁PEG
aneously
▁venous
asting
34
▁olig
tle
▁malignant
▁behaviors
▁implic
▁neonatal
▁40
▁validity
arean
henyl
ocular
▁nodules
▁nmol
▁histologic
Ts
cessive
▁(1)
asive
oxif
▁premature
orrh
reness
roma
▁complementary
invasive
tum
▁kinase
▁struc
▁transcrip
entical
▁ET
▁therap
rosine
▁0.05)
▁Severe
▁approx
▁(7
▁thrombo
▁sten
iary
▁NB
▁outs
▁schiz
eric
entif
▁undergo
▁elimination
▁DT
▁screening
▁disability
▁systematically
▁considerably
▁healing
ologic
▁slowed
▁scre
lact
jected
▁stimulate
▁glands
▁hemorrh
▁determination
▁manifestation
▁compounds
tance
methyl
▁reproducibility
▁decreas
▁segmental
▁resting
▁anomal
ergic
orac
▁(2)
▁anticipated
▁therapy
▁assis
▁preferen
▁assessments
▁mild
ogenous
▁Doppler
▁appreciably
odynamic
reased
▁infarction
▁surgically
▁Taken
▁deterior
▁MG
▁differen
embr
▁Clinical
▁synthetic
▁arter
▁limb
▁specificity
▁retention
truc
tral
▁identif
▁unres
56
▁tibial
▁tris
▁0.01)
▁inhib
itary
▁malign
▁intram
▁withdrawn
▁endoscop
12
▁24
▁specimens
▁lis
▁adaptive
duc
▁discharge
orts
unctions
▁multivariate
▁cortex
▁PH
▁Phy
pH
▁examination
incip
▁spleen
▁accurately
▁polymorphism
▁oste
▁arthritis
ffinity
▁cutaneous
▁fibroblasts
▁MHC
▁stab
▁0
▁gland
▁localized
▁PV
▁retur
▁carc
▁drainage
▁prophylaxis
▁pneum
▁fitness
▁illness
▁hypertension
▁unex
▁severity
▁Increased
.2%)
oride
▁microgram
▁decreased
.3
▁7
▁inhibited
▁feasibility
▁spinal
rophob
▁prostatic
▁rhe
ilized
16
▁presum
▁physiology
▁complaints
filtration
itone
ineal
▁circumferen
▁(6
▁gyn
▁(10
licular
tectable
oscopy
rents
▁collec
▁discrimination
▁poisoning
▁produc
functional
olution
▁treatments
atonin
▁meals
▁PRP
▁develops
▁Additional
▁confined
2/
iable
terone
rox
▁neph
▁Tum
▁sour
labeled
▁TA
▁1.6
▁laboratories
▁peptides
ATP
▁urinary
▁habits
▁numb
.7
▁indicators
▁tissue
ochem
▁vaccines
eight
▁hypothyroidism
▁periodon
alc
▁regulation
▁evid
▁oxygen
▁ratios
▁ket
▁biop
▁muscle
▁7%
▁0.00
linked
▁sugges
▁differe
▁quanti
▁100%
▁exposure
▁physically
▁beneficial
▁LDL
atase
anine
▁18
trol
▁cadaver
amide
duced
▁cholest
helial
urther
▁Chemical
▁deficit
isqu
▁compli
armac
tagland
▁IgM
▁probe
▁lact
▁OT
▁intrav
▁soybean
▁hemodynamics
▁aortic
▁glomerular
▁investigated
▁displ
omod
▁pathogenesis
▁recurrence
▁resistant
HM
▁micros
▁suppres
▁subtype
▁sequel
▁hospitalization
iliac
▁characteris
▁intrap
ocardi
▁postnatal
▁inflammation
▁oral
▁disorders
luent
nthe
2%)
ancre
lys
▁soy
▁paraventricular
▁apop
▁overe
▁predomin
6%
▁pregnancies
▁modulates
▁nucleotide
▁suggestive
▁sequential
▁contrac
sych
helium
