▁HSV
▁inhibin
▁recessive
tation
▁thromboxane
▁10(-5)
.2
▁necrosis
▁secretory
cepti
▁demographic
-9)
geneic
▁modulation
ysm
adian
adm
▁yeast
▁Pseudomonas
▁inhibitor
ectomized
▁7.4
5)
▁hospitals
piration
▁carbohydrate
▁feeding
▁follicle
heric
olic
▁infused
ubation
▁Tumor
oprec
▁vag
▁inoculation
-8
tox
ications
▁nude
▁anxiety
3,
▁proliferative
tents
ociated
opulmonary
rated
▁knee
10
▁cytoch
▁inoculated
▁cytosolic
cellulose
▁microc
▁conditioned
▁evaluations
wes
▁ANF
omat
▁hybridization
▁mug
reatine
▁0.001),
depleted
inephrine
▁peripheral
▁natriuretic
▁molecule
▁PGF
▁proteolytic
aemic
omiting
ectom
diagnosed
▁persis
▁increasingly
▁accumulation
▁96
▁chloroquine
▁serotonin
operatively
▁11
injured
aminase
▁complications
▁apparatus
▁cohorts
▁screw
▁glomer
▁rele
▁hernia
▁facilitate
▁3.1
▁validated
▁mumol
▁carbox
.7%
▁swelling
▁tox
▁neonates
roscop
IgG
▁oxidative
▁encour
▁inflamm
▁hemorrhagic
elan
loro
▁confound
▁mitral
▁capillaries
placement
▁.00
▁correspon
▁synaptic
▁residues
/1
osin
ocamp
▁inhalation
▁adjustment
▁chains
▁homoz
▁pulses
▁necro
ylchol
▁preparations
▁0.1
▁hippocampal
▁aspiration
▁latent
modulin
olgi
pig
▁synthesized
▁phosphatase
rocy
oate
kephal
▁asymme
tural
▁TD
inely
▁PHA
▁selec
▁seas
educed
18
▁substrates
▁monoclonal
▁hCG
▁cervix
▁cGMP
▁mucosal
▁cervical
rectomy
▁Changes
▁emergency
iplin
▁accessory
▁ovary
Cu
▁IgA
tant
inositol
▁failures
▁0.
acil
▁disappearance
▁noradrenaline
itonin
activated
opes
idase
▁triglycer
▁analyses
▁uncomplicated
99
▁prophylactic
▁intrarenal
▁radiolab
tryp
azole
▁3.7
ocytes
1-2
▁inotropic
▁transfusion
ologous
90
▁5.0
▁modulate
▁inactiv
effec
▁mobility
▁phospholipase
mong
▁40%,
▁maturation
fed
▁sequenced
uptake
▁62
▁bleeding
phosphorylation
▁nal
▁progestin
AH
rophic
▁exce
opramide
▁coli
▁atmosp
molecular
▁parap
▁0.01
▁inserts
▁aggregation
▁presenting
▁diarr
rozen
▁peripher
entricular
▁nucleotides
Hg
rhy
romy
▁atherosclerosis
▁cephal
trypsin
▁Forty
ocytic
▁rabbit
▁SDS
▁ionic
▁injur
abain
▁osteoporosis
▁fold
glucose
iability
atest
▁stimulating
lycemic
▁vomiting
stim
▁pigs
▁auditory
▁congenital
▁16
tic
kinin
▁hydrox
▁norepinephrine
▁occl
▁OC
MG
ymptomatic
▁methyl
▁systolic
ocul
▁peritoneal
▁libr
▁reper
-60
▁elevated
.2%
rowth
▁gonadotropin
▁correlations
▁encouraging
▁300
divid
▁Rats
▁Prospective
▁vena
▁tiss
▁lesion
Gly
▁frozen
▁somatic
▁allogra
thymidine
▁2.5
▁interc
▁irrever
▁refractory
▁perc
▁proce
▁guidelines
▁leuk
▁difficul
▁plastic
▁FSH
oric
1),
opressin
▁exceeded
▁routinely
▁conductance
ensory
▁mechanisms
ocl
tability
▁constric
▁bronchoscopy
▁temperatures
▁Removal
▁extensor
▁injected
▁RB
Ki
▁wee
clerotic
osity
fts
▁focusing
▁bypass
▁evaluating
▁consequently
▁constr
IFN
▁AO
sies
▁Eight
▁inspection
-[
▁(+/-
▁utero
ecre
▁jejun
▁cancell
alact
▁improves
osal
▁47
ochemical
▁supra
▁facilit
▁unselected
pecific
▁UV
thmic
▁adherence
ivocal
▁promin
tries
▁immig
▁thigh
▁cerebral
▁tended
itant
▁MAb
▁hepat
▁drinking
▁proportions
▁catheters
▁pigment
0-
ensi
▁microns
▁outpatient
▁isoforms
▁dyn
▁vasodil
▁bladder
▁myocytes
▁statistically
flamm
sistent
ergy
ocrine
▁passive
▁hydrolysis
▁diminished
▁resonance
▁uter
▁85%
acrylamide
▁reac
▁monocyte
450
▁diabetes
▁autosomal
olated
-12
▁2.6
olysis
▁musc
resting
▁NP
▁recombin
▁conclu
phyloc
▁76
▁chol
▁acquire
-6)
▁discom
aryn
▁stratification
independent
▁acet
▁Recent
▁thyro
stress
thym
▁clinically
▁PB
▁GnRH
▁relating
trative
▁preval
▁VL
versus
ogens
▁VA
cine
▁atheros
kinase
▁EBV
▁rostr
▁DN
▁vacu
▁tes
essation
ospor
▁antic
▁acqui
▁facial
▁pyram
▁differed
▁reviewed
utyr
▁pelvis
yroxine
▁chest
▁positively
▁depres
▁basement
▁fibrin
▁consol
▁shunt
icient
▁pharmacokinetic
▁insufficient
▁epit
inol
▁baseline
▁expressing
▁ect
▁irradiation
▁LC
▁promising
▁cef
▁cultures
idne
thyl
▁caud
responsive
▁(18
▁reversal
athe
enicillin
▁cardiac
loride
epit
▁practic
3).
isomer
▁axillary
retion
▁behavioural
lasts
▁bovine
4-
▁retin
▁alve
▁95
▁questionnaires
▁spectroscop
▁detrimental
vul
▁solvent
▁HL
stimulating
▁circadian
toxic
roscopic
oproterenol
unctional
associated
▁femur
▁uncontrolled
▁endothelium
CoA
▁OA
hetamine
titu
▁comprehen
▁isoelectric
thyroid
▁38
▁reproduction
odiaz
tected
HIV
▁wors
▁diffuse
rection
▁isomer
/6
▁immunized
▁initiation
minal
BP
▁anticoagulation
.1
▁nonadherent
▁LVH
▁antagonists
▁peroxidase
ximal
▁decades
▁blot
▁(17
▁hemisphere
▁consis
aturated
▁conduction
▁hamsters
▁dentists
▁institutional
▁recur
▁NAD
▁slic
gluc
/100
▁hep
▁morb
▁cytometry
▁0.5
▁infiltration
▁preventive
▁insult
atients
▁15%
▁5.
▁monkeys
▁messen
▁toge
tact
▁irradiated
▁Exposure
▁oes
▁cytochrome
▁Adverse
8).
selec
▁ambulatory
▁concomitant
▁esophageal
tituted
▁heteroz
▁cataly
▁spermatozo
oxy
▁linearly
▁radioimmuno
▁bicarbonate
heximide
▁chromatin
▁8.
▁measurable
▁4.
olytic
▁(54
▁precursors
▁1.1
▁bac
ochemistry
itol
▁mann
PB
olesterol
▁stimulus
▁longitudinal
BV
▁APC
▁hemorrhage
▁brom
ynaptic
vertebral
▁cellular
▁pretreatment
otype
▁BW
oscop
omal
▁plateau
▁metastases
▁Evidence
usp
▁phenotypes
perfusion
▁PE
iosis
phil
▁blockers
orubicin
attern
▁macropha
▁immunofluores
▁benzodiaz
▁VLDL
▁concordance
ustained
ogra
▁assessing
▁microtubules
atibility
eradish
ronectin
▁vitamins
▁dys
▁VC
▁cytokines
▁glu
▁fist
▁traumatic
▁7,
▁antisera
▁calcification
▁spor
▁progen
▁testosterone
DNA
osus
iferation
icients
▁transient
▁medullary
sion
-8)
▁hemodialysis
88
epam
▁organisms
ellum
▁resear
▁pS
▁pHi
ophys
▁oxide
▁mediating
jug
▁vesic
▁sulphate
▁phag
▁exten
▁hap
dimer
▁40%
▁3.2
▁operative
▁TBI
▁murine
▁vesicle
itro
imens
▁diagnosed
▁biphasic
ostomy
micro
▁mellitus
▁cohort
▁regen
▁assessed
onset
▁polymer
▁irr
erations
▁mRNA
ylase
▁transcription
ostasis
▁leukemia
▁phenomenon
▁86
▁mammary
▁incorporation
▁PGE
yses
icardial
▁lithotrip
▁phi
▁implant
polyacrylamide
000.
ervical
▁3'
▁ana
▁vasopressin
▁steroid
erating
▁tubules
ymp
▁fetus
graftment
olus
▁cereb
▁parental
▁unstable
hion
▁Trial
oxia
▁5
onium
▁interacted
testinal
RF
▁calf
▁congen
IGF
▁subgroups
▁palli
▁regis
-3-
▁elec
▁feasible
▁estradiol
oside
▁derange
▁hypertro
▁mammalian
▁antagon
4%)
▁consistently
oes
▁measuring
▁juven
▁guan
osamine
▁PMN
▁regulating
▁lys
▁selen
erate
.9%
▁plac
▁neurop
▁epinephrine
regn
▁interstitial
hist
▁cros
▁membran
▁superficial
lyce
receptors
▁2.2
erent
▁mononuclear
▁synov
ostat
nRH
ctomy
rophenyl
▁diseases
▁pancre
tead
▁ganglia
ylate
urethral
erance
▁repl
▁diets
▁monkey
▁conclusions
▁GABA
opic
▁bacteria
▁pati
+-
weighted
▁decline
▁20%
▁anticoag
ADP
▁verteb
apeutic
▁enlarged
otomy
ameth
ulae
▁91
uginosa
▁rCBF
fib
▁muc
▁immunodef
▁centers
tin
9%
▁hypers
▁porcine
amic
▁biosynthe
▁1987
▁7.0
taining
▁catecholamine
ographs
▁intensive
▁contex
▁ips
▁7-
Ns
uron
▁galact
▁0.9
▁gallst
▁frac
sors
▁msec
▁agon
quine
▁trypsin
erine
▁angi
▁pertussis
idol
▁neurotrans
▁ech
▁2.0
▁ranged
▁intra
▁influenza
▁tumour
Gl
▁29
▁suppression
▁transplantation
blind
▁angina
gland
▁adhesions
othelial
ulmonary
▁lymphomas
respon
▁20.
▁intact
irub
▁HCMV
▁fluc
omical
sue
▁neurologic
aced
relations
▁(8
Cs
▁1.9
▁prol
carb
▁HB
▁vaccination
▁immunohist
▁membrane
▁relap
diabetic
ication
▁amin
▁Increas
▁genotype
▁Phen
NM
▁suspected
▁bronchi
▁Dopamine
▁.0
▁monit
▁0.3
▁pyl
tiv
▁proliferation
▁PKC
▁hypoxic
tial
▁subf
transferase
▁prenatal
▁myo
ministration
▁sensi
-18
▁biochemical
▁pump
oprote
▁CNS
odal
omethacin
▁ovarian
▁polypeptides
▁screened
BG
▁impaired
enhanced
Mu
▁degrad
opha
▁intrinsic
illary
cAMP
hern
LV
▁esophag
▁identifies
▁mitogenic
ields
▁staining
▁supernat
▁seroton
leu
▁uncom
▁peroxidation
▁adenosine
▁subunits
▁cumulative
▁MH
▁amn
▁alanine
▁arrhythmias
▁6-
▁140
▁envelop
▁iliac
ardia
▁detecting
▁accel
▁autoimmune
▁Surgical
▁bronchial
trop
thal
MDA
40
▁thym
▁methionine
▁defec
2318
▁displacement
▁7.
fec
▁solely
▁anomalies
▁mitochondria
▁chromosomal
▁cere
▁37
▁dilated
▁atten
tamine
0%
tif
▁0,
▁reacted
▁toxicity
▁dilatation
adrenoceptor
▁initiated
otor
▁enl
▁Contr
▁birthweight
robic
▁hams
utaneous
▁vulnerable
▁ole
▁nasal
▁exis
+)-
▁instrum
▁cesarean
veness
▁colonies
▁preoperative
13
▁pronounced
hydrox
▁dors
▁sedentary
▁synapt
eptin
saccharide
icardi
▁cyto
isol
▁maintaining
▁adhere
▁usefulness
chlor
▁preoperatively
3-
▁degraded
▁deoxy
▁splenic
▁vitro
▁isolate
▁descending
rected
▁keratin
▁SNP
▁Elec
▁pyr
▁urine
▁PET
▁1/2
▁Steady
▁autonomic
aints
▁collateral
▁pelvic
▁reversible
▁lymph
▁tobacco
▁forskolin
elec
herence
cysteine
▁dilution
▁10(
▁deform
▁insufficiency
▁DH
▁glutathione
-9,
gesia
000
lix
arous
tivity
erative
▁altered
▁thiol
▁prophyl
-450
▁survived
tained
▁PRL
▁BAL
▁symp
▁thickness
▁depression
oxin
7%
ivary
▁41
▁excessive
▁elucidate
▁chromosome
▁underg
ensitive
▁DF
▁depolar
▁unil
▁LS
▁cytoplasm
ochrome
▁MN
tase
uctose
▁ileum
▁isoform
▁beating
▁fever
▁gait
▁amyl
▁chromat
ecu
▁renal
coh
▁transcript
siveness
▁nerve
▁hematopoietic
▁attemp
▁Atropine
▁rheum
stimulated
▁muta
▁defective
▁septal
eptid
▁cytosol
▁thresholds
▁muscul
ofluores
▁Continu
▁utilized
▁dorsal
▁temporarily
approximately
romes
▁dosage
▁intrauterine
▁testis
▁irritation
▁GSH
heal
▁carotid
▁1)
▁islet
▁innerv
▁clinical
▁77
immuno
▁plasma
tional
uvant
xual
ipramine
▁transcripts
▁pharmacy
-11
▁duoden
▁125
▁adducts
▁manipulations
▁donor
▁stomach
▁solub
▁hormones
▁61
▁PCP
▁Impro
▁favourable
46
▁visc
▁fractions
adder
▁bile
▁luteal
▁ischem
▁stellate
atment
ifugation
▁calcium
adiol
dies
oplasm
osom
▁regar
▁myeloid
▁laser
▁ultrasound
▁(95%
olateral
▁mec
▁substanti
-1)
ohyd
.8%
▁dete
▁selectively
▁69
▁psychiatric
▁chromosomes
▁Incubation
▁naloxone
▁determining
66
onatal
▁ventilatory
▁GTP
coup
lytic
RNA
obarb
▁poorer
▁behavi
▁laboratory
gulation
▁thickening
▁GVHD
endorphin
▁lob
idium
▁reagents
▁cystic
▁multim
icep
▁adenoma
▁activating
8)
▁cardiomy
-6-
▁fibr
▁excre
▁enhanced
▁Certain
▁alterations
▁leakage
opausal
▁3)
▁GF
▁resis
Ia
▁astrocytes
pregn
usive
▁cigarettes
▁basolateral
▁localization
▁regurg
ediatric
iotic
▁focal
▁promo
▁filament
▁haemorrh
▁infusion
▁mAb
▁edema
lateral
▁ml
acyl
▁recordings
sibly
sian
▁reveal
▁attenu
▁technically
▁striatum
ozo
▁abortion
▁neo
2%
▁Preoperative
▁ultrasonography
▁ligands
epti
rogenase
chers
ocarcin
▁distin
-80
▁granul
▁19
▁ELISA
reactive
▁58
tak
▁dose
dial
▁postoperatively
▁instr
▁stimulation
versely
▁198
▁phosphorylated
▁cate
▁180
▁5%
▁remission
▁prolonged
trexone
▁sigma
▁phosphodies
trum
bloc
otin
ortal
▁2)
▁dismut
▁natri
▁occlusal
vival
molec
▁secreted
▁stimulated
▁accounted
▁potentiation
▁phosphatid
tetr
▁deficient
▁microsomal
▁prevalence
▁apolipoprotein
▁predic
arrhythmic
▁complic
▁2,
▁withdrawal
▁perox
▁shallow
opam
entan
▁penetration
▁cortic
▁1986
▁widespread
▁etiology
lasting
▁thrombin
▁infusions
31
vant
▁lipoprotein
▁pyruvate
oresis
udin
▁54
▁83
▁eluc
▁dehyd
▁60%
tically
5),
▁mortality
opl
▁ultim
▁findings
▁adap
▁estrogen
oretic
oluble
▁artic
▁discomfort
▁(100
▁correlates
▁63
▁eliciting
▁rheumatoid
▁endoscopic
trition
uran
▁substrate
▁anemia
tence
operoxidase
totic
illance
▁flexion
otri
▁ultrastructural
▁Nine
▁alcohol
0.5
ietic
▁competitive
▁proteoglyc
▁44
▁alcoholic
ellar
MRI
▁yr
CSF
▁retrograde
dose
▁compartments
His
▁selective
amily
▁untreated
rogen
estis
tribution
phot
▁65
▁synapses
▁10(-6)
▁construc
▁inappropriate
ece
▁epi
otides
▁46
odialysis
chemical
▁experi
wenty
▁crude
▁livers
▁nons
▁insertions
(1
-1.
▁metabolic
opi
▁proximal
▁biosynthesis
▁genetically
24
▁vasomotor
▁exclusion
▁docum
▁chemo
adrenergic
▁isolation
▁abl
▁eating
▁alleles
▁oxid
▁biliary
▁biopsy
▁margins
▁macrophages
aminergic
▁glycogen
▁tumor
▁optimum
lastic
growth
ressed
nucle
▁sepsis
▁Effec
hep
▁acetylcholine
orax
▁inh
▁limbs
ofl
▁injuries
▁sediment
tebral
▁mutant
anthine
omonas
▁ald
ancies
eal
▁cyt
pinephrine
▁clon
▁discrimin
▁resuscitation
6)
tition
▁myelin
▁spectra
▁immunos
▁enzymatic
▁pharmacological
▁infection
uscular
Leu
kelet
▁athle
▁leukocytes
▁dislocation
-6
11
▁respon
▁(197
▁phosphorylation
omatous
atible
▁ADP
alian
▁cultured
omes
▁challenges
▁rectal
ensitization
-30
venous
▁pretreated
iferol
tens
▁homogeneity
iloride
▁acids
▁microM
ifferenti
▁congestive
▁eradication
85
urium
▁dihydro
▁glucocortic
▁sciatic
▁Clin
▁consequent
▁corpus
▁exerted
▁transi
▁12-
▁follic
utroph
ulatory
▁ile
6.
immun
▁adequate
▁asymptomatic
sively
▁cats
▁quantit
▁catecholamines
▁EA
-40
▁poten
4%
▁cAMP
▁(50
▁.05)
ergency
▁ward
Dawley
▁haem
tive
▁binds
oglyc
▁prel
RD
▁lectin
▁disper
▁deterioration
▁Failure
▁intracranial
▁symme
▁reflec
▁liver
▁thymidine
olved
▁cations
density
▁EGF
▁blast
▁liposomes
▁paras
▁fracture
crib
meth
▁dial
2),
▁responding
▁molar
▁tryp
▁obese
controlled
▁disulf
▁92
▁indication
rogra
▁transmitter
otassium
VL
anyl
▁AMI
▁HN
valence
50
legia
olol
▁inward
▁PDGF
▁tomography
itamin
▁calor
▁gastro
aceous
tives
▁84
▁ipsilateral
▁pleomorphic
owever
seven
▁echocardi
ellular
uation
cein
+.
▁endometr
▁shor
▁bipolar
▁neuro
trib
amn
▁nonc
▁provocation
ultural
ighted
▁morphine
▁hydrophob
mitted
▁sympathetic
▁obstruction
▁hemodynamic
▁GA
▁resorption
▁absorb
▁(40
▁TPA
▁increas
▁SHR
▁IA
▁clinic
▁centr
▁perfused
▁2.4
urea
kers
▁nail
onography
▁inhibiting
▁spikes
▁Significant
▁(0.
assium
▁dendrites
▁shifted
▁arterial
▁anatomical
nutrition
athy
▁suicide
▁anaerobic
▁colorectal
▁cue
uated
▁circumference
▁4,
mittent
▁detectable
oplastic
▁intramuscular
▁aspec
▁SG
▁(0.5
mental
▁phagocytic
ococcal
▁polyclonal
▁additive
▁regeneration
▁Kupffer
▁excl
▁coeliac
▁oils
▁retard
▁unde
5'-
▁chewing
▁infected
▁0.25
▁deposits
▁predictor
▁87
▁stimulates
▁immunode
arginine
▁2
▁reductase
lycemia
ompan
▁pate
glyc
teroid
▁RT
▁pancreas
▁90
▁regulated
▁gallbladder
▁fibres
▁fixation
▁monomer
▁Strep
▁ventil
▁MI
▁linole
ronch
▁ventric
trac
▁macrophage
ceptive
▁gynec
erated
▁masked
mature
▁bowel
▁characterized
▁indications
▁facilitated
▁sarc
onstric
apamil
▁+/-
glutination
▁mum
▁syndrome
▁recons
▁pathological
▁PCR
▁phenylephrine
MIC
▁reflex
▁prostaglandin
▁rats
▁hemoglobin
▁newborn
razole
▁sodium
▁enhance
siology
ithi
kage
▁myocardi
▁TG
▁Neither
▁preterm
▁surf
▁organism
▁concentrate
▁anion
tryptamine
▁histopathology
osine
.0
▁Streptococcus
▁epidemi
2+.
▁hypothalamic
▁RNA
▁adequ
▁deduced
▁reactions
▁carbohydrates
ulose
▁transcriptional
▁doctors
▁bilateral
rocal
-13
▁cisplatin
▁transduction
▁malignancy
▁upstream
▁neutroph
▁uterus
▁resec
gents
▁abdominal
▁phenyl
▁verapamil
▁survivors
▁anastomotic
▁enzyme
▁phenotype
▁declined
▁monke
fected
tility
▁Findings
▁promoter
glut
ondr
▁responsiveness
▁Concomitant
▁adop
▁phosphatidyl
▁subc
icated
▁suppressed
▁thir
▁telephone
▁antagonized
ducing
▁hyperplasia
tific
roximately
terolog
▁pathways
▁attending
▁decreases
ilization
▁fati
▁olfactory
▁pene
▁tow
Glc
▁childhood
▁3,
▁normotensive
▁occupational
▁10.
odynam
pyr
▁protective
▁74
▁filtration
▁entero
▁22
▁dib
aminidase
comitant
▁adjuvant
▁protease
loid
▁collagen
1,
▁Subjec
prising
2+-
ximum
▁dehydrogenase
▁Mg
sensitive
▁paren
▁induces
▁enrol
▁intake
▁underwent
▁motility
▁atr
▁isoproterenol
▁appropriately
▁weekly
▁papill
idin
78
-19
▁embry
diastolic
▁colloid
▁coated
▁cerebellar
▁cholinergic
1-
derly
▁1.0
lysis
phosphonate
▁speculated
▁intraper
tyl
▁glycoproteins
▁agar
2+,
/2
▁82
▁monitored
▁counseling
anic
olism
▁lymphocytes
▁vein
▁viral
hydro
▁exhibits
esity
+,
pir
bacter
ologists
idation
opoly
▁glucose
▁wk
▁molecular
▁regulatory
▁undergone
oxid
▁Vmax
▁pressor
▁arteri
oxane
-2)
uresis
plication
65
fluoro
▁distinguishing
▁modality
ariate
▁5'
▁Intra
7-
▁moderately
Tc
-15
iciencies
▁supine
▁serum
▁exhibited
BH
▁BD
queous
▁fetal
▁prevented
▁contribut
▁6.5
▁examinations
▁respondents
▁particulate
▁secretion
▁anatomy
▁lethal
▁tubercul
rologic
▁sti
▁medulla
RB
▁remo
▁postmenopausal
▁inhal
▁esters
▁cava
mega
▁opioid
clusive
electro
▁Comparison
▁lacking
▁10
▁carbohyd
▁virtually
▁ascertain
▁stimuli
▁fluids
▁microscope
▁nutritional
tioned
▁95%
▁64
▁hazards
▁leuc
▁harmful
▁providers
▁activate
-14
▁intrac
siological
19
▁NGF
▁adrenal
▁Hz
▁dischar
▁bab
▁CK
mixed
▁latency
▁nig
astolic
▁dramatically
▁(19
▁IIb
osynthe
enzyme
▁establ
onit
▁conduc
▁frog
▁neutrophils
traction
▁capillary
ropriately
▁responded
▁targeted
▁questionnai
▁hypog
▁antiser
cephal
▁equilibr
▁impair
▁RF
▁undes
▁antigenic
▁Twenty
▁strepto
▁pediatric
▁VP
▁SB
SCC
▁creatinine
▁199
▁Plas
rever
atine
▁LD
▁suspicion
▁cuff
▁gastric
▁consolidation
▁diagnose
▁onc
▁shortened
urys
▁breakdown
idazole
ayers
▁gangl
▁2.3
▁dodecyl
incubation
▁discern
▁diffic
-3
▁carcinoma
ffin
onomic
▁CSF
▁deposition
54
▁streptococcal
▁enriched
▁favorable
▁inhibits
tized
▁homogen
ichia
▁weigh
▁strep
▁kinetics
▁1988
▁homogenates
▁smoking
▁throm
▁variability
-0
▁ESR
tus
identical
rested
▁noc
▁organic
▁analyzed
▁corresponded
▁progressive
▁renin
▁Swed
deple
▁cyan
▁20
oratory
▁septum
▁chemot
▁systemic
▁reperfusion
▁eosin
▁placenta
▁oligonucle
▁myof
▁adolescent
ervice
▁atm
yel
▁histopath
▁Sout
▁cancers
TK
26
▁metoclopramide
▁expend
greater
▁Immun
▁scin
teral
▁hypothe
thmatic
(2+)-
▁ethnic
▁provid
lectomy
▁ulcer
▁meaningful
uble
▁subcellular
▁brush
▁analysed
responders
▁platelets
▁peptide
▁laparo
▁characterize
ochondr
▁ACh
eptidase
▁depr
went
▁75
▁1.8
▁junctions
▁rigidity
▁allele
yrox
▁relapse
▁stren
▁micron
▁demonstrates
aldehyde
▁stric
▁coronary
directed
plic
iol
▁previ
producing
▁arginine
idney
▁multic
▁projec
▁ganglion
ivariate
olones
lobin
▁encephal
▁glut
loxacin
▁dysfunction
▁cryst
35
▁evoked
▁RP
▁NT
idis
▁virtu
▁genic
▁Experiments
effective
ifedipine
▁enhancer
selective
rague
sibility
▁donors
▁cardiovascular
luores
▁benz
▁activator
▁apprec
▁intracellular
▁describ
▁NF
tec
▁vancomycin
ensity
▁stenosis
itus
▁diagnoses
▁prazosin
▁epithelial
▁volunteers
▁implicate
▁26
▁minority
▁satis
FV
▁molec
▁mature
sized
▁anastomosis
▁glycerol
▁ribosomal
▁iso
▁scanning
▁potency
tran
▁lateral
▁competi
▁preservation
▁nicot
▁cation
angl
▁hypertrophied
▁restor
ograp
MV
olip
plas
4).
▁excluded
▁antigens
ophil
▁thymocytes
▁mutations
▁chemotactic
▁kerat
iatric
▁150
▁excit
xia
▁synerg
endri
▁wean
▁judged
▁vagal
▁0.01).
ocial
▁plasmin
▁GD
▁affec
▁Cushing
zard
▁intrag
▁GMP
▁excitation
virus
▁potenti
▁plasmids
▁symptoms
▁FS
▁dental
intestinal
osides
▁sph
▁depress
hospital
▁inducer
itic
30
zyme
trimental
▁purified
ositol
▁intervention
oblastic
aning
▁fatigue
▁elic
ometr
▁rebound
astric
▁immun
▁9
▁pylori
▁blocker
▁subunit
taken
▁endothelin
▁repaired
▁depleted
kground
sorb
ncy
imide
▁0.001).
▁fmol
▁demonstrating
▁cavity
▁unc
asone
▁constitutes
stranded
▁sequencing
tructive
acet
etween
▁infar
▁cis
amines
▁ruptured
▁interf
9-
6%)
▁nutrition
▁efficacy
olone
▁shorten
▁nucleus
lec
▁morphologic
▁arachid
-1,
Daw
opsy
▁abor
tent
▁inhibition
▁restenosis
▁2%
▁pulse
april
hydroxyp
rosis
▁labeled
osome
▁NaCl
▁incubated
▁curative
▁mast
▁pulmonary
keletal
▁recipients
GH
▁fluctu
▁defic
▁crystall
2-
▁tumors
▁melatonin
▁palliative
▁drin
oag
▁pep
▁structurally
iminary
▁conserved
▁receptors
atation
▁pig
▁contralateral
cents
trate
▁LN
▁precur
▁choline
▁CRF
▁fibrob
ocortic
▁disadvantages
ture
▁RV
lesion
▁mitochondrial
▁monolayers
1/
▁80-
▁infections
▁calmodulin
topril
1%)
▁mediated
▁cytology
▁copper
▁81
▁relaxation
▁causal
▁electroph
helin
▁inters
▁diame
▁emphasizes
▁physicians
▁asthmatic
ocarcinoma
oglobin
unting
lected
▁chlor
▁mucosa
▁immunity
▁comparable
rine
ubicin
adrenoceptors
▁Cardi
▁13
▁normalized
▁electrode
▁poin
ranged
▁cann
▁57
thel
▁0.001)
▁leukocyte
tual
▁oxygenation
▁amyloid
▁Hg
▁motone
arent
▁ane
▁subun
tro
kines
97
▁afferents
▁mmol
▁aorta
▁radiographic
gm
▁immune
▁hypoxia
▁Hear
amous
▁aort
▁strains
ctive
▁adminis
▁homogene
▁aerob
▁2.8
▁fibronectin
▁cirrh
▁fentanyl
urons
epine
oxide
phosph
▁chemotherapy
ginine
oyl
osidase
▁cyclase
▁HI
carcin
kDa
▁leukemic
▁ethanol
Kd
▁FV
plete
▁salivary
tate
▁vaccine
▁imaging
▁hypother
▁effectiveness
▁sexes
▁proteins
▁tuber
▁overlying
▁intravenous
▁plas
+]
sorption
▁morphological
▁Intravenous
▁spi
mobil
orphin
▁EG
alues
▁tumours
▁CAM
▁parie
generation
▁1,25
eptides
▁79%
▁antib
ranial
▁digestion
▁limiting
uary
opolysaccharide
odic
▁balloon
▁(16
▁seizures
6-
▁amyloidosis
▁receptor
tention
ophilic
▁substantially
5).
bac
otoxic
▁messenger
▁HPLC
▁overexpression
▁Thromb
▁luminal
▁alteration
acylglycerol
ogenes
echn
▁lith
▁4)
▁amplification
▁disorder
acer
▁detergent
olecular
▁weakly
iably
▁preceded
▁IgG
▁elderly
▁predicting
▁astrocy
▁neoplastic
usions
NAc
▁HCC
▁pregnancy
▁therapeutic
▁patches
diol
▁direc
ateral
▁substituted
BM
▁rationale
0)
treatment
▁statis
▁corneal
tomy
▁affecting
ylation
ociation
▁MCP
▁[14
PV
▁insulin
rous
▁Systolic
▁microscop
▁200
▁enzym
▁pyro
▁cen
ygo
▁acyl
▁mutagenesis
HF
▁Sprague
▁70%
▁antibody
▁cytokine
▁surveillance
▁viability
atical
opath
▁labelling
▁impairment
▁permeability
▁improving
▁distinctly
aryngeal
trous
▁dissociated
ifferen
▁healthy
▁challen
genesis
▁labelled
▁clones
▁inflammatory
▁parame
atectomy
matic
▁lamin
▁naltrexone
oclonal
▁antibiotic
▁lymphocyte
idity
▁plates
ureth
aminob
▁colonization
bladder
rates
risk
81
▁intermedi
▁GV
▁connective
insulin
▁neuron
▁molecules
ovascular
▁horiz
▁polyethylene
▁retinal
▁adhesion
ontal
▁HBV
▁recombinant
tub
▁psychological
ocompatibility
▁conservative
▁carriers
▁cytoplasmic
▁mono
▁(3
▁atrial
44
▁epileptic
lox
▁affinities
▁genome
NH
▁Muc
▁clamp
anavalin
IgM
omyel
benz
▁silic
▁susceptibility
olamine
cad
57
▁predominant
▁titers
▁TNF
▁topical
iated
ethyl
▁5-
iatum
▁cardiopulmonary
▁kDa
resist
phosphamide
Ra
▁cocaine
omers
amet
▁vulnerability
forming
urin
ithelial
irubin
▁bonds
bumin
▁(30
▁addi
▁Overall
▁wound
athione
moid
relevant
▁WHO
entanyl
▁KCl
▁admission
▁hyperg
▁phosph
▁cirrhotic
▁monol
▁axon
▁Salmonella
▁analys
▁lyso
▁genetic
▁triti
ylated
▁CABG
fron
▁prevalent
▁discus
ropriate
amus
▁currents
▁mV
ymptom
siologic
ffer
ulant
▁Pretreatment
atell
▁neon
▁vascular
▁30
arbox
▁isch
▁succin
lective
▁PG
ulph
▁optic
piratory
▁abolished
▁abolishes
▁macrom
BW
▁colony
▁3.3
▁1.5
▁75%
andard
▁consensus
▁TC
opathy
▁rehabilitation
▁(4)
7)
▁31
▁linkages
▁IFN
ucle
▁cardi
▁phosphor
▁synthesis
tively
3)
▁hepatitis
▁comprehensive
sus
▁infect
▁paradig
ophageal
▁cholestasis
▁angiotensin
ronchial
obl
▁carbachol
tructural
▁fractional
▁diges
▁reactivation
VR
▁tear
▁neurones
▁calcitonin
tors
arrhy
.4
galact
▁intravenously
▁2.9
▁adduc
▁cytotoxic
tiz
ignificant
▁HLA
.9
odgkin
▁thymus
▁striatal
▁reactivity
▁Evid
▁phospho
clamp
▁anae
tative
▁biom
▁infil
▁12
▁suspension
-2.
▁ewes
▁contamin
receptor
▁70
▁gly
rehen
▁1.7
▁Cd
▁radiotherapy
▁graft
▁compe
exis
▁halothane
▁FEV
centr
gments
▁induce
▁heavier
uretic
▁3.6
▁27
▁BALB
geal
▁targe
▁immunore
ropha
▁drugs
▁dex
▁selectivity
27
thle
▁physician
▁60
jec
yste
positive
▁AIDS
▁mening
PSP
▁chond
ithms
▁BM
▁intercostal
▁differentially
▁periodontal
▁estimating
▁herpes
▁hepatocytes
5%
▁postsynaptic
▁diabe
▁phe
▁spectro
▁arrhy
othane
▁tas
trogen
ipine
32
▁epid
▁mothers
▁spine
▁ration
Hb
▁angioplasty
bearing
▁Throm
▁staging
▁0.01),
▁yiel
LISA
▁reactive
chol
bular
▁graded
RP
▁fulf
coated
containing
▁frontal
ipr
▁recombination
▁trough
-1
▁cholecystectomy
ulum
inated
▁infarct
▁muscarinic
▁pacing
icine
▁thrombolysis
▁ovulation
▁defects
▁anastom
-2-
▁glycine
▁endoc
▁decarbox
▁osmotic
onol
69
-2,
▁Staphylococcus
bic
▁axons
▁immunoreactive
▁synap
usal
oplas
▁hybrid
▁superoxide
▁eosinophilic
oice
semin
▁canine
▁CMV
▁atresia
acchar
ycin
▁immobil
▁basal
apse
▁pineal
▁reasonably
tabl
bral
erable
▁medication
Ds
graft
▁chec
▁sequelae
8-
▁0.8
▁colonic
wk
eptide
▁vivo
Cer
▁synthetase
▁purification
acrine
▁transfected
▁visually
▁underst
▁600
▁1-
▁0.05),
▁1.
adherent
▁ketamine
▁bp
▁Considering
▁stain
seud
▁affects
▁horm
▁prednisone
▁heterogeneity
▁6.
▁psychosocial
▁monocytes
▁restric
▁endoscopy
otroph
bacco
29
▁Tran
-10
▁ery
ophren
ostal
▁CRP
▁canc
versity
▁Vac
infected
▁VE
uded
▁bolus
▁adenine
▁adolescents
▁substitutions
▁CGRP
▁perfor
▁reflecting
▁melan
▁8
posure
▁exposures
▁thal
▁chromatography
rele
▁ouabain
▁0.05
▁HR
▁umb
ialysis
▁toxin
▁replic
▁electrophoresis
▁evac
▁aerobic
4,
oreactive
▁accumulated
▁33
thase
tussis
astatic
-9
▁erythrocy
▁MRI
▁terminals
▁51
▁satur
ventricular
▁Samples
▁protoc
▁gluten
▁GM
anav
▁implicated
▁chemically
▁autoradi
▁lipoproteins
▁recr
▁behavioral
responding
2,
▁recurrent
ailure
8%
▁compliance
▁PF
▁Hb
enin
3%
▁tubular
uppres
▁radioactivity
14
▁supplemented
▁0.4
scherichia
▁autologous
▁benign
omerular
▁1%
▁reconstruction
thre
▁93
illus
▁postoperative
▁cerv
▁guinea
▁nitro
▁clus
▁prospectively
▁Fc
▁eryth
avage
55
▁aden
▁kidney
▁GI
▁symptom
▁hazard
ituitary
▁controversial
acetic
keto
▁lamb
ygous
▁bloc
▁ure
fat
tric
▁oligo
▁sperm
▁80%
overed
oderm
▁nerves
restric
derived
▁FT
onor
▁discon
emak
▁phospholipids
▁epilep
▁melanoma
▁metast
▁compartment
▁synergistic
▁artery
ropathy
▁pituitary
▁buc
▁torsion
▁oocytes
pinal
enzymatic
▁hydroly
▁calves
▁kidneys
▁algor
▁muscular
▁afferent
sis
▁advances
▁precipit
▁supernatant
5-
2+
accharide
▁leukotri
hydroxylase
▁embryos
tabol
▁gallstones
platin
dimethyl
▁electroly
▁surveys
produc
▁1.4
▁agonist
▁linoleic
otox
▁insertion
▁assessment
▁sensitivity
▁immuno
▁-2
esic
enol
▁hormone
▁advan
liters
erin
▁spont
▁recor
eak
amycin
▁quantitative
vely
75
-5
rein
gative
▁1
eroxide
▁microvascular
▁transplant
lobulin
▁interfere
▁lumbar
▁gestation
▁hydrogen
absorption
▁immunobl
▁tol
▁Engl
ipher
sions
▁PSA
FN
▁dosing
▁metastatic
phasic
▁membranes
36
▁SLE
▁sphincter
22
▁crystal
▁inhibitory
▁splic
▁tidal
▁cysteine
TPA
amel
PAP
▁desm
▁follicular
▁attrib
anding
▁suppor
▁progres
▁ventricle
▁SEM
▁chick
▁somat
mentation
▁minimally
▁iod
globulin
orable
▁rigorous
79
▁survival
▁hig
▁tymp
▁profound
▁prostagland
▁Mn
▁referral
icide
ocyte
ulates
▁rejection
6,
enh
MH
▁supple
physiological
orbol
▁epidemic
▁intraoperative
▁conceptual
▁codon
▁schizophrenia
echan
▁hippocamp
▁Leu
asal
phadex
▁cyclic
▁Previous
▁bic
▁investigating
▁amines
▁Phe
▁pregn
otre
urine
▁splen
▁menopausal
▁viruses
0%)
vents
▁connec
▁Serum
yroid
▁(5
▁granular
gic
▁qualit
▁analogue
▁CFU
▁BS
immune
▁cytotox
partate
ivation
▁putative
degree
▁atri
▁preven
ograms
▁acidosis
▁deficiencies
tumor
0.
plied
▁consecu
▁interrup
▁contributes
roxim
sectional
OA
▁GH
▁isolates
▁59
ternational
tally
▁pathway
obal
▁197
▁portions
▁infants
trast
ogenic
▁arti
▁4.2
▁surgical
ropine
▁cryp
▁wash
genic
▁400
alp
mend
▁HC
cholesterol
▁30-
▁ppm
▁55
ilibr
▁kappa
rospinal
▁amput
illin
phrine
▁ae
▁deple
cture
▁Chronic
▁comparisons
▁sham
▁antagonist
ching
tidine
ochemically
educ
oceptor
▁illus
lep
rati
▁mg
ffeine
implantation
▁cure
plasia
▁diastolic
▁exhibit
ioid
5,
regulated
▁gains
actin
▁dissec
▁broader
▁kinetic
tering
▁saturation
▁78
▁coronal
▁practition
▁lambs
▁meth
▁onset
clinical
▁25
▁effector
Nase
▁98
▁chori
▁hepar
7.
7%)
▁(2
▁ejection
diagn
uric
▁potassium
▁trials
clin
tration
ducts
ygen
hyp
vated
▁thromboembolic
▁sustained
mia
▁packing
terase
▁PI
▁immunization
roup
erence
gmental
▁abuse
▁carrier
▁stroma
onucle
▁30%
toc
▁surround
▁Staphyloc
00
▁TCR
▁standardized
▁juvenile
▁citrate
▁preliminary
▁trophob
iciency
▁ATPase
▁sustain
▁2.7
▁Tc
▁plexus
gth
▁respec
▁88
▁HTLV
▁epithelium
▁contral
▁MT
quid
sial
▁Plasma
▁polymorph
▁nervous
▁reticular
tages
angi
ecyl
▁junction
ercul
▁Accordingly
▁electrical
transformed
▁ultras
▁kb
▁coexistence
▁corne
▁techniqu
▁dopamine
▁metabolite
▁kine
elves
▁supplementation
erox
ophag
erally
▁56
▁epitopes
▁5)
grees
glutinin
▁caution
▁justified
▁geriatric
▁medial
operative
duce
48
▁67
▁mice
ials
▁fibre
lead
stant
▁unre
tical
▁bacter
phosphon
▁ongoing
▁assays
▁residue
▁VO
▁synovial
▁fractures
▁sensory
▁uptake
▁NPC
▁neurob
CAM
▁resected
NK
▁awareness
▁metabolism
tocin
tection
-20
ipient
▁detec
ditions
▁micrograms
▁GFR
▁tetr
tensin
ivered
evoked
▁migrated
▁adenocarcinoma
seal
▁granulocyte
▁pathogen
idine
▁degradation
▁organs
▁moiety
▁unilateral
ocar
▁0.6
▁TGF
acr
▁decisions
▁cues
▁embryo
▁rostral
▁enti
▁HDL
▁hydroxyl
▁Bone
namic
adrenaline
▁sclerosis
osocial
▁MV
▁depressed
renal
▁sial
▁reproductive
acting
cyclic
▁2.
▁plasmid
▁astro
▁excision
▁HA
urgical
▁hypertrophy
dle
▁Compared
▁110
▁hipp
sive
▁preparation
▁circulating
▁embryonic
FGF
operated
▁amo
ostatic
aline
stolic
▁phy
amyl
ocusing
▁28
▁presynaptic
▁reliably
▁acad
▁turnover
▁aqueous
/10
▁prono
ascular
▁mandibular
37
hydroxy
▁gaps
mediated
▁apex
▁90%
▁Kd
▁anaesthe
orative
arly
▁perone
sor
▁obesity
▁cyclosporine
▁catalytic
▁socio
▁attenuated
iciently
acts
minis
▁posi
▁NADH
▁precursor
▁moderate
affected
phenyl
▁enzymes
▁controlling
thrombin
▁disrup
otent
▁aor
▁0.03
▁rabbits
-4)
VT
▁prevention
▁utilization
▁gradients
▁Triton
▁carcin
▁monophosphate
▁airway
▁mixtures
illic
▁fluores
▁predictive
▁substances
antial
nitro
▁exacerb
▁CCK
▁resour
▁heterogeneous
▁physici
▁translocation
▁ubiqu
▁Experim
ranolol
EA
▁nurse
▁bacterial
▁employing
▁epsilon
tinu
▁neurological
▁contraction
▁radiological
▁myocardial
▁concentrations
assi
WL
▁reproduc
▁examined
▁abnormal
▁biological
▁ischemia
▁vasoconstric
▁occlusion
▁participate
oprotein
▁mmHg
▁nitrogen
venth
atab
▁electrodes
ustif
mur
radi
▁phage
oblasts
▁creatine
▁manu
▁corticos
▁aneurys
▁reag
▁stimul
▁inhibit
▁workload
▁amino
sA
▁irradi
▁intermittent
▁dele
electric
▁isop
ureus
▁immunological
0,000
▁satisfactory
▁hepatic
orepinephrine
otide
aginal
▁yielded
ceptual
titis
▁(0.1
0.0
▁10-
maximal
▁immature
planted
▁HP
▁interleukin
▁perip
(+)-
urane
tured
▁synchronous
▁shif
▁ethyl
▁hypotension
rological
otypic
facial
▁functionally
▁acetate
▁inherent
-5)
▁cholesterol
▁catechol
▁73
oung
23
▁suppressor
unts
immunoreactive
▁pancreatitis
istically
▁68
vae
▁unaffected
▁testicular
istar
herent
orec
▁pathologically
▁cruc
igaret
▁sero
▁39
▁pharm
▁intraven
tality
▁allogeneic
▁causative
▁inversely
▁predicts
▁80
▁spon
trated
▁subjec
itrate
etitive
pendent
▁adoles
▁abilities
patient
▁HIV
▁persisted
-7
▁(24
chloro
▁rup
glycerol
brain
▁angiography
▁standardi
▁neurons
▁lysosomal
▁strom
▁cortisol
echanical
/3
eliac
ortic
▁ocul
▁cochlear
▁spike
)2
kely
HB
phosphate
▁continuously
ographically
▁virul
▁geniculate
chloride
nec
phragm
otropic
67
AIDS
apeu
▁thereafter
▁smokers
ophils
occi
▁20-
oradi
▁hypothalamus
▁lumb
▁newborns
renaline
▁modest
sess
▁undertaken
▁Biochem
▁paralle
veolar
mig
oxygen
▁chel
▁mM
▁postulated
▁discontinued
olarization
▁Biol
azol
▁mutation
▁chronically
orption
arge
▁lesser
▁injec
▁VIP
GD
ogenetic
▁xen
▁hyperp
peptide
bly
▁NH
▁palp
▁progn
lastoma
▁3.5
▁breathing
▁strips
▁polyacrylamide
▁thyroid
▁RIA
activation
▁toxic
usate
titial
8.
▁pregnant
astom
▁thyroidectomy
▁cartilage
▁abundant
▁homologous
vascular
▁acceptor
TG
▁5,
▁inpatient
▁exercised
omotor
▁incorporated
▁degeneration
▁heme
▁saturated
▁fertil
▁fructose
tice
▁effec
▁microsomes
orpor
▁Surgery
otherapy
otoxin
▁monolayer
▁irrit
rae
▁wheat
▁randomized
▁disruption
plastic
ionine
onuclear
▁1,
▁glucagon
▁determinants
▁4.5
puts
ocele
▁ventricular
dominal
umulative
ifferentiated
▁reductions
▁ischemic
▁(0
▁infec
▁tau
▁investigations
.6%
▁grafts
hemical
▁Thirty
olenic
▁bradykinin
▁inactive
tures
▁1:
▁intestine
▁aggregates
84
▁amph
titution
▁chamb
▁enhancement
▁promoters
▁implantation
▁(5-
▁mamm
▁antiserum
28
tracellular
teroids
▁(1
▁endocrine
▁reas
duction
▁injections
▁differentiation
▁paired
onyl
▁50%
oidal
▁COS
tig
▁diagnosis
▁cognitive
▁adenocarcin
ococci
deficient
diabe
▁rotational
▁carboxyl
▁RNAs
▁ventilation
ivoc
▁endarterectomy
▁hydrophobic
▁captopril
▁sulf
ilep
▁11,
teric
▁TK
▁respiratory
9)
▁seiz
▁vesicles
ocin
▁dramatic
2.
▁erythrocytes
▁continuing
achid
▁Tes
▁emerg
▁prostate
odies
▁tach
▁49
toxin
▁antibiotics
▁quantitatively
▁extracellular
▁myc
▁symptomatic
otyp
heum
ymme
▁cathe
▁zinc
ritin
▁plaque
eration
▁10(-7)
▁AI
coun
▁adrenergic
▁diluted
▁morphology
▁plantar
sequent
timal
▁Kup
▁metabolites
▁ammon
▁regulate
▁comparative
▁hippocampus
heres
▁PAS
▁surgeon
ffinities
mL
gesterone
▁influx
▁cys
▁brady
▁percutaneous
▁multiv
organic
▁cyclo
▁thi
▁Patient
▁grading
▁antec
▁Dil
▁idi
ceptions
entral
▁contractile
iatic
median
▁(11
▁(9
▁sequentially
phic
tension
adex
ilateral
cele
▁cyst
▁progesterone
iant
▁8%
▁socioeconomic
▁topographic
1.
ration
occus
amethasone
▁conducting
▁projections
▁cDNA
▁systematic
53
feren
▁deficits
▁(4
▁insurance
▁viable
illation
oic
spective
▁actin
▁strain
▁encodes
▁Escherichia
▁strategies
▁120
▁laminin
▁LF
▁2-
▁indomethacin
omies
▁mitotic
matched
▁gluc
▁influences
▁analges
▁underestimated
uccess
2).
economic
enic
tiazem
▁12,
▁6,
CMV
▁keratinocytes
▁neurom
sities
▁rhythm
▁coag
▁4-
▁lavage
▁LH
▁cleavage
▁fluorescent
▁disturbances
▁deter
athetic
1).
gans
▁lymphoma
▁drops
induced
adequ
▁gradi
ecal
obarbital
olipid
ypical
▁thoracic
▁drain
umerous
(2+
resistant
ulin
▁analogs
-3,
▁theophylline
▁streptococci
uvate
▁arth
▁Protein
▁atropine
▁polymerase
ergen
▁immunosuppres
▁physiologic
either
▁dexamethasone
▁dissection
Ps
▁tachycardia
ticular
▁66
▁NADP
▁tRNA
▁achie
▁collagenase
▁mediators
arbonate
turally
▁babies
▁pH
▁precedes
carinic
8+
▁Americ
▁underlie
▁chloride
oxidation
regulation
kephalin
▁0.7
▁syndromes
%),
▁phosphate
▁(198
▁beha
eces
▁elu
▁contaminated
▁athletes
onary
▁versa
▁DG
▁tryptophan
▁responsive
xate
▁depressive
▁homogeneous
▁complemented
▁adenomas
▁hemo
▁endothelial
▁3%
▁soluble
▁elong
▁extre
uncture
▁PEEP
romed
▁adipose
▁endot
ullary
▁seventh
▁adi
▁immunoprec
▁degen
▁chl
▁3.0
gene
▁examin
▁substance
21
semb
▁sedimentation
▁detachment
-5-
▁excreted
assay
▁quin
▁100
▁bip
▁kcal
▁TRH
▁NMDA
▁deficiency
tur
▁migraine
▁nM
▁outcomes
▁enrolled
ubiqu
▁32%
cutaneous
▁sinus
inic
▁acco
crip
▁treating
▁complexes
▁densities
▁assay
▁metabol
otropin
▁spontaneous
60
▁intest
xone
8,
▁ventral
-7)
estern
▁deaths
ameter
▁granule
▁glutamate
▁vaginal
ucose
▁eosinophil
▁financ
▁pathologic
▁circumferential
▁gonad
lated
▁nuclei
spectively
sy
▁motif
▁LV
▁Measure
yro
▁retina
inj
ffec
plantation
▁incidence
▁tracer
▁32
osyl
cardi
▁granulosa
entary
▁gamma
▁3.
▁predictors
▁89
▁mediates
▁[3
▁Fifty
▁perinatal
arcoma
▁vaccin
20
▁microbiological
▁comprised
odg
▁nicotine
▁APD
▁silicone
thmias
▁EEG
▁resection
mide
▁24-
▁adren
▁correlated
▁Calc
▁agonists
▁potentiated
▁RI
contrast
ignific
▁hypothyroid
▁chan
▁caro
▁anat
ofol
▁deprivation
▁PP
▁pigmented
▁opi
▁athe
▁genes
orin
tics
Ala
▁discre
▁Inte
▁pyramidal
uminal
vices
▁ECG
▁thems
▁doses
ynthe
▁suppressing
▁platelet
15
▁abnormalities
▁34
icin
▁Inhib
epithelial
▁hygiene
▁Comparisons
▁Insulin
onuclease
transplantation
-1-
▁ACE
▁microm
Tyr
olipoprotein
▁augmented
▁adip
▁clonidine
▁21-
agic
▁meal
▁arom
▁coval
Phe
▁bronch
▁excretion
4)
ocon
dihydroxy
▁simultaneous
▁trigg
▁carcinogens
▁Differen
iper
▁balanced
umulation
luded
▁unsuccessful
ococcus
lycerol
▁paradigm
+/
▁stom
▁ori
▁79
amino
▁suscepti
Tn
idated
▁residual
▁endemic
▁preferentially
▁desensitization
ithin
occal
▁leucine
tophan
hea
terminal
lym
▁cows
▁uncommon
▁presumably
▁marrow
▁aging
▁cited
▁glyc
orphic
▁identi
▁blockade
▁encoun
▁histological
▁saline
▁thrombosis
ologically
▁anatomic
dition
▁concom
▁progressively
▁adequately
▁professionals
▁anesthetized
▁mutagen
▁ureth
▁pter
ingle
▁multicenter
▁fibrinogen
luding
▁unm
▁reagent
▁cytos
▁23
▁adrenaline
omycin
▁autop
atheter
▁biopsies
▁LT
▁10(5)
▁discontinu
monary
roin
till
aptic
otone
▁subcutaneous
othel
▁prednis
▁3.4
▁regimens
cyst
17
▁thromb
,000
birth
stro
▁transloc
▁reduc
▁complication
▁BP
▁inver
▁incom
▁196
fused
▁urea
especially
▁mRNAs
urc
▁fiber
▁risks
idate
▁radiography
ycl
labelled
-2
-4
▁catab
ressing
500
▁Afric
ylic
otting
oplasmic
5.
tivities
mg
▁commerc
ressive
▁induc
▁thorac
aired
▁TB
▁alveolar
▁dimer
▁objec
acerb
clerosis
▁interventions
▁RH
anuary
▁empirical
▁(12
▁hormonal
▁coex
▁amputation
▁umbilical
▁indicative
▁lysine
▁differentiate
▁shar
▁fetuses
reported
imination
▁stret
eled
ogenesis
▁raises
▁HeLa
tivation
tingu
rangement
:1
ensitivity
ipitation
▁Golgi
ostatin
opa
43
▁14
thma
inemia
sts
▁endarte
▁valve
mented
rease
▁endotoxin
▁transforming
▁coel
▁AMP
▁lipase
▁synthe
▁interv
▁potent
▁therapies
▁histamine
▁DS
▁supplement
odium
▁unexpl
-67
▁duct
▁multifactorial
embrane
chymal
oactive
▁hypertensive
rophy
▁dye
▁perfusion
ophy
▁hydroxylase
▁-0.
▁exon
▁calcified
▁chronic
acin
ocellular
.4%
ayed
▁invasive
▁locus
▁CM
▁8-
▁lamina
▁TT
▁scans
▁desirable
▁cerebellum
▁neuronal
▁EDTA
ulitis
▁experim
▁markedly
▁PCO
lymph
▁instability
anin
ocrit
phosphor
adily
▁centrifugation
ocyt
▁linkage
▁dopaminergic
▁(20
itance
ucine
4.
hydrop
▁awa
▁baro
IIIa
essive
unar
▁parotid
lycer
.3%
▁polypeptide
▁ascertained
▁compound
▁Ket
lyc
urgery
▁compressed
▁abnormality
▁trache
sulf
▁Radi
▁irreversible
▁FH
▁(13
▁undetectable
▁hind
ithm
teine
▁hypo
▁cortical
oglobulin
▁radiolabeled
▁quantified
▁sucrose
oscopic
▁prognostic
▁6
▁hospitalized
▁electrocardi
▁dextran
▁epiderm
▁neoplasm
▁250
▁elicited
▁magnesium
▁diversity
▁overweight
▁minimize
▁depolarization
mediately
▁familial
▁involvement
▁(15
▁developmental
▁followup
▁retic
emic
▁lowering
embran
▁differs
trover
▁brains
subunit
▁(14
▁atrophy
mitter
-50
cells
▁chloro
vation
▁placental
▁needle
▁possi
▁glial
▁prolactin
ults
▁cytotoxicity
ficial
▁exogenous
hydr
myc
▁ultra
▁manifestations
▁phospholip
▁3.8
ardless
▁hamster
▁Cells
▁structural
hyde
▁aggres
thanol
▁resusc
▁nm
▁pharmac
mTc
▁mineral
feron
▁tracheal
hyd
operox
ensities
oA
urate
▁genotypes
opathological
▁clinics
kinje
▁48
adren
▁subtypes
atched
treated
ylamide
ploy
romycin
▁oxidase
iasis
▁reflux
▁likelihood
▁researchers
▁85
opulation
▁coeff
aluation
▁ALT
▁theore
▁Treatment
▁heterogene
▁4.1
▁hypothal
▁deformity
ximide
▁alcoh
▁functioning
omized
▁tamoxifen
▁debr
LH
ectin
atoid
▁gastrin
ucleation
▁6%
▁94
▁tric
cence
▁antigen
▁differentiated
▁microscopic
▁extraction
▁mitochondr
itoneum
were
▁lens
▁lec
▁implications
osts
ipolar
▁CEA
▁parasite
▁headache
DH
1%
▁97
▁albumin
atitis
▁stu
▁nurses
▁exert
▁blin
49
▁decreasing
▁labeling
▁hydroxy
jun
ially
arb
riched
▁cG
tions
▁lute
▁Bec
▁42
atid
▁ASA
▁lumen
nai
▁MEP
ropo
▁carb
clonal
nine
.6
Hu
0,
▁ACTH
4+
hepatic
▁emotional
25
▁unchanged
▁19%
aminop
ovine
▁carcinomas
▁ADH
▁tolerated
▁PT
▁palsy
76
▁hypox
▁progression
rogenic
pation
▁transplanted
opathic
▁somatostatin
▁45
▁electrophoretic
▁modulated
▁suture
▁lobe
▁recipient
▁enteral
▁predominantly
▁undergoing
ses
iron
▁physi
▁prolif
▁diarrhea
tiveness
▁ineffective
▁aimed
▁transpor
▁Lys
▁fluoride
▁preferences
hap
▁laparotomy
uoden
▁spermatozoa
alsy
▁excitatory
▁1.2
▁vitamin
▁pancreatic
physiologic
cyt
▁4
arity
▁beats
▁tertiary
LDL
▁axonal
▁maternal
▁bone
▁tissues
▁analogues
▁10,
▁99
rotic
▁lysis
▁intense
rometry
▁heavi
▁concurrently
▁NADPH
▁perfusate
▁abdomen
▁mediation
▁clearance
aid
ochle
▁mammography
ocardial
▁retrospective
▁rated
▁pall
alanine
▁identifying
▁haemorrhage
▁potentials
▁spontaneously
lyl
ocyan
affec
▁immunoglobulin
5,000
▁rhy
▁circulation
▁arteries
inesterase
CBF
oconstric
▁efflux
▁muscles
▁susceptible
ecan
fine
7,
rolog
▁slices
▁adjustments
▁laparoscopy
▁stained
▁pmol
▁IGF
▁aspir
tein
▁oligos
▁allergic
reast
ropyl
erican
▁trend
▁glycos
▁typh
▁aneurysm
▁autoanti
▁explored
▁neutrophil
onate
▁thromboemb
▁spectroscopy
▁Contrary
▁acyclovir
▁physiological
▁tuberculosis
▁NMR
ogenicity
▁plasminogen
iotensin
▁tendency
▁3
▁determinant
acement
tetra
▁ultrason
.8
▁barriers
▁acute
▁0.04
▁kD
▁0.05).
ometh
accharides
▁ey
crimin
80
▁perception
▁TP
▁requi
respective
▁hetero
glutin
▁AE
tory
opamine
▁arachidonic
▁mim
▁activated
▁preventing
▁corticosterone
▁epidermal
ylephrine
▁tolerance
▁anesthesia
-17
chym
▁microb
loon
IU
▁placebo
▁extracts
▁pulmon
▁Wistar
acted
ampl
▁aureus
▁births
▁resul
▁unlabeled
▁tachyc
inergic
▁asthma
▁histidine
osomes
▁15-
acental
encl
▁nonspecific
▁sampl
▁exchan
▁streptoc
▁prospective
▁surgery
anish
lux
▁hepatocellular
▁pulp
acid
▁adverse
KD
▁abd
▁aldosterone
deoxy
▁killer
.5%
fos
erad
▁inadequate
▁Histologic
bility
▁lungs
▁skeletal
brom
tage
▁peaks
▁DSM
▁normo
▁alkaline
entric
▁surgeons
bred
orectal
▁5'-
▁mucos
▁36
amine
▁melanomas
▁mL
timulation
▁sedation
▁catheter
▁trauma
▁10(6)
▁panc
▁unexplained
atories
▁pharmacokine
▁mandatory
▁scintigraphy
▁electr
▁shifts
▁ulc
▁definitive
▁episodic
TNF
atient
▁initiating
▁foci
▁polyp
▁3'-
istal
▁severely
▁cerebrovascular
pite
ostic
▁insuff
▁subtraction
▁inactivated
▁lowered
1/2
▁Pregn
-4-
▁gon
enteric
▁orally
▁overl
▁substitu
1)
▁diaz
▁epitope
▁tubes
▁gestational
▁homology
▁CTL
▁nec
▁3-
▁crest
▁fluorescence
▁VD
▁sarcoma
ocaine
▁perin
truction
omatic
▁(10(
▁inadequ
▁ovari
▁catheterization
▁10(-8)
ectomy
▁papillary
▁dendritic
trus
tially
▁fibroblast
▁inhibitors
▁Cyt
esthe
▁hapl
▁intestinal
▁antitumor
▁tooth
▁diagnostic
▁inapp
▁kidne
anol
▁caffeine
hest
▁femoral
▁practically
▁plasm
▁oxy
dehyde
]-
▁steroids
▁unrelated
▁0.000
ilic
onad
▁availability
▁eluted
▁fibers
MN
▁1.3
▁tracers
orbent
9,
▁glutamine
▁heal
▁filaments
▁reconstituted
natal
▁elast
▁subjected
tensive
▁35
▁implanted
▁diabetic
▁spati
▁elevation
▁aspirin
ifed
menopausal
KA
▁fatty
▁surviv
▁differing
trip
rocytes
anking
▁loci
▁LPS
3.
lood
▁sickness
asic
terol
.5
▁perme
▁antibodies
▁0.001
▁HS
▁chicken
unced
▁fibrosis
▁infectious
▁neoplasms
▁disulfide
illaries
etan
oxone
▁polyps
▁IVF
▁Large
▁ablation
▁mutants
▁buccal
ophylline
▁microv
▁envelope
▁MAP
▁wt
ectable
itin
0%,
mol
tracted
▁prognosis
▁Acute
▁glomerul
▁lipid
rone
▁deletion
▁establishing
macropha
▁promoting
▁achievement
erents
▁endometrial
odil
▁Dop
▁hygi
▁dissociation
▁Cox
3%)
▁implants
▁extrac
▁oxidation
▁ascer
amination
▁practitioners
▁indi
years
▁spind
▁casein
▁enhancing
▁venti
ithiasis
lasses
▁barrier
itoneal
▁0.0
toph
ocor
▁heparin
▁PD
rants
▁50
▁HPV
▁cyclospor
opoietic
olute
▁deliveries
▁fluor
▁plex
▁reveals
▁2.1
70
▁tyrosine
▁syngeneic
▁transmembrane
▁classified
DG
kade
▁interferon
▁peptic
renol
▁oxytocin
Ka
▁immunomod
▁genomic
▁disparity
▁4%
▁nursing
▁dendri
uterine
▁dietary
▁Meas
▁suspic
motic
▁adjusted
igible
▁intraperitoneal
abies
lusion
phthal
▁sulfate
▁conformational
▁pathology
▁forsk
ignant
▁SCH
▁21
▁Eff
▁innervation
fusion
▁rati
zation
uclear
▁respiration
econd
tradiol
▁metastasis
▁incub
aemia
▁Whereas
▁aeruginosa
▁cardiomyopathy
▁allevi
▁endoplasmic
oxygenase
athyroid
▁adhe
phyl
vac
▁distal
▁pneumonia
▁acin
monstr
▁placent
▁utilizing
▁lesions
▁esophagitis
releasing
▁anesthe
▁Glu
sia
▁adhesive
2)
transfer
▁smo
oracic
linking
▁sut
▁administered
osterone
onin
-3)
▁reproducible
▁overex
▁histologically
RH
oplasty
oxic
▁RAR
▁eliminated
dine
▁myel
▁morbidity
atrial
▁incubation
vail
PAGE
▁parathyroid
▁microcirc
itr
▁13-
▁glycoprotein
▁diet
▁mell
acetyl
EGF
▁granules
▁Hep
▁cycloheximide
arate
inally
▁quantif
▁avoiding
▁clonal
▁depletion
vian
▁fron
ritis
aventricular
▁ANP
▁poorly
BK
▁gp
▁RBC
▁ions
▁preferable
▁conges
▁endogenous
▁concentrated
ejun
▁pressures
ilical
▁sple
GF
▁Cycl
▁500
▁ultr
▁squamous
▁HM
▁15,
uccessful
aturation
ylcholine
▁islets
amate
▁Patients
▁serine
▁Addition
gely
ethylene
▁demands
▁0.2
▁atres
ogeneic
▁clinicians
5%)
▁repor
▁15
▁regimen
▁25%
▁wrist
▁influenz
▁tracing
▁burden
▁occurring
ollicular
▁hypot
▁RS
▁nosocomial
▁adults
osomal
2+]
▁1000
hypertensive
▁mimic
▁cigaret
▁saliv
▁absorption
▁myocardium
requ
45
hers
▁Biochemical
▁shortening
LF
▁surge
▁traum
tile
▁lipids
▁chor
▁affinity
ercise
▁microscopy
▁concer
▁overlapping
▁ligand
▁modif
▁Ia
threatening
ipit
ept
FU
▁pneumon
▁201
rief
▁17
▁PEG
aneously
▁venous
▁dialysis
asting
▁replication
tened
34
▁mediate
▁olig
tle
▁reflects
▁myosin
▁1/
▁mesen
▁malignant
▁striated
▁4.0
▁behaviors
▁dox
12.
▁implic
▁averaged
▁surfact
▁neonatal
turb
▁resemb
▁glucocorticoid
▁40
▁validity
86
▁endpoints
arean
henyl
ocular
▁53
riend
▁nodules
▁nmol
▁histologic
Ts
▁fibrillation
ritish
▁Respon
▁transferrin
cessive
▁0.06
▁(1)
asive
▁coagulation
oxif
▁premature
orrh
tization
reness
earing
roma
▁complementary
invasive
tum
▁kinase
▁inges
▁struc
▁transcrip
entical
▁ET
▁follicles
▁ligation
▁therap
rosine
▁0.05)
▁Severe
▁approx
▁(7
▁thrombo
▁lymphoid
▁sten
enkephalin
illar
iary
razosin
▁NB
▁outs
▁schiz
eric
entif
▁undergo
▁elimination
▁DT
ACh
▁screening
▁disability
▁systematically
▁termination
iotics
▁conjunction
openia
▁considerably
▁healing
ologic
▁slowed
▁scre
lact
jected
▁stimulate
▁glands
olec
▁ester
▁hemorrh
▁contractions
▁ranging
▁determination
▁manifestation
▁compounds
bodies
tance
methyl
▁LHRH
▁clinician
▁reproducibility
affinity
▁repetitive
▁decreas
▁CSA
▁segmental
▁resting
▁anomal
▁cartil
ergic
orac
▁(2)
▁anticipated
▁tension
▁pacemak
▁therapy
▁assis
▁preferen
▁Purkinje
▁conformation
▁assessments
▁mild
ogenous
▁Inhibition
eclampsia
▁Doppler
▁appreciably
iaz
▁triglycerides
▁metastas
dibular
odynamic
reased
▁infarction
▁surgically
antigen
▁negatively
▁BMI
▁Taken
▁deterior
▁MG
PTH
▁absorbed
▁differen
embr
▁Clinical
▁synthetic
▁arter
▁limb
125
▁specificity
▁retention
truc
tral
▁AVP
▁outflow
▁identif
▁unres
56
▁tibial
▁tris
▁0.01)
▁inhib
-24
▁positioning
▁6)
▁amylase
leukin
itary
Ba
plants
▁malign
▁intram
▁lam
▁withdrawn
ovirus
▁endoscop
3+
23187
12
▁24
▁questionnaire
▁specimens
▁lis
▁adaptive
duc
uin
▁8,
▁discharge
▁eti
orts
unctions
▁multivariate
▁DP
▁guanine
aterally
acetate
lue
inhib
9%)
▁reticulum
▁Thir
▁cortex
oprol
▁alkyl
▁PH
phrag
▁Phy
pH
▁contractility
adication
▁examination
▁supernatants
-100
okine
incip
▁rash
▁oxidized
▁spleen
yrid
▁accurately
▁splenectomy
▁assayed
▁polymorphism
▁nifedipine
▁oste
▁arthritis
ffinity
-16
▁cutaneous
▁microtub
▁terminus
▁fibroblasts
▁MHC
▁stab
▁0
FH
▁gland
-1).
▁localized
otypes
atinine
▁engraftment
▁[125
▁PV
▁lithotripsy
▁phorbol
▁retur
▁carc
▁prescrib
▁acetyl
3),
azem
▁10%
▁drainage
asses
▁prophylaxis
▁pneum
▁stimulatory
GI
▁fitness
▁illness
▁inoc
▁pT
▁isot
▁veins
▁hypertension
▁unex
▁severity
▁Increased
▁hemat
.2%)
oride
▁microgram
▁cirrhosis
▁TSH
▁decreased
▁directional
.3
tron
▁deletions
▁CsA
▁7
▁inhibited
▁phospholipid
▁feasibility
tine
▁(0.0
▁spinal
farct
opres
▁PTH
rophob
▁prostatic
▁rhe
▁proton
oids
zymes
trial
▁BA
ilized
▁PAF
16
▁71
▁presum
▁physiology
▁complaints
filtration
itone
ineal
▁circumferen
▁(6
▁subpop
▁gyn
▁inducing
▁(10
▁ingestion
licular
▁7.5
tectable
oscopy
achol
▁outward
pharose
rents
▁accep
100
▁collec
▁discrimination
▁poisoning
▁produc
▁duodenal
▁prosthe
functional
protein
dered
▁stromal
olution
▁treatments
▁exclusively
atonin
▁meals
▁PRP
▁develops
oreceptor
▁erythrocyte
▁radioactive
▁readings
▁HG
▁0.02
▁Additional
▁acidic
▁confined
▁epidermis
▁solubilized
2/
▁cessation
iable
terone
▁propranolol
▁revealing
rox
tenance
.1%
▁neph
opia
▁1989
▁52
▁Tum
ifug
▁PMA
encephal
▁tube
monella
▁sour
labeled
▁TA
▁1.6
▁laboratories
▁peptides
ATP
ocomp
requency
▁72
othermic
▁oss
▁IgE
▁urinary
▁habits
kine
▁numb
▁disrupt
.7
▁indicators
▁tissue
secre
▁triglyceride
ochem
▁vaccines
▁reversed
eight
▁hypothyroidism
▁spermat
▁periodon
▁apical
alc
▁regulation
▁evid
▁oxygen
▁ratios
▁inactivation
▁ket
▁biop
▁muscle
▁7%
anded
▁0.00
linked
▁sugges
▁differe
▁sulph
4),
▁quanti
▁100%
▁coupled
iliary
▁exposure
▁physically
▁belie
▁beneficial
▁aberr
▁LDL
atase
anine
▁18
trol
▁cholec
▁cadaver
amide
obacter
ospitals
trin
duced
▁cholest
helial
ylline
▁neoplas
adenosine
▁dyst
tious
urther
39
▁Chemical
▁deficit
▁uro
isqu
▁inositol
▁compli
▁5.5
armac
tagland
▁43
▁amiloride
8%)
▁synthase
▁35%
▁WK
▁IgM
▁adenylate
▁uterine
ocytosis
ACS
▁probe
trical
▁lact
▁Vitamin
▁OT
▁intrav
▁soybean
▁hemodynamics
▁mitogen
▁ascending
throm
▁regurgitation
▁tubule
▁aortic
▁glomerular
▁hypoglycaemia
▁investigated
plies
▁displ
omod
▁reser
▁mesenteric
▁refrac
riton
▁pathogenesis
▁intragastric
▁recurrence
▁resistant
▁stere
▁caudal
HM
▁ageing
▁micros
▁suppres
▁gels
▁subtype
▁(3)
▁guided
▁sequel
ATPase
▁30,
rotid
▁hospitalization
▁strand
▁Km
esium
iliac
▁characteris
▁intrap
▁10(-4)
▁reticul
ocardi
▁postnatal
silon
▁autoradiography
▁inflammation
▁oral
▁BV
▁disorders
luent
nthe
2%)
ancre
lys
▁soy
▁paraventricular
▁apop
▁overe
▁omega
▁warranted
▁adjunct
itals
▁predomin
6%
▁pregnancies
▁modulates
▁lactate
ventional
▁nucleotide
▁radiol
▁probes
▁hemisp
▁attributable
irradi
▁suggestive
▁ionophore
▁radicals
ophore
▁(25
▁fasting
▁androgen
▁sequential
tisol
▁contrac
sych
ught
▁VT
▁cloned
▁accelerated
helium
