▁intense
▁prel
▁opioid
▁echocardi
asal
▁fractures
▁vena
▁differen
▁urinary
AIDS
▁cere
▁sampl
▁assessing
relations
Mu
tions
▁ovarian
▁Samples
▁esophageal
leu
▁laboratories
▁leakage
▁acqui
▁inadequate
▁ongoing
▁thir
▁neurop
▁molar
enh
▁simultaneous
▁longitudinal
▁thrombolysis
▁MRI
▁segmental
▁tox
▁indications
▁differentially
▁prolonged
stolic
sue
▁PF
▁peripher
tent
emic
▁decreas
▁saturated
▁linole
▁stimulation
tak
▁burden
BM
adily
▁statistically
▁enti
▁approx
▁PP
▁esophag
▁vein
▁spati
▁thromb
▁comparable
trop
▁chlor
▁cervix
▁colonization
▁judged
iminary
▁depr
▁correlates
veolar
▁medial
▁discharge
▁Increased
▁urine
yro
Tc
ophil
ighted
antial
▁soy
mL
keletal
▁tumors
▁hep
genic
▁cervical
▁interventions
▁meal
▁deficiencies
iable
▁manifestation
▁bronch
▁RBC
▁sepsis
effective
▁identif
▁affects
▁preoperatively
▁Surgical
▁glomer
▁heavi
▁eosinophil
▁pharmac
lysis
▁hospitalized
ophilic
▁asthma
ococcal
ication
▁mandibular
hospital
▁surge
▁Biochem
▁aor
▁bipolar
▁autosomal
rated
▁temperatures
geal
rous
▁restenosis
versely
plantation
dose
▁reactions
▁minimize
▁aorta
▁HIV
cardi
▁wee
sts
▁immature
▁cure
▁dys
▁concentrations
▁meals
▁pregn
▁fatty
▁disruption
tle
▁mediates
▁fever
▁nec
rophob
▁adequately
▁surgeon
urgery
thma
otype
▁SLE
▁ACE
GD
▁implications
▁gangl
▁measuring
▁schiz
arly
filtration
▁needle
ffer
▁Tran
▁severity
bral
▁cen
ilical
icin
▁nerve
▁psychological
▁supplementation
▁implantation
▁neph
▁Accordingly
CBF
bac
▁inflammation
▁cereb
▁hepar
▁cardi
▁Neither
▁hemorrhagic
▁resour
▁chronic
▁mucosal
▁corne
▁COS
▁hospitalization
▁plaque
omotor
▁beneficial
▁chond
menopausal
tering
atical
▁morphologic
igaret
ocarcinoma
▁incidence
ficial
quid
▁malignant
▁diabetic
ymp
▁PE
pir
▁inadequ
▁mamm
▁vascular
lective
▁intraoperative
chol
▁mutations
▁accurately
▁RT
Hb
hyd
clin
▁surveys
onyl
▁indicative
▁catheters
osts
▁diversity
▁alveolar
▁adjuvant
▁retrospective
▁surf
▁wors
ospor
treatment
▁detectable
▁manu
sor
▁distal
▁salivary
▁exce
fat
tum
urther
▁HM
▁dosing
EGF
owever
rolog
▁concomitant
▁gastric
▁portions
ceptive
▁epinephrine
▁invasive
ariate
▁pyramidal
▁cytology
▁acidosis
▁consistently
▁femoral
▁overex
▁transi
▁predictive
▁favorable
▁fetus
▁insufficient
rents
▁ane
ygen
▁sulf
▁toxicity
itamin
aventricular
▁polymorph
eration
▁organisms
▁vagal
ially
▁vaginal
▁behavioral
idated
▁rhe
aid
▁bladder
▁synerg
▁depressive
ivation
ologists
tomy
▁doses
atab
▁parap
iliac
ostatin
ituitary
▁RP
yroid
oprote
echanical
omical
atell
▁slowed
▁occupational
▁MG
▁sten
seud
hea
▁ventricular
▁homogene
▁pyl
▁suggestive
▁complic
▁Bone
▁HS
iciency
echn
▁conservative
▁affecting
razole
▁concom
vation
▁radiographic
▁pineal
▁moderate
▁HPV
▁Patients
▁infected
▁saline
▁controversial
mature
▁aort
▁arter
▁cochlear
▁emerg
▁regar
▁ultras
ialysis
lated
▁HP
▁perc
hep
idity
▁preparation
▁Phe
ulae
▁stomach
RH
▁zinc
oglyc
toc
▁treatments
▁endoscopy
ocaine
▁cohort
ometr
▁morbidity
▁maintaining
▁deform
▁prednisone
otyp
▁tubes
induced
▁cutaneous
▁reproduc
▁tolerance
▁traum
agic
▁hypox
▁lipoprotein
▁antibodies
▁IgM
▁improving
mental
▁modulate
▁Continu
▁injected
ochemistry
acerb
▁awa
▁predominantly
▁babies
▁algor
▁disappearance
▁soybean
▁surviv
▁preval
reast
▁airway
▁spinal
▁Overall
▁minimally
sial
idne
▁tric
aturated
▁rati
▁fatigue
▁tol
ept
▁cate
▁physiology
lep
▁undergo
amic
entral
▁heal
▁reconstruction
▁placenta
ithin
▁follic
ociation
tro
▁atrophy
▁physiologic
▁discrimin
▁increas
▁apex
vail
▁dose
olute
▁melanoma
▁juvenile
▁inhibit
▁abnormality
sities
▁nonc
▁disability
▁surgically
▁examination
▁evaluating
▁PT
itant
▁complaints
spectively
▁ratios
ologically
▁balanced
dle
▁systemic
▁moderately
▁lob
▁ana
thle
▁paradig
▁Serum
▁overe
▁nig
▁atrial
inic
cysteine
ullary
▁inhib
▁aureus
itin
▁Acute
▁protective
▁variability
▁headache
▁predictors
▁tes
▁adenomas
▁pituitary
▁MI
▁hypertension
▁endoscopic
▁phe
amination
ociated
▁phenotype
▁renal
▁hig
romes
▁metastasis
versity
▁syndromes
▁somatic
tical
▁hypog
▁parental
olated
ochem
illus
bic
▁feasibility
▁sut
iciencies
▁maternal
PV
▁Significant
GF
▁thresholds
▁bypass
▁repl
▁resected
▁encoun
▁premature
ventricular
▁anomalies
diagn
▁nucleus
▁infiltration
▁uncommon
▁endoscop
▁determination
vents
lix
▁regulation
▁stab
▁displacement
▁discus
▁compartments
▁laboratory
ergic
▁specificity
▁proce
▁widespread
olysis
▁adults
oic
prising
armac
ximum
▁trophob
oplasmic
inemia
▁cerebral
ovascular
▁intraven
▁preterm
▁hepatocytes
ressed
arb
gm
▁prevented
DH
▁requi
▁fulf
operatively
▁utero
▁questionnai
BV
▁congen
DG
▁athletes
MN
▁radiotherapy
▁expend
▁Sout
▁undetectable
▁abortion
▁quantit
▁canc
▁decline
regulated
▁insulin
▁smo
tead
odialysis
▁lymph
▁putative
▁prenatal
▁unrelated
▁efficacy
▁diseases
pendent
▁ET
athe
phic
▁preservation
▁lipid
▁diagnostic
osity
sian
sies
HB
PB
▁behaviors
pH
orax
▁immunological
▁rectal
▁hepatic
▁presenting
lesion
▁ischemia
▁clus
▁silic
▁superficial
▁elucidate
▁emotional
▁unm
▁aneurysm
▁pregnancy
▁mann
inely
▁shor
▁occl
▁LC
▁differentiate
▁alteration
▁Intravenous
▁PCO
▁reliably
▁exis
▁preventive
▁dexamethasone
▁trials
▁stren
▁influenza
▁pylori
▁influenz
cence
ensity
▁enl
loid
▁remission
▁RS
▁hypoxic
osom
▁physici
▁angi
ctomy
odal
asic
▁complication
▁prostatic
immune
▁indicators
vul
tens
▁ventric
▁implicated
oag
▁evid
hers
▁diagnosed
ctive
kely
▁preoperative
▁shorten
ensitive
omes
▁AMP
▁assays
▁systematically
▁tissues
▁referral
▁vaccine
▁respondents
▁prol
sia
ogens
▁IA
anin
▁inhibitors
▁herpes
iary
▁immun
▁haemorrh
▁diagnosis
▁strom
▁GV
▁gland
▁assessments
▁pati
EA
▁reductions
ilic
bility
▁septum
▁ECG
eces
inated
ocar
▁modest
▁chor
▁vomiting
▁feeding
▁susceptibility
oidal
▁stimul
▁questionnaires
▁considerably
eight
▁cocaine
incip
▁predomin
totic
▁Dop
▁failures
▁mucosa
▁recipient
▁hemodialysis
▁spine
tation
patient
▁pharmacological
▁anxiety
▁chol
▁fati
▁specimens
ethyl
▁reveals
▁analyses
▁hormonal
▁surgery
▁interc
gth
ropriately
▁differing
▁parotid
▁microvascular
▁phagocytic
▁sequelae
sion
▁sour
▁mechanisms
▁mL
wk
▁limb
▁examined
▁tobacco
▁pancreatic
▁carbohyd
▁Compared
▁anastomosis
▁evoked
▁carcinogens
▁NH
opausal
▁hypothyroidism
▁reproducible
renal
▁viable
▁undergone
▁fibers
perfusion
thal
ergency
tive
ignant
▁satur
▁CRP
▁carb
▁decisions
▁alterations
▁feasible
omod
▁coex
▁prophylactic
rophy
▁pneumon
▁ile
ypical
▁remo
▁inducer
▁uptake
▁stimuli
iol
▁consensus
▁screening
▁resuscitation
▁metastatic
▁proteins
▁abdominal
▁irrit
▁examinations
▁correlated
opamine
elan
orectal
▁hemisphere
iosis
▁tumour
▁inflamm
▁cultures
▁FT
▁flexion
▁reflux
IU
▁enrolled
▁screened
▁undertaken
▁ischem
urea
▁subf
▁ey
▁outcomes
olved
▁tomography
oplasm
▁manifestations
atoid
▁reperfusion
▁relating
▁cyt
▁deficits
▁excre
▁crest
ithm
▁restric
▁Whereas
▁sequential
▁staging
▁atmosp
▁supplement
▁synthe
▁circumference
▁regulate
▁intrag
▁positively
▁exhibit
▁discrimination
▁amyl
ults
▁tamoxifen
▁pancre
▁gradients
itro
▁contamin
ensory
ameth
▁oxygenation
▁systematic
▁mellitus
▁oxy
tained
oes
▁testis
rae
▁limbs
▁PB
usive
ograms
▁contex
▁arthritis
BW
▁leukocyte
▁adjusted
▁excluded
activation
erate
▁ascertain
▁myo
oplastic
oride
rested
lusion
placement
▁resusc
jected
▁haemorrhage
▁aimed
Ds
▁elimination
▁aerobic
▁ket
▁sphincter
▁enhance
▁structural
tries
▁connective
▁umb
▁hepat
▁predicting
▁sti
▁somat
acts
▁treating
occi
▁mild
▁neon
▁therapeutic
otomy
▁palli
ocytes
▁genotype
▁carcinoma
▁deter
▁cadaver
▁hypothe
▁laparo
uccessful
▁analys
▁abilities
onin
ications
▁benz
▁alcohol
entanyl
sensitive
▁displ
▁macrophage
▁gluc
▁enhancing
▁cholest
▁postoperative
▁aspir
▁ketamine
ostomy
quine
▁circulation
▁IgG
▁drugs
osin
▁develops
▁collateral
▁ventilation
▁Streptococcus
ancies
▁thi
usp
lymph
icine
kers
▁instability
omies
▁myocardial
▁lacking
▁modality
▁restor
▁perip
▁cerv
▁adequ
DNA
oplas
▁dex
▁survival
bly
▁shif
▁smoking
invasive
ignific
▁discontinued
dition
associated
▁promising
▁dental
intestinal
atrial
aints
RP
▁characterize
▁increasingly
▁alve
▁endothelial
opa
atine
andard
rele
ampl
▁neutroph
erin
onate
▁hormone
eric
oxif
weighted
sized
astom
sis
▁participate
▁deficiency
▁establishing
▁muscle
acet
▁aspiration
▁behavi
iant
urin
▁phenomenon
▁vitro
lym
▁desm
rection
TNF
▁chan
▁horm
▁risks
▁stom
▁ASA
aemia
helial
▁seiz
▁SCH
▁spont
▁follicular
▁thorac
aryn
▁ultrasound
▁concentrate
natal
▁ischemic
radi
▁testicular
entan
▁isch
▁anat
▁mitral
▁undergoing
▁vaccines
▁localized
▁intram
otent
▁intermittent
▁contaminated
▁somatostatin
▁GM
▁inflammatory
▁endemic
kage
▁chest
▁healthy
▁synovial
opl
▁facilitate
zation
ulatory
gely
oxia
▁morphology
▁inhibitory
ronchial
▁anastom
▁cephal
▁compli
▁prognostic
▁exogenous
▁vitamin
iotic
▁muscles
▁carcin
▁gradi
▁endothelin
▁adverse
▁knee
▁allergic
Ts
▁antib
positive
orin
monary
vascular
▁oxygen
▁bilateral
tant
lastic
trip
▁intrap
nutrition
fron
▁pregnancies
▁Tumor
▁pate
▁mediated
▁evaluations
▁plates
▁adjustment
▁transient
▁compartment
▁perfusion
▁carbohydrates
usal
▁reagents
▁facial
lyc
▁recurrent
LV
rectomy
▁newborns
▁interv
▁socio
▁biom
▁withdrawn
▁heterogeneous
alues
roup
▁amput
aryngeal
athy
▁psychiatric
▁skeletal
ogra
piration
▁medication
esity
apse
▁transplantation
▁prevention
▁Bec
▁atropine
▁infar
▁epid
ostic
▁compliance
yses
▁carriers
imens
▁ovari
ophag
anyl
▁correlations
▁polymorphism
▁trend
▁physiological
▁nal
▁infil
▁bac
alc
▁correspon
otor
▁beha
acil
▁immunode
▁sclerosis
▁hypot
▁GFR
▁exposures
▁carotid
▁comparative
▁sedation
vival
urate
erative
▁metabolism
▁symptoms
olic
eled
▁cortisol
▁cognitive
▁linoleic
▁nurses
ecre
zard
▁creatine
▁MHC
▁quantitative
▁adaptive
ropine
▁monit
embr
▁dilated
▁tertiary
gmental
nai
▁likelihood
▁contral
rogen
uncture
hern
glyc
ocular
▁surgical
PAP
itr
▁perception
ologic
▁reproducibility
▁dietary
tial
▁arterial
▁kidney
▁substantially
▁auditory
tein
▁LD
ayed
onomic
▁oste
ocul
adder
▁AMI
▁molecule
tectable
▁gallst
▁cardiac
▁cann
▁ward
cessive
aneously
itance
matic
arean
▁colorectal
▁estrogen
ocl
▁opi
ministration
▁chloride
▁pH
▁impaired
alp
▁recessive
controlled
▁randomized
▁valve
▁gyn
▁labeling
▁inver
▁unilateral
▁heterogeneity
▁Addition
acting
▁inhibition
▁clinical
orrh
▁improves
clinical
▁findings
▁symptomatic
▁amines
▁postmenopausal
oradi
▁challen
▁DS
▁pneum
▁bacter
▁suture
heric
mend
▁establ
gative
▁deaths
▁inhibin
▁focusing
lys
ilized
▁prophyl
▁chloroquine
astric
moid
▁aortic
ocyte
opic
▁synthesis
oric
▁rheumatoid
operative
ses
▁contralateral
▁attending
dominal
▁CK
▁relapse
▁selective
▁arteries
▁immune
▁elevated
▁atten
▁reas
▁hazard
idate
▁adoles
▁glu
▁operative
▁subjected
▁diffic
▁impair
▁underg
▁ventilatory
omat
▁tas
jug
▁preferen
▁receptors
atitis
▁clinically
▁ESR
▁Hb
▁implant
▁deficit
▁ultim
▁peripheral
▁employing
▁NT
▁SG
oscop
▁conclusions
▁anticoag
▁proliferation
▁iliac
▁secretion
▁PH
▁weigh
▁HLA
▁cyclosporine
xual
rine
▁elevation
tinu
vac
▁experi
▁bronchi
sych
ulates
▁comprehensive
illance
erad
▁concer
oplasty
▁Tum
▁thoracic
▁oxide
olism
▁sensitivity
ration
▁hypers
▁angiography
cture
▁transfusion
▁adherence
▁spon
▁intrav
ercise
▁paras
▁ration
▁normalized
crimin
▁injur
▁tissue
▁unde
omal
MG
▁pathology
▁cumulative
ocial
▁metabol
▁intervention
▁melan
ochemical
▁poten
▁eluc
▁DT
▁determinants
mong
▁morb
bladder
▁prognosis
▁locus
▁survived
rati
▁sustained
▁aden
▁pronounced
▁tooth
ectom
opathy
osomal
▁pall
▁periodontal
▁pancreatitis
▁symptom
▁abuse
oxic
▁intra
Ki
▁dyn
▁cyst
oxidation
facial
▁LN
▁muscul
▁Tes
atest
▁excision
tus
asone
▁olig
▁deprivation
▁OA
otherapy
▁regimen
▁metabolic
▁anemia
▁responsiveness
▁validity
▁influences
▁juven
▁progressive
▁unc
illary
ontal
▁pulmonary
▁hypertensive
▁laser
▁pediatric
▁presum
▁onset
▁functioning
▁assay
▁reagent
▁ulcer
▁utilization
▁epileptic
▁latency
▁tumor
feren
▁HA
▁GD
tic
▁endometr
▁enhanced
▁childhood
alian
▁insertion
▁depression
▁usefulness
▁diagnoses
▁hemodynamic
▁potency
▁mortality
▁venous
▁theore
▁lis
▁receptor
▁deterior
eak
▁migrated
▁chemo
mTc
▁neurologic
▁ae
oxid
▁experim
▁AI
hest
ivariate
▁buc
▁axillary
matched
▁chemotactic
ocytic
▁cystic
▁complications
▁physician
essive
NM
▁lith
▁shortened
▁BM
cents
plic
tin
▁dissection
▁IIb
▁drin
▁uter
▁perin
ronch
itary
▁lumb
▁pathogenesis
▁diminished
▁postnatal
▁tumours
▁hepatitis
▁radiological
▁recurrence
ulin
▁Clinical
onary
▁kerat
occus
ureus
▁VL
▁MH
▁reac
mented
▁practic
idation
▁practitioners
▁instr
nec
▁Removal
▁geniculate
atories
▁examin
iatric
▁advan
▁corneal
▁consequently
gic
tual
▁tidal
KD
odies
▁seizures
risk
▁clinics
▁anatomical
▁postoperatively
▁GVHD
▁platelet
▁iso
erance
▁Afric
resting
▁Increas
▁DF
▁hemodynamics
tors
tage
▁solely
urgical
▁comprehen
▁regimens
▁muc
▁fiber
▁contributes
▁irradi
▁outs
▁chemotherapy
icide
▁spikes
▁thickening
economic
▁coronary
aired
entric
▁demographic
▁VE
▁discon
▁explored
urc
▁HL
▁gallbladder
derly
▁initiating
▁chec
pite
▁PV
aluation
ocyt
atient
jun
▁drain
lasting
▁endometrial
▁rehabilitation
▁insufficiency
unctional
▁ADH
▁genetic
▁acids
▁clinic
▁adenocarcinoma
▁biop
▁ethanol
▁facilit
▁carc
▁prophylaxis
duction
▁overlapping
ancre
▁estimating
▁selectively
▁athle
ploy
▁mothers
▁describ
▁Additional
▁scans
rehen
▁microcirc
▁agonist
▁histological
▁genes
▁pulp
atectomy
▁guidelines
▁synov
▁infections
ineal
stim
▁thromboemb
iasis
▁Chronic
▁atm
▁stenosis
helin
▁prospective
monstr
▁topical
▁provid
▁percutaneous
adequ
▁tiss
athyroid
▁micron
▁confound
▁wound
▁nutritional
physiologic
ucle
▁BP
▁ablation
▁oes
▁irr
▁latent
▁pneumonia
▁adequate
▁anatomy
tec
mittent
▁PI
▁indication
▁agon
lood
▁satis
dial
▁serum
▁bloc
▁adop
sive
▁hygi
▁antibiotic
▁tolerated
▁catheter
ogenous
ture
iably
▁activated
▁rhythm
▁physicians
▁molec
▁LDL
▁healing
Hu
▁pressures
echan
▁infarction
▁glyc
▁follicle
▁histologic
aemic
▁thrombo
▁strategies
▁inversely
▁congenital
otropic
▁Throm
▁cathe
▁infants
mg
▁regis
▁favourable
regn
▁metast
▁dysfunction
functional
▁demonstrating
▁femur
▁neo
omerular
▁obesity
lux
entical
▁nursing
▁classified
BP
▁Large
oracic
▁microm
mide
▁sensory
▁GI
▁Comparison
▁emergency
ateral
eal
▁HCC
▁cirrhotic
▁drinking
ritis
▁neurological
▁implic
coun
▁hCG
ycin
▁doctors
bacco
onography
▁pS
▁pharm
▁poin
▁anatomic
▁pelvic
ceptions
▁fracture
▁fentanyl
BG
onium
herent
▁throm
osal
▁illness
▁ultrasonography
▁lipids
▁profound
▁drainage
▁cuff
itone
▁sexes
▁glycoprotein
▁melatonin
▁pathway
enic
▁cancers
▁athe
utaneous
▁neutrophil
▁Taken
▁edema
▁advances
▁scintigraphy
▁decreased
ergy
▁preparations
▁turnover
▁debr
▁diet
▁antic
▁ure
▁cava
▁TG
▁parame
▁pig
ureth
▁attrib
sions
▁biopsies
▁exposure
▁continuing
▁PD
▁curative
▁inherent
NH
▁Doppler
▁saliv
uterine
tyl
▁TB
▁controlling
▁PCR
acted
▁mineral
rox
▁elic
▁microv
▁comparisons
▁sequel
▁malign
▁reag
▁stroma
tact
▁glucose
tig
ingle
▁artery
ustif
▁achie
▁bone
▁haem
▁recur
▁adhesive
▁bronchial
▁GF
▁uncomplicated
▁APC
▁excl
▁elu
mitted
▁homogeneity
duc
▁OT
▁overl
thre
▁eating
▁severely
opi
▁measurable
crib
▁liver
▁availability
educ
▁abnormalities
fusion
▁periodon
phrine
▁pyram
vely
▁TGF
▁unres
▁therap
▁glomerular
▁toxic
▁occurring
ographically
▁epidemic
▁relap
▁intrauterine
ortic
▁promoting
ascular
▁anomal
▁biological
tensive
yel
ocardial
trol
▁pregnant
cine
▁investigated
▁injections
gland
encl
▁defic
▁familial
▁excretion
▁exclusion
icated
▁NP
amily
▁therapy
▁plac
immun
▁tibial
taining
ropriate
fos
▁glands
▁disorder
uvant
▁mobility
▁VO
▁ganglion
▁subtype
▁enrol
▁distin
uded
▁vaccination
▁hyperg
▁lesion
icient
▁bab
tur
▁sph
▁nasal
sess
ximal
▁HI
anding
▁rele
olution
▁TC
ithi
▁abd
oprotein
▁cigaret
▁rhy
▁stu
▁ambulatory
orac
▁suppression
▁TK
loro
erating
▁embry
▁synergistic
▁Treatment
▁disorders
itic
▁behavioural
▁vaccin
amine
heal
▁spi
▁stimulate
regulation
anic
▁intramuscular
▁decreasing
▁Cyt
atment
▁obese
hemical
▁sciatic
▁enlarged
omiting
sequent
MV
▁intake
▁CMV
▁ventil
oscopy
▁infection
istically
▁CM
▁differentiation
▁Kup
▁perinatal
▁differentiated
▁techniqu
▁pathological
▁monitored
respon
enol
▁confined
His
▁amin
uscular
Phe
▁fold
▁multivariate
▁etiology
HF
▁MN
▁spontaneous
omized
orts
rates
▁umbilical
xone
▁eosin
▁onc
▁adenoma
▁thyroid
duced
asive
▁intravenous
▁biopsy
▁laparotomy
▁hypoxia
requ
▁irradiated
▁routinely
▁progression
▁identifying
uccess
▁recor
▁inapp
▁intensive
▁substituted
▁vag
▁eliminated
▁Pretreatment
aline
▁deterioration
ilateral
▁scre
▁lobe
▁effectiveness
▁reper
▁acute
▁subgroups
▁streptococci
entif
▁respon
ipher
▁heterogene
▁chloro
urine
▁accumulation
▁metastases
▁atherosclerosis
▁VA
▁multic
▁resection
▁syndrome
urys
onad
▁determining
▁leuk
▁prevalence
▁calcification
▁bip
pation
▁autoimmune
centr
▁atr
▁prospectively
▁presumably
▁outpatient
▁atheros
anol
▁bowel
▁mono
▁substance
▁supple
▁inh
▁predictor
▁hemorrh
▁Clin
▁microb
▁porcine
▁substances
▁extensor
▁phy
IIIa
▁habits
rogenic
ectomy
▁Intra
venous
sus
mentation
▁genic
▁molecular
▁investigations
▁nurse
▁complementary
▁facilitated
responders
▁previ
▁cardiomy
▁tracer
▁neonatal
▁barrier
▁characterized
▁membrane
ycl
▁involvement
▁homogeneous
HM
sy
▁numb
▁LV
▁HSV
▁benign
▁thickness
▁glut
▁fixation
▁diabetes
▁systolic
▁tris
ditions
vated
▁progn
▁surveillance
▁arth
atonin
▁extre
mia
▁underst
ophren
▁necrosis
▁aging
▁embryo
clerosis
▁practition
▁prostate
▁PCP
diol
oratory
▁unstable
▁elderly
lact
▁injuries
TG
▁adhe
▁HC
▁heparin
roma
VT
uran
tif
▁TA
▁traumatic
odynamic
▁polyethylene
▁pathologic
▁nutrition
▁intrinsic
arate
duce
▁normo
▁investigating
▁reduc
▁suicide
▁infusion
▁prevalent
▁multiv
trib
▁nodules
▁poorly
tration
▁resonance
namic
▁impairment
luent
▁demonstrates
▁imaging
▁exacerb
▁MV
lec
▁adolescents
▁oral
occal
acr
▁Phy
angl
▁Phen
arent
▁scanning
ejun
▁assessment
▁trauma
▁abnormal
▁lesions
▁predic
▁therapies
▁encour
▁amyloid
▁swelling
▁scin
▁chemot
▁unex
▁preliminary
▁mell
othelial
▁causal
▁reveal
▁phag
▁enhancement
▁Swed
atients
▁uncom
▁retention
▁sequentially
▁hypo
atid
itus
▁assis
▁fetal
▁lumbar
▁cardiomyopathy
▁reflecting
ilization
erated
taken
▁cerebrovascular
▁Lys
spective
▁graft
xia
rosis
romed
▁definitive
estis
arge
IgM
▁cardiovascular
▁mg
responding
