▁Km
keletal
▁substrates
▁testosterone
▁diets
▁adminis
oprec
aemia
▁cyt
▁contractile
▁embryo
enzyme
▁lungs
▁subunit
plants
▁NT
▁restric
▁positively
▁ane
▁underwent
▁allele
brain
▁septal
resist
▁LPS
▁localized
-60
▁mechanisms
▁56
▁biosynthesis
ration
▁(17
▁gon
▁probe
▁retina
quid
▁sedimentation
tein
▁antiserum
sy
7).
imens
▁ET
▁TSH
▁correspon
▁micrograms
▁reduc
atine
▁sodium
▁Experim
acylglycerol
▁glucose
▁demonstrating
▁regulating
▁39
-6-
eled
▁persisted
fusion
▁incom
▁microns
▁6.
▁Clin
itus
▁deple
▁selec
-2,
ymp
▁precursor
otre
MG
aemic
▁hig
▁identif
▁abundant
tility
ologically
▁BAL
▁genetic
▁3-
tivation
▁30-
▁chond
▁regulate
▁unchanged
▁spectra
▁drin
▁injected
▁attributable
coh
▁defects
▁alveolar
▁disrup
9%
▁splenic
oic
insulin
▁ions
▁phosphate
▁prono
7-
turally
eric
▁peroxidase
▁malign
▁RV
ocyte
▁0.6
▁immunode
▁lysis
▁respec
▁(10(
▁carbox
roximately
▁drain
▁developmental
rected
▁phosphorylation
▁surgical
fused
ynaptic
ietic
urons
▁fibers
▁cows
went
kephalin
▁chloride
▁inhibited
▁salivary
▁10
▁pall
▁mg
oderm
▁UV
-2
▁isch
▁neon
▁kDa
▁electroph
▁rats
▁3)
▁leuk
▁intake
otide
▁mutations
▁extre
▁PCR
▁bacterial
affec
otropin
lasses
ochrome
▁arteri
▁symp
▁metabolism
-40
effective
▁sten
lycemia
ogens
▁gastric
▁Calc
▁tuberculosis
▁excision
RF
▁dehydrogenase
80
▁inoculation
▁poorly
phyloc
itone
▁concer
▁3'
▁1.1
▁ips
▁adenocarcin
ensitivity
uretic
titu
▁premature
▁nec
▁terminus
▁cann
▁BM
▁enzymes
▁muc
urys
rozen
▁depr
roup
oxide
▁cardi
rotic
thmias
▁stimulate
▁polypeptide
▁successive
▁disturbance
tingu
ogenetic
▁strep
▁surgery
ylase
▁cytosol
limb
motic
cholesterol
▁(+/-
▁3.2
▁isolates
benz
▁1000
▁inducing
▁tumors
otypes
▁reperfusion
.2
▁immunosorbent
olone
wes
obacter
▁diastolic
▁investigations
▁determinant
▁plasminogen
▁acidic
kDa
helial
▁addi
ranial
▁ACTH
▁PD
▁4.5
wenty
▁occurring
BG
▁surround
brom
▁pump
romy
▁arom
▁(5-
▁0
-3)
▁clus
ylline
▁ganglion
apeu
▁depression
▁coated
▁atheros
renal
▁ultrasound
tural
▁Sixty
▁chromosomes
▁45%
▁vaccin
▁scans
otting
▁infusions
dial
▁disper
lobulin
▁renal
▁arth
selective
ropine
▁potentials
▁displ
▁polymer
▁nm
▁(2)
▁characterize
▁expressing
▁clearance
▁Elec
sis
▁plasm
▁progn
sectional
▁standardized
aired
▁adhe
▁implantation
▁regulated
anthine
tak
▁67
amine
▁2%
▁angioplasty
▁prognosis
▁10(-6)
▁blot
▁conduction
subunit
▁magnesium
▁fibrob
eces
▁TA
▁acetylcholine
▁IGF
▁graded
ichia
▁antic
▁spectro
ffeine
55
▁tubular
▁phosphorylated
▁estrogen
▁resul
Leu
associated
▁24
▁brom
▁HP
▁diabetic
assay
▁fetal
▁influx
/3
▁74
▁(11
▁mV
▁plasmin
▁squamous
▁96
▁infarct
▁belie
▁dye
▁focal
48
▁treatments
▁57
▁adoles
LH
▁arteries
▁carrier
▁NaCl
-13
▁diagnosed
8-
▁oocytes
▁fibrin
▁49
▁alkaline
trition
▁blockade
(2+)-
▁recr
▁inhibition
▁Addition
▁Mn
▁0.05)
▁refrac
▁ischem
oclonal
lasts
plied
▁rabbit
ucine
▁analgesia
▁synthesized
▁lymphoma
▁autoimmune
▁hepatocytes
▁calcium
60
▁55
amic
▁4.4
ogl
adrenaline
ilep
intestinal
▁hypotension
▁Treatment
tages
▁lactate
aturated
nec
tained
▁pigment
lue
▁chromatin
enic
▁protective
nucle
▁89
▁46
trial
ditions
ulant
▁atrophy
▁transplant
▁cere
▁substance
▁(16
▁6-
▁abnormalities
▁2.0
▁PG
▁hydrolysis
▁conformation
tabol
▁immunohist
CAM
Ala
▁10(6)
▁crude
▁renin
▁electrical
▁adjusted
amination
▁stimulatory
2+]
respon
alc
▁lamb
▁glands
▁(7
lysis
▁phy
▁5.
▁seroton
tence
▁metabolites
▁12,
tration
acement
▁suppression
2)
▁residues
▁livers
▁caffeine
▁proteolytic
▁irradiated
tensin
▁degrad
rangement
▁junctions
▁0.01),
▁postin
sistent
▁stimulation
31
▁stimulating
idase
▁(12
openia
rometry
thmia
▁(25
▁epid
oradi
▁pelvic
▁hormonal
tional
▁hospitals
▁experi
▁78
phyl
▁sham
▁consensus
occi
enal
amel
▁61
▁hormones
95
▁immature
▁diet
▁65%
▁bowel
4.
ecal
▁pancre
▁judged
tub
sion
▁therapeutic
2+-
▁immunoprec
▁transfected
▁10%
otin
▁cancers
▁mmHg
▁regurg
▁spleen
protein
▁intensive
sively
▁lamin
▁ovulation
▁sial
▁2)
▁immune
▁actin
bly
ventricular
▁morb
▁meal
▁bip
▁superoxide
tics
oplasmic
retin
▁arginine
▁18
mentation
▁kinetic
▁IgG
opoly
▁polymorph
irubin
▁lamina
▁compe
▁translocation
embrane
▁panc
trum
osity
▁bronchial
▁82
ffin
23
▁cerebellum
▁retention
▁immunoglobulin
▁2.6
0%)
▁docum
▁enzym
2+,
▁hemoglobin
ocaine
▁lysosomal
▁adap
erence
▁fractures
50
▁kidney
luores
RP
▁diffuse
▁recordings
▁mRNAs
till
▁3
elec
▁cyan
▁7.2
▁somatostatin
arb
▁assis
▁15-
.2%
tec
▁compartments
-17
)2
Rs
otypic
tability
▁ammon
▁glial
BH
▁excitatory
▁reticul
▁obstruction
▁mitochondr
▁reag
▁sequential
100
▁epitopes
▁neutroph
Tc
▁contractions
▁purification
▁VP
▁92
▁exis
▁glycos
maximal
▁concom
lox
mong
▁sour
▁opi
accharide
ectom
▁femoral
obarb
▁structural
achol
rein
▁sero
▁immuno
LV
roscop
▁lesser
▁gonadotropin
immune
12
▁carotid
entric
▁500
▁modest
organic
▁traum
▁experimentally
▁5.0
alanine
orectal
.1
▁manifestations
▁600
▁1
xia
▁exchan
ameth
▁parame
▁predictive
ifedipine
▁kine
▁horiz
▁34
▁potentiated
ionine
mL
▁plasma
▁Subjec
▁pancreatitis
▁hydroxylase
▁polymerase
▁homogene
▁contraction
▁mmol
▁neonates
flammatory
▁seiz
versity
▁thrombin
▁5,
otype
▁susceptibility
april
▁evaluating
▁intraven
inergic
▁morphology
▁angiotensin
▁remission
ardia
aptic
▁(5
▁nicot
▁58
▁(19
▁16
▁cytotoxicity
0)
iol
phic
▁brainstem
onuclear
tally
6).
▁subjective
clin
▁hippocampal
▁nasal
exposed
▁findings
omonas
▁lysine
▁obstructive
▁embryonic
.0%
idation
▁synthe
osynthe
▁anticoag
▁LV
▁FSH
▁complexes
helin
▁60%
▁dissec
▁accurately
▁Tran
rowth
▁doses
ogenic
▁immun
▁hemo
▁38
▁dosage
opic
ensi
▁leukemia
▁auditory
▁staining
requ
▁epidemi
▁percentages
▁pathologic
8%
▁differe
▁cytos
ubation
▁calf
▁eliminated
ondr
thase
▁12%
▁(30
▁sustained
▁uterus
▁mobility
▁spectroscopy
▁colonies
rous
▁uptake
▁pigs
▁repl
▁ingestion
▁59
▁lactation
▁coronary
▁collagen
lyc
▁filaments
iable
irub
▁mening
.0
▁amo
▁inhibiting
▁captopril
olism
oplasm
igible
eration
pH
▁cranial
▁3.0
▁GSH
ses
▁hypothalamus
▁alteration
▁10,
▁HA
oyl
▁aureus
itro
greater
ipine
▁heterogene
▁PMA
tioned
▁fiber
▁presenting
thal
orrh
▁oxytocin
▁potent
▁glycoproteins
▁canc
▁35
▁reductase
▁dietary
romes
otyp
▁fluorescence
11
▁citrate
▁tube
ohyd
athyroid
▁intermedi
▁responsiveness
▁presum
▁enhance
rogen
sorption
▁5%
00
▁reductions
incubation
-80
▁dysfunction
▁inoc
▁0.05),
▁undertaken
immuno
GH
▁(18
idine
trover
gene
▁sulph
▁activate
▁antib
▁fluc
anking
▁objec
plic
▁21
ethyl
acetic
▁antagonists
▁substances
▁genomic
inhib
testinal
aline
▁(10
▁exposures
.7
▁antiser
▁1,
NK
▁regurgitation
▁hCG
▁4,
53
▁7,
▁vacu
ynthe
▁attenu
▁microscopy
▁latent
▁requi
▁quantitative
▁toxic
atients
▁RNA
▁pituitary
▁nitrogen
▁anae
▁declined
▁donors
operox
directed
▁stere
venous
eptide
▁attenuated
▁endoscop
▁nicotine
▁platelet
▁nonc
▁hemorrh
▁mature
▁progressive
▁laser
▁lesions
ologous
▁endometr
▁phosphor
▁surf
▁Inhib
ophore
▁84
Gly
semin
▁endothelium
▁pyr
▁expiratory
teroids
onstric
▁25
eight
▁cyclase
▁tes
▁excluded
olus
+)-
▁insufficiency
▁83
▁cros
▁99
▁4.8
piration
▁conges
IFN
▁lacking
opes
▁artic
▁0.04
▁4.2
▁4%
▁Afric
titial
▁52
LISA
▁AI
▁stain
▁stimulated
terminal
atid
▁utilized
otone
▁absorb
▁CCK
▁20
▁chronic
▁induces
20
tries
risk
ulates
▁pulse
▁cytokines
▁substrate
▁(198
▁precipit
9%)
rief
▁sensory
▁resection
▁augmented
▁amino
▁acco
lobin
▁microscop
▁incubation
rection
▁vitro
NH
onine
CSF
▁pati
▁bic
▁nervous
▁artery
iasis
oride
▁assays
▁hypo
▁isoform
▁disulf
ulum
▁axon
▁lesion
▁toge
▁heterogeneous
osin
▁tryp
▁olig
▁VO
▁diame
rolog
▁enzymatic
▁characteris
antigen
iotensin
▁53
▁cohort
ophylline
opha
▁replication
▁embry
▁intest
▁ket
▁physicians
▁fluorescent
yridine
uvate
▁cysteine
▁saline
▁synerg
oglobulin
▁immunoreactive
▁Vmax
▁localization
diabetic
▁resonance
monary
odium
ophag
▁tric
ortic
tors
▁comparative
▁cervical
arbonate
▁(24
▁transcriptional
▁regar
▁venti
5),
ocrine
▁68
DNA
ithelial
▁dox
▁junction
▁0.001).
-8)
▁substitu
ept
chol
▁TP
▁erythrocyte
ximum
tality
▁leukocyte
▁1987
opathic
▁respiratory
methyl
inemia
▁2.8
▁epitope
▁trauma
▁disorder
▁ionophore
▁arachid
▁cytotoxic
▁ocular
▁microM
▁serum
▁luminal
▁33
▁discon
▁pregnancy
▁remo
uscular
obarbital
-3,
▁weakly
▁bypass
▁toxicity
▁immunobl
▁hypox
▁69
▁2,
▁purified
▁VT
▁suppressor
glutin
arbox
▁synthetase
▁0.9
▁radiolab
ylchol
▁herpes
ginine
▁tomography
echan
▁atropine
▁catechol
1/
▁reticulum
.4%
▁elec
olarization
▁deficient
▁inward
tivity
▁molecular
▁[125
▁echocardi
approximately
▁RF
▁hypertensive
patients
otomy
3-
1/2
tile
▁modulation
▁pregn
▁7
▁1%
▁9
minal
▁poten
▁fixation
floxacin
▁bone
▁effec
dibular
▁donor
▁bladder
▁vasodil
▁inters
ophys
aminergic
▁injec
▁Dop
8)
induced
▁vaccination
▁glycine
▁neurones
▁ischemia
▁stimulus
▁organisms
▁suscepti
▁recur
▁guan
thym
ercul
▁histology
▁choline
▁efficacy
trical
▁100%
▁morphological
apamil
ygen
ymptomatic
▁tumor
turb
divid
▁wee
iatric
▁termination
▁aneurys
▁genes
▁cats
▁197
▁110
▁54
▁indus
loro
36
ayers
▁meth
bility
▁thereafter
▁excre
▁quantif
▁40
▁scanning
tial
▁viruses
5-
▁regimens
partum
▁assessment
▁effector
▁tolerance
▁ATPase
istar
ymme
▁esophageal
▁TGF
▁HPV
▁paired
2%
▁hyperp
roscopic
▁hemodynamic
rogenic
mitted
▁aggregation
▁analyzed
▁comparisons
-12
saccharide
▁impaired
overed
▁labeled
▁cyclospor
▁microgram
▁questionnai
▁diabetes
deficient
▁synthesis
▁bloc
▁adren
okine
acetyl
▁transplantation
ocar
▁experim
▁noradrenaline
3)
▁fractions
▁nodules
▁anesthesia
▁injections
siological
▁0.06
▁fibres
pyr
▁deletion
▁neurotrans
4)
▁medial
▁parental
nine
otoxicity
▁hepatic
▁Clinical
4+
itin
▁casein
▁(1
▁mum
iatum
▁reas
apse
-18
▁malignant
-1).
▁heme
▁specimens
▁wt
▁100-
▁hypers
bic
pir
▁carcinoma
▁acqui
osamine
lated
▁cataly
heres
▁direc
▁activator
▁Biol
▁elic
etan
▁gp
yroid
cardi
amate
kground
▁pyruvate
▁PI
▁reproduc
▁DS
▁3.6
rological
▁LT
uminal
▁8.
illin
nRH
rophob
kers
rectomy
▁myel
▁plex
restricted
▁bronch
operative
▁asthmatic
▁ald
▁possi
▁cisplatin
▁implic
▁compound
▁idiopathic
earing
▁theore
▁throm
▁constr
▁pep
▁Hear
▁dosing
▁8,
▁classified
▁emerg
▁cortical
mol
oconstric
▁obese
▁cessation
▁trache
▁200
▁perfusion
olute
▁retard
3).
▁micron
▁altered
▁nifedipine
lastic
xate
▁SDS
adren
▁affects
▁ranging
▁adenosine
acts
▁bile
▁investigated
ostatic
▁micros
phosph
3),
ocor
containing
otri
▁cystic
-24
sych
▁dialysis
▁biliary
▁outs
▁splen
-5-
▁HSV
▁tendency
bumin
▁reveals
omized
▁6,
▁facial
▁stained
▁(1)
flamm
▁residue
▁injur
▁perfused
-10
vian
▁25%
▁enti
▁incorporated
2318
▁nmol
▁immunore
▁pancreas
idazole
▁mutation
iloride
▁epsilon
▁Fifty
▁phenomenon
▁cholesterol
▁benz
▁unstable
▁steroid
.9
▁ANF
▁4.3
toc
▁discontinu
▁26
▁strom
▁endot
opressin
anded
-14
▁muscarinic
tized
fected
acet
▁natriuretic
▁activated
carb
▁identifying
oplas
▁seizures
38
▁pharmacological
▁rectal
▁elong
▁maintaining
tic
1,
▁abolished
▁ischemic
uresis
▁cellular
▁mellitus
▁nM
gth
▁infants
mental
▁autoradi
70
esthe
▁Whereas
phosphor
▁longitudinal
thma
▁regulation
▁kinase
▁qualitative
▁contrac
illation
▁quantitatively
▁lipid
▁hypog
▁supplemented
ovine
▁insertion
▁suppres
▁1.6
2),
▁phosphatidyl
▁selective
1.
▁baseline
▁Serum
▁lateral
▁skeletal
▁volunteers
▁decreasing
▁trend
▁plas
▁islets
occal
▁utilizing
▁hydrophob
▁1-
▁inotropic
sA
▁parathyroid
▁blocker
▁reflects
TG
ipit
▁risks
tiveness
▁biopsies
▁presumably
▁rabbits
amycin
azole
▁consis
▁vesic
▁ADP
MN
▁4.6
▁pregnancies
crib
▁clones
genic
:1
▁survival
▁shortening
▁bac
▁descending
▁76
pig
▁balloon
▁hydrox
+/
▁Measure
3%)
▁fibroblast
▁lymphocytes
linked
▁duodenal
ogenesis
▁carbohydrate
▁utilization
▁peripheral
▁bp
oresis
glutinin
▁superficial
▁chamb
▁cereb
▁transcription
▁excit
▁PF
▁43
▁epiderm
odiaz
▁derm
▁wean
iability
▁bicarbonate
▁Hep
▁PRL
▁eti
epti
toxic
1%
osterone
▁75%
▁Compared
gesterone
▁gland
000.
▁2
▁resemb
▁cerebral
▁catheter
▁phospholipase
▁degradation
▁ovary
▁upstream
tual
roxim
/6
▁onc
iliary
nthe
▁cGMP
opathy
▁tach
▁MHC
.8
▁12
▁diagnosis
▁Recent
▁disappearance
▁intervention
reast
▁aspirin
▁glomerular
▁11
▁clon
silon
▁amiloride
▁allergen
sies
▁ethanol
▁caudal
7%)
▁discus
▁infections
▁lith
tum
▁eosin
▁Hg
-450
▁mug
mobil
▁14,
▁-2
▁linearly
▁AVP
▁responsive
plantation
ostic
▁EBV
aryn
▁neutrophils
▁clonidine
amino
▁fetuses
▁laboratory
▁granules
▁simultaneous
▁enriched
▁aortic
tral
▁ae
mia
ateral
epithelial
▁evoked
▁lidocaine
▁0.01).
igaret
▁implicated
▁affinities
▁62
▁pulses
▁PP
▁frac
semb
2%)
atment
▁phag
entan
▁limb
▁3.
▁achie
▁infectious
▁conditioned
▁(15
▁deterioration
usate
▁70
▁44
ifug
admill
▁NMR
▁carbachol
▁HL
▁replic
invasive
▁oes
▁emergency
▁ouabain
treated
▁implants
▁metastasis
▁7%
▁HDL
oneph
▁moderate
▁calmodulin
▁discrimin
orbent
gely
▁PKC
▁NP
▁48
terone
▁ineffective
▁exten
▁rup
▁recipients
▁physici
▁biosynthe
▁valve
vices
▁97
deoxy
▁15%
phil
▁plasmid
tetr
feren
▁melan
▁(50
▁electrodes
▁metabol
▁gluc
tine
ropathy
▁anastom
▁intestinal
mg
▁cortisol
▁inflamm
▁kidne
oproterenol
▁400
onate
▁94
▁100
▁hamster
atation
▁monkey
▁thoracic
ifferenti
▁inactiv
▁65
▁assayed
toph
▁3%
electro
▁specificity
▁excessive
▁HIV
pendent
▁striatum
thyl
▁4.
▁3.5
▁electr
onuclease
▁monoclonal
▁capsule
▁cardiac
▁dissection
esity
▁susceptible
▁paren
phenyl
tric
▁(8
▁cocaine
anine
▁beats
▁adenocarcinoma
-6
▁antagon
▁gradi
▁ery
▁mM
▁isoproterenol
▁inadequ
ifed
urine
▁acquisition
▁7-
▁gonad
▁ACh
▁microscopic
lux
mend
bular
.5
ituitary
achid
▁radioimmuno
otoxin
▁indomethacin
▁4)
▁dental
▁pharmacokinetic
henyl
▁cyclo
-16
▁induce
acr
▁molecules
▁onset
oglyc
ellar
▁Meas
▁resistant
tures
-2-
mediated
▁AMP
▁Wistar
▁provid
▁erythrocy
tur
▁comparable
▁accumulation
omycin
▁pathway
▁pharmac
mature
▁79
▁31
assium
polyacrylamide
▁23
/1
▁oxy
▁stomach
▁displacement
▁implications
▁determinants
▁HC
▁prostatic
▁recurrent
▁(13
chlor
lycer
▁fmol
▁regulatory
▁sple
▁putative
▁NADPH
▁acces
agic
▁detectable
utyr
▁cytoplasm
▁normotensive
▁defic
▁forsk
▁predominant
orec
ropriate
▁aorta
aicin
jun
opausal
ylamide
▁deoxy
urgical
iminary
27
▁glut
glut
▁mucosa
▁sampl
romycin
▁graft
1),
▁bilirubin
▁cyclosporine
ignificant
osyl
rophy
bacco
▁deterior
49
▁DH
ozo
▁73
▁pregnant
ocellular
▁brady
TNF
BM
▁secretion
▁lowered
▁lob
yro
resting
▁29
▁pathogenesis
▁proliferative
▁digestion
ocon
▁exhibit
ophil
oprol
▁sensitivity
▁trypsin
tenance
▁glucocorticoid
▁inoculated
▁precursors
▁endotoxin
ochem
▁ethyl
▁agonist
▁triglycer
spective
▁treating
▁availability
▁tended
omical
▁2.1
▁prostagland
▁dete
▁challen
▁latency
▁supple
trin
▁mAb
▁adrenal
osom
▁pancreatic
fec
ulph
▁nucleus
▁suspected
▁140
▁soy
▁0.000
sions
▁endogenous
▁calor
▁preparation
▁orally
blind
▁cDNA
▁neonatal
▁interf
feron
▁coli
opath
▁analogs
▁infil
▁turnover
-1)
▁arthritis
25
▁aqueous
▁malignancy
▁glyc
▁subpop
itant
▁ventricle
▁bilateral
orpor
▁haem
▁stimulates
ialysis
▁protoc
▁behavi
pite
▁platelets
▁opioid
▁reactive
-50
▁retrospective
▁microtub
▁triglycerides
▁titers
labeled
▁stimul
▁rhy
erox
▁electrophoresis
tured
oglobin
0.5
▁intermittent
▁mitochondrial
▁mediated
tumor
▁depressed
▁Recently
monstr
▁adop
FN
otrexate
▁peripher
▁80
▁Patients
▁heteroz
▁196
1-
loxacin
▁screened
▁allergic
▁adequ
2+
▁tRNA
olated
▁mutants
▁(4
▁differentiated
▁occlusion
trac
6)
▁examinations
▁encephal
essation
▁initiated
occus
▁cyst
▁75
▁endocrine
▁3.1
▁+/-
amide
tially
▁insuff
▁feeding
ometh
▁responded
▁suppressed
▁adduc
tious
-3
ipitation
BP
▁lute
LDL
▁untreated
▁therapy
▁cloned
▁calcitonin
▁colony
▁28
▁metastases
▁complication
▁mL
▁Golgi
▁reacted
▁reper
olved
olip
▁NADP
ensitization
▁horm
▁caud
athetic
mitter
▁oxidative
▁glucagon
.1%
▁fibre
ositi
▁Twelve
▁30%
▁37
antial
odal
▁cyto
ications
ogeneic
ritin
gative
▁acute
▁symptomatic
▁aging
ignific
oreceptor
emic
ociated
▁glomerul
▁PV
▁hepat
▁immunos
phasic
▁correlations
oprotein
HB
teral
▁mim
▁inges
▁progen
▁PE
▁anion
olec
ministration
illary
utaneous
▁recurrence
adequ
▁ventric
rosine
▁deficiency
▁Insulin
▁kappa
amuscular
▁bleeding
▁tox
▁0.7
▁histological
rhy
alact
▁1)
19
▁dehyd
▁exhibited
▁steroids
▁10(-5)
▁(14
▁10-
▁amin
▁cerv
▁ECG
▁infec
▁adenylate
▁systolic
itrate
▁cytochrome
▁scre
-[
▁phosph
shaped
▁examination
▁inositol
▁tetr
▁biop
tact
▁endometrial
olysis
▁psychiatric
▁extracts
ximal
▁vitamin
▁rheum
ATPase
lytic
▁lutein
ceptive
▁clinically
▁1.3
▁intestine
▁subgroups
hydr
▁creatinine
illus
acid
▁ech
▁recons
diastolic
▁neutrophil
]-
▁tas
▁competitive
▁cytoplasmic
dominal
educ
▁deficit
tent
▁suppor
hyd
▁uro
tagland
▁hepatitis
▁86
▁propranolol
▁perme
density
4-
thel
arent
▁collec
▁astrocy
planted
teine
▁interferon
ropyl
forming
unctional
▁heal
▁angina
ocl
▁posi
ching
▁terminals
▁fetus
▁interv
▁influenz
▁mortality
▁pneumon
▁1988
inesterase
▁tubercul
▁contex
esic
eroxide
▁regimen
▁tissue
▁(9
▁tiss
athione
▁blockers
▁ligands
▁contamin
▁chronically
-25
▁antibiotics
stim
ariate
▁bovine
▁benign
▁lipoproteins
ocial
▁gangl
▁0.05
▁neurons
▁drugs
▁glutathione
erative
ipr
▁intact
ropha
tussis
▁retinal
asive
▁efflux
▁compounds
▁1,25
▁immunization
erents
nitro
ayed
▁demonstrates
ofl
▁molec
▁basement
tophan
itary
▁Increas
▁involvement
▁0.15
taining
▁wound
olesterol
epam
sess
▁urinary
▁infusion
▁mild
▁decreases
▁placental
▁bolus
ucose
tation
▁fasting
▁concentrations
loon
ulose
-5)
▁fever
▁elastic
reactivity
▁EGF
▁physiological
▁fibrosis
▁Significant
owever
▁heparin
orption
▁elu
▁monitored
47
vul
renol
▁cardiovascular
▁64
500
▁offspring
▁neuron
▁Mg
35
▁cavity
ensitive
▁dose
leu
▁degeneration
▁fractional
▁mimic
▁pacing
▁drainage
▁enhanced
▁controlling
▁envelop
ocytes
RNA
▁necrosis
▁chicken
▁zinc
(+)-
▁pmol
▁ile
itol
▁discre
▁myosin
▁GA
▁metabolic
▁acetyl
▁adip
▁hypertension
ergic
adenosine
gluc
▁chick
▁anxiety
avail
6%
ffec
FU
▁clinic
ophilic
▁reflex
▁fibronectin
▁MIC
▁excretion
▁0.0
2+.
▁asymme
▁preferen
40
▁albumin
▁diaz
▁epilep
venty
▁phenotype
▁lymphocyte
▁analges
▁oste
.9%
▁lact
dehyde
▁identi
ureus
▁recombin
▁aspec
idin
▁uncom
▁depolar
▁irradiation
tition
▁interleukin
▁pediatric
-7)
▁atten
▁reversible
acted
entical
-15
▁Evidence
▁0.00
▁duoden
1).
▁splic
inephrine
▁cognitive
▁hetero
angl
▁90
▁inactivation
▁fatigue
▁histopath
lym
adiol
▁phorbol
sibility
hep
▁hyperplasia
endri
▁homogenates
▁reversal
▁unaffected
▁intravenous
▁deter
▁0.05).
▁-0.
▁differing
▁Cells
▁81
56
glyc
▁thickness
▁survived
▁ANP
▁chan
2-
▁tension
▁yr
▁47
trus
▁ey
▁peptides
▁45
▁wheat
▁transi
▁carcinomas
▁homology
▁depletion
▁adrenergic
▁motone
▁nons
pecific
▁tachycardia
▁duplex
cyt
▁elevation
etween
▁inhibit
tructive
▁eluc
▁chains
orphin
▁(4)
▁agon
▁enhances
▁glycoprotein
▁relaxation
pread
yrid
▁prolactin
▁intrap
▁verapamil
tle
▁coeff
▁chromat
▁oxid
▁dodecyl
otox
▁anomal
tron
ilibr
encephal
▁norepinephrine
▁enl
▁reactions
▁lowering
ctive
▁bacter
▁Changes
▁optimum
▁bacteria
trib
entral
▁TCR
titis
tensive
▁PT
▁ranged
▁1989
omes
▁strategies
ometr
▁stom
▁stret
▁guinea
▁moderately
▁monit
▁prophylaxis
▁discharge
▁oxidation
▁filtration
▁sinus
▁ventil
osomal
▁acyl
▁250
erating
▁phospholip
▁vaccine
▁35%
▁repor
▁preven
▁infected
ociation
▁fati
ographically
dies
99
26
▁hydrophobic
▁reversed
▁10.
▁sucrose
ullary
ocytosis
▁liver
plete
IGF
▁defective
▁msec
▁cryp
,000
hydroxy
ocyt
▁pathways
tracted
▁predic
▁phosphodies
▁restor
▁pronounced
Cs
▁supernatant
▁85%
oes
▁inflammatory
▁cG
zard
veolar
▁FEV
▁locus
oxin
▁2.
tif
▁radiol
▁healing
usive
taz
ycin
▁maturation
▁corne
erin
▁potenti
▁spon
▁12-
traction
▁epit
labelled
▁irradi
▁(0.
▁apparatus
▁prosthe
▁endothelial
▁inh
▁triglyceride
▁analyses
▁reser
.5%
▁symptom
▁fracture
▁5)
▁cholinergic
▁ml
▁functioning
▁monol
▁thrombosis
▁persis
taken
▁cortex
▁indication
opl
▁conformational
▁metastatic
sulf
▁synap
▁isot
▁trials
▁substanti
▁unex
▁vesicles
-3-
▁6%
▁ferritin
5.
▁kb
ulatory
▁prolonged
▁cerebellar
▁physician
▁conduc
▁alcoh
.8%
▁infar
▁pene
ordance
osine
iotic
▁construc
▁advan
ycl
fts
-4
▁2.9
▁inactive
▁currents
acrine
▁homogen
▁.0
▁examin
▁preferentially
▁questionnaire
75
▁immunofluores
▁erythrocytes
▁Bec
cAMP
▁normalized
otoxic
▁antagonized
▁reproductive
3%
▁supra
▁postnatal
carinic
tively
▁messen
▁2-
duced
ochemistry
▁10(
▁anaerobic
▁0.2
glycerol
olol
▁cleavage
▁EG
▁Doppler
▁calves
idity
median
▁angi
-20
▁keratin
▁phospholipid
▁32
▁instr
▁satis
▁reflec
▁athe
▁airway
▁impair
▁conserved
acyl
▁kidneys
▁mutant
▁slic
acin
oretic
▁organic
▁synthetic
osts
▁progressively
oxic
▁GTP
-2)
▁monke
▁withdrawal
▁cultured
▁pressures
▁5.5
terol
▁spermat
▁synthesize
▁Thir
▁alcoholic
▁neoplas
usal
▁cirrhosis
▁antibody
thyroid
/2
▁(0.5
▁molar
▁epithelial
▁illness
▁66
lys
▁muta
▁dendritic
▁brains
▁7.
▁metabolite
▁implanted
▁enlarge
▁granule
ochondr
▁thromb
▁examined
39
17
▁competi
itoneal
▁anemia
ograms
▁usefulness
▁perc
▁pertussis
▁labelled
▁detecting
▁cyclic
▁aspir
▁synaptic
▁3.9
inated
posure
topril
▁diminished
▁hippocampus
▁newborn
partate
molecular
tory
▁compartment
otropic
cessive
▁LD
▁macropha
▁amn
▁noc
▁resec
▁glutamate
itonin
entif
▁initiation
▁numb
▁1.2
▁NH
▁sepsis
▁(3)
5,
▁Neither
▁hypothalamic
-30
▁spinal
incip
▁supplementation
▁membrane
▁3.8
oscop
▁contral
▁copper
▁conclu
trol
▁hypoxia
▁circulating
oxone
▁myc
truction
▁1.9
▁0.001)
sive
▁limbs
88
▁fibr
matched
▁hippocamp
▁accounted
hemical
▁8-
▁130
Hg
▁melanoma
▁spine
ercise
▁4.1
▁hormone
▁complications
ereb
▁0.01
icardi
▁brush
echn
ucl
derived
▁gradual
▁colonic
ocyan
▁pathology
▁progesterone
▁agonists
▁capillary
▁irrever
▁sperm
releasing
▁strain
ritis
▁LH
▁limiting
▁mann
▁underg
15
▁analysed
astric
5).
iaz
phrine
ilateral
▁gestational
otides
leukin
▁favorable
▁cirrh
jec
▁outflow
450
▁85
▁mineral
4%
unced
▁dilution
▁comprised
▁24-
oreactive
titution
tituted
▁sti
▁potency
yroxine
▁vasoconstric
assi
inositol
▁characterized
plies
elves
ulmonary
ectomy
▁binds
▁NGF
1)
2).
lymph
onyl
▁fluores
4%)
▁symptoms
astolic
86
6.
▁prevention
▁abnormality
ticular
▁shif
▁proportions
▁schiz
▁alanine
▁galact
▁perin
▁assessed
▁alcohol
▁saturation
▁diabe
duc
0-
▁IgA
▁depres
▁thems
▁0.
ylate
▁disorders
estis
▁respon
▁omega
▁HLA
▁concomitant
▁serotonin
ocardi
▁methionine
icine
cepti
▁LC
▁plac
atible
▁congestive
▁connec
▁dissociation
vascular
asic
ploy
▁drinking
ifferen
orepinephrine
▁MRI
▁tolerated
▁exceeded
▁gastro
olution
▁clinical
▁statistically
hydroxyp
▁vein
▁ect
idne
lood
▁0,
▁jejun
MV
▁statis
▁0.02
ascular
▁oxidase
▁Thirty
ocortic
▁olfactory
▁thymidine
ospitals
▁antibodies
▁intracellular
entricular
▁normo
ecu
▁(40
lycerol
lact
bodies
▁assay
▁progres
ields
Phe
▁progression
▁ratios
sized
▁ionic
▁50%
▁decline
▁evid
▁vasopressin
ture
arge
▁antagonist
trop
▁cen
▁CSF
iciently
alian
▁fibrillation
modulin
44
▁shifted
odil
opamine
dine
▁distin
accharides
chymal
tox
▁IgE
▁medulla
5%)
seven
meth
▁canine
▁prolif
▁establ
▁120
orbol
▁abor
acting
▁peroxide
▁myelin
▁Previous
effec
▁follic
▁0.4
▁hypot
▁beneficial
▁centr
thmatic
▁pretreated
▁isolation
▁overl
▁deposition
ronch
▁oxygen
▁asthma
▁20,
▁chromatography
affected
▁conditioning
▁concentrated
▁10(-7)
▁cathe
▁immunodef
rocy
ocin
▁struc
▁prol
▁lens
▁quantit
tinu
otassium
▁basal
gans
▁CRF
▁rhe
▁prednis
▁PGE
oactive
6,
peptide
ifugation
ATP
thrombin
(2+
virus
▁electrocardi
▁mell
▁neuro
oxy
▁cutaneous
14
▁dys
▁1:
cyclic
treatment
uoden
▁thymus
▁ovarian
▁0.03
+,
▁puls
▁hydrogen
▁motility
▁reveal
▁mumol
▁hep
▁intraper
▁perox
▁hepar
▁asymptomatic
▁1.4
uble
rease
%),
omal
▁transferrin
▁lectin
-1-
erad
bral
▁HB
▁pH
▁intravenously
▁assessing
phosphate
immun
▁transloc
▁fatty
57
▁adhesion
PSP
▁practic
oside
▁postoperatively
▁lam
▁receptors
activated
eptid
atoid
▁ana
atase
lastoma
▁5
ressed
▁veins
▁anat
▁Sout
▁reflux
▁carcin
▁coupled
1%)
▁soluble
yel
▁CNS
▁lipoprotein
▁7.5
▁incubated
mented
▁PMN
bloc
▁immobil
▁sulf
▁osmotic
umerous
▁granul
▁vesicle
icep
▁reactivity
8+
vents
▁preoperative
▁70%
-100
radi
▁yielded
9,
▁dihydro
▁spati
▁ELISA
▁extrac
▁transcrip
▁uter
▁consecu
vation
▁lymphoid
▁mono
▁sph
34
esium
▁elderly
▁gradients
sensitive
ocarcin
plas
▁strains
▁hams
tidine
▁affec
mediately
myc
▁percutaneous
▁surge
▁produc
cence
▁increas
/100
45
66
hetamine
▁proteins
▁distal
▁thym
▁hybrid
osomes
osus
▁urea
▁chemot
▁substantially
▁1.
▁carbohyd
tization
▁retur
▁hyperg
amus
▁antisera
▁fluids
pinephrine
▁pulmonary
▁knee
▁shorten
▁alterations
tabl
▁thi
▁25-
▁loci
ellular
▁prognostic
▁0.001),
▁2.5
▁1.0
▁sensi
▁0.1
▁subun
▁paralle
▁follicular
tamine
ctomy
uric
▁admission
▁detec
infected
ilized
ncy
▁continuously
▁lipids
▁6
▁relap
▁lyso
▁nuclei
▁hypothal
▁menstr
trogen
lyce
osal
▁carriers
▁wash
▁coag
▁smo
kinin
▁circulation
bladder
ectomized
▁cis
asal
▁compli
▁60
adily
▁secreted
cephal
▁coval
▁Leu
▁intrinsic
▁stu
▁oligonucle
▁gels
▁5'
ication
▁effectiveness
▁inhib
▁peptide
▁paras
▁barrier
16
actin
▁pig
▁reviewed
abain
arrhythmic
▁(95%
▁decarboxylase
▁antigens
hydrox
▁contracep
▁attrib
▁inhibits
usp
selec
hist
natal
oprote
gthen
▁variability
▁multic
▁macrophage
hypertensive
otor
stimulated
hion
adm
▁biochemical
ejun
▁syndrome
timal
ectin
▁infused
▁TRH
iary
▁tubules
▁defec
▁mononuclear
.4
ulin
onin
13
▁aden
tin
▁anaesthe
▁interstitial
stimulating
▁receptor
▁labeling
▁kinetics
ivered
itr
▁Cd
▁centers
bacter
hyp
43
▁199
▁dendri
▁cate
omers
▁chest
tative
▁invasive
▁prophyl
▁contralateral
reactive
▁promoter
grees
▁secretory
21
▁vivo
odynamic
▁metast
▁differentiation
30
▁exposure
▁ipsilateral
▁luteal
▁leukotri
-2.
idate
▁smoking
▁esophag
▁mothers
▁ori
▁membranes
▁4-
▁qualit
olgi
▁predomin
▁hypoxic
▁seas
lec
▁fibrinogen
ologic
▁aerobic
ighted
▁sequenced
▁suspension
hydro
▁estradiol
▁wk
ucle
reased
molec
▁undergo
pharose
▁125
robial
.7%
▁(3
▁cephal
▁cryst
▁ascorb
▁mammalian
derly
▁stab
ilic
atient
▁dendrites
▁monkeys
scherichia
fib
▁heterogeneity
▁Immun
▁promin
▁congen
▁optic
athy
▁enhancement
ompan
▁attemp
▁87
▁stric
▁arrhy
▁pyl
▁analogue
▁plaques
▁glutamine
▁oral
▁160
▁pathological
osidase
▁clamp
▁HPLC
oxygenase
▁chemically
rox
generation
▁prostaglandin
▁uterine
▁underst
coun
▁somat
thymidine
▁IgM
▁chloro
6-
versely
rele
▁ganglia
oidal
▁ppm
-4-
ergen
ancies
centr
▁affecting
▁dexamethasone
ogenous
ffinities
athe
▁marrow
▁quantified
armac
▁membran
▁GABA
ylated
▁4.0
ocamp
EA
piratory
▁immunological
hyde
0,000
▁mucosal
tiz
oracic
▁virtually
▁mediate
▁polypeptides
▁hap
4).
▁arter
ethylene
▁nonspecific
▁Additional
▁0.3
▁healthy
▁permeability
Nase
▁injuries
▁sugges
125
▁diagnostic
ocardial
▁childhood
▁intrac
▁unrelated
7)
ogenicity
uary
epine
▁fluoride
rents
▁murine
olamine
atinine
erated
toxin
tivities
▁dele
▁describ
tryp
▁intub
▁hipp
▁randomized
▁instrum
iotics
▁proce
▁8
▁previ
▁300
ingle
▁Comparison
iper
Gl
▁2.4
▁deaths
▁perip
▁tooth
▁predis
▁hypothe
▁antibiotic
ipramine
▁surviv
gland
acetate
▁pate
▁systemic
▁oxide
siologic
3.
▁1/
▁Nine
▁mamm
▁nutrition
▁allogra
▁30
▁(100
▁27
▁interc
▁conjunction
omat
▁biopsy
glucose
▁affinity
tically
physiological
▁etiology
receptor
▁prevalence
▁LDL
▁mobilization
▁indications
▁hydroly
▁dilatation
▁polyclonal
▁determining
rates
▁probes
+-
positive
▁KCl
▁pneumonia
▁mutagen
mega
ositol
▁complic
▁androgen
ffinity
rologic
ovascular
viral
▁prospective
opoietic
oxid
▁20.
olic
kinase
▁congenital
▁medication
▁biphasic
▁esters
▁cumulative
▁nucleotides
▁solub
▁cation
▁cytoch
sibly
0.
▁elevated
▁adequate
▁measuring
▁hypertro
kine
enteric
▁VIP
▁unde
▁MT
▁afferents
oate
▁adi
▁Fc
▁mammary
▁glomer
▁histologic
▁venous
etitive
▁satur
tice
▁hind
trate
▁cigarette
▁radiotherapy
▁idi
stolic
▁Overall
eptides
▁preparations
.6%
tinguish
tus
▁150
▁excl
-1,
uron
atest
▁cef
▁IFN
▁diffic
estern
icients
▁(0.1
namic
▁anesthetized
▁additive
▁phosphatase
▁inhibitory
▁0.5
▁exce
▁exogenous
ylation
ecyl
▁amplification
▁predominantly
▁arti
▁functionally
▁diarrhea
kely
uppression
duction
▁3.3
ranolol
▁recor
▁acet
tention
▁projections
▁serine
▁frontal
▁cytotox
vely
▁sediment
-7
▁porcine
▁genome
▁differen
oceptor
▁nerves
▁toxin
▁viral
responsive
▁obesity
▁slices
▁aspartate
▁lumbar
▁spont
▁practition
aturation
▁acetate
anol
ylcholine
▁prospectively
mittent
▁disturbances
8%)
▁colorectal
▁controver
.3
▁arrhythmias
produc
▁91
▁ambulatory
▁astro
▁thyroid
azol
▁dex
▁(2
inally
minis
▁Hb
▁carb
▁correlated
▁ovari
▁ulcer
▁glycogen
8.
▁77
▁coagulation
▁rhythm
▁Americ
ults
▁dyn
▁chol
▁differed
▁encoun
oscopy
▁analogues
onary
▁0.8
▁biological
cells
aryngeal
▁chromosomal
ducing
dose
▁glycerol
▁inactivated
▁saturated
▁13-
▁HR
urther
pregn
▁atr
28
ophageal
icin
▁undergoing
arrhy
hydrop
▁fron
▁-1
luding
▁proteoglyc
phosphamide
eak
2.
▁lobe
oA
▁inhibitors
▁nig
▁epidermal
▁GH
▁infection
2,
ofluores
(1
▁libr
▁(0
▁abdominal
helium
▁88
▁intra
respective
chym
tiv
▁peritoneal
▁PAF
▁patches
▁diseases
▁antigenic
▁PB
ovirus
▁retin
▁40%
chloride
thmic
geal
▁depolarization
▁20%
▁intracranial
▁ester
▁monomer
▁prevented
▁conductance
uvant
ially
▁transpor
▁(20
independent
▁8%
.3%
▁Forty
▁severely
▁(6
▁embryos
▁spontaneous
▁71
▁chemotherapy
▁acids
▁Kd
▁pleural
▁insulin
▁subjected
▁relapse
linking
▁4
▁sarc
▁ulc
▁hemat
resistant
▁cortic
▁pretreatment
▁3.4
▁reproducible
▁eryth
▁lavage
amethasone
▁TC
▁MAP
▁BP
▁tobacco
000
▁antigen
▁arachidonic
▁dors
-5
orts
clerosis
▁1.7
6%)
fed
▁quin
▁synthase
▁hypertrophy
unts
▁plaque
▁transient
eptidase
odies
▁neph
ontal
oxygen
▁molecule
BV
▁elimination
▁ligation
▁3.7
-11
▁multiv
embran
▁severity
▁maternal
▁placenta
▁sulfate
oluble
idated
▁hybridization
▁virtu
tomy
▁adults
▁anesthe
▁techniqu
▁GnRH
▁90%
▁mRNA
▁breathing
ergy
-1.
▁AIDS
0%
tructural
▁Initi
affinity
MDA
▁shor
▁promo
rogenase
▁lethal
▁glucocortic
▁nerve
iant
galact
▁equilibr
▁15,
▁cartil
▁succin
▁intrav
aminase
▁operative
▁morphine
omotor
rosis
ogra
jug
gic
ficial
▁tryptophan
▁preventing
▁compliance
▁accel
ithi
▁Twenty
tead
▁duct
▁ventral
▁laminin
▁mice
ypical
▁SHR
adrenergic
▁creatine
▁averaged
▁accumulated
▁stenosis
▁20-
▁spor
▁vaginal
amous
ygous
▁13
▁inflammation
▁angiography
▁gamma
ophren
▁lumen
▁myocardi
-19
▁BALB
▁stimuli
▁thyro
2/
▁hepatocellular
▁proximal
arly
operatively
transferase
▁elicited
▁CTL
0.0
▁chlor
▁microsomes
acchar
▁prostate
▁placebo
iciency
ymptom
GF
▁2.2
▁macrophages
olateral
tage
▁cruc
▁innerv
▁93
▁NMDA
▁refractory
▁2.3
▁incorporation
▁immunity
tions
▁proton
▁.00
▁chor
rine
▁kinases
dered
▁conclusions
▁cytosolic
▁vascular
apeutic
▁passive
ospor
onomic
▁decreased
veness
▁subunits
▁cys
▁edema
8,
▁tumour
5%
anding
▁behavioral
CoA
olipoprotein
▁analys
rotid
tase
10
RH
▁axons
▁correlates
▁epithelium
micro
▁gestation
▁oligos
▁postsynaptic
onucle
▁autologous
▁somatic
▁iso
▁facilit
▁ejection
▁papill
astom
▁0.25
kephal
▁enzyme
-9
▁stren
▁Increased
▁considerably
▁imaging
▁Plasma
▁dopamine
▁intense
zyme
▁subjec
▁nal
▁inhibitor
▁iod
▁19
jected
▁beha
aneously
ocys
▁42
▁peaks
▁SEM
▁vag
osome
▁cultures
-4)
▁ultras
▁95
ylic
crimin
luded
▁polyp
ensity
▁mitochondria
5)
omethacin
▁myocardium
▁1.5
▁Eight
▁selectively
▁residual
terase
sia
uppres
▁incub
▁1.8
▁14
▁[3
▁cartilage
▁mitral
▁mast
timulation
ochemical
onography
▁spontaneously
▁(0.0
▁absorption
4,
adder
ellum
37
▁resting
▁targe
▁saliv
▁3,
erate
rever
ocomp
▁follicles
menopausal
▁neurop
▁corticosterone
▁41
ocytic
0,
▁exon
▁thir
▁extracellular
controlled
▁induc
▁lec
▁pneum
▁inversely
▁intram
▁5-
▁5'-
dition
▁Escherichia
ergency
7%
22
tance
▁aor
▁tachyc
urea
▁plateau
teroid
32
tro
acil
8).
dle
▁extraction
hern
▁incidence
▁precur
▁testicular
▁rele
▁tyrosine
ophy
▁ventilation
▁abnormal
▁methyl
▁1986
▁PTH
▁difficul
▁entero
▁198
tran
▁95%
ocular
▁rejection
▁muscle
bearing
sor
sors
▁ventricular
tives
adrenoceptor
▁proliferation
▁quanti
▁subc
▁hypothyroid
▁decarbox
▁potassium
otherapy
▁tumours
▁ligand
▁decreas
▁nucleotide
ostatin
opres
▁Staphylococcus
oxane
tive
▁[14
DH
oids
tents
▁urine
▁apical
▁lys
▁afferent
▁arterial
▁islet
throm
aced
enicillin
hest
opa
drug
▁transfusion
90
siveness
▁spectroscop
▁markedly
duce
erent
bac
▁GM
▁aldosterone
9)
▁lymph
▁phospholipids
kines
▁inhal
seud
spectively
asone
▁catalytic
tical
▁yiel
/10
▁fibroblasts
▁carboxyl
▁infarction
▁smokers
▁reac
▁immunized
24
▁sympathetic
itamin
▁epinephrine
▁Hz
lusion
▁differentiate
riched
▁supernat
▁microsomal
cine
▁consistently
▁pharmacokine
▁phosphatid
▁adverse
▁indi
▁influenza
trated
orac
▁protease
▁myocardial
oag
▁cAMP
icient
▁forskolin
hea
▁MI
▁80%
clonal
▁subcutaneous
queous
▁TNF
▁0.01)
▁amph
▁monocytes
▁rati
olytic
-1
▁testis
rated
▁natri
▁electroly
-8
▁homologous
plasia
yrox
electric
tradiol
▁neuronal
▁hemorrhage
tension
.6
▁bab
▁chromosome
coated
▁98
▁ure
unctions
▁dimethyl
-6)
▁organs
patient
▁nitro
▁51
amines
▁impairment
▁50
▁dramatic
▁atrial
▁histamine
▁yeast
▁morbidity
acrylamide
▁lumb
▁PGF
▁6.5
▁determination
▁projec
▁preval
▁TPA
▁phenyl
atitis
loid
▁screening
▁Plas
itals
▁retic
▁postoperative
lyl
▁EEG
ronectin
▁recombinant
7,
illar
▁dorsal
inic
▁commerc
▁thal
4),
▁17
▁2.7
▁accep
▁temperatures
tisol
▁exclusively
▁nutritional
aminop
2;
18
platin
▁muscles
29
▁adherence
crip
▁weekly
plication
adian
▁36
▁grafts
absorption
▁neurological
▁15
▁72
oplasty
▁22
obl
▁tissues
▁ultim
robic
▁unilateral
▁transcripts
▁leukocytes
regulation
yste
otroph
transfer
▁63
▁NF
truc
▁administered
nai
avage
▁radioactivity
3,
▁nursing
▁rheumatoid
zymes
