▁ovarian
trogen
▁GA
▁suscepti
erent
genic
ectin
▁pyr
▁measuring
idase
ogenous
▁randomized
▁incub
otyp
▁mmol
elec
otor
▁bone
opathy
ture
▁deficiency
trum
▁differen
▁acids
veness
▁responsiveness
inated
▁statistically
▁plac
tein
requ
▁hormone
generation
ergy
idation
▁vesicles
gth
▁biopsy
atitis
▁metast
▁gon
▁immunoglobulin
▁inhib
▁pregnancy
▁stimul
▁inhibit
▁intrac
lux
▁exposure
hydro
▁injections
methyl
▁characteris
▁bronch
▁produc
▁hep
▁inflammatory
urine
itro
ochemical
seud
tors
duction
linked
teroid
zyme
cence
▁hepatitis
tions
▁establ
▁hydrox
▁screening
gesterone
mented
▁abnormalities
▁sulf
tively
▁impaired
eration
▁benz
▁inhibitors
arly
tur
ygen
inally
▁detectable
▁uptake
ilateral
▁assessment
oglobulin
▁reactivity
iaz
olec
angl
▁objec
resist
ximal
▁receptor
▁spon
otype
▁stab
▁plasm
stim
ylated
▁seroton
rolog
▁histamine
▁synthesized
▁predic
utaneous
▁sour
▁infants
sia
▁PD
oxin
▁structural
tivity
▁retur
▁strains
▁eryth
onary
▁toge
▁glomer
▁administered
▁alcoh
▁chronic
▁pulse
▁tension
lym
▁inhibitor
▁vitro
orac
▁kinase
▁bypass
ingle
▁dehyd
▁panc
ylase
itary
oxygen
rosis
▁cardi
▁diagnostic
olytic
ching
arent
▁tissue
▁resec
▁affec
onate
▁toxic
▁toxicity
▁retic
▁antagon
▁depression
▁mg
rocy
nec
▁sple
▁glyc
▁transcription
▁altered
▁symptoms
▁chloride
ocl
▁polyp
▁basal
assi
▁antagonists
azole
▁atrial
▁depres
▁suppressed
▁intact
▁fractions
▁gastric
▁discus
▁quantitative
▁assays
▁wee
tic
▁poten
▁cys
olesterol
tro
chol
▁constr
keletal
▁dys
▁undergo
hydrox
ateral
rous
▁markedly
▁postoperative
▁biological
pite
▁pregn
ensitive
eptide
▁vag
▁diets
▁doses
▁consecu
▁diabetic
▁diastolic
▁rhy
▁identif
▁dose
▁concentrations
▁vein
ycin
idine
▁retin
▁dorsal
▁enti
ecu
▁prostaglandin
rease
▁severity
▁cereb
anine
▁agonists
▁determination
odil
plied
▁disorders
terone
▁sten
oids
▁lymphocytes
▁thyroid
▁distal
sion
▁tox
olution
cepti
▁oste
▁behavi
▁urine
▁aden
tenance
▁progn
▁abnormal
olol
ocrine
phosph
▁atten
resistant
anol
▁suppression
▁enzymes
DH
omal
otox
lec
▁reproduc
▁uter
rogen
▁fetal
▁complic
tric
▁ech
associated
emic
tisol
▁progressive
ologic
yro
tory
ronch
▁prol
▁blot
icin
reased
ication
▁Twenty
▁reas
epti
itone
lobulin
sess
▁absorption
▁tas
▁analyses
illin
icient
▁ester
otherapy
▁sero
tral
dition
▁carcin
▁receptors
▁agon
▁trials
loro
esic
▁reversed
avage
coh
spective
▁elic
bumin
▁healthy
▁laboratory
▁perfusion
▁survival
okine
▁sensitivity
▁lymph
ipit
▁correlated
▁acute
assium
▁viral
▁pituitary
▁spontaneous
▁angiotensin
▁antibody
▁electrical
▁potenti
▁alcohol
▁micros
lycer
▁excre
▁phosphate
▁regulation
ocial
▁cate
▁dex
▁feeding
▁achie
▁progres
▁interleukin
▁experi
leukin
▁challen
lusion
ovascular
osomal
▁complications
▁methyl
thyl
▁ultras
▁localized
▁supple
▁adren
▁strain
▁stimulation
▁potassium
ignific
iatric
hyd
▁compounds
▁untreated
▁carb
mentation
▁Bec
arb
▁impair
▁thromb
▁prevalence
amine
ocytosis
▁lact
▁immun
RP
▁dysfunction
operative
▁intest
▁initiation
treatment
▁adults
effec
ayed
▁valve
sy
aturation
▁dopamine
tance
▁moderate
▁subjec
tingu
went
▁increas
odium
▁unchanged
▁provid
itol
▁statis
tained
▁placebo
▁nervous
▁infar
▁surf
trib
▁renal
▁sodium
kely
▁heal
induced
▁biochemical
▁infusion
▁injected
▁syndrome
▁substanti
▁ischemic
sis
▁recor
▁examined
atients
▁tes
anding
omes
▁urinary
otassium
▁adap
▁probe
apse
plas
acchar
▁surgical
tional
▁leuk
ranolol
▁assessed
▁vascular
mend
pir
jec
▁nons
▁pH
▁LT
ses
▁characterized
osterone
▁intra
inergic
▁transient
▁exhibited
treated
dominal
mong
▁metabolism
▁predominantly
▁bloc
▁oxygen
▁lesions
kers
ochrome
tically
▁amin
▁cultured
▁glomerular
adder
owever
▁analys
radi
▁rats
▁adrenal
▁drugs
▁systolic
opres
▁neurop
roup
▁monit
▁posi
▁acet
▁electr
feren
ensi
▁enhanced
▁muscle
▁cerv
▁HP
▁neonatal
▁guinea
ocyte
▁membran
▁diffic
idne
tact
▁elec
▁plasma
osyl
tensive
▁intake
piratory
entif
▁involvement
▁membranes
▁gestation
entricular
gluc
▁spinal
▁cerebral
itant
▁injur
uble
▁lipid
▁progesterone
▁excretion
DNA
▁estrogen
▁reticul
terol
▁bacterial
BP
▁antagonist
▁genetic
▁injec
▁albumin
▁labeled
▁Patients
▁examination
monary
▁pig
▁cortic
▁kidney
▁hypothal
▁immune
▁preparations
▁cervical
amide
▁myocardial
orption
▁antib
▁peripheral
echn
ymp
ensity
iable
▁occurring
▁suppres
▁perip
▁stren
geal
▁gland
▁potent
▁chan
▁cardiac
▁enzyme
▁glut
ascular
▁tach
▁dietary
▁preval
ethyl
▁diagnosis
▁neph
duced
tice
ardia
tration
▁respiratory
yroid
▁bacter
▁quanti
▁ery
▁decreas
opath
ffin
▁cyt
▁pancre
urther
mitted
cine
oic
tin
trac
▁suppor
acr
▁attenu
▁requi
tiz
▁numb
▁hypo
astolic
▁IgM
▁resting
▁rele
▁analyzed
▁steroid
▁precur
fusion
▁antic
▁testosterone
▁glycoprotein
▁intravenous
rents
▁examin
tensin
▁persis
▁exten
▁extre
▁infected
▁cere
▁Hg
▁antibodies
▁surgery
ctive
▁IgG
▁arterial
▁endogenous
ostic
▁comparable
tical
▁treatments
ritis
▁pharmac
▁ventricular
lyc
▁findings
▁diseases
ignificant
▁aspec
▁elevated
entral
ercise
▁hepatic
▁extrac
trol
▁insulin
▁experim
▁filtration
▁PT
▁decline
▁hepat
▁fatty
▁oral
▁fiber
▁transi
▁liver
▁respec
▁tolerance
tured
reast
▁exis
taining
▁kidne
entric
acet
▁Tran
tive
▁specificity
▁restric
respon
▁extracts
▁ischemia
▁onset
▁granul
▁rati
▁HLA
▁synthetic
▁resul
tent
▁smo
containing
▁stimulus
osal
▁stenosis
▁excl
gative
tention
▁reactions
▁decreases
▁detec
tures
ration
eric
adrenergic
▁describ
▁iso
▁cyclo
▁maternal
ulatory
pecific
▁hetero
▁angi
▁glucose
mol
oprotein
ditions
accharide
▁horm
▁quantit
toc
▁pneum
▁prevented
erence
▁actin
ergic
oscop
idity
▁cis
▁cardiovascular
▁incidence
▁malignant
▁hypertensive
▁epid
omycin
▁ure
▁pati
till
▁coli
▁unaffected
▁neon
▁deter
▁mamm
mature
▁spont
tension
enic
▁malign
▁efficacy
▁sustained
▁cholesterol
armac
▁sulfate
hist
▁melan
bility
▁isolates
mia
▁artery
▁indi
▁symptom
▁physiological
▁Treatment
amic
erate
▁arter
onucle
▁cultures
▁effec
▁therapeutic
▁LDL
▁differe
arge
▁infections
▁defec
produc
ulin
▁diabetes
▁underst
odies
▁renin
▁plas
sych
▁preparation
▁sensi
▁inhibitory
▁protoc
▁graft
olic
▁Escherichia
tle
▁respon
▁reac
▁elevation
▁HIV
▁subc
tics
ially
▁underwent
▁coronary
orrh
eled
ocytes
tiv
▁investigated
lood
▁pulmonary
ociation
tif
tial
▁scre
itamin
ocyt
▁Addition
▁relaxation
▁throm
orpor
▁phosph
adren
▁ey
▁attemp
vely
▁hig
▁biop
plasia
▁calcium
▁antigen
tox
iotensin
dle
▁meth
▁lateral
imens
▁possi
▁conduc
loid
▁shor
▁clinically
▁assay
▁reactive
▁remo
▁serum
duce
▁perox
▁hypot
▁TSH
▁resistant
▁bacteria
ocaine
▁therapy
▁induce
▁agonist
tation
▁diet
▁embry
ffec
▁sugges
▁mortality
aired
tially
tinu
▁physici
sive
ortic
iotic
▁chol
siveness
▁hypothe
▁neuro
▁clus
▁hemat
plication
amus
▁nerve
▁concer
▁selec
▁lipoprotein
▁infection
▁immunos
▁pretreatment
▁contraction
▁ratios
▁sampl
▁reflex
▁preven
ilic
turb
tility
onstric
▁intestinal
▁chlor
oyl
▁reflec
▁skeletal
oxy
▁carcinoma
▁mucosa
▁chemotherapy
▁bladder
▁vitamin
▁LV
leu
▁dors
lobin
▁molecule
▁clinical
▁clon
ogenic
▁baseline
otypes
▁diabe
▁selective
natal
▁infarction
▁beha
▁struc
▁pancreatic
ectomy
ameth
ocar
crib
illary
crip
▁tumors
tural
inic
ologically
▁muc
▁gonad
oglobin
rine
aline
▁proximal
actin
▁gluc
ucle
▁mice
▁heparin
▁repl
iciency
immun
hyp
duc
echan
▁techniqu
▁mild
bral
▁decreased
▁tumor
protein
▁recur
ticular
asal
LV
dose
osom
▁tiss
▁inflamm
▁cytochrome
▁nitro
▁hypox
▁lesion
▁reduc
acin
▁systemic
▁soluble
uretic
▁prolonged
▁vaccin
ichia
▁bac
ults
rox
iol
▁repor
▁consis
▁metabolic
▁venous
▁ranged
▁gradi
mg
▁hypertension
tile
▁nec
▁gastro
mental
▁stu
▁phenotype
olysis
positive
