▁immig
▁unres
▁metastasis
.0
incip
erin
gans
▁pathways
▁PMA
▁10.
ardia
▁melanomas
▁epid
clusive
19
▁hypers
tructural
LDL
▁analyses
▁underlie
spective
▁physicians
▁resected
amn
2+
tur
cad
▁hormonal
nutrition
▁extensor
.7%
omal
oxin
▁epithelium
▁OA
▁adjunct
relations
anine
▁hetero
2%
▁haemorrh
▁Phy
▁insertion
▁overe
▁endoscopic
69
▁rhe
▁contaminated
▁struc
fec
meth
▁salivary
mixed
▁medication
▁slowed
▁porcine
▁Phe
ensi
ACS
▁meal
eclampsia
▁metastases
▁cumulative
▁guan
▁synov
minis
▁aldosterone
▁manifestations
▁stimulus
lasts
ailure
▁3-
▁determining
▁pronounced
MN
eration
▁suggestive
▁12-
ulates
IgM
ocarcinoma
▁decreas
▁aerob
▁opi
▁fatty
ressed
▁iliac
ivocal
▁noradrenaline
gments
entanyl
▁retrospective
▁phosphatid
▁injected
▁somatostatin
▁neo
▁concomitant
-7)
duce
▁pyram
▁fetus
CMV
▁packing
mur
▁radiological
prising
▁ocul
▁reversible
ressing
▁carotid
▁bronchial
▁mutagen
▁0.0
▁resear
▁schizophrenia
rowth
▁construc
dimer
sych
▁cues
▁glands
▁hypoglycaemia
ylamide
▁Nine
rous
▁scre
▁guidelines
▁revealing
▁gallstones
ygen
wk
▁Immun
ults
onin
erad
▁epidemic
▁iso
orac
tics
▁transloc
▁haem
▁exogenous
▁infect
▁DG
▁indicative
▁bab
stimulated
fine
▁remission
▁PTH
▁stratification
▁endarterectomy
▁occlusion
▁19
ocyte
▁pharmac
quid
atase
▁estrogen
▁alcoh
actin
ethyl
▁reversed
▁perox
sequent
▁epidermal
▁pyl
arean
ivation
+)-
▁consol
▁pressures
▁CSA
sy
▁enteral
▁cann
▁PCP
ithi
▁apex
▁membrane
reased
ymp
▁complaints
▁59
▁collagen
icardi
▁lactate
▁phosph
ithiasis
▁challenges
▁Bone
iatric
cephal
osome
▁stomach
▁vesicles
▁fibers
▁controversial
▁preferable
▁prolactin
▁polyp
▁catechol
▁vagal
urgery
▁ovari
▁excision
▁correlations
▁overex
▁(7
▁symptoms
10
▁fiber
▁amyloidosis
tagland
▁secretory
threatening
idis
▁conclusions
mg
▁32
hest
▁coli
▁sequelae
oglobin
▁reactions
▁fibrosis
generation
▁thal
▁genes
▁sustained
▁zinc
▁ile
▁histamine
▁postoperative
▁acco
lec
▁conserved
trac
eric
▁aneurysm
crib
▁cortisol
▁tetr
▁membranes
▁impairment
chol
▁musc
▁maternal
▁cereb
ilic
ollicular
▁nec
▁endothelin
▁dyn
opam
ometr
▁clinician
atine
▁vancomycin
▁biliary
▁insurance
▁mumol
▁4)
omers
▁gradients
ipher
▁spontaneously
▁buccal
amination
vascular
▁9
▁surgical
▁homogeneity
▁irradi
ocele
▁impaired
terone
▁absorption
onary
▁NB
▁preservation
roin
▁myocardium
97
▁femur
.3
▁conservative
olic
▁hypo
▁psychological
▁differentiate
▁ranged
▁solub
▁nig
▁hypertension
▁cultures
▁progression
8%
▁symptom
▁spontaneous
▁inhibits
tebral
ocarcin
▁pharmacological
▁mM
diol
phyl
▁10,
MRI
anol
▁malignant
21
▁disability
rever
▁arteries
▁LN
asal
containing
GD
toph
▁unm
▁preliminary
▁resection
ochemical
siveness
▁1.3
rated
terminal
tive
▁biological
56
▁behavioural
tin
▁TB
osal
▁tumor
▁osteoporosis
aryn
▁doctors
linked
▁tyrosine
▁exchan
▁adenylate
▁abd
▁Failure
▁produc
bumin
▁nitrogen
acet
itin
▁lob
▁undergo
▁MHC
▁traum
ocytes
rolog
▁chloride
RP
▁cigaret
ovirus
▁lys
gluc
▁granul
▁widespread
▁sucrose
▁PGE
▁trials
alsy
IU
udin
▁dete
▁dodecyl
0.5
treated
▁VL
ateral
▁determination
tering
WL
▁attending
versity
▁prednisone
odies
ropha
.1
chym
▁portions
▁anaesthe
▁risks
▁tox
▁TSH
ophag
protein
▁antib
ronch
▁Steady
atients
▁drops
▁reagents
ocamp
odil
sis
23
▁adi
▁electroph
▁protective
▁employing
▁prevalence
uccess
▁unselected
▁enzym
▁hypothal
ocrine
▁mann
atell
tle
diagn
▁oxidation
▁fron
6%
▁8
▁confound
▁detec
▁intact
zyme
essive
▁(10
▁vaccines
▁glu
▁Comparison
▁oxide
iary
▁yeast
▁eosin
2/
▁fluor
▁analyzed
▁33
tus
▁Continu
▁panc
▁fixation
▁presum
terol
▁subjec
▁stab
uation
▁kb
trogen
▁PAF
▁gastro
▁corneal
▁capillary
opressin
▁progesterone
▁glut
▁uncontrolled
▁21-
▁Streptococcus
tral
orin
▁2)
ayed
▁evac
ropine
unctional
controlled
▁poisoning
oglobulin
▁urine
▁cere
hea
yel
dition
▁stroma
▁oss
▁spleen
▁10(
ophageal
▁susceptible
stolic
▁thickness
▁endometrial
▁lacking
▁permeability
▁Pretreatment
8-
urin
▁BS
▁ANP
attern
ubation
▁LC
gely
▁transi
SCC
tomy
▁derange
▁isch
▁characterized
▁mL
▁adolescent
▁PCO
70
▁mRNAs
▁consequent
▁enlarged
atoid
▁chol
mide
▁surge
▁concentrations
lead
itamin
▁gradi
▁resting
▁positively
▁distinguishing
▁HB
▁surgically
▁GF
ications
tious
▁apop
▁endemic
▁allevi
▁pulmonary
▁caution
▁extracts
opathy
▁enhancement
▁parap
▁Overall
▁liver
▁attrib
lusion
▁comprehensive
▁radiolab
intestinal
▁PB
▁constr
urethral
identical
HM
▁nervous
▁pathway
▁angiotensin
tation
▁incubation
▁(20
obarb
ulatory
▁reduc
lys
▁prognostic
▁unstable
risk
53
.6%
urgical
RB
▁explored
erating
gents
ediatric
▁satur
▁examin
▁adenomas
roscop
4)
▁AMI
sial
▁injec
▁margins
▁decreasing
iferol
anding
▁inflammation
▁practition
rhy
▁mono
▁cuff
▁chronic
▁hyperg
▁24
▁acquire
▁localized
▁albumin
▁cardiomyopathy
▁solely
▁soybean
▁eosinophil
iatum
tured
▁selective
trop
▁0.03
▁causal
bular
virus
osin
VR
▁oxy
otroph
tual
ejun
▁tracers
▁survival
▁cortic
▁intravenously
▁presenting
▁mitochondria
ficial
▁unexpl
▁neoplasm
▁CSF
▁90%
▁ischemic
alian
▁screw
▁HM
▁infected
sions
▁attenu
▁deaths
▁disorder
ditions
ocular
inol
▁subunits
▁injections
ignificant
eroxide
▁GH
yses
lyc
▁bovine
▁amin
▁laparoscopy
▁peripheral
▁exis
.5%
placement
-3
otor
▁adherence
tically
▁intrarenal
▁21
omiting
▁36
▁demonstrating
▁clinical
▁recombin
ticular
▁predictor
ospor
▁substrate
tility
▁describ
▁interstitial
▁10
▁treating
▁enrolled
/1
▁desirable
▁cultured
crip
▁diluted
5).
odium
ginine
▁evid
onatal
ffin
sia
▁depres
▁GnRH
plic
sies
▁oes
▁overlying
eal
pH
tality
▁tumour
▁examinations
▁kinetic
ximal
▁APC
▁51
▁homogene
▁clinic
▁mobility
3.
▁episodic
ylate
osynthe
▁emphasizes
▁achie
▁diabe
▁renin
lected
-450
sts
▁lumbar
odal
6.
24
▁elevation
tradiol
▁atm
▁tris
lymph
uvant
▁abdominal
.7
▁Eff
arous
ucle
▁subtype
▁morphologic
▁acqui
▁seizures
▁melan
▁mitochondrial
▁reductions
▁immune
▁assessment
helial
ostic
▁ventric
ithms
tection
iferation
▁Kupffer
▁epitope
▁morphine
▁laboratory
▁lobe
embrane
▁angiography
bility
▁interc
▁anxiety
▁infar
thma
iably
▁ambulatory
▁Elec
ctomy
0,000
▁0
▁spont
hemical
▁glucocortic
ineal
▁HS
▁molar
▁presumably
▁OT
▁bloc
▁agon
▁SHR
▁fluorescent
▁preoperative
▁intestinal
pation
▁morphological
ymme
▁neuro
mend
▁underestimated
▁1,25
tabol
▁lact
▁MV
opia
▁digestion
▁graft
▁antagonists
▁sulph
agic
tinu
▁nursing
▁unex
▁respec
ohyd
renol
▁genetic
▁childhood
▁(54
▁laparotomy
ithm
romes
ivary
xual
echn
sively
▁synthetic
▁aort
▁paren
▁follic
▁suscepti
ocardial
▁quantif
▁Sout
1%
▁renal
oprote
▁analges
▁pH
▁hemisphere
eptide
▁congen
▁systematically
▁elec
▁300
▁emotional
▁ongoing
tents
uded
ught
▁deterior
▁Bec
▁Previous
acin
▁stenosis
▁lipid
▁compressed
▁sarc
▁Contr
▁stom
ochondr
-1)
lycer
uvate
cessive
▁intrag
BV
▁binds
9%
trast
▁ATPase
▁selectively
▁LVH
orption
-19
opathological
▁masked
hydroxy
▁compliance
▁macropha
DH
▁Addition
oracic
▁cyto
▁1.2
▁intram
reness
▁researchers
▁25
▁births
anish
40
▁axons
HF
▁(13
▁antibodies
▁plates
ociation
iasis
onuclear
▁ventricle
▁hemodialysis
truc
tabl
affinity
ercul
▁onset
bac
▁rated
tance
▁SB
▁recur
▁attenuated
▁implicated
orative
▁cholinergic
ternational
▁biosynthesis
▁4-
-67
▁hazard
▁influenza
▁distinctly
▁HP
onset
centr
▁subgroups
ration
▁silic
▁professionals
▁hypoxia
thyl
▁esophagitis
▁superoxide
▁myo
ressive
ignific
▁phospholipid
tively
assium
uran
▁complic
▁contributes
renal
▁donors
filtration
▁caud
▁Swed
nthe
▁tow
▁norepinephrine
romed
▁deletion
▁identif
▁bacter
▁systemic
▁radiotherapy
7%
geal
ATP
▁occlusal
▁amino
opha
▁infil
▁fibr
hospital
▁cystic
tact
▁0.00
titu
tase
kinin
▁Thirty
▁glutathione
▁broader
osts
▁distin
▁irradiation
▁valve
▁hernia
ofol
▁deficit
▁ascer
▁epiderm
▁fold
IFN
49
▁reproduc
▁50%
▁immunomod
▁chl
encl
▁intermittent
▁bacteria
▁heavi
clinical
amic
stant
▁prognosis
anin
99
▁intensive
economic
tage
Tn
▁hemodynamics
▁rigorous
▁establishing
▁48
▁reveal
adication
44
▁acetyl
methyl
▁morphology
▁mmHg
▁6,
▁normo
▁rati
▁inhibin
▁cancers
ilical
▁progen
pyr
jun
▁longitudinal
▁thrombolysis
▁bleeding
▁platelet
▁infec
▁minimally
estis
▁indicators
▁effectiveness
▁IIb
tric
▁TK
▁CMV
▁resour
entif
▁cys
▁antiser
.8
▁cephal
versely
▁WHO
▁accel
▁ischem
▁Kup
▁terminals
▁receptor
▁immunological
plete
▁Samples
sized
▁underst
▁adop
respon
▁Cushing
▁sciatic
▁responsiveness
▁depletion
▁uptake
-1,
▁cardiomy
▁18
ilized
▁35
▁endoc
▁malign
▁inositol
▁Increas
Ba
ophore
▁chromat
▁cytotoxic
oids
▁hamster
asses
▁biopsy
▁findings
▁0.01
▁coex
▁providers
itr
idate
▁63
▁relap
▁testosterone
▁physically
▁initiated
.3%
▁colorectal
osine
▁periodon
avage
ploy
▁wrist
▁1,
▁stellate
▁sampl
▁discom
▁excl
▁medial
oresis
▁polyethylene
▁RH
▁hypoxic
▁preterm
▁amines
▁heterogeneous
athione
riend
3%
▁judged
olytic
▁herpes
▁microscopy
▁discrimin
▁ionic
▁fentanyl
▁examined
▁adenosine
igaret
▁therap
▁pT
▁macrophage
hist
▁endoscop
▁80-
olec
heum
▁interv
▁decisions
▁nicot
▁skeletal
▁0.05)
▁depr
operatively
▁pathologic
osyl
▁3)
ATPase
▁microns
▁undes
atitis
enic
tries
9)
▁needle
▁emergency
▁mucosa
iol
modulin
▁pter
▁Muc
▁shortened
▁HI
▁synap
resist
▁reticul
ogens
PV
▁gamma
▁rabbit
imens
mentation
34
legia
▁migraine
asting
ffinity
▁blockade
▁assayed
▁implications
▁muscul
▁deformity
▁pharm
▁acidosis
▁activated
▁impair
stress
▁TBI
▁ventilatory
icient
▁practically
tiv
▁specimens
▁barriers
▁visually
▁influx
▁oxid
▁rationale
▁polypeptide
▁probes
amethasone
▁physiology
▁tas
▁perone
▁0.6
fos
onol
▁indication
ylated
otassium
bacco
▁modulate
▁arter
▁uncom
▁suspicion
▁juvenile
▁vulnerability
▁indications
especially
MG
▁cadaver
▁Phen
▁perin
ometh
▁slic
ffer
opa
▁abnormal
ectomized
ylchol
▁cholecystectomy
▁hemat
uppres
▁IFN
▁Severe
erally
▁oxidase
illin
▁recurrence
▁smoking
▁healing
▁soy
▁brady
▁activator
▁supernat
▁carcinoma
esic
▁adjuvant
dies
hion
epam
erated
▁85
▁agonists
▁aureus
transferase
ritis
uncture
▁somat
▁Fc
▁cG
▁immunos
▁abilities
▁cirrh
▁preval
ancre
uated
▁0.001)
amycin
▁recor
▁fibrin
antial
▁saturated
ropriately
▁vena
▁cyclase
helium
35
acts
omized
ofluores
▁cyst
▁comparisons
onomic
▁recipients
▁hepar
▁7.
▁exacerb
▁socioeconomic
olism
▁cervix
▁subunit
▁AI
31
▁stimul
▁obese
alues
▁urinary
▁gastric
▁etiology
uin
▁kinase
ranolol
▁hygiene
acting
nai
kground
▁PRP
EGF
▁immunore
▁ventilation
▁analogue
▁BP
▁FSH
tional
▁immuno
RD
▁hormones
▁kidne
▁Tumor
▁phosphorylation
monstr
oscopy
▁parotid
▁lam
▁differentiation
▁kerat
▁transfusion
osomes
▁deliveries
▁pancreatic
osom
▁perme
iron
ophil
deficient
othermic
▁gait
▁spectro
8)
▁advan
jec
apeu
▁suspic
▁predominant
inally
scherichia
▁APD
▁insulin
▁vaccin
▁histological
dine
oxide
independent
▁inspection
▁pineal
▁awareness
0-
acted
▁cohort
▁occl
▁suture
▁disparity
▁SCH
opsy
amily
▁sexes
▁altered
omat
▁initiation
▁assessing
glutinin
▁athle
▁NH
thym
oxia
▁inappropriate
resting
▁genomic
▁atheros
▁organisms
▁carbohydrate
▁adequate
▁inadequate
▁[14
▁concom
▁lesion
▁Hg
▁carrier
▁familial
sian
ocyt
LV
▁techniqu
▁enzymatic
▁inactiv
ologic
▁systematic
▁insuff
alanine
▁implic
-12
▁glycos
ulae
▁predictive
▁thyroidectomy
phosph
▁alve
▁ration
▁HSV
▁controlling
▁anticipated
▁withdrawn
▁intrac
fused
▁modif
onor
▁compli
ulose
acrylamide
▁(12
▁ADH
athy
gene
aints
ept
▁utero
ycin
▁horm
oag
▁ischemia
▁sphincter
▁lesions
▁intrinsic
▁nosocomial
▁murine
erations
ighted
▁secretion
onstric
Ra
▁ml
▁hepatocytes
▁inhibitors
mediated
-1.
▁inducer
▁practitioners
▁FT
▁establ
▁inhibited
▁aging
▁phospholip
▁periodontal
▁(10(
▁38
▁physici
▁dietary
▁basal
▁gyn
▁coeff
▁Patients
▁complication
vertebral
▁20%
▁1.5
sA
omical
▁facial
▁telephone
▁endot
▁LH
▁bladder
▁oxygenation
▁improves
GF
▁pig
▁micron
xia
ocial
▁endometr
▁prostate
▁gallst
▁intravenous
▁thromb
▁uncomplicated
▁identifying
▁laboratories
▁marrow
▁oxygen
▁affec
▁pyr
genesis
▁tracer
▁vaginal
▁deple
urc
▁resuscitation
▁coel
ociated
illary
acchar
5.
▁viruses
▁adhere
▁retin
ologists
loride
1.
▁cation
▁antigens
TG
▁congenital
inemia
▁achievement
▁kidneys
▁contractions
▁cure
▁beha
▁LV
▁6.
▁thrombo
▁polypeptides
▁oligo
ustained
▁hazards
▁endothelium
▁Vitamin
orpor
▁CABG
▁membran
▁immunofluores
▁endarte
▁catheters
▁diversity
▁acetate
▁microsomal
iciency
ostat
▁reflex
adrenergic
▁injuries
lated
-0
apeutic
ocortic
hyd
▁glomer
orts
▁overexpression
15
▁epitopes
trum
retion
aemia
▁reacted
▁implicate
▁toxic
▁detectable
▁acute
▁RAR
▁trophob
▁1.7
▁3'
▁perception
▁microb
▁15
unctions
▁Neither
▁abl
▁adhesive
▁homogeneous
▁0.000
▁neutroph
▁tissues
▁peroxidase
▁perinatal
▁synchronous
▁pharmacy
▁diminished
450
▁ane
gative
▁50
▁previ
▁subf
▁virtu
ergen
tical
▁defects
▁cartil
treatment
▁corne
cAMP
hyp
▁mucos
oes
▁chloroquine
oride
▁habits
▁Removal
▁pancre
▁canc
apamil
▁colloid
▁yr
GH
▁gaps
▁predominantly
▁differed
itoneum
▁1.0
2+,
▁adren
▁Clinical
▁NP
.2%
▁promoter
▁venti
othelial
▁Increased
erate
▁scanning
▁chond
▁ket
▁pathogenesis
▁microm
▁neutrophils
▁microscopic
ophilic
▁ey
tif
▁ACTH
▁HC
▁lithotripsy
▁consequently
▁inadequ
▁suppressed
▁Afric
▁potentials
obal
iciencies
▁dental
▁LT
▁aden
▁rehabilitation
▁2,
LH
▁inver
▁adults
▁arrhy
▁(6
tural
brain
▁20
▁progres
37
▁isolation
▁dose
▁targe
12
▁PF
▁anatomy
▁estimating
▁heterogeneity
▁peripher
gmental
▁echocardi
▁surviv
▁alteration
▁facilitate
▁cancell
▁5%
itary
48
▁unaffected
▁readings
ceptive
▁PEG
▁Engl
ching
0%
▁accumulation
▁11
▁dys
▁electr
▁trauma
▁pylori
Cu
KA
seal
▁survived
ymptomatic
7)
▁peptic
▁physician
▁angi
▁protoc
cepti
▁nerves
▁ET
▁baseline
▁feeding
▁nucleotides
▁discon
trib
▁probe
▁PSA
▁57
either
-4
▁suppor
▁hypertro
▁fractures
▁nasal
licular
▁thromboembolic
▁diagnostic
trexone
▁carbohydrates
rae
onad
17
▁nail
inj
fat
ctive
▁eliciting
▁angina
ulin
▁0.3
▁glycogen
atid
fron
BP
otype
▁retinal
▁67
▁vasoconstric
5)
▁adolescents
▁44
▁3.
▁fractions
2),
urea
trimental
67
1),
▁diagnosed
▁chemotactic
▁heterogene
▁fetuses
▁COS
▁7
▁platelets
▁investigations
uptake
tenance
▁facilit
▁mmol
▁anticoagulation
dominal
▁RT
ithin
▁dexamethasone
▁usefulness
▁babies
OA
▁mutants
▁endothelial
▁spon
illus
aluation
▁defic
-20
ogenic
▁availability
occus
nucle
opath
▁rabbits
▁undergone
▁lumb
1-
mig
▁rhythm
▁plas
veness
▁progn
1-2
▁depressive
▁fatigue
birth
oyl
▁consistently
▁retur
atched
herence
▁201
▁nonadherent
▁degrad
▁tamoxifen
▁remo
▁inhibition
▁menopausal
herent
Mu
▁4.
assay
▁wee
MIC
quine
▁ips
▁mediation
▁bone
▁latency
▁carc
stro
anded
▁encour
▁1.
▁polymerase
▁recurrent
▁variability
▁clearance
▁endoscopy
▁pathological
abies
▁radiographic
odialysis
enzymatic
▁intra
operative
▁ASA
▁aspiration
▁morbidity
▁grafts
▁surveillance
rophob
▁PRL
▁cirrhotic
▁antagonist
perfusion
dial
ucleation
ulitis
oxic
▁70%
iable
tected
▁intercostal
▁responded
sive
20
▁mandatory
astom
▁adjustments
▁mAb
▁intake
▁compartment
▁topical
ochem
overed
were
amines
▁carb
▁polyps
▁prescrib
ervice
▁analysed
▁-0.
▁urea
▁intrauterine
▁NPC
ichia
lood
mented
odynamic
▁IA
▁contrac
venth
▁effec
▁GI
ipient
▁examination
▁enzyme
▁bilateral
oreceptor
rosine
▁ulcer
ardless
roxim
▁125
▁overlapping
▁distal
ologous
sus
teine
▁accep
▁wt
▁calcified
▁sero
▁assessed
▁palp
▁deter
▁calcium
▁reflux
▁circulation
TK
▁underwent
oxid
sion
▁antagon
inergic
andard
▁prostatic
oratory
▁0.001).
▁labelled
▁bic
acement
▁(50
▁unsuccessful
▁investigating
▁predictors
▁correspon
fected
ustif
▁nucleotide
▁DSM
▁mice
▁adequately
▁excit
▁physiologic
iotic
endri
IIIa
Hg
▁FV
aventricular
tension
ectom
▁contractile
▁infections
stim
▁embryos
▁follicle
educ
ocardi
▁plasmin
▁vasodil
reast
▁Taken
▁functioning
mediately
▁fetal
▁adduc
graft
ostomy
atinine
▁PH
▁bacterial
erox
▁antigenic
▁microcirc
▁transcription
▁airway
7,
▁lamb
▁pigmented
lact
cutaneous
rection
▁predic
▁ESR
▁monkeys
▁pulmon
LISA
▁ovarian
entricular
RH
▁indi
▁molecules
▁chemo
9-
▁kinetics
▁esophageal
▁BD
▁mammary
▁incub
▁Preoperative
▁hepatic
▁trough
Phe
▁neurological
asic
▁interacted
astatic
▁pleomorphic
▁iod
▁intervention
▁PV
▁embryo
tors
▁purified
▁thyroid
lysis
ultural
▁immun
▁conformation
ducts
▁adjusted
phasic
▁poorer
▁astro
▁persis
▁Compared
▁chlor
▁abdomen
menopausal
▁HPV
▁phosphate
▁juven
idity
▁evoked
▁glyc
▁antec
▁AMP
▁lipoprotein
immune
▁interleukin
▁synthase
▁aspir
▁putative
▁disruption
▁Prospective
erence
▁atropine
matic
▁Chemical
▁mandibular
▁trache
▁nodules
▁1:
▁shorten
BK
▁cataly
▁connec
▁pyramidal
▁requi
▁unre
▁illness
otyp
▁nonc
4+
▁embryonic
onate
▁55
▁pediatric
▁maintaining
▁umbilical
tituted
ronectin
]-
lue
▁retention
▁profound
tice
uretic
-1-
Ts
▁0.9
feron
▁latent
▁objec
▁viable
phic
▁infused
▁PT
▁Thromb
▁42
▁reflecting
▁swelling
yroid
▁5
▁differen
glyc
went
▁prophylactic
▁degradation
▁86
▁nal
gm
leu
▁muscles
▁spectra
▁0.1
▁10%
fts
acetyl
unts
▁lectin
▁sympathetic
▁yielded
otomy
▁toxin
▁predomin
▁enrol
▁mitochondr
▁opioid
▁phosphor
▁subun
▁chromatography
▁Accordingly
▁lute
alact
▁reveals
▁2.
PAP
ullary
ogenesis
▁colonization
piration
-17
▁27
▁GVHD
▁gangl
76
phosphor
▁repl
▁dissociation
idation
▁ultim
▁anticoag
mental
▁likelihood
adequ
tions
▁monitored
▁metoclopramide
tory
▁cytochrome
75
umulative
▁carriers
ece
activation
▁induce
▁transient
▁Large
▁GABA
▁nons
,000
▁diabetes
▁synovial
▁nuclei
▁Tran
▁MG
fusion
-7
▁melanoma
graftment
▁newborn
▁gestation
▁experi
▁fulf
▁shallow
▁clinics
ignant
▁carcin
▁vein
taining
tic
▁ultrason
usive
arge
▁pigs
▁erythrocytes
▁90
▁56
▁heparin
hers
▁quin
▁consis
inely
▁Significant
▁interf
ncy
▁prenatal
▁34
▁tooth
vail
▁sclerosis
acerb
▁lesser
rone
▁auditory
▁reflec
▁cyt
▁VO
pinephrine
urys
▁frac
▁Certain
▁rash
▁Chronic
▁1.9
▁infection
▁hams
icin
▁creatine
▁transpor
2,
▁venous
othel
▁failures
▁assay
robic
▁cen
▁inoc
▁HDL
▁endogenous
gesia
▁cytos
▁fasting
▁schiz
unar
▁1-
▁hipp
▁cows
▁2
▁reag
opamine
▁severely
▁CAM
regn
▁29
▁chamb
.6
idase
▁intestine
▁belie
▁Concomitant
▁benz
enol
Ka
iaz
▁validity
onography
▁antigen
ensitivity
▁lymphocytes
elan
tyl
▁trend
▁migrated
▁adenoma
▁gluc
▁polymorphism
▁52
▁26
25
▁myel
uccessful
▁atten
dle
▁perip
▁necro
▁plantar
▁Considering
▁pulse
▁(0.0
▁acetylcholine
-9
▁tubes
▁transcriptional
▁mortality
▁repaired
farct
▁demonstrates
▁spinal
▁excre
▁peptides
▁alkaline
▁headache
▁invasive
.4
▁pretreatment
▁allergic
tensive
▁stimulated
▁beneficial
▁5'
▁surveys
▁preven
2.
FU
▁(3
▁monit
▁abortion
▁provid
▁substanti
3-
▁tuber
ilateral
▁regar
▁physi
anthine
rested
produc
▁hemodynamic
▁cytotoxicity
▁MCP
lateral
Ns
▁ligand
uron
atest
▁mammography
▁1.8
▁abuse
▁substituted
NM
ancies
▁irritation
▁stren
90
athyroid
▁fibroblasts
▁hydrogen
▁elu
itro
▁influences
tized
occal
▁0.05),
ocl
gulation
▁PI
tate
▁hig
roup
▁gallbladder
▁perc
physiological
▁atherosclerosis
0.
46
▁anesthesia
atment
▁GM
▁phenotype
▁residual
▁Escherichia
orax
▁burden
sess
▁administered
▁sequel
associated
▁participate
sorption
000
oic
▁anatomic
omes
▁staging
ensity
heric
▁65
▁perfused
▁500
▁Serum
▁incorporation
▁BAL
oprec
▁benign
▁strain
amine
▁pS
▁inhibitor
titial
▁PAS
▁docum
▁septum
▁exhibit
▁phorbol
▁suspension
DNA
▁strom
▁throm
▁metabolite
▁hippocamp
▁coupled
kers
▁intense
▁ester
▁androgen
▁60%
▁simultaneous
▁electrical
▁Eight
▁31
carb
▁cathe
▁creatinine
▁contamin
▁insertions
▁complications
LF
cence
▁injur
dose
oconstric
▁carcinogens
▁ethanol
genic
▁reactivation
▁GD
immuno
▁nmol
▁directional
▁clinically
▁cDNA
▁plasma
▁biom
functional
vival
onit
▁unexplained
encephal
▁utilization
ifedipine
▁saliv
roximately
▁ppm
▁precedes
▁thym
ocusing
▁pmol
orbol
▁justified
mitter
▁ketamine
▁competi
epit
ycl
▁discre
▁microvascular
tead
▁undetectable
plication
ographically
/2
derived
▁sple
▁workload
uoden
▁sepsis
▁maturation
▁3,
▁torsion
▁adoles
blind
▁declined
▁Adverse
ylase
ipine
▁linoleic
▁Contrary
▁tubular
▁elevated
▁suppres
▁22
▁arth
vant
▁quantitative
▁Pregn
zation
▁3.5
lobulin
▁circulating
enhanced
▁gly
▁tachyc
eptid
ochrome
▁interferon
ipit
oxif
▁interventions
▁60
lasting
▁focusing
opulation
▁(2
▁strategies
▁parame
olones
▁sodium
▁tiss
▁detachment
▁prevention
▁therapeutic
▁eliminated
FH
clonal
▁46
▁intraoperative
idney
▁nM
arly
▁facilitated
-10
▁6
▁70
▁involvement
▁(8
regulated
▁poten
▁identifies
oplastic
▁feasible
▁bowel
▁measuring
▁cohorts
▁speculated
▁cerebrovascular
▁pall
tub
▁37
▁Intra
▁influenz
▁hepat
▁inflammatory
▁proteins
▁ALT
tent
AIDS
rogenic
▁GV
rotid
pite
▁sedentary
▁plaque
▁appreciably
▁197
▁suicide
▁athe
▁epit
▁10-
▁receptors
▁pate
▁inters
olgi
▁therapies
econd
▁unchanged
)2
▁sickness
lesion
▁potassium
▁resec
ostal
▁bip
▁pharmacokine
arb
ipolar
▁cate
tisol
▁concentrate
natal
oung
▁drin
▁collateral
yro
▁hygi
▁198
0%,
▁splenectomy
▁vitro
▁dorsal
omod
▁disadvantages
▁abolishes
▁vasopressin
▁assays
4,
▁scans
owever
▁slices
▁intragastric
etitive
▁ejection
▁FH
▁dehydrogenase
erent
opes
partate
ialysis
otropic
▁tissue
▁MT
▁immunode
osomal
▁fracture
▁5.
rele
▁sour
▁arthritis
▁reviewed
▁Golgi
7-
thre
▁multiv
resistant
▁(1
jug
▁necrosis
▁multifactorial
▁barrier
▁meth
loid
eces
1).
▁ultras
.5
▁HIV
▁fibrob
6)
cyst
▁hypertrophied
▁expressing
alc
osterone
▁MEP
▁lungs
plantation
amate
▁laparo
adren
▁95%
tiveness
▁complemented
▁reductase
▁extraction
▁differe
▁rectal
▁improving
▁innerv
▁resusc
ture
▁ethnic
▁PE
▁phy
venous
-30
▁inherent
otypic
▁SNP
▁Cox
▁numb
umulation
▁streptococcal
ipitation
ceptions
-2,
▁Mg
▁41
▁UV
▁duoden
▁ae
0,
uscular
▁quanti
▁soluble
illation
▁DT
▁hypothalamic
▁olig
amet
▁affinity
mol
▁tymp
▁regulate
▁satis
▁postoperatively
▁organs
Ia
▁neuronal
▁analys
▁tomography
ococcus
▁superficial
▁chains
▁testicular
ecal
otent
▁Trial
▁leuk
rectomy
mitted
▁HL
tein
urther
oscop
▁Lys
▁hypot
-1
-15
ysm
ologically
▁rats
▁algor
4).
▁substantially
▁5-
▁amput
tization
▁mechanisms
▁tes
6,
▁amyloid
glycerol
taken
ylation
trition
▁strains
▁trypsin
clin
▁colony
eak
▁64
▁vivo
▁ery
▁transcripts
▁equilibr
▁mamm
▁16
▁hospitalization
▁supple
▁0.4
▁eluc
▁characterize
acer
▁versa
▁relating
▁systolic
abain
▁conductance
▁axillary
▁cytology
▁MH
▁reagent
▁autosomal
▁melatonin
▁elic
-6)
▁hypothyroidism
aryngeal
▁discomfort
riched
▁ventil
▁(19
▁exten
▁calcification
turb
▁thorac
▁lec
▁Cycl
▁affecting
▁pelvis
hep
itant
▁PD
unced
ses
▁cue
responders
oxygenase
▁promising
▁placebo
▁depressed
rogra
otox
▁19%
tak
KD
ially
▁1.4
effective
▁cholest
ynaptic
kely
olysis
phosphonate
▁Atropine
atient
%),
▁circumferential
▁promo
wenty
▁ech
lectomy
▁rebound
ioid
▁complementary
▁contral
relevant
▁aspec
injured
omies
▁sulf
▁Clin
▁morb
gesterone
▁Histologic
▁OC
▁behaviors
▁predicting
▁fever
▁secreted
▁chemotherapy
▁intrap
▁lithotrip
▁monol
▁doses
▁vascular
125
▁glomerular
▁accurately
aemic
▁hep
ochemistry
▁HN
itic
▁vitamins
▁hypothe
▁compound
▁induc
▁prono
pir
▁spine
▁nitro
CoA
▁behavi
▁lith
▁implant
▁surgeon
▁evaluating
▁incubated
▁anesthetized
45
▁duct
cents
▁undergoing
▁peptide
-4-
ranial
▁carbohyd
▁pati
usp
plied
▁NADP
oxy
▁vitamin
+-
▁palliative
angl
81
▁400
▁syndrome
▁drinking
aline
▁ADP
▁tumors
▁HG
▁11,
▁compe
▁gon
▁scintigraphy
athetic
▁exposure
▁validated
FV
tivity
▁0.5
▁39
ximum
▁bac
▁demands
▁attemp
oceptor
▁connective
▁outcomes
2+-
orectal
sities
▁radiol
▁15%
seud
▁cholesterol
▁induces
▁multivariate
▁paradigm
plants
omotor
▁warranted
▁hybrid
▁unde
▁anatomical
▁ACE
▁radiography
▁scin
oxygen
▁recessive
▁TD
▁enti
assi
Tc
▁pneum
dehyde
▁suppressing
itoneal
▁kDa
tures
▁reas
ypical
▁proliferation
iciently
▁neurologic
▁percutaneous
-100
▁Plas
▁arteri
▁RB
luent
isol
▁circumference
▁atrial
cele
▁curative
▁excluded
▁abolished
▁IgE
teric
vices
keletal
14
mTc
2-
▁cytotox
▁hydroly
▁adminis
▁therapy
eptides
▁viral
▁SLE
nRH
cine
hern
iated
estern
▁pulp
tox
ograms
BG
ceptual
▁mutations
bic
▁manipulations
▁GTP
ylcholine
▁cyclic
ecu
▁stimulating
▁natriuretic
▁polymer
▁unilateral
▁40
greater
▁phosphatase
onucle
eptin
3,
▁leukemia
▁detrimental
ariate
▁Dil
▁absorb
▁differing
▁enhancing
▁meals
▁biopsies
positive
▁0.7
▁immunohist
oradi
▁ventricular
activated
▁contex
Hb
▁precur
▁proce
▁embry
▁comprehen
▁NT
ergency
▁monke
ampl
▁metabolic
lobin
▁inhib
embran
orable
▁vasomotor
▁neoplas
testinal
▁aorta
amide
ocar
▁placent
Cer
inephrine
omethacin
▁healthy
TNF
▁+/-
inated
▁adhesion
▁ure
▁inactive
▁incorporated
▁quantit
▁amputation
▁BMI
▁prostagland
▁bronchoscopy
▁cerv
▁depression
▁alveolar
▁obesity
▁adhesions
▁competitive
▁IgG
▁replication
▁discus
echan
▁randomized
arity
▁elucidate
▁adverse
▁resul
ameter
▁surgery
enzyme
acyl
▁dehyd
▁eradication
ophren
▁TRH
▁naltrexone
▁seventh
athe
implantation
tence
▁hCG
▁predicts
▁synerg
ograp
tially
ymptom
▁concurrently
istal
▁recons
16
▁turnover
▁(100
gland
kDa
▁chec
▁targeted
▁guided
rine
oxidation
▁depress
▁cryst
olone
▁discern
▁molecule
embr
gth
ifug
▁intest
▁aimed
▁statistically
otide
▁eosinophilic
ials
ogra
▁obstruction
ercise
▁palsy
▁(14
▁insult
▁hippocampus
▁8-
▁financ
▁lateral
▁keratin
▁socio
▁drugs
▁Plasma
phosphon
erine
▁correlates
itone
▁placenta
▁actin
erative
arent
▁cytosolic
▁striated
▁staining
▁enhanced
▁0.05).
▁CM
▁subjected
▁MI
▁endpoints
duc
▁abnormality
▁underg
▁bipolar
▁phospholipase
▁47
trate
tron
▁abnormalities
leukin
▁(0.
▁drain
▁inactivation
▁conduction
▁HA
▁mature
entary
▁reactivity
▁72
▁substrates
▁7%
▁retic
▁encoun
▁mediates
▁sedation
▁radioimmuno
ureus
ituitary
▁overl
ucine
▁temporarily
infected
coh
▁volunteers
▁screening
ivariate
ogenous
ureth
▁Ket
odynam
immun
urine
▁susceptibility
▁gluten
minal
▁linkages
aid
▁Biochem
rological
▁electrophoresis
oclonal
RNA
▁feasibility
▁cited
▁phenomenon
hydro
ococci
weighted
armac
▁ageing
▁operative
phrine
▁stu
▁mRNA
▁labeling
▁atresia
▁chor
6-
▁RBC
▁pancreas
▁desm
▁paralle
▁progestin
throm
▁enhance
4.
▁theore
▁astrocy
ortal
▁MRI
▁thromboemb
▁concordance
rease
▁(2)
glutin
▁PP
▁depolar
▁epileptic
▁consecu
ulph
▁buc
▁harmful
▁molec
▁rhy
▁radioactivity
ffec
▁vaccine
▁(9
▁donor
▁TA
▁efficacy
.8%
▁regulation
▁displacement
tryp
▁atr
▁seiz
aptic
adrenaline
▁infusion
regulation
phenyl
illic
heal
▁posi
▁onc
▁excretion
.9
▁sham
▁mucosal
▁intracellular
ropriate
receptor
▁microgram
luded
adily
glucose
▁antiserum
lastic
▁2.0
▁preferences
00
▁physiological
▁AE
▁positioning
kines
▁metabolism
▁birthweight
duction
▁minimize
▁dentists
▁anat
His
▁measurable
▁Patient
hydrox
▁TG
entral
▁Additional
chers
isqu
ionine
▁regis
▁Cyt
lyce
▁immunodef
▁prevented
7.
▁histologic
▁tension
▁mothers
▁VC
▁vulnerable
aginal
idine
▁causative
▁proximal
▁metastatic
▁apical
▁centr
kage
▁histopathology
▁0.01)
▁mV
entical
▁coexistence
ilization
▁anemia
▁fati
-5
▁IGF
▁modest
▁palli
▁metastas
atab
rected
▁decreased
invasive
▁emerg
▁inh
▁VD
▁experim
▁sti
▁exhibited
anic
grees
tial
▁saturation
labeled
luores
▁engraftment
bly
transfer
till
▁perfusion
▁discontinued
olute
▁dele
mong
▁nm
acetate
illance
▁psychiatric
▁ECG
▁thir
▁pituitary
▁cardiac
eliac
4%
▁elderly
tens
iplin
▁stimulatory
▁synthesized
▁genotypes
▁preventive
aired
▁follicular
▁adhe
▁modality
totic
▁Twenty
achid
iosis
lep
otides
years
2).
▁2-
▁shif
▁saline
▁neurons
▁sut
▁hap
diagnosed
▁hypog
▁crest
olution
▁microsomes
▁exclusively
▁pneumon
▁tear
▁elimination
amino
teroid
▁poin
▁metabol
▁SG
▁Tum
▁cyclo
coun
▁atrophy
▁Hep
▁admission
▁rigidity
itance
▁pancreatitis
▁hypertensive
versus
▁Tes
▁dosing
esity
▁Surgery
▁inapp
facial
▁agonist
▁hydrolysis
▁pregn
▁ganglion
opres
-6
▁conducting
patient
▁concer
▁paras
tum
78
▁umb
▁dosage
▁cholestasis
▁Impro
semb
FN
Ps
▁mec
▁collec
ifed
▁beating
toc
▁elicited
oplasmic
▁deform
▁multim
▁complexes
sensitive
28
HB
▁severity
olved
▁glutamate
ensory
▁Doppler
▁thickening
utroph
▁cutaneous
▁structural
tectable
siological
2+]
▁ultrasonography
▁pene
▁prophylaxis
oglyc
▁perfor
▁(4
▁homologous
▁newborns
▁relapse
▁vag
▁resemb
▁decreases
BW
27
▁supplement
▁anesthe
namic
▁prevalent
teroids
▁favourable
▁aggregation
oice
ocytic
▁investigated
11
▁hybridization
▁respondents
ectable
▁junction
lycerol
▁repor
▁inhibit
▁spikes
▁100%
▁raises
▁favorable
▁0.
▁moderately
▁Whereas
▁vaccination
orepinephrine
▁microM
▁caro
adiol
trip
▁untreated
▁tracing
▁Thir
▁subtraction
epti
▁200
▁TC
▁sequentially
▁cerebral
ectin
▁surf
ynthe
4-
▁manifestation
▁PEEP
loro
▁DS
valence
▁heavier
vul
▁questionnaires
vents
79
▁atres
▁instability
▁cava
▁14
erable
▁syndromes
▁acet
duced
▁disorders
echanical
▁cellular
80
lym
▁anomalies
▁preoperatively
-8
▁mineral
▁intraven
▁conceptual
▁(5
▁aerobic
▁resistant
▁dilated
▁inpatient
radi
eled
▁potent
lytic
▁uterine
▁microtub
▁79
▁cortex
▁Km
▁counseling
helin
ivoc
▁technically
▁mitral
▁differentiated
▁characteris
▁cortical
▁behavioral
mittent
▁phagocytic
▁wk
▁exposures
▁flexion
▁tube
▁chest
degree
▁respon
▁yiel
▁cocaine
▁13
enin
-2
▁4
▁instr
▁eryth
▁oste
▁adrenal
▁regulatory
84
▁sten
acr
CBF
▁clones
▁phag
▁spermat
▁neutrophil
▁segmental
▁linole
▁restric
▁uter
glut
tig
▁geniculate
esthe
▁potenti
tro
▁synaptic
▁RP
▁pump
thmias
▁developmental
▁inflamm
▁recombinant
▁RNA
▁referral
▁24-
▁pathologically
▁GFR
▁dysfunction
▁shor
▁VA
▁wound
▁amo
plas
▁99
▁nurses
▁stained
▁anastomosis
tant
▁precursor
▁inserts
▁chemot
▁mast
tidine
▁Comparisons
▁oils
otypes
▁6-
▁LF
occi
▁prospective
CSF
▁wors
▁limbs
rati
▁substances
tific
▁gynec
▁insufficiency
▁awa
▁surround
rehen
▁tryp
▁constitutes
▁compartments
▁nutritional
▁lipids
▁reproducibility
▁VE
acil
▁adequ
iant
▁dex
▁consensus
▁rCBF
▁cesarean
▁muta
▁mum
▁FS
entan
▁28
▁confined
atical
atheter
▁mg
▁correlated
oplasty
▁athletes
▁Dop
▁inges
85
orrh
▁weigh
▁reasonably
-9,
EA
rosis
▁mild
▁possi
adrenoceptor
ellular
▁somatic
▁pregnancies
▁cytoplasm
PB
▁continuing
▁clon
▁treatments
▁routinely
▁45
▁tol
▁excitatory
▁IgA
▁Treatment
▁PCR
ervical
.2
odic
▁mononuclear
omycin
▁NaCl
▁25%
▁PKC
30
▁rejection
▁residues
▁ruptured
otherapy
oA
▁LD
▁epi
olenic
▁poorly
▁adenocarcinoma
iotensin
▁diame
▁unc
▁dissection
anyl
▁hemorrh
pendent
▁IVF
hyde
▁reticulum
▁leakage
▁efflux
usal
▁thymus
▁prol
▁implantation
5-
57
NH
physiologic
monary
▁anomal
▁PET
veolar
▁prel
▁40%
▁mutation
▁eating
mature
-14
▁cleavage
▁catalytic
▁coeliac
olip
▁mammalian
osocial
/100
▁85%
ostatin
RF
derly
GI
▁32%
▁reproducible
▁respiratory
▁PMN
▁17
8,
thase
▁transcrip
selec
▁micrograms
▁diabetic
adherent
▁extre
▁isoproterenol
▁institutional
idated
▁develops
▁hypertrophy
otropin
▁ascertained
▁cochlear
matched
▁muscle
▁extrac
orphic
▁homology
▁normalized
inic
65
▁enzymes
▁traumatic
▁sperm
▁irradiated
▁Biochemical
sor
▁mellitus
▁stere
▁tobacco
▁regulated
▁biochemical
▁lamin
▁infiltration
aturated
▁differentially
▁12
comitant
oprotein
oidal
ondr
tamine
▁tumours
▁tolerance
32
ovine
50
▁conduc
▁Surgical
▁testis
▁Acute
▁undertaken
vation
▁nucleus
oplas
▁monoclonal
▁regimens
▁tidal
▁ald
bral
▁incidence
MH
thal
phosphate
truction
cysteine
▁dopamine
ventricular
▁surgeons
▁manu
inositol
▁provocation
▁defec
▁chan
▁pathogen
icated
▁femoral
▁psychosocial
feren
bladder
▁(198
lux
vac
▁Findings
▁reperfusion
▁proliferative
▁preferen
▁initiating
▁atmosp
▁symptomatic
▁vesic
▁genotype
▁occupational
▁currents
▁ventral
astolic
12.
▁triglycer
oside
▁proton
terase
▁minority
0%)
▁diets
▁questionnai
▁labeled
BM
▁clus
▁contraction
▁53
▁neph
▁cyclosporine
▁antibiotic
▁reactive
▁reper
▁ranging
▁mutant
contrast
▁neonatal
▁Dopamine
▁localization
3)
tensin
▁followup
▁comparable
astric
aning
▁30%
▁polymorph
▁demographic
-60
tained
▁fluorescence
crimin
jected
aceous
obl
▁paradig
▁residue
apse
ectomy
▁contralateral
eight
oproterenol
▁metabolites
▁thoracic
▁guinea
henyl
▁approx
▁filtration
▁epinephrine
-5)
rogen
▁pregnant
mL
▁ultrasound
umerous
lix
▁avoiding
amus
ergy
1,
▁substance
▁Vac
▁neon
▁genome
tingu
▁projec
▁ascertain
ministration
▁lis
▁potency
▁macrophages
▁stimulation
▁serum
atrial
▁granules
Ds
▁substitu
8.
.2%)
▁temperatures
▁Throm
▁(1)
onyl
rents
ocul
▁deterioration
▁inhibitory
▁chewing
▁cloned
spectively
▁arachid
▁nurse
▁plasmid
▁phe
elec
▁screened
responding
▁increasingly
▁ablation
▁epithelial
▁dors
▁(15
osity
imination
▁preparations
icine
▁asthma
▁prophyl
▁monocytes
▁plac
▁natri
▁intramuscular
▁mediated
rants
▁ward
▁haemorrhage
▁hypox
▁LS
DG
▁multic
▁HLA
▁cis
▁exclusion
thle
▁myocardial
otoxin
usions
60
oplasm
▁propranolol
ingle
▁consolidation
▁selec
▁reconstruction
▁smo
olated
▁thresholds
▁immunoglobulin
idne
▁geriatric
opausal
▁methyl
atonin
▁prolonged
rophy
▁appropriately
+,
trol
affected
plasia
▁plasm
opi
▁LPS
▁infarction
▁1
▁immature
▁metast
arate
alp
▁49
MV
clerosis
▁deficits
▁adjustment
▁30
uble
▁accounted
vated
accharide
5%
▁discharge
enh
▁[3
▁ana
▁parental
▁steroid
▁Hb
▁reac
▁(3)
ritish
▁sugges
▁carbox
▁autoimmune
▁diastolic
▁contribut
▁knee
▁amyl
▁cigarettes
▁irr
▁adaptive
▁EGF
▁rotational
▁acids
▁comparative
▁glucose
▁DN
▁fitness
benz
▁diagnose
▁synergistic
▁8.
ellar
▁58
lasses
▁2.5
▁5'-
-3-
olarization
▁mell
▁advances
emic
▁diagnoses
▁blot
▁inversely
roma
▁immunoreactive
▁classified
olol
▁enl
VL
▁silicone
▁43
▁gonad
▁reproduction
▁myosin
induced
▁transplantation
▁carcinomas
▁laser
▁nutrition
icide
▁reliably
acental
▁Intravenous
▁occurring
obacter
▁postmenopausal
▁promoting
onium
▁acidic
▁assessments
▁prostaglandin
▁hormone
razole
▁coronal
ascular
▁100
▁restor
▁heal
▁regimen
▁sensi
aturation
iatic
bloc
ication
▁erythrocy
ulmonary
▁dislocation
▁ACh
▁aortic
▁CK
▁exercised
▁synthesis
▁hepatitis
omatic
tile
▁arterial
▁.0
▁sustain
rocy
▁esophag
▁4,
▁54
-2-
▁sensitivity
▁BV
▁serotonin
▁challen
omerular
rogenase
▁ions
▁dialysis
▁subc
▁hydrox
▁cardiovascular
ortic
ecyl
5,
olesterol
▁fluores
▁molecular
▁HCMV
▁markedly
▁determinants
oric
▁streptococci
tration
▁gains
▁cervical
asone
▁modulation
▁myocardi
▁hydrophob
urate
▁grading
▁cognitive
▁imaging
▁tach
▁balanced
▁bronchi
▁statis
▁tolerated
▁alcohol
▁RS
kade
▁resis
▁neurop
▁adap
▁GA
▁homogen
▁(+/-
▁LDL
carcin
▁Systolic
22
13
tec
(+)-
▁circumferen
▁synthe
▁AO
▁glucagon
▁pathology
▁verteb
hap
▁strep
▁encouraging
▁expend
▁prospectively
▁150
rates
▁infants
sue
reatine
▁thrombin
AH
▁meaningful
▁anastomotic
▁decades
oscopic
▁dendri
2)
tiz
▁intrav
▁120
itus
-4)
▁decline
siologic
▁aor
MDA
erance
▁spi
▁bile
▁evaluations
▁40%,
ilibr
▁cAMP
▁deficiencies
▁outpatient
9,
gic
▁rele
entric
▁recipient
▁diseases
adder
▁gland
▁TGF
▁unil
▁microv
atories
▁Hz
azole
▁depolarization
▁artery
▁promin
▁edema
▁biop
zard
▁muc
ontal
▁PG
▁outs
▁chick
ococcal
▁TNF
▁pneumonia
▁ultr
▁hemorrhagic
▁estradiol
▁sulfate
▁fibres
▁acad
▁DF
Hu
▁prolif
erican
kinase
▁MN
▁progressive
▁antibody
▁0.8
▁hemoglobin
tention
Ki
▁disrup
▁toge
18
▁resonance
▁discrimination
▁lymphoid
▁thigh
ositol
okine
opl
▁toxicity
▁blin
▁overweight
▁practic
▁tibial
itol
lective
▁tertiary
asive
▁1.6
▁oral
▁affects
▁suppression
▁0.05
▁sph
▁moderate
▁diffic
▁bypass
▁23
▁kidney
trative
▁multicenter
reported
▁fibronectin
▁thi
▁chori
▁deficiency
▁tended
sors
requ
▁75
ompan
▁vomiting
▁pelvic
aneously
▁alterations
▁debr
opramide
▁sinus
▁0.2
aced
▁bronch
iliac
▁80%
▁1)
▁pregnancy
▁irrit
▁micros
▁AIDS
cture
▁protease
▁HCC
▁kine
▁lymphoma
ergic
▁isolates
▁extracellular
ensitive
▁biosynthe
▁spati
nec
ifferen
▁lymph
▁catheter
▁chloro
1)
▁microc
transplantation
▁5,
/6
VT
▁exce
▁paraventricular
▁acyclovir
▁symp
▁0.01).
sulf
▁increas
▁uncommon
pecific
▁insufficient
▁postnatal
▁lymphocyte
ventional
▁relaxation
▁cardi
uterine
▁nerve
▁stimulate
▁leukocyte
▁79%
2%)
piratory
▁definitive
ocytosis
rotic
atectomy
▁specificity
opic
▁rheumatoid
cardi
iability
▁glycoprotein
▁clinicians
▁anastom
ocaine
▁hypothalamus
▁microbiological
▁diagnosis
▁displ
effec
▁compounds
▁drainage
▁considerably
trin
ecre
ameth
▁supplementation
▁deprivation
▁empirical
▁ELISA
vely
▁genic
▁stimuli
planted
▁tachycardia
▁ratios
▁cats
54
▁restenosis
▁disappearance
▁sequential
mia
▁cytoplasmic
utaneous
▁microscop
▁topographic
ronchial
▁modulates
▁seroton
▁3
▁limb
ovascular
▁disrupt
istically
▁assis
▁chromosome
▁preparation
affec
▁conclu
▁IgM
▁BM
▁unrelated
▁coronary
▁peritoneal
▁tric
▁sensory
29
rox
▁antic
▁diet
▁premature
xone
▁hospitalized
▁locus
olus
▁80
moid
▁CRP
iminary
