▁PMA
ocorticoid
elvic
ominant
▁5.2
nucleotide
ecutive
▁progen
▁14,
▁CAD
ordin
▁Diagnostic
▁extracellular
aline
coh
crystall
ozo
▁5).
▁inconsistent
▁Pneum
▁genomic
occlusion
▁precursor
▁Treatment
▁Likewise
▁testes
▁2,
▁stools
▁adenoid
inhibited
▁declining
▁duplic
▁iso
▁Alter
▁(60%
▁exhaustion
▁triam
erving
osine
IAA
ithromycin
▁depressive
gut
radi
,000,
ysto
▁AChE
olarization
roxicam
▁excre
bly
▁GFR
▁choro
109
▁azithromycin
▁deformities
▁ethnicity
-22
▁19%
▁TCA
BW
azone
▁spores
▁Bmax
▁whereby
▁nascent
PKC
roxy
piration
rotin
asalazine
maximum
acted
▁HbA
▁sci
▁43%
▁uric
▁deleterious
▁10(4)
▁arb
-31
▁(2.0
▁281
▁13-
▁243
▁protease
▁edema
aryngeal
▁infertile
▁discomfort
chers
tilled
▁0.43
GTP
▁supras
uracy
TSH
▁(31
19.
▁Salmonella
▁Cumulative
▁antisecretory
▁(46
ughters
▁Epidemi
▁criterion
idespread
▁tachy
rectomized
▁columnar
onium
▁tetan
▁inositol
▁dosed
▁rosette
▁Eleven
▁potenti
▁2)
▁hypos
▁contamination
▁tubules
odic
gnetic
▁seasonal
▁microtubules
lational
purified
ucine
▁compensate
ture
▁-4
LR
▁inert
romycin
▁63%
▁gonadal
▁collaterals
1210
▁signalling
ohnson
▁presently
▁carcinogenesis
▁topical
▁Rates
▁Esophageal
▁CAH
entral
▁(20
▁phospholipase
mitters
▁anae
▁physi
▁(7.2
▁262
benz
roprusside
▁polyunsaturated
▁allelic
▁septal
oconstric
▁provid
iclovir
▁seizures
▁vulg
▁favourable
▁ultrasonography
▁rostral
▁5.8%
▁ubiquit
tria
vaginal
fts
▁terbutaline
▁thymic
▁316
▁obstetr
▁1.17
▁adenocarcin
▁abnormality
▁ori
▁myenteric
▁(10(-7)
oxane
▁juven
▁(3
ariate
anese
atological
olab
▁315
osyn
▁parotid
▁lutein
▁conges
▁(75%
▁histamine
▁singlet
▁cultured
IgE
▁adjustment
-2.0
▁malabsorption
▁140
▁16%,
thma
IIIa
▁cortisone
▁intraven
▁epitope
▁urography
▁8.6%
Gly
▁secretin
▁proce
urium
itherto
▁antin
hans
▁instability
▁cavern
▁suppres
chloro
lebrand
ochem
▁pharmacology
.7
iceptive
comitant
pliance
thre
▁nude
▁8.0
▁0.6%
24
▁coating
73
▁biologically
seous
nosis
rophilic
▁PMNs
▁hemorrhages
▁carbohydrates
▁syndromes
rotein
apular
▁titer
▁increas
/3
▁benzo
▁amygdal
azido
▁gonorrhea
▁35%
▁32%
▁glomerulopathy
onatal
▁modifying
olum
opoietic
imbr
▁vegetable
▁Eco
ocine
▁LS
adex
▁staurosporine
▁manufacture
those
▁paired
60
▁immuno
ylene
▁sickness
predominantly
▁venti
▁pollen
ovol
▁puberty
▁afl
▁buspirone
▁Purkinje
odular
▁aerobic
ducible
occurring
▁Continuous
ympathetic
▁addi
▁MoAb
▁saliv
▁meticulous
▁flavin
7,
▁fluctu
▁staging
contrast
▁.00
▁signaling
atectomy
ophren
allium
▁pathway
▁suspensions
▁cDNAs
▁intranasal
alb
hydroxybutyrate
olig
▁macromolecules
▁hydr
▁erythrocy
ograft
▁expec
▁spasm
▁metabolite
▁2000
▁antis
average
▁sclerotherapy
erable
asic
-120
▁neoplasm
▁sorting
▁lipoprotein
▁PRA
▁Natl
uted
Hep
▁interruption
fluorouracil
▁afforded
▁Symptom
▁erythema
Ace
▁puber
▁CFU
5,000
▁Phy
▁Adh
fiber
▁embryonic
▁resto
▁subtypes
▁progenitors
myrist
▁manganese
ethanol
numbered
▁Hodgkin
umably
▁67%
▁5.9
▁alloster
tensives
▁constituent
(-)
▁GBM
▁pigs
naph
▁hippocampal
NAc
enkephalin
▁antithrombotic
oplasm
divid
▁thalamic
tronic
▁scintigraphy
▁compensated
▁maxima
▁relapsed
EG
▁dendri
▁continuation
atids
▁CABG
omagn
▁psychomotor
carnitine
▁10(-9)
▁thyro
▁appreciable
atadine
queous
traum
ocyst
ophils
DNP
▁carbonic
▁adriamycin
▁metabolic
▁hyperbil
▁biotin
▁sensi
▁infertility
▁0.5).
▁scarring
▁donor
▁efflux
toxicity
▁Impair
tionally
▁vege
▁Gd
▁(3)
tention
▁cruzi
angl
▁12)
▁Hg
CAA
▁(9%)
jac
hydroxylase
▁cyto
▁hydrolysis
▁126
conjugated
▁cocul
carinic
▁ecological
▁histological
▁6.9%
▁excision
omyc
▁empir
▁femoral
▁apex
▁dorsomedial
▁TGF
▁elastic
pinephrine
▁4.7%
▁valvul
▁conferred
▁supra
▁virul
▁prophyl
▁proteins
▁acetone
▁nonfatal
rates
▁LPS
DOPA
permine
▁HBe
▁800
▁ribosome
▁canc
▁arteries
▁tubes
▁dehiscence
▁spermatog
tron
25
adecanoyl
▁mechanically
▁subtraction
▁irradiation
▁strepto
inhib
▁strips
izin
▁enal
ofl
▁reversibly
▁plantar
▁effluent
butyl
▁anatomic
▁MuLV
odine
▁disclosed
▁18.3
▁2.5,
chicine
▁2-3
▁Selective
▁yolk
▁DH
▁hemip
melan
▁0.
tents
bronchial
▁gastritis
▁mammalian
▁immature
▁proteoglyc
▁(2.5
▁hypertensives
▁coincident
▁kHz
▁simulate
▁inosine
▁Doppler
inopril
▁spi
▁planar
▁isoforms
▁brom
▁directional
▁abduc
▁5%.
▁transmitted
▁MLR
▁(49%)
grees
▁nox
▁naproxen
▁principally
▁bronchodilator
▁targe
▁facilitation
eces
▁triflu
▁cutaneous
umetanide
▁pigmented
▁Peripheral
▁arose
▁Indi
nour
▁reacts
1)
▁wors
▁Framingham
▁granulosa
ffe
▁glutathione
▁gilts
▁Listeria
000,
▁Sixty
fos
▁breeding
▁tau
▁94
ovine
▁collab
▁streptococcal
▁receptor
▁logistic
AII
▁-8
NIH
adrenoceptor
▁nebulizer
atonin
▁13.3
▁proceeds
▁papaverine
▁conjunction
idylate
▁specially
▁carpal
regn
▁erythroid
labile
▁longus
▁pallidus
▁metast
▁potentials
▁endogenously
▁simian
▁anxio
▁shunt
▁endoplasmic
acti
▁soybean
RBC
▁cannula
▁separating
4%)
▁stratification
▁suture
ontal
▁hypon
▁hyperp
▁incubated
▁anastomotic
▁HSP
▁reinfor
▁reoxygenation
▁HTLV
5%
▁Median
tein
▁47,
▁granule
fication
prisingly
▁foetal
roat
drome
identified
16)
facturing
▁5.1
▁79
tig
130
▁quadrup
▁cil
▁chromatography
esicular
▁10,
▁catecholamine
corticosterone
▁quaternary
▁11.2
uctose
▁sphing
▁amplification
▁heme
▁serum
▁formulated
oxifen
▁apoA
Dawley
aryotic
▁Ps
%);
▁grise
xia
▁sphe
▁prostate
▁scrotal
▁centres
▁thyroxine
tial
ocyanin
▁operative
▁trigeminal
▁confinement
▁hydrocarbons
81
▁dehydro
erum
ABL
▁comparative
▁delaying
▁polarization
cGMP
▁Considering
cultured
▁EA
▁Neurons
obac
▁acqui
▁(2%)
▁advan
▁adjunct
▁quintile
▁vesti
▁saphen
▁0.82
▁angiographic
▁0.45
▁antigens
anadate
▁methanol
▁resin
▁discontinuing
▁linkage
umptions
▁prolongs
▁(72%)
▁0.18
▁mating
▁ureter
▁tendencies
terologous
▁palmitoyl
▁obstructive
/6
▁(4
▁subun
pH
▁yr
▁spermatogenesis
▁unidirectional
▁interfering
ygen
▁morphology
▁extensor
▁depolarized
▁replicate
lute
convulsive
▁anisotropy
▁pHi
▁(1988)
▁Phen
trisphosphate
ocycline
▁NF
oprecipitation
ithiasis
▁emphasize
thromb
▁dimers
▁mice
▁124
utin
icidal
phosph
Ba
▁2.0
▁uv
viruses
▁digestive
▁favorably
▁electrom
▁BMI
hydroxyphenyl
MAbs
HETE
▁empirically
GSH
▁flecainide
▁abbrevi
▁uter
▁ascorbic
▁fibrinogen
▁antidepress
encephal
▁pregnenolone
▁(10
0.9
limiting
▁orthodontic
▁490
▁sedentary
▁relap
▁Coronary
iang
▁doxycycline
NH
▁rost
physiologic
▁regar
alues
▁(300
CRP
▁anions
▁hemopoietic
difference
▁endarterectomy
▁1).
▁carboplatin
▁influenz
▁stenotic
▁deficiencies
▁ASA
gonal
▁urethra
otine
okinase
acillin
▁antigenicity
entanil
▁detachment
▁journals
▁facilitating
▁neoplastic
ietic
▁eventual
▁airways
▁radiolabeled
▁37
▁propranolol
▁motone
adenomas
etent
anoid
odies
▁cerebral
▁hindlimb
oplastic
▁1.05
▁poli
tained
▁suggestive
▁arrhythm
roglobulin
▁destab
spectively
▁inappropriate
▁0.52
▁synaptic
▁185
▁exag
▁histograms
▁0.05).
▁predictable
▁interc
18
imaging
verages
▁reproducible
bisphosphate
▁incubating
tch
opril
▁60%.
anding
▁uteri
90).
▁-0.
▁1.33
▁preceded
tocop
mur
otr
ocortic
▁ultrastructure
iferous
▁Torr
monstr
▁INH
▁neomycin
▁MRF
▁Stro
▁29,
versely
42
filament
▁mediators
▁ventilated
dil
plying
▁altering
▁urot
▁nephrectomy
inase
anat
▁subcortical
▁Delayed
onc
▁(5%)
▁prenatal
▁biotinylated
▁restraint
▁intrad
▁preformed
▁responsive
▁Kinetic
▁rhabdomyolysis
▁0.01).
▁neph
rences
▁enrolled
phila
▁Graves
atesticular
▁goat
▁glycosyl
▁sinusitis
▁unlabeled
▁phantom
olinergic
▁neuropathic
▁altitude
metabol
▁abrogated
teryl
▁gastrin
▁lumin
▁osteoporosis
35
▁substitution
electron
-28
▁extrac
▁heterosexual
▁methotrexate
▁VH
50),
▁ration
▁23%
-9
pran
▁hypothesize
▁LR
▁overload
▁adenylyl
▁deficient
▁stripping
▁metformin
▁4.3%
tococcus
▁endonuclease
▁corticosteroid
▁1.7%
▁aerosolized
/1
▁8),
▁100%,
lecainide
▁10-
▁3)
osylation
▁discontinued
▁quinone
▁AMP
▁(0.01
riceps
▁(2%
▁determinant
▁10-20
▁spondyl
▁hydroxyl
7).
▁bene
▁scin
▁9
▁neonatal
▁lysosomes
itoneally
isopropyl
▁drip
lasts
▁CIN
▁malformation
▁etiology
▁premise
▁tetramer
▁fibrill
▁discrepancies
▁unexplained
amole
clonal
ioma
subunits
▁HVA
▁Recovery
iliac
▁Milk
▁restenosis
▁4),
▁underlie
ubiqu
ophosphate
▁bupivacaine
▁myo
▁erup
▁prol
▁parab
omann
▁collic
▁abrup
▁spati
yrid
arynx
▁defic
tensin
iodo
▁ventricul
vive
ituitary
mmol
enoid
25.
▁Heparin
epi
▁devoid
▁Leuk
▁inpatient
uculline
▁fluoroquin
conver
osteroids
▁crystals
-2,
▁scavengers
▁1.4-
30,
▁gastro
timulation
alities
ecre
▁PIP
▁isoniazid
ylcholine
▁1985.
▁eradicated
yrate
▁Therapy
▁outpatient
▁0.00
▁compartment
▁AML
ffeine
▁tas
▁TIA
▁scaven
▁(5-
▁indwelling
mTc
irectional
amethonium
▁malnutrition
▁Steady
▁cruz
▁albuminuria
▁casein
▁(1
▁neurob
rospor
▁litterm
oarth
alp
▁acclim
▁AGA
ulsive
philis
PGE
▁quail
▁heparin
▁0.04).
▁nif
▁Bac
▁diacylglycerol
CRH
idium
▁afterload
▁cytotox
▁blots
▁warran
vae
▁tended
▁creatine
vessel
▁36
▁ovulation
▁55%
▁deline
otriene
▁vasopressin
aethyl
▁dyslipid
-[
▁readings
▁sectioned
▁LV
▁worsen
▁anastom
▁introns
ordant
▁harb
riol
▁skinfold
HTLV
orectal
oreceptors
▁presynaptic
ugular
▁deposition
tetraacetic
▁energe
▁impair
▁hamsters
▁Fram
carbonyl
▁5),
pig
▁Structural
inflammatory
▁shunting
aryl
▁zidovudine
7;
▁overlapped
0,000
▁glut
▁albuterol
depr
▁circumferen
▁225
rein
facial
▁somata
scherichia
▁cirrhotic
▁arteriovenous
▁cyclic
▁medullary
▁chimeric
▁myometrial
▁unwanted
lective
▁folate
vus
lym
▁exposures
▁antibacterial
▁inactivating
-1000
▁osteoblast
▁scans
▁quenching
ometrically
▁circumference
▁Values
▁occlusive
▁mM
▁fluoride
▁adsorption
▁fibrillar
omal
bacter
▁TSH
▁exchanger
▁retrospective
▁Pt
▁mesang
▁subdi
▁0.51
▁emergent
▁isoenzymes
80)
▁construc
▁lactobacilli
ferrin
immuno
kerat
▁isovolumic
▁24.
enteric
rendipine
▁micelles
tency
▁WK
▁1.03
tices
stress
.7%,
yel
vitro
▁-0.5
0%.
toid
oscopy
▁aspart
▁loos
ygosity
▁mec
rected
stranded
▁castrated
▁14.5
▁feather
▁natriuresis
▁NADH
associated
▁32
▁249
▁guan
▁Bacteroides
IgG
▁70%.
▁forearm
▁enl
tead
CHO
3,
plasty
Leu
sided
tomas
romedial
cytotoxic
▁obese
endothelial
▁aggregation
▁pons
.0
▁bilirubin
▁Clinic
▁oes
▁cuff
openhagen
▁leukotrienes
▁subgroup
▁eradic
protein
anin
tRNA
olated
opa
▁interneurons
▁motoneurones
▁devi
voltage
▁5.
posterior
:0
▁(64
▁24-
omial
▁isotype
chlor
▁(95
▁radiolabelled
18)
antile
dominal
▁correlations
▁retin
▁Gluc
ypass
5]
reflex
▁repressor
▁hematological
▁backbone
endix
▁stenting
nisolone
phosphamide
▁differentially
▁cytochalasin
cemic
▁sublines
▁dibutyryl
▁Binding
evoked
▁dystrophy
nutrition
▁uremic
▁61
CMV
▁newborns
▁discharge
▁rabbit
▁diagnosing
articular
▁thirds
▁messenger
phosphate
▁sciatic
▁CsA
▁MU
anazol
▁125
▁bronchial
▁5.9%
▁therapeutic
raine
depleted
enicill
▁9.7
78
▁venography
pA
▁fasted
cortisone
29
orphin
▁chond
▁nicardipine
▁186
▁Dopamine
▁1979
osteal
hydration
▁(0.6
▁DMP
acrylamide
tics
▁contracted
▁infrared
▁(79
formerly
▁sati
▁7.3
kling
▁(90%
▁submandibular
▁alveolar
▁alteration
▁attendant
atching
▁predominantly
apride
▁peric
blot
ygote
▁sulfonamide
▁0.4
▁supr
ethyl
▁thal
▁193
▁teratogenicity
4-2
etus
▁hapten
▁homose
▁plexus
▁emo
▁pallid
▁colorectal
vertebral
▁symmetrical
82
▁immunotherapy
▁normalization
▁DTH
▁149
tening
▁DMSO
meth
▁regulators
▁colectomy
▁133
▁transported
olesterole
▁Bilateral
▁hemat
▁100%.
▁inadvertent
ductive
▁identif
▁homoz
▁lar
▁arthro
oxic
▁calibr
▁predominance
▁aden
▁clonal
phorbol
▁0.61
▁CRH
▁clinics
▁premenopausal
▁Mn
MV
▁Ara
▁Highly
▁Concentr
iodarone
oreal
hion
▁resis
apeutic
opre
nitine
▁mitochondrial
▁lyse
▁derivatives
▁ecz
▁propionate
▁NR
▁(8%
vices
▁1.12
isite
▁HN
yramine
vation
▁7
▁cooperativity
adone
▁enlarged
▁65
oxin
▁polys
▁sheath
ropine
▁raphe
▁recipients
▁crosso
itoring
▁corticosteroids
▁interim
8;
buride
achlo
▁endurance
71
▁notic
urons
otypic
▁frontal
tured
luded
▁neurite
▁distinguishing
96
urgical
thick
▁envelop
MK
▁6-
▁vigorous
rof
▁nutritional
andard
▁8.1
amisole
▁conservatively
▁mitogen
▁10(-4)
▁myocytes
tine
ocul
ografts
ideoxy
ustion
▁biom
▁carbonyl
noea
▁chloroplasts
▁xenob
▁Eighty
▁pyruvate
▁vitre
▁microU
phyl
▁seques
▁urethane
▁suppressing
▁parenchymal
▁behavioral
PGF
▁trypan
olymer
▁gait
lamydia
▁lymphoma
▁transient
▁periodontal
termined
▁microb
▁321
▁9-
▁CDDP
▁48
utaneously
00-
▁parap
amethyl
▁melan
,3
titu
oblastic
▁multil
▁potent
ocap
oacetic
resis
▁tetra
▁166
▁adhere
opioid
▁237
▁actin
▁detox
▁alternatively
▁CAP
▁75%
▁antimic
ctive
▁haplotype
▁PW
▁budesonide
▁striatal
▁TcR
▁NM
tyline
▁medicines
eliac
▁abscess
▁Eb
▁circadian
sul
▁additive
idovudine
▁pellets
ecretion
▁MCF
▁6.4
▁(7%)
▁naloxone
▁degen
▁bumetanide
acental
▁prolapse
▁remarkably
olol
▁castration
2,000
dividual
▁0.64
aminated
siella
meas
osac
85
▁unrestricted
▁intrinsic
▁vulnerability
▁dystrophic
glycoprotein
▁symme
▁oligomers
ardias
viral
▁100-
▁paren
temperature
/7
▁irrever
▁tolerated
chloride
▁Correlation
▁quantal
openia
▁tibia
embryonic
▁inhibitor
▁Physi
▁iden
▁diffic
▁corticos
▁Excluding
▁Cushing
turing
sities
▁remnant
▁unrecognized
nucleotidase
▁improves
▁pyrimidine
▁loci
onuclease
oporosis
▁ECGs
idis
▁glutamate
▁0%,
herol
▁reconstructed
▁computerized
▁neocortex
▁polymerization
▁acnes
▁noradrenaline
▁androstenedione
▁soy
dural
adminis
▁6.7%
estig
▁lactoferrin
repres
▁(199
▁vertebrate
rostened
(2
sar
oleucine
▁sphero
Hyp
itus
farin
▁spinal
▁isotonic
▁cromakalim
▁tubulin
acycl
▁syncope
oderm
▁recirc
▁microp
▁bisoprolol
▁spectroscop
▁0.5%
oflav
▁bathing
reacting
enic
▁209
▁MCI
0.2
opro
▁experimentally
▁asbestos
▁malign
▁charcoal
▁carboxy
▁6.5%
▁alkali
▁trache
▁adsorbed
▁bronchoconstric
▁unfavorable
▁defective
▁hydroly
▁tentatively
▁aeruginosa
▁bup
pretation
▁efficacy
LN
▁immunostaining
osensory
ysin
▁4%
icacy
roscop
rhy
ighteen
▁CaM
▁inflow
ogenic
▁norfloxacin
0.
▁depressant
early
▁142
▁4000
ospasm
▁postmortem
embry
operatively
▁inhibition
-32
▁1988).
lora
▁glandular
▁microvilli
▁xen
otomy
▁adrenoceptors
▁83%
▁188
▁arabin
▁Resting
▁Prevalence
▁55
▁overlapping
▁soleus
▁glomer
▁bacteriophage
▁vertebr
▁disproportion
dL
▁182
▁sulfhydryl
▁endoscop
diagnosed
▁3000
otomized
▁Fraction
▁histology
yro
17
▁adren
▁intensely
enters
▁Respon
▁epiderm
ensitization
ethylmaleimide
iton
▁demonstrates
rance
istal
▁Computed
▁DV
▁HC
WBC
▁therapists
▁89%
▁HLA
13.
2).
▁progression
medicated
kinesia
▁digiti
oprotective
lesioned
▁piper
▁haemorrhage
▁imbal
▁0.03).
▁FS
obarbital
▁Increased
▁selectivity
▁IIB
▁5.6%
▁abnormalities
▁stimulation
"-
▁capillaries
147
titute
transformed
▁quantitation
orrha
▁MDI
alsy
▁descriptive
▁atopic
▁histo
▁serous
▁prednisone
TNF
junctional
▁rIFN
▁polymeric
▁Multiple
▁immunobl
▁LMWH
▁elicited
▁corticotropin
rogesterone
ylation
▁superf
▁Synthe
▁ANG
▁CDC
▁antecedent
orac
▁moreover
▁12%,
▁(71
▁MRL
itriol
▁solit
tomy
▁116
ipid
▁hypogonadism
enterolog
DH
▁dismut
odopsin
▁(34
fortable
▁gonococcal
▁15%.
▁biochemical
▁endopeptidase
▁predictive
▁assemb
▁Examination
▁conformations
onary
tense
clamp
▁probed
20-
▁oestrogen
▁Simult
▁estradiol
administered
▁REM
▁kary
roscopy
promoting
▁defec
▁Neurop
orating
thanol
Cer
romal
▁maturation
▁ventrolateral
plasia
oprote
▁baroreceptor
▁coag
oporotic
▁exocytosis
▁stresses
▁10.5
tracellular
lated
▁vaccination
▁57%
sored
▁18-
hydroxy
▁crystalline
▁concurrently
▁fibroblast
▁9.4
▁pharyng
▁esophageal
▁dichroism
fron
▁nucleus
uppres
fective
rays
glucuronidase
cells
▁LVH
ionine
▁ech
▁cholecystokinin
dU
peritoneal
▁coordination
▁caffeine
cardiac
ocytosis
roline
▁pathophysiology
▁20%.
▁Hepatic
▁remin
▁pellet
reotide
▁congestive
-150
turition
▁198
▁1.07
irub
▁functionally
▁Sexual
▁0,
▁cytology
▁peroxisomes
continu
▁dithi
acetate
▁0.001),
▁Fc
▁Rats
▁CST
0%).
:6
▁visualized
▁nitroprusside
▁5'-
▁dilat
atheter
PAF
39
▁Transi
▁Dex
▁(73
▁intrathe
ogel
▁MgCl
avian
Fs
▁epithelial
▁prepro
erop
▁bronchoalveolar
aceutical
▁premenstrual
▁MDR
▁palmitate
LH
Kd
▁carcinogens
▁palate
▁71%
myristate
arean
▁(1.8
▁tracheal
▁Streptococcus
opyran
SMR
oprost
blind
▁biop
▁carbohyd
▁competitively
otropy
lebsiella
▁29
▁glomerul
▁ane
▁advancing
odilution
▁demyel
▁3.6%
phadex
▁forebrain
ameter
irradi
ocaps
ginine
▁tyrosine
tectable
▁0.25%
▁repaired
▁antigenically
independent
▁SAP
HCl
▁309
▁residues
ussion
hydroxysteroid
▁(200
▁Hz
▁ischaemia
▁picrotoxin
▁reser
▁pyr
▁monophasic
MIC
amid
▁tumorigen
▁pyraz
▁glycol
▁myocarditis
orpor
emak
▁cytokine
stimulated
▁formaldehyde
▁anaesthe
-1).
issive
▁serotypes
▁ascending
phosphates
▁systemic
▁unsuitable
▁inducer
pyrid
▁surfact
tigu
▁digesti
ifed
▁trophic
dopamine
▁motif
.8%
▁fulf
▁276
▁PCR
▁somatosensory
▁jeop
opia
▁inten
ROS
ohyd
▁tritiated
rogenesis
▁19
atropium
▁thalamus
▁corp
perme
▁blister
tility
eak
▁4.8%
10),
▁discrep
▁bleomycin
▁elution
▁Chrom
rosomal
▁antagonist
▁GI
▁lor
▁Recombin
▁preeclampsia
▁revascular
▁cerebellum
insulin
▁selenium
▁mononuclear
▁AKR
renolol
▁344
zoster
Pu
phosphorylation
▁blunted
uminal
▁Veterans
▁lisinopril
▁Findings
▁(10(-4)
▁1991.
▁juxta
▁manifestations
▁suppressed
▁supplemental
▁13.5
▁allografts
ixation
entgen
▁hypothermia
▁hydrocephalus
▁psor
▁resemble
endazole
rotid
▁coval
▁levonorgestrel
▁22)
isole
▁hygi
▁Combin
▁8.3%
▁1,25-(
▁lytic
▁valine
▁PBMC
oling
aggressive
▁273
2.1
▁contrib
increased
▁amacrine
▁bipolar
▁titr
▁radionucl
-[3
▁phagocytic
vitamin
▁carc
▁(55
▁accelerate
6-
(2+)-
▁patella
▁hypox
sian
▁ves
ancomycin
▁PGI
▁Groups
▁DNP
▁reorganization
▁aspirin
▁communic
otherap
▁epidural
▁8.
▁MF
▁investigator
▁confined
▁bacteriological
plantation
▁solubilized
ystatin
specificity
ovole
▁(1/
taken
renal
3+
▁lectin
▁(19
▁1.11
▁angiotensin
▁(25%
mortality
ordial
schemic
ceptual
sA
mide
apatite
adox
▁myopathy
▁lacked
▁CMV
azolium
nitroso
▁mandi
ETE
▁rationale
urinol
▁contributes
▁bif
▁RU
igenic
▁codon
▁Oxygen
▁sugges
tinguishable
▁maternal
▁229
riamycin
▁intracerebro
▁WBC
▁colonic
▁haemat
24)
▁epidermis
▁Acad
▁diabe
labeled
▁neuropil
trol
▁6
ribose
ventilation
▁EPSP
▁Estim
-80
adecan
oreductase
▁(3.0
▁mesothel
▁hyperglycemic
▁120
▁Chan
▁chromatin
diabetic
233
▁(10(-5)
mortal
▁accid
▁proximal
▁13
estions
▁propria
▁exceeding
0.00
▁confound
rolateral
▁0.79
▁(1.2
▁junction
▁emesis
ilibr
vail
tosis
▁simplex
▁40-
▁transformations
PMA
▁Measurements
bearing
▁positively
▁Tolerance
icine
▁succe
▁(49
inergic
▁indomethacin
arum
▁oesophag
▁73%
amilton
▁Carotid
▁VIP
▁lith
▁psi
▁sensitivities
▁elevating
pecial
▁nuclease
▁0.99
▁tumorigenic
▁guanidine
▁persist
▁monocyte
▁sparing
▁mRNA
▁iliac
▁exercised
uating
▁isotope
▁amelior
▁0.05,
▁eIF
▁intral
CLL
Sepharose
▁epidemiology
▁permeabilized
▁0.1,
MTV
▁systematically
▁PF
ipramine
▁chromaffin
▁disruption
▁twins
▁arsen
-70
▁behavioural
▁liposomes
▁cations
▁ECG
▁microscope
BH
▁sleepiness
▁ranitidine
▁absorp
▁rigorous
1]
iferation
tration
keletal
▁exhibits
▁commercially
residues
▁quoti
merc
▁PCA
▁cavity
▁modulated
oglut
▁PCOS
▁treatable
▁5.3
▁optimizing
obarb
ithm
razosin
▁achieves
growth
▁unconjugated
▁adenocarcinoma
▁86%
▁monolayer
grams
▁antiarrhythmic
micrograms
▁catalysis
▁(25%)
peak
▁disturbances
▁0.72
gli
▁clarithromycin
▁stimulants
▁numb
▁sucrose
▁permissive
▁equimolar
olsc
imurium
▁analgesics
170
▁alopecia
epithelial
▁inh
▁probes
psych
▁hetero
lication
▁Leydig
▁mucin
till
▁Improvement
▁136
anking
▁papill
▁prevalent
ensin
otroph
igram
▁(95%
▁urethral
▁40
0.4
▁uncoup
▁kainate
ircular
▁electrostatic
AML
▁nephro
▁Evid
sulph
▁unbiased
▁aldehyde
▁catalyze
▁177
▁shocks
othreitol
lipid
▁Trials
▁(1.5
▁reacted
10
▁pathologic
▁demographic
▁shortened
▁(78%)
▁Repeated
Menten
▁imaged
▁multivariate
▁flaps
▁comprehen
▁15
▁transi
▁appendix
▁tachyc
▁21%
Fc
▁heterodim
▁ultrastructural
▁epidemiologic
invasive
neoplastic
median
▁0.59
▁cervical
▁accumulation
▁aspec
▁responsiveness
▁chymotrypsin
▁PV
▁epicardial
vastatin
▁3.4%
▁polyamines
▁IIA
olipids
▁endoscopically
▁hyperlipid
ethoxy
▁Rele
▁cardiopulmonary
▁clind
▁12.5
timate
azep
atoma
▁paroxys
▁placental
▁Respiratory
▁latencies
▁masked
confirmed
-41
▁decrement
yridamole
▁refractory
▁peptides
affinity
▁cathepsin
▁menopausal
4;
▁empirical
▁hypoxanthine
osol
▁mitochondr
▁inad
▁avidin
MPA
▁foci
▁valinomycin
inesterase
epam
▁18%.
▁recognizing
▁hyperins
▁(1-
▁microm
▁tetrap
nai
-5-
▁antich
▁cavities
otide
▁0.35
▁gyn
ignificant
▁inotropic
solubilized
lycer
urgery
ocomp
▁95
▁antenatal
70)
distal
chymal
hydropyridine
-12
▁secreted
▁cystic
yoto
105
▁sediment
▁infar
▁candidiasis
▁contradictory
▁IB
▁triglycer
tative
oblas
glucosaminidase
▁Sulf
▁herpes
romes
▁0.01
▁hepatocytes
▁constructs
▁chori
▁Uptake
▁radiograph
▁(1.6
▁gluc
▁nucleosides
▁galact
14-
imus
terl
▁chylomic
▁Adherence
ophyll
▁originated
▁prostacyclin
▁intoxication
▁developmental
idine
▁nephropathy
▁hexa
▁clustering
▁blastocysts
pyrine
▁fibres
▁Aspirin
▁antif
▁1.42
utive
▁3.1
▁histidine
▁comple
itre
▁snail
▁4.8
▁SPL
ophilic
▁cres
ipine
▁Estrogen
▁discon
dipine
▁59
▁favoring
▁theophylline
▁cerebro
▁tympan
▁murine
▁Improved
pressure
-2
▁cyclical
▁determinants
hexyl
▁preganglionic
▁umbilical
▁incubation
▁cryopres
▁tib
agarose
▁varic
▁metastases
▁phenobarbital
occus
▁hCG
▁derm
oung
99
rophen
edema
rone
▁2,4-
▁polyrib
ilized
28
▁photoreceptor
▁IIa
keratins
▁Thy
▁TRH
▁CPB
▁pentagastrin
▁HBs
▁hydrophob
esides
virus
▁autoantibody
▁12.5%
▁segreg
▁50%.
rometric
▁paraf
▁impregn
▁epidermal
▁multiplicity
▁desensitization
atation
▁estrous
▁Rever
▁heavier
▁conclusive
▁0.05);
Bs
▁parenchyma
alene
▁outflow
osyltransferase
enediamine
vents
▁alloantigen
▁smoked
▁postex
▁infiltrates
▁83
yrib
▁papilloma
▁(29
itone
▁justif
glial
▁IVC
indol
ovaginal
▁histopathologic
▁somatic
▁erg
▁prazosin
mM
▁fasci
▁ouabain
edocromil
coagul
▁129
▁(92
▁localization
▁binds
▁Conc
yzed
▁aberr
ronchial
aminophen
▁pall
▁coil
ococcus
▁ata
proven
etidine
▁reapp
diastolic
▁hams
odeoxy
700
▁taurocholate
▁hitherto
andida
▁phy
▁standardized
tum
▁displacement
▁SMC
▁Fluores
▁trough
▁archite
▁cetirizine
▁gingiv
▁albic
uling
▁1.09
▁WHO
▁malignant
olip
▁endosomes
▁hypercalcemia
▁Obs
sus
teroids
▁HepG
▁perturbations
gyl
▁steroids
▁ure
▁objec
1-2
liters
▁transfused
▁vaccin
1,000
orrheic
▁scre
▁3.4
▁1.7
lue
throm
▁Tric
▁60-
▁intensive
▁granulocytes
▁3.7
▁tubular
▁(89
▁Nit
▁endings
▁interne
▁devised
5-0.
yses
udin
▁cortic
▁chloramphenicol
▁topography
▁transporters
▁transfection
▁evaluations
▁3.8%
▁postinjection
Ly
▁permeability
urrent
▁4.7
▁95%,
▁Haem
fractions
▁3-5
ulant
oAbs
ritis
myocardial
▁mite
▁econ
▁isoenzyme
▁morb
▁fertility
▁tryptic
▁42%
icin
▁96%,
▁sulbactam
▁distrib
▁Km
▁baclofen
▁cornea
▁plasmin
▁entero
▁suboptimal
▁concep
-2-
▁exudates
▁micrometer
▁simult
▁gonadotroph
trients
▁covari
▁pharmacologic
▁CTP
(1,4,5)
▁gluconeogenesis
▁singly
▁artifact
▁physiological
trition
ipr
▁preincubated
onitis
microglobulin
▁corpora
▁statistic
▁solubilization
romed
▁posi
75
kage
expressed
▁axillary
philic
▁hydrophobic
tigmine
▁EPSPs
▁familial
▁InsP
▁acinar
▁Diabetic
▁sphinc
▁denervated
▁200-
rangement
▁hyperactivity
tural
▁kd
dose
ergy
athetic
▁curative
40.
▁transcribed
rele
▁hypotensive
▁instruc
ositi
▁aluminum
▁toge
responding
▁substanti
-8-
11-
450
▁converting
monitoring
▁Multivariate
▁99%
▁fluorescein
▁resembles
▁explic
▁delays
▁iatrogenic
▁Pseudomonas
▁nonprotein
sial
▁0.19
0/
nthe
▁isos
▁EBV
▁chloroform
▁adaptive
▁valproate
▁chloride
▁potentiating
▁evacuation
receptor
ervical
▁exchanges
▁302
tryptophan
olism
▁weighed
▁MMS
▁immobil
▁Dose
▁aggression
▁Trial
-20
▁recor
lastic
erebro
haem
▁preferentially
▁electrophoretic
▁0.30
▁64
membrane
▁40%.
▁lethal
▁GFAP
▁ketone
▁hepatic
▁empiric
▁adherent
▁laparo
▁Nuclear
▁influencing
▁412
arginine
▁Experiment
▁lysine
ocortin
▁ultim
▁variability
▁definitive
ivation
dehyd
▁proximity
▁62%
▁Abnormal
▁allergens
▁leu
▁randomised
40)
etition
▁circumflex
▁preven
▁myelinated
▁chemotaxis
▁memb
▁NMDA
▁nec
etirizine
osylated
alcip
▁Staphyloc
▁carcin
▁ontogeny
▁37%
▁BK
molar
olateral
lactam
gated
feron
tries
▁brisk
vival
eration
▁adduct
hetamine
▁[35
▁immunogold
gol
▁protons
▁lipids
ectomy
retroviral
ritical
odality
urin
▁Assess
arous
▁diagnose
▁endotracheal
osin
▁immunohist
-11
▁depended
▁galanin
▁(58%)
ctation
▁0.0
azepine
▁proteinuria
▁90%.
▁1983
xual
▁exons
▁attitu
▁mucus
▁fungus
▁trin
▁comprising
▁(5.8
accharides
orporeal
▁grossly
ofluorescence
▁hypothesized
▁inverted
ganglionic
.3.
▁35
▁HCC
▁fron
▁luteinizing
▁ambient
▁(4.3
▁bedtime
▁saline
▁metatar
omedial
sensitivity
iology
▁Inhibition
▁cylinder
▁(1%
Nase
▁curvature
tations
▁infil
▁differe
▁7.5%
38
▁methoxamine
▁interacting
▁(36%)
orbol
▁surgically
yronine
▁modestly
▁gon
▁Holter
▁cyclosporin
usate
▁estrone
▁vascular
▁diarrhoea
tiv
fied
▁physiologically
▁progest
ATPase
▁metered
▁infancy
▁wk
▁3.8
▁larval
▁antid
▁HindIII
▁eosinophil
-2.1
▁metatarsal
▁1.5-
archite
usively
0%),
▁1-4
▁swelling
lometh
/18
▁monocytes
▁effectors
140
▁spp
▁reared
rosine
esterified
aminopyridine
▁sprin
▁veins
▁infiltration
▁cardiomegaly
▁subacute
▁intrathecal
9,
▁DF
▁differentiated
benzo
▁validity
▁dysplasia
naphth
▁hippocamp
1%
▁replic
▁phospholipids
▁emptying
▁HV
▁SHR
▁Cmax
▁certainty
▁fati
▁impaired
siology
▁156
▁perfusion
ANF
oten
4,000
▁specialty
▁26.7
▁(4.0
▁flap
▁hypertonic
11,
1.
+/
▁genesis
▁chl
ubs
cortical
chlo
▁relaxant
▁irregularities
stem
1.5
▁205
▁prevail
▁counterpart
itron
tisol
▁antim
▁sparse
iperone
▁Methyl
blood
▁inflamed
PBMC
coronary
▁induces
aceu
oste
dens
osition
inducible
▁contour
▁Gpp
olerant
▁responds
femoral
ogold
▁1.
intestinal
▁1.53
▁Mice
▁Glut
▁ophthalm
oflavin
▁analogous
lymer
▁TPN
▁ELISA
parathyroid
CAT
▁mA
▁30%.
▁leukemias
▁disloc
risk
▁efferent
kinson
▁oss
▁solitary
▁metallothionein
▁laminar
▁natriuretic
oreceptor
estis
idation
mental
targe
▁PtdIns
▁follicles
RNA
oxan
▁139
pontaneous
▁SCH
▁fivefold
▁chec
odynam
▁recombination
atest
▁8%,
▁overt
▁mediate
ostr
dotoxin
▁Epid
▁analges
ergency
▁selen
▁Kine
spectrum
▁offspring
pired
apenta
thanolamine
▁stratified
ygdal
ATP
▁sequenced
▁tox
▁intramuscularly
▁bip
oreactive
▁soluble
genic
orphine
NGF
9-
dition
ctomy
.3)
▁dextrose
▁trimethoprim
▁0.2,
▁bacteriuria
006
cemia
▁saturating
nitrosourea
▁haem
▁plaster
▁stably
▁hepar
tillation
▁inoculated
▁decub
▁illus
▁oocyte
▁overestimate
▁231
▁utilization
▁pharmacokine
▁blot
▁indole
▁unstimulated
tizing
▁proliferate
tracheal
▁diminution
▁(1000
quat
▁1.9
95%
▁smokers
▁16.1
iatum
amyl
allikrein
▁SRIF
▁metaplasia
▁ANF
CFU
Ki
▁AFP
icylic
circuit
▁kallikrein
udent
▁incom
ositive
▁750
enon
rophenyl
▁adducts
yrene
▁digestibility
ochemically
-40%
▁denaturation
obases
▁aflatoxin
agonists
trating
▁diarr
▁torque
iuria
umerous
▁synthe
▁oligomer
arate
▁microvessels
▁vancomycin
▁Smoking
▁striatum
▁mmol
▁abstin
▁hu
tructural
▁paradox
▁benzodiazepines
▁kinetic
idase
aemic
▁muscular
▁amplified
▁(1)
drug
▁supernat
▁seropositive
▁Measurement
▁alkaline
▁controver
▁ductal
▁fibro
▁islets
ubilized
loride
▁nong
▁hens
▁endocrin
lamyd
▁regression
▁atheros
▁microtubule
▁cofactor
▁unexpl
sulf
ysm
▁MDA
vements
▁brevis
▁(14
ulence
▁follicle
▁GTPase
etitive
▁spectroscopy
ocaine
▁1.5
▁15.8
▁testosterone
mortem
robial
▁sequential
▁lamin
▁axonal
▁myotub
▁naive
2+.
▁ARDS
erent
quit
▁115
▁palp
▁pups
2318
▁colonies
-26
▁pancre
▁elevations
▁18
▁47%,
▁Atrial
▁2.1%
anic
seud
otoxin
HN
8,
ylase
▁immobilized
cytochrome
▁hybridomas
odontic
▁(250
▁facilitates
fused
86
▁droplets
mitochondrial
oxone
▁sarcomere
▁14.8
▁specimen
▁eukaryotic
urred
mined
hemoglobin
▁intravascular
▁implicated
roxyprogesterone
▁synthesizing
▁excitability
pG
▁modulating
▁intrarenal
▁verte
▁Proc
cholesterol
▁8.4%
SCLC
iphene
▁hypertro
tional
▁undergone
lep
▁Experimental
inhibitory
▁exogenously
ofib
▁carcinogenicity
▁coated
▁Lact
▁(15
▁Growth
glia
▁vulgaris
arterial
▁98%
inomycin
horm
operfusion
▁thermodynamic
vian
▁aromatase
▁tuberc
▁comorbid
▁collec
▁HMG
PCR
cine
▁monocyt
▁1990
▁CVD
.7%)
▁phentolamine
cytes
imidine
▁lyso
tocin
▁9)
▁36%
▁perfused
▁cholinergic
olipid
▁favored
▁ineffective
▁aspartate
oxazol
▁uncommon
▁prostaglandin
▁clamp
▁laparotomy
fluoro
ventral
▁Immediately
tiguous
▁150-
▁microsp
tive
amethoxazole
adder
▁tymp
omotor
ioid
▁92%
▁thrombi
PW
GRF
EDTA
▁Indo
▁metr
eded
▁constric
▁Glucose
sions
▁thyroidectomy
▁dete
23
▁implanted
▁Compound
▁encephal
roin
▁virtu
▁immunologic
▁nitric
xyl
▁anap
ietin
emius
CDD
▁depleted
▁(7
crip
▁unaltered
▁SOD
ratic
▁awak
▁nondiabetic
erus
▁acad
▁conjunctiv
ints
▁acyclovir
aterally
▁postural
dihydroxy
▁cataract
tant
ritish
▁Ninety
59
-75
▁clinically
bral
AO
renin
proteins
▁148
▁physicians
▁257
▁23
▁cervix
anyl
▁nonp
▁0.75,
▁cruc
dione
▁580
▁comprise
vaccin
▁manufac
▁fibrosis
▁Scale
▁bolus
tep
▁libr
iol
▁peroxis
▁renders
▁allo
keleton
▁glucone
▁FDA
rachial
▁spon
755
▁PEF
▁Radi
▁distinctly
▁OM
▁cytochemical
▁cytogenetic
▁48,
▁0.16
▁1.9%
▁PKC
▁promoter
▁39
▁recruited
▁3.2
▁prothrombin
monella
▁retroviruses
▁muc
▁emerg
ivariate
▁monoclonal
▁dialysis
erence
▁feline
▁necropsy
iological
▁oscillations
▁atrial
▁Prel
▁duodenum
erents
TN
leb
0.0
▁cytometric
glomerular
tectomy
▁Klebsiella
ABP
▁infusion
▁impulses
▁Purified
imide
▁regurg
▁unusually
▁healed
▁catalase
▁splenomegaly
▁BW
▁93%
bromo
itidine
▁fluconazole
▁68
▁abortions
▁77
coal
▁stationary
'-
determined
tussis
diabe
▁reticulum
notic
▁perinatal
▁haemolytic
▁174
▁disrup
otidase
EAE
▁Extr
▁dipyridamole
▁Magnetic
▁Viral
▁(50%
▁TG
▁complication
▁3%.
▁triazolam
▁catheter
kephal
▁sphingomyelin
▁infarcted
▁dus
▁700
▁adenine
▁cochle
iodine
▁biopsies
25,
paired
▁HSV
sia
iruses
▁strokes
EPO
▁alkal
▁biologic
▁optic
▁Hispanic
avir
produc
-8.
erose
▁buccal
▁peptidase
ylate
▁pyro
ipheral
▁couns
▁coded
polymer
▁endothelium
▁hydrophobicity
▁crosses
▁1.32
gely
essel
▁0.03)
othre
▁pathogenic
uprofen
ilin
▁GAL
▁biochemically
▁138
orax
▁Biopsy
▁keratinocytes
▁manifestation
▁ducts
hepar
▁cephalosporins
▁Ia
thmias
▁papain
▁tac
RIF
(1,
adin
▁warranted
▁DCA
minis
▁6.8%
otrypsin
plates
▁detec
▁spiral
▁resum
▁osmolar
▁10).
adiol
oprolol
▁paracrine
▁subunit
teric
methylation
▁deaff
tens
▁0.1
▁livers
▁heterogeneity
▁5000
▁256
▁0.03
acids
▁topically
lasses
▁acidic
opause
siological
▁regulates
utyrate
▁consis
300
▁(54
▁10.2
▁0.86
aem
▁spermatozo
▁nasal
▁angina
▁promp
▁dismutase
▁ozone
23187,
▁PBL
▁airway
tryptamine
2:
▁Rout
▁algor
ophysiological
▁insulin
▁measurable
ypical
▁ACI
▁succinate
▁cimetidine
endocrine
▁81%
TRH
▁84%
▁ciprofloxacin
opus
onazole
▁interstitial
▁(2,
elves
▁etiologies
▁epidemi
▁2,3-
▁habitu
Hg
▁(-)
▁gastr
thyroid
▁schizophrenia
▁CG
▁glycoprotein
ignific
▁asbest
agic
▁intrauterine
▁1.58
ivac
▁referral
▁pharyngitis
▁93
iterranean
▁Possible
inally
▁neurotensin
▁hypercalc
▁abr
▁transaminases
iary
-78
▁BP
▁ploidy
/+
▁tracer
-2+
ropath
▁lysosomal
▁neuropeptides
▁Mutations
▁rota
incubation
thmatic
rophy
▁hypoventilation
▁dietary
95
▁retention
▁lipid
▁MBP
arrest
▁88%
▁correlate
▁preincubation
8,000
▁consuming
ociation
opharynx
▁ketoacid
▁peri
▁immunized
▁ceftriaxone
icides
ochondr
▁preserving
organism
▁Afric
2+]
▁(13
▁cytoskeletal
▁UTP
▁replicative
▁transcripts
▁myelogenous
spective
▁histopath
azoline
partate
▁elas
aneously
▁thrombin
osomal
versal
▁constipation
▁adversely
-201
▁excitatory
▁spas
▁1987,
▁butyrate
opindolol
myr
-99
▁bronchodil
▁positivity
▁folds
sectional
▁550
esia
▁Cooperative
baseline
▁proceeded
▁follicular
▁TT
▁endocytosis
▁toxins
▁displaying
▁28)
orrhage
▁insemin
venth
▁3/
▁buds
▁flagellar
▁prel
▁33.3%
▁rGH
compartment
▁inser
▁catalytic
obut
▁neutroph
accep
▁phosphoc
▁39%
▁Recommend
SOD
▁irritant
▁borderline
▁hypoglycemia
▁circulating
▁expiratory
▁tyros
▁antidi
.1,
2%)
▁immunore
▁plethysm
▁1.26
▁admissions
▁WGA
27
▁Plasma
▁feasible
▁pharmacists
▁phages
▁acyltransferase
cents
0),
pendence
▁fertile
▁Phosphor
▁31,
▁1,25
gus
▁epididym
labeling
▁twitch
▁transpos
orrh
▁limb
▁0.2-
osid
▁asymp
▁adenocarcinomas
▁quinine
▁Hyd
▁attainment
▁mAb
obese
▁0.02),
▁musc
▁angiograms
educed
▁transepithelial
mitoyl
▁sagittal
▁carbam
▁parasites
▁Baseline
ration
Barr
▁agglutin
▁146
icardium
ardized
▁perikary
▁hydrochloride
-2'-
tole
▁apoE
olone
cysteine
toriness
-1,
▁subf
▁thereafter
4.1
▁rhod
▁AUC
cytosis
tric
▁glycolytic
▁neurologic
▁rectif
▁dobutamine
▁brainstem
▁213
▁veratridine
7%
▁Myocardial
▁Resid
▁90-
▁inducers
▁interp
▁macrophages
▁mediator
▁sphincter
rocy
diss
ypeptidase
embedded
▁ethanol
▁trapping
▁tuber
pap
11
▁hypot
etoprotein
▁stripe
-81
▁neurons
▁epsilon
▁subendocardial
optimal
▁CTL
altered
▁vincristine
ilum
amphenicol
molecular
153
▁phosphorib
▁35,
▁cytoch
stro
▁cic
gag
▁bioavailability
▁intras
mediated
▁hemispheres
▁6-8
▁48%
▁motifs
▁450
▁nedocromil
▁LF
▁injecting
▁cDNA
olis
▁hematoma
▁pA
▁-7
▁olfactory
▁glutaraldehyde
▁tetanus
▁1/
▁seminiferous
FU
incubated
urea
▁epileptic
▁4.5
ichlo
▁meningitis
48
▁friction
orubicin
astatin
operiod
▁Measure
titial
▁SMS
▁1.1
▁sows
AFP
▁contracture
razepam
▁hypercap
▁methodologic
▁ampicillin
▁appraisal
▁0.91
▁quartile
imentin
▁tic
▁deferen
▁fertil
roprus
iosis
▁LDL
tide
omyel
aminobutyric
▁superc
▁iodinated
20
▁0.05
▁acetyl
▁Evaluation
▁6.
▁contaminated
▁secretion
▁33
▁UTI
corrected
▁2/
-200
▁perioperative
52
▁bromocriptine
adenine
reasts
▁nondi
▁155
▁1.5%
▁25
▁rhodopsin
▁CAPD
PAP
▁endometr
▁phosphorus
ylyl
16
▁GS
▁spleen
uronium
▁intrath
▁69
amn
idinium
▁perme
turally
▁58%
transfected
ammon
▁diclofenac
acr
▁euk
▁13%
▁pI
▁pneumococcal
astases
ocalization
▁MN
phosphatid
ections
▁kain
ighted
▁allergenic
▁monocytogenes
▁benzyl
▁sham
▁obliter
▁penicillin
▁gentamicin
epines
▁Bacter
opam
▁[125
▁attained
▁69%
▁adap
▁apoprotein
epiandrosterone
titutes
▁1:
azol
▁0.28
▁218
dependently
▁millili
▁membrane
amental
▁colloid
▁11-
▁tiss
tris
70
▁rhin
troph
▁polyp
tenosis
▁ghosts
umaz
▁hypertension
▁urinary
ixime
.2,
▁weanling
▁polymorphic
▁anorexia
▁paralleled
▁abrog
roscopic
scheduled
▁stringent
vely
▁mimic
▁adipose
▁(0.5
▁tetrodotoxin
ditional
▁199
2+-
▁geriatric
calcium
▁cartil
▁arrhythmias
▁kinase
▁leukocytosis
eptid
▁trigg
▁omeprazole
▁duplication
ecretory
▁glycosylated
▁vanadate
▁connec
▁attenuate
▁BamHI
▁grouped
ventional
▁sti
▁Ure
▁erosion
▁contractility
4/
ensory
▁prono
▁complementation
5'-
▁Consistent
▁unsuccessful
titude
▁supplementation
▁pretreated
▁instrumented
▁permeable
▁reinforcement
ulses
▁saliva
▁vena
fibrate
▁peptic
▁7.4
opharmac
orrect
epsia
▁transluminal
▁-0.4
▁54
▁retinopathy
▁surgeon
▁sensitization
▁pubertal
▁irregular
▁phenotypes
choline
trative
▁aberrant
ceptive
andros
HBs
▁colchicine
alciparum
▁contraction
▁dinucleotide
▁Increasing
ulae
akalim
▁leprae
▁hernias
▁antiviral
▁amine
ardia
▁33-
▁134
▁EIA
1.0
1-1
▁sympathe
onstric
hesus
▁1,25(
▁hyperpolar
ikary
▁Risk
▁illnesses
ADA
▁incis
▁264
ximal
urnal
obenz
▁Tum
MSH
▁infin
▁harves
▁cephalospor
▁promin
plate
▁tachycardia
toph
▁retinoic
luding
▁LHRH
▁Failure
microns
lox
▁pK
▁1970
▁concanavalin
▁dilatation
▁covalently
▁recombin
▁1.31
ralazine
ortical
▁54%
▁Repe
3%)
▁agglutinin
▁analyses
▁352
omod
phosphor
olysis
▁minimized
lymphocyte
▁skeletal
▁quantitate
▁283
ochle
osidase
▁interpretations
▁antic
▁equilibr
▁transposition
pyruvate
▁alcoholic
fal
▁Premature
1-
ubation
▁encodes
▁deficit
muc
▁replicated
▁pituitaries
▁Older
▁scro
▁275
▁tumors
▁lowers
▁cerv
▁MM
▁canine
▁NMR
▁cardioselective
ischemic
male
▁DG
▁Nucle
▁lithium
▁nuclei
▁formulations
ophageal
▁kidney
▁deem
32,
12).
▁anticonvulsants
▁tolu
PLC
▁osteoporotic
▁unid
1;
▁Percoll
troduction
▁spermine
omplete
▁resour
▁Beta
▁prevalence
▁GABAergic
▁GPIIb
yron
▁immunoblot
▁39,
utroph
▁unin
▁undergoing
▁Modified
▁Biol
▁thrombolysis
lectively
cad
ospecific
▁ulcers
oglobin
resist
galact
omatous
▁0.005)
▁moderately
ealand
▁(2
▁papillomavirus
▁compart
▁mercury
▁24%
▁RV
sorbed
▁Previously
▁fibrillation
▁fibroblasts
▁hepat
▁prolif
▁dynorphin
-5,
buffered
amido
amines
▁underst
-14
▁phosphor
▁glycemic
937
▁rickets
▁28%,
▁Ade
oratory
▁nitrofur
▁gangliosides
▁90
▁560
atally
partic
▁pulmon
▁Sensitivity
▁nicot
▁cAMP
▁bronchoscopy
rotal
▁complementary
▁Basal
methylene
▁ofloxacin
▁detergent
atil
▁Cyclic
oplasia
▁tuberculin
▁gases
operidol
tokinase
▁Tg
permissive
▁attenu
schem
usually
▁extras
▁sulf
jug
▁Amino
▁pren
▁amoxicillin
▁cystine
▁framesh
induced
▁antip
▁Prospective
menopausal
,000
▁enhancing
▁50,000
▁congen
▁(89%)
▁Suc
tam
thalidone
▁esophagus
.0%
23187
dehyde
arying
usp
▁LTD
vable
▁EGF
▁contralateral
▁Actin
▁Taken
▁problematic
▁staining
obacillus
▁locus
▁1988,
▁gastrocnemius
▁AVP
racheal
▁draining
94
▁hypotension
▁inducibility
▁Immunohist
glutinin
▁PWM
▁ileum
▁102
▁cine
▁cascade
ocycl
▁heel
rine
▁coma
opo
SSG
chool
▁.001)
▁athymic
rocyte
▁invasiveness
▁lysis
▁ATPase
▁exten
▁+/-
▁mycoplasma
isoxazole
▁adrenaline
▁1986
othalamic
▁epinephrine
10,
▁6%
lobulin
othyronine
▁toxin
▁stren
▁bacterio
▁hamster
▁respiratory
▁cohort
▁competi
triphosphate
▁weaker
▁colonization
▁expres
uptake
▁phenylalanine
▁examines
▁provoked
Bmax
▁EST
▁catalyzes
▁innervation
▁sequencing
fibr
ascin
calmodulin
▁hypo
▁stereot
▁regenerated
itant
GlcNAc
▁IFN
▁epididymal
▁Increas
▁NPH
4-
aturation
▁panc
ogenously
▁antibiotic
▁antisera
▁hemag
▁benefited
-0.5
▁80,
9).
▁doubling
▁63%,
ASA
urys
▁relied
loon
▁aminopeptidase
afenone
igaret
▁TLC
▁HDL
ischem
atening
orphyrin
▁polyaden
▁64%
▁hepatocellular
▁onset
tiz
▁locomotor
▁SEM
▁provoke
uris
▁7.7
02
lofen
insensitive
▁enteroc
▁carnitine
vinyl
▁allogra
HSV
▁prostatitis
ofen
tel
▁concentrates
25-
sies
▁Tissue
adal
atoid
▁electrophoresis
▁valerate
ynure
.00
▁aqueous
▁215
▁progn
▁0.09
▁equivalents
▁enriched
12,
prostaglandin
▁neutron
carbohydrate
rectomy
MBP
▁268
▁medically
▁megakary
▁menstr
▁duct
▁adiposity
▁necro
irds
▁persis
▁transporter
conversion
▁mAbs
-10.
▁Intrac
▁bile
rozen
lovir
hepatic
▁larvae
▁excreted
▁analgesia
▁degenerative
▁metab
(-)-
▁Molecular
▁asthmatics
transformation
▁immunocomp
▁190
▁0.026
▁vitamin
iters
itrate
▁cones
reactivity
2-
-36
▁oxid
▁syngeneic
▁ascribed
▁Pregn
▁contiguous
▁abstinence
▁ipratropium
-3.0
dop
▁Maximal
▁1-5
tact
▁eosinophils
▁methacholine
▁inclusions
Mn
▁fulfilled
▁opportunistic
▁nitro
vertent
PSPs
oxia
▁blastoc
▁1974
luc
▁97
MuLV
▁deformity
▁hematocrit
▁AH
▁glial
cervical
▁1(
▁agonist
oretic
isqu
▁labelling
▁physiology
31
▁symptomatology
▁folding
▁fluorescent
uria
▁isop
▁aryl
▁bacterium
▁6.0
erance
▁satis
[3
▁4.1
tability
uin
▁flora
reness
▁enalapril
▁Effec
▁exudation
▁exploratory
epine
▁somatostatin
kelet
▁hemorrhage
▁salivary
▁anticonvulsant
terase
orbidity
chond
▁frac
▁nm
-450
▁Routine
▁73
▁cGMP
▁abundant
▁retrovirus
blast
opamine
▁fibronectin
takes
concentr
▁intraper
▁8
▁adhered
tamine
▁Randomized
Hu
Ile
▁quantitative
Phe
▁(1,
▁Shig
▁sphingomyel
▁(35%
▁hatching
▁proliferative
cyt
▁doxorubicin
▁titration
▁263
▁nonsteroidal
tist
▁transloc
▁ovid
▁intraperitoneal
econd
▁phyl
▁(60%)
▁ablation
onyl
5/
▁19,
carotene
▁fecal
14.
cade
▁subclass
▁endos
▁FK
▁Dietary
▁radioactivity
▁Institutes
acterial
▁rup
rostenedione
▁(86%)
sAg
cis
▁duoden
dT
▁calving
▁reliability
opoly
▁24.3
hydroxyl
gents
67
modulin
▁manu
haled
acron
▁157
▁primiparous
14,
▁endometri
▁secretory
othelial
▁brach
ranular
▁ergometer
chym
ilution
▁proteoglycans
▁thymidine
▁nucleotides
3'-
▁bilayer
▁solvents
Ta
nei
▁awa
▁encoun
genital
▁Absolute
▁sensitizer
aminop
▁immunode
▁neuron
▁erythromycin
▁rifamp
keratin
trib
▁potencies
▁adherence
▁phosphatase
enzymatic
▁etiologic
ilical
▁polarized
▁routinely
▁Continu
▁organisms
▁blockade
▁Adequate
terolog
▁junctions
▁Enal
▁supervised
kic
▁7.9
osomes
▁divergence
▁dilutions
▁BSA
▁gland
llate
▁difficul
▁randomization
▁1.75
▁elongated
inescence
▁preferential
▁44%
▁PVN
tenti
ducing
▁affinities
▁91%
ocys
▁wavelength
▁presumptive
▁adrenal
▁triad
▁17-
oreg
▁Epidemiological
sors
▁condensation
ropriately
▁electrogenic
rogenic
▁lipolytic
▁caloric
▁Raynaud
flamm
▁cholangi
▁centrom
▁165
asal
ACTH
HLA
▁accessory
▁progesterone
▁supplements
▁mitig
▁241
▁confounding
▁Investig
▁linoleic
uanti
▁spre
lysin
▁Spontaneous
▁PGs
bility
▁Golgi
▁deprived
▁0.87
tivated
▁comprises
68
▁monophosphate
tants
▁therapeu
▁biosynthetic
aerobic
▁dimeric
▁Conventional
▁mann
functional
10).
56
▁Urea
▁diarrh
lies
▁rearrangements
▁strom
▁counseling
▁twofold
arbox
oA
tomycin
▁drainage
PGA
▁characterizes
▁exacerbate
▁condens
▁nasopharynx
▁mandibular
▁ECM
7/
▁intracellularly
tocopherol
ibenclamide
▁dye
filaments
▁2.8
▁LTR
▁chimeras
▁contraception
▁KD
▁bleed
▁inhibiting
▁conjugation
▁wt
▁Caucas
releasing
urospor
onates
osaminidase
amus
▁morphological
▁270
▁EDRF
▁(66
▁eosin
▁chlorthalidone
phs
▁posth
▁opiate
▁furosemide
ampl
▁progres
omimetic
▁practitioners
▁anoxic
▁Prevention
oproteins
▁TPA
▁luteum
▁Electron
secreting
▁narrowing
▁quinidine
▁AChR
prising
hemo
▁molar
▁helices
▁preferen
▁0.13
fluores
trop
34
▁nonpro
▁cortisol
▁parietal
ithelial
Tyr
▁chlo
benzyl
▁parasympathetic
resolution
▁prostatectomy
▁syncy
▁intestinal
▁instantaneous
▁dorsolateral
▁electrolyte
▁15)
TCA
▁standardi
▁(5
PPP
▁disadvantage
▁anes
▁creatinine
ycline
▁intolerance
▁duplex
▁adjustments
tate
▁regulated
▁bioactivity
▁averaging
toxin
▁acquiring
▁21.2
▁1.48
trone
▁inheritance
▁calbindin
▁agon
▁infused
▁7.0
▁Bovine
-65
▁Examin
▁tumours
asses
▁attenuation
▁splicing
▁hematologic
struc
▁heterozygous
▁arth
3-2
▁90.
▁leukotri
▁atrophic
▁ubiquitin
▁1/2
▁popliteal
▁classifications
▁53%
aldosterone
inatal
copic
otre
atisfaction
enan
▁cytokines
magglutinin
13-
azosin
▁evenly
▁medulla
▁2:
americ
Ox
▁cGy
guanosine
edding
inol
▁VAS
▁(1991)
▁subunits
tilb
averine
▁0
▁FITC
▁gyrus
▁relevance
relations
admium
arine
▁bicycle
24,
HIV
▁pathophy
NK
▁poin
▁Fifty
▁mesenchym
.5.
▁NHL
▁infarcts
gressive
▁1600
▁3-4
▁strands
▁PTCA
polar
7),
▁98
▁benzodiazepine
▁myrist
oluble
esophageal
▁(1989)
ifedipine
▁dispersion
▁hyperos
▁lymphoblastic
omical
valence
romy
▁strep
▁calves
elan
macropha
▁isozymes
acyl
▁thym
▁myosin
tent
enem
electrophoresis
uron
▁1984
.3%
▁consequently
▁neuroendocrine
gangl
▁2),
▁[32
.1%
NOVA
omeric
-1.9
▁diets
.4%)
▁1.8
000
roxic
5%),
▁dobut
▁antagonists
▁neon
▁171
Tn
abec
▁gluten
▁curric
▁PCO
▁fascic
▁1,000
othermic
methylated
glycer
-)-
methoxy
▁concomitantly
▁sucralfate
▁discontinuation
▁Fewer
▁mediating
BAL
▁25%
▁categorized
▁refrac
-1.6
▁fossa
▁ryanodine
PTH
tak
▁adhesion
▁rRNA
▁lymphaden
▁complexed
transplant
otrip
ylcholinesterase
▁proviral
opathic
trig
erate
SMC
▁relieving
▁atopy
▁cholec
▁anxiolytic
▁GAP
▁enamel
▁4,
ophila
▁branched
▁densit
▁postinfection
▁remed
sives
VAS
▁(20%).
▁9.6
▁semiqu
▁hydrocortisone
arose
ogenin
▁dosage
osynthe
▁wee
▁mesen
▁reticulocytes
glycerol
lomethasone
▁nadir
▁Oste
▁vein
▁agglutination
inum
tumor
▁0.01,
,000)
▁7).
▁estrogen
tested
▁Ala
8-
▁1990.
lamb
kade
▁midw
tryp
▁microsomal
alasin
oxins
▁heifers
tiazem
turnal
▁1,4-
cence
atible
▁periv
▁Alzheimer
▁pertussis
▁pretest
viron
▁discrimin
dent
nitros
▁Subsequently
103
roth
50).
ispanic
▁(3),
▁dimethyl
▁EB
▁occlusion
▁adipos
▁antec
▁phosphatidyl
ylline
▁lobes
assisted
▁lethality
FEV
▁(10%)
▁atrium
▁phosphoryl
▁dermat
▁soma
▁detergents
▁inflamm
▁retraction
▁pulmonary
omated
formyl
imethyl
▁inactivated
▁rT
Cu
▁demonstrating
▁mV
▁Histologically
▁prodrug
▁alcoh
▁hypop
▁accessibility
▁antidepressants
eptidase
asive
methionine
▁leuk
▁psychosocial
▁212
▁seroton
▁estrus
▁feces
▁cardio
▁56,
▁scinti
ofuran
▁leuc
▁ewes
rosophila
▁coincided
frontal
▁250
▁BALB
ventil
▁pipette
▁GDP
owel
▁(0.8
trin
▁356
▁globulin
▁TCR
▁Ig
▁discriminate
xiety
▁prolonged
▁quin
▁CHD
iplinary
ocellular
▁organs
▁lumbar
▁0.60
▁EEG
inj
▁48-
induc
trical
hydrop
▁(94
▁avian
lamin
▁Immunobl
together
recognized
▁priming
enolone
▁atria
▁sarcoidosis
▁glycine
▁reoperation
▁rabb
oglutarate
▁symp
▁psoriatic
54
lod
▁CI
eprazole
▁1-2
▁curet
phyrin
ittac
▁(50%)
▁0.77
kD
▁nutrient
ervated
▁potency
▁homogenate
▁TNP
astigo
▁inspiratory
oposide
tral
▁vesicular
▁clus
▁Evidence
parative
abin
▁prognosis
▁bridges
opathology
▁Cs
obacter
translational
▁(12.5
▁cytosol
▁0.69
▁summ
▁DNAs
▁neurites
▁subnormal
▁(7.4
▁Thromb
▁substitutions
thymidine
treated
▁enhances
▁intractable
ymal
▁0.63
loidy
▁kinin
▁ulnar
teroides
hydroxylation
▁tubercle
▁infra
▁52%,
duce
▁cleavage
▁polymer
ocarcinoma
▁RA
▁Schwann
▁aneurysms
oride
onvul
▁dissociated
▁fixation
▁deliveries
yanodine
peroxidase
▁sperm
oxyp
▁considerations
▁1.24
▁prepubertal
▁1.95
▁menstrual
▁spac
olipin
▁nystagmus
▁latex
hexidine
▁(140
tically
-3
▁0.33
▁90%,
▁mcg
▁oleic
interferon
▁400
▁filaments
▁virulence
positive
▁rhabd
atif
▁95%
▁inflammatory
▁Finnish
▁mmHg
▁plasticity
▁granulomatous
▁allergy
enhanced
▁24)
▁Drosophila
▁constitutive
stu
▁adip
araldehyde
topril
▁thromboxane
▁capsules
▁unilateral
aturated
ulcer
▁(50
▁antiser
▁defects
▁favors
▁jaundice
▁desaturation
▁pituitary
▁comparisons
▁extrav
▁albeit
▁145
▁sulfonylurea
▁(6-
▁neutralization
osterone
▁epidemiological
▁piglets
▁trophoblast
▁fluorescence
filtration
LAK
▁citrate
▁regulating
▁pentobarbital
▁otitis
transplantation
▁GLUT
injured
▁injec
▁iodine
▁qualit
(4
bac
▁Postoperative
▁sequel
▁hydration
stim
▁digoxin
▁-10
▁lem
▁cen
idated
▁Amin
▁expectancy
greater
▁3.0
▁depressor
▁31
▁mucos
▁oncogenic
▁stellate
▁284
ocortex
▁Comparisons
▁calorie
▁ventricle
▁favorable
▁CEA
▁88
▁10
▁1500
▁ribonucle
▁troponin
▁aerob
▁Depart
opolysaccharide
▁germin
▁reperfused
▁Disease
rostagland
carbons
osom
▁downward
derived
▁Cys
yelinated
▁cerebrovascular
iotensin
▁Hypertension
ifferen
▁axon
▁Stroke
cessive
▁determinations
oconazole
omerular
▁sulfonyl
▁reduc
▁abbreviated
▁ammonia
▁ack
arone
advan
▁ChAT
immunized
▁ejaculation
▁laminin
▁thiol
▁efficac
▁1.30
▁ACE
▁Isc
calorie
ellar
lethal
orec
kele
▁iontoph
▁IUD
▁peroxide
▁arteriolar
crist
yrosine
▁apo
▁mammography
▁polym
▁1,25-
▁clamping
▁antinociceptive
▁strengthening
▁Optimal
vix
▁10.7
antoin
▁proportional
▁ole
▁surgeries
▁ODC
▁30.
▁heterozygotes
▁rhinitis
onit
antial
otyp
ollagen
dithi
otypes
▁ventil
omiting
▁evid
hydryl
▁myofibr
tails
▁LAD
▁NTS
ustif
▁MgATP
▁solub
otides
▁alcoholism
▁(71%)
tition
▁contracep
earance
▁arising
atell
▁inactivation
▁GV
▁elic
▁PAP
▁hyperthyroid
▁parenteral
▁jejunal
▁blinded
algia
anad
dry
▁ipsilateral
▁subdural
▁173
▁stains
ovirus
▁PGF
▁ependym
▁hypothetical
▁Newly
87
RNP
▁chor
▁tach
▁deletion
▁ischemic
▁lamellar
▁Cells
heres
▁persisting
imentation
▁.0
uccessful
generating
▁33%,
▁amphetamine
▁Invent
EMG
.5%)
▁crest
▁4.3
▁hypers
▁baro
▁kainic
▁trisomy
vic
hyp
▁libitum
▁capsid
conduc
▁4.6%
icep
▁50%
HV
▁neuros
▁parv
▁disturbed
▁Muscle
▁rhesus
▁allergen
lactams
phil
▁deple
▁institu
▁detrimental
omatostatin
▁bioassay
▁correlating
▁4.9%
disciplinary
▁anticonvul
▁insufficient
▁membran
/10(
▁spectrophot
▁lam
▁transfectants
▁cholesteryl
▁pBR
▁TS
terious
▁80-
▁FMLP
▁interphase
▁infrequently
-20%
▁oxalate
receptors
poor
anol
▁synaptosomal
▁choleste
▁233
▁termini
ticular
▁ORF
▁Diabe
▁anesthetized
▁unres
brain
▁PTS
▁proinsulin
▁percentages
eeding
tigo
▁bacitracin
▁kappa
▁speculate
utyryl
▁fung
▁ADH
▁atri
supplemented
▁MPO
kidney
hig
▁anterograde
▁schiz
▁slowing
sistent
▁questionnaires
▁perone
GH
▁predicts
▁ganglioside
▁glia
▁genotype
7]
▁epilep
tidal
cholinergic
▁staphylococcal
▁phosphorylase
▁cytoskeleton
▁digested
anesthetized
▁sputum
▁positioning
ipit
▁postpartum
▁Subjects
-100
▁OV
▁SCC
sequent
5)
▁clonogenic
phylaxis
▁eryt
▁administering
▁Membrane
▁genitourinary
rospinal
audi
▁cotinine
availability
▁PB
▁4-
▁(68%)
▁ornithine
▁75%,
▁constellation
▁lymphomas
▁suicides
▁anatomical
▁triggering
▁ribosomes
tened
rox
▁covariates
opropyl
ucleated
▁mortality
▁precursors
nowled
▁receptors
▁focal
ystitis
▁Biochem
▁digestion
malignant
▁hygiene
▁Alternatively
anish
.6%)
▁0.81
-38
▁diameters
▁incubations
anavalin
▁baboons
▁anhydr
olec
lytic
▁Cutaneous
tors
22,
gian
▁cortex
▁gum
triglycerid
▁340
▁scanning
menstrual
▁rebound
▁Serum
▁RSA
tally
▁Initi
▁ank
▁HI
adol
olgi
olesterolemic
transferase
▁ethylene
uting
phenyl
▁histochemical
4,5)
▁kcat
▁initiate
▁FcR
▁azide
▁melanin
▁heteroz
5%,
▁hematopoietic
▁reproduc
▁lovastatin
▁0.07
▁(18%)
▁pollu
▁(53
▁5.6
▁Lyme
ospor
▁carcass
raconazole
▁3%
teria
▁-6
▁Tm
▁nebul
▁Diagn
▁0.9%
agas
▁ibuprofen
▁7.6
▁whee
▁16
▁usefulness
▁laryngeal
yltransferase
implantation
emin
polyacrylamide
▁employing
▁lymphokines
amicidin
▁primers
rP
▁pacemak
teroidal
eptides
licular
▁exogenous
zine
▁nitrate
▁KCl
iae
▁26.5
▁Elec
dense
▁densely
▁hepatotoxicity
▁4-6
kinje
▁dele
▁prophylactic
▁Dip
:1
▁DRG
▁33%
▁enthal
▁sulcus
▁unnecess
▁interrup
▁ketoacidosis
natal
birth
▁Iso
▁CNS
odgkin
unctional
▁jux
mild
▁radiologists
romagnetic
▁thromboplastin
▁salicylate
Thr
▁similarities
▁carcinogen
▁freezing
90,
▁uncom
orrhages
▁192
▁nucleoli
helin
ographed
▁ANP
ogenetic
▁orific
▁pathology
▁Accordingly
▁(41
▁myeloperoxidase
▁chord
14).
cyst
▁tidal
▁(51
amicin
xime
▁chel
▁enzymatically
▁15,
▁peptide
▁apprec
▁hydrophilic
▁Biochemical
▁danazol
▁investigations
▁deformation
▁syphilis
▁torr
▁definite
trast
amilies
phal
ocular
▁protects
▁17.3
sensitive
▁Doses
plasma
▁augmenting
▁inflammation
enal
visc
▁bilaterally
▁identi
▁pathogens
▁polyamine
agin
rals
▁quantification
▁thyroglobulin
osum
erebellar
▁rIL
▁7%
ercur
▁44-
acetyl
flanking
▁10(-6)
▁bulb
zard
aldehyde
meter
▁Infant
▁Systemic
▁132
▁modulates
tructive
▁orch
▁(2.6
▁adenoma
▁ICP
▁blu
thymic
▁Apo
▁epoxide
▁monos
▁minocycline
▁contex
6)
▁inherent
▁reabsorption
predominant
▁analgesic
oselective
▁tumour
▁glycosylation
▁AE
▁0.80
teroid
▁sexually
▁Preliminary
openic
▁tauro
▁plasmids
▁DBP
ziness
▁187
▁acceleration
▁fungal
▁regulate
▁spectroscopic
▁antihist
19
▁serogroup
▁pulp
tection
▁saphenous
▁tendons
ulatory
▁sulphate
▁pretreatment
nitro
atous
ositis
▁fractures
▁hepatitis
▁0.5-
.9%
▁glycer
opar
▁EGTA
▁nodal
▁extrusion
▁fibrillary
renaline
12),
▁reflecting
▁2,3,
▁antimicrobial
▁Seventeen
ploid
▁metalloprotein
▁normo
organization
▁characteris
anthine
inic
reductase
▁applicability
ffer
▁BF
fusion
cros
▁concentrations
▁horseradish
ayers
blockade
:3
▁varices
▁commerc
▁unsaturated
▁irreversibly
lop
▁responder
phied
enriched
lyc
▁crystall
▁Chlamyd
sparing
sero
sibly
▁retina
▁erythro
▁hippocampus
▁epit
▁precipitated
lash
▁10(8)
▁predic
▁islet
reduced
▁parac
Gs
▁105
▁cardiomy
synaptic
astine
▁(45%)
enzym
▁induction
▁67%,
▁EDTA
▁galactose
▁imidazole
uebec
duction
-70%
▁dyst
normally
▁epilepsy
▁constituted
▁monospecific
operative
▁dissolved
CABG
4]
▁mL
▁tropomyosin
shock
butaline
▁versa
▁mediates
ece
▁periventricular
catal
▁stiffness
▁Subsequent
▁polymorphism
▁atyp
▁(44
.9
▁erythrocyte
10)
▁22%,
▁sedim
nish
▁stoichi
-43
▁MCT
▁abortive
slow
▁agarose
▁Electro
tical
▁131
olerance
▁psychopathology
uretics
▁arterioles
olase
erine
▁extinction
▁enkephalin
physeal
oconjug
▁topographic
lateral
▁vesic
▁RNase
▁remn
19)
resistance
▁NaF
▁warr
otrop
▁Alz
omyces
ogaster
▁discharged
▁Tumor
▁protamine
▁papillary
▁diap
▁clues
rosis
amet
idic
▁RL
▁ances
▁retains
▁0.42
ifug
▁alkylating
26
▁progestogen
▁BMT
ococci
▁Gly
denat
▁aa
▁lateral
▁duodenal
(3
atosis
▁concordance
-35
▁motile
▁traced
alytic
▁depolarization
tracted
ylamide
▁PPD
▁Maximum
albumin
▁hap
▁heterodimer
▁genotypes
▁dyspnea
▁anaesthesia
antagon
▁analyzing
▁ketamine
▁segregation
▁(58
▁centrifugation
▁Notably
▁diuresis
mig
▁mandible
rane
itively
▁reac
▁1,
-5
▁granules
43
▁158
▁flashes
▁malignancies
▁cyt
otoxicity
▁chromosomal
NIDDM
▁(47
▁assessments
▁96
achn
esthetic
tering
▁faeces
▁internalized
▁wedge
▁insoluble
idem
CCK
pressive
▁bFGF
oagulation
-3.5
▁Statistically
▁visually
▁hirsutism
▁subend
▁acidification
▁probing
▁outlet
▁methylation
anthrene
▁targeting
▁hypoxic
▁defecation
▁vasoactive
▁0.62
▁5.5%
▁intra
▁attrac
▁hybridization
kely
▁relapse
▁treadmill
rever
▁compositions
thirds
Gy
embr
yrin
▁undergoes
▁pumping
▁endometrial
administration
acrine
▁medial
▁streptoc
mega
▁ascertain
yste
▁leucocytes
deficiency
▁RAS
(3)
▁monensin
▁200,
▁sampled
fractionated
▁ultracentr
▁227
▁chronically
ylated
▁tonic
bronch
atization
▁Pertussis
▁meperidine
▁(63
▁3.6
▁intrat
antibody
atine
▁propyl
owever
angerhans
▁Dic
▁Ethanol
.2)
▁glomerulosa
-1
▁surrog
ipolar
▁PGE
▁tracts
▁kinases
▁intrap
▁(1:
apanese
adian
▁immunomod
ameth
▁0.90
▁synthesize
loid
▁monkeys
omegal
▁thymus
trophy
resting
hicle
▁afferent
erebr
▁Stimulation
▁cigarettes
ethylene
▁8-
quinoline
▁135
▁transcriptional
▁Histologic
vasive
▁40,
▁cep
▁phosphatases
▁qualitatively
heric
thood
▁myc
minal
itching
2+,
▁segmental
12-
▁monolayers
▁(16
▁6.5
▁tones
▁reticulocyte
▁intercal
▁meningococcal
tiary
chronic
▁rhythmic
estim
▁neuroleptic
keto
▁(35
ensitized
AVP
▁59%
▁tegmental
▁operon
▁retinas
▁lithotrip
▁HBeAg
▁25-
▁pT
▁PAH
uric
▁socio
positives
▁arterial
44,
orh
timal
etence
▁neutrophils
▁mammary
▁decayed
▁histologic
propyl
▁humoral
▁hydrolys
iflu
assessed
▁Cul
▁bonding
▁genotoxic
centr
▁exer
▁dosing
obase
▁eliciting
▁spastic
0-
cnemius
▁(1987)
embrane
▁mesenchymal
tise
plementation
▁20-
reacted
urane
▁PFC
▁4.6
releas
▁unreliable
▁Combinations
▁diverged
▁25.3
odopa
▁euthyroid
▁resistant
400
▁8-12
▁apne
restricted
▁61%
mol
▁conductance
▁thymocyte
lux
ANP
▁oxymetazoline
▁lapa
.5
▁apoB
▁8644
▁monocytic
idiotypic
rhea
ometh
reases
toli
▁lipase
▁epithel
▁chorion
▁vacuolar
▁boutons
▁infarct
▁51%
▁limbs
umbens
esti
63
▁reversed
▁dP
▁Cellular
cale
▁projecting
rogra
oblastoid
▁fluor
▁impulse
▁maize
▁30%,
▁keto
▁ureth
moid
▁Bacillus
▁incorporation
IGF
▁1972
glutamyl
aspartate
▁mediastinal
▁chromophore
▁atres
▁MRSA
erb
reasing
omagnes
competitive
▁hybridoma
▁31%
▁masking
▁antioxidant
▁Indomethacin
testinal
▁holo
insoluble
)-2-
arboxylic
▁substantia
▁conductances
proton
▁triglyceride
▁Fetal
▁ara
Tl
▁IgA
▁thromboses
tropin
wenty
kets
▁ligand
amphetamine
▁Specificity
▁1977
▁mitosis
▁intub
relaxation
▁activator
▁rotavirus
▁Behavioral
▁ceased
▁evidenced
▁lymphadenopathy
alan
Pa
electro
▁obli
▁hypertrophied
▁96%
▁ruptured
▁lidocaine
iphenyl
▁contrasts
▁cytometry
abain
-1),
oplasts
▁(40
▁transfected
aptic
▁predominated
▁RR
▁shear
eroxide
▁114
vant
▁intake
▁remo
▁43
▁cytolytic
triol
▁agar
▁amylase
LTB
▁Macropha
tin
▁uninter
actam
tagog
▁34%
▁infarction
%).
▁phosphoinositi
BK
▁-20
▁plas
▁MAb
▁placent
▁augmentation
▁amplitudes
attern
Daw
▁transforming
ystectomy
pI
-1.4
▁cadmium
oembryonic
▁counterparts
▁groove
▁sarcolemmal
kilodalton
▁identically
trated
▁subcutaneously
▁acyl
▁0.41
uran
▁decel
▁diuretics
▁24.7
carbon
▁3.9
▁salbutamol
/32
▁respec
dialysis
graftment
▁alanine
▁yielding
tilbene
▁pollic
▁expulsion
▁immunofluores
▁ionomycin
odds
▁Vitamin
oprostol
▁analytical
utyric
▁110
lun
▁synergistically
▁NGF
▁streptozotocin
▁ferrous
iteal
▁arrhy
▁autonomic
▁(21
▁faecal
tioned
▁thrombolytic
▁isch
▁synchronous
-801
▁(1.4
llig
leukin
▁TB
▁contraceptives
ffinities
▁AIDS
▁antibiotics
▁curettage
tetra
enone
netium
▁Antic
▁3;
▁glaucoma
▁ruminal
▁uncontrolled
ncy
verbal
tochemistry
▁Physicians
plen
▁3).
77
▁87
▁neuronal
▁subdivided
glyc
atases
plasts
▁Acet
▁chemilum
6%
▁excretory
▁palsy
guing
▁cytochromes
▁CPA
inyl
osyl
carboxy
moidal
▁41
▁oblique
elic
▁confine
▁vaccinated
immune
▁0.0001),
▁gels
▁(59
▁6.6
uled
ipar
▁intravenous
planch
20,
pregnant
athioprine
olpidem
▁TDI
ormone
▁repetitive
▁cytomegalovirus
▁mitotic
▁nystatin
▁constitutes
▁Gs
▁transplant
tages
▁3'-
▁7.7%
rement
▁grafted
▁hyperemia
▁evoke
alate
▁AFB
▁bivariate
▁OT
umbered
▁uridine
▁insemination
▁transcript
dependence
cycline
idazole
▁chelator
ocytic
▁proving
romic
▁cytotoxic
ameters
▁118
▁pontine
▁cores
▁retinoids
▁promo
phyloc
▁balloon
▁anchorage
ACA
▁suckling
opulmonary
enolpyruvate
▁systole
▁reticul
▁crude
esthesia
▁Determin
▁yrs
▁incompetence
lyte
▁investigators
▁WT
▁tissues
▁adhe
vember
▁Prob
ronch
▁RBCs
▁propofol
▁urine
▁ambulatory
loxacin
▁smo
ilateral
▁hemolysis
ubular
traction
▁eti
operox
▁rati
▁octa
▁baths
▁mimicked
▁diazepam
▁dyspepsia
▁sero
▁corresponded
oea
buterol
encl
oglycerate
ytic
▁IAP
▁melatonin
iception
CBF
globin
thase
▁mutagenesis
▁aneurys
hern
▁Abnormalities
▁complications
tonin
▁Ventricular
▁adi
zot
measured
Gln
50
▁asymptomatic
▁immunologically
▁schem
▁adduc
opped
osts
▁choline
▁pneumon
7,8-
▁99
▁27%,
ruc
▁elastase
▁mildly
▁preservation
▁stal
8)
▁cultivation
▁dex
keweed
▁Intr
▁febrile
aminoglyc
▁eradication
oviruses
ectin
sion
▁HAM
▁delirium
▁obligatory
▁SG
▁lability
irubin
▁discs
trum
▁incidences
45
▁1.35
▁emphasized
▁ventricular
▁revertants
blinded
▁247
▁monoxide
▁macrom
▁blas
criptional
▁lectins
▁abdominal
▁physiologic
alveolar
▁1.18
▁ureteral
9%)
▁atenolol
plast
▁acidosis
▁promotes
▁SDS
▁carp
▁vasculature
▁vWF
▁postprandial
▁CPK
▁lipoproteins
▁arises
▁dermatitis
▁inguinal
▁argin
▁bladders
▁osteopenia
▁amide
▁contrasted
havi
▁(150
▁13,
venty
▁10(
Nor
▁zym
▁nephrotic
▁artifac
atical
▁autopsy
▁platelet
▁inbred
▁genital
atite
▁astrocytes
▁truncated
tised
▁12,
▁unequ
retic
76
0.7
orsk
achid
▁postnatal
▁parat
oic
01
▁perturbation
▁(21%
▁pancreatitis
▁0.005
▁intercourse
tonic
▁pelvic
amide
▁Functional
toc
arial
▁menopause
▁extravascular
acid
imidazole
▁lep
▁0.34
asions
▁itraconazole
▁salts
▁(6
leuk
salt
▁Meth
▁adjus
tively
▁piroxicam
▁graft
▁examining
▁nef
▁Bec
▁600
▁Thin
▁gradients
▁myofibrils
▁trimeth
▁regained
40
▁resuscitated
itoneal
▁sympath
▁ribonuclease
cinolone
dibular
▁0.016
▁(28
▁redox
-52
▁isolate
dC
▁immunosorbent
▁128
▁hypoplasia
▁implantation
omia
▁2%
▁aureus
ogenous
partum
▁rotational
▁sporo
▁potently
pharmac
entricular
▁TCDD
▁hypog
▁irradiated
effects
▁pyram
▁circumferential
▁gestational
▁magnocellular
▁asymme
▁seizure
ulic
▁240
translated
uronal
▁Thr
8]
atridine
imid
▁thir
ducts
▁displace
▁predictors
▁rupture
50)
▁Levels
▁quotient
▁phosphorylation
▁cellular
▁induration
▁conduction
▁Tx
lives
▁basolateral
▁BCG
▁regulator
▁lavage
▁MHC
▁sarcoma
▁concom
▁posed
▁helix
▁radiographs
▁vicinity
▁KC
▁shunts
▁mosquit
taz
▁neurones
▁EF
oxo
uwolscine
▁hydrolase
▁kb
▁resol
synthe
▁5.7%
▁clinician
perg
▁Trich
▁epi
▁genomes
▁26
roids
▁oxym
▁amp
kground
dihydro
▁laevis
▁10.
▁uve
▁househ
▁2.2
▁innervated
▁clarified
▁Simultaneous
▁clarify
▁vagotomy
/30
lip
7)
▁proteoglycan
▁(60
dimethyl
reased
▁Activation
▁6%,
methyl
▁dispro
▁conflu
▁antagonistic
IgA
hiscence
tis
▁hyperplasia
▁(9
ubicin
▁fundus
▁0.74
▁gating
▁Platelet
▁amyloid
-33
▁8.5,
2.2
▁convul
▁triglycerides
▁saturation
▁manifested
▁septic
meterol
antagonist
▁progressed
imination
▁tamoxifen
untary
▁123
▁immunoblotting
▁Rabbit
▁perin
acholine
ffinity
55
▁semin
▁NADP
▁0.3%
olates
▁myof
idym
tolerance
▁HS
roximately
▁PMN
bic
▁IGFBP
▁intram
iotic
urate
arre
▁anat
▁49
▁reperto
imol
▁Ace
▁25,
▁appreciably
▁(28%)
▁autoanti
▁echocardi
▁hydroph
▁leth
▁(40%
▁selectively
▁GVHD
▁waveform
▁28
▁Infants
▁gemfibrozil
tte
▁76
▁deviation
▁reductions
▁modulate
standardized
hormonal
▁splice
▁323
▁insertions
izine
▁Laboratory
▁protr
▁orientations
▁interfer
ogr
ophil
▁0.2%
▁aortic
▁pheochrom
▁estimating
▁atherosclerotic
▁carbox
▁CSA
gia
onine
▁cumulative
▁27
▁appendicitis
▁simulated
uliar
gene
▁disulfide
mum
▁progenitor
▁fentanyl
▁adoptive
▁isometric
▁ROS
quisition
▁alve
▁oval
▁Bone
▁hep
▁shif
▁extre
▁lymph
oglyc
▁differentiating
▁Antibody
▁imbalance
▁tetracycline
90
odiaz
ureth
hydramine
▁hepatocyte
▁vinblastine
▁Prolong
oidal
▁1000
▁ovary
▁glycolysis
▁oncogenes
thym
gression
▁1.0,
▁45-
aicin
▁spindle
▁preparations
▁oximetry
omatosis
▁1.02
abies
cepti
▁inhibitory
-30%
▁1:1
▁standardization
▁sial
▁geographic
creatinine
▁ribs
▁clearance
▁pec
▁7.2
itic
ulmonary
▁influx
/0.
▁metabolism
▁154
▁inversely
▁2.4%
▁summarized
▁verapamil
enyl
wes
olam
.6%
▁electrically
▁nominal
▁negatively
▁thymocytes
▁homocysteine
anine
idol
▁scavenger
▁embolization
▁paradig
thromycin
▁fimbr
anuary
▁fourfold
▁posture
▁Biophys
▁1973
-110
▁PaO
▁reentr
▁peroxidation
▁degraded
cribed
▁chol
▁reviewing
▁psychiatric
ercul
▁jejun
atidyle
parous
CNS
▁255
▁adenovirus
▁hapl
▁21.
RH
▁pepsin
-500
▁inpatients
actin
▁ery
▁intakes
▁intracor
▁Plasm
▁steroidogenic
cholanthrene
▁PAS
ognitive
▁distinguishable
▁spanned
▁hypertensive
years
culture
▁microspheres
psin
▁benign
▁hypothal
▁microc
▁chlamydial
occi
800
▁anaerob
▁1-
osocial
pended
▁excitation
exy
peri
▁Kupffer
FSH
▁(32%)
▁incomp
otope
mannose
phor
nary
deficient
▁potassium
▁coping
ispanics
▁TC
▁successive
▁exponentially
▁megakaryocytes
▁supine
▁bypass
gesia
pont
EBV
▁Entero
oxif
phine
olipoprotein
▁asial
▁compares
ullary
▁Exercise
astatic
▁extensively
14
▁14%
▁allele
▁molars
aethylammonium
▁diluted
▁nigra
hep
abd
▁kilogram
thysm
▁biosynthe
onucl
trophin
▁mucosal
▁Lactobacillus
▁nig
▁0.11
▁benzene
▁emboli
▁noncompetitive
▁capsaicin
▁dilated
▁transfusions
(5
▁intraluminal
oplasmic
▁exhibiting
pyr
▁deaminase
Rb
▁Apparent
▁1.19
▁nondis
▁Initially
▁kilobases
▁0.50
▁degran
▁micronucle
▁detecting
▁plaques
▁kD
helical
▁surrogate
aund
▁transfusion
rans
6;
▁iat
▁euth
illation
▁Lys
▁synergistic
chol
uestionnaire
▁4;
▁10.8
▁127
▁metals
▁occult
▁tensions
omotion
▁autoradi
▁enrich
inear
ivary
▁1,2-
triatal
▁nulliparous
teine
▁ADR
opathologic
9)
rinone
▁(16%)
2/
▁indo
▁0.05)
ressing
▁intracellular
ayed
▁quantified
itin
intensity
afloxacin
▁enlargement
opathological
ministration
opoiesis
▁deoxy
▁Secondary
DDP
▁spaced
enzyme
butamol
▁Muc
orbid
tensive
▁cocaine
▁2.7%
oneph
▁Genetic
▁cathe
▁dizziness
▁alprazolam
-25
▁hemodialysis
uresis
▁Combination
▁intermittent
lec
ventricular
▁TK
▁ultrasound
crimin
▁rodents
▁Inde
esity
▁Prac
▁ciliary
▁superoxide
▁persistence
▁aor
▁NI
▁77%
▁6.7
ocar
▁condensed
ropha
▁stool
2(
▁cerebellar
▁Clostridium
▁49,
rosy
aginal
▁obstetrical
▁correspondingly
▁discom
▁0.67
calor
5%)
▁ingestion
▁untrained
sively
/10(6)
orhinal
oscop
▁rhy
▁107
omyce
▁symptom
93
▁Registry
-2.5
▁80%,
▁heterologous
▁microinjection
tetrahydro
compared
▁occipital
▁clon
▁leukemic
▁indicative
▁carbohydrate
▁upd
▁195
▁ICI
▁Enterobacter
▁cryp
▁muscimol
▁progestin
respective
totic
▁eluted
▁isovol
otherapeutic
▁phenotypic
incub
▁bic
CoA
101
▁zinc
.6
▁goiter
▁ambulation
orotic
▁isot
olyl
therapeutic
ochemistry
▁Oc
▁procollagen
▁fusions
antitative
▁theta
▁androgenic
▁Identif
▁potentiated
▁beads
.2%)
▁actinomycin
▁terminate
▁cleft
▁elucidated
▁irritable
▁intracerebral
▁autoreg
phenylalanine
hyd
▁secretagog
▁haloperidol
▁dihydro
▁slows
▁thiazide
▁macrophage
ocytotic
▁MEDLINE
▁synapt
▁superimposed
urkat
▁rifampin
osite
▁athe
▁outgrowth
iliated
▁unex
▁bradykinin
clerotic
▁Cerebral
controlled
Ig
▁conformational
▁illumination
5;
▁biliary
▁roughage
▁wheezing
▁preexisting
▁exceeds
▁tuning
tophan
46
lax
-(2-
▁absorbable
▁ingu
rophob
▁athlete
tinction
▁contrac
▁Surgery
▁Mild
lamp
▁0.54
▁1.00
▁microbi
600
▁carvedilol
▁cigaret
▁pharmacokinetic
▁6.8
▁repressed
▁bladder
▁zymosan
▁43,
-79
▁rods
▁(1.0
▁sarcolemma
▁pyridine
▁intracoronary
▁enantiomers
▁DMBA
▁translocation
linking
▁absorptiometry
▁eluc
▁hexamethonium
conjug
▁Subcutaneous
ancre
designated
▁susceptibility
▁0.24
rae
▁defibr
strual
ubertal
onitrile
▁suicidal
25)
athe
▁gliomas
▁submucosal
▁VLA
▁65%,
▁50,
terminus
+.
hGH
▁GAG
omn
▁cholinesterase
ulose
▁nephrotoxicity
▁linearly
▁villus
▁Wistar
▁deposited
charomyces
▁methodologies
▁Melan
oproterenol
▁mEq
▁dextran
▁deuter
▁hype
encephalic
rength
smokers
▁disintegr
▁pathogenesis
▁hypertrophy
atients
▁itching
▁recA
▁preterm
▁lenses
▁2',
puts
▁estrogens
▁complexes
adrenoceptors
ilep
▁elevated
▁compromised
▁chickens
akary
individual
▁ACTH
▁differs
▁competence
otropic
▁axons
▁trabec
▁adverse
uride
91
▁diaz
dyle
▁identifies
▁16)
▁Transient
▁1988
prandial
▁erythematosus
▁IgG
▁plex
▁ferric
sive
idney
▁71
opres
▁granulocyte
▁globin
▁psycho
▁350
▁(15%
▁0.89
0.3
▁etretin
▁silicone
▁polarity
▁psychosis
▁pla
60)
▁infarc
▁deform
▁60.
▁microscopy
▁phagocytosis
▁ternary
▁antagonize
imotor
macrophage
65
tene
▁0.1%
▁hypothalamus
▁glycoconjug
▁traction
itance
reducing
▁0.08
▁pools
▁ocular
▁sarcoplasmic
▁regurgitant
929
ailure
phosphorylated
adrenergic
ipril
ocysteine
chid
-]
▁amphotericin
▁immortal
▁synthetase
oxidation
osarcoma
▁accumbens
CEA
▁glucosamine
ucl
din
▁miconazole
▁70.
▁multiv
-8)
▁hypercapnia
gulation
ffin
▁0.02)
cryst
▁20,000
▁chondrocytes
▁Previous
▁ions
▁34
▁rejection
▁(10%
▁insom
▁phenotypically
▁expresses
▁mucosa
▁fibers
obium
▁rheum
PAC
amylase
▁Trp
▁forsk
▁labile
▁delineate
▁varicella
▁(27
▁Responses
3),
-2.2
aminases
iesis
▁Specifically
▁PAI
▁OD
▁substituents
▁ointment
▁(24%)
▁anore
▁participates
CDC
yroxine
▁(2)
▁117
▁arterio
▁acces
▁Willebrand
5.
▁sulfoxide
4,
▁cachexia
ysergide
▁diagnos
▁screened
▁Hyp
▁irritation
▁demonstration
▁coronal
▁hypotonic
opal
▁correlated
▁(39
PSP
lectomy
▁vegetative
characterized
▁MAO
EDL
ophores
▁17,
▁aggregates
enec
▁tetr
conditioned
▁superficially
▁thromboembolic
▁discus
▁HRP
glycerin
▁stoichiometry
▁experim
VV
▁glycos
▁fistula
100
otting
▁.05)
▁hemisp
idov
▁Myc
▁stroma
▁oligodend
▁currents
▁ligands
-16
umazenil
generation
▁colposcopy
heximide
phoresis
▁pallidum
▁prostatic
▁datab
▁dams
-55
9;
▁preoperative
▁inadequate
▁thiols
▁immun
▁rises
GMP
▁bim
▁reservoir
ths
▁preceding
tabl
▁infrequ
▁(65
ellular
▁immunodef
▁Copenhagen
▁asparag
taldehyde
▁pharmacological
romised
▁stres
▁MG
▁164
▁inapp
uthenium
▁Retro
▁enlarge
bindin
glucosidase
-2)
▁splic
▁coexis
▁fermentation
phosphatase
▁Morph
▁pH
▁vaccinia
▁messen
▁immunocyt
▁6.3
▁markers
otential
▁ischaemic
▁NG
▁spindles
oxyl
▁(41%)
▁Prol
▁pyrophosphate
▁inducing
▁Exc
▁cann
▁Kup
pretreated
▁mongrel
tur
crib
▁Feeding
▁(0.4
icul
▁valvular
▁declines
osm
▁catab
▁clu
HDL
▁hrs
▁sigmoid
▁1.4%
▁hyal
▁anemia
▁NN
squ
▁perce
GTT
▁1,0
-7-
▁longitudinal
▁modeled
▁eosinophilia
renzepine
▁grains
maleimide
▁BLM
occal
bumin
▁Chemical
▁(72
▁proliferated
▁4.0
▁Experiments
▁scle
▁strikingly
▁Reflex
▁glycogen
ncies
astrectomy
▁biopsied
▁effected
▁thromboemb
actone
▁thromboembolism
injury
▁tolerability
▁reconstituted
▁specimens
▁(100
▁trachomatis
▁reflex
▁dissemin
▁hydrop
▁cloned
▁transcriptase
▁RB
▁quiescent
▁hypercal
▁deoxyrib
▁chambers
▁brid
▁(42
▁profoundly
▁Intracellular
▁MHz
▁0.6
▁filamentous
ensi
LISA
▁succin
▁rabbits
▁afferents
▁ascertained
▁incorporating
-125
+)-
▁glutamine
renz
iparous
▁intervening
▁eighth
iatal
▁Eryth
▁MCP
▁atmosp
▁immunoprec
▁pharmac
▁unrel
uspid
▁stenoses
1.2
▁cystein
▁eliminating
▁voluntary
ifferenti
▁0.002).
-0
▁(11
▁70%
mature
▁BAL
▁oleate
▁16.
▁linking
▁quies
▁transfect
▁colonoscopy
itoneum
▁rats
oxid
assemia
Km
92
▁statis
-67
▁Recep
▁homogenates
▁(84%)
primarily
▁Somatic
ditions
▁IK
▁cyanide
anav
ohydrate
▁163
▁gradual
osal
adication
▁exaggerated
▁isolates
april
athione
▁Consid
thel
▁reflexes
▁(8
▁28-
▁characterizing
▁cramp
ragment
roblasts
▁Assessment
▁venules
zinc
▁.01).
▁postmenopausal
▁discriminant
▁GST
▁150
▁ejection
▁oste
neph
athyroid
opathy
▁relaxants
▁10(-5)
▁nonpregnant
▁redistribution
urosporine
lymphocytes
▁coordin
weed
ocamp
▁transducer
-800
▁cef
▁apparatus
▁hydralazine
▁bronchodilators
fate
ologic
▁1.0
tually
▁ionized
▁PGD
iasis
otin
▁reactive
EGF
▁cardiomyopathy
388
▁1964
▁phenotype
▁pim
▁transiently
▁23,
▁chemo
▁swab
residue
▁neurokinin
pigs
▁cerevis
▁interrelations
-10(
▁7.5
▁lowering
▁(33
▁transplantation
ituit
▁Plate
▁adolescence
▁10(-7)
▁lessen
ocardi
SEM
▁interventions
amphen
ropriate
▁excised
▁challen
▁5
▁Factors
ficial
▁attain
▁kcal
inephrine
▁Perc
▁sporadic
▁univariate
ophen
▁schedules
ancreatic
▁coenzyme
▁iod
▁Sixteen
▁leprosy
▁3.7%
▁Fluc
angi
▁incompletely
uoden
▁LFA
erant
▁suppresses
▁vomiting
ocrit
▁amygdala
▁hepatoma
ographies
trover
isomerase
atology
acute
formations
tilis
▁pati
motor
dUrd
pril
▁Survival
idate
igl
amidine
/24
▁positives
cephalic
▁2).
▁unrelated
12.
▁nonc
▁cation
odil
iline
▁implant
▁deprivation
▁Whereas
ficially
ococcal
enopus
▁heterogeneous
▁sequestration
▁Caucasian
valent
▁1985
▁analysed
ields
▁detrusor
▁Adverse
▁persistently
heat
▁1.47
▁miti
▁-9
iversity
▁spike
ithmic
▁nausea
▁substrates
▁lymphoid
▁lecithin
▁circuits
▁classifying
▁cremaster
▁dermis
▁unmyelinated
▁dehyd
▁3'
▁gt
▁Concentrations
essive
▁pS
▁GPI
▁corneal
▁72
▁(80%
▁derangement
tium
oligo
pendym
▁lengthening
▁illumin
onorgestrel
▁radiographic
iotics
tronidazole
▁penetrate
▁0.04
▁diminished
▁epithelium
▁spines
ovastatin
effec
▁Retrospective
tyl
▁polyacrylamide
▁evaluable
-85%
▁ow
▁ascorb
cAMP
▁enox
tituting
▁catabolic
ereb
▁1.25
▁perit
▁endotoxin
anate
onas
▁amn
oxon
▁6%)
▁ADA
▁Inte
▁obstruction
(+)
ganese
▁Subjective
HSD
ometri
▁serotoninergic
ilization
parag
idinyl
▁occupational
▁(20%
▁180
tion
hydrox
▁facilit
aminidase
himbine
▁calcitonin
▁tibial
▁subcutaneous
idne
▁ovari
▁14.
▁bacterial
▁escalating
▁NAD
▁produc
▁1.45
▁enteric
atoxin
▁enthalpy
▁0.38
▁leukotriene
▁intox
▁colliculus
▁nonsmoking
▁Calcium
▁oviduct
-72
▁metastasis
▁untreated
sue
orenal
opram
ilic
orand
▁postin
zable
▁Localization
▁stimulant
▁pts
▁synthesized
▁fluores
▁Enzyme
▁fibrous
▁polymerases
▁neurom
▁Ech
bladder
▁antagonism
▁NP
▁influenza
▁drin
▁simultaneous
urc
▁Pulse
-1.5
▁Thirteen
otrexate
▁vasospasm
▁hypoxia
▁tran
▁Multiv
▁0.25
▁poses
umented
alic
▁intestine
kinase
okinetic
▁restric
▁calcification
▁189
▁TI
▁0.005).
▁(69
▁5,
arachnoid
▁ranged
stolic
▁densities
▁1.38
▁DHT
▁multis
▁17%
Au
-10)
▁pairing
▁18.
▁electromagnetic
leuc
OV
infected
▁cefaclor
plants
▁astrocy
▁Adriamycin
gradely
▁75
▁biopsy
▁Injury
ogeneic
identical
veolar
▁Immuno
▁myogenic
▁tenderness
ungal
▁cancers
truc
▁collagenase
▁GH
40-
▁carcinogenic
-45
▁POMC
▁phenomena
▁Cardi
▁respiration
▁hydrogen
▁natri
▁41%
▁(1),
▁nicotinamide
▁DNase
▁lymphoblastoid
falfa
▁guinea
4).
▁actuarial
blocking
▁nitrogen
tyrosine
▁antagonized
▁gonadotrophin
▁intrahepatic
▁22%
3%
▁opioid
bino
ometers
▁0.025
▁contractile
4,5-
ausea
▁diarrhea
▁diabetic
▁methimazole
▁(3-
▁entorhinal
firmed
▁(1.1
▁smears
▁radicals
▁mesoderm
▁lign
▁abscesses
ymme
▁MAbs
▁staphyloc
mitter
▁halves
▁5-10
enching
▁5.8
▁4.4
▁hypnotic
▁augmented
▁stu
cB
▁Inhib
▁felodipine
▁cycloheximide
affec
▁92
ulph
▁palpable
▁277
▁pene
▁Cyclo
pirone
geons
▁recons
▁superfused
▁pili
▁indi
▁nonin
▁dendritic
PBL
▁consol
▁intercellular
▁endocarditis
▁unfol
▁confers
▁29%
tivation
▁deduced
roxim
odia
▁inhibited
▁resonances
▁possi
NB
-9)
▁(30
▁(63%)
▁Parents
vaccinated
▁mediast
▁succinyl
▁statistically
ochondrial
▁(99
2+
▁Sero
▁ket
▁immobilization
▁developmentally
▁vertebral
▁Depression
▁appra
thms
▁consul
▁phenol
▁oxidized
▁10(-8)
▁dysp
▁hypocalcemia
othione
▁calibration
▁oligonucle
ologous
uestion
▁Inventory
ionized
mRNA
ocusing
omized
▁prolongation
▁-1
▁.1
▁mutants
examin
▁66%
▁normotensive
▁biphasic
▁dichro
▁thoracotomy
▁12-
8+
▁foc
▁warfarin
▁5.5,
tia
▁modalities
▁abdomen
▁replacements
ovarian
▁proes
▁remnants
▁(82
▁fallopian
▁ratios
bran
▁anesthe
▁28%
▁regeneration
selec
▁10(3)
▁cyclosporine
▁leukocyte
▁87%
▁7.
▁microelectro
▁macroscopic
▁diffuse
▁exhaus
▁spectrin
▁80.
▁10(9)
▁cardiac
plasmin
▁oxime
▁44
▁interf
▁micrographs
▁oxidase
▁remission
▁(56
lesion
▁necrotizing
▁sting
▁compe
▁endocrine
▁titres
▁2,6-
▁Numerous
▁proteinases
▁micrograms
.6%,
iminary
▁vivo
nucle
▁3.3
optic
▁(2-
tomies
▁(77
hort
▁Tiss
▁RBC
▁plasminogen
:30
▁Pharmac
ecia
▁disten
▁pyridoxal
▁paradoxical
effectiveness
▁optimally
▁mononucle
sustained
▁programmed
▁cardioplegia
▁nonsurgical
▁kits
▁elec
phage
ymp
diol
▁myoglobin
ofruc
▁morphologically
▁(0.
▁inhalation
indole
▁2-5
▁100
▁intersti
▁inactiv
▁melting
▁arachidonate
helium
4%
restingly
racene
▁respir
▁500
rophic
▁3,
othane
chains
onidine
▁28,
▁LC
▁antero
quired
blockers
▁carboxyl
▁hypothalamic
▁radiologic
-100%
henyl
▁stabilized
kilobase
uctal
idases
▁snoring
kDa
▁neurofilament
saccharide
▁MCV
adapted
▁uro
▁cysts
oracic
▁sacc
▁globular
-7.
-50%
KD
▁aneurysm
▁gynec
▁47
▁(97%)
systolic
▁unim
▁chym
▁(18
▁perox
▁ketoconazole
▁theore
▁anion
▁prevalences
labelled
▁colloidal
▁saturated
▁transients
omethyl
▁polymorphisms
AIDS
nitrophenyl
▁112
assays
▁Fischer
▁vasodilators
aturia
ductase
▁abd
▁0%
▁0.001).
classified
▁varicosities
▁extracorporeal
▁weaning
▁introduc
erule
▁Dental
▁inhal
▁neuropsych
epit
▁Kd
▁morphine
▁Subst
▁(-)-
injected
avail
▁neuroblastoma
agit
▁HeLa
▁OKT
▁amines
vein
▁fumarate
▁vacu
▁97%
(2+
hormone
biotic
▁pyl
lactating
DTPA
containing
▁sulfon
▁18%
▁scientif
▁practic
▁150,
▁locomotion
otonic
ardiac
▁divergent
▁adop
▁Subs
▁fores
▁precipitate
ystic
▁tris
onin
ondyl
▁microvessel
idone
▁photon
glucose
▁doublet
▁STI
▁musculoskeletal
▁ICa
▁hydrolysate
▁warts
▁searches
▁1.6
vated
▁46
▁pectin
LPS
acquired
▁interventional
veness
▁stepwise
▁phyto
▁systemically
cytidine
▁12.0
▁morbid
▁incision
▁elective
oceptor
▁attenuated
▁keratinocyte
▁30%
▁40%
tribution
cele
ECs
▁concomitant
0%
diagnosis
▁amin
▁neuraminidase
ogluc
▁methadone
▁asymmetric
▁serosal
▁VV
▁regain
▁malate
▁morphologic
▁Nineteen
lix
▁hereditary
▁5.4%
▁descrip
▁pirenzepine
tember
▁0.84
▁viruses
pressing
ithin
substrate
proliferative
▁salmon
▁ductus
▁degenerating
▁centrally
▁cefixime
imeth
therapy
80
▁perforation
alazine
enol
▁(22
▁benzoyl
▁fulminant
athiop
▁Swed
▁rostr
▁0.4%
▁appropriately
otopic
▁ultrafiltration
▁bactere
▁ejac
▁HPV
razolam
▁iodo
umptive
▁keratins
▁(18%
ionate
entary
▁slopes
▁Gynec
▁microvascular
▁malaria
tructed
▁MLC
▁neurochemical
2,
▁0.65
herence
-7)
▁(31%)
tual
▁Concomitant
▁concentric
4),
▁dispersed
▁arrhythmia
amagnetic
enicillin
▁ruptures
▁norepinephrine
▁digests
▁mefloquine
▁membranes
▁unchanged
eroxidase
▁malarial
eric
trypsin
▁adrenals
▁1.16
▁ectopic
▁1989.
▁20,
▁TA
▁ACh
▁plexiform
ocholine
otom
iplin
▁contraceptive
▁limbic
▁isoprenaline
nec
▁retic
▁cadaver
▁hydrocarbon
)2
▁erythemat
▁microfilaments
▁spind
▁microbial
-1)
cus
▁injections
-(1
▁competent
▁positional
helial
▁Hispanics
dIns
▁characterised
▁20%
▁resolving
▁13.9
▁(37
▁flutter
susceptible
posi
▁11.
odg
▁erythrocytes
irradiation
▁eczema
▁proton
▁precipit
rologic
▁measles
▁osteosarcoma
tase
▁infections
MW
phospho
oflurane
▁protoc
▁spermidine
▁outbreaks
▁PAF
▁Female
incidence
monary
▁pate
▁conception
▁IIb
essional
▁alters
▁mannitol
▁percutaneous
▁myristate
:4
▁0.56
IU
▁oscillatory
renol
▁muta
▁glucocorticoids
▁turnover
▁follic
▁neighboring
▁histones
oglob
▁anticoagulant
brom
eck
IDDM
bruary
tochem
imens
▁sulfur
▁germinal
▁solids
▁dors
unar
▁reflec
▁EMG
ocystis
▁phototherapy
lycemic
uminum
▁allyl
▁elast
▁inability
▁crom
trexone
▁Decreases
prol
▁topo
▁CCl
demic
conventional
eryth
▁DD
artum
▁Exposure
▁flexion
▁-5
▁PEG
▁17.
pore
▁graf
▁70-
53
kephalin
▁strand
▁Metabol
▁nal
▁desirable
oxybenz
▁hydroxylase
meg
▁fractionation
gative
▁metabolites
▁gonadotropins
▁45,
▁absorbance
▁14-
oinositi
▁toluene
▁carbamazepine
▁repro
▁typh
rosal
▁.001).
▁audi
▁androgen
▁[3
▁monke
▁peritoneal
OHDA
persed
▁Induction
▁underestimated
▁mitral
▁mesangial
▁homeostasis
▁codeine
▁serotonin
rants
eclamptic
▁181
▁78
ofluores
▁parental
▁epitopes
69
differentiated
▁diastole
▁dehydration
▁antagon
ellum
▁pelvis
/34
▁25%.
▁234
▁necrotic
▁squirrel
▁cotrans
edic
tives
▁meiotic
orphic
▁overexpression
14)
▁0.71
▁studi
▁HBsAg
inoc
▁decubitus
▁asthma
race
▁rehabil
▁hypoth
▁fric
▁hyperg
lactamase
antitrypsin
ective
▁200
tases
▁1.13
▁269
▁injur
▁Carb
▁clinicians
.0,
▁alleles
▁endarte
Wo
lavicular
lys
▁injected
▁diploid
amethasone
▁Enalapril
bular
WK
▁foet
▁inhaler
▁polysaccharides
MLP
▁Comparison
▁6.9
▁dosages
▁nitrendipine
illary
▁melanomas
▁phosphatidyle
▁geniculate
olp
▁Mg
▁mathem
aneth
▁65%
▁-0.8
epid
▁ubiquitous
▁Fourier
▁hydroxy
▁8.2
▁downstream
▁combin
▁naltrexone
Ra
▁malformations
athy
▁144
▁sacr
oxamine
edle
▁noninvasive
ALT
achnoid
▁acoustic
▁infec
▁granuloma
8%)
entif
othyroid
roitin
▁prematurity
echn
▁attrib
▁adjuvant
▁rigidity
▁Ringer
obl
osacral
▁Sepharose
▁cortices
▁psychotherapy
▁transcription
-4)
▁sialic
▁cephal
▁databases
avoid
gran
proline
▁facilitated
ospinal
phetamine
▁APC
▁stereotyp
▁congruent
propranolol
▁intravenously
▁caregivers
▁gallbladder
▁nonsmokers
▁myocyte
▁MH
ortal
etaz
irc
▁ceph
▁kerat
▁0.40
▁Testing
▁analyse
▁exceeded
vating
▁choroid
enteritis
clo
deoxyglucose
▁corrob
▁hematuria
▁tertiary
▁parturition
▁360
▁0.49
▁pneumoniae
▁postischemic
attached
▁substitu
▁(61
blocker
otone
onucle
▁assay
▁incub
▁labelled
▁Significantly
silon
▁stimulus
ranean
▁Abdominal
▁(23
▁opson
sorb
▁89
▁82%,
▁esophag
▁18,
vit
▁1.6%
▁adequ
chlorothiazide
activated
▁ischem
romethyl
▁thyroiditis
ionyl
▁0.02).
ucas
▁30.4
▁basal
▁jaund
▁TM
▁mosa
13
▁hormonal
ycardia
▁cros
▁38%
pinal
particularly
▁91
▁homogeneity
▁oxide
▁pumps
▁quanti
▁immunogenicity
▁-2
gestation
▁fibrils
velength
thiazide
umic
regulation
planted
▁antioxid
adequ
▁adenosine
cys
▁78%
▁TP
▁ICU
▁virions
▁chorio
ulon
-29
▁calculi
▁prerequisite
▁comprised
▁blocker
▁160
oscopic
▁PPV
▁(48
▁reiter
▁broil
▁Cardiovascular
▁stomatitis
▁303
▁exis
▁etoposide
▁Efficacy
▁attenuating
glutination
▁midazolam
▁sarc
mAb
▁radioactive
▁arteri
▁antipsych
▁splenocytes
FV
atments
▁stent
certain
▁unselected
▁pyramidal
▁gingivalis
▁suppos
▁steroid
▁3.2%
▁contracting
▁paraffin
▁virgin
▁1,4,5-
▁guanine
arby
▁electroencephal
vice
POA
▁elimination
5%).
▁halothane
riton
▁MMC
▁1200
▁Incubation
▁660
▁interferon
▁ovaries
▁endoscopy
titis
acting
tero
tubulin
▁aetiology
▁uptake
▁allosteric
▁luminal
uronate
▁urea
▁108
utaneous
▁scop
▁remodeling
▁(85%)
▁326
▁rhythms
roma
▁lymphocytic
▁splen
▁collagens
(0.
▁Throm
1+
Cys
▁74%
PMN
▁disadvan
▁occurrence
▁FSH
▁sut
oplatin
61
▁albumin
▁resembling
▁Angiotensin
▁neutropenia
▁hyperthyroidism
▁62
▁serology
▁phorbol
▁1.15
2+/
▁Phe
▁50-
▁NK
phot
siveness
▁VLDL
▁169
▁prostagland
activation
▁contras
muscle
▁uterine
amel
-10
▁pore
8),
▁lymphocytosis
▁vagal
lyl
▁marketed
▁0.93
▁6.2%
aric
50,
▁parasite
oglobulin
▁zoster
▁ulceration
▁hydroxyproline
oil
ociated
▁dorsal
-1/
organic
▁lipophilic
olecular
▁stric
entesis
aryn
▁overestim
▁serolog
▁caregi
▁Incidence
ralfate
▁-0.0
▁streptococcus
odop
▁urodynamic
▁examin
▁cartilage
▁22.
atitis
▁chromat
▁glycoproteins
▁Asp
▁junctional
▁vasodil
▁EcoRI
-44
BMT
▁(0%
▁reper
▁glu
▁superfusion
▁overex
benzene
▁unexpectedly
▁immunophen
capillary
oalveolar
osystem
▁reagents
▁articular
▁1),
▁dilution
▁capacities
▁Chang
aturity
▁coagulation
ophysical
uretic
▁suppressor
rophenol
oskeletal
reduction
▁2,000
▁workload
convul
▁allogeneic
▁phosph
agastrin
▁angiography
▁immunogenic
0.1
azoxan
▁progressively
esthe
▁pouch
▁chlamydia
▁dihyd
-7,
▁nM
▁explant
rofen
▁6)
▁interestingly
lyce
6,
▁([
▁leaflet
▁exce
▁Vmax
▁weakly
▁methyldopa
▁plateau
terus
▁Pros
▁incisors
▁tubercul
▁testicular
▁12.
▁herb
▁enrollment
▁ferritin
▁enteral
/100
atent
▁GHRH
▁coronary
▁residual
▁0.15
▁splanchnic
tif
▁cys
linic
▁oxidative
84
▁superficial
▁exclusion
HF
osamine
▁2.6
-6.
esium
graphic
▁catechol
ogranin
galy
▁orally
▁hypokalemia
atography
▁echocardiogram
▁exacerb
▁steadily
/4
▁fragmentation
▁projections
▁KA
▁subpop
omonas
▁viscosity
hydroxyp
tence
MAb
sip
▁conjug
▁osmolality
▁tol
▁3',5'-
▁(62%)
▁msec
▁bloc
eclamp
▁triamcinolone
▁elevate
▁precur
DHT
▁1.21
▁labial
ectom
triglycer
▁cytostatic
ogonad
▁lineages
▁sonography
ovulatory
▁enzyme
-5.
▁attemp
odermal
moderate
▁Differen
▁hsp
▁153
▁hyste
88
▁Approximately
▁daytime
cutaneous
IFN
▁NIH
▁homologous
▁colos
▁benz
41
▁thrombotic
▁Hear
▁Sequence
▁predicting
trates
4'-
▁chromium
▁methyl
▁nylon
▁triceps
achial
uppressed
plas
▁nucleotide
▁adrenergic
suppres
bile
▁TEA
▁thrombosis
▁indis
▁hyaluron
▁reticular
▁putrescine
▁supple
▁homogene
apeptide
hCG
yocardial
▁septum
▁accumulate
▁orbital
tox
dys
▁(36
▁distension
stained
▁latent
-24
▁lactulose
▁intermediates
▁8)
estrogen
▁intracranial
uncture
▁differed
▁sedation
▁pars
elast
▁Geor
▁0.9
0.6
lycerol
▁subjec
portion
▁bac
▁neuropathy
▁MPTP
▁5.2%
waves
▁compli
▁variants
▁poliovirus
lier
guanine
▁dentin
chest
imentary
▁dihydropyridine
▁threefold
▁(4.6
▁Parkinson
▁261
violet
ranged
▁sclero
▁Interleukin
mercaptoethanol
Ala
▁virulent
▁solubility
▁equilibration
hers
▁11.8
▁sequelae
▁prescribed
▁cyclooxygenase
▁interpre
▁ammon
▁diphen
▁oxidoreductase
mobil
▁hyperther
▁glomerular
▁Epidemiologic
▁noc
ipro
yclic
▁toxicity
▁ovarian
ylephrine
▁sarcoid
▁occlusal
▁withdrawn
ADP
▁DVT
▁transduction
dihydrop
▁cephalosporin
▁poisoning
otropin
▁blockers
/-
sufficient
▁.01)
▁0.5
eclampsia
coupled
anase
▁hyperb
▁divertic
▁instillation
▁electrodes
orporation
aluation
▁molecules
▁recessive
ipital
▁cleaved
tization
▁fmol
▁rumin
ucle
▁adenopathy
▁pneumonitis
▁potentiation
▁overe
00,
▁substituted
iloride
▁HBV
▁LT
ithi
erating
obic
olones
▁quisqualate
▁13.
exin
▁speculation
▁worsened
trogen
▁mutagen
oxine
▁BRL
▁dox
▁encephalopathy
▁intrav
▁omega
9]
▁laminae
▁regimen
benefit
elec
tably
-1.
▁enterocolitis
▁decreased
▁seminal
▁pulses
▁80%
▁coh
▁1.40
ejun
▁characterize
▁caries
▁21,
▁Seventy
tinguish
ypro
resistant
▁occupancy
TCR
▁DOPAC
fibrozil
ribosylation
▁0.23
assium
▁MV
▁hypoxemia
▁ALP
presenting
▁oxidation
▁classify
▁synap
aternary
▁manipulations
9.
sant
▁preoperatively
▁atherosclerosis
▁beverages
▁1.2-
-19
▁succes
▁(24
rocytes
▁acet
▁Enh
Lac
▁2.9%
▁thrombus
▁6),
▁inconclusive
ocor
▁polypeptide
▁CHF
hydroxys
25-(
▁183
▁prompted
▁1.2%
NMDA
▁progeny
▁genit
▁outward
.2%
lycero
▁extremity
▁regenerating
▁clotting
▁structurally
▁HM
▁predisposition
▁examinations
ovalent
▁neutrophil
▁fluids
▁duc
helix
▁vicin
tious
▁ligation
▁addic
▁aids
▁refine
▁ammonium
▁synovial
ritic
▁PRL
▁(20%)
▁0.000
▁retard
▁lysates
▁COPD
CGRP
antibodies
▁(12
▁polycystic
▁bran
▁macromolec
yridine
▁(2),
imin
▁conflicting
▁convol
MN
▁5.0
▁0.55
scher
-6
▁brady
▁MCA
▁vasodilatation
▁variously
▁Samples
▁polyps
▁Tn
▁photoaffinity
oppler
▁Breast
▁clustered
▁Intensive
tite
serum
▁agonists
▁141
uality
achy
otid
rolase
▁0.05%
dihydropyridine
porting
-60
▁9.9
▁territ
▁exhibited
ejection
roleuk
scc
uccess
eptic
rography
opathies
▁GnRH
▁paramagnetic
▁cholera
contraction
▁ars
▁indus
▁sexes
nourished
epti
▁etretinate
molec
▁spirometry
▁plasmal
rinary
robenz
▁oocytes
adders
entical
▁300
▁neoplas
▁dias
amol
▁grating
▁sca
▁pmol
▁ester
acylglycerol
▁Michaelis
▁nasopharyngeal
othal
▁Fifteen
▁VO
▁sterile
▁sclerosis
▁intraocular
▁myocardium
amycin
oxygenase
▁2.3%
▁regis
▁trophob
▁antiserum
urones
▁pKa
ectomies
▁ARF
ostatin
▁440
▁owing
▁19.
responsive
▁nevi
▁isoflurane
▁FH
▁ald
▁Marked
▁isomerase
▁indefinite
referred
▁Ile
5,
▁2.1
▁fluc
Ts
50/
phospholipid
▁undetectable
▁isoelectric
ureus
▁symptomatic
▁chemotherapy
▁9.1
acchar
▁vaginal
alim
▁adulthood
▁adenylate
▁parathyroid
retest
▁246
thmia
▁sensitized
collagen
▁luteal
▁murmur
▁bronch
▁conclu
▁10(7)
▁teratogenic
0%;
▁assesses
ostatic
▁Gyn
▁mening
ographically
▁cmH
▁Clinically
▁renovascular
▁superco
▁concurrent
flic
▁Virus
▁formulas
▁HER
▁Antibiotic
▁PU
▁VL
▁sarcomas
▁immunostained
atchard
▁prone
▁micromolar
opeptide
▁[2
fasting
▁2.9
lamy
▁cirrh
erythro
gm
ighting
▁hypotheses
responsiveness
▁mans
▁transesophageal
▁hyperglycemia
sibility
▁undergo
120
ocyt
▁inducible
omolar
ydig
▁(10(-6)
▁gangli
phosphon
noradrenaline
▁2.4
▁conjugate
▁ovalbumin
▁SKF
▁durations
endi
▁Hybrid
▁5)
▁unde
▁urethritis
micro
▁propagated
▁hepatectomy
▁vecuronium
▁0.26
placebo
▁interstitium
▁PEFR
▁Biopsies
azo
odium
gluc
▁coex
traumatic
▁diphosphate
▁modulation
▁paw
ronectin
▁erythropo
▁adolescent
▁adhesive
▁chorionic
microliters
▁centr
feren
erations
2;
▁organism
esin
▁antiv
▁retinol
▁intrapartum
▁tuberculosis
▁subc
▁sampl
lac
▁Significant
heavy
-15
neumon
▁gingival
▁particulate
▁22-
trus
▁mellitus
▁electroly
▁paternal
▁Maternal
▁hypocal
▁anteced
▁oxidant
▁localize
disc
▁(3%)
▁confirming
57
nithine
soluble
▁liposome
▁kine
lycemia
otox
ocyan
▁microgra
▁neo
▁1978
orate
▁herein
▁schistosom
ylic
▁Brain
▁172
▁lupus
(+)-
admill
tolerated
mittent
oxyrib
went
▁mediated
▁proteolytic
▁novo
▁crosslinking
▁Thi
▁anomal
BV
▁acetylcholine
▁pacing
isobutyl
ocriptine
▁hemisphere
▁(+)
▁tubal
▁pharyngeal
acin
▁-0.7
▁2.7
▁lax
▁semen
▁synergism
▁investigating
-1.3
▁descending
▁gastroenteritis
▁chromatographic
▁insufficiency
▁Elevated
▁RBF
▁geographical
tiveness
olus
▁revised
▁(1985)
eminal
▁tritium
▁Longer
▁myofibrillar
▁expressing
orbent
▁paradigm
▁MW
▁2.8%
▁(70
ximum
▁lysozyme
▁(4%)
ystokinin
3-
▁2.
▁ventromedial
▁weakened
▁solvent
enzymes
igand
▁xanthine
tabol
lob
rowth
▁pores
▁unvaccinated
▁compensatory
▁aspiration
▁(5.1
▁tricyclic
▁torsion
▁gonad
▁aromatic
afe
▁azathioprine
▁constriction
ortic
▁cytosolic
abbit
▁bronchospasm
▁Tyr
odal
diameter
.1)
▁indicators
ynaptic
▁colpos
▁pentoxifylline
▁anhydrase
▁decompression
▁pleural
▁9.0
gth
▁40%,
▁congestion
▁dissection
urement
▁leukocytes
▁ascites
tures
▁3),
ressive
▁absorpti
▁niacin
oncogene
▁mug
▁thyroid
▁ulcer
▁fas
▁titrated
uginosa
▁79%
▁antacids
ecan
▁umb
▁Sephadex
iatic
▁parox
▁3,4-
▁BrdU
▁acetate
66
▁nonex
▁permeation
▁lifest
glycero
Ia
LG
▁(-0.
▁arteriosus
▁acco
suppressor
▁efficiencies
uterine
▁utero
unced
▁shrin
abdominal
▁lessened
▁morphogenesis
▁Hyper
▁individualized
▁Estimates
▁10(5)
▁autoradiography
83
pharose
▁levodopa
▁palli
omatic
▁Escherichia
▁Cyt
▁cystitis
▁thio
▁herd
▁seronegative
▁phosphodies
ropo
▁causative
▁monosynaptic
▁infiltrate
▁cirrhosis
oradi
▁sympathetic
▁angio
0,
aventricular
▁parenchym
opyr
▁LD
▁rigorously
▁ionophore
▁37.5
▁prolactin
▁endocervical
▁enzymatic
androgenic
▁nitroglycerin
▁10(-1
▁mares
▁Gln
ritin
androsterone
oprosthe
-0.
▁relieve
▁acrosome
▁termination
▁1982
orandil
LDL
▁bactericidal
imetry
▁indications
▁chrys
▁spectrometry
322
▁acrome
▁recirculation
▁53
▁oxygenated
▁cardi
letion
▁underway
▁streptokinase
▁peripheral
ocyanate
▁anticholinergic
)-1
clin
establ
▁0.70
▁fibros
/5
eptide
dA
▁hyperplastic
heal
▁Thereafter
▁taurine
▁enzym
▁coagul
▁1%
▁laterally
▁milligram
-(3-
▁myometrium
▁bronchus
▁deposits
▁promoters
▁HF
oxybenzamine
▁desipramine
▁tetrac
▁(67
▁originating
▁verbal
▁polymy
▁VF
89
▁anab
HbA
▁monkey
cholate
▁bacilli
:5
mercap
▁termed
upuncture
▁immunoglobulin
xone
▁cytoplasm
initi
▁unco
directed
IgM
tose
▁agen
oate
▁biased
▁CGRP
olscine
▁47%
▁fracture
astom
▁cytokeratin
fine
.9%)
▁meq
RIA
▁observational
▁deficits
ffec
▁surveyed
▁autosomal
▁sensory
▁restrictive
▁glucose
arcoma
iprofloxacin
▁ile
▁calmodulin
▁0.97
hene
▁isozyme
▁requi
▁propensity
jective
▁pericardial
ocarb
▁Extracellular
▁Included
anada
▁exceptionally
▁DP
▁neoplasms
methionyl
▁broth
▁nicotinic
jects
▁Recom
trate
▁polysaccharide
severe
ithium
-600
▁apical
▁cysteine
▁1.4
sulfate
planchnic
▁immunoblots
▁tetanic
ochemical
▁151
▁Combining
inducing
▁induc
monophosphate
▁homolog
▁Lung
▁microf
atural
Ls
▁regurgitation
▁merit
▁allevi
stimulating
▁spermatozoa
▁bony
▁GTP
▁embryo
▁immunization
▁myocardi
▁adipocyte
▁Surve
▁hairs
▁rhabdomy
▁avid
oplasty
▁(0.9
-13-
▁insol
cious
▁myometr
atellite
timulus
(7
▁alp
▁lumbosacral
▁cyclospor
▁mycobacter
factors
HM
▁aminoglycoside
21)
▁occluded
▁4.0%
▁(90%)
▁consecu
▁16,
▁(10.
▁1.36
glutin
▁interv
-4-
▁pulsatile
▁transferrin
▁CaCl
▁EMA
omers
▁organelle
osome
▁furthermore
inamide
▁252
▁explanations
36
▁physostigmine
ainamide
physe
achloro
tructions
▁lymphocyte
▁pathogenetic
▁rosettes
▁electrochemical
▁allograft
▁conjugated
▁(17
▁resections
▁acute
▁tec
▁caudal
vity
entanyl
50.
▁flexor
▁vibration
▁acini
▁emin
▁subpopulations
▁2.6%
15.
▁100%
▁Various
▁techniqu
azepam
▁LMW
yrox
amuscular
▁Pretreatment
othiocyanate
▁modulator
▁inhibin
enin
▁diurnal
rease
▁compressive
▁transection
▁cranial
abilized
ureas
▁analogues
agonist
▁polyethylene
▁Saccharomyces
apsular
▁electromy
21
▁Rapid
ymethyl
▁amounted
ophys
rogenase
thi
cancer
caro
▁prosthe
▁prerequ
▁emphysema
▁152
ropathy
tir
▁nephron
▁confirmatory
▁Benz
▁bradycardia
▁electr
▁bp
▁blasts
3).
lysis
fluo
▁unmodified
asone
▁defibrillation
▁(75
▁postsynaptic
▁thoracic
15
▁immunocompetent
ensities
▁lympho
▁mutations
▁spanning
6/
iptine
▁emulsion
gans
▁optimum
▁varicos
zotocin
▁sonic
ritten
(6
▁1.6-
omies
▁conjugates
ecum
▁nutritive
▁dihydrofolate
▁Patients
▁42
▁Electrical
▁severity
▁1.2,
phagia
▁pressor
▁falciparum
▁discern
7.
44
tingu
▁capsule
:1)
fir
quamous
+]
▁occlusions
primed
▁11)
▁prophylaxis
onset
▁purified
hospital
▁opi
▁interferes
▁9.
▁shedding
exposed
.2
glut
▁transpor
itamin
Cs
▁14%,
cellular
umping
▁cistern
▁histi
ivocal
▁terat
-21
▁shorten
▁salvage
▁lesioned
yto
prednisolone
▁doubled
orrhea
▁chow
▁arrhythmic
▁radios
2(+)-
▁sinusoidal
osuppression
▁recordings
azolam
osclerotic
▁oligos
▁linole
▁vitro
trically
▁isoleucine
▁lactate
▁femur
▁6).
▁streptococci
ulators
▁neurogenic
▁10,000
clic
▁compartments
▁compounds
▁obser
▁projec
▁0.05),
▁inulin
CHD
▁dodecyl
oxygenation
▁unstable
▁aerosol
▁appendic
▁Mast
▁phleb
▁activates
ocytes
▁nodular
▁lipoxygenase
▁flunarizine
gland
▁glutamic
▁postoperative
.7%
▁pathogen
▁haploid
aemia
▁IOP
▁nonspecific
▁cords
▁10%
▁bovine
▁1.3
▁contradic
▁cardiovascular
▁autologous
▁xyl
▁5'
4.
64
▁resear
emia
▁poten
▁pep
cephal
ceptible
olich
▁universally
▁ultraviolet
▁mammals
tism
▁choles
▁cilia
97
atid
▁1%.
▁chewing
▁exercising
▁backgrounds
/12
▁antigen
trial
▁negatives
▁collagen
▁equipotent
▁phospholipid
rescine
▁tachyarrhy
▁psoriasis
▁bismuth
idia
riched
irubinemia
▁9,
▁lymphocytes
▁disposition
')2
▁neutralizing
▁beha
torchid
ocated
▁supernatant
▁protracted
▁phosphoprotein
▁temporally
▁monol
esting
uitable
▁implic
▁preoptic
▁(76
platinum
iability
▁(68
▁evaluates
▁85%
dor
▁withdrew
HPLC
▁undiagnosed
junction
▁1.29
▁originate
▁implants
▁PGA
pecially
▁atropine
▁Engl
▁purity
predic
▁sple
▁hormones
olac
▁ticlopidine
phrine
tance
▁phosphatidic
▁SPF
▁GE
retin
phthal
▁moieties
blastine
▁prefrontal
▁CBF
odipine
terone
oterol
▁vitreous
tinent
gulatory
▁8.4
10.
uclear
▁170
▁responders
▁.05).
▁10),
▁shrinkage
▁0.88
900
▁lymphocyt
▁oxytocin
▁27,
orded
▁lumb
ineal
▁incidence
▁Nine
▁mitomycin
osteroid
▁159
osage
▁ionic
▁Triton
atisfactory
▁direc
reening
osmotic
placental
ostigmine
▁amniotic
nons
▁fractionated
▁acetylated
itants
peptide
icardi
DCK
ylobacter
▁pooled
▁BH
hydraz
.0)
▁4).
▁chondroitin
cobalamin
imodipine
▁tomography
▁[(
▁purine
.5)
lowering
▁marginally
▁Chronic
▁monitored
▁106
6%;
▁rigor
odiazepine
▁ipr
▁39%,
▁detectable
116
lysine
▁hyperthermia
▁threonine
▁Renal
▁transferase
▁accelerated
▁hydrox
▁4.5%
onad
▁periplas
▁magnesium
▁7%,
fentanil
utable
illi
botic
hemolytic
▁21-
▁reproductive
▁microliter
,2
significant
leu
cyclo
▁9.3
▁sensitiz
lases
ocysts
timulated
▁dB
izability
▁analogue
▁reconstitution
▁gonorrh
adenosyl
▁fulmin
▁diuretic
cristine
▁karyotype
arrhythmic
iomas
▁electroph
▁11
▁1.2
▁tumor
▁unil
economic
▁ventricles
▁disposable
▁herds
▁cochlea
▁lambs
▁ect
-3,
▁comparatively
▁activating
▁217
isolated
erated
enclamide
▁Pulmonary
▁capsular
▁cylind
methylxanthine
aminobenz
▁constitutively
▁antithrombin
rosemide
▁0.21
▁(6),
▁myot
▁neurotoxin
PDE
umarin
Glu
3]
within
▁autoantibodies
▁Attemp
▁multiplication
▁bacteremia
▁modulatory
▁pediatric
▁osteoblasts
▁hypogonad
▁cutoff
▁serologic
▁paral
0%,
-6-
isomer
ordance
vaccination
▁convoluted
▁perikarya
▁posttrans
▁disturbance
▁plots
▁Diets
BMI
▁15%
▁formulation
▁230
▁0.36
▁oligo
Ni
otericin
▁meniscal
▁posttreatment
▁thiop
LAD
deprived
▁Conversely
▁nitros
▁sinus
▁recanal
▁Duc
▁wards
venous
▁45%
▁NSAIDs
obronchial
secre
olamine
eruleus
▁Aden
▁impairment
cardi
▁seroconverted
▁methylated
▁immunoprecipit
▁dysrhythmias
▁bilayers
▁cava
▁phrenic
▁disapp
▁necrop
▁-12
▁ankle
LTS
▁endo
▁hemo
piratory
▁221
▁thallium
reatine
▁granular
▁microelectrodes
▁3.
▁equivocal
▁Subjec
▁spermatids
-23
▁arginine
heparin
▁deletions
▁undetected
oplasma
pli
▁resultant
gmental
obutyl
▁SMR
▁idiotype
▁holoenzyme
▁rHu
▁(76%)
▁aldosterone
▁82
▁exudate
ELISA
12
▁Angi
dyl
etan
▁adver
▁ellip
-8
▁16-
▁Screening
irone
absorption
6).
▁pyrid
▁confounders
▁1.46
roxen
▁putative
▁MIC
▁NADPH
deple
▁retrogradely
KA
▁puncture
▁gm
▁dyes
ulfonic
▁Compared
amers
▁enti
colem
▁0.12
▁reperfusion
ucleotide
tions
arrh
▁distor
▁hemagglutinin
▁stimuli
▁eminence
▁fasting
▁audiometry
▁undes
▁3
▁0.8%
faction
▁resonance
▁acne
▁cac
▁CRP
▁abolished
▁PLA
thle
▁disabling
▁5.5
▁retur
5%.
strand
▁acros
▁cytoplasmic
▁encephalitis
▁Infection
▁steroidogenesis
opressin
▁103
▁granul
inositol
▁1
▁multimodal
ongest
▁phag
▁32%,
▁motoneurons
▁Whole
dic
GFR
erates
▁hepatotoxic
▁assayed
▁exocrine
▁ganglion
▁intrag
loidal
acetic
▁SBP
▁nonoperative
▁lae
▁crossover
fted
▁endobronchial
▁pregnancies
▁84
▁inactive
▁intragastric
-90%
▁Biochemistry
▁ventilatory
ytoin
▁continuity
▁dissec
▁cycling
▁autocrine
▁paralle
derly
▁diaphragmatic
-50
▁vasoconstric
cein
▁athle
▁monomers
renic
▁neurotoxicity
▁196
▁0.01)
▁motility
▁(197
▁395
▁rash
▁PEP
▁potentiate
▁197
▁hepatomegaly
▁exchan
▁accounted
▁(8-
▁exud
enten
▁untranslated
▁prescrib
▁dissemination
ergen
▁6.2
▁isomers
▁ATP
kelihood
▁synov
-2).
orepinephrine
▁8.5
iodothyronine
visions
▁lamb
myc
▁carcinoma
ecyl
▁mesencephalic
▁NIDDM
gestational
▁plated
▁sulfate
▁(43
tified
▁runners
tential
▁parame
▁albino
▁perivascular
▁shortening
▁Monoclonal
▁11,
▁tRNA
▁dilation
▁PHA
PAT
achol
phasic
▁DU
▁nonsignificant
▁filament
▁cisternae
▁75-
ogra
▁Epstein
27.
versity
▁unclear
▁2%.
▁LH
▁557
centered
▁bundles
▁coeruleus
2'-
▁plasm
▁113
▁genic
▁EBNA
▁insignificant
▁FFA
▁fractions
▁unscheduled
▁imipramine
eicos
erver
inone
▁cataly
▁SLE
-1;
▁qualitative
▁idiopathic
Ca
responders
▁0.57
dies
performance
dopa
rk
▁preload
▁RP
▁7-
▁NH
-66
▁thickening
▁14
▁disulf
▁differentiate
Hodgkin
▁messengers
▁10)
▁indexes
ults
▁fluoxetine
▁modality
▁shor
▁epithelia
▁22
imetic
▁retardation
▁deferens
▁perfor
▁terfenadine
▁biases
▁cobal
+)
AChR
▁spikes
▁8.3
▁ascer
▁displaced
neuronal
esic
▁primates
(1)
▁58
▁amiloride
grown
▁infectious
▁administered
▁pylori
▁gamma
▁Intra
▁VE
ffective
▁arter
▁anticoag
ophilus
▁Reduc
▁elu
HRP
▁nonlinear
▁naf
▁LDH
▁ovariectomy
▁vasoconstrictor
▁superiority
▁7.1
%),
rometer
▁EPA
ibrate
▁dividing
▁superim
dermal
▁Lym
▁dentures
pirin
▁consequent
ographs
▁syring
ilding
sorption
▁metoclopramide
trous
▁nifedipine
ositol
▁laboratories
▁myeloma
▁amiodarone
▁hormone
▁perim
▁mutated
casein
▁evol
epin
▁innervating
▁antitumor
▁wells
▁4.2%
▁spectro
▁ovariectomized
▁microliters
dR
▁isotypes
▁evaluating
79
▁antral
▁yearly
acteria
▁heparan
▁calorimetry
Ep
1:
▁82%
▁56%,
0).
▁aggra
examination
▁fetal
▁forskolin
HB
▁circulatory
molality
▁spacer
oside
▁lysed
PaO
▁prosthesis
▁unfolding
LU
▁hyperpolarizing
▁immunos
▁Tox
▁inversion
▁excessively
▁IGF
orskolin
otamine
tivity
ensitivity
▁metoprolol
ported
▁recombinant
1/
▁decarbox
▁equine
ierarch
ivered
▁diffraction
▁myeloid
atum
istor
▁hypother
▁percentile
ogl
▁fibrob
▁extravasation
▁stratum
▁lactation
▁triti
▁visualization
dg
▁Intravenous
▁ribosomal
▁pokeweed
4)
▁matur
▁perpendicular
▁(4)
▁hazard
tory
▁corneas
▁tracers
▁8%
▁throm
liteal
▁initiation
oflu
▁monoamine
coun
▁flanking
▁bulls
▁72%
opeptides
▁BMD
▁24,
▁Factor
▁inoculum
▁adrenalectomy
▁proliferation
▁clones
▁wean
▁alginate
▁presumed
▁17.8
alian
▁repres
▁assis
▁inters
▁peptid
▁starch
ipient
cortic
mentation
ithine
▁hierarch
vivors
oventricular
90)
▁psittac
▁xenografts
5).
▁Mortality
orated
▁roset
▁prox
▁maximally
17,
▁myoblasts
▁5%
0)
▁adipocytes
isal
▁platinum
sodium
▁preventive
5);
▁traumatic
▁Statistical
▁RNA
▁coordinated
▁leakage
▁HCV
gued
▁perfusate
▁1987.
▁(5.0
adjusted
▁OA
▁1.56
.1%)
▁androgens
▁antidepressant
Ds
ogran
▁PEEP
▁0.44
▁colic
onide
bA
finding
▁ADP
ognition
ediatric
specifically
▁identifiable
▁subcl
▁PRP
▁localized
ocompatibility
▁fla
▁carinii
obacterium
▁203
ews
▁stereose
▁protec
▁onc
▁imid
▁guanosine
▁Clinical
oretically
▁lutea
▁95%.
▁baroreflex
▁enrol
ught
chlorophenyl
▁Tryp
▁alternating
▁possessing
▁rodent
▁disseminated
▁contamin
▁washout
▁amo
▁terminus
.3
▁hemorrh
▁ventilation
▁5.7
▁contractions
15).
▁235
▁SCLC
▁Trypan
▁Vascular
▁7)
▁CCK
ilus
▁vaccines
37
▁vagin
▁hybrids
▁attributable
▁Gonad
▁blin
▁1988.
▁thermos
▁initiates
zymes
▁8.7
onegative
1/2
▁accep
▁asthmatic
tus
▁0.29
▁IDDM
estradiol
▁Glc
▁27%
▁FAD
▁passively
udation
▁stimulates
▁unlabelled
▁PaCO
▁ophthal
▁dissected
▁retarded
▁([3
▁pharmacodynamic
▁atresia
▁Deletion
unctions
▁unfav
yclo
▁NB
▁anemic
▁increments
tice
▁reversing
▁uncovered
-1.1
▁oncogene
▁(0.1
▁eug
▁(93
▁microorganism
▁0.95
specified
omegalovirus
▁CLL
▁arcuate
▁periodon
feeding
▁convulsions
tenolol
▁hypophys
oblastoma
▁lesions
▁12%
▁colostrum
▁depolarizations
ronate
heum
tissue
▁antipsychotic
▁cholest
vascular
▁cortical
▁proteinase
▁22,
▁homology
▁cyst
cyte
▁Combined
▁ventral
▁2.5%
atrop
▁7),
▁Contr
▁normals
▁perif
▁diges
▁80
▁hazards
GABA
▁dermal
▁ulc
ifferentiation
▁glucuronide
▁Pseud
▁167
▁70
▁secretions
▁(90
▁83%,
▁distal
▁satur
▁contral
▁TMP
▁6.6%
▁abnormally
▁quantitatively
▁affec
▁unbound
opausal
▁dips
▁lec
▁nigro
-4.
▁venous
▁arachidonic
▁PN
▁refusal
titudes
▁hir
glucuron
▁hyperox
▁1980
activating
▁cues
▁parie
othiaz
74
acet
▁Syrian
▁(45
▁phon
▁228
6.
▁metabol
▁periphery
▁codons
▁137
pecies
▁reinner
▁osmotic
▁logar
▁immunological
▁ubiqu
32
▁insectic
▁placenta
ynthe
eradish
activities
▁Adenosine
▁6.1
Hb
▁calculating
▁monooxygenase
▁17).
▁receptive
▁resemb
▁Crohn
▁pector
▁thyrotropin
▁1991
▁neonate
▁lineage
▁Plas
.5%,
▁Thoracic
retion
▁anastomosis
-27
ostasis
▁gout
alose
▁insomnia
chemical
▁chicks
▁metastatic
▁phasic
ctomized
taining
deriv
▁micros
▁ASC
tropic
▁Topical
▁triacylglycerol
▁membranous
▁Haemophilus
xate
tized
▁uniformly
▁acutely
▁perip
▁hospitalization
▁acids
atories
urine
▁-0.3
▁steers
▁subarachnoid
▁physic
parathyroidism
▁11.1
▁(4-
▁fibr
gment
otyrosine
▁anaplastic
▁Antis
▁myocardial
▁alk
▁confirms
uscular
▁desatur
▁RSV
breath
▁transthoracic
regulatory
allik
▁13.2
▁contraind
ustained
▁90%
▁leukaemia
oprec
▁(1%)
▁lifelong
▁cytosine
▁scl
erebral
▁19-
ertion
consuming
entia
ludes
▁pooling
▁freshly
▁4.9
▁immunod
▁inadequately
▁births
asthmatic
▁chloroquine
▁elicits
▁banding
▁Nal
▁exacerbations
overall
▁COOH
nee
▁arthritis
▁Bam
▁dissimilar
▁methylene
▁tandem
/20
▁(32
▁autoimmune
obarbitone
72
▁thrombocyt
angiotensin
▁socioeconomic
▁(1.3
▁SRBC
sied
▁Retin
▁hypothe
ohydrolase
Lys
onor
▁sph
▁162
▁sten
radiation
▁infusions
▁spor
▁1975
anis
oactive
(2)
▁simvastatin
▁colocal
ocomial
▁0.7%
tipation
▁substrate
▁acin
hepatitis
▁drinkers
▁predictor
RCA
eared
3/
▁0.27
adap
oxazole
ifluo
▁inver
▁leukopenia
▁atrophy
ymmetric
▁arbor
▁phenyl
▁chloro
▁208
▁phosphorylated
▁mastoid
▁42)
▁fatigue
▁293
▁Effic
10-
eraldehyde
▁photoreceptors
▁3.5%
yroid
▁194
▁Lymph
▁lactic
terminal
▁saturable
uodenal
▁tricuspid
▁newborn
▁Positive
▁radiological
dia
embran
amino
▁0.0001).
▁BD
▁discharges
▁glycolipid
rometh
▁0.5,
▁vacuoles
eal
pir
▁Lipid
▁simplified
▁differentiation
AUC
▁sigma
7-
agittal
▁anaerobic
ometr
Trp
▁microns
▁720
▁Americ
/90
▁hospitalized
▁specificity
bacco
▁35-
▁heterogene
▁depolarizing
▁thorac
▁migrating
▁observers
astric
glycine
▁antibody
▁(69%)
-96
▁enhancer
emias
▁crani
▁methodological
▁trachea
▁serological
▁opac
▁cG
▁11%
thio
▁propagation
▁latency
▁CN
▁CGS
▁electrolytes
▁radiolab
▁iodide
adherent
▁angi
▁postre
▁superv
▁invariably
-1.8
▁factorial
ticularly
▁obesity
tilage
▁glands
▁permits
▁menses
▁tes
▁antibodies
contracted
2.
▁51
▁lumen
lpr
ancerous
▁Nutrition
▁atelectasis
▁invasive
▁Comparing
▁disappearance
▁Skin
PV
5),
▁intermedi
▁16%
▁60,
▁ventilator
▁haplotypes
▁Hib
▁bism
▁mutagenicity
▁(16%),
▁ae
▁outpatients
▁(10(
▁bromide
▁hypere
▁antisense
▁endemic
▁Wound
▁9.8
▁ocul
PDGF
▁transmural
pergillus
▁APD
▁paralysis
▁psychophysical
roxetine
▁reproduced
indolol
cture
▁subtilis
▁metabolically
▁0.005),
▁fimbriae
▁conduc
tro
▁premature
▁alleviate
▁brachial
edded
▁albicans
▁suppor
▁ligament
▁adjusting
▁phospholip
▁photoperiod
▁41.5
▁streptomycin
ophy
▁methodology
ometrial
▁pathways
bodies
▁900
▁precordial
▁frog
▁irrig
▁mediation
-34
▁oestrus
osterol
▁cytologic
▁diethyl
-2.4
▁carbachol
pine
▁exon
▁0.10
afibrate
treatment
▁3',
▁orthoped
▁inoculation
▁subfractions
MHC
▁strains
dihydroxyvitamin
adrenaline
alas
▁cytological
ranolol
lobin
▁enzymes
ACh
▁chromosomes
▁neurotoxic
▁multic
▁hydroxyapatite
▁(88%)
▁0.7,
▁overestimated
▁endocardial
omically
detection
linded
atment
ximide
▁nontoxic
amate
tempor
▁Dys
acerb
urther
▁proges
▁radiol
ystagmus
▁adhesions
ymptomatic
omethacin
▁esters
platelet
▁intramuscular
▁stratif
▁esophagitis
ods
omegaly
▁1)
uccin
fibrin
respectively
▁CBA
converting
ivoc
-4.5
▁adhering
▁thre
▁transplanted
estive
▁38
▁subgroups
▁splenic
▁microorganisms
otransferase
▁TNF
▁glucocortic
▁valu
2%
▁0.06
▁endot
▁Sertoli
dalton
▁Arterial
▁obstruc
▁dextro
▁predominant
catalyzed
rowing
1),
▁depolar
▁migrated
▁(38
▁radioligand
▁chlorhexidine
/10
▁vesicle
appropriate
.6,
▁nickel
▁cationic
immunoreactive
aggreg
▁cardioplegic
▁enanti
▁cytos
8.
▁subjective
▁CAL
▁hemoglobin
▁7.2%
estrol
olamide
apparent
▁hemodynamics
sulfur
graphy
▁(75%)
▁ovulated
▁tonsillar
4+
▁synerg
ocytochemistry
▁branching
asthen
▁exponential
▁deoxyribonucle
▁fibrinolysis
▁Candida
▁reversibility
terin
fetoprotein
▁50
oblasts
▁avail
▁fec
▁electrocardi
▁anaesthetic
▁Patient
▁endometrium
▁caud
▁RII
ogens
/8
▁barbit
8/
▁(15%)
▁stenosis
oplas
▁typhimurium
immun
▁cyclase
▁45
vac
▁PDE
▁297
▁subscapular
tec
▁Apgar
▁10%.
▁underg
▁dementia
▁malignancy
▁overweight
ocrine
▁elevation
▁Higher
▁paraventricular
▁effector
▁resected
aminase
▁Antim
sible
▁24
-4
▁tric
▁fungi
▁pige
▁quinolones
ystag
▁tet
▁trac
▁constituents
▁OC
▁flas
▁rheumatic
platin
▁internally
▁retested
▁aneup
▁(6)
▁lobe
▁7.8
▁proteolysis
OA
iscal
atrial
▁ppm
▁rehabilitation
▁sacrificed
sants
▁repertoire
▁9.5
selective
▁uninfected
pulse
▁benzodiaz
▁DHA
ytes
▁fertilization
▁chyl
▁glycerol
ourinary
▁predis
atase
15)
▁irreversible
▁binocular
▁carboxylase
▁mobilization
▁Progression
▁buffered
▁Ultrastructural
▁stimulator
▁examiners
othel
▁interacted
armac
othionein
▁anaesthetized
8).
0.8
▁mIU
▁occl
SAID
▁Acute
-300
apeu
▁ultr
jun
▁visc
▁Vero
▁bombesin
▁worsening
▁thromb
▁0.3
nuclear
▁extraction
2)
oglycan
▁serotype
▁.000
▁proline
▁catecholamines
loro
pleen
▁143
▁pyridoxine
▁GRF
phen
▁moth
▁-40
▁behaved
▁(0
▁hybridized
testosterone
.3,
▁burns
diagn
▁LTB
▁210
▁physicochemical
▁Medicare
-1.2
PRL
▁insuff
ectasis
▁critically
▁ether
▁virion
▁synthesis
▁haemoglobin
▁ero
▁Systolic
▁milder
▁cla
mandibular
18,
▁idazoxan
▁60
▁atten
▁nosocomial
dihyd
omain
aterals
▁(1990)
▁anaphyl
2+)
vul
▁resection
▁inges
adenoma
▁macromolecular
thema
redoxin
▁333
ivacaine
▁lipolysis
torial
mend
▁VP
CRF
▁transformants
▁airflow
▁0.22
▁arous
ulants
▁OH
▁microM
▁herp
▁synapse
▁tolerate
▁corpuscular
3.
▁precedes
▁ERP
▁dysfunction
-3.
▁retrospectively
▁autop
▁anomalous
▁differenti
yloid
-13
▁Statis
chrom
▁Eighteen
▁phagocytes
posure
▁fatty
▁graded
assay
▁reactivation
oyl
olytic
▁elab
5-
▁14)
▁(5%
▁28.
▁reagent
ophasic
ulting
▁111
entified
▁(=
ulinemia
producing
geal
cotic
▁pestic
-49
▁phage
onephritis
▁electrode
▁500,
turb
▁0.94
atinine
guan
orsal
itonin
▁ultrason
astolic
ohns
azin
▁recombinants
▁endogenous
▁trach
2),
▁dithiothreitol
mation
uplex
osan
▁feasibility
▁Recombinant
▁UT
▁multim
▁oestradiol
▁spleens
ordination
▁basophils
oprim
▁NaCl
▁prednisolone
▁inhibitors
▁1966
▁(70%
▁Thir
▁-3
▁0.46
▁maneuvers
▁81
▁viral
ocytopenia
▁0.47
▁thi
▁genome
▁trimester
▁discrepancy
21.
▁HCG
▁TIL
▁deox
▁anomaly
▁submaximal
▁LPL
ergic
▁RS
▁Receptor
tially
▁quantify
cellent
adenosine
▁fractional
ifferentiated
▁postinjury
adily
oleoyl
▁cytolysis
▁plaque
▁hGH
▁unresponsive
aceous
.7.
teral
▁Comparative
▁translational
lipoxygenase
1);
▁incremental
exposure
anthracene
▁8.9
▁0.76
sepithelial
▁promptly
▁pigment
▁breakthrough
▁fetuses
etal
▁neoplasia
1.1
▁insec
▁homozygous
CAH
▁arachid
▁internalization
perfused
▁mesenteric
ocrom
▁nonm
galactosidase
▁deficiency
▁resuscitation
▁Pb
▁enlar
DNA
▁Meas
tran
.3%)
▁endocardi
opramide
▁1976
▁tremor
▁starvation
ymptom
▁bursts
▁lamina
▁0.001,
▁stained
▁nucleoside
▁infants
▁migrate
itro
▁apolipoproteins
▁acetaminophen
▁cellul
▁bronchitis
▁selec
▁protozo
▁LAK
arrhy
▁urtic
mediately
6,000
infusion
▁grading
▁shortest
▁311
▁quantit
Cy
tetr
▁8,
▁thermo
▁preparative
zyme
▁121
▁EE
▁cerevisiae
promazine
kinetic
▁Sodium
nexin
▁preovulatory
▁daltons
▁catheterization
▁decreasing
atient
▁94%
▁CFC
kine
tectal
azem
▁GAD
▁30-
▁acetonide
atized
lyb
▁lorazepam
▁prognostic
▁Urinary
glucosamine
▁5%,
olization
▁1985,
▁ultrac
▁2
▁prospective
strain
▁evolutionary
-48
androgen
▁deviations
▁stimulatory
▁spontaneous
farction
▁ips
)],
▁IgE
▁10(6)
approximately
uthen
▁replication
iatr
▁asymmetry
▁CAT
posable
deoxy
opeptidase
▁glycosaminoglyc
ocarpine
oxetine
▁pefloxacin
illus
▁nitrous
lusion
▁CML
▁commiss
toma
roph
ainide
adine
galactose
▁15.
embers
▁ischemia
▁clot
▁CU
titution
twitch
▁Raman
reactive
▁dyne
▁650
oclonal
▁4-5
ilts
▁urinalysis
factorial
▁substances
▁gelatin
▁thaw
▁doses
inemic
▁lactating
▁immunoreactive
▁vitamins
(1
▁migraine
▁(5.3
▁macropha
▁vagus
IIb
▁vitronectin
▁cytochrome
iciently
▁valpro
▁unpredictable
▁Changing
osus
▁antichol
iagn
legia
▁Successful
ocl
▁gavage
onography
▁mutation
▁perc
▁hypercalciuria
▁expon
▁multin
▁Determination
umbar
oagulant
truction
▁exerts
▁10(9)/
VH
piper
▁trout
▁argues
atified
▁sebaceous
▁uncomplicated
▁recognizes
arbonate
▁deterior
ochrome
▁terminated
▁Hb
▁chloroplast
▁interfere
▁oesophageal
▁digitalis
▁denti
▁dentate
▁vite
genous
ostat
idating
▁respondents
ysts
▁12
▁trich
pregn
▁osteoclasts
▁unipolar
/1000
retro
▁infective
▁stimulations
▁incid
▁evoked
tetric
olitis
onate
endri
geneic
▁epididymis
▁arteriography
phosphatidyl
▁multiparous
▁FU
▁arti
▁homogen
▁prostheses
25(
▁breaths
▁distin
osides
▁anaemia
▁ach
▁bending
aortic
▁possesses
▁litters
▁reactivity
▁hairy
▁PTH
▁RIA
▁aneuploid
ungaro
▁subsets
tisone
▁dib
▁atypical
daily
▁analogs
▁granulomas
▁Strep
▁0.20
▁gastric
basal
▁hypothyroidism
▁alb
motic
▁FD
stimulation
▁causal
▁avoidance
▁distorted
▁RI
▁lengthen
▁ultras
▁74
▁9.2
▁PID
▁enroll
tation
▁FGF
▁10.4
▁gestation
▁Consequently
operoxidase
▁nodule
▁patency
▁295
▁Disorders
▁aggre
▁microscopically
▁pseudop
▁capillary
▁bir
▁occurrences
▁acceptor
▁ascorbate
▁DOCA
▁monotherapy
▁correlates
histamine
▁subcellular
▁phenytoin
▁carriers
3-4
illaries
▁ketanserin
fluorescein
illin
odip
▁Protein
▁paced
stole
▁(98%)
VIP
▁ionization
kines
▁insertion
▁microgram
avage
▁intraepithelial
▁Antibodies
▁fura
/2
▁salic
▁radiography
gement
▁SPECT
▁cloning
trodotoxin
▁uni
▁babo
▁retinal
fec
▁Antigen
▁Surgical
valvular
▁cryptorchidism
▁ovine
▁inhaled
▁aberrations
opian
threatening
▁CK
▁toxicities
derma
ocardial
▁mixtures
▁crust
▁(+)-
▁Mycobacterium
▁bouts
▁intran
▁(+/-
▁microbiologic
▁instrum
cretion
▁tryptophan
▁Phosph
adm
▁4.2
▁24%,
▁gallst
rotoxin
▁Bloc
▁adnex
▁(198
▁microelectrode
sych
,6
bloc
▁metronidazole
.8
▁285
▁antrum
▁metic
▁retroviral
▁FV
oproliferative
lasting
▁PDGF
▁docum
opi
▁similarity
▁initiating
▁1989,
▁Formal
▁conditioned
▁glucuron
▁279
▁trabecular
▁1990,
▁iris
▁200,000
aminob
▁activators
▁lining
▁amino
▁1986,
▁CPR
▁embryos
▁(1986)
exis
▁neutralized
potassium
▁renin
uridine
romatosis
▁recurrence
▁223
▁deterioration
▁cran
alyzed
pecific
otri
▁monomer
potential
aternal
▁280
▁endpoints
▁nitrocellulose
▁corne
▁betamethasone
imolar
▁flexed
▁oxygenation
▁dissolution
▁HCl
ected
itudinal
▁necrosis
ulline
▁206
rested
▁sterol
▁gag
dosing
imetidine
▁0.001
macroglobulin
▁seroconversion
▁pectoris
▁8.6
either
▁quantitated
▁cotransport
▁lact
▁conditioning
utyr
▁cholesterol
▁SIDS
▁(1).
344
▁quantif
antigens
▁respects
▁rearrangement
▁60%
▁radioimmuno
▁17.1
7%)
▁fibre
athic
▁encompassing
hemagglutinin
▁excretion
▁0.001)
patients
terol
▁insensitive
▁Few
ygotes
▁relaxations
BSA
▁Twelve
▁PMNL
itability
portant
versus
▁HPLC
expressing
ograms
▁1,3-
▁BV
▁palmit
▁metaphase
▁clomiphene
bred
▁invari
▁infarctions
opecia
enil
▁dissociation
chin
EDP
iably
▁sequentially
▁clonidine
▁fetus
tagland
▁damaging
COP
▁ethyl
rangements
himb
▁sarcolem
jec
entile
▁4.0,
▁168
transferases
▁zeta
▁thems
roso
▁lymphatic
▁satisfactory
▁pneumonia
▁denser
▁schist
uronic
▁Recurrent
▁balancing
▁deli
▁subtype
▁somat
▁1.01
▁jugular
▁larynx
▁lateralis
▁diagnoses
▁pollicis
▁147
▁irrigation
▁chan
1%)
▁0.66
▁ventric
▁depletion
▁organelles
zation
▁glauc
▁Preincubation
▁carbonate
razole
erative
olestero
▁DN
▁melanoma
ept
▁spliced
nine
ysed
▁antinoc
▁Lp
otor
indings
phic
alc
-5'-
▁isomer
▁(62
▁aluminium
GnRH
alkyl
▁facet
▁exudative
▁Thyroid
▁414
▁eicos
▁mumol
:00
▁demonstrable
ermal
racycl
▁affective
▁Sprague
▁15-
odone
▁compartmental
▁refined
▁confir
1,
Tu
ervo
▁mononucleosis
▁0.75
▁cerebrospinal
▁auditory
▁photosynthe
▁Calc
tebral
▁extracts
▁56%
neutral
▁3.5,
▁reag
▁tomographic
▁differen
▁dissim
▁subnucle
mercapto
odeoxycholic
▁headaches
▁6,
DPAT
substituted
oides
▁efficacious
▁undertaken
▁melanogaster
arcin
▁Bronch
▁dor
ucose
iazide
▁amput
▁tryp
▁278
3.1
▁Insulin
▁Stu
▁mannose
▁nitrite
▁TATA
atab
▁defib
▁orifice
▁menstruation
rague
▁hered
▁recycling
▁hypothermic
atriptan
▁10(-3)
▁venom
▁hypoglycemic
▁microscop
▁Individuals
▁orthostatic
▁neurotrans
▁valve
tropine
▁abolish
3;
graft
opharyngeal
surgical
▁[1
▁aorta
▁suppression
▁criter
▁grafting
neu
▁176
ospitals
▁adrenocortic
ocin
▁cohorts
▁theoretically
▁0.32
olstein
progestin
▁kinetics
thoracic
▁repeats
9),
arcomas
▁109
▁0.2
▁embol
▁mep
ectable
▁transvaginal
▁Glu
▁fluo
tetradecanoyl
▁polymers
▁Forty
▁(0.25
valine
ostic
▁(125
▁spherical
▁fluxes
▁PCP
▁liters
▁EI
▁(1.25
Gi
urk
NAD
▁weighing
22
▁hemochromatosis
▁coli
▁presentations
▁transverse
▁spacing
▁AO
▁hypokal
odend
oprol
erad
▁IU
▁molec
▁Histological
▁retrograde
▁morphometric
▁ovulatory
▁chlor
▁levamisole
WB
▁influenzae
▁elimin
▁kidne
▁0.17
enia
▁Glyc
▁PLC
iciencies
▁nonf
▁CRF
▁NSAID
▁46%
▁obstetric
reas
cetin
OH
thmic
▁bicuculline
▁synaptosomes
▁cobalt
▁multicenter
▁Surprisingly
▁dialys
orin
irrel
▁conto
etween
dine
▁260
▁derange
rometry
▁nucleolar
▁rheumatoid
▁11.6
▁develops
▁murmurs
▁gallstones
odon
▁292
▁diastolic
▁noradrenergic
▁MRI
▁coar
▁adolescents
▁affinity
▁leucocyte
▁postulate
estion
▁markedly
▁LN
▁extremities
atibility
1).
▁(97
globulin
visual
ocyte
▁nipple
▁RFLP
tinu
enoic
▁0.05;
▁Epo
BMD
erge
otalol
sac
▁helical
gic
▁EPR
▁1981
▁nonresponders
▁catar
▁apnea
lodipine
▁10(-10)
imetric
▁Leu
▁17.7
▁(33%
ostomy
▁subclinical
▁undere
erin
▁anesthetic
▁surgeons
ondr
▁supernatants
oplastin
hydroxyd
▁Cultured
▁inward
▁decarboxylase
▁disrupted
omatis
ecu
▁pter
▁postnatally
oblast
▁reductase
▁refractoriness
-5)
▁pravastatin
▁2'-
▁1-3
oreactivity
▁diltiazem
oretical
▁MAP
▁PSA
▁maneu
▁platelets
gesic
▁Caucasians
▁pineal
▁anionic
esarean
▁triphosphate
illar
▁reproduction
▁haemodynamic
-64
▁nemat
tub
▁goats
▁embryogenesis
▁CSF
umbers
▁cholesteatoma
▁40.
▁decreases
ichia
▁detects
tidine
▁PET
▁VSV
TG
prone
ulfonate
brids
▁resul
▁endocytic
Mg
▁gonadotrop
▁chronotropic
▁GABAA
-4,
-39
▁hypothyroid
▁ABR
▁oriented
▁sepsis
▁internists
▁penetrating
▁resistances
ophylline
▁practiced
italopram
▁20.
▁clom
productive
▁elongation
▁aort
▁72-
▁Krebs
▁1.3-
▁eryth
uates
▁footprin
▁establ
leucine
hosts
▁disturbing
▁11.0
▁midline
▁expenditure
▁kPa
▁exert
quine
▁swine
▁interacts
▁poorer
▁BFU
▁osm
110
▁oint
▁catheters
olet
▁quinacrine
▁Nons
aminergic
▁-60
▁swabs
olesterol
FGF
▁dialysate
enedi
▁artificially
▁biod
▁201
excluding
▁voiding
worm
.5,
duced
▁rectal
▁trig
▁phe
▁surgical
omat
▁microsomes
▁handic
▁dexamethasone
▁serine
▁prosthetic
ller
▁unaffected
-7
▁celiac
▁alcoholics
▁methionine
▁explants
▁COS
▁sumatriptan
▁sulph
▁vasodilation
pendent
▁Asn
▁20)
▁119
atches
yx
-400
▁cows
▁substratum
▁globus
▁oedema
▁26,
▁rearranged
uantitative
▁filtration
▁stump
▁prospectively
semin
▁embryonal
▁ulcerative
▁alterations
▁neurop
▁serologically
▁herni
▁underwent
cessively
▁MK
▁cooperative
▁Tf
▁inactivate
-42
8%
▁periodontitis
PIA
▁calcium
hydroxydopamine
▁antepartum
▁myelin
▁stabilization
▁nonrandomized
acryl
▁therapies
iatric
coated
▁aggres
▁1986.
▁abor
▁peaked
▁pem
49
▁Neuro
▁cyclo
coag
▁dopamine
▁undetermined
▁Animals
▁infiltrating
▁ESR
▁pneum
Glc
icillin
initiated
▁Scatchard
▁impedance
▁1989
▁amph
▁AII
▁emphyse
▁30
albuminuria
exercise
ECG
▁(1.7
▁dehydrogen
▁aeros
▁polymorph
▁gp
chase
▁terminals
▁suction
adequate
▁cate
▁dioxide
▁adrenocortical
dii
▁Stress
▁circumst
▁hydroxylation
▁formalin
emide
▁embry
▁repression
echan
antom
30
▁Tran
▁mitochondria
plastic
▁2.5-
retinal
▁parity
▁specification
hemical
▁FN
▁placebo
olem
ternational
genesis
]-
▁52
▁splenectomy
weigh
▁monovalent
▁Reduction
concentration
itum
▁cromoglycate
▁concludes
▁fenoterol
▁prednis
▁Differences
▁distric
▁intima
▁adminis
▁chamb
▁pressures
heresis
▁EAE
▁embolus
osclerosis
▁Fourteen
▁Bacterial
▁(4.8
▁nonsur
ifers
▁7,
oxyn
▁captopril
▁cured
propanol
coup
▁penile
xide
omyosin
▁(500
echanical
▁substantially
▁PLP
▁bowel
▁spermat
▁regularity
ongue
ellae
▁weighted
▁CoA
trophic
dip
▁11.5
eptin
▁haemorrh
▁mutans
▁amphib
isteria
▁conspic
▁ND
mokers
▁dith
▁equi
amellar
okine
▁unfractionated
▁299
▁blunt
▁vestibular
▁acetic
onam
physiological
1-4
thin
▁CHO
▁resembled
▁antide
98
prin
▁aggregated
▁prostaglandins
▁joints
▁intercostal
▁metac
▁calcified
▁proliferating
▁(5)
weighted
unctiv
affected
acetamide
oxide
tic
-90
▁apomorphine
▁UVB
▁macros
33
▁transgenic
-34)
elong
▁diminish
challen
▁fistulas
▁(57
▁pM
acements
▁5.4
▁conjunctivitis
sess
▁cholecystectomy
▁18%,
▁tPA
ochromatosis
proved
irradiated
▁extrinsic
▁histopathology
▁subclasses
opr
-1+
▁Thirty
roscopically
▁stimulate
▁(52
▁bicarbonate
▁0.01),
▁diaphragm
olesterolemia
▁chemot
ompan
fatal
ochrom
plemented
▁Laser
▁extrap
▁sedimentation
▁synapses
▁viscer
▁palliative
▁1000,
▁maxillary
▁oversh
000.
▁intramolecular
127
lived
▁MICs
▁phospho
lining
gestion
apamil
ampicillin
wk
11.
▁calor
▁mastectomy
HPV
▁diabetics
-1.7
▁schizophren
▁nodules
▁4
hered
▁nutrients
▁lacks
▁heavi
tib
▁waking
▁10%,
.8%)
▁acuity
▁ultrasonic
▁desmin
coding
▁glucagon
Tc
▁dominance
temporal
igarette
▁enrichment
▁ethn
ycin
tituted
limb
-18
▁angioplasty
ovis
▁GRP
▁glucocorticoid
operated
30-
▁lymphokine
▁BN
▁villi
▁struc
▁21
kinin
▁fluidity
▁endoscopic
luores
▁hemolytic
▁1960
▁striated
▁suprac
6%)
ervative
▁laparoscopy
▁hemodynamic
▁Steroid
mentioned
▁dehydrated
▁bronchi
trimental
▁plasmid
▁cochlear
stin
▁1.04
▁-0.6
▁barium
▁extravas
▁margins
▁alkalin
▁worms
▁100,000
▁monomeric
utions
▁immunosuppres
lactate
havioral
▁histochemistry
▁recurred
▁sulfated
▁colitis
▁pulsed
▁85%.
▁validated
▁vesicles
▁nore
▁debr
stab
▁fructose
▁dendrites
▁caro
▁catabol
▁visceral
istar
gestin
phosphonates
▁barb
sisted
pHi
▁diseased
ogenesis
arachid
▁(10%),
▁interdig
▁stabilize
▁infrequent
trient
▁clindamycin
▁ricin
▁chimer
▁13)
adic
gesterone
▁acupuncture
▁questionnai
▁Ultras
▁serotonergic
▁beclomethasone
▁forelimb
itriptyline
▁conformation
tracts
▁349
▁neuropeptide
▁GER
▁yiel
-17
▁degrad
qui
▁adenomas
umption
▁cyan
▁Physiol
▁gradi
▁gynecological
anide
▁Relative
▁1987
ervations
▁glomeruli
ocortical
▁donors
apine
▁reas
moking
cyclic
▁Outcome
▁sutures
▁inadequ
▁Mayo
▁sodium
▁systolic
▁elemental
▁prescribing
IH
Ti
▁8).
tradiol
▁lysate
jected
▁mell
EI
▁transp
▁uncl
ovascular
▁3.5
▁preliminary
▁osteoarth
▁manipulation
ipitation
▁purification
▁drastically
9%
▁85%,
▁40,000
odeoxyuridine
hydro
▁secreting
▁physici
▁0.58
▁HUV
▁spirometric
otrophs
▁430
▁(84
vular
▁porcine
subunit
ituitaries
▁minus
▁alkyl
▁49%
overed
▁denervation
infused
.3%,
-/
▁Diabetes
▁skeleton
▁ICAM
00)
▁56
▁histories
▁embolism
hyde
7,000
▁specifying
▁incontin
jury
adykinin
▁46,
▁trichloroacetic
▁chemoattrac
▁Analyses
▁serially
▁enterotoxin
otoxic
▁dimer
▁phosphatid
uvate
unsaturated
ticle
▁42,
▁metabolized
ponin
Asn
opharm
ibenz
▁randomized
▁PMS
▁smear
30)
▁asparagine
▁Ear
▁maturity
sizing
▁recom
▁phenotyp
▁suppressive
▁pacemaker
ostal
▁aspartic
▁(80
.4%
▁rho
▁quadriceps
▁sickle
▁trypsin
▁hypoglyc
osoma
▁dischar
cholic
0.5
rati
namic
▁rectum
dial
▁nadi
▁ambul
formin
▁osteocalcin
▁degranulation
▁disposal
▁jejunum
▁radionuclide
+,
▁estrogenic
acial
▁viability
▁mucous
▁66
▁8.8
▁phosphate
▁slices
▁Cardiac
▁elastin
▁Immun
▁86%,
▁20
vedilol
▁carotid
▁angiogram
▁transduc
▁mutagenic
trip
▁10.0
▁DEAE
▁0.48
▁100,
▁secretagogues
▁amenorrhea
▁immunity
oxygen
▁HL
▁(25
▁Addition
fected
▁intest
▁hipp
▁0.78
▁inoc
▁adul
rocal
ectomized
▁submuc
▁mU
▁psittaci
▁polyclonal
+/-
▁yohimbine
▁noncom
:2
exponential
rostaglandin
weeks
tality
▁oxy
▁satisfactorily
otrophic
aind
cellulose
scopy
▁(26
▁topoisomerase
▁DSM
▁acr
inhibition
-198
▁carin
omyelitis
▁averaged
▁gly
▁55-
mia
apsulated
ecal
▁stimulating
▁gyr
▁-15
▁stretching
▁sufentanil
▁postoperatively
▁mitogens
▁hourly
▁Oral
welling
▁microtub
▁indeterminate
/9
udine
▁peroxisomal
odalton
antigen
ogenes
▁Injection
▁(0.3
▁Langerhans
▁lis
ishman
Rs
▁microscopic
▁Adding
▁exerted
oag
▁hexose
▁juvenile
hap
romyces
▁RPE
▁spro
▁transplants
▁indirectly
▁aided
▁referrals
▁homogeneous
▁incontinence
▁reinfection
▁Progesterone
▁aminoglyc
▁cereb
▁Cd
-40
▁caudate
▁590
-0.0
▁corpus
fat
▁apop
▁polymerase
▁stromal
alcoh
▁neonates
timum
▁stimulated
athered
▁CDP
emory
quid
▁LM
▁Lyt
▁vasodilator
▁infantile
oxicillin
▁Cox
▁buffering
▁11.4
▁101
biased
▁valproic
▁effec
▁traum
▁cephalexin
▁rhinovirus
▁(1.9
▁weaned
alanine
▁uncoupling
erox
thrombin
▁xylitol
injection
flurane
2]
▁endothelin
▁MNC
▁fathers
emetic
mented
▁20%,
▁2.5
ophag
▁phenylephrine
▁.2
▁vasculitis
▁restor
▁Leukotriene
infection
nRH
▁cesarean
fraction
▁Complications
000)
urrence
-37
▁culturing
▁scalp
▁Prolonged
-1.0
▁1.08
arental
xin
▁10(-2)
▁inorganic
omycin
▁solute
▁antidromic
▁stimul
oxim
brile
▁anoxia
▁nocturnal
▁opioids
ofol
▁decreas
▁000
subs
Gal
▁1---
emble
▁microcirc
biotin
▁pO
erican
▁nmol
alact
▁0.02
▁arousal
▁paroxysmal
accharide
20).
lymph
▁KB
▁autoregulation
▁axial
▁kidneys
▁passages
thrombotic
LV
▁divalent
▁amyl
▁posti
▁thiaz
▁intron
▁vimentin
plenic
▁hyperch
▁halved
.10
▁irradi
▁ganglia
▁reciprocal
▁illustrate
hips
▁gonadotropin
▁muM
▁Infusion
anum
▁muscarinic
▁vertigo
▁ligated
▁mansoni
ergide
▁innerv
onuclear
▁reacting
47
otoxins
azole
▁(3.8
weekly
▁programmes
▁depr
▁sorb
trimester
▁renal
ostom
▁neutrop
▁actu
tailed
▁amlodipine
▁oils
▁(30%)
▁immunochemical
▁68%
▁allergic
▁dopaminergic
▁grafts
▁104
▁assays
trac
▁ison
▁lesion
▁keratin
▁elicit
35)
▁mtDNA
▁misoprostol
needle
adrenal
▁unidentified
▁covalent
▁antihistamines
▁chromosome
▁doxazosin
▁cisapride
apid
▁pell
▁neurological
▁tolerant
DV
▁220
▁1.44
▁(10(-8)
regulated
▁17
▁judged
ocarcin
ervoir
piride
aryng
▁spontaneously
▁residue
▁nonselective
-1,2-
▁hyponatremia
▁enzymic
ionic
nisone
hypophy
▁ethanolamine
▁effusion
▁singleton
▁[14
▁Experim
▁68,
ocalcin
pharyngeal
▁anthrop
▁supplying
▁openings
▁transposon
▁Caps
resid
▁arthroscopy
blet
onance
▁esterase
▁reproducibility
phrag
▁differing
ofructokinase
▁HB
▁(0.0
MDA
▁leucine
▁labeling
▁chlorpromazine
osmolar
▁recurrent
▁reversible
▁encompass
tomized
Kyoto
Vmax
hea
pain
▁yielded
▁collateral
divided
▁anticancer
▁polyadenylation
▁schizophrenic
▁308
▁disper
▁Staphylococcus
▁blotting
▁0.14
▁Arter
▁lacto
▁LTP
▁resusc
▁Isolated
oneu
▁polypeptides
▁suscepti
▁moiety
▁hexokinase
▁susceptible
▁resorption
▁stereospecific
▁endoc
▁incomplete
▁1969
▁7.2,
25).
▁312
acil
▁histone
125
ichloro
-80%
ergenic
▁(67%)
▁bifurc
▁oligosaccharide
affin
▁anis
0%)
thyl
▁hyperoxia
▁FF
▁radioiod
opha
▁anomalies
▁DHEA
▁anesthetics
▁Acid
▁birthweight
▁GABA
perfusion
dP
ogenicity
▁peritubular
▁assessing
HCV
▁FEV
▁lute
▁ultrastruc
▁0.8
▁diffus
▁diversion
exchange
ystolic
pation
opsy
restric
erally
▁Sera
▁multidrug
▁antigenic
▁(0.05
▁86
dle
▁inferred
▁senile
▁uterus
▁IA
▁isoform
imazole
GV
naud
▁negligible
▁titers
▁Rif
▁aeti
▁adrenoceptor
▁320
▁63
▁persisted
odynamic
-6)
ovir
▁elong
▁isoproterenol
▁Alterations
▁(0.2
▁Incorporation
▁polysomn
▁4.
20.
▁glioma
cephalus
▁67
▁bacteri
▁0.7
-2.
▁2-
▁minimally
▁seb
▁desm
▁denatured
▁179
▁spermatocytes
▁guanylate
▁roentgen
▁cis
▁upstream
inactivated
▁cisplatin
▁reversal
ygo
TPA
ofil
SDS
gthen
phragm
▁EH
▁stabilizing
toxic
endritic
▁supplemented
▁depres
▁Neu
▁anesthesia
urban
▁degradation
▁mutant
-1-
omorphine
neonatal
▁286
ardipine
▁integrin
pyrene
onomic
9/
3)
-3-
▁biosynthesis
▁vascul
▁HCT
osporin
▁myotubes
▁1.66
apo
▁persists
▁Hep
▁obstructions
▁300-
Ci
▁immersion
▁vap
▁discontinuous
▁congenital
▁glyc
▁pancreatic
▁ataxia
3,000
chl
icardial
▁imaging
▁transaminase
upus
plantable
▁Flu
▁Ib
▁conserved
quinone
▁anatomy
▁osteoarthritis
▁1.06
▁protocols
▁primate
▁ABP
▁polyoma
ventive
▁emergence
▁underestim
wann
▁7%)
▁Removal
▁vertebrates
▁catabolism
ropyl
thickness
▁malaise
(2-
▁correc
umulative
▁discontinu
▁GSH
▁primed
▁hydroxyp
erbB
VLDL
▁remod
ughter
▁mosaic
▁anticoagulation
surgery
rotic
▁harvested
150
▁AK
hypertensive
▁muscul
organisms
▁accumulated
▁induce
ammonium
▁quisqu
▁velocities
rophyll
▁intimal
▁hydrolyzed
▁cellulose
connec
cens
-3)
▁apolipoprotein
▁hypertrophic
▁IgM
▁corticosterone
▁cardiople
▁alkylation
▁122
▁biology
▁9%
omere
uble
ymic
▁proteases
attrac
▁confluent
▁(400
▁plotted
▁ramipril
gestrel
rene
▁connective
▁histologically
▁urokinase
▁RNAs
ropion
▁transmembrane
▁microenviron
EPs
▁Asi
tivities
▁implying
ulitis
maximal
▁impairs
▁fused
otent
NMR
▁peritonitis
phalan
rents
▁sorbitol
▁astro
bilities
▁plating
▁antioxidants
▁Effects
62
▁ingested
▁LTC
▁2-4
▁Capsaicin
▁recruitment
▁silica
PHA
▁degeneration
▁thrombo
▁Urine
▁repor
rological
▁intubation
established
▁glyburide
▁bilateral
▁generalized
▁synthase
▁hydrolytic
ylchol
▁rumen
▁uniquely
hydr
▁Tc
▁Systematic
▁4)
▁recr
▁thresholds
▁rhe
▁polyc
▁UDP
lug
▁fum
odialysis
▁SCN
▁reserpine
dG
▁practitioner
PCP
gA
mostly
▁irrespective
lline
▁pathological
encephalon
▁EPO
ilol
▁proportions
▁basilar
▁mesenchyme
▁1.10
oxal
▁pyel
23.
▁77%,
▁valves
▁26%
idin
▁dairy
ingers
▁specificities
6),
ocytoma
▁pancreas
glutamate
▁reti
▁abnormal
vicular
butyrate
▁mono
▁beats
perature
▁retrie
▁Plasmodium
oprotein
▁lactose
DG
▁antifungal
▁0.83
prac
▁questionnaire
31,
acyclin
spar
ialysis
pectively
▁genetically
▁precipitation
▁olig
assively
▁Injections
uvant
▁bioactive
▁leukemia
▁penetration
▁polymyxin
▁EG
▁chemically
▁catalyzed
▁0.98
▁starved
▁Ery
lact
▁urticaria
▁plotting
death
▁neuromuscular
essation
▁hyperlipidemia
▁5-
uppression
▁permitting
▁horiz
▁80%.
CSF
mL
lude
▁molecule
▁bradyc
▁axes
isol
▁preschool
▁inhibit
oclopramide
▁effic
▁amitriptyline
▁175
▁condyl
▁dissoci
anoids
anserin
▁benzoate
▁sput
ophore
58
▁ADCC
▁dna
▁Reas
51
▁nucleic
▁20.5
▁selective
MH
▁subjected
ophor
▁transitional
pituitary
▁tablets
-59
-8,
luent
lood
▁DBA
▁clearances
▁sino
ibrio
▁coughing
▁endothelial
reast
scop
iffusion
▁0.0001)
▁repolarization
endorphin
▁neuropath
natally
-6,
cation
00
▁Fib
▁Regarding
ulla
▁intraoperative
▁Clostr
▁RAR
clerosis
▁enflurane
adren
mole
▁artery
▁ileal
▁peroxidase
▁employe
choles
-88
charged
▁tectum
quam
▁mitogenic
clinical
olon
▁neurolep
▁85
▁57
▁pyloric
trations
▁MPA
▁somn
▁previ
▁mRNAs
▁carcinomas
▁2.3
▁95%)
▁pharmacy
oconstriction
xanthine
▁papilla
.8.
200
▁immunoassay
▁50%,
compart
▁phos
ipients
▁regimens
▁cytotoxicity
▁274
▁monit
▁Pn
▁intrac
▁extrahepatic
▁yeast
▁monoc
▁excluding
mineral
▁cyc
▁nonres
▁staphylococci
▁relapses
16-
▁Depending
▁physiotherapy
▁amputation
ranial
▁52%
hydrated
dered
▁intensities
SHR
▁headache
▁centrifug
562
entan
▁regen
▁miscar
▁30,
oresis
500
▁cessation
iferative
▁immunodiffusion
▁transcrip
▁239
▁nociceptive
▁recurrences
assi
▁sedative
fib
▁myel
cystic
▁Increases
▁130
▁micron
▁epidemic
serine
hybrid
volving
▁IRI
▁dehydrogenase
▁sugars
▁reflux
tension
▁AMI
pendicular
▁GGT
ignant
▁effusions
▁Ae
▁assessed
▁(77%)
uracil
ceramide
floxacin
▁postulated
TGF
▁mineralization
vate
▁nicotine
▁prescriptions
▁abl
▁scars
▁(8%)
▁microv
▁fibrinolytic
leucyl
▁buc
ocrin
▁Interestingly
arthritis
▁pea
▁silic
▁subpopulation
opterin
▁reliably
NSAID
▁HCO
▁hysterectomy
▁IBS
-30
folate
inemia
leural
▁fluoro
isters
tage
▁transmitter
▁alkalinization
▁adequately
▁myx
▁nip
▁Neph
▁fibrin
▁encomp
otassium
▁gangl
▁elucidate
▁modif
ntolamine
titut
▁ganglionic
▁cosmetic
phin
▁whey
▁causation
▁ana
ifugation
▁eccentric
opulation
▁osteoc
reported
▁hemorrhagic
▁Replacement
▁testis
siologic
electric
▁immunoglobulins
smoking
.5%
▁inhibits
▁76%
HIAA
▁secrete
▁sonographic
▁infectivity
▁denat
▁Chlamydia
carbox
▁accumulates
▁squamous
oronary
▁resec
▁swit
▁phle
▁Secretory
▁AMA
▁reside
▁diame
PRA
▁Histamine
▁midbrain
▁morbidity
▁tendon
ogeny
▁Severe
▁cereal
▁296
roximal
etine
ygous
▁lys
inhibitor
▁kDa
▁senes
.4
▁3-
flammatory
▁radiotherapy
▁amel
▁nephritis
▁anastomoses
▁Centers
▁ame
rehen
▁343
▁Extensive
▁aro
▁marrow
carb
HCO
orption
▁interleukin
▁oligonucleotide
▁endeav
▁calf
▁propor
▁accel
▁chemotactic
▁Cholesterol
tensity
sulfamethoxazole
robic
▁tubule
▁phosphates
▁Tris
esthetized
▁Rb
▁GMP
othi
▁erythropoietin
.1
▁noxious
▁Barrett
▁hos
lastoma
▁constitute
▁surfactant
▁distortion
SBP
▁phi
