▁needles
▁kidney
▁cancers
▁Retrospective
▁Medicare
▁peripheral
▁transplantation
▁vaccination
▁parotid
▁testis
▁appendectomy
▁metastasis
▁gestation
▁seizure
▁contamination
▁elevated
▁parity
▁tailored
▁generalized
▁dysfunction
▁urinary
▁Patient
▁inflammation
▁mucosa
▁malignant
▁pressures
▁bypass
▁deprivation
▁Compared
▁mediated
▁GERD
▁pathology
▁maternal
▁recurrence
▁predictive
▁Treatment
▁hazard
▁Median
▁lesions
▁asthma
▁respiratory
▁kHz
▁venous
▁suppression
▁radiotherapy
▁principals
▁gastrointestinal
▁fracture
▁Medicaid
▁ergocalciferol
statin
▁circumference
arthritis
▁carriers
▁complications
▁gluten
▁atrophy
▁anemia
▁cystectomy
▁longitudinal
▁pyloric
▁urine
▁musculoskeletal
▁scans
▁Statistical
▁fatigue
▁staging
▁hepatitis
▁leakage
▁HCMV
▁prognosis
thyroid
▁cardiac
▁categorized
▁tumors
▁surgeons
▁BP
▁atrial
▁receptor
▁gestational
▁hypoglycaemia
▁tumour
▁restenosis
▁ventricular
symptomatic
▁mmHg
▁lectures
▁arthritis
▁donors
▁pelvis
▁prevalence
▁fibrillation
▁cardiovascular
gastric
▁localized
▁vaginal
▁syringe
▁specimens
▁LOS
cystectomy
▁infants
▁unilateral
▁comorbidity
▁antigen
▁ischemic
▁headache
▁infarction
▁hemodialysis
▁concordance
▁fractures
▁prognostic
▁aureus
▁Scale
▁weighted
▁cycloplegic
▁renal
▁fellowships
▁VAS
▁imaging
▁progression
▁prostate
▁amputation
▁benign
▁ethnicity
▁histology
stenosis
▁secretion
▁scintigraphy
▁morphology
▁metastatic
▁reperfusion
▁gastric
▁diabetic
▁impaired
▁supervision
▁glucose
▁biopsy
▁menopausal
▁atresia
▁cohort
▁questionnaires
▁myocardial
▁transfusion
▁catheter
▁depressive
differentiated
cerebral
▁pancreas
▁mortality
▁appendicitis
▁neonatal
▁systolic
▁creatine
▁interventions
▁Clinical
▁clinics
▁laxity
▁aneurysm
▁scoliosis
▁postoperative
▁aorta
▁flexion
▁hemoglobin
▁cholecystectomy
▁bowel
▁LVH
▁aspiration
▁surgical
▁fentanyl
▁synovitis
creatine
▁dexamethasone
▁fetal
▁lesion
▁cues
▁antibiotics
▁uptake
▁residency
▁immunohistochemistry
▁resonance
▁thyroid
▁oxygenation
▁dissection
▁resistant
▁practitioner
▁statin
▁examinations
▁susceptibility
▁prosthesis
▁initiation
▁intensive
▁acupuncture
synovitis
▁questionnaire
▁radiographic
▁leukocyte
▁laparotomy
▁lymph
▁resection
▁limb
▁artery
▁graft
▁uncomplicated
▁cerebral
▁concentrations
▁therapists
▁staining
▁demographic
▁cervical
▁expectancy
▁decreased
▁decelerations
▁obese
▁sectional
▁squamous
▁pulmonary
▁residual
▁vascular
▁Patients
▁Depression
▁reflux
▁prospective
▁Cox
▁spinal
▁toxicity
▁perfusion
▁carotid
▁hypertensive
▁complication
▁invasive
▁demographics
▁insertion
▁severity
▁reviewer
▁tumours
▁hypertension
▁chemotherapy
▁inflammatory
▁hormone
▁necrosis
▁Questionnaire
▁caregivers
▁prophylactic
▁admissions
▁morbidity
▁GDM
▁carcinoma
▁neurological
▁ultrasound
▁onset
carcinoma
▁adverse
transplantation
▁evacuation
▁influenza
perfusion
▁Pathway
▁respondents
▁salvage
▁mutation
▁elective
toxicity
▁melanomas
▁rectal
▁enteral
▁thresholds
▁psychiatric
▁pancreatic
▁cortisol
▁adolescents
▁relapse
▁abnormal
▁pregnancies
▁postmortem
▁ICU
▁rupture
venous
▁anesthesia
▁ovarian
▁bilateral
▁airway
▁hypoxia
▁expenditures
▁binge
▁hCG
▁pneumonia
▁Significant
▁remission
▁prolonged
▁negatives
▁surgeon
▁metabolism
▁inhibin
▁stenosis
lateral
▁contralateral
▁symptom
▁percutaneous
▁adenocarcinoma
▁tomography
▁untreated
▁laboratories
▁tibial
▁ratios
▁colorectal
▁diagnoses
▁discharge
▁obesity
▁insulin
▁spontaneous
▁mmol
▁isolates
▁incidence
▁lateral
▁ischemia
▁pathologic
▁tertiary
▁hypothyroidism
▁physicians
▁differentiated
▁unchanged
▁angiography
▁stratified
▁intravenous
▁rheumatoid
▁hospitalization
▁multivariate
▁bronchiectasis
▁Doppler
▁myomas
▁inhibitors
▁PRISM
▁Emergency
▁endometrial
▁vitamin
▁HIE
▁serum
vascular
▁sodium
▁psychotic
▁ultrasonography
▁metastases
▁adjuvant
▁pelvic
▁plaque
▁impairment
▁ROP
▁paediatric
▁fixation
▁coronary
▁acute
▁arteries
▁therapeutic
▁saline
▁mellitus
▁radiographs
▁adjustment
▁aortic
▁socioeconomic
▁tumor
▁antibody
▁offspring
▁preoperative
▁laparoscopic
▁rats
▁TNF
rectal
▁hospitalized
▁referral
▁metformin
▁anticoagulation
▁biopsies
▁retrospective
▁nasal
▁Mosaic
▁substances
▁specificity
▁schizophrenia
▁axillary
▁abdominal
▁blinded
▁perioperative
▁subjective
▁intrauterine
▁infundibulum
▁symptomatic
▁migraine
▁occurrence
▁femoral
symptom
▁infusion
▁anatomic
▁patella
▁valve
▁PET
▁comprehension
▁fasting
▁endoscopic
▁placebo
▁arterial
▁molar
▁epinephrine
▁biochemical
▁regression
▁gland
▁splenectomy
▁palsy
▁antibiotic
▁deformity
▁hemorrhage
▁intraoperative
▁mice
ICU
▁recurrent
morbidity
▁cTnI
▁logistic
▁infections
▁ventilation
▁clinician
▁joints
menopausal
▁implantation
