adm
.00
▁glucagon
▁Increases
▁AIDS
▁heterozygous
▁mM
▁opi
100
▁(0.9
phosphate
MW
▁tubercle
▁weighing
infection
2]
ucl
▁63
mega
▁microscopy
▁Hear
▁chewing
▁surgical
▁-10
ellum
▁41%
cellular
▁nM
▁deficiency
▁myel
▁interv
▁scanning
▁hypot
▁commerc
▁Diagnostic
.3
▁equilibr
ruc
osid
roxy
▁methodology
adren
▁pathologic
▁71%
omial
virus
▁supra
▁fluids
▁anticholinergic
▁histological
orphin
▁inhibited
▁chromosomes
uresis
ucose
▁HSV
▁cytochrome
stro
▁preven
tained
▁condensed
▁5
▁IgA
▁uncommon
0.3
▁examinations
▁percutaneous
▁cisplatin
hydroxy
acetic
▁(1.9
pH
▁Optimal
▁clu
▁Haemophilus
erence
monary
▁paired
enicillin
▁aspec
▁125
treated
cribed
▁derm
icine
dies
▁cytology
▁(2.5
dial
▁ovulation
35
▁RA
independent
smokers
▁provid
erican
anding
▁favored
▁shorten
athione
ostomy
▁0.76
▁swit
▁smear
▁arrhythmias
idase
vul
▁syncope
▁95%
▁intraven
olones
▁70.
▁24%
▁CRF
otides
sively
▁splen
ivary
▁discontinuation
▁supr
120
/4
OA
▁0.2%
ducing
keletal
onegative
▁0.0
▁electroly
▁serotonin
▁monkeys
▁suggestive
▁89
▁exten
plen
onephritis
cancer
▁challen
▁deple
▁influenz
▁disulf
▁chor
▁73
▁unexplained
▁39
▁lowers
27
▁focal
ulatory
▁adul
ophageal
▁interf
▁rhabdomy
▁potentiated
obenz
tensives
IFN
cyst
opsy
▁Swed
▁detectable
▁daytime
▁3.5
▁angiotensin
▁peritoneal
▁efficac
opril
▁hematologic
19
▁interventions
▁hydrogen
heum
▁PGE
itrate
▁resec
▁accounted
cholesterol
osome
▁implic
ancomycin
lobin
mittent
▁genome
▁0.000
ophag
▁tric
amate
ologic
▁immature
▁spacer
onide
▁arteriosus
astric
▁5%
▁coli
tory
▁circulatory
▁depr
tabol
opause
▁resto
▁malignant
▁spinal
▁13.3
▁enriched
▁HbA
▁uncontrolled
▁quin
▁TGF
▁68
▁preferen
utyr
▁vasopressin
▁qualitative
▁(8%)
▁oxidase
▁hypog
▁Beta
▁flora
▁glomerul
▁resis
otox
▁hypothalamus
▁wean
▁clones
rays
risk
▁contractions
urons
jun
▁norepinephrine
▁TNF
▁PCR
▁valu
ginine
▁sensitivities
tophan
▁duoden
oxicillin
thrombotic
▁GTP
▁ferrous
▁anticoagulant
triglycer
▁benign
▁euth
▁Trial
▁modulation
▁targeting
▁[14
▁NMDA
-72
▁(500
7,000
▁lidocaine
ophilic
▁arous
▁coh
▁menopause
elan
▁Thir
▁lec
▁lectin
▁histopath
LV
▁coenzyme
▁expon
-7)
ayers
▁131
▁0.17
▁kb
cAMP
ropath
▁tertiary
▁Neuro
▁atenolol
idation
▁clot
itin
itriptyline
▁implicated
teroids
▁pellets
yx
▁verapamil
▁FEV
encephal
▁cancers
▁shor
yses
ignific
-40
▁adequ
olesterolemic
▁glutamic
tivities
▁anticoag
▁nonresponders
istal
▁0.05)
▁93%
▁renal
▁ratios
8-
▁ANP
▁0.45
▁esters
azepine
Bs
▁fibrob
teral
onomic
▁withdrawn
ortal
▁tibia
▁Americ
▁50%,
▁hospitalized
lude
ypical
▁100,000
opathological
▁Acad
tiveness
▁chol
▁40,
▁BV
▁Benz
▁0.1,
ocarcinoma
▁(46
tyl
▁8.3
▁propensity
▁gonorrh
▁pep
kinin
nine
▁degrad
onstric
▁bronchodilator
▁stepwise
eration
▁carcinomas
onset
▁5.4
▁caffeine
▁(+/-
▁percentile
▁euthyroid
renal
▁0.5%
▁sequenced
▁defic
▁12,
pharose
odon
ymp
acrylamide
farction
▁expectancy
▁alanine
▁elicits
ogenic
▁Evidence
▁9.9
▁12.0
▁EEG
0%)
roin
37
▁10.7
▁arachid
odil
omiting
▁superficial
NH
-25
ocarcin
-13
ypro
▁precursors
ocin
▁conges
-100%
▁extrac
▁uro
▁forsk
▁acids
▁CDC
▁reversal
cus
▁amiloride
▁nucleotide
inj
▁0.50
dose
▁121
▁reacted
5-
▁esophagus
tetr
effec
5,
▁lute
▁folate
acetate
▁80%.
▁biop
ositi
osomal
osamine
▁181
9.
89
8,
▁phospholip
77
lies
athiop
lasts
▁ligation
▁modestly
▁Estrogen
trate
▁Positive
▁persistently
▁(62
eces
7).
▁quantif
▁intramuscular
▁9,
phyl
▁cate
▁[125
acrine
lobulin
▁deform
ifed
▁recor
openia
▁56
tives
▁abdominal
▁binds
▁Cd
▁cG
▁inhibiting
▁melanoma
▁Investig
▁sti
▁Insulin
ffeine
▁maternal
ophila
▁ADA
▁arose
▁homologous
▁coag
erving
▁mammary
▁fasting
▁(67%)
▁plasm
ocytic
▁menopausal
▁ulnar
▁Previous
izine
▁microsomal
▁interferon
scop
▁37%
▁fetuses
▁dexamethasone
tingu
▁nondiabetic
.8%
▁Bac
▁digestion
▁depres
-1000
entan
oscop
▁10%,
ermal
▁spasm
▁acros
▁(3
▁21
ceptive
embrane
▁alteration
▁benzodiazepines
▁tomography
controlled
▁doses
▁detecting
▁postnatal
amphen
robial
▁101
29
▁susceptible
▁diastolic
▁radiograph
ASA
tracted
associated
▁optic
▁peroxidase
▁VV
-50
tence
▁PMN
▁gluten
▁16,
▁62
tized
▁comparisons
▁250
▁perforation
▁esophag
▁22%
▁nonselective
roxim
▁cerv
▁messen
▁interpretations
▁membrane
▁SHR
▁maturation
▁supple
▁arrhy
450
▁133
▁postural
ethyl
▁synthetase
-2
▁determinant
▁encompass
0.
▁(50%
▁Chronic
▁microbi
7;
▁600
▁persisting
▁sequential
▁kinetic
esic
▁differed
▁18,
▁LPS
▁recons
▁leukocytes
▁neurologic
tures
▁CRP
Tc
▁resear
earance
▁exaggerated
▁1:
vity
▁confers
▁80-
▁voluntary
viron
▁radiotherapy
▁pharmacy
▁modif
▁BALB
▁infusions
4.
▁1%
3;
rophob
tel
▁regulating
▁muta
▁12%
disciplinary
▁disapp
thmic
-450
ovis
electro
▁8.6
▁aqueous
4%)
invasive
▁myocardium
threatening
▁verbal
▁excre
mortem
▁manifestations
▁Km
▁conditioning
▁0.03
▁admissions
▁splenectomy
▁vomiting
▁PKC
tents
alanine
iplinary
▁dosage
▁cys
▁perfor
▁endoscop
▁attenuated
porting
uminal
stim
▁electrocardi
▁(2),
▁5-
▁2%
▁lutein
-3,
tro
.4
▁titrated
▁goiter
▁72%
antial
▁unclear
omycin
▁proportional
96
▁sial
affinity
▁lactate
▁tended
▁subf
utable
▁perinatal
▁follicular
▁34
▁73%
▁PV
▁lacks
intensity
▁genital
▁inges
▁emphasized
▁dihyd
▁17-
rocy
▁classify
▁kDa
stin
bular
istar
roma
▁spon
▁hypothesize
▁7.2
tural
1%)
titute
0%.
▁(15%)
▁saline
▁128
thre
arrh
▁coagulation
▁0.99
-17
▁protec
▁enrol
anking
tually
inopril
▁infarct
▁(10(
dehyde
▁cardi
▁0.10
thick
▁polypeptide
33
▁perfusion
▁adequately
▁predicting
▁referral
▁lor
▁compart
▁cirrhosis
trition
▁proteins
▁endothelial
▁propionate
▁evid
▁(4%)
▁Ninety
-1.
▁carbam
▁6.9
▁117
erated
ifferen
▁quanti
▁78%
▁eluc
▁54
ovastatin
▁Mortality
unced
▁atopic
iplin
▁dermal
eprazole
ipro
▁ingestion
▁amin
98
ithelial
fected
vular
▁neuron
mol
jac
ophren
yrib
lycerol
oprotein
▁duct
▁pressures
sors
▁incubation
▁glucocorticoids
▁simult
▁excision
▁competence
▁indus
▁nonpregnant
dil
▁6
mentation
topril
▁157
▁lymphoid
▁epinephrine
▁Lymph
potassium
rosemide
▁retrospective
▁celiac
▁kinases
inally
(2+
▁complexes
▁couns
0.0
▁antid
thyroid
▁nutritional
oag
siologic
assay
oactive
▁lamb
▁undergo
▁340
thymidine
▁masked
▁helical
▁trimester
irubin
-5)
otent
thase
dia
▁mellitus
▁prolif
▁RNA
aric
thi
10-
tism
▁stres
kely
▁ELISA
▁thym
-4-
▁25%
▁3.3
▁toge
▁(31
▁transverse
▁hypertrophy
sistent
▁hepar
-6,
▁exud
hene
ilin
ulant
▁cann
HB
▁innerv
▁epidemi
▁respiratory
▁aortic
▁Progesterone
▁(47
▁bovine
tivity
▁0.3
tec
▁readings
▁glycer
glyc
▁categorized
tioned
orbol
adication
▁peroxide
▁Patient
▁(11
10,
otyp
▁4).
▁3'
▁substitution
▁guinea
▁elec
▁154
▁amputation
▁pituitary
ardia
▁Whereas
▁Initi
glutinin
▁conduc
▁perit
achial
ureth
▁modalities
▁LV
▁estradiol
▁recurrent
monstr
▁symptomatic
▁granul
ocysteine
▁supernat
lytic
▁IB
▁Lipid
▁pec
▁Compared
▁reproduc
▁responsive
▁uniquely
▁adjustment
▁microgram
gression
▁dex
▁1/
▁uptake
arachnoid
▁radiography
▁156
▁addi
▁activator
▁Prel
▁8%
▁tubular
▁psoriatic
cad
entricular
4]
romes
esthe
▁granulomas
▁cortex
▁suppressive
ectom
▁calcium
▁4.5
Cer
derived
▁circulating
assi
4)
hospital
moking
▁74%
tif
▁grading
▁fulfilled
/7
2).
tors
▁13-
roscop
▁Epid
▁cytosol
2-
▁rup
▁9.5
▁pts
tub
▁[3
entif
▁discriminate
▁encoun
▁hippocamp
AFP
▁uniformly
▁anesthesia
tation
▁contracep
ycin
rox
▁11.
timulus
▁conformational
▁0.60
▁asymmetric
▁hyperch
▁foc
molec
▁nephropathy
throm
onas
onuclear
▁eosin
▁gluc
releasing
▁transferrin
ococcal
▁analysed
▁EI
16
▁autoantibody
▁PEG
▁151
onit
▁mitochondria
ymme
▁cAMP
▁ect
▁bac
▁phenotype
oprim
▁titers
pine
ulph
▁Reduction
▁phosphatase
▁0.95
▁lymphadenopathy
▁antiserum
▁20-
▁antim
Pa
▁10.5
▁Sulf
1.
▁dilatation
▁caud
▁kidne
▁(1),
ditions
▁4000
▁4%
estions
directed
▁exhibiting
▁bacterial
▁elu
▁triglyceride
▁regulated
▁cutoff
amines
▁discontinu
▁unil
▁78
▁posi
ochrome
▁EGF
▁diame
lyc
▁166
.8
▁implantation
▁influenza
amn
▁0.5,
▁aspiration
hers
ropathy
▁preceding
stress
yel
▁shedding
▁febrile
▁gum
▁5.7
▁sucrose
▁4.9
▁clearance
▁establ
▁echocardi
▁atrophy
▁surveyed
125
8;
▁morb
namic
aline
▁LC
odiaz
▁microns
▁reduc
▁TI
▁Highly
tization
esophageal
▁oxy
▁142
▁coordination
tizing
▁7.
▁conjunction
▁abnormally
▁frac
▁transloc
salt
ycline
▁evaluating
▁compositions
-5-
▁fibrillation
▁(84
-4
tens
expressed
▁slowing
▁ligands
▁8.8
▁BCG
ologous
▁demonstrable
ausea
▁thymidine
0%,
ults
▁poisoning
▁203
▁intensive
▁99%
/18
▁preserving
36
Phe
▁multim
eptidase
▁1-
piratory
ffec
▁superiority
▁discomfort
86
ophylline
vival
▁entero
onidine
▁SPL
▁(60%)
▁chemot
▁50,000
rected
oxone
▁predictor
▁analges
▁SEM
▁progen
erating
tidine
▁subgroups
▁Feeding
▁supplemented
▁antic
▁neoplasia
▁discrimin
urrence
14,
▁compe
▁atheros
40
▁sperm
1).
6),
▁thyroid
diagnosed
▁IU
/1
▁endarterectomy
▁acet
▁phorbol
gthen
▁(76
▁inversely
▁Hypertension
▁0.42
▁controver
▁underestimated
▁prescrib
ylated
▁biosynthe
sible
▁immun
00,
▁neurons
aryng
▁summ
▁Escherichia
olerance
osclerosis
▁uv
hydration
.0)
gestin
▁71
▁nucleus
▁ablation
▁objec
▁80%
phosphor
▁24-
-2,
▁graded
▁appendic
▁yiel
▁inactivated
▁Doppler
▁amo
▁cis
▁caloric
▁RAS
▁0.23
ergency
▁immunode
▁predic
▁reliability
ventricular
▁assessed
▁progression
rowth
▁kinetics
inase
▁arth
uscular
oporosis
tase
pregnant
atectomy
▁vesicles
ococcus
▁Binding
1),
83
thirds
▁clinics
▁systemic
▁leakage
azone
otoxicity
▁synaptic
▁studi
▁extensor
▁abl
▁hemorrhagic
-18
tively
▁suppression
▁fractional
▁endometrial
▁lamin
▁6.6
▁proce
pecies
▁(49
esium
odop
▁complication
-9
▁nicot
5%
vely
mobil
▁thrombin
▁fluoxetine
▁bilirubin
▁350
▁Replacement
▁8.2
▁incid
▁(33
▁ATP
10.
▁corne
▁uncom
▁prednis
▁14
EG
herence
inositol
comitant
▁reductase
▁lact
▁subgroup
▁suppressor
.4%
▁postprandial
▁immunoblot
reast
▁sedative
ctomy
coronary
▁inguinal
▁hered
oreceptor
▁polym
▁excretory
▁carbohydrates
▁194
▁judged
▁20.
2+-
▁hypothyroidism
oprol
ococci
▁91
53
▁mitochondr
▁bile
▁herpes
▁extre
▁polyp
▁reticulocyte
6%
uled
▁hematuria
▁warfarin
▁51%
▁benzodiazepine
▁ovaries
▁impairment
3/
▁wee
▁dysfunction
▁membran
aturated
ocardial
pation
acil
▁yeast
▁cysteine
▁0.01),
▁azathioprine
▁blocker
▁mono
osition
overed
▁augmented
▁10
▁42%
iotics
▁Sixty
▁infusion
▁retic
▁amoxicillin
sied
▁brady
▁angi
▁thems
▁airway
.2%
tering
establ
cepti
▁graf
▁influx
▁(40
xyl
▁phosphor
▁specimens
▁emulsion
▁hippocampal
raine
▁effusion
divid
traumatic
▁glycol
▁11.2
▁blockade
▁benzyl
apeutic
lox
▁vasoconstric
▁reversible
stimulated
▁furosemide
kground
▁attributable
▁10.8
atrial
▁0.20
▁mammalian
▁1.9
iatum
etal
▁57%
▁ach
▁differe
▁vasodil
▁chamb
▁LN
dered
▁phleb
teric
▁(16
treatment
▁recombinant
▁tib
oluble
tia
▁CI
▁yielded
▁Transient
▁micrograms
▁cla
▁examining
▁hygiene
toc
▁mitral
▁paren
▁Caucasian
▁118
▁Vitamin
acin
toxic
▁glycosylated
▁neonatal
▁regurgitation
▁carboxyl
▁scans
▁subunits
▁bene
▁stained
scher
▁chorionic
▁TS
▁succin
▁Retrospective
ffinity
▁Golgi
▁hepat
▁plaques
▁17%
▁cytoch
▁0.8
▁tryp
▁fati
▁75
osyl
▁stric
▁infarctions
rogesterone
▁infectious
.0,
▁suppres
▁advan
▁myelin
▁vacu
▁aerobic
▁indi
quine
▁contrib
▁(150
▁Significantly
▁exag
ifugation
linking
▁colos
▁mening
lated
vaccin
tance
plants
▁chronically
tration
▁183
▁fibrosis
planted
▁adenosine
insulin
▁levodopa
exercise
-100
▁resol
▁167
▁tolerability
▁definite
▁embryos
▁HLA
▁axon
▁(1.6
▁maneu
▁synap
▁(27
▁83
azol
olesterol
▁facilit
tumor
▁193
trover
▁therapeutic
56
▁Chan
isolated
ritin
▁lyso
motic
▁1960
▁deoxyrib
▁hormonal
▁reflecting
▁breaths
▁reversing
▁20%
▁glycemic
▁vaccination
plate
otoxin
▁depolarization
▁20
▁herni
▁preoperative
▁longitudinal
▁hypoth
▁superf
▁LT
▁91%
lasses
▁dele
▁ulcer
▁(5
duce
▁blinded
▁schedules
loro
etan
▁ana
▁worsened
▁pharmacologic
Rs
tigo
▁107
reasing
▁epidermal
▁plateau
▁hydrophilic
▁canc
▁mug
▁NF
quit
▁modeled
▁endometrium
▁exacerb
▁perox
▁inflamm
athy
▁unaffected
▁9%
▁crom
▁increments
▁CTL
agin
▁17
▁homogene
▁inser
▁pneumonia
iminary
▁incision
flamm
▁ultras
▁prolactin
▁49%
ortic
reatine
▁(94
otone
meth
ectomized
▁HB
▁Respiratory
▁1,
▁cathe
▁NADP
▁polymer
retic
▁insignificant
▁clonidine
ionate
▁natri
▁saturated
▁pyrid
▁conduction
▁ionic
▁angina
▁isolates
▁mononuclear
▁severity
▁11.0
▁0.12
▁33%
▁Pneum
▁valpro
▁1.00
erance
RH
otypes
lyce
▁SDS
ogenetic
▁ureter
▁progressed
▁cerebellar
▁rhin
▁24
▁efflux
-52
▁visualization
▁salbutamol
▁GnRH
▁hep
▁subjective
▁latent
▁intracerebral
▁(79
alian
▁36
▁Ig
▁poorer
▁trypsin
▁perip
▁5'-
tency
▁constituted
▁15.
▁glut
▁70-
▁predisposition
▁glucocortic
atally
▁cyto
▁afferents
ostatic
▁microorganisms
▁Screening
▁Evaluation
▁sulph
▁subjec
sensitive
)],
▁paroxysmal
partic
rophy
▁bipolar
weighted
▁docum
▁2.7
fal
12
▁inhibit
usp
tructural
▁retin
▁dissemin
▁(8
▁tumor
▁interacted
-7
omatic
▁6,
44
tryp
▁(3)
▁hypotonic
▁physici
▁efficacious
▁intest
▁Risk
mur
▁elong
▁polypeptides
▁monkey
tries
otrexate
oneph
▁modifying
▁ranitidine
▁crude
▁curric
MN
▁20,
68
▁vein
ophys
aminase
▁decreased
▁chloramphenicol
▁homogenates
▁PTH
%),
▁0.11
▁prophylaxis
▁ofloxacin
▁nonsignificant
leuk
▁solitary
/24
feron
▁CAD
▁acces
▁hams
▁bacteremia
▁tumors
▁illnesses
vaccinated
▁dosages
▁0.1
nucle
LR
▁-1
▁0.07
▁neurogenic
ardias
▁thyro
opamine
lact
immune
▁metastases
histamine
ressing
▁benz
▁epilepsy
tisone
▁durations
trates
▁spor
▁capsaicin
cemic
▁(1.2
ionic
vivors
▁substances
▁macrophage
▁derange
onary
▁recom
▁59
clo
vastatin
▁glycoproteins
▁orally
/6
enters
ogl
▁hereditary
▁20%,
micro
gA
▁Abnormal
▁cardiac
▁quantitatively
▁defects
▁0.34
sA
▁mutation
▁prescribing
▁sarc
▁5.2
▁acetic
▁gradual
▁transmitted
▁0.56
▁neutrophils
▁genotypes
▁152
unctional
▁158
▁parental
▁chlamydial
▁pooled
▁doubled
tran
tage
trac
semin
▁intraper
tability
▁carp
tations
ometh
▁sple
mL
▁serological
▁Depending
lycer
▁cytos
turally
▁undere
▁PAF
▁diarrh
▁lipids
▁myc
2%
▁concurrent
mediately
▁0.58
▁testicular
▁membranes
disc
.5%
osus
▁pylori
▁90.
▁intravenous
tant
▁immunotherapy
▁hemorrh
▁deterior
▁Acet
▁124
sion
▁yr
▁sickness
ranolol
▁produc
▁hydrox
▁noradrenaline
▁slices
▁nylon
▁residual
▁10(-5)
▁localization
7,
▁(23
▁cholest
▁glycos
SAID
tam
▁immuno
otting
agonists
▁resul
▁56%
ipid
▁5.6
▁84
▁horiz
▁pulses
▁intraepithelial
▁Oral
▁5%,
▁spleens
mature
▁(38
▁HI
myc
▁mice
▁puncture
▁26
ecyl
acids
54
anin
gesterone
▁cation
.2
▁pyruvate
▁repro
▁retina
38
tality
▁52
▁hazard
piration
▁infertile
▁glucocorticoid
300
▁(44
▁sorbitol
▁promptly
▁Measure
ocor
oracic
▁Injection
apine
▁obesity
▁replic
▁cleavage
▁grouped
derly
▁LDL
ventilation
▁oss
▁limb
▁symptom
▁perin
▁wt
▁bronchitis
▁Hg
▁biosynthesis
▁phosphorylated
▁deterioration
▁stimul
▁0%
▁Extensive
▁cutaneous
▁recurred
▁(4-
▁psychomotor
▁difficul
▁115
▁specificities
▁sorb
▁asymme
8)
▁11.8
▁astro
▁secretion
-65
cyclic
▁0.78
▁presentations
▁MHC
▁dermat
itamin
phor
▁occurrence
▁nasal
▁Calcium
▁assayed
▁15%
▁parox
eeding
▁congenital
(2
50
trical
▁staining
▁fertile
▁depressive
4),
▁inhal
helium
yrid
bral
▁cic
tical
▁progn
▁radioactivity
▁0.75
▁0.55
▁Leuk
atical
▁0.3%
adiol
fir
▁Prospective
▁termination
11
▁degeneration
actam
thym
duction
5.
rein
▁2.6
▁immunoprec
▁100-
owel
ubation
▁ventral
ogenous
▁uterine
▁30%,
▁alveolar
▁8.0
turb
▁40%.
▁cerebral
ysts
▁antipsych
▁tumour
▁consecu
▁methodological
ochrom
▁distrib
▁ultr
tebral
▁histamine
▁respir
▁averaging
otoxic
▁actin
illar
▁intravenously
▁cereb
▁neurolep
gm
▁epitopes
▁6%
▁allergy
erents
gia
▁cyclic
iability
▁gp
ervations
fat
▁spikes
▁regimens
▁Lact
▁ultrasonography
▁bromocriptine
osts
phosphamide
phosph
▁intram
coh
▁cyclase
▁congestion
partate
stimulating
oprote
▁microscopic
drug
▁subsets
▁lithium
generation
▁rabbit
6,
▁pathways
▁bradycardia
▁untrained
▁prospective
▁antidepress
erate
avail
erge
▁equivalents
alact
blood
PSP
▁hyperthyroidism
▁(4)
ogeneic
▁hydrolysis
sies
▁94
-1-
▁60-
oxyl
▁3-
▁fetus
▁esophagitis
84
▁terat
▁cellular
▁12
▁noc
▁differentiation
ocyte
roat
▁tolerate
▁74
▁recruited
▁occupational
▁14-
ocl
▁abstinence
▁(1.5
▁coval
▁thyroiditis
acet
▁trig
▁77
3.
▁(50%)
ometri
'-
▁aerosol
▁cured
pirone
lipid
▁inherent
▁195
oxid
orin
intestinal
▁jejun
tative
gluc
▁amitriptyline
▁unselected
organic
2)
▁0.2,
▁CG
▁gynec
▁38
51
fusion
▁sph
tions
ophore
bility
▁subc
ocytosis
▁-5
ithm
▁potentials
epines
▁carc
▁weighted
▁preexisting
▁99
ellar
▁pla
idating
timulation
▁compares
▁incom
ospor
▁nonsteroidal
▁uncomplicated
▁Estim
▁800
▁abundant
venty
▁renin
▁extracorporeal
▁anomaly
▁angiography
▁colitis
▁ganglion
achnoid
▁twofold
onor
PCR
▁irritation
administered
▁alp
reases
▁instrumented
▁incontinence
▁50
▁induc
nai
322
mokers
▁radiolab
▁antisera
▁pancreatic
▁steroid
▁fibroblast
▁66%
▁pneumococcal
▁ciprofloxacin
▁reinforcement
▁dietary
▁104
▁61%
poor
▁possi
▁articular
▁CSF
atine
tron
ipit
greater
▁septal
ophy
▁stimulants
▁identifiable
9),
▁exploratory
▁(1.3
▁inversion
▁adhered
▁0.46
▁106
phal
umably
▁Hyper
▁anat
▁myosin
-20%
ariate
glycerol
▁Kd
transferase
40)
▁270
omotor
▁110
ietic
▁resemb
within
▁chromat
▁insuff
▁134
▁ACh
testinal
▁discharged
▁dilution
▁3000
ophilus
parathyroid
▁attenuation
▁protease
inic
▁chloride
▁CCK
9%)
▁endoc
400
▁1.25
rene
-[
▁assemb
▁Symptom
0.8
▁quantitative
yste
▁histology
▁unilateral
▁97
▁ascorbic
▁cephal
▁latency
clinical
▁lumen
henyl
ongest
Cs
▁percentages
▁glyc
▁peptides
▁ischemic
-22
oconstric
etoprotein
▁brainstem
ocyt
▁diffuse
▁Immun
▁Epidemi
early
▁quantit
chlorothiazide
▁asthma
▁techniqu
▁calf
▁repor
▁minus
asses
▁Increas
spective
urin
▁spectro
othi
▁metabol
▁aureus
grees
ecal
ocellular
ureus
atural
▁creatine
ophysical
▁122
▁55%
▁antidepressant
▁(90%)
▁acqui
▁linearly
▁selectively
▁onc
▁arthritis
▁allele
/3
▁6.
pain
tus
merc
▁13%
▁microM
▁ethyl
▁aggregation
▁intolerance
▁musc
▁Combin
▁autoantibodies
▁satisfactorily
▁neuropathy
▁encephalopathy
▁Likewise
▁bladders
▁postoperative
urrent
▁(9%)
▁70%
0,
▁VP
▁obstructive
kage
▁Regarding
▁ank
▁9.7
▁ligand
▁186
perature
▁favorably
▁thrombocyt
▁ethanol
ositol
▁(0.0
▁mRNA
▁persisted
▁testis
94
▁tryptophan
▁struc
▁spontaneous
▁chlor
Nase
▁0.26
▁sten
▁Angiotensin
200
iversity
adrenaline
▁carbohydrate
-24
▁(250
▁nuclei
▁0.24
▁revascular
▁isoniazid
tero
▁placental
▁119
feeding
▁jaund
otin
▁teratogenic
▁subclinical
34
▁substanti
▁atypical
bodies
havi
▁intran
▁40%,
▁CABG
uran
▁immunofluores
IU
▁CIN
▁terminus
▁discontinued
GH
ocar
opi
▁juven
▁transplant
ominant
orepinephrine
12-
idis
▁psychiatric
▁42
atab
▁evoked
adders
▁counseling
▁eccentric
▁12.5
▁vitro
gth
▁2.5-
▁polysaccharide
estis
▁0.38
▁28
trop
▁tes
▁expec
▁100%
▁elective
▁acutely
▁virtu
▁persis
▁pate
tility
tur
▁81
certain
▁nasopharyngeal
vac
▁1.
eclamp
▁oes
imentation
▁secretagogues
truc
▁neurological
erver
.9%)
,000
ampl
▁hybridization
▁deletion
▁inh
▁172
▁effector
▁4-5
▁postmenopausal
▁alk
▁105
-8
otre
▁cyc
▁ulcers
▁simultaneous
▁0.05),
▁Relative
urgery
yridine
inephrine
▁keratin
olig
▁Subsequent
▁(0.5
▁cyan
▁opioids
▁anatomic
▁GABA
ymptomatic
opha
selective
3)
▁147
▁90
onate
32
▁occlusion
▁glutamate
▁inhibitor
▁132
operative
▁succes
▁20,000
onucle
irc
lux
▁antagon
▁pancre
significant
▁deox
ticular
▁somat
▁86%
imin
▁sequentially
8%)
wk
inflammatory
yroxine
adily
oresis
▁solub
▁116
▁carbonic
ensitivity
2/
▁cyclo
etence
▁MRSA
1,
▁Chlamydia
▁biliary
▁testosterone
▁82%
▁estrogens
▁lith
▁TRH
oplasty
▁140
▁manifested
▁hairy
▁HS
▁assessments
tein
rosine
ported
median
▁erythema
iasis
▁Myc
▁adjus
oagulation
▁erythrocyte
▁kine
opr
blind
atitis
tate
ogra
▁soy
▁elevate
▁chloro
kelihood
▁audi
▁Preliminary
▁1987
enil
▁fibr
▁vaginal
▁gamma
▁strom
arate
▁ascertain
notic
▁concomitant
▁sampl
▁gestational
▁psychosocial
▁acute
▁palsy
▁transcrip
▁PGA
osacral
▁(13
▁heavi
adone
icin
▁relaxant
▁subdural
▁identi
▁fibroblasts
crimin
thma
▁microvascular
▁(198
utaneous
▁Ib
hion
▁nmol
▁postpartum
▁NK
▁previ
▁apnea
oxin
▁radioimmuno
▁biopsies
▁responsiveness
.0%
.7%
kele
▁experimentally
azepam
ayed
▁normotensive
atoid
0)
▁biphasic
▁beha
▁1.5%
ths
▁dyspnea
▁1.5
atosis
▁homology
▁heavier
lac
▁currents
▁vesic
troph
▁(0.
▁differentiate
▁arteri
▁transcriptional
▁progesterone
chid
▁restor
bacco
▁mucosal
▁thre
concentration
oretic
cis
▁trac
sorption
rele
hyd
▁inflammation
▁standardized
▁0.29
▁oocytes
▁46
anat
▁Consequently
▁ovarian
25,
▁digoxin
8]
rofen
▁carbamazepine
▁instruc
vents
▁vitamin
▁(2)
▁molec
81
▁accumulated
ticle
7),
▁traumatic
▁direc
▁investigators
idated
▁compartments
▁ICU
61
▁ferritin
3,
▁colonization
▁(17
▁3).
▁elastic
▁therapies
64
▁embolism
▁blin
▁induces
▁immunohist
subunit
▁monit
▁necrotizing
▁osteoarthritis
▁0.80
geal
▁mEq
▁proteolytic
valence
▁ANF
▁hydrochloride
▁uteri
cence
plas
minal
▁increas
/20
aturity
onatal
▁erythrocytes
▁intermittent
▁transaminase
▁2.2
onc
▁confounding
▁amniotic
▁putative
-70%
onin
▁aden
yroid
▁NMR
▁cytotox
tinent
▁adenomas
▁smokers
Gs
▁gonadotropin
exposed
▁51
▁diagnoses
sue
▁2.4
▁suture
▁anhydrase
▁decreasing
xone
▁incompletely
▁thal
eptic
measured
▁TA
▁198
▁ultrason
▁20%.
▁autosomal
ropyl
▁improves
▁TSH
▁ventilation
▁erg
vascular
▁requi
▁ADP
▁atten
itro
▁diagnose
▁1,25
▁mutant
91
▁birthweight
50,
tially
teria
▁cephalosporins
ylation
▁seropositive
▁exceeded
ostatin
atell
obacter
▁cGMP
blocker
contrast
erent
▁abor
molar
▁1.1
▁correlating
▁(0.6
actin
▁buspirone
▁asthmatic
▁CNS
odynamic
▁sinus
taz
acetyl
▁optimum
▁30-
▁50-
▁penicillin
▁adipocytes
ritish
▁diarrhea
onuclease
▁Urine
▁substrate
benz
ospasm
▁elimin
inesterase
▁IgE
▁nm
▁Arter
uprofen
▁contaminated
lec
CSF
▁carbachol
▁splenomegaly
▁mec
▁necro
▁calculi
▁8
omonas
▁ventric
▁0.1%
lep
omal
▁4.0
brain
▁thyroidectomy
▁effic
▁homogeneity
sul
▁Adverse
▁atrial
▁monomer
▁59%
▁nodules
odine
▁luminal
▁vulgaris
ectomy
▁irrig
enyl
rectomy
▁vaccinated
▁proximal
▁antigen
▁fluores
▁10.2
acted
▁OA
▁intracellular
antibody
60
▁vivo
epine
▁prednisone
▁alkaline
▁medulla
▁dextro
umerous
▁reper
▁40
▁mutagen
regn
erable
▁2)
▁duc
0%),
opro
▁25-
lamy
atum
▁antibody
▁biopsy
▁underg
▁Stu
apamil
▁chemotherapy
▁colonies
▁gonadotrop
▁Failure
▁afferent
tent
42
▁transient
ropha
oderm
▁mammography
selec
▁murine
sions
▁effec
▁NSAID
▁pigment
▁imaging
▁nifedipine
loxacin
▁physiology
-0.
▁desaturation
▁positioning
▁splenic
ifug
▁47%
dle
▁fluoride
gans
▁reac
▁collagen
▁untreated
gment
omegaly
▁glycine
▁penile
▁regulate
▁25,
omers
▁13,
/-
pendent
▁precursor
▁leukotri
▁58%
▁DH
▁beats
▁146
▁purification
▁ulc
cious
▁confirms
erb
Ig
/8
trol
▁AO
▁hypothyroid
90
▁anaerobic
▁2.8
▁ejection
omethacin
ulitis
▁ejac
-12
ods
▁acyclovir
teine
flammatory
plementation
▁(25
▁follic
▁chromatin
iciently
-1.0
▁renovascular
▁thromboemb
▁bladder
▁137
▁3.8
▁onset
opa
▁progressively
▁enrolled
▁molecules
▁glomerular
▁construc
oplasmic
ipr
▁lysine
▁logistic
▁antioxid
-16
ograms
▁disrup
0.9
echn
▁quadrup
osin
-5
▁promp
vian
▁colonic
▁lateral
SDS
▁plas
▁bicarbonate
▁155
▁radiographic
anine
resistant
▁worsening
▁Bec
▁compli
.9
hydr
▁sput
▁spre
▁Twelve
Ca
oil
ronectin
▁pathway
▁(45
▁shortened
▁FSH
▁adjusting
▁subun
▁sucralfate
▁inhibitory
▁apo
▁cultured
lysis
esia
▁translocation
▁scre
▁bran
mitter
▁atropine
▁panc
▁murmur
▁NSAIDs
▁(93
▁anticoagulation
▁ipsilateral
▁58
▁KCl
tropine
tice
▁compartment
▁Survival
▁exis
entile
▁0.64
odic
▁cDNA
gland
▁dissec
▁oligonucle
▁malabsorption
yrox
quired
▁cyclosporine
▁parathyroid
90)
▁aluminum
14)
▁modality
▁hepatotoxicity
(3
opathology
▁inactiv
4).
▁50%
zyme
traum
▁bactere
▁preventive
▁0.6
▁malignancies
000.
▁prophylactic
lives
▁chec
▁ery
blockers
ovine
-19
▁theore
orac
otomy
▁cytoplasm
▁granule
▁(21
▁organs
▁(10
▁0.33
aceous
+,
3).
▁400
lys
vant
▁prol
▁torsion
▁diabe
▁gyn
uretics
wes
▁revised
▁stools
▁196
▁(7
▁111
▁84%
▁synthesize
▁1.2
▁pmol
▁antioxidants
BH
ifferenti
enic
▁nadir
terminal
▁distal
cysteine
▁neomycin
▁impairs
/9
▁inotropic
▁osteoporosis
▁Thirty
oproterenol
-30
▁hyperglycemia
▁HL
▁monitored
▁Elec
▁200-
▁critically
▁invasive
▁epilep
▁outflow
▁hyperp
hydropyridine
▁monotherapy
▁stimulus
▁PGF
▁newborn
udin
▁-3
▁gentamicin
oidal
▁eradication
▁epidural
▁cytologic
▁tuberc
▁inten
etent
▁forskolin
tically
atient
▁surgically
▁endo
▁Haem
▁HPV
▁prono
phil
▁Viral
▁Bacterial
othiaz
▁87%
▁8.1
▁intra
▁motone
▁94%
▁(300
▁squamous
kinase
yro
▁contraceptive
sive
▁5.
▁31,
amus
▁incub
▁questionnaire
▁implanted
▁antagonist
▁examin
▁neph
▁MH
▁attain
5]
▁Estimates
dic
▁perone
occal
amycin
enteric
▁cytokines
▁glands
▁pneumoniae
ration
▁conclu
▁suppressed
▁postoperatively
erox
echan
▁tec
acting
ocamp
temperature
▁sugars
7)
▁GSH
acental
▁43%
▁750
acyl
▁vancomycin
▁65%
respective
▁erythematosus
▁undertaken
▁elevated
ilateral
▁11.5
500
93
▁apical
▁antich
▁hypon
▁bic
imination
▁pulmonary
▁neoplas
induc
▁mitochondrial
▁144
▁Assessment
▁inflamed
▁peaked
produc
methyl
▁eighth
thel
▁LMW
leu
▁spectroscopy
▁adjustments
osocial
▁0.62
▁combin
▁terminals
▁poin
▁Increased
phine
▁proceeded
Tu
abdominal
▁86
thood
▁skeletal
reas
examin
▁4.8
▁placenta
▁23,
fib
▁rabbits
▁heme
▁PB
▁phon
▁defective
aind
65
▁sut
▁weakly
▁hypoxic
tention
▁vitamins
▁gonadotrophin
-20
▁(67
erative
▁discon
ture
igaret
.0
eptides
fec
DV
chers
▁postsynaptic
▁antis
tradiol
▁thrombo
helial
▁creatinine
adic
▁covari
▁injec
▁transcription
ocaine
▁95
▁skinfold
▁practitioner
ygous
▁retinal
▁163
athioprine
▁Clinic
▁90%.
▁hormones
oxif
fractions
alp
▁calcified
7.
▁anomal
▁triglycer
▁monke
▁characteris
▁residue
0.4
▁114
▁inpatients
▁Wistar
▁hypothal
ociated
▁antagonists
tection
▁cortisol
▁resonance
▁sutures
uric
rowing
illary
▁natriuretic
otine
uting
▁reflux
▁cortisone
illi
▁19
olated
mented
traction
▁hipp
lastoma
rease
▁incomp
▁locus
74
▁heteroz
5;
▁potent
▁neutropenia
▁exce
▁obstruction
▁pyl
▁97%
▁TCR
▁incidence
brile
induced
▁Fib
-2)
acterial
▁hygi
platin
uretic
arial
▁laparoscopy
ATP
▁mucos
▁causal
▁hydrophobic
▁Experim
▁refractory
▁3.6
▁10,000
▁lymphoma
▁DMP
▁ketoconazole
▁31
iol
▁immunocomp
▁hypotension
▁hyperg
otropin
▁concordance
▁adversely
▁agonist
▁abnormal
▁tracts
▁shortening
▁amp
cardi
▁4.7
▁accid
▁16%
▁excitatory
▁reliably
ontal
▁inducer
▁salivary
▁carbox
▁14.5
▁Eighty
▁tac
▁elevation
▁sequelae
▁CAP
▁metoclopramide
▁sepsis
)2
▁RR
▁60.
omat
▁noninvasive
▁replication
oyl
casein
▁Magnetic
▁simplified
jected
andard
.6,
▁malign
administration
▁85%
gus
unar
sibly
▁suscepti
▁pharmacokinetic
▁saliv
▁persists
ylcholine
amol
sives
▁intrap
oscopy
▁plaque
▁(10.
▁glycerol
▁90-
▁IGF
xime
olam
55
wenty
▁hormone
▁Significant
▁endotracheal
▁anaesthe
▁methadone
▁maturity
▁(25%)
orh
▁analyses
▁(72
▁dehyd
▁Leu
▁6.3
tages
▁amph
▁1.8
▁48-
hap
%).
▁hypertensive
▁relapse
▁sedim
▁fla
reactive
-0
ecretory
ipheral
▁guan
▁lobe
▁adhesion
▁Thyroid
▁Pregn
▁3.1
▁protr
▁AFP
ercul
oride
ocusing
▁progestin
▁estrogen
ulose
▁Diagn
aryl
▁sympathetic
ealand
▁gastric
▁arterial
▁hypothe
▁gland
▁obstetr
▁disappearance
▁projec
buterol
ferrin
▁neurones
rotal
▁glomer
▁0.14
▁paroxys
▁plasmin
▁metabolite
-6
▁45%
responsive
▁basal
▁Myocardial
▁mumol
▁enzymatic
9%
tide
▁Calc
▁disclosed
iae
▁receptors
▁ventilator
▁enteric
▁labelled
▁23%
▁deficient
taining
hern
▁gly
roximately
▁appropriately
▁87
okinetic
ducts
▁mell
uin
▁9
glutin
▁(2
▁polyc
▁3.0
▁genotype
alsy
▁cocaine
▁drainage
retion
▁dete
▁behavioral
▁evol
odal
▁postnatally
▁reflec
triglycerid
▁ND
6%)
▁precipit
trib
▁fluor
uted
▁predis
tir
▁DBP
▁anesthetized
▁6.2
▁assays
▁athe
onine
qui
▁purified
800
▁pertussis
iparous
1-
astom
▁fluorescent
clerosis
▁correlates
▁receptive
0%
amet
5),
▁analgesia
▁bp
ophen
IgM
▁Tissue
▁PMA
▁laminin
tive
▁imipramine
5%,
▁5.1
▁cows
oplas
▁pathology
embry
/1000
Ts
▁thymus
▁27
▁nocturnal
edema
tested
▁peripheral
▁Hyp
▁(50
▁Atrial
galact
▁249
etween
▁0.36
▁TCA
▁recurrence
▁0.41
▁thi
▁Complications
▁electrolyte
pregn
▁Thirteen
sia
▁Staphylococcus
▁sham
immuno
▁differentiated
▁multicenter
▁practitioners
plantation
incubation
tinguish
▁carotid
▁correlations
▁molecule
eared
▁Fc
▁synthe
itus
opausal
▁RS
▁titration
▁18%
▁washout
▁polymorph
▁donor
molality
▁initiation
▁obese
▁fibros
▁30
-2.0
▁competi
▁exclusion
9)
gulation
▁prostatic
▁cysts
▁mutations
+)
▁Higher
▁synovial
▁variants
▁cohorts
▁40-
▁aerob
estrogen
idine
bly
▁enamel
duced
▁Afric
ordance
▁Oste
ighted
0.2
▁islet
-40%
▁54%
▁135
▁hap
enia
▁(24%)
▁immunos
▁abscess
▁commercially
▁encomp
veolar
sequent
cine
8),
retin
fine
▁spectroscop
▁contral
▁reticul
prandial
▁Plasma
▁pem
▁8.
bearing
▁alternating
▁recr
▁188
erally
▁exogenous
▁MIC
-35
▁suction
▁undergone
▁0.67
▁lymph
▁5.3
▁0.90
▁eryth
43
terin
opulation
jury
▁autologous
▁120
0.7
essive
▁(26
▁3.2
▁Sensitivity
▁occl
▁retinoids
▁lacked
▁microb
▁EBV
30
▁197
fiber
ymptom
▁circumference
▁promoter
▁45
▁randomized
▁exon
▁triceps
Gly
▁consis
2.
▁Gluc
▁15,
▁serotoninergic
9;
▁aggression
▁adrenergic
converting
▁sensory
▁hypokal
ovirus
otor
▁hypoglycemia
uplex
▁antec
▁reactivity
bran
▁infections
▁20)
zard
▁0.25
▁Exc
▁103
othal
adjusted
organisms
▁addic
▁hypothetical
▁inhibitors
▁clamp
oside
▁malformations
▁Findings
ispanic
▁arter
acute
iline
23
▁aids
oppler
enem
▁auditory
achol
▁ppm
▁intrauterine
omies
▁phospholipids
lamp
▁converting
oscopic
lycemia
▁Factor
▁(7%)
▁ductus
olus
▁homogen
romycin
▁chlorhexidine
▁Biol
▁43
▁Specifically
▁(4
▁gon
antibodies
tructive
ameter
▁cyt
carotene
▁10(
▁acco
robic
▁duodenal
▁GH
3%)
uccess
ipramine
oprolol
▁sedation
▁preferentially
4;
-8,
▁gestation
▁damaging
ipolar
▁3%
▁cryp
▁48
▁diuretics
ocyan
▁13
ediatric
▁questionnai
embran
▁6.4
▁nosocomial
ullary
▁dementia
▁emboli
atation
CRP
alc
▁vigorous
▁PRL
▁67
feren
▁drinkers
▁hemorrhage
ductive
aginal
▁conformation
kines
▁morphine
chloride
▁probes
▁plantar
▁100
▁unexpectedly
umetanide
▁fmol
▁ranged
aternal
▁35%
▁saphenous
▁conflicting
▁bilateral
▁preparations
▁accep
CoA
rogenase
▁retrospectively
▁comple
▁inositol
▁urea
either
-1)
trast
thmatic
▁interstitial
▁47
zymes
titial
adine
▁subunit
▁predominantly
2,
▁libr
▁ampicillin
▁selec
▁glycogen
▁disturbances
▁disper
(1
▁2.5,
▁nontoxic
▁micros
▁cytotoxicity
▁synerg
▁persist
tak
▁Mg
ialysis
▁impaired
▁21,
hydrop
▁filtration
▁rabb
▁valve
oceptor
▁Hyd
ellular
ints
▁insufficient
▁assis
▁avoidance
▁Multiple
oplasm
▁pharmac
▁localized
▁implying
▁biochemical
▁hyperthyroid
trus
trin
-4.
▁sci
▁fibers
▁ligament
▁ischemia
lyl
Hb
▁glial
viral
inergic
6.
▁0.001).
▁proteoglyc
▁adop
▁LVH
▁pancreatitis
▁pretreatment
▁yielding
▁0.2
▁lipoproteins
reported
ralfate
silon
▁fixation
▁bioavailability
▁bronchoscopy
indings
▁dipyridamole
phasic
estig
▁corticosteroids
▁39%
▁resour
▁ventil
▁5.5
▁bypass
tussis
▁sedimentation
▁analogues
▁tran
rocyte
▁9.0
▁immunogenic
▁256
▁validated
▁ips
▁hamster
▁10.0
▁cervical
▁proliferative
▁heparin
▁79%
▁neurop
▁Intr
▁porcine
▁indo
▁deviation
▁decarbox
pyr
▁angioplasty
▁(18%)
▁hemorrhages
▁statistically
▁VIP
▁topical
▁PMS
▁expiratory
▁adenocarcinoma
-6.
▁arrhythmia
itoneal
▁Streptococcus
▁oxygenation
▁differen
kephalin
tagland
25)
▁5'
luded
cutaneous
arynx
▁satur
▁ionized
▁haem
31
arbox
carb
▁(5-
▁prospectively
eak
▁distin
▁calmodulin
▁200
▁epithelial
tum
▁arachidonic
▁arteries
▁CN
▁inoculation
▁accel
versely
▁allevi
▁(32
▁nitro
▁erythrocy
1/
▁108
▁identif
▁insoluble
▁(15
▁substitu
▁complications
-90
▁173
▁enzyme
▁airflow
portant
▁enlargement
▁bathing
etine
▁nonc
▁HDL
▁bir
iary
▁hypoxia
ylate
apid
▁7.5
▁intrac
ioid
▁concep
▁2.3
▁gangl
▁leukocyte
▁intercourse
▁immunized
▁Fourteen
▁functionally
▁phospholipase
▁sulf
(6
▁enhances
olateral
thmias
▁2.0
▁concurrently
▁stringent
tional
aemia
▁whee
-8)
▁mIU
▁185
▁doubling
ficial
▁dias
▁infarction
▁sexually
▁decayed
▁pati
dL
arean
▁rectal
tial
▁heterogeneity
▁diabetic
.10
▁rhe
▁characterize
-15
ungal
▁(5%)
▁drin
aminophen
▁0.01)
chym
▁lifest
▁endotoxin
lier
▁Secondary
▁analgesic
▁fossa
▁paral
▁malignancy
▁kidney
▁physiological
1;
▁52%
▁bumetanide
▁tuber
▁thereafter
/2
▁55
rangement
ischemic
ejun
▁dehydration
▁manu
▁11
tamine
▁necrosis
▁diagnosing
-125
uble
45
▁tamoxifen
azoline
hydro
opoly
diabetic
ergic
▁HBsAg
angiotensin
▁Fifty
▁88%
▁paralle
▁aberrant
▁OC
-3.
▁Alzheimer
▁98
▁(0
▁optimally
▁routinely
ithi
▁inward
tiguous
aund
▁Transi
▁unfractionated
vated
▁chromosomal
responding
▁55-
48
▁secretory
▁pyel
andida
▁192
▁64%
▁superoxide
▁predictors
agonist
▁formulation
▁tymp
tropin
▁0.30
▁0.35
phrine
▁streptococci
▁dialysis
osom
▁excised
▁heterogene
▁outlet
▁spontaneously
-6)
▁thromb
▁opioid
▁urinary
▁calves
▁0.4
aemic
epam
▁nodule
▁validity
Ls
olarization
▁reflex
▁pathological
▁intractable
acr
titis
▁pH
▁adulthood
▁.0
67
▁initiate
▁cros
▁eliminating
▁favorable
▁Depression
▁0.5
▁Elevated
xia
tigu
owever
letion
omized
72
▁HC
▁.00
▁injur
▁Nine
umulative
tening
▁emerg
▁infused
ventional
/100
years
0.5
odia
▁predominant
oic
▁7.8
▁76
physiological
▁occlusive
▁ECG
▁transcripts
▁motility
dural
▁trache
▁hypercal
▁11%
ochemical
▁paradoxical
sensitivity
/10
▁ascorb
▁70
gents
0).
▁erythromycin
NIDDM
ilol
kine
▁alb
renol
▁reticulum
pir
tensin
hemical
bacter
▁EB
▁susceptibility
▁(92
▁dye
▁46%
▁toxicity
▁27%
ximal
oclonal
IgA
▁inactive
▁recombin
▁21%
▁longus
▁marginally
▁hemodynamic
razole
▁catheter
▁seronegative
aptic
▁msec
aturation
▁interleukin
ocys
▁radiological
▁ald
▁49
▁comparative
▁detec
▁vascular
▁cyclooxygenase
▁3.7
▁cerebro
▁10%
▁syndromes
▁cen
▁infants
ipine
▁endpoints
▁NP
ffin
▁fibrin
▁molar
▁cerebrovascular
▁pneumon
olip
enin
▁dysp
69
▁analogue
-80
▁dopamine
-36
ilus
azep
▁insertion
attern
▁80,
ituit
eric
▁cruc
androgen
▁89%
teroid
lowering
occi
coated
▁multivariate
maximal
▁lactation
▁rheum
clic
▁schizophrenia
▁mediated
▁ure
lym
▁(56
upuncture
ternational
▁orthostatic
phenyl
▁corticosteroid
iteal
▁artery
▁remission
itoring
▁LM
▁130
▁femoral
▁PCO
▁gels
▁incorporation
ysm
▁contiguous
▁19%
▁synthase
▁isch
opar
esti
▁endometr
olytic
▁distinguishing
▁elemental
▁sulfate
21
brom
opramide
▁selective
▁0.15
sodium
7%
▁mildly
ilep
(2+)-
▁inadequ
butamol
ipitation
▁glutamine
imeth
▁75%
sibility
▁quotient
▁Alz
▁7
LH
▁0,
▁lupus
87
▁physi
▁serotypes
-60
rents
▁conjug
▁Sixteen
heat
▁potency
urea
▁adolescents
▁rhy
▁seb
▁anesthetic
▁positively
(+)-
▁31%
tally
timal
▁Exercise
▁ovari
eptide
▁tubercul
▁Candida
▁0.54
ucle
ordin
▁blot
odds
-34
▁balloon
▁25
-23
▁neoplasm
▁tyrosine
gic
toxin
0%).
▁Comparative
receptor
▁glucose
ergen
▁retard
genic
▁metronidazole
articular
rotic
ohyd
aminated
▁multis
▁Scale
▁regurg
▁lis
▁139
asic
▁cranial
▁stu
uppres
▁moderately
hydrox
din
▁theoretically
▁regression
▁muscul
▁usefulness
▁28%
▁neuroleptic
▁PEF
-66
▁fulmin
▁monol
▁Nineteen
▁antithrombotic
▁indications
▁concentrations
82
▁scalp
▁cataly
clonal
▁hypogonad
▁4.6
▁induce
dine
▁4.2
ignant
▁infrared
▁expressing
▁analgesics
ffe
▁antibiotics
▁refrac
▁tendon
▁DF
uestion
▁calcification
olism
welling
▁quantified
▁epsilon
atif
ynaptic
olamine
mend
▁crossover
oratory
cyt
▁elimination
pecially
▁Thy
▁inactivation
▁hippocampus
▁cholinesterase
73
▁stenosis
▁multiv
ocomial
▁cytosolic
▁acyl
▁rejection
▁quoti
ritic
idespread
▁cavity
▁irradiated
(5
adian
▁Hz
▁occult
▁radionuclide
57
▁preterm
▁prostate
▁isot
▁(18
albuminuria
went
ulla
▁comprised
antoin
▁grains
icardi
▁Assess
▁capsule
▁112
▁cholesterol
▁reductions
horm
oskeletal
▁loci
▁trimethoprim
aminergic
▁(95%
52
▁seizures
▁pulmon
oate
▁abdomen
88
▁unex
▁supplementation
▁Meas
▁contrac
▁desm
onazole
▁socioeconomic
▁traum
glut
▁adverse
hypertensive
▁mU
tinu
▁126
:1
▁uterus
▁subjected
.5
▁oligos
▁memb
▁systematically
▁(16%)
▁buc
▁Increasing
▁encephal
▁2.5%
▁1980
▁Coronary
▁irrever
▁Tran
▁BMI
▁bup
epti
▁platelet
▁CHD
▁allergic
ilibr
▁recordings
▁4.4
▁autoimmune
essel
tic
taken
▁conditioned
cells
20
▁leuk
lastic
▁ACTH
▁PLP
▁acidic
▁insulin
▁tibial
▁hydrocortisone
▁deficit
▁chlorpromazine
▁splic
▁oxide
arrhy
▁antimic
▁sulfoxide
ylase
▁cef
entified
95
▁oxidative
10
▁nonin
iagn
▁vesicle
▁(70
oxazole
nec
achid
▁Eleven
opo
▁jaundice
opoietic
▁demonstrates
▁surgeons
iazide
▁Reduc
▁markers
▁3
▁tox
FSH
idin
▁Therapy
▁8,
▁unnecess
▁screened
plemented
▁hypo
average
epithelial
▁metabolites
▁TC
▁unrelated
▁10.
abd
patients
▁intub
▁promo
ventil
▁congestive
▁82
imens
▁microscop
affected
▁fum
tual
▁Infants
▁233
▁initiating
▁1970
phosphon
▁polyclonal
allium
700
▁perc
ximum
▁(3.0
▁discriminant
▁psycho
▁Ps
ected
rosy
▁cesarean
iotensin
▁striatum
▁capillary
▁thresholds
▁menstrual
▁stimulating
ographically
▁decarboxylase
▁sediment
▁serologic
▁enl
▁9.2
▁abnormalities
ropriate
▁investigations
tified
essation
ivered
▁metoprolol
terone
tivation
ailure
▁outpatients
entical
-45
onyl
amuscular
▁6.5
▁detects
oxane
▁61
▁4-
▁pathophysiology
▁underst
▁pathogenesis
affec
terase
acerb
▁Histologic
itant
▁gradi
Ba
orrh
▁utilization
▁affec
effects
▁indicators
infected
ithromycin
-1.5
▁outpatient
▁immunoreactive
▁epit
▁3,
gely
ylchol
▁HPLC
▁prostagland
ithin
olitis
▁irradiation
trum
▁overweight
▁67%
reactivity
▁neurotrans
accharide
inyl
▁expres
▁omeprazole
ichia
labelled
gressive
▁LR
adrenoceptor
rozen
▁tablets
entia
76
orrhea
▁targe
ethylene
▁8.4
▁ammon
▁22
tion
24
▁subcutaneous
▁averaged
▁magnesium
▁myocardial
▁92%
▁18
thrombin
▁pretreated
▁cytoplasmic
▁gradients
▁(69
▁attemp
▁estimating
kets
▁(20
▁prescribed
RNA
enec
ritis
▁morphology
-14
odies
ochemistry
▁isoproterenol
protein
▁mobilization
▁simplex
▁fibres
roph
▁positional
▁iod
▁streptococcal
oxide
]-
arous
▁Conventional
▁+/-
▁ATPase
atinine
/30
▁0.40
▁trich
odipine
▁anemia
phic
▁radiol
▁dors
▁soluble
▁inflammatory
▁practic
▁similarity
▁otitis
▁endot
omatosis
▁allogra
66
▁esterase
meas
▁antagonized
▁datab
▁SG
roscopy
.1,
▁sensi
▁64
modulin
▁familial
loride
▁300
▁antif
erin
▁1000
▁stimuli
▁1986
urate
▁electrophoresis
4/
xate
▁omega
ignificant
▁births
anic
▁cirrh
▁TM
97
thickness
bic
18,
▁smo
illus
▁restenosis
▁pigs
▁triglycerides
▁lam
▁187
▁77%
tiary
▁interc
tensive
melan
▁(63
asive
▁0
▁abscesses
▁0.001),
ospitals
ofluores
▁unstable
▁(1.0
▁Functional
▁abd
▁extraction
▁dox
corrected
▁captopril
▁incomplete
▁(95
▁sheath
heres
▁41
▁extracellular
▁affinity
▁29%
-1).
▁sonography
▁-7
▁kidneys
▁fibrinogen
TNF
osidase
inhib
LDL
▁-0.
-2).
▁7-
▁therapeu
▁stimulates
vices
▁clinicians
▁secreted
▁metabolic
riched
idate
▁socio
mediated
▁efficacy
▁epiderm
▁econ
▁adhesive
▁scarring
ovascular
EMG
▁neutroph
▁acetate
olysis
▁calorie
▁dosing
▁deleterious
urys
▁5,
▁neutralizing
▁189
▁irrigation
iotic
▁96%
muscle
▁thrombus
▁chan
▁descriptive
▁supplements
▁33
▁smears
▁irradi
▁operative
5)
▁derivatives
amino
▁threefold
▁medial
▁1983
▁phy
▁sugges
▁mucosa
▁avail
Ds
▁dimethyl
▁intermedi
▁morphological
▁analogs
▁Tiss
▁endoscopy
41
▁postmortem
glycer
atment
▁serum
15
irub
▁Forty
▁dendrites
▁Inhib
▁contamin
▁(24
orpor
▁ech
▁antidepressants
▁reactive
4+
ocular
▁ankle
▁infertility
▁esophageal
icep
ept
▁(14
▁recipients
▁cyclospor
▁kinase
▁canine
▁stratif
▁neon
peptide
hyp
▁subarachnoid
▁divertic
otonic
▁algor
▁prostatectomy
▁1.0
▁carcin
▁plasminogen
predic
▁galact
▁phospholipid
oste
▁spermat
▁500
▁reas
chymal
oglobulin
00
▁0.18
▁caro
▁lipoprotein
▁cran
▁7.6
▁1986.
▁ESR
▁Doses
ophil
▁citrate
▁aspirin
2+,
▁platelets
accharides
▁wk
▁adhe
hexidine
▁176
▁plex
▁PSA
▁methotrexate
▁EG
1:
▁detrusor
▁criter
▁premature
5%).
inamide
▁anxiolytic
occus
▁carriers
▁stren
▁lesion
▁(2.6
▁2.5
▁restric
▁1989
▁pelvic
▁allergens
otypic
▁65
osterone
▁Levels
osomes
▁76%
▁phag
▁diets
▁regained
▁inhibition
▁aneurys
▁Severe
▁receptor
▁fron
▁strokes
▁1)
roscopically
▁immunological
▁generalized
▁162
▁placent
1)
ensitization
oxic
lip
▁acetylcholine
▁-6
▁immobil
bac
uppression
▁127
tact
nisolone
▁ison
atid
gated
.6
amel
▁administered
ystag
▁10,
tin
▁interpre
▁polys
▁thromboembolic
orbent
rhy
tis
▁formulations
▁AMP
▁lethal
▁nausea
lamin
▁proteinuria
▁1.3
▁44%
▁cohort
▁potenti
abies
▁ruptured
▁(54
▁crosso
eptid
▁accumulation
▁phenyl
▁extrap
▁protracted
orectal
chlor
ctive
orphine
plasia
▁129
▁IFN
▁junction
▁Approximately
▁Comparing
▁hyperlipidemia
10)
▁0.21
22
yclo
▁synthesized
▁resection
▁Combined
▁decreases
▁transpor
▁hepatitis
▁histologic
ylline
olec
▁infancy
▁pulsed
▁comprising
▁relapses
▁1
▁stimulant
▁19,
▁anhydr
▁adenylate
terol
▁markedly
▁regimen
▁phosphorylation
▁Dip
▁albumin
▁stratified
▁93
▁1.4
azole
resting
▁0.01
▁cyst
▁-2
▁deli
▁11.6
MDA
lamydia
▁hemoglobin
▁ocular
▁electrodes
rati
▁0.08
iatric
▁syphilis
▁3)
▁TMP
▁dextrose
upus
▁prosthe
indolol
▁Patients
april
LISA
▁69
odopa
cessive
2;
etitive
orsal
eryth
▁shif
▁promin
▁171
ochondr
▁pharmacokine
▁migraine
glucosidase
▁toxin
▁manipulation
opus
▁chond
ields
▁capsules
▁acetaminophen
ergy
▁deposition
▁mL
inoc
▁juvenile
▁antiarrhythmic
chol
▁incontin
▁adolescent
idne
▁BMD
▁nal
▁immunosorbent
▁summarized
▁Surgical
▁gonadotroph
▁46,
▁hematoma
▁scientif
2),
▁choline
▁reperfusion
ometr
▁ori
anthine
eclampsia
▁surgeon
jug
▁([
▁measurable
3%
botic
▁attrib
▁fertility
reening
▁retardation
▁nonf
▁treadmill
▁0.05).
▁0.19
▁unresponsive
▁paradox
▁rotavirus
positive
bladder
▁descending
1.1
6-
opathy
▁Rates
▁emo
lax
▁7.9
▁150
▁hyperlipid
▁inconsistent
▁polycystic
▁fulminant
▁unrecognized
▁hydroly
▁0.13
▁colorectal
▁sputum
▁Maximum
▁uric
-1.2
OH
▁(39
▁0.44
Hg
▁stimulate
▁sati
nRH
▁(9
▁rash
atase
PV
▁enti
2,000
▁thoracic
▁discharge
uvate
ocrine
▁hypertension
▁fecal
▁lymphocytes
▁intrav
-3-
▁hir
achn
Hyp
natal
▁10(-6)
58
▁0.98
plast
▁prostaglandin
▁intracranial
atients
▁nebul
▁hyperb
▁tubules
unctions
▁lapa
galy
▁potassium
▁electroph
▁Subjec
▁ganglia
▁graft
▁clinician
ilization
▁Diabetes
▁remo
DH
▁tol
▁2.9
▁follicles
▁lamina
▁enalapril
▁contex
▁clinically
ecu
62
▁adip
▁tolerated
▁0.01).
▁pneum
sus
pli
▁344
atest
▁blockers
-2-
▁0.65
▁81%
assium
▁Subsequently
crip
▁questionnaires
▁secrete
▁prednisolone
▁neutrophil
▁13.2
▁saphen
▁hydrop
formations
▁epitope
▁progest
▁phosph
▁epidemiological
amid
▁0.05
.1%
▁adenocarcin
▁wors
▁myocardi
▁7%
▁adren
▁8.5
▁hetero
▁Interestingly
▁alcoholic
▁0.7
lactam
▁0.66
▁seroton
▁(28
▁Hb
▁tetrac
▁papill
▁(6
▁macropha
▁(42
▁tissues
▁5000
▁empir
17
▁lar
59
▁immunoglobulin
ipril
▁cardiovascular
▁NADPH
▁placebo
ulants
▁hyperactivity
▁BAL
▁AVP
.7
enzyme
▁lymphocyte
▁cloned
imodipine
▁connec
yzed
opam
pinephrine
▁stimulatory
otri
tric
▁32
glycoprotein
hep
ocortic
▁enlarge
ritten
▁evaluations
▁infil
▁veins
▁headache
▁secretagog
▁PPD
0,000
apsulated
▁acetyl
▁14%
▁1200
▁inducing
▁3.4
▁bony
pran
irds
9-
▁filaments
▁lumb
49
▁endothelium
▁reag
otrop
▁dihydro
▁reproductive
▁10(6)
▁rupture
▁prenatal
ministration
siveness
▁rhinitis
▁symp
▁centr
▁280
▁165
avage
tured
▁infec
tious
truction
▁12.
000
▁(99
▁hydrophob
oglobin
ardized
▁rheumatic
conver
▁fung
teroidal
▁9.
▁pharmacological
▁1.6
aldosterone
12.
obronchial
▁spati
▁23
tential
▁xyl
▁293
oung
emide
▁15
85
tics
lood
▁specificity
▁hypertro
oradi
▁(30
▁aldosterone
▁WHO
▁lavage
deficient
▁3.
▁40%
regulation
eliac
armac
lyb
▁substantially
menopausal
▁turnover
ffinities
ionine
▁ventricle
▁adherence
6).
▁radiologic
▁88
ziness
athe
▁hepatic
▁(12
+)-
oretically
▁methyl
▁chromosome
▁cystic
▁normo
50)
▁strep
▁envelop
▁ventricular
▁Phen
5%)
loid
▁lovastatin
63
▁bolus
ygen
osynthe
▁ibuprofen
▁900
▁subpop
mum
▁66
activated
▁abnormality
▁melanomas
▁attenu
▁fulf
estion
▁livers
▁113
▁adolescence
▁chemically
▁agon
▁depletion
▁encompassing
sych
▁impair
▁lisinopril
▁cholinergic
rine
parathyroidism
▁Subjects
rotid
▁flexor
▁semen
▁nonspecific
▁genomic
▁100,
▁suppor
orec
▁proton
▁hypocal
▁deoxy
/12
▁(82
▁detrimental
▁urine
▁anion
urgical
▁29
itidine
▁synthesis
▁hypoglycemic
4-
▁plasmid
▁granules
▁serolog
3-
▁isoform
▁ultim
ofl
▁recurrences
▁30.
ereb
ilic
dor
bumin
▁ineffective
▁4.3
▁parame
▁thrombosis
▁edema
immun
llate
ameth
cortisone
8).
▁Plas
▁serine
8.
▁90%
▁differenti
▁immunore
▁hypothalamic
▁Bacter
▁dysplasia
▁relap
adrenergic
▁5.8
thmia
enal
olgi
▁elic
▁regar
▁fetal
uron
orption
▁(100
diastolic
▁alcoholics
rosis
ronchial
omical
clin
▁4.
▁osmotic
▁hospitalization
▁outbreaks
▁prognosis
▁Serum
isol
NK
ATPase
▁augmentation
icillin
3]
olesterolemia
titution
▁sero
▁37
aicin
▁agglutination
▁immunization
▁dairy
▁microsomes
▁reproducible
▁intestine
TSH
▁glycosyl
8%
▁123
approximately
▁defec
▁pene
▁220
oprec
ulsive
▁dendritic
dition
ller
▁intake
tensity
oxygenase
▁Examination
▁throm
amicin
▁vaccin
▁congen
▁44
▁epidemiologic
utions
▁tachyc
▁cytotoxic
▁poten
▁cartil
econd
▁loos
▁53%
▁17,
▁inappropriate
▁neonates
▁alcoh
▁olig
▁normalization
▁precur
vic
▁208
ucine
▁(=
▁palpable
▁Sodium
3),
▁57
▁injected
responders
▁perme
▁(75%)
oxetine
▁Statistical
ylamide
70
FU
▁parity
Ra
amole
rever
▁symptomatology
ectin
▁14,
46
▁substrates
▁abstin
-2.
▁arginine
seud
▁repres
▁etiology
roscopic
▁offspring
▁mV
▁phosphodies
inol
▁mutants
▁CHF
ughter
▁tendons
▁ile
tig
▁60
▁EE
obl
xual
itone
▁transfusion
ticularly
oxifen
▁pim
▁tumours
erad
▁Vmax
▁dissociation
anol
▁6-
SBP
▁pell
roxen
▁1500
▁discus
▁antibiotic
▁degradation
reduced
azolam
▁tetracycline
▁qualit
prising
▁diffus
plenic
▁mononucle
▁venti
▁fibre
▁anomalies
amide
▁fatty
-1,
▁inver
tiz
▁minimally
▁DVT
▁pacing
oconazole
▁equivocal
▁insufficiency
glycerin
▁ultrasound
▁peri
▁carcinoma
▁unipolar
tine
▁7.7
▁assessing
▁caudal
▁rehabilitation
▁nec
4,
▁autoradi
phyloc
endri
▁1.7
▁projections
▁immunocompetent
lusion
▁allergen
▁BP
▁clom
▁stent
vertebral
▁1.5-
creatinine
▁7.1
osal
99
▁developmental
▁catalytic
9,
▁adi
▁infar
▁(48
▁abolished
9).
tissue
FEV
▁antiser
▁rebound
▁decreas
▁aorta
▁mite
▁exer
▁205
▁conductance
▁multin
▁Hep
▁11-
▁heterogeneous
▁(0.4
▁excretion
▁luteal
▁electromy
▁15-
ulmonary
▁thyroxine
▁5.0
▁GAD
▁zinc
▁posttreatment
coun
▁transplantation
Leu
fate
▁Mild
adenosine
▁criterion
▁cortical
DNA
▁exhaustion
▁atyp
▁muc
adequ
▁(43
arbonate
ofil
eroxide
▁psoriasis
ocyst
▁reser
illation
▁benzo
HF
▁60%
▁diminished
▁felodipine
▁0.97
▁mmol
▁enzymes
▁macrophages
▁unusually
▁200,
▁coated
▁dodecyl
▁obser
fraction
uria
▁glucosamine
▁IgM
erebral
▁0.49
7-
▁(1.4
1%
▁pregnancies
▁antimicrobial
resist
▁instrum
uoden
▁immunity
loon
▁obstetric
olol
▁170
tiv
rometry
centr
▁9-
ocytes
▁dendri
elec
oxygen
nee
abain
limb
operatively
▁0.28
-70
▁ingu
idazole
▁Cells
▁bip
▁tachycardia
▁ionophore
itonin
ervical
2+.
▁enzym
▁retinopathy
reased
▁presumed
▁pyr
odular
amethasone
▁mAb
▁hemat
acylglycerol
▁(75
▁96
▁accessibility
ingers
tosis
▁bowel
▁menstr
oplasia
▁ascer
▁actu
▁meningitis
▁venous
uncture
▁luteinizing
▁nig
▁leukemia
inum
▁(400
tituted
▁tas
▁4
▁Apgar
NB
▁underwent
▁ions
▁osm
6;
lymph
▁nicotine
▁Factors
▁fracture
oreal
▁androgen
▁carbonate
▁confir
▁diazepam
▁devi
▁induction
conduc
▁0.27
▁hypox
▁phosphatid
tomy
▁dorsal
▁contraction
asal
▁inhaled
▁brom
5%.
▁subfractions
▁extracts
▁casein
▁tach
80
7%)
▁hypers
1-2
▁fatigue
▁reversed
crib
▁psor
▁dizziness
▁63%
▁monoclonal
▁fluorescence
usate
antigen
▁keto
ocated
adder
osac
opathic
ondr
okine
esity
▁IgG
28
angl
▁oxid
▁Systolic
ogenicity
odium
▁concom
▁0.48
▁carbohyd
▁48%
▁109
▁mmHg
▁irregular
esin
▁0.52
▁calcitonin
absorption
▁morbidity
.3%
▁catechol
queous
isole
▁cuff
▁dermatitis
▁0.22
▁electrolytes
▁eti
▁hepatocytes
▁36%
▁qualitatively
elves
gesia
▁metastasis
▁phosphatidyl
▁amn
oprost
▁propor
-4)
+/
-400
:3
▁hypocalcemia
▁1985
▁limbs
▁hypercalcemia
▁grafts
-3
▁COPD
sian
▁quinine
▁chl
▁0.001)
▁stratification
▁700
olone
tead
▁phosphate
▁communic
▁27,
quisition
tenti
entral
jec
▁2000
▁lys
rates
▁hazards
39
▁contraceptives
▁100%.
resis
vedilol
ylic
▁tricyclic
▁2.1
▁0.02
▁30%
.6%
struc
▁acad
▁depolar
plasty
▁anxio
urnal
▁systolic
▁5)
iphene
▁saturation
saccharide
▁computerized
▁16
trial
▁164
veness
amphenicol
▁alterations
▁anae
venous
▁elevations
eded
▁contralateral
ogenesis
albumin
iloride
▁LD
▁ae
▁injections
MV
▁embryonic
athetic
eal
▁idiopathic
spectively
▁Few
▁oxidation
▁Identif
▁infrequent
opressin
leb
▁NaCl
▁tiss
▁prophyl
▁adrenal
▁ket
▁prognostic
edding
▁pleural
▁apparatus
ecre
▁demonstrating
gative
▁endogenous
▁steroids
sulf
onvul
hea
▁nitrogen
thromb
▁Ultras
▁Disease
BV
▁(0.1
sant
▁NH
▁rheumatoid
▁MAP
▁hysterectomy
erant
tisol
emia
rogenic
▁cortic
bloc
astatic
otassium
▁hCG
▁oxytocin
atible
▁2.
ustained
▁absorp
▁Ace
apanese
ocomp
▁40,000
▁10(-7)
▁ambulatory
8+
▁inoc
▁newborns
▁gastro
▁30%.
ifedipine
▁1990
▁incubated
kephal
▁clamping
▁immunogenicity
▁mann
▁junctions
▁thirds
hydroxyp
omerular
onad
ffer
TG
availability
atology
▁clon
600
▁agonists
▁immunodef
▁exhibited
▁tremor
25
▁experim
aneously
deoxy
▁nitroglycerin
▁antenatal
-1
▁102
tral
▁rehabil
▁arti
▁0.4%
▁duplex
▁prevalence
▁glycoprotein
▁deviations
▁definitive
▁fractions
iatic
▁4.1
▁MM
▁retur
▁anastom
▁bronchodil
gene
▁pall
tene
till
▁premenopausal
▁35-
rological
▁tetr
fused
-11
▁24,
-6-
▁disseminated
leukin
▁Concentrations
▁stimulated
▁metast
▁polymerase
quid
reness
▁tuberculosis
▁uter
▁protoc
ucas
ytoin
osine
lob
-50%
▁affinities
▁excluding
▁microtub
▁Ear
adin
rography
▁pancreas
partum
▁restraint
▁amino
▁micron
▁lesions
▁organisms
▁stimulation
▁rats
timate
▁lipid
vitamin
dens
ncy
▁proliferation
athyroid
idone
▁weighed
5).
hetamine
dent
tionally
▁0.
sess
▁neuropsych
▁compounds
▁monocytes
cys
▁adduc
▁unres
▁glutathione
▁candidiasis
▁margins
▁methionine
-10
ensi
▁exposures
IGF
enol
▁lumbar
tension
13
▁(19
▁disturbance
▁undergoing
▁spi
romised
▁epithelium
▁0.70
▁arousal
▁DSM
▁choles
▁0.63
toph
phen
▁98%
▁fibronectin
▁discom
▁residues
▁85
MH
▁spleen
▁hemo
▁chromatography
▁0.09
▁enteral
▁augmenting
eptin
▁endocrine
▁TP
ilized
▁adap
▁artifact
▁ow
asone
restricted
▁amput
individual
▁1988
▁3.9
▁halves
anide
obarbital
▁2,
thoracic
▁14.
▁cumulative
▁145
6)
▁VO
cephal
▁NGF
electric
illin
polyacrylamide
uvant
tox
▁intrinsic
▁Treatment
▁0.04
▁Neu
18
elic
▁proportions
▁10-
aryngeal
.1
▁amplification
fts
▁immunobl
posure
▁mediate
athic
▁staging
aminop
astolic
▁infrequently
▁topically
cemia
▁anesthe
zation
▁32%
▁Ventricular
▁successive
▁vertebral
▁hyperplasia
nthe
▁69%
▁leukotriene
▁11,
▁177
▁ane
ostic
▁eradic
▁nonex
otide
tronic
2%)
14
▁elas
containing
▁resistant
otropic
▁influenzae
▁diffic
▁nonsmokers
▁159
▁mortality
▁38%
siological
▁Registry
▁schiz
-3)
▁pediatric
▁parac
▁0.9
tabl
apeu
▁polyethylene
▁physicians
▁fluoro
26
vail
▁permeability
▁4)
ropine
labeled
▁50,
acycl
▁0.06
▁correlate
2318
▁12-
▁retention
▁-0.0
▁Seventeen
stolic
▁unchanged
oglyc
▁iso
▁embry
economic
▁anoxic
▁-4
▁antigenic
.9%
▁perioperative
▁coronary
▁MRI
▁coping
▁exhaus
▁kappa
▁polymyxin
▁transi
▁numb
molecular
▁aspartate
▁68%
luc
▁medically
▁thromboembolism
acid
▁competent
▁variability
▁inters
▁adminis
idney
versity
▁diaz
▁assay
▁cartilage
▁correlated
▁amphetamine
▁26%
▁(1
▁endemic
rologic
promoting
inemia
▁neuronal
▁tubes
▁10%.
trated
lue
▁somatostatin
0-
▁4,
opres
▁LH
▁predictive
radi
▁Infection
▁diuretic
▁metabolism
▁29,
▁prolonged
amphetamine
▁lysis
-1.1
▁oils
▁8-
ocardi
▁Nutrition
BMI
dominal
▁(80
promazine
2+
▁ouabain
▁Addition
kDa
hips
mental
vice
carinic
▁lep
determined
▁overt
▁positives
potential
▁dissection
5%),
▁palp
▁caries
ressive
▁donors
18)
▁oste
moderate
▁34%
▁melan
79
▁bronchial
2+]
▁contractile
sectional
▁deliveries
▁anticonvulsant
strain
▁olfactory
▁cessation
▁conserved
▁varicella
▁endometri
▁somatic
▁fluc
admill
anad
▁antibodies
floxacin
▁atherosclerotic
▁mimic
ystic
▁lowering
▁thir
▁40.
▁Caucas
aturia
▁Seventy
glucose
▁sodium
caro
trogen
ranial
oreactive
ociation
▁35
▁Clinical
▁gases
Cu
daily
▁labeling
ronch
echanical
▁granuloma
fetoprotein
▁136
▁multic
pecific
▁dehydrogenase
▁10.4
pig
urther
▁axons
injection
▁differing
.5.
aryn
minis
oA
uterine
▁asymptomatic
▁inspiratory
▁sampled
▁rigorous
▁confound
ituitary
ozo
ochem
▁bacteri
▁progres
mia
▁dor
nitro
▁astrocy
▁inhibits
▁embryo
hyde
▁transfected
▁199
▁satis
luores
▁(22
▁ester
0.1
titu
▁ischem
acchar
arrhythmic
▁79
▁transluminal
▁marrow
ordial
▁antigens
ynthe
▁statis
idic
▁peptide
▁intestinal
ompan
▁perfused
vation
▁80
4%
▁168
▁inadequate
71
scherichia
▁postin
▁6.1
▁serogroup
ogens
▁bronch
78
initi
cents
yclic
▁Surgery
▁verte
▁thrombotic
ubs
▁exchan
▁muscarinic
dihyd
▁tRNA
▁stool
▁collec
▁fractures
▁elicited
▁viral
▁bloc
▁Fifteen
▁neutrop
obarb
thyl
pressing
▁Comparison
▁confirming
romy
▁72
▁viruses
▁aor
▁0.00
▁electr
▁incis
▁mRNAs
▁hepatocellular
astatin
cture
▁paternal
▁implants
psych
▁interfer
▁Mn
▁clus
dibular
▁aneurysms
orated
oxine
▁respec
▁83%
▁2-
rance
▁gonad
otroph
onography
▁2
▁latex
▁62%
tition
75
▁Engl
diagn
▁metastatic
▁0.47
▁indomethacin
▁lipophilic
▁strains
agic
nish
ectable
▁enal
▁53
▁propranolol
▁serotonergic
92
▁conception
HDL
▁0.43
▁endoscopic
▁determinants
▁Holter
▁7,
▁fas
▁enlarged
▁160
▁serologically
▁(1)
luding
▁calor
▁rati
▁nif
▁0.9%
47
▁TPA
farin
▁92
urine
0.6
110
▁nucleotides
▁upstream
