adm
.00
▁glucagon
▁Increases
▁AIDS
▁ANG
▁heterozygous
▁mM
▁opi
100
▁(0.9
phosphate
MW
ubertal
▁tubercle
▁weighing
infection
2]
astases
ucl
▁63
mega
▁streptococcus
▁microscopy
▁6.2%
▁Hear
▁mercury
▁amine
153
▁chewing
▁atri
▁surgical
▁-10
ellum
ACTH
uanti
▁41%
▁endurance
cellular
▁(18%
▁deficiency
▁nM
▁myel
▁interv
▁scanning
▁acceptor
▁amplitudes
▁DV
relations
▁hypot
▁commerc
▁Diagnostic
.3
▁2%.
▁equilibr
ruc
osid
roxy
19)
▁methodology
adren
iliated
▁pathologic
▁Epidemiological
▁71%
adequate
omial
virus
▁supra
olab
▁fluids
▁anticholinergic
▁histological
▁Physicians
▁herb
▁326
orphin
azin
▁inhibited
incubated
▁chromosomes
uresis
▁quinolones
ucose
▁221
▁HSV
▁cytochrome
▁bursts
stro
oselective
▁preven
tained
10),
▁synapses
▁reversibly
▁condensed
▁compressive
linded
▁1988,
▁alkyl
▁ACE
▁5
▁IgA
▁uncommon
▁EF
▁complementary
0.3
▁cardiomy
▁examinations
▁percutaneous
injury
▁cisplatin
hydroxy
▁LMWH
acetic
tochem
CAT
▁allograft
▁avian
▁(5.3
▁(1.9
▁HBs
pH
opyr
▁Optimal
▁clu
▁Haemophilus
erence
vit
▁permits
▁5.9
▁babo
▁kerat
oblasts
unctiv
monary
▁methodologic
restingly
▁paired
enicillin
▁(33%
(2-
▁aspec
▁(2%
▁elast
▁125
▁resolving
treated
cribed
▁derm
icine
dies
▁appra
▁(3.8
▁enroll
▁cytology
▁(2.5
dial
▁myelinated
▁ovulation
35
▁RA
independent
▁harb
smokers
▁provid
erican
anding
▁favored
▁shorten
macropha
athione
ostomy
▁aerosolized
▁swit
▁0.76
▁MAb
▁smear
▁arrhythmias
idase
vul
▁syncope
▁95%
00-
olones
▁intraven
▁70.
osite
▁24%
▁bacteriuria
▁CRF
otides
sively
▁splen
ivary
▁discontinuation
▁deem
▁supr
▁histone
120
/4
OA
▁chimeric
▁cytolytic
▁0.2%
ducing
keletal
onegative
▁MCF
▁0.0
▁electroly
▁serotonin
▁latencies
▁monkeys
planch
▁suggestive
▁275
▁89
▁diverged
▁cylinder
▁exten
▁isoflurane
▁lactose
ipients
▁1.45
plen
onephritis
cancer
▁feasible
apular
▁polymy
▁challen
▁lineage
▁PAP
tracellular
▁overe
▁deple
lomethasone
▁influenz
▁awa
▁pineal
▁disulf
aminobutyric
▁Trials
consuming
▁chor
▁277
▁73
▁unexplained
phrag
▁39
▁lowers
27
▁reinfor
lactating
▁focal
ulatory
▁adul
ophageal
▁negatively
▁Computed
▁interf
▁apolipoprotein
▁rhabdomy
fortable
▁potentiated
obenz
▁COOH
tensives
IFN
▁LAK
▁convul
cyst
opsy
▁Swed
▁detectable
▁daytime
▁3.5
▁angiotensin
▁peritoneal
▁(1000
▁efficac
opril
▁(71%)
rospinal
▁hematologic
▁bronchi
▁novo
19
▁interventions
▁hydrogen
heum
▁Antic
▁PGE
itrate
▁resec
▁accounted
▁faecal
cholesterol
atchard
▁chorio
▁hernias
osome
▁implic
biased
▁.1
.7.
usively
▁elongation
ancomycin
lobin
▁pyraz
mittent
10).
▁genome
▁reconstitution
▁0.000
▁[35
ophag
▁tric
amate
ologic
▁immature
ovaginal
▁spacer
,000)
onide
▁arteriosus
astric
▁5%
▁prazosin
▁coli
tory
▁circulatory
occurring
▁depr
tabol
▁Enal
opause
▁resto
▁malignant
stranded
ocyanate
▁feasibility
▁spinal
▁13.3
▁subcutaneously
▁sonographic
▁enriched
▁HbA
▁uncontrolled
▁quin
▁spanned
▁TGF
izin
▁68
▁preferen
utyr
▁vasopressin
▁qualitative
▁(8%)
▁oxidase
▁hypog
▁Beta
▁flora
▁irritant
▁glomerul
▁resis
▁analogous
otox
▁hypothalamus
▁wean
▁enrich
▁noncom
▁clones
▁swine
rays
risk
▁contractions
urons
jun
▁norepinephrine
▁rostr
▁castrated
▁1.24
▁TNF
PGE
▁vasodilator
▁PCR
▁ovary
▁cephalosporin
▁valu
▁Biochem
ginine
globulin
▁228
▁sensitivities
ejection
▁traction
tophan
▁duoden
oxicillin
thrombotic
▁quantify
▁GTP
▁ferrous
▁anticoagulant
▁estrogenic
▁vasoactive
triglycer
▁cervix
▁benign
▁euth
▁Trial
▁modulation
▁regen
▁targeting
tipation
▁[14
▁NMDA
▁progeny
-72
▁(500
▁roughage
7,000
alene
▁lidocaine
▁insomnia
ophilic
▁arous
▁coh
▁amygdala
▁menopause
▁0.5).
elan
▁Thir
▁lec
▁lectin
▁histopath
LV
▁coenzyme
▁specimen
▁neurom
▁premenstrual
▁expon
▁syncy
▁Excluding
-7)
▁CU
ayers
▁131
▁0.17
▁Combining
▁kb
▁44-
cAMP
▁Phe
▁Ala
ropath
▁(1.25
anese
▁tertiary
▁Neuro
▁Indi
▁vena
▁atenolol
menstrual
methoxy
sparing
idation
▁FDA
mild
▁clot
itin
itriptyline
▁implicated
teroids
▁pellets
▁Phy
▁standardization
peri
yx
LPS
▁verapamil
▁prevalent
▁FEV
encephal
▁cancers
▁shor
yses
ignific
25).
-40
▁undetectable
▁adequ
Gy
olesterolemic
oproteins
▁glutamic
▁257
tivities
6/
▁anticoag
▁nonresponders
istal
▁0.05)
gol
▁93%
▁Differences
▁alopecia
▁renal
▁detergent
▁ratios
8-
▁ANP
▁0.45
▁esters
azepine
Bs
▁fibrob
▁hyperther
▁prolongation
▁1,25(
teral
onomic
▁withdrawn
ortal
▁tibia
▁maximally
▁EST
-29
▁95%,
schem
▁Americ
▁10(7)
▁50%,
▁hospitalized
lude
▁wedge
ypical
▁redox
▁100,000
▁nonres
opathological
▁AGA
▁Acad
imentin
tiveness
▁chol
▁40,
▁BV
▁Benz
▁Incidence
▁0.1,
ocarcinoma
▁(46
tyl
▁8.3
tants
▁propensity
▁gonorrh
▁pep
kinin
▁4.0%
▁chel
▁sacr
nine
▁degrad
onstric
▁bronchodilator
▁stepwise
▁hyal
ective
eration
▁carcinomas
onset
▁interventional
▁nonprotein
▁5.4
▁caffeine
▁albic
▁(+/-
▁percentile
muc
▁euthyroid
233
▁determinations
▁sequel
▁trigeminal
renal
▁0.5%
▁14.8
▁sequenced
▁derangement
▁defic
▁kain
▁thorac
▁12,
pharose
▁plots
▁haplotype
▁piglets
nei
▁0.05,
odon
▁epithel
ymp
acrylamide
▁323
farction
itic
▁lymphatic
▁expectancy
▁alanine
yrate
▁elicits
ogenic
▁adrenoceptor
▁palli
▁Evidence
▁asymp
▁9.9
▁dyspepsia
▁12.0
▁EEG
0%)
tilis
11.
roin
37
▁10.7
▁arachid
LU
numbered
odil
▁weaning
omiting
▁superficial
▁reconstituted
NH
liters
-25
ocarcin
▁melatonin
-13
ypro
▁precursors
▁7.3
ostasis
▁dentate
ocin
▁endocervical
▁embol
▁conges
▁anemic
-100%
▁extrac
▁uro
▁forsk
▁acids
▁CDC
ogenes
▁homolog
▁reversal
cus
▁amiloride
Ti
▁nucleotide
▁undiagnosed
itance
▁hemisp
inj
▁0.50
dose
▁121
ratic
▁acidification
amilies
▁reacted
5-
▁esophagus
roso
tetr
havioral
effec
▁indirectly
▁splicing
5,
▁lute
▁folate
acetate
▁80%.
▁biop
ositi
▁sensitizer
osomal
▁postinjection
osamine
▁(75%
▁181
9.
▁collateral
89
▁stroma
8,
▁insom
PMA
▁phospholip
▁CFC
77
piper
electron
lies
athiop
▁PLA
▁speculation
▁Glucose
lasts
▁ligation
▁modestly
▁guanine
▁Estrogen
▁321
trate
▁Positive
arginine
▁persistently
▁(62
▁Routine
7).
▁quantif
▁intramuscular
eces
▁elicit
▁9,
.2%)
phyl
▁cate
▁xanthine
▁[125
▁miconazole
acrine
lobulin
▁deform
ifed
immunoreactive
▁recor
▁cac
▁cep
▁plasmids
operox
openia
▁PN
▁56
tives
▁abdominal
▁supine
▁binds
▁Cd
▁cG
▁microv
▁phenomena
▁PCP
▁hydroxyl
▁inhibiting
▁melanoma
▁overestimated
esarean
▁Investig
▁sti
▁Insulin
▁exudative
ffeine
▁maternal
ophila
▁ADA
ADP
▁heterosexual
▁arose
▁homologous
cinolone
trone
▁7)
▁ribonucle
▁coag
erving
▁mammary
▁fasting
▁(67%)
-10.
▁plasm
ocytic
omn
▁menopausal
▁ulnar
▁contradictory
▁0.016
izine
▁Previous
Glc
▁(5.1
105
▁microsomal
▁intraoperative
▁interferon
scop
▁37%
▁fetuses
uride
▁dexamethasone
tingu
▁nondiabetic
▁scle
.8%
▁Bac
▁digestion
▁depres
-1000
entan
oscop
▁10%,
ermal
▁spasm
▁perfusate
▁argues
regulated
▁acros
▁(3
▁cones
▁bilaterally
▁21.
▁21
ceptive
▁statistic
embrane
▁alteration
▁benzodiazepines
▁tomography
▁[(
▁hydrolyzed
controlled
▁doses
▁attained
responsiveness
▁detecting
▁postnatal
amphen
robial
▁101
29
▁susceptible
▁diastolic
heal
▁radioactive
▁56,
▁radiograph
ASA
▁INH
▁proline
tracted
associated
▁optic
▁attenuating
▁peroxidase
imus
▁VV
-50
iesis
tence
▁PMN
▁gluten
▁16,
▁62
organism
tized
▁comparisons
▁250
▁Prevalence
▁perforation
▁esophag
▁22%
▁nonselective
phragm
▁contributes
roxim
Kd
▁150,
▁cerv
surgical
aminidase
▁scintigraphy
afloxacin
▁15%.
▁messen
▁interpretations
▁membrane
▁ultrastruc
▁SHR
▁maturation
▁locomotor
▁supple
▁arrhy
eradish
▁0.02).
450
▁133
▁postural
ethyl
▁synthetase
-2
▁determinant
▁renders
▁encompass
0.
▁(50%
▁Chronic
▁microbi
▁constriction
▁Tric
7;
▁600
▁persisting
▁sequential
▁insensitive
▁triamcinolone
▁kinetic
esic
▁ciliary
▁differed
▁18,
Nor
▁LPS
enan
▁recons
▁leukocytes
▁neurologic
tures
▁CRP
ondyl
Tc
▁resear
▁proteoglycans
earance
▁exaggerated
▁1:
vity
▁confers
▁80-
▁voluntary
viron
ischem
▁4.2%
▁exons
▁0.59
▁pentobarbital
▁sulfonamide
▁radiotherapy
▁pharmacy
▁naproxen
▁modif
▁BALB
▁356
▁oxymetazoline
trophin
▁infusions
4.
▁1%
PAF
3;
▁regis
rophob
tel
▁perim
▁500,
▁12%
▁regulating
▁muta
▁varic
disciplinary
▁disapp
▁brid
▁580
thmic
-450
▁dialys
ovis
▁Cyt
electro
ainide
▁8.6
▁cetirizine
▁aqueous
4%)
invasive
▁myocardium
filament
keratin
threatening
▁IUD
▁disrupted
▁verbal
osarcoma
▁excre
▁Chrom
mortem
▁manifestations
▁benzoyl
"-
▁Km
elong
▁(200
▁conditioning
▁0.03
▁admissions
▁EMA
▁lysozyme
▁237
▁Aspirin
▁splenectomy
▁vomiting
▁PKC
tents
alanine
Ta
iplinary
▁dosage
ymmetric
▁cys
▁perfor
▁endoscop
▁attenuated
▁autonomic
ygdal
chicine
porting
▁fluorescein
uminal
▁hexa
stim
omann
▁aggre
▁poli
▁cloning
Ace
▁electrocardi
EAE
▁(2),
▁5-
▁2%
▁employing
▁lutein
▁metatarsal
-3,
tro
.4
▁titrated
▁goiter
▁catabolism
▁ration
▁72%
antial
▁unclear
omycin
▁0.83
acial
▁proportional
▁polarity
embr
cessively
▁PRA
96
▁sial
affinity
▁PEFR
olerant
▁lactate
▁mating
▁libitum
▁tended
▁cerevis
▁subf
utable
▁perinatal
▁lessened
▁follicular
▁34
▁73%
▁surrogate
▁PV
▁lacks
▁1.46
intensity
▁genital
▁inges
▁emphasized
▁dihyd
▁resultant
▁17-
rocy
▁classify
▁kDa
aluation
stin
bular
istar
oretical
Lac
itre
▁nicotinic
roma
▁baths
▁insol
▁spon
▁hypothesize
▁7.2
tural
1%)
▁triad
titute
2.1
0%.
mmol
24)
▁triti
▁(15%)
▁saline
▁128
thre
arrh
▁Basal
▁coagulation
▁0.99
▁Neph
-17
▁protec
▁enrol
anking
▁7.4
tually
inopril
ecia
▁infarct
▁(10(
▁1.09
dehyde
▁cardi
▁0.10
thick
▁polypeptide
33
▁perfusion
▁adequately
ithium
▁predicting
▁lambs
▁orch
▁referral
▁lor
▁3.4%
▁0.94
▁compart
▁cirrhosis
trition
uracy
▁proteins
▁endothelial
othyroid
antagon
▁propionate
▁isolate
▁evid
▁(4%)
▁Ninety
ivacaine
-1.
▁altering
▁carbam
▁6.9
▁117
erated
ifferen
▁quanti
▁78%
mostly
▁54
ovastatin
▁Mortality
unced
▁GLUT
▁eluc
▁atopic
iplin
idem
▁dermal
ximide
eprazole
▁285
ipro
▁ingestion
▁amin
▁(7.4
▁63%,
98
ithelial
fected
vular
▁neuron
▁alkal
▁ADR
mol
▁blasts
jac
▁Groups
ophren
▁14%,
yrib
lycerol
oprotein
▁fibrill
▁duct
▁NR
▁pressures
sors
▁curet
▁incubation
▁glucocorticoids
▁similarities
▁frog
▁simult
▁excision
▁competence
▁indus
▁nonpregnant
dil
Wo
▁6
mentation
topril
▁157
▁lymphoid
▁epinephrine
avir
▁1-2
▁Lymph
▁conclusive
potassium
retro
rosemide
▁retrospective
▁celiac
▁somn
▁kinases
inally
▁disposition
(2+
▁96%,
▁complexes
▁degen
▁couns
0.0
▁antid
ALT
thyroid
▁Impair
▁1.53
osum
naud
quamous
▁nutritional
oag
siologic
helical
vaginal
those
assay
oactive
▁lamb
▁undergo
▁340
GFR
thymidine
▁masked
▁undetermined
▁trimester
▁helical
▁substitutions
irubin
▁37.5
-5)
otent
thase
▁quies
dia
▁mellitus
erythro
▁prolif
▁RNA
aric
kic
▁levonorgestrel
▁cholesteatoma
thi
▁dioxide
▁Electro
10-
tism
▁0.93
▁supernatant
imidine
▁stres
▁retarded
arum
▁Delayed
▁bulb
kely
▁ELISA
21.
▁ketoacid
▁thym
-4-
▁25%
▁3.3
▁toge
▁(31
▁transverse
▁hypertrophy
sistent
▁hepar
-6,
iflu
▁exud
hene
▁myof
ilin
ulant
Fs
▁cann
ietin
HB
otransferase
▁innerv
▁epidemi
effectiveness
▁respiratory
orenal
▁aortic
▁constitutive
▁cardiople
▁Progesterone
▁(47
▁bovine
▁NN
tivity
▁0.3
tec
▁readings
▁glycer
glyc
▁caregivers
▁VAS
▁categorized
▁Localization
himb
tioned
yloid
▁cereal
▁KD
▁phasic
PGF
orbol
adication
troduction
▁Infant
oporotic
▁peroxide
▁(11
▁maneuvers
▁Patient
10,
otyp
▁4).
▁3'
▁hypoventilation
▁substitution
▁guinea
▁elec
▁154
▁amputation
▁pituitary
▁merit
ardia
▁larvae
-79
iosis
omere
▁crust
▁Whereas
▁bradykinin
▁Initi
glutinin
▁conduc
▁perit
achial
▁curettage
ureth
▁1.03
▁modalities
▁1.48
▁LV
▁oocyte
▁estradiol
▁(4.8
▁recurrent
▁intrad
monstr
▁symptomatic
▁granul
opecia
ocysteine
▁10(9)
▁nebulizer
▁supernat
lytic
▁IB
▁Lipid
▁pec
▁Compared
▁reproduc
▁responsive
▁uniquely
▁inconclusive
▁adjustment
▁microgram
gression
▁dex
▁1/
▁uptake
arachnoid
iscal
▁radiography
▁appreciable
▁156
▁addi
▁superv
▁irrespective
▁activator
▁Prel
▁8%
▁tubular
▁psoriatic
cad
entricular
▁nitroprusside
▁gelatin
4]
romes
esthe
▁discrep
▁315
▁granulomas
titut
▁cortex
▁(28%)
▁suppressive
ectom
▁calcium
▁4.5
Cer
▁56%,
derived
▁circulating
assi
4)
▁(98%)
hospital
moking
▁unscheduled
▁7.5%
drome
difference
▁hydrolys
▁74%
tif
▁amiodarone
HRP
▁grading
▁acetonide
▁fulfilled
/7
▁mononucleosis
▁evidenced
▁1.6-
2).
tors
▁13-
roscop
▁substantia
▁Epid
▁cytosol
2-
▁rup
anis
▁monolayers
▁differs
▁9.5
▁pooling
▁pts
tub
▁[3
entif
▁jugular
▁parietal
▁discriminate
▁encoun
▁hippocamp
AFP
▁innervated
000)
▁uniformly
▁mitogen
▁guanosine
▁anesthesia
tation
restric
▁contracep
ycin
rox
▁11.
▁universally
▁OD
timulus
▁conformational
-200
hemo
▁0.60
▁asymmetric
▁hyperch
olum
▁foc
rane
▁nephropathy
molec
throm
onas
onuclear
▁eosin
▁gluc
▁Chlamyd
releasing
▁reabsorption
▁Electron
▁5.7%
ococcal
▁transferrin
▁analysed
▁EI
16
▁autoantibody
▁PEG
▁151
▁352
onit
▁Growth
▁mitochondria
▁brach
-81
isomer
ymme
▁cAMP
▁transthoracic
▁ect
▁bac
▁athlete
▁phenotype
oprim
▁devoid
ositive
▁titers
adol
italopram
pine
ulph
▁salvage
▁Reduction
▁heparan
▁phosphatase
16)
▁0.95
▁lymphadenopathy
17,
▁antiserum
▁transaminases
▁20-
▁antim
Pa
▁collic
▁10.5
▁Sulf
▁favors
1.
▁dilatation
▁caud
▁kidne
▁(1),
ditions
▁4000
▁4%
-4.5
quam
estions
directed
adecan
ystolic
▁exhibiting
▁bacterial
▁elu
▁triglyceride
▁regulated
▁hepatoma
▁cutoff
amines
▁discontinu
▁unil
▁reproducibility
▁ischaemia
▁78
rachial
2.2
▁posi
ochrome
▁EGF
▁diame
15)
lyc
rinary
phosphorylation
▁genitourinary
▁precordial
inescence
▁166
▁Kinetic
▁endothelin
.8
▁1969
ervoir
▁implantation
▁influenza
amn
▁0.5,
▁aspiration
25.
▁amel
hers
▁histologically
ropathy
▁preceding
▁excessively
stress
yel
▁betamethasone
▁shedding
▁febrile
▁gum
▁5.7
metabol
▁sucrose
▁4.9
▁clearance
▁establ
▁HBV
▁223
▁echocardi
▁atrophy
▁surveyed
125
8;
▁morb
namic
xiety
aline
▁accessory
▁submaximal
▁LC
odiaz
▁subcellular
▁(35%
▁viability
▁microns
▁reduc
rophenyl
▁TI
▁Highly
jects
tization
ROS
CBF
ulinemia
▁ascending
waves
,2
ulators
esophageal
▁oxy
▁metab
▁142
▁(10%),
▁coordination
▁Purkinje
tizing
▁7.
▁conjunction
▁abnormally
▁6%)
▁frac
▁transloc
▁26.5
salt
ycline
▁evaluating
▁compositions
-5-
▁fibrillation
▁activates
▁(84
-4
tens
allikrein
expressed
▁slowing
▁ligands
otamine
▁68,
▁8.8
▁BCG
ologous
▁demonstrable
ausea
▁thymidine
0%,
ults
▁poisoning
▁203
phthal
▁intensive
▁99%
/18
▁preserving
▁uncl
36
Phe
ulon
▁multim
eptidase
▁1-
piratory
HCO
ffec
▁superiority
▁discomfort
86
enterolog
▁mannitol
ophylline
vival
▁(16%),
▁entero
▁actuarial
▁conservatively
▁atherosclerosis
onidine
▁carcinogenic
▁ether
isomerase
obacillus
diol
▁SPL
▁(60%)
ofen
▁tubule
▁chemot
▁succinyl
▁50,000
rected
▁antepartum
oxone
▁predictor
▁analges
▁SEM
▁progen
erating
▁(140
tidine
▁subgroups
▁Feeding
▁supplemented
▁antic
▁neoplasia
▁forebrain
▁discrimin
urrence
14,
▁compe
▁conformations
▁atheros
umented
40
▁sperm
1).
6),
▁thyroid
orrhage
+/-
▁MK
diagnosed
vertent
▁IU
/1
▁scin
deple
▁endarterectomy
▁acet
▁discontinuing
▁phorbol
terolog
gthen
▁(76
▁inversely
isoxazole
idym
▁Hypertension
▁0.42
▁22.
▁ventricles
▁controver
▁underestimated
▁valproic
▁prescrib
▁Mast
ylated
▁biosynthe
sible
▁immun
▁sialic
▁quiescent
00,
▁206
▁neurons
aryng
▁appendicitis
optic
▁GDP
▁summ
▁Escherichia
olerance
osclerosis
▁uv
hydration
.0)
▁RNAs
gestin
▁71
▁nucleus
acti
▁557
▁ablation
▁objec
▁80%
phosphor
▁24-
▁pretest
▁80.
▁cholec
-2,
▁graded
▁5.4%
▁appendic
▁yiel
▁menstruation
▁inactivated
▁hypotensive
▁absorbable
▁Doppler
▁amo
herol
▁cis
▁caloric
▁Gly
▁diaphragm
▁RAS
gnetic
▁0.23
ergency
▁immunode
▁predic
▁reliability
ventricular
▁assessed
▁progression
rowth
▁kinetics
primed
inase
▁arth
uscular
oporosis
tase
pregnant
atectomy
116
▁duplic
ectasis
▁vesicles
ococcus
▁Binding
▁myeloid
▁misoprostol
1),
▁uncoup
enon
▁histidine
▁inhaler
83
thirds
▁biom
▁subcl
▁clinics
▁systemic
▁leakage
azone
▁stripping
osclerotic
enzymes
otoxicity
▁synaptic
▁densities
▁promoters
altered
▁studi
▁extensor
▁mitogenic
▁abl
▁hemorrhagic
-18
tively
▁suppression
▁fractional
pril
▁endometrial
▁lamin
▁(-)-
▁basolateral
▁6.6
▁cations
▁ovine
▁proce
▁rickets
▁(49
lycero
▁adnex
esium
odop
pecies
▁Testing
▁complication
-9
▁nicot
▁dilation
5%
▁decub
▁adduct
▁bisoprolol
ADA
▁preeclampsia
Hep
mobil
vely
▁thrombin
ectomies
tectable
▁fluoxetine
▁bilirubin
▁350
▁transiently
▁Replacement
▁8.2
▁incid
▁(33
▁ATP
▁microbiologic
▁CFU
▁resected
▁oncogene
▁4.8%
10.
▁corne
ognitive
▁uncom
▁prednis
▁simulated
▁14
EG
▁mandibular
herence
▁246
ygo
▁chondroitin
▁iatrogenic
inositol
comitant
▁reductase
▁lact
▁(5.0
▁CMV
▁subgroup
▁suppressor
.4%
▁postprandial
apride
▁immunoblot
▁cigaret
reast
▁1.04
▁sedative
ctomy
▁spas
coronary
▁inguinal
▁33.3%
▁vagin
▁hered
oreceptor
oterol
▁polym
▁excretory
▁carbohydrates
▁194
▁Surve
▁judged
▁20.
2+-
▁empirically
▁hematocrit
▁carcinogen
▁hypothyroidism
oprol
ococci
▁91
53
▁mitochondr
▁bile
▁herpes
▁extre
▁polyp
▁reticulocyte
▁posth
uccessful
6%
uled
▁hematuria
▁Dex
▁warfarin
▁homeostasis
▁51%
▁MV
▁benzodiazepine
▁ovaries
▁impairment
▁10(5)
▁fluoroquin
▁isoprenaline
3/
▁wee
▁aeruginosa
▁dysfunction
oronary
▁membran
▁overestimate
aturated
▁inoculated
ocardial
▁thiaz
pation
acil
▁yeast
▁cysteine
▁galactose
▁0.01),
▁(197
▁azathioprine
▁blocker
▁mono
testosterone
osition
overed
▁augmented
heximide
▁TDI
uating
arre
▁pK
▁10
▁42%
pharmac
▁(89%)
iotics
▁Sixty
▁(7.2
▁dehiscence
▁antichol
aminoglyc
▁lining
▁3;
▁pI
▁infusion
▁retic
oligo
▁recruitment
▁amoxicillin
▁nondis
otriene
sied
▁brady
▁cleft
▁angi
▁Tn
▁thems
▁2-3
▁airway
.2%
tering
▁selen
establ
cepti
▁graf
▁influx
▁(40
dip
xyl
tillation
▁phosphor
▁specimens
▁emulsion
▁hippocampal
raine
▁effusion
divid
traumatic
-78
▁Nit
▁symme
▁glycol
▁11.2
▁blockade
▁benzyl
apeutic
▁alters
lox
▁methimazole
RIF
▁debr
▁vasoconstric
▁reversible
stimulated
▁furosemide
▁Dental
kground
▁attributable
▁10.8
atrial
▁0.20
neu
▁mammalian
▁1.9
iatum
etal
▁(3),
▁57%
▁ach
▁differe
emetic
▁vasodil
▁chamb
▁LN
▁exert
▁gyr
▁Prevention
dered
▁phleb
PRL
teric
▁(16
treatment
izability
▁recombinant
▁tib
oluble
tia
▁CI
tolerated
▁yielded
▁Transient
▁micrograms
▁vaccines
▁cla
▁10(4)
▁examining
▁hygiene
toc
▁mitral
▁paren
▁24.3
▁Caucasian
▁118
▁Vitamin
acin
toxic
▁glycosylated
▁neonatal
▁regurgitation
▁284
▁carboxyl
▁scans
▁subunits
▁fibrous
gesic
▁bene
▁AH
▁stained
scher
▁schizophren
▁metered
▁chorionic
therapeutic
▁TS
▁succin
meg
▁syngeneic
Gal
▁Retrospective
ffinity
▁Golgi
▁650
▁hepat
▁infra
▁plaques
▁17%
▁cytoch
▁hypertrophic
▁IIb
▁0.8
5);
FGF
▁tryp
▁fati
▁75
osyl
▁stric
medicated
(4
▁infarctions
-90%
rogesterone
▁originating
▁infectious
▁0.69
.0,
▁RU
▁suppres
▁advan
▁myelin
▁vacu
▁ewes
esides
▁polymerization
▁aerobic
▁indi
quine
▁contrib
roxic
▁(150
▁Significantly
▁exag
ifugation
linking
▁colos
▁isomer
▁mening
▁electrophoretic
iruses
lated
vaccin
tance
icidal
plants
▁intermediates
▁0.01,
▁chronically
tration
▁183
▁pHi
▁fibrosis
▁sensitized
▁electrom
planted
▁adenosine
rostenedione
▁inorganic
insulin
▁unrestricted
▁levodopa
ensitized
BSA
orrheic
glutination
exercise
-100
▁resol
▁167
atonin
oprostol
▁tolerability
▁definite
▁embryos
▁HLA
▁axon
▁(1.6
▁Experimental
▁maneu
odone
onates
▁synap
▁(27
▁adenoid
▁scro
▁83
▁nystatin
▁Adequate
serine
rans
▁depolarizing
azol
olesterol
▁quinacrine
▁facilit
▁193
tumor
▁naloxone
trover
▁therapeutic
▁Inte
56
olization
▁Leukotriene
▁Chan
▁blots
gestation
isolated
ritin
▁lyso
▁Phosph
motic
ucleotide
▁1960
▁deoxyrib
▁hormonal
▁septic
▁reflecting
▁isoelectric
▁breaths
▁reversing
▁20%
▁glycemic
▁vaccination
overall
plate
otoxin
▁depolarization
Gi
▁20
▁herni
▁preoperative
▁longitudinal
▁phospho
atified
omorphine
▁hypoth
▁(4.6
▁1.44
▁truncated
▁superf
▁LT
▁corpuscular
90).
▁91%
lasses
▁Effic
▁uni
▁dele
agas
▁ulcer
▁(5
duce
irubinemia
▁blinded
▁schedules
loro
▁Tryp
etan
▁cyclical
▁ana
▁worsened
HbA
iodine
▁pharmacologic
Rs
▁0.02)
rague
-1),
tigo
-)-
▁107
osyltransferase
reasing
▁epidermal
▁plateau
▁divalent
▁hydrophilic
▁dib
dyle
▁canc
▁mug
▁NF
▁transplanted
1);
quit
▁modeled
▁endometrium
▁exacerb
▁perox
▁inflamm
athy
ethanol
▁unaffected
▁9%
▁crom
▁increments
▁CAH
▁CTL
agin
▁17
▁homogene
▁hemodynamics
▁inser
SMR
▁pneumonia
iminary
Lys
▁incision
▁DD
▁dentures
flamm
▁ultras
▁paralleled
00)
▁nominal
▁prolactin
▁topo
▁49%
ortic
cros
reatine
▁(94
adecanoyl
linic
otone
iferative
meth
▁2.9%
▁Urea
dependently
ectomized
▁HB
omplete
▁Respiratory
4.1
▁1,
▁potentiation
▁cathe
edic
▁NADP
▁polymer
retic
▁compensatory
▁insignificant
▁clonidine
▁haemat
▁227
ionate
▁natri
▁saturated
▁pyrid
▁conduction
▁273
▁ionic
▁iodide
▁angina
▁isolates
▁venom
▁mononuclear
▁severity
▁11.0
▁tenderness
▁0.12
▁ophthal
▁33%
▁Pneum
▁streptoc
▁valpro
▁mediast
▁1.00
erance
RH
otypes
lyce
▁SDS
ogenetic
▁septum
▁ureter
▁progressed
▁variously
▁cerebellar
27.
▁rhin
▁24
▁efflux
lline
-52
NAc
▁contras
ANF
▁visualization
▁pathogenic
▁7%,
▁salbutamol
fied
▁GnRH
▁OKT
-5,
▁genit
anuary
▁hep
▁subjective
▁latent
▁2/
▁intracerebral
▁(79
alian
▁36
rangements
▁Ig
▁poorer
▁trypsin
▁perip
▁5'-
tency
▁SMR
▁constituted
▁enterocolitis
▁15.
▁glut
▁70-
▁predisposition
LG
▁itching
▁glucocortic
atally
▁cyto
7/
▁afferents
▁borderline
ostatic
▁HCC
▁microorganisms
thin
▁Screening
▁Evaluation
▁3.8%
▁sulph
▁subjec
sensitive
)],
▁paroxysmal
partic
rophy
▁bipolar
weighted
bromo
▁docum
▁2.7
▁perikary
fal
▁mediators
12
▁benzodiaz
phyrin
ACA
▁hypother
▁exerted
▁inhibit
usp
exis
tructural
-88
stem
ections
▁retin
▁dissemin
embers
▁(8
▁tumor
▁cycling
ollagen
particularly
▁interacted
▁RV
-7
▁testes
omatic
▁bacterio
uracil
▁enrichment
▁6,
44
▁institu
▁exercising
purified
tryp
▁(3)
▁hypotonic
▁physici
▁efficacious
▁intest
▁Risk
galactosidase
▁referrals
▁309
mur
▁(1:
ophyll
▁elong
▁grise
▁titer
▁IDDM
▁gastroenteritis
▁polypeptides
▁gastrin
▁monkey
cade
tries
BMD
totic
otrexate
oneph
▁modifying
▁ORF
▁ranitidine
▁lymphomas
tilage
▁crude
▁tympan
▁HAM
▁adenocarcinomas
▁curric
▁reiter
rophic
MN
▁20,
68
▁organism
▁vein
ophys
▁unbiased
aminase
▁sulphate
▁decreased
▁chloramphenicol
hCG
▁homogenates
▁PTH
▁resemble
▁structurally
▁digesti
▁liposomes
%),
▁0.11
▁24)
▁prophylaxis
▁HCO
▁ofloxacin
▁sacrificed
▁nonsignificant
leuk
▁solitary
/24
▁influencing
▁metr
feron
▁CAD
:30
aldehyde
▁hamsters
▁denser
▁acces
▁bacteremia
▁hams
▁tumors
▁cefaclor
▁Maximal
▁midline
▁illnesses
▁adiposity
vaccinated
▁dosages
▁0.1
gement
nucle
▁resembles
▁fertilization
LR
strand
▁catecholamine
▁cotrans
▁-1
▁0.07
▁Parents
▁neurogenic
ardias
▁thyro
Ci
opamine
lact
▁Hib
immune
illaries
apo
▁metastases
histamine
▁hemodialysis
ressing
▁benz
▁mcg
▁epilepsy
tisone
▁durations
trates
▁spor
▁capsaicin
cemic
▁(1.2
ionic
vivors
▁substances
▁macrophage
▁derange
▁SOD
onary
▁resorption
▁ribosomal
▁recom
▁59
clo
vastatin
▁glycoproteins
▁orally
▁Intra
/6
enters
ogl
▁hereditary
▁20%,
micro
gA
▁Abnormal
31,
▁cardiac
▁quantitatively
▁pacemaker
▁defects
▁0.34
▁Carotid
lysine
▁respiration
cale
▁immunologically
sA
▁lytic
▁acidosis
▁PBL
▁mutation
▁prescribing
▁sarc
▁abbrevi
▁5.2
▁acetic
▁gradual
classified
▁transmitted
▁sensitization
▁0.56
▁neutrophils
▁genotypes
▁152
5-0.
▁ramipril
mTc
unctional
▁158
▁unaltered
▁parental
▁chlamydial
▁fused
▁Immuno
▁pooled
▁doubled
▁subpopulation
hemoglobin
▁umbilical
tran
tage
uitable
adap
trac
producing
semin
▁intraper
tability
▁apomorphine
▁arising
alan
▁carp
tations
ometh
▁sple
dg
oxyrib
myr
mL
▁serological
▁Depending
violet
ochromatosis
rences
▁anaesthesia
umbers
lycer
-21
▁cytos
turally
▁undere
▁PAF
▁diarrh
▁lipids
▁wavelength
▁myc
▁elucidate
▁trophob
2%
▁concurrent
▁GV
mediately
▁0.58
Dawley
▁testicular
▁membranes
disc
.5%
▁invasiveness
osus
▁pylori
▁90.
▁intravenous
tant
▁12.5%
▁particulate
▁immunotherapy
▁interrup
dotoxin
▁hemorrh
▁surgeries
▁deterior
▁Acet
▁124
omyces
sion
▁yr
▁17.7
▁sickness
ranolol
▁255
ocompatibility
▁produc
weigh
▁21.2
▁hydrox
▁noradrenaline
cytosis
▁hypnotic
▁slices
▁naf
▁nylon
▁residual
▁medicines
▁10(-5)
▁90%,
luent
▁metformin
▁seasonal
▁localization
7,
▁Abdominal
▁diges
▁0.5-
▁(23
▁cholest
▁glycos
SAID
-(1
scheduled
tam
▁sebaceous
▁monolayer
▁oligonucleotide
▁stenting
sustained
bilities
▁immuno
otting
mitters
agonists
▁resul
-85%
▁56%
ipid
▁5.6
▁orthoped
atches
hesus
-10(
▁pM
▁antecedent
▁84
▁horiz
▁pulses
35)
▁intraepithelial
▁Oral
▁5%,
▁spleens
mature
▁(38
▁provoke
▁HI
▁2.7%
myc
▁mice
▁puncture
▁26
▁8.3%
▁mediator
ecyl
acids
54
anin
gesterone
▁cation
.2
▁pyruvate
▁repro
▁retina
38
tality
▁52
▁hazard
piration
▁imaged
▁infertile
▁glucocorticoid
300
▁myocytes
ocap
▁(44
▁indeterminate
▁0.87
▁sorbitol
▁promptly
▁Measure
ocor
▁jejunal
oracic
▁Injection
▁thiazide
ithine
TGF
needle
▁meniscal
apine
▁28)
▁obesity
limiting
iceptive
▁replic
EDL
▁cleavage
▁grouped
derly
calorie
▁LDL
ventilation
▁oss
▁30,
▁eosinophils
▁staphyloc
▁limb
▁symptom
▁perin
trous
▁wt
▁bronchitis
▁twitch
▁Hg
▁biosynthesis
▁phosphorylated
▁deterioration
roxetine
▁stimul
rehen
▁0%
▁Extensive
▁cutaneous
▁recurred
▁18.
▁(4-
▁psychomotor
▁difficul
▁115
(2)
▁specificities
▁sorb
relaxation
▁asymme
▁macromolec
8)
▁11.8
▁patella
▁plexus
▁digestive
▁astro
▁Medicare
▁secretion
-65
udent
▁tris
cyclic
▁0.78
▁presentations
▁plotting
▁MHC
urk
▁dermat
▁xen
itamin
phor
PSPs
▁occurrence
▁nasal
▁Calcium
▁assayed
▁15%
▁isotope
▁16-
▁parox
eeding
▁congenital
▁azithromycin
▁(45%)
▁Pulmonary
▁iliac
hydramine
(2
▁1.29
23.
50
trical
▁staining
▁fertile
▁depressive
4),
▁hyperpolar
▁inhal
helium
▁folding
yrid
bral
▁8)
/32
▁hypotheses
▁cic
▁lactulose
phage
EGF
▁solvent
▁IA
roline
▁chymotrypsin
riton
▁cadmium
▁261
tical
▁progn
▁radioactivity
lavicular
▁0.75
entanyl
▁0.55
▁Leuk
atical
▁0.3%
▁neuros
adiol
fir
anserin
▁Prospective
▁termination
11
▁degeneration
▁0.88
actam
thym
▁androgenic
duction
▁86%,
crist
prisingly
5.
rein
▁cholera
▁2.6
▁immunoprec
▁(4.0
▁1.18
▁100-
▁confirmatory
,3
owel
▁1.38
ubation
▁ventral
ogenous
▁uterine
▁selectivity
▁30%,
▁alveolar
ofib
soluble
▁8.0
turb
▁tau
tib
▁40%.
▁mathem
yto
referred
▁bacitracin
▁arthroscopy
▁1.21
▁desensitization
cein
▁cerebral
▁differentially
dosing
ysts
▁antipsych
▁tumour
IH
▁consecu
▁methodological
ochrom
IIIa
▁distrib
▁ultr
▁RP
lash
▁viscosity
osensory
tebral
▁histamine
▁hypertonic
▁respir
▁downstream
▁Salmonella
▁averaging
ecan
otoxic
▁actin
illar
▁intravenously
transformed
▁cereb
atories
▁neurolep
gm
▁Acute
vus
tium
▁epitopes
▁6%
▁allergy
▁Eco
onucl
erents
▁pulp
gia
▁umb
▁lengthen
-1.7
▁cyclic
▁ventricul
▁poses
iability
▁-0.6
▁gp
ervations
osol
▁neuroendocrine
compared
▁5.9%
fat
▁spikes
▁regimens
▁Lact
▁ultrasonography
▁bromocriptine
▁ABR
osts
phosphamide
phosph
AO
▁intram
coh
phosphatid
▁cyclase
▁congestion
partate
stimulating
oprote
▁microscopic
drug
▁subsets
▁lithium
generation
arrest
▁rabbit
6,
▁pathways
▁bradycardia
▁untrained
▁thio
▁retinoic
▁prospective
▁antidepress
erate
avail
planchnic
erge
▁chorion
▁equivalents
alact
blood
PSP
▁hyperthyroidism
▁(4)
30,
▁(35
ogeneic
▁hydrolysis
sies
▁94
-1-
▁dB
tte
▁60-
▁valerate
▁(69%)
▁3-
▁friction
oxyl
pA
▁colic
▁fetus
▁mep
arone
▁esophagitis
84
▁terat
▁Thoracic
▁cellular
▁12
▁noc
▁disturbing
▁differentiation
▁PF
▁colliculus
ocyte
▁ASC
roat
▁tolerate
▁termed
▁RII
uppressed
▁74
▁recruited
▁occupational
▁decubitus
▁trabec
tices
▁14-
ocl
▁relevance
▁facilitated
iodarone
▁titres
▁abstinence
▁(1.5
▁coval
▁thyroiditis
acet
▁trig
▁immunod
▁77
▁-0.7
▁ischaemic
olipids
3.
▁(50%)
▁mutagenesis
ometri
▁[1
hydryl
'-
roglobulin
▁vimentin
▁aerosol
mide
▁cured
▁Eb
operoxidase
pirone
▁(-0.
lipid
▁nonm
▁297
▁preceded
▁inherent
▁195
kelet
▁CRH
oxid
▁ovariectomized
▁beverages
orin
▁ADH
intestinal
-2.4
▁jejun
tative
gluc
▁amitriptyline
roth
▁unselected
organic
2)
▁0.2,
+.
▁CG
ovalent
▁gynec
▁38
gian
51
▁polymorphism
sities
fusion
▁urtic
▁sph
▁subtypes
pectively
tions
▁28.
trients
trimester
▁agglutinin
ystokinin
▁kary
ophore
bility
▁fertil
▁subc
ocytosis
epsia
▁-5
leucine
ithm
▁potentials
epines
▁AK
▁comorbid
▁carc
▁weighted
▁indefinite
3+
▁preexisting
▁99
▁archite
ellar
▁pla
idating
utaneously
timulation
▁compares
▁incom
▁backgrounds
nosis
▁17.8
▁herp
▁primed
ospor
entanil
▁nonsteroidal
▁uncomplicated
▁Estim
▁800
▁abundant
▁baro
venty
▁undetected
▁renin
▁extracorporeal
▁anomaly
▁angiography
▁colitis
▁ganglion
▁anions
achnoid
▁amygdal
▁twofold
▁ileal
onor
PCR
▁irritation
administered
▁alp
reases
▁instrumented
▁incontinence
▁glycosylation
▁49,
▁50
▁induc
nai
01
▁296
mokers
322
▁radiolab
▁antisera
▁Individuals
▁sca
▁pancreatic
▁steroid
▁fibroblast
▁CAT
▁66%
▁upd
-48
▁pneumococcal
▁triazolam
▁ciprofloxacin
evoked
▁reinforcement
▁prostaglandins
▁dietary
▁104
▁tubulin
ganglionic
olecular
▁Statistically
▁ambient
▁61%
poor
▁muM
▁possi
ophils
▁articular
▁IGFBP
▁CSF
atine
tron
ipit
odality
greater
▁septal
▁rota
▁85%.
ophy
▁8-12
▁stimulants
physe
▁identifiable
▁cytomegalovirus
▁SRIF
iological
20.
pendence
chond
9),
▁exploratory
cretion
▁(1.3
▁inversion
ovarian
▁adhered
▁0.46
▁isozymes
▁MCA
▁106
uclear
▁Cardiac
▁apprec
▁clues
umably
phal
▁physiologically
▁Hyper
urban
▁anat
▁myosin
-20%
ariate
02
glycerol
▁Kd
transferase
40)
▁270
omotor
ormone
▁110
▁Diabetic
▁motif
ietic
▁Nons
▁exponential
iton
emory
omain
▁1.07
▁gyrus
ylene
▁resemb
within
▁chromat
▁insuff
▁Abnormalities
▁134
▁ACh
ocrom
testinal
▁discharged
▁dilution
▁dissoci
▁3000
▁preschool
ophilus
parathyroid
nitine
▁attenuation
▁ectopic
▁emin
▁protease
inic
▁sequencing
▁chloride
▁CCK
9%)
▁endoc
▁1.9%
▁etretinate
▁ointment
400
▁1.25
rene
▁colonoscopy
▁Krebs
-[
▁operon
othyronine
▁Proc
▁assemb
urium
therapy
reflex
▁Symptom
0.8
▁quantitative
yste
▁ureth
▁Formal
nary
▁spirometry
▁histology
▁unilateral
▁proliferating
▁.05)
▁attitu
estradiol
▁thymic
▁97
predominant
▁ascorbic
▁comprehen
rals
▁cephal
▁conjunctivitis
▁secretions
▁latency
clinical
▁lumen
henyl
umbar
ongest
Cs
▁percentages
▁glyc
▁peptides
▁ischemic
▁seques
-22
oconstric
etoprotein
▁brainstem
ocyt
▁diffuse
▁clind
▁TCDD
▁Immun
▁pA
▁specification
▁Epidemi
early
▁82%,
▁quantit
▁regain
chlorothiazide
ylyl
▁asthma
▁excitation
▁techniqu
▁microtubules
▁calf
▁repor
▁succinate
▁splanchnic
▁minus
▁UTI
▁interestingly
▁Caucasians
▁vege
▁choro
asses
▁Increas
spective
urin
renaline
▁spectro
othi
▁journals
▁occluded
▁13.
▁metabol
▁aureus
▁miti
grees
▁posttrans
ecal
▁33%,
ocellular
▁Tumor
ureus
▁Rout
atural
Km
▁preincubation
▁creatine
romic
ophysical
▁122
▁55%
▁antidepressant
▁(90%)
▁acqui
grams
▁fluo
▁Plate
▁linearly
rospor
▁selectively
▁283
▁onc
12).
▁sciatic
▁arthritis
▁allele
ystitis
/3
▁6.
erus
pain
▁epicardial
▁redistribution
tus
merc
▁13%
▁microM
▁ethyl
▁aggregation
▁intolerance
▁musc
▁Combin
▁autoantibodies
▁satisfactorily
▁amyl
▁saturable
▁transection
19.
▁neuropathy
▁encephalopathy
asalazine
▁Likewise
▁bladders
▁(1).
▁postoperative
▁Intracellular
urrent
▁(9%)
▁catheterization
▁70%
chl
0,
▁VP
▁obstructive
▁200,000
kage
▁duodenum
▁Regarding
▁(49%)
▁ank
▁9.7
▁ligand
▁186
perature
▁favorably
▁thrombocyt
▁ethanol
ositol
▁(0.0
hydrated
▁mRNA
▁persisted
▁testis
▁(60%
▁arrhythmic
94
▁tryptophan
▁struc
▁Intravenous
▁spontaneous
▁chlor
clerotic
Nase
▁preincubated
▁0.26
▁nonsur
▁sten
▁Angiotensin
200
▁Crohn
▁indicative
iversity
adrenaline
▁urography
rolase
▁carbohydrate
-24
onium
▁(250
▁gingival
▁nuclei
colem
▁nuclease
▁0.24
▁revascular
▁isoniazid
ohns
tero
▁placental
▁119
feeding
▁jaund
otin
▁teratogenic
▁subclinical
34
▁substanti
▁conjugate
▁myristate
▁remed
▁atypical
▁calibr
Au
bodies
▁attendant
lycemic
havi
▁glomerulopathy
▁40%,
▁CABG
▁intran
uran
▁immunofluores
tomas
otr
▁6.7%
▁myot
IU
▁endos
▁CIN
▁terminus
▁bronchodilators
pecial
▁sphinc
▁dibutyryl
▁discontinued
GH
ABL
hexyl
ocar
opi
▁resin
trypsin
▁juven
▁transplant
ominant
▁ack
▁1.56
▁sprin
orepinephrine
▁247
12-
plastic
idis
▁psychiatric
▁42
atab
▁evoked
proven
adders
▁multimodal
ivac
ivation
▁counseling
▁eccentric
▁12.5
▁vitro
gth
oxan
rae
▁2.5-
▁27%,
▁polysaccharide
alb
estis
▁yolk
▁2).
▁0.38
▁28
thanol
Trp
trop
▁tes
uspid
▁balancing
▁expec
tenolol
▁100%
dimethyl
▁eluted
▁10)
▁elective
▁prosthesis
▁acutely
thle
▁virtu
▁persis
▁SCC
▁intubation
▁Respon
▁pate
tility
tur
▁81
▁Injury
certain
▁nasopharyngeal
utyryl
▁exudates
vac
▁pS
▁periv
▁1.
eclamp
▁oes
imentation
▁secretagogues
truc
brids
▁neurological
timum
erver
.9%)
pharyngeal
,000
ampl
▁prostacyclin
▁hybridization
▁denat
▁deletion
▁genic
▁inh
▁172
▁effector
▁Randomized
oacetic
▁Stro
▁accumulate
▁vegetable
▁4-5
▁postmenopausal
▁alk
▁105
▁hypokalemia
-8
otre
▁cyc
zoster
▁ulcers
iciencies
▁Scatchard
▁simultaneous
▁0.05),
▁Subjective
▁analytical
▁Relative
urgery
yridine
inephrine
▁xylitol
▁keratin
▁bleomycin
olig
pap
▁Subsequent
▁(0.5
▁cyan
▁starch
esthetized
▁opioids
▁MoAb
▁anatomic
▁GABA
ymptomatic
opha
▁outward
selective
▁meperidine
3)
▁147
▁90
onate
32
▁1.6%
▁occlusion
▁glutamate
▁microspheres
▁excitability
▁inhibitor
▁132
operative
▁succes
▁20,000
onucle
irc
lux
▁antagon
▁satisfactory
tiazem
▁Systematic
▁papillary
uling
▁pancre
significant
▁deox
ticular
▁somat
▁86%
eminal
imin
ocalization
▁mixtures
▁sequentially
▁erythro
8%)
▁clarify
wk
inflammatory
yroxine
adily
oresis
▁solub
▁classifications
▁fractionated
ylcholinesterase
▁116
▁macrom
▁BSA
▁carbonic
igl
▁digested
ensitivity
▁ribs
2/
▁cyclo
etence
▁pea
▁1.01
▁MRSA
1,
▁Chlamydia
▁biliary
▁testosterone
▁82%
▁continuation
▁estrogens
▁lith
▁TRH
oplasty
▁12%,
▁neuraminidase
▁Fewer
▁140
ropo
VH
▁manifested
▁vertigo
▁hairy
▁HS
▁assessments
tein
severe
▁dithi
rosine
ported
imaging
▁212
▁flas
median
ureas
▁erythema
iasis
▁Myc
vaccination
utyric
osmolar
▁adjus
▁methodologies
oagulation
▁10(-8)
▁cimetidine
▁erythrocyte
▁kine
meter
opr
blind
atitis
tate
ogra
▁albicans
▁Protein
-96
▁soy
▁elevate
▁chloro
kelihood
▁audi
▁Preliminary
▁1987
fibr
enil
▁morbid
▁fibr
▁vaginal
▁gamma
▁strom
▁epididym
arate
▁Cooperative
▁ascertain
notic
▁(97%)
xin
▁concomitant
▁sampl
▁gestational
▁Inventory
oxia
neumon
▁psychosocial
▁acute
▁anastomosis
▁recessive
▁Duc
▁palsy
▁transcrip
1]
▁PGA
osacral
▁(13
▁heavi
▁constric
adone
visual
ammon
icin
▁relaxant
▁subdural
▁identi
▁fibroblasts
crimin
thma
▁microvascular
enteritis
▁(198
moid
alas
utaneous
▁Ib
hion
▁nmol
▁postpartum
▁cytokine
▁colpos
▁NK
geneic
▁superim
▁previ
▁oleic
▁apnea
▁1.06
oxin
-]
▁radioimmuno
▁1.4-
▁(12.5
▁biopsies
▁transformations
▁responsiveness
.0%
▁depolarized
▁scrotal
.7%
kele
▁experimentally
azepam
ayed
sAg
▁oligodend
▁normotensive
▁Specificity
adal
atoid
0)
▁biphasic
▁(97
▁standardi
▁cycloheximide
▁6.6%
▁beha
▁1.5%
ths
▁dyspnea
▁1.5
artum
atosis
▁atopy
osage
▁cerebrospinal
▁229
15.
▁cytoskeleton
▁homology
▁(5%
▁anaesthetized
▁heavier
lac
14.
▁currents
▁vesic
troph
▁.01)
▁(0.
▁differentiate
▁6.9%
▁arteri
▁Gonad
▁transcriptional
▁progesterone
chid
▁restor
imurium
▁supernatants
bacco
▁mucosal
▁internally
▁thre
concentration
oretic
▁NI
cis
▁trac
sorption
rele
hyd
▁inflammation
endorphin
▁scaven
▁standardized
▁0.29
fication
▁oocytes
▁46
anat
▁Consequently
▁ovarian
primarily
25,
ostr
▁digoxin
8]
▁microorganism
▁tracheal
rofen
▁Responses
▁granulocyte
▁carbamazepine
▁instruc
vents
▁180
▁cefixime
atibility
▁vitamin
▁(2)
dipine
▁molec
hepatic
81
▁accumulated
▁Effects
▁antihist
ticle
7),
▁traumatic
▁direc
▁investigators
idated
▁compartments
▁ICU
▁protocols
61
▁ferritin
Barr
3,
endazole
▁NIDDM
▁colonization
▁(17
▁3).
-8.
competitive
▁elastic
assays
▁therapies
64
▁embolism
▁blin
▁induces
▁immunohist
subunit
▁Morph
oxamine
▁monit
▁necrotizing
▁osteoarthritis
▁0.80
geal
▁mEq
▁proteolytic
▁chym
valence
etition
▁ANF
▁unde
▁forearm
▁aeros
▁hydrochloride
▁uteri
iuria
cence
olipoprotein
▁transcribed
▁209
plas
minal
▁increas
tococcus
/20
▁scinti
aturity
onatal
▁erythrocytes
▁8.4%
▁unid
▁intermittent
▁transaminase
▁2.2
ostom
onc
▁Progression
▁fibrils
▁confounding
▁amniotic
▁putative
pressure
-70%
onin
▁aden
yroid
terminus
etaz
▁NMR
▁cytotox
▁specialty
▁240
tinent
▁regeneration
▁adenomas
▁smokers
Gs
▁gonadotropin
exposed
▁51
▁AML
▁diagnoses
sue
▁2.4
▁suture
prin
▁anhydrase
omated
▁decreasing
xone
▁inapp
ameters
▁incompletely
▁Removal
▁thal
eptic
measured
▁TA
▁198
▁avid
▁antifungal
▁ultrason
▁20%.
▁autosomal
ropyl
▁improves
▁TSH
ilical
▁ventilation
30-
▁therapists
▁erg
▁Lp
vascular
▁relieve
▁requi
▁glioma
▁corp
▁uninter
▁ADP
▁atten
itro
alveolar
olac
0%;
▁diagnose
▁1,25
▁dyst
929
▁mutant
▁labelling
uronal
ecutive
91
PAP
▁ammonia
▁vesti
▁birthweight
50,
▁rearrangement
tially
depleted
teria
▁cephalosporins
▁1.95
ylation
▁seropositive
▁exceeded
ostatin
incub
atell
obacter
▁cGMP
▁colectomy
blocker
contrast
erent
▁hyste
▁abor
molar
▁diurnal
▁1.1
▁correlating
▁(0.6
▁irregularities
sar
actin
▁monophosphate
▁HMG
▁translational
▁buspirone
▁asthmatic
▁Caps
▁nonp
odynamic
▁CNS
▁sinus
▁agar
▁headaches
taz
acetyl
▁optimum
▁pathogens
▁bismuth
▁30-
▁32%,
acquired
▁50-
▁biologically
▁penicillin
▁adipocytes
ritish
▁diarrhea
olp
onuclease
▁Urine
▁substrate
benz
▁vertebr
ospasm
▁elimin
finding
inesterase
▁IgE
-7.
NSAID
▁emergent
oxidation
▁segreg
▁nm
▁hos
▁Arter
uprofen
▁contaminated
lec
CSF
▁carbachol
▁splenomegaly
▁mec
cholate
▁necro
▁calculi
dR
▁peroxis
▁8
▁semin
omonas
GABA
▁ventric
ustion
▁0.1%
cB
lep
omal
▁innervation
▁4.0
▁60%.
brain
▁Capsaicin
▁thyroidectomy
▁effic
▁homogeneity
sul
▁Adverse
▁moth
▁atrial
romatosis
▁-0.4
▁antiviral
▁monomer
▁59%
▁nodules
aryotic
4,5-
odine
lodipine
▁luminal
▁vulgaris
ectomy
▁irrig
enyl
▁chickens
rectomy
▁vaccinated
▁clonal
WB
valine
▁elastase
▁haemodynamic
▁Hodgkin
agit
▁proximal
▁microelectro
▁adsorption
▁antigen
/34
▁fluores
acholine
-1.8
▁10.2
acted
meterol
▁75%,
▁erythropo
▁OA
▁intracellular
antibody
60
▁83%,
▁26.7
▁patency
▁vivo
epine
▁prednisone
▁alkaline
▁disposable
▁medulla
▁lobes
▁dextro
umerous
▁reper
▁40
velength
opharm
▁mutagen
regn
erable
▁2)
▁duc
0%),
opro
▁25-
lamy
9]
opoiesis
SOD
atum
▁antibody
▁seminal
▁biopsy
roids
▁underg
▁Stu
apamil
▁nephro
▁chemotherapy
-4,
▁colonies
▁gonadotrop
▁Failure
▁afferent
▁BK
tent
42
▁zym
▁TB
▁lysates
▁transient
▁yohimbine
▁possesses
ropha
▁.05).
oderm
▁mammography
▁ECGs
selec
arcin
▁resembled
faction
▁murine
▁transcript
▁adaptive
▁414
sions
▁effec
▁NSAID
▁swab
osylation
▁pigment
▁imaging
anadate
▁nifedipine
loxacin
▁physiology
-0.
▁desaturation
▁positioning
1/2
▁splenic
androgenic
▁delaying
▁APC
ifug
▁47%
dle
▁ecz
▁Adding
▁fluoride
▁(+)-
gans
▁reac
▁2.6%
▁PMNs
dop
▁collagen
▁sigma
▁untreated
abin
gment
omegaly
▁glycine
▁penile
▁osteoc
▁regulate
pinal
▁Bacillus
▁25,
omers
baseline
▁13,
/-
1.2
pendent
▁urinalysis
▁crest
▁Leydig
▁precursor
▁leukotri
▁marketed
▁58%
▁DH
facturing
▁beats
▁146
▁purification
▁ulc
▁unco
cious
▁confirms
▁phos
erb
Ig
/8
▁Strep
trol
cation
▁AO
irradiated
▁Hispanic
▁hypothyroid
90
▁anaerobic
▁2.8
▁ejection
deriv
omethacin
ulitis
ranged
▁ejac
-12
▁monos
ods
▁acyclovir
▁RSA
teine
flammatory
plementation
spar
▁(25
▁follic
▁chromatin
iciently
romyces
-1.0
▁renovascular
▁thromboemb
▁bladder
▁toxins
▁137
▁3.8
roitin
▁onset
opa
▁ornithine
▁progressively
▁enrolled
▁BW
▁molecules
▁glomerular
▁construc
tomized
▁Adh
oplasmic
ipr
▁Examin
▁gangli
▁erosion
▁homoz
▁lysine
▁logistic
▁antioxid
▁Urinary
-16
ograms
▁disrup
0.9
echn
▁quadrup
torchid
osin
▁miscar
-5
▁promp
vian
▁colonic
▁lateral
SDS
▁plas
▁bicarbonate
▁0.51
▁retested
▁-9
▁polysomn
▁155
▁radiographic
appropriate
▁primiparous
anine
resistant
-1.3
▁worsening
▁heifers
ubicin
▁adjuvant
▁Bec
▁compli
.9
hydr
▁sput
▁spre
▁vasculature
▁Twelve
CABG
Ca
140
iters
▁serology
oil
ronectin
▁TT
▁pathway
▁(45
▁shortened
adenomas
▁degenerative
▁FSH
▁adjusting
▁7%)
▁subun
▁sucralfate
▁inhibitory
▁apo
roxyprogesterone
▁quantitated
▁Cutaneous
GlcNAc
▁urodynamic
▁Disorders
▁prodrug
▁cultured
lysis
esia
▁abr
▁translocation
▁scre
▁radiolabeled
bred
▁evaluable
▁bran
mitter
▁atropine
▁panc
anazol
▁murmur
▁NSAIDs
▁(93
▁(77%)
▁cholesteryl
▁anticoagulation
emble
▁hypere
▁ipsilateral
teryl
▁58
graphy
KD
oxal
▁KCl
▁antipsychotic
ducible
tropine
cervical
▁(29
▁feather
tice
▁serotype
▁compartment
▁dilat
alues
▁Survival
▁exis
entile
aterals
atropium
-3.0
▁0.64
odic
▁phi
▁phenotypic
▁cDNA
▁harvested
gland
▁dissec
▁oligonucle
hemolytic
▁intranasal
▁malabsorption
▁antero
▁overlapping
▁proving
convulsive
yrox
quired
▁cyclosporine
▁collagenase
▁-15
▁fructose
▁nitrate
▁Drosophila
▁parathyroid
90)
▁aluminum
14)
▁reflexes
▁modality
▁hepatotoxicity
(3
opathology
▁inactiv
atrop
▁expulsion
4).
▁50%
zyme
traum
▁bedtime
▁bactere
▁preventive
▁0.6
▁malignancies
000.
▁prophylactic
lives
raconazole
▁chec
▁ery
parag
blockers
ovine
-19
▁theore
orac
urones
otomy
▁prolongs
▁1.2,
▁0.81
▁cytoplasm
▁granule
detection
▁(21
▁cistern
▁organs
riamycin
▁(10
fos
▁immunoblotting
▁0.33
▁swabs
aceous
+,
3).
▁400
lys
vant
▁prol
▁hybrids
ygotes
tivated
▁torsion
▁prematurity
▁diabe
▁gyn
▁crystals
uretics
wes
▁(6),
enching
▁1.05
▁revised
▁proges
▁stools
▁196
▁(7
▁bactericidal
▁111
▁84%
▁synthesize
▁1.2
ibrate
▁1,25-(
▁waveform
▁constipation
▁pmol
sored
▁antioxidants
BH
ifferenti
enic
oxazol
▁nadir
osporin
▁benefited
terminal
▁distal
cysteine
▁neomycin
▁postulated
▁impairs
amental
/9
▁inotropic
▁osteoporosis
razolam
▁Thirty
oproterenol
▁irritable
-30
▁acquiring
▁hyperglycemia
▁HL
▁monitored
▁Elec
▁surrog
▁200-
▁practiced
▁hypogonadism
▁protons
▁Ade
▁critically
admium
▁000
▁waking
COP
▁0.05%
Ala
▁invasive
▁epilep
▁outflow
▁hyperp
hydropyridine
▁induration
▁monotherapy
▁stimulus
enoic
repres
▁PGF
▁newborn
▁(0.2
araldehyde
▁gynecological
▁microm
udin
osteroids
▁-3
▁gentamicin
encephalic
oidal
▁Asi
▁eradication
▁epidural
▁-0.5
▁cytologic
▁tuberc
etent
itively
▁forskolin
tically
ispanics
▁inten
▁outgrowth
Rb
atient
▁surgically
▁endo
▁Haem
▁ammonium
▁transduc
▁HPV
▁prono
phil
oblas
▁Viral
▁Graves
▁Bacterial
▁awak
▁sexes
▁bradyc
othiaz
50).
▁87%
▁carpal
butyl
.3%)
▁8.1
▁intra
▁motone
▁mitogens
obic
▁reviewing
▁94%
▁vacuoles
▁(300
▁squamous
▁refusal
kinase
▁oxidized
▁Biochemistry
▁dimers
yro
▁transgenic
▁contraceptive
▁cephalexin
▁279
sive
▁dismut
▁5.
▁leukaemia
▁remin
▁(0%
▁gonadal
▁31,
▁Barrett
▁Tc
amus
▁phototherapy
▁incub
▁PDE
▁embolus
▁questionnaire
▁implanted
▁lymphokine
▁antagonist
▁Tum
▁flunarizine
▁examin
▁neph
▁Mayo
▁MH
tist
▁attain
▁visceral
5]
▁Estimates
dic
▁isop
anavalin
lactams
▁perone
▁blister
occal
amycin
enteric
▁8.6%
▁hematopoietic
▁cytokines
▁glands
ocul
CHD
▁pneumoniae
▁schem
adex
ration
▁conclu
▁suppressed
▁postoperatively
alazine
erox
echan
▁tec
atidyle
acting
▁pharmacists
translated
-1.9
visc
ocamp
temperature
▁additive
▁sugars
7)
▁GSH
acental
▁43%
ogenously
▁750
acyl
▁vancomycin
▁65%
▁facet
respective
▁subtype
▁neurob
ophosphate
▁Ure
▁hGH
▁erythematosus
▁invari
▁undertaken
▁elevated
▁agarose
▁eicos
ilateral
▁mammals
▁11.5
8/
500
93
unsaturated
▁priming
verages
ittac
▁apical
▁exudation
▁Subcutaneous
▁antich
▁Sertoli
▁hypon
▁bic
imination
▁pulmonary
▁apne
uebec
▁neoplas
induc
▁HER
▁mitochondrial
▁144
▁Assessment
▁inflamed
▁peaked
produc
methyl
▁eighth
weeks
thel
▁enlar
▁hydroxylase
▁quartile
▁LMW
leu
▁spectroscopy
▁adjustments
osocial
▁0.62
▁combin
▁terminals
▁3',5'-
▁poin
▁adenovirus
▁Increased
phine
▁proceeded
▁phle
Tu
abdominal
▁86
thood
trating
▁periphery
▁skeletal
ometrial
prol
reas
examin
▁4.8
▁placenta
▁23,
fib
▁rabbits
▁heme
▁CGRP
▁PB
000,
fasting
▁phon
▁Reas
▁antide
▁defective
aind
65
CAH
▁sut
▁rectif
▁weakly
▁hypoxic
tention
▁vitamins
▁pyridoxine
▁bFGF
▁gonadotrophin
▁chromatographic
-20
▁(67
▁Stress
erative
▁guanylate
▁discon
ture
igaret
.0
eptides
iclovir
fec
DV
chers
▁postsynaptic
▁Oc
▁antis
tradiol
▁thrombo
helial
▁creatinine
ordination
▁0.025
adic
▁ultrastructural
hydroxyphenyl
▁Various
▁covari
▁injec
▁immunostaining
▁autop
▁transcription
ocaine
▁95
olestero
▁skinfold
▁acceleration
▁practitioner
ygous
▁retinal
▁163
▁fathers
athioprine
▁hyponatremia
▁Clinic
ubiqu
▁90%.
▁hormones
oxif
fractions
alp
▁calcified
7.
gmental
▁anomal
▁triglycer
▁exacerbate
▁monke
▁Biopsy
▁characteris
▁residue
▁valproate
0.4
▁subpopulations
▁114
toli
▁inpatients
stab
▁Wistar
▁hypothal
▁cromoglycate
5,000
▁rifampin
▁DEAE
ociated
-1.4
▁antagonists
▁norfloxacin
▁PCOS
tection
▁cortisol
▁resonance
▁sutures
▁roset
uric
rowing
enopus
illary
▁natriuretic
▁Concentr
▁undergoes
otine
uting
▁epithelia
▁reflux
▁4.6%
▁prosthetic
▁cortisone
illi
▁19
▁behavioural
olated
▁Notably
mented
traction
▁hipp
lastoma
rease
▁incomp
▁locus
74
▁heteroz
▁tricuspid
5;
▁potent
▁neutropenia
▁exce
+]
ourinary
▁Lym
▁obstruction
▁pyl
▁97%
romal
▁TCR
▁incidence
brile
induced
▁Fib
-2)
▁Copenhagen
acterial
▁hygi
platin
▁(78%)
uretic
-32
arial
imazole
▁acnes
▁excreted
▁laparoscopy
ATP
▁mucos
ytes
▁causal
▁hydrophobic
▁Experim
▁refractory
▁3.6
▁10,000
▁lymphoma
ifers
▁DMP
▁ketoconazole
▁31
iol
▁immunocomp
▁hypotension
▁hyperg
otropin
▁concordance
▁adversely
▁Combination
▁agonist
▁abnormal
▁tracts
▁shortening
▁amp
cardi
oplastic
ochemically
pyruvate
▁carcinogenesis
▁4.7
▁accid
▁16%
oreceptors
▁excitatory
▁acupuncture
▁reliably
gestational
ontal
▁3',
▁inducer
▁salivary
▁carbox
▁14.5
▁Eighty
▁tac
▁elevation
▁sequelae
ographs
ocytochemistry
▁CAP
▁radionucl
1.5
-2.1
▁transmembrane
▁metoclopramide
▁sepsis
130
)2
▁diphen
▁gonorrhea
▁RR
▁reinfection
▁60.
omat
▁noninvasive
▁antacids
▁replication
oyl
▁cotinine
casein
(+)
endix
▁emesis
▁Magnetic
▁simplified
▁ketoacidosis
jected
▁lectins
andard
▁halothane
dT
.6,
▁malign
▁nasopharynx
administration
▁85%
trip
orotic
gus
▁adver
opulmonary
unar
sibly
▁suscepti
▁pharmacokinetic
▁saliv
aspartate
▁persists
ylcholine
amol
sives
▁intrap
oscopy
▁plaque
▁28%,
osan
▁virulent
▁(10.
▁malaise
▁glycerol
▁90-
▁fallopian
▁IGF
▁amyloid
xime
▁SPF
▁1.02
▁52%,
55
olam
wenty
▁trichloroacetic
▁hormone
▁carboxy
▁Significant
▁carcinogens
▁endotracheal
▁anaesthe
▁daltons
omotion
▁methadone
omod
▁maturity
▁adducts
▁(25%)
orh
▁linkage
▁suppos
▁analyses
▁(72
▁395
▁dehyd
▁weakened
▁Leu
▁6.3
tages
▁amph
▁1.8
▁278
▁48-
hap
%).
oblast
▁hypertensive
▁relapse
▁sedim
▁fla
reactive
-0
PPP
/10(
ecretory
ipheral
▁guan
▁lobe
▁adhesion
▁hemolytic
amyl
▁Thyroid
imid
▁Pregn
▁lability
lofen
choles
▁saliva
▁dus
▁3.1
▁protr
▁AFP
▁phosphorylase
▁(86%)
▁inverted
ercul
oride
ocusing
▁progestin
▁superficially
▁estrogen
ulose
▁dopaminergic
▁diltiazem
▁Diagn
▁soleus
aryl
▁sympathetic
gestrel
ealand
▁searches
issive
▁musculoskeletal
▁snoring
▁gastric
▁arterial
▁(36
lora
▁ACI
▁hypothe
fibrozil
▁obstetr
▁gland
▁disappearance
PAT
vicular
▁projec
buterol
ferrin
▁neurones
rotal
EI
▁glomer
▁metic
▁0.14
▁paroxys
▁underway
▁1.32
▁plasmin
▁Rats
▁metabolite
-6
▁Suc
responsive
▁45%
pretation
▁basal
▁Myocardial
▁Intensive
tocin
▁mumol
▁cDNAs
▁enzymatic
9%
tide
▁Calc
hicle
▁disclosed
iae
▁oscillations
▁receptors
▁ventilator
▁enteric
▁bundles
ughters
▁labelled
▁Incubation
▁Renal
▁axonal
▁23%
PKC
▁blunted
▁deficient
taining
hern
▁dissociated
▁resusc
▁Purified
▁218
▁gly
roximately
▁0.7%
▁appropriately
bronchial
▁Cardi
▁87
okinetic
▁1),
ducts
▁mell
uin
▁radicals
▁9
glutin
▁(2
▁amplified
▁polyc
▁athle
tomies
▁absorptiometry
▁3.0
▁genotype
alsy
junction
▁cocaine
respectively
itching
▁blas
▁drainage
retion
▁dete
▁androgens
▁behavioral
▁evol
odal
▁MAbs
▁thiol
▁postnatally
▁reflec
triglycerid
▁ND
6%)
▁alprazolam
▁precipit
trib
alkyl
ventive
▁Cys
▁fluor
uted
▁predis
tir
▁NADH
▁DBP
▁anesthetized
▁6.2
▁assays
▁athe
▁depleted
▁0.57
onine
qui
▁Pharmac
▁purified
800
▁pertussis
iparous
phin
1-
▁interne
astom
performance
▁fluorescent
clerosis
▁correlates
▁receptive
▁gallbladder
activating
▁1.10
0%
▁(85%)
amet
5),
▁analgesia
▁bp
ophen
IgM
▁Tissue
▁PMA
▁laminin
▁nigra
tive
▁imipramine
5%,
ogel
▁(1%)
▁anis
▁phosphoinositi
▁5.1
▁1.2-
▁cows
▁palmit
▁mA
oplas
iology
▁endocrin
▁pathology
▁sensitiz
embry
▁ecological
▁bivariate
/1000
Ts
▁thymus
▁isomers
▁27
▁nocturnal
edema
tested
▁peripheral
rement
▁Hyp
▁(50
▁Atrial
▁atelectasis
phs
▁biosynthetic
galact
▁249
etween
▁0.36
▁TCA
▁recurrence
▁0.41
▁thi
▁Complications
▁electrolyte
pont
myrist
▁confine
pregn
▁Thirteen
sia
▁Staphylococcus
▁sham
immuno
▁VLDL
▁differentiated
▁Secretory
▁evaluates
▁malarial
▁multicenter
▁practitioners
plantation
incubation
tinguish
▁LTC
▁rGH
▁carotid
imolar
Ep
▁correlations
▁HF
▁molecule
▁(70%
eared
▁vestibular
opian
▁Fc
▁synthe
itus
opausal
▁RS
tise
▁Pretreatment
▁titration
▁18%
▁Activation
▁segmental
▁washout
opeptide
▁polymorph
▁donor
▁GER
heavy
molality
▁nonrandomized
▁proteinase
▁initiation
▁obese
▁osteoporotic
▁fibros
▁audiometry
▁30
-2.0
▁competi
▁exclusion
9)
gulation
▁prostatic
▁1.26
▁cysts
▁mutations
+)
▁Higher
▁synovial
▁caregi
▁variants
▁cohorts
▁40-
▁Hispanics
▁aerob
estrogen
idine
bly
▁enamel
▁(1,
duced
▁Afric
▁kallikrein
ordance
amilton
▁Oste
ighted
0.2
▁islet
▁diap
-40%
▁54%
▁Cs
▁135
▁postinjury
▁hap
▁0.72
enia
▁Entero
▁(24%)
▁immunos
▁abscess
▁commercially
openhagen
▁Melan
▁encomp
▁spac
veolar
posable
▁Bmax
▁pharyng
sequent
cine
8),
retin
▁respondents
fine
▁sulfonylurea
▁colposcopy
▁spectroscop
ionized
nutrition
▁contral
▁adherent
▁disruption
▁gemfibrozil
▁transmural
▁reticul
prandial
▁Plasma
▁292
▁pem
▁Conversely
▁8.
▁phenotypes
bearing
▁alternating
▁ileum
▁recr
▁188
zine
thromycin
▁nevi
▁puberty
erally
▁exogenous
▁MIC
rophen
-35
▁suction
▁repetitive
▁10(3)
▁nucleoside
▁undergone
amethoxazole
▁lymph
▁0.67
atite
▁5.3
▁0.90
▁eryth
43
terin
▁levamisole
etirizine
uginosa
opulation
109
osides
othane
▁95%)
22,
▁NG
▁alginate
▁nonpro
jury
▁autologous
▁rIL
▁120
0.7
essive
▁oval
usually
▁24.7
▁(26
▁3.2
▁Sensitivity
▁circumst
▁occl
▁234
▁overload
▁plaster
▁retinoids
ergenic
▁lacked
▁microb
▁EBV
▁freshly
▁subtilis
bile
30
▁197
fiber
ymptom
▁circumference
▁rhinovirus
▁promoter
idol
▁45
▁randomized
▁Fram
▁exon
▁triceps
Gly
aortic
▁cachexia
▁consis
2.
▁Gluc
▁15,
▁serotoninergic
▁instability
9;
▁aggression
▁adrenergic
▁3'-
▁neutralization
converting
▁sensory
▁Gyn
ovirus
▁absorpti
▁hypokal
erop
secre
otor
▁0.75,
erum
▁hypoglycemia
uplex
▁antec
▁hepatomegaly
▁reactivity
▁MBP
bran
ocrin
▁evolutionary
▁infections
tite
▁20)
zard
▁0.25
▁Exc
▁3-4
▁103
▁confinement
edle
othal
40.
adjusted
organisms
▁addic
▁hypothetical
▁1.75
▁CEA
▁inhibitors
▁clamp
oside
▁singleton
▁malformations
▁Findings
ispanic
▁arter
acute
iline
▁noradrenergic
▁0.005)
PaO
23
▁aids
oppler
▁escalating
▁DCA
enem
▁IVC
▁auditory
ulcer
▁methyldopa
achol
▁ICP
▁ppm
▁synergistic
▁intrauterine
omies
▁phospholipids
lamp
▁converting
-600
resid
oscopic
lycemia
▁chimer
▁Factor
▁(7%)
▁430
▁myrist
▁thromboxane
▁glucuron
▁actinomycin
▁ductus
olus
▁homogen
romycin
▁HCl
▁343
verbal
▁Outcome
▁1.58
▁stromal
▁chlorhexidine
▁sphing
▁Esophageal
▁Biol
▁43
▁Specifically
▁(4
▁gon
antibodies
tructive
ameter
▁cyt
▁cerebellum
3.1
ohnson
carotene
▁obstructions
▁10(
▁acco
▁duodenal
robic
coag
▁GH
3%)
uccess
ipramine
oprolol
▁sedation
urred
▁mitosis
▁preferentially
4;
-8,
▁gestation
▁damaging
ipolar
▁sumatriptan
activation
progestin
▁EMG
▁FFA
▁3%
▁Included
▁cryp
dihydrop
▁48
▁diuretics
lod
ocyan
▁13
ediatric
▁questionnai
▁(62%)
embran
▁6.4
▁nosocomial
ullary
▁dementia
▁emboli
atation
CRP
alc
-9)
▁7.0
▁myeloma
▁vigorous
▁PRL
▁67
feren
▁drinkers
▁hemorrhage
ductive
aginal
▁conformation
opolysaccharide
▁enhancing
kines
▁UDP
▁transvaginal
▁morphine
▁241
chloride
▁probes
▁TG
▁plantar
▁100
▁unexpectedly
insensitive
umetanide
▁fmol
▁ranged
dihydropyridine
▁Mice
aternal
▁35%
▁saphenous
▁conflicting
▁bilateral
▁preparations
▁accep
▁blu
CoA
rogenase
▁retrospectively
▁comple
▁inositol
▁urea
either
▁piroxicam
-1)
vements
tempor
trast
thmatic
▁interstitial
▁WK
▁47
▁retrograde
zymes
titial
▁(0.3
adine
▁subunit
tochemistry
▁obstruc
▁(72%)
▁predominantly
2,
▁bromide
▁libr
▁0.74
▁cyanide
▁ampicillin
▁selec
hiscence
▁glycogen
▁disturbances
▁disper
(1
▁degraded
▁2.5,
▁nontoxic
▁micros
▁cytotoxicity
▁synerg
▁persist
▁neoplastic
tak
aterally
▁hindlimb
006
▁Mg
ialysis
▁impaired
▁pollicis
▁21,
▁phagocytic
oblastic
hydrop
▁coughing
▁filtration
▁rabb
▁valve
24,
oceptor
▁Hyd
ellular
▁440
ints
▁insufficient
▁assis
▁avoidance
▁Multiple
tch
▁pharmac
oplasm
▁490
▁spind
▁localized
▁implying
▁biochemical
▁hyperthyroid
odialysis
trus
21)
trin
▁aberrations
▁hypop
-4.
▁sci
▁fibers
▁ligament
0),
▁ischemia
23187
lyl
▁asbestos
Hb
▁Thin
▁glial
▁subend
ussion
▁remn
▁signaling
viral
otrypsin
othre
maleimide
inergic
6.
▁0.001).
paired
▁proteoglyc
▁adop
▁LVH
▁pancreatitis
▁uncovered
▁5.2%
iterranean
▁pretreatment
chool
▁yielding
▁0.2
▁ambul
▁lipoproteins
reported
▁physiologic
triphosphate
ralfate
placebo
silon
▁fixation
▁bioavailability
▁eosinophil
▁bronchoscopy
PTH
3-4
▁tonic
▁vascul
▁optimizing
aem
indings
▁1.40
turition
▁dipyridamole
▁1.31
phasic
estig
▁corticosteroids
▁39%
1-4
▁resour
▁transported
exin
▁ventil
▁5.5
▁bypass
tussis
▁1.15
▁sedimentation
▁analogues
▁tran
rocyte
▁suicidal
kilobase
▁budesonide
▁9.0
▁immunogenic
▁256
▁activators
▁validated
▁ips
-198
▁endings
▁hamster
▁10.0
▁virulence
▁cervical
▁proliferative
▁heparin
▁79%
▁neurop
▁Intr
▁porcine
▁indo
▁classifying
.5%)
▁GI
▁deviation
▁RNase
▁decarbox
anav
▁PDGF
pyr
kling
▁angioplasty
▁(18%)
▁hemorrhages
lication
▁statistically
▁cisapride
▁VIP
▁topical
▁PMS
otherap
▁Longer
▁expiratory
-1.6
▁adenocarcinoma
-6.
perme
▁arrhythmia
▁chlamydia
cephalic
itoneal
▁transduction
.6%)
▁Streptococcus
▁oxygenation
▁differen
kephalin
tagland
ludes
25)
▁amylase
umbens
▁5'
luded
opropyl
70)
cutaneous
odopsin
▁24%,
▁contractility
▁defecation
arynx
▁acoustic
▁satur
▁85%,
▁ionized
▁0.2-
▁haem
▁(5)
31
arbox
▁diabetics
▁myo
carb
onam
▁(5-
▁prospectively
▁contraception
eak
▁mannose
▁distin
▁aspart
▁calmodulin
▁200
▁immunosuppres
▁Enalapril
▁epithelial
tum
▁arachidonic
▁arteries
▁parenchyma
itudinal
▁CN
▁inoculation
▁7.2,
versely
▁accel
▁proliferate
▁allevi
▁(32
▁relieving
▁nitro
▁erythrocy
▁nonfatal
DG
1/
▁108
▁identif
▁insoluble
▁(15
▁substitu
▁complications
-90
▁173
▁enzyme
▁airflow
portant
▁interacts
thio
umbered
arterial
▁adenine
▁enlargement
lix
▁contamination
▁bathing
angi
▁conjugated
etine
growth
▁1.19
endi
▁(3%)
▁nonc
▁nodal
▁haemoglobin
▁HDL
▁bir
iary
▁hypoxia
ylate
apid
▁7.5
▁intrac
▁sphincter
▁Improvement
ioid
▁murmurs
▁2.3
▁codon
▁gangl
▁cleaved
▁concep
▁leukocyte
▁biased
▁intercourse
▁immunized
▁Fourteen
▁functionally
▁phospholipase
▁sulf
(6
▁enhances
olateral
thmias
uality
▁2.0
▁concurrently
▁stringent
tional
aemia
▁whee
-8)
▁leuc
▁mIU
/0.
▁Steroid
▁arrhythm
▁185
omyel
omia
▁0.0001).
▁doubling
ficial
catal
proved
▁dias
▁infarction
odiazepine
▁sexually
▁decayed
▁pati
dL
arean
▁SLE
▁rectal
tial
▁Meth
▁heterogeneity
▁diabetic
▁distor
▁flexion
.10
▁rhe
▁characterize
-15
▁unreliable
ungal
▁(5%)
▁drin
aminophen
▁0.01)
▁reservoir
▁1,000
itoneally
▁positivity
▁evacuation
▁motoneurons
olet
chym
Ox
▁Topical
▁lifest
▁doxycycline
▁preliminary
▁endotoxin
▁haloperidol
lier
▁(58%)
▁spirometric
▁349
▁Finnish
▁Secondary
▁analgesic
trophy
▁fossa
▁paral
▁malignancy
▁kidney
▁physiological
tense
▁venography
▁achieves
1;
volving
▁16.
▁52%
▁bumetanide
▁anteced
▁tuber
cellulose
▁overlapped
▁nondi
▁thereafter
/2
▁55
▁deformities
diabe
rangement
ischemic
▁bism
▁caudate
ejun
▁65%,
▁dehydration
flurane
▁manu
▁5.5%
▁DP
▁Depart
▁methylation
▁11
▁Biopsies
tamine
▁oximetry
▁necrosis
▁fluctu
▁diagnosing
-125
afibrate
uble
45
▁dispersed
▁visualized
▁tamoxifen
azoline
hydro
▁0.005).
▁haplotypes
opoly
subs
diabetic
ergic
▁(8%
▁HBsAg
aggreg
angiotensin
▁Fifty
▁88%
▁paralle
PMN
▁aberrant
▁OC
ymethyl
-3.
▁Alzheimer
▁98
▁(0
▁obstetrical
▁optimally
▁presynaptic
▁cardiomyopathy
▁routinely
ithi
▁inward
▁monomeric
tiguous
aund
▁reagent
▁GRF
▁MCI
▁Transi
▁1:1
▁unfractionated
rof
vated
▁arterio
▁chromosomal
responding
▁0.91
▁55-
▁nucleic
▁6.7
otherapeutic
ertion
▁Bone
48
spectrum
▁secretory
▁pyel
▁ascites
▁covalent
andida
▁192
▁64%
▁superoxide
▁predictors
agonist
▁Stimulation
▁glomeruli
▁formulation
▁tymp
▁surfactant
▁ventilated
▁AII
tropin
▁0.30
▁spike
2(
▁0.35
phrine
glutamate
▁streptococci
▁constitute
▁dialysis
osom
▁excised
▁0.79
▁heterogene
▁outlet
▁nonoperative
▁spontaneously
TPA
oblastoma
-6)
▁thromb
▁opioid
▁urinary
▁calves
▁0.4
aemic
fluoro
epam
▁nodule
▁validity
Ls
olarization
▁reflex
glutamyl
▁relied
ocytopenia
atisfaction
▁pathological
▁intractable
lop
umping
ulline
acr
ropion
▁ethn
titis
rostaglandin
▁pH
▁progenitors
▁adulthood
arthritis
▁.0
67
▁initiate
▁allogeneic
▁cros
▁eliminating
ocrit
▁favorable
▁strengthening
▁bleed
▁Depression
▁0.5
▁Elevated
xia
tigu
owever
letion
▁delirium
omized
72
▁HC
▁.00
▁organelles
▁injur
etus
▁Nine
standardized
umulative
tening
▁1).
▁emerg
▁infused
ventional
▁exceptionally
/100
years
0.5
odia
▁predominant
arose
oic
▁7.8
▁76
physiological
▁occlusive
▁ECG
▁transcripts
▁motility
dural
▁trache
▁trigg
▁hypercal
▁11%
excluding
▁doxorubicin
ochemical
▁nedocromil
▁paradoxical
sensitivity
/10
▁ascorb
▁condens
▁70
gents
0).
▁erythromycin
NIDDM
▁6.8
bronch
Cy
▁capillaries
ilol
▁Cumulative
kine
▁alb
renol
▁reticulum
▁posed
pir
tensin
hemical
bacter
▁EB
▁susceptibility
▁1.7%
▁nitric
rosophila
▁(92
▁pyram
▁sarcolem
▁ethnicity
HV
▁dye
▁46%
▁toxicity
alities
▁biologic
▁27%
ximal
▁nip
oclonal
IgA
opped
▁striatal
phadex
▁inactive
rophilic
▁recombin
▁ribosomes
▁21%
▁longus
▁marginally
▁spectrometry
▁hemodynamic
razole
▁catheter
▁intensities
olpidem
roprusside
▁seronegative
odip
aptic
SEM
▁LHRH
▁seroconverted
aturation
▁msec
▁interleukin
ocys
▁radiological
▁ald
▁49
▁favoring
▁comparative
▁detec
▁vascular
▁cyclooxygenase
▁occurrences
▁nutritive
▁3.7
▁cerebro
▁perce
▁10%
▁syndromes
orbid
▁4.0,
▁cen
▁infants
ipine
fentanil
▁95%.
▁rhesus
▁endpoints
▁NP
▁warr
ffin
▁persistence
▁fibrin
▁molar
▁cerebrovascular
▁progestogen
▁illus
▁pneumon
▁MMS
olip
enin
▁dysp
69
147
▁analogue
-80
▁morphologic
▁dopamine
-36
ilus
bA
azep
RCA
▁insertion
▁messenger
attern
▁80,
neph
-2.5
ituit
eric
▁1%.
▁cruc
androgen
▁preoperatively
▁89%
teroid
▁3%.
lowering
occi
▁1966
coated
▁cil
elvic
▁multivariate
titudes
▁visc
▁269
maximal
▁lactation
▁rheum
clic
▁schizophrenia
▁mediated
▁ure
▁clomiphene
lym
▁(56
atching
upuncture
esting
ternational
▁orthostatic
phenyl
▁corticosteroid
iteal
▁artery
▁remission
itoring
▁LM
▁130
▁femoral
▁PCO
▁gels
▁(10(-5)
tigmine
▁incorporation
ysm
▁lactating
atoma
▁contiguous
▁19%
▁inadequately
▁exerts
▁synthase
▁Smoking
oconstriction
▁CBF
▁2.8%
▁16.1
▁isch
▁deletions
opar
esti
▁(2-
▁endometr
olytic
▁mesangial
▁distinguishing
▁elemental
▁AMA
▁sulfate
21
brom
opramide
▁selective
▁Asp
▁0.15
sodium
▁deprivation
▁crystall
chlo
7%
▁mildly
ilep
ineal
(2+)-
▁inadequ
butamol
ipitation
▁Sexual
opal
▁observational
▁glutamine
▁certainty
imeth
▁75%
sibility
▁quotient
LN
▁Alz
▁intral
igenic
▁accumbens
▁diacylglycerol
▁7
LH
90,
▁0,
▁lupus
tened
▁paraffin
▁5.8%
▁aided
▁physi
▁immunologic
▁serotypes
87
-60
▁213
rents
▁Sixteen
heat
▁potency
takes
▁conjug
▁dischar
.7%)
urea
▁adolescents
Pu
Cys
tinguishable
▁isotonic
▁rhy
▁blotting
▁Behavioral
▁seb
▁anesthetic
▁Epstein
▁positively
gli
(+)-
▁31%
▁transfection
tally
▁pressor
timal
▁Exercise
▁(10%
▁vasodilation
confirmed
▁catar
▁ovari
eptide
▁flanking
▁tubercul
▁Isolated
▁Candida
▁264
▁0.54
ucle
ordin
▁blot
odds
-34
▁Kine
▁balloon
▁25
-23
▁constituents
▁transferase
▁neoplasm
▁tritiated
0.00
▁tyrosine
gic
▁teratogenicity
▁integrin
toxin
0%).
iliac
▁Comparative
sero
ANP
receptor
▁glucose
▁STI
ergen
peak
▁retard
genic
▁metronidazole
articular
▁phenobarbital
▁apoB
rotic
ohyd
▁microtubule
aminated
▁elevating
▁examiners
▁multis
▁Scale
systolic
▁regurg
▁lis
▁139
asic
▁RBC
▁cranial
CDC
abec
▁stu
uppres
▁synapt
▁moderately
hydrox
din
▁theoretically
injected
▁regression
▁muscul
▁usefulness
▁28%
▁neuroleptic
▁PEF
-66
▁fulmin
▁ingested
▁monol
▁nude
-10)
▁psychopathology
▁Nineteen
▁antithrombotic
▁indications
▁concentrations
82
▁scalp
▁airways
▁cataly
clonal
yron
acyclin
▁autocrine
kinje
▁hypogonad
▁4.6
▁induce
mation
▁ole
▁DNase
▁axial
dine
▁gout
▁enox
▁4.2
ignant
▁infrared
▁expressing
▁analgesics
ffe
▁antibiotics
▁refrac
▁Antibiotic
▁tendon
▁DF
uestion
▁wards
▁Triton
▁amide
buride
▁calcification
olism
welling
▁6)
▁18%.
▁quantified
PAC
▁epsilon
atif
ynaptic
Mg
▁myofibr
olamine
mend
▁312
untary
▁hydroxy
▁crossover
oratory
cyt
▁elimination
chemical
pecially
▁fluconazole
▁77%,
▁1.08
▁cholinesterase
73
▁stenosis
▁multiv
▁Thy
termined
ocomial
▁inactivation
▁cytosolic
▁rejection
▁acyl
▁mediates
▁hippocampus
hig
▁hypercalciuria
▁equi
▁quoti
ritic
idespread
▁cavity
▁solubilized
▁irradiated
127
(5
adian
TN
▁Hz
▁pentoxifylline
▁treatable
surgery
▁occult
▁radionuclide
57
▁preterm
ervated
▁prostate
prac
▁mediating
▁isot
▁(18
albuminuria
went
ulla
mortality
▁comprised
tilb
antoin
▁grains
icardi
▁discharges
▁Assess
▁illumin
▁capsule
▁112
▁cholesterol
▁reductions
horm
oskeletal
▁loci
▁trimethoprim
▁pectin
▁(95%
aminergic
▁Inhibition
52
▁seizures
▁glyburide
▁phe
▁pulmon
oate
▁perikarya
▁abdomen
88
▁spermatozo
▁unex
▁supplementation
▁menses
himbine
▁hirsutism
▁Meas
▁contrac
▁catecholamines
▁desm
onazole
▁(80%
▁socioeconomic
▁traum
glut
▁ducts
▁adverse
hypertensive
▁mU
tinu
▁nonsmoking
▁126
▁uterus
:1
▁subjected
.5
▁oligos
▁memb
▁systematically
▁235
▁(16%)
▁PBMC
▁buc
▁Increasing
▁characterizes
▁encephal
othelial
rotein
▁2.5%
▁selenium
▁Prol
▁1980
▁Coronary
oventricular
nisone
▁methacholine
▁irrever
▁Tran
▁BMI
▁bup
epti
▁platelet
▁CHD
▁allergic
▁yearly
ilibr
▁recordings
▁4.4
▁autoimmune
essel
tic
osyn
▁nulliparous
taken
▁arterioles
indol
kD
▁conditioned
▁276
-3.5
cells
▁-12
▁autoanti
20
osylated
▁leuk
lastic
▁PTS
▁(10(-6)
roxicam
-28
▁ACTH
▁PLP
▁acidic
▁connective
▁premise
monitoring
▁insulin
▁tibial
▁hydrocortisone
▁deficit
sorbed
carbon
▁chlorpromazine
valent
▁splic
▁oxide
arrhy
▁antimic
▁sulfoxide
ylase
▁cef
tructed
entified
95
▁HSP
oposide
▁oxidative
10
▁nonin
iagn
▁vesicle
▁(70
scopy
cellent
▁infiltration
oxazole
nec
▁regulates
achid
▁Eleven
opo
▁jaundice
▁(90%
vae
membrane
opoietic
▁demonstrates
▁surgeons
iazide
alasin
▁Reduc
▁markers
▁3
▁tox
FSH
idin
▁Therapy
▁8,
charomyces
▁unnecess
▁screened
plemented
▁hypo
▁Reflex
▁junctional
average
sac
▁39,
epithelial
▁metabolites
▁TC
▁unrelated
▁10.
▁rigorously
patients
abd
▁intub
▁promo
ventil
▁congestive
▁cocul
▁82
imens
▁microscop
affected
▁lymphocytic
▁fum
▁breeding
tual
▁Infants
▁endoplasmic
trig
▁233
▁initiating
▁stripe
▁Thi
▁prox
▁fumarate
▁1970
phosphon
▁1.12
allium
700
▁perc
ximum
▁polyclonal
lasting
▁(3.0
▁discriminant
▁echocardiogram
▁reserpine
▁psycho
conjug
▁Ps
utin
ected
rosy
▁cesarean
iotensin
▁striatum
▁capillary
▁thresholds
▁sulfonyl
mRNA
▁menstrual
50/
▁stimulating
ographically
▁decarboxylase
▁sediment
phetamine
ympathetic
▁serologic
▁aggres
▁enl
rosal
▁9.2
▁pravastatin
▁303
▁abnormalities
ropriate
▁investigations
tified
essation
ivered
▁milder
▁metoprolol
terone
tivation
▁filament
ailure
▁outpatients
uestionnaire
entical
-45
▁extensively
▁lymphocyt
phot
onyl
amuscular
▁nonsurgical
▁vagal
▁239
▁6.5
▁Schwann
▁detects
oxane
▁61
▁4-
▁pathophysiology
▁substituted
▁periodontal
▁underst
▁43,
IAA
▁pathogenesis
affec
▁enhancer
terase
acerb
VAS
▁0.0001)
▁Histologic
▁irreversible
formerly
▁3/
:1)
itant
sufficient
▁gradi
globin
▁erythropoietin
Ba
orrh
irone
▁solit
▁utilization
▁affec
effects
▁indicators
infected
ithromycin
-1.5
▁outpatient
▁proteolysis
▁immunoreactive
▁cathepsin
▁epit
▁3,
gely
ylchol
▁HPLC
biotic
▁1.33
▁prostagland
/5
50.
ithin
olitis
▁0.6%
folate
▁irradiation
trum
▁overweight
▁67%
reactivity
▁prescriptions
▁70%.
▁neurotrans
▁Bronch
▁adipos
accharide
inyl
▁expres
▁omeprazole
ichia
lovir
nons
labelled
▁rRNA
▁GMP
Sepharose
▁amenorrhea
gressive
▁LR
▁chlorthalidone
▁correspondingly
103
adrenoceptor
rozen
▁intimal
▁emptying
▁tablets
entia
76
orrhea
▁targe
▁angiogram
ethylene
▁8.4
▁ammon
tonic
phosphonates
imethyl
▁tachy
icides
▁182
▁22
uronium
▁suspensions
▁fasci
tion
24
▁subcutaneous
▁averaged
ncies
▁magnesium
▁myocardial
▁92%
▁18
thrombin
▁pretreated
▁cytoplasmic
▁gradients
▁(69
▁attemp
▁estimating
olesterole
▁iodine
kets
.8.
▁(20
▁cobal
▁prescribed
RNA
enec
ritis
▁morphology
-14
odies
ochemistry
▁CST
▁isoproterenol
▁endonuclease
▁3.5,
protein
▁adhering
▁mobilization
▁8.5,
▁stratum
▁diclofenac
▁theophylline
▁follicle
▁simplex
▁valves
▁fibres
roph
▁positional
▁iod
▁streptococcal
oxide
]-
rostagland
arous
▁Conventional
▁+/-
▁ATPase
▁concanavalin
▁dextran
▁6.8%
▁hybridized
atinine
/30
▁0.40
▁trich
nowled
▁21-
odipine
▁anemia
▁suprac
phic
▁Rb
▁radiol
▁dors
▁soluble
▁inflammatory
▁practic
▁similarity
▁urticaria
chrom
▁mAbs
▁otitis
▁medullary
▁endot
tryptamine
omatosis
▁allogra
▁linole
66
▁esterase
meas
▁antagonized
▁datab
▁SG
▁bif
▁hydroph
roscopy
.1,
▁Older
▁mesenchymal
▁sensi
▁64
▁1.13
modulin
▁familial
▁flashes
▁Changing
loride
▁300
▁antif
▁231
▁differentiating
900
▁megakary
▁peroxidation
kinson
erin
▁pyro
▁1000
▁stimuli
▁1986
.3.
urate
▁electrophoresis
4/
▁ceph
xate
▁omega
ignificant
▁births
anic
ographies
▁cirrh
emin
▁TM
opharmac
97
thickness
▁4.5%
monella
bic
examination
18,
▁smo
illus
▁MF
▁brisk
▁16%,
▁restenosis
imetry
orating
▁pigs
▁leth
▁triglycerides
▁lam
▁187
▁77%
▁dimer
yocardial
▁starvation
▁fenoterol
tiary
▁interc
tensive
oea
ipar
ronate
melan
▁(63
otom
-5.
onance
▁0
▁abscesses
▁cardioselective
ospitals
asive
▁0.001),
▁covalently
conjugated
ductase
▁responders
ofluores
▁unstable
▁(1.0
▁dams
▁Functional
▁abd
7]
▁extraction
▁dox
corrected
▁captopril
▁incomplete
▁(95
▁sheath
heres
▁41
conventional
▁extracellular
▁preferential
▁affinity
▁thyrotropin
▁80%,
▁29%
-1).
▁sonography
tenosis
▁-7
ycardia
▁kidneys
▁fibrinogen
TNF
osidase
▁migrating
inhib
▁absorbance
LDL
▁-0.
▁274
-2).
▁7-
▁therapeu
▁Tyr
▁histochemical
▁stimulates
▁phage
vices
▁clinicians
anesthetized
▁appraisal
▁mesang
▁typhimurium
▁accelerated
▁secreted
▁metabolic
▁disabling
riched
idate
▁socio
mediated
▁efficacy
▁Gynec
▁epiderm
lyte
toid
▁tetrodotoxin
▁Saccharomyces
▁econ
▁tic
▁adhesive
▁(20%).
▁scarring
ovascular
▁immunoglobulins
EMG
▁neutroph
▁acetate
▁salts
olysis
▁calorie
mercap
▁dosing
▁distorted
▁extremity
▁Accordingly
▁morphologically
glucosamine
▁resembling
▁deleterious
urys
▁5,
▁6%,
formin
▁neutralizing
▁189
▁irrigation
AVP
iotic
▁96%
muscle
▁thrombus
atriptan
▁Lyme
▁Breast
▁chan
▁descriptive
▁supplements
▁leucine
▁proteases
▁ovulated
obacterium
▁33
▁smears
▁irradi
▁operative
5)
▁Framingham
▁(4.3
erose
ACh
▁derivatives
amino
siology
odgkin
▁threefold
▁medial
▁1983
▁phy
akary
▁sugges
▁EGTA
▁paradig
race
▁mucosa
▁avail
Ds
igand
▁dimethyl
parous
▁intermedi
▁morphological
▁enrollment
▁analogs
rocytes
▁Tiss
▁endoscopy
41
▁postmortem
▁cytometry
▁triam
glycer
atment
ogr
▁serum
15
irub
▁mucus
▁-0.8
▁Forty
▁descrip
▁dendrites
▁Inhib
▁contamin
▁(24
▁abbreviated
▁unin
▁pyramidal
orpor
▁(41%)
▁ech
polar
▁antidepressants
▁reactive
▁intox
▁randomization
▁15.8
4+
.4%)
▁glycosaminoglyc
▁Recom
ocular
▁ankle
opram
demic
arcoma
▁infertility
▁doxazosin
rocal
▁phenylalanine
▁esophageal
icep
ept
▁(14
▁recipients
obase
▁cyclospor
thanolamine
▁kinase
▁canine
▁clarithromycin
▁neon
▁stratif
peptide
hyp
▁NIH
▁subarachnoid
▁divertic
otonic
▁algor
▁HM
▁aneurysm
▁prostatectomy
▁1.0
▁1991.
odeoxy
▁carcin
13.
▁hsp
clamp
▁Stroke
▁plasminogen
predic
▁galact
▁trachea
omegal
▁phospholipid
oste
▁spermat
▁500
affin
▁reas
▁interp
chymal
apeptide
oglobulin
00
▁0.18
▁CHO
▁phentolamine
▁leukocytosis
▁repeats
▁caro
4,5)
▁lipoprotein
▁cran
▁7.6
▁1986.
▁AChE
eclamptic
▁ESR
▁Doses
ophil
▁notic
▁citrate
Ki
▁aspirin
2+,
▁platelets
accharides
▁wk
▁adhe
hexidine
▁176
▁550
▁globulin
▁plex
▁PSA
▁methotrexate
▁EG
▁1.36
1:
▁aro
▁detrusor
▁criter
▁premature
▁thalamus
estim
5%).
otential
inamide
▁anxiolytic
occus
▁carriers
▁stren
▁lesion
▁(2.6
▁2.5
▁6.0
distal
Daw
▁restric
ervative
▁1989
▁pelvic
▁allergens
genital
otypic
oplasma
▁65
HN
osterone
▁Levels
osomes
▁76%
▁phag
▁diets
▁midw
▁regained
▁viscer
▁inhibition
▁Sephadex
▁abduc
▁aneurys
▁Severe
▁receptor
▁fron
▁strokes
▁1)
▁nutrient
▁adenylyl
roscopically
▁immunological
imide
▁thallium
xanthine
▁generalized
▁162
▁empiric
▁placent
▁Consid
1)
ensitization
oxic
lip
▁neuromuscular
▁acetylcholine
▁-6
▁immobil
bac
uppression
▁127
▁tetra
▁33-
tact
nisolone
ervo
▁ison
atid
gated
.6
amel
▁administered
50),
ystag
▁10,
▁islets
▁25%.
tin
▁interpre
▁polys
▁thromboembolic
orbent
rhy
tis
▁formulations
▁[32
▁AMP
ognition
▁lethal
▁nausea
lamin
motor
▁proteinuria
▁1.3
▁44%
▁cohort
▁potenti
abies
▁3.7%
▁ruptured
▁Somatic
▁crosso
▁41.5
▁Institutes
▁(54
9/
eptid
GMP
▁accumulation
olipid
▁allo
▁purine
▁stoichi
▁phenyl
▁extrap
▁protracted
orectal
▁catab
chlor
ctive
coagul
adox
▁stabilization
orphine
▁0.84
▁GS
plasia
▁129
▁IFN
▁junction
▁Approximately
▁justif
▁Comparing
▁hyperlipidemia
10)
▁slows
▁0.21
22
yclo
▁typh
▁synthesized
▁resection
▁Combined
▁decreases
▁transpor
▁hepatitis
▁laboratories
▁histologic
ylline
▁neuropeptide
olec
▁infancy
▁pulsed
▁comprising
▁tryptic
▁Decreases
▁relapses
▁1
▁stimulant
▁19,
▁anhydr
▁adenylate
▁mesen
alic
terol
▁Animals
▁markedly
▁regimen
▁lumbosacral
▁phosphorylation
▁Dip
▁albumin
▁diethyl
▁stratified
▁93
▁1.4
azole
▁leu
resting
▁0.01
▁rodent
lymphocyte
zinc
▁cyst
▁corneal
▁-2
▁deli
▁11.6
MDA
lamydia
(1,
dU
helix
diagnosis
▁hemoglobin
aerobic
▁ocular
▁electrodes
rati
▁0.08
▁sting
iatric
▁syphilis
magglutinin
▁3)
dihydroxy
▁TMP
▁dextrose
▁aberr
▁cochlear
▁sclerotherapy
exy
upus
▁harves
▁prosthe
indolol
▁Patients
april
▁carvedilol
▁69
odopa
LISA
▁attainment
▁implant
cessive
▁utero
2;
etitive
orsal
eryth
▁shif
▁308
▁transmitter
▁promin
▁171
▁333
ochondr
sants
▁commiss
oling
▁pharmacokine
▁migraine
▁67%,
glucosidase
▁toxin
▁genetically
▁manipulation
opus
HIV
▁chond
ields
▁parat
▁psittaci
▁intravascular
▁capsules
▁precipitated
▁cellulose
▁acetaminophen
ergy
▁deposition
▁10(-4)
fatal
▁homocysteine
▁mL
butyrate
▁pathophy
▁voiding
tetradecanoyl
sulfamethoxazole
inoc
▁myopathy
▁juvenile
▁antiarrhythmic
chol
▁incontin
▁adolescent
idne
(7
▁BMD
▁nal
▁immunosorbent
▁summarized
opeptidase
▁Surgical
▁gonadotroph
▁46,
▁hematoma
▁Neurop
▁scientif
2),
▁choline
▁281
▁reperfusion
ometr
▁ori
anthine
▁radiographs
eclampsia
▁surgeon
▁autopsy
jug
▁([
▁measurable
3%
atesticular
botic
▁attrib
▁grafted
▁fertility
reening
▁retardation
▁nonf
▁bilayer
▁treadmill
uantitative
▁0.05).
▁0.19
▁unresponsive
▁explants
▁RIA
▁paradox
▁Diets
aminob
▁rotavirus
positive
bladder
▁descending
1.1
6-
opathy
▁Rates
▁emo
▁5.5,
lax
▁zoster
▁7.9
▁150
▁hyperlipid
rength
▁demonstration
▁inconsistent
▁polycystic
▁fulminant
▁unrecognized
olis
▁hydroly
▁denervation
▁GST
150
▁Simult
▁0.13
▁colorectal
▁catalyzed
▁sputum
guan
▁Maximum
▁(36%)
-1.2
▁uric
OH
▁0.44
terl
▁(39
▁lifelong
▁sati
osteroid
▁stimulate
nRH
▁(9
▁rash
Hg
atase
PV
▁velocities
▁enti
athered
2,000
▁thoracic
▁haemorrh
alate
▁discharge
▁(88%)
▁psychosis
▁hypertension
▁Extr
▁codeine
ocrine
▁biopsied
uvate
▁fecal
▁lymphocytes
▁316
▁intrav
▁660
operidol
▁labial
▁GE
-3-
▁hir
achn
Hyp
myocardial
natal
▁10(-6)
58
▁0.98
plast
▁chicks
▁prostaglandin
▁Pt
▁intracranial
aminases
atients
▁nebul
▁hyperb
▁tubules
unctions
▁lapa
galy
▁potassium
▁electroph
▁AUC
▁Subjec
omegalovirus
VV
▁ganglia
▁graft
▁clinician
ilization
▁Diabetes
▁remo
DH
▁tol
▁2.9
▁follicles
▁lamina
▁inability
▁enalapril
▁contex
▁clinically
ecu
62
▁adip
▁dehydrated
▁tolerated
▁vesicular
ymal
benefit
▁0.01).
▁pneum
▁scars
sus
pli
▁344
▁Chang
atest
▁blockers
▁tet
-2-
▁0.65
▁22)
▁81%
assium
▁Subsequently
▁asbest
crip
▁questionnaires
▁isometric
▁secrete
▁prednisolone
▁neutrophil
▁13.2
▁strands
retroviral
▁concludes
▁etiologies
MHC
▁saphen
▁hydrop
formations
▁epitope
▁progest
▁phosph
umption
▁epidemiological
amid
▁(2%)
▁0.05
.1%
▁adenocarcin
▁wors
▁myocardi
▁7%
▁adren
terus
WBC
▁1991
specificity
yronine
▁mycoplasma
▁8.5
▁shear
▁reticular
▁hetero
convul
▁gonococcal
▁precipitation
▁Interestingly
▁alcoholic
▁0.7
lactam
▁0.66
▁seroton
▁(28
▁unwanted
▁tetrac
▁Hb
▁(6
▁papill
▁withdrew
▁(42
▁tissues
▁nipple
▁macropha
▁5000
▁empir
17
▁acin
▁lar
59
▁cholecystokinin
weekly
▁immunoglobulin
ipril
▁cardiovascular
▁fec
catalyzed
▁albuterol
▁NADPH
▁quintile
▁placebo
ulants
▁hyperactivity
▁macromolecules
▁BAL
odend
▁AVP
.7
enzyme
▁lymphocyte
▁cloned
imodipine
▁connec
▁cofactor
yzed
▁0.82
opam
pinephrine
▁stimulatory
▁PHA
ixime
▁75-
pended
trodotoxin
otri
tric
▁32
glycoprotein
hep
ocortic
▁enlarge
▁develops
ritten
▁facilitation
▁evaluations
▁infil
▁veins
▁headache
▁secretagog
▁PPD
0,000
apsulated
▁recognizes
▁Indo
▁215
▁14%
▁acetyl
isal
▁1200
▁inducing
irectional
▁3.4
▁bony
pran
irds
▁(84%)
9-
▁filaments
▁lumb
▁synov
▁Geor
49
▁endothelium
▁intakes
▁reag
otrop
▁dihydro
▁reproductive
normally
▁10(6)
▁rupture
▁prenatal
▁halved
ministration
▁topoisomerase
siveness
▁mesenteric
▁endocytosis
▁rhinitis
▁symp
▁displaced
▁centr
▁leukemic
▁280
▁165
avage
tured
▁infec
tious
truction
productive
▁12.
000
▁(99
▁hydrophob
oglobin
▁retinol
ardized
▁phosphorus
▁rheumatic
conver
▁pren
teroidal
▁9.
▁nore
▁fung
▁pharmacological
▁1.6
aldosterone
12.
▁atria
obronchial
operated
centered
▁microscope
▁spati
▁hypophys
▁23
▁unstimulated
tential
▁xyl
▁cGy
▁293
oung
emide
▁15
▁fungus
85
ogonad
ditional
tics
▁kcal
lood
▁specificity
acteria
▁hypertro
oradi
▁19.
▁(30
▁aldosterone
▁denti
▁WHO
▁aromatic
▁lavage
yridamole
▁hypothermia
deficient
▁enanti
▁3.
▁PAI
▁40%
regulation
▁22%,
▁Antim
ffective
eliac
armac
lyb
▁substantially
menopausal
▁turnover
ustif
▁psittac
▁(76%)
ffinities
ionine
▁ventricle
▁adherence
6).
▁47%,
▁radiologic
▁ductal
▁88
ziness
athe
▁hepatic
▁eukaryotic
▁(12
+)-
oretically
▁methyl
▁Raynaud
▁chromosome
▁allografts
▁MN
▁cystic
ampicillin
▁CAL
▁normo
▁pepsin
50)
▁sinusitis
▁Laser
▁strep
▁cochle
▁envelop
▁ventricular
▁threonine
▁bronchospasm
▁mastoid
▁consul
▁Phen
5%)
loid
▁lovastatin
arying
63
▁RI
▁dilated
▁bolus
ygen
osynthe
▁17).
▁ibuprofen
▁pefloxacin
▁900
mum
▁subpop
▁66
activated
▁abnormality
essional
▁Efficacy
▁melanomas
▁appendix
▁attenu
▁glandular
▁560
▁triphosphate
▁fulf
asthmatic
▁1,2-
▁Lyt
estion
▁livers
▁cellul
▁moiety
▁113
▁1.66
guing
itum
▁adolescence
▁5%.
▁chemically
▁agon
▁depletion
▁encompassing
sych
▁prel
.8%)
▁impair
▁lisinopril
▁cholinergic
rine
▁LDH
parathyroidism
▁Subjects
rotid
▁flexor
▁semen
▁FMLP
ntolamine
▁nonspecific
▁genomic
▁2.3%
parative
methionine
▁100,
▁suppor
orec
▁proton
▁hypocal
▁intrapartum
▁deoxy
▁oligosaccharide
/12
32,
▁inadvertent
▁resuscitation
▁(82
arental
▁detrimental
▁hepatotoxic
▁30.4
emak
▁NAD
▁urine
▁anion
▁intercal
urgical
▁repressor
▁alleles
▁29
itidine
▁bronchoalveolar
GTP
▁synthesis
▁hypoglycemic
4-
▁(21%
▁1.4%
▁plasmid
▁granules
▁serolog
▁Glu
▁Centers
omyc
14).
3-
▁isoform
▁ultim
ofl
▁recurrences
▁42,
▁30.
ereb
▁clindamycin
ilic
▁lax
onorgestrel
dor
bumin
istor
uminum
▁lysosomal
▁ineffective
▁300-
▁4.3
▁parame
ulae
▁soybean
▁thrombosis
▁edema
▁metatar
immun
▁singlet
▁LPL
omatous
llate
ameth
cortisone
8).
▁Plas
▁serine
iodothyronine
8.
▁90%
amisole
▁differenti
▁immunore
▁hypothalamic
▁fractionation
▁0.89
▁Bacter
▁dysplasia
identified
▁relap
▁ambulation
adrenergic
▁5.8
enal
▁tendencies
olgi
thmia
dividual
▁rises
▁AMI
▁rearrangements
▁elic
▁angio
▁regar
▁efferent
▁fetal
etidine
uron
turnal
orption
▁horseradish
▁antagonism
ocycline
▁(25%
ranean
▁(100
diastolic
▁mefloquine
▁alcoholics
rosis
▁0.026
▁(20%
▁(15%
POA
ronchial
▁radioligand
▁bouts
▁exhibits
▁MDI
▁Improved
clin
omical
▁4.
▁shunt
▁osmotic
▁constellation
tetra
▁hospitalization
▁outbreaks
▁ubiqu
▁prognosis
-2.2
▁regularity
▁parenchym
▁Serum
vating
isol
NK
ochondrial
ATPase
▁augmentation
icillin
3]
olesterolemia
▁phosphates
titution
▁sero
▁37
▁osmolality
ammonium
aicin
▁agglutination
▁immunization
▁dairy
educed
▁microsomes
▁reproducible
nithine
▁Taken
▁transporter
▁intestine
TSH
▁jeop
▁glycosyl
8%
▁123
▁pollic
▁infrequ
approximately
omagn
erule
▁muscular
▁defec
▁deline
▁antip
▁drip
▁frontal
▁adrenaline
▁jejunum
uates
▁pene
▁220
▁ultraviolet
oprec
▁ferric
▁47,
ionyl
ulsive
▁diarr
▁dendritic
dition
estive
▁parenteral
ller
▁intake
▁pools
▁stabilized
▁foci
▁preoptic
uccin
tensity
oxygenase
▁Examination
▁throm
amicin
ometers
▁vaccin
▁congen
▁44
icardial
▁epidemiologic
utions
▁tachyc
▁cytotoxic
▁Tolerance
▁poten
▁cartil
▁neuroblastoma
increased
▁penetration
econd
▁Wound
▁53%
▁17,
▁inappropriate
▁neonates
▁alcoh
cyclo
▁atrium
▁loos
▁olig
▁normalization
▁precur
▁uninfected
▁midbrain
vic
▁208
ucine
▁(=
▁palpable
▁Sodium
3),
1.0
▁57
▁cardiopulmonary
▁injected
responders
▁albuminuria
geons
▁perme
cytochrome
▁(75%)
releas
oxetine
tep
▁Statistical
ylamide
▁phenylephrine
70
FU
▁resuscitated
▁parity
Ra
amole
rever
▁meticulous
▁strepto
▁symptomatology
▁epidermis
ectin
▁14,
▁neoplasms
46
▁tandem
▁substrates
▁abstin
-2.
▁arginine
seud
▁repres
1-1
▁beclomethasone
oreg
▁263
blinded
avoid
▁(1%
▁etiology
▁MRF
roscopic
▁immunoprecipit
▁offspring
vasive
▁mV
▁euk
▁Lactobacillus
hydroxylase
▁pector
▁phosphodies
lamyd
vate
inol
▁mutants
tectomy
▁CHF
▁5.6%
ughter
▁tendons
▁ile
tig
▁PGI
▁179
▁60
▁EE
obl
▁covariates
xual
itone
▁transfusion
ticularly
▁deposits
oxifen
wann
ews
▁pim
▁prevalences
▁granular
▁cramp
▁tumours
erad
▁Vmax
▁hypothesized
▁dissociation
▁bioassay
anol
▁6-
SBP
▁pell
▁CK
roxen
▁ipr
▁progenitor
▁1500
▁vasoconstrictor
▁discus
▁antibiotic
▁kits
reduced
▁Prac
▁extremities
uronic
95%
ichloro
▁dips
azolam
▁degradation
▁tetracycline
▁qualit
prising
▁diffus
plenic
▁mononucle
▁venti
edded
▁fibre
▁anomalies
lun
amide
▁fatty
-1,
▁inver
tiz
▁minimally
▁DVT
▁pacing
▁(1/
ensities
oconazole
▁grafting
▁hrs
▁endoscopically
▁equivocal
deficiency
▁CsA
▁insufficiency
haled
-0.5
glycerin
▁MG
▁(60
quinone
▁ultrasound
▁peri
▁carcinoma
▁unipolar
tine
xide
Glu
▁7.7
▁assessing
▁caudal
valvular
▁rehabilitation
▁inad
▁nec
▁intraperitoneal
4,
▁oestrogen
▁autoradi
reasts
phyloc
▁nitrofur
endri
▁1.7
▁projections
▁immunocompetent
▁coordin
lusion
▁allergen
▁BP
▁1600
▁unvaccinated
▁clom
▁stent
vertebral
▁1.5-
creatinine
▁7.1
osal
99
▁developmental
▁catalytic
▁electrically
9,
▁terminated
▁adi
▁endeav
▁nef
lational
▁infar
▁(48
conversion
▁abolished
9).
▁412
▁18.3
tissue
FEV
▁constitutively
44,
▁rebound
▁antiser
▁EDTA
▁flexed
▁internists
▁decreas
▁vertebrate
▁identically
helin
▁aorta
▁mite
▁exer
▁205
▁conductance
▁multin
▁Hep
▁pars
▁11-
▁specifying
▁heterogeneous
▁(0.4
▁abrog
ylephrine
▁simvastatin
smoking
▁opiate
▁Successful
▁excretion
▁niacin
▁lactobacilli
▁luteal
▁MEDLINE
opharynx
▁15-
▁electromy
▁oestradiol
ulmonary
▁transforming
obut
▁thyroxine
▁5.0
▁ipratropium
▁zinc
▁posttreatment
▁GAD
coun
▁transplantation
Leu
uridine
fate
▁polyacrylamide
▁Mild
adenosine
▁criterion
▁peric
▁keratinocytes
▁cortical
DNA
iprofloxacin
▁Invent
▁exhaustion
▁atyp
▁Epidemiologic
▁muc
adequ
▁(43
arbonate
ofil
lective
eroxide
▁eradicated
▁Tx
▁psoriasis
ocyst
▁reser
▁inhibin
illation
▁nonlinear
▁benzo
filtration
▁itraconazole
▁HTLV
▁reti
▁60%
▁6.5%
▁diminished
▁felodipine
HF
▁0.97
▁Adherence
▁mmol
▁0.86
▁Antibodies
omeric
▁enzymes
▁macrophages
▁unusually
▁Milk
▁200,
▁coated
▁dodecyl
▁interfere
▁obser
toxicity
▁MCV
fraction
uria
▁glucosamine
▁IgM
erebral
▁299
ifferentiated
▁4.7%
▁0.49
▁SIDS
7-
ikary
▁(1.4
1%
▁pregnancies
▁antimicrobial
resist
▁Combinations
▁instrum
▁confounders
▁laparotomy
uoden
▁immunity
loon
gag
▁obstetric
olol
▁diagnos
▁170
phila
tiv
rometry
centr
▁counterparts
▁9-
continu
ocytes
▁circadian
▁ruptures
▁dendri
strual
▁prostatitis
elec
oxygen
nee
abain
limb
▁1.16
operatively
▁0.28
oflurane
-70
▁ingu
idazole
▁Cells
▁bip
▁tachycardia
▁ionophore
▁polymorphic
itonin
propanol
▁sulbactam
enriched
ervical
2+.
▁enzym
▁normals
▁retinopathy
reased
▁presumed
▁microbial
▁268
▁pyr
odular
amethasone
▁mAb
physiologic
▁chemotactic
anate
▁Pertussis
▁0.61
▁corpus
▁Experiment
▁hemat
▁mitig
acylglycerol
▁(75
ystatin
▁weaker
▁modulate
▁suicides
▁96
neonatal
▁thrombolytic
▁accessibility
ingers
▁Pb
tosis
▁bowel
▁menstr
oplasia
▁ascer
▁actu
▁meningitis
▁isozyme
▁venous
uncture
▁luteinizing
▁nig
▁leukemia
inum
▁(400
▁1000,
▁parasite
tituted
▁tas
▁4
▁Apgar
NB
male
▁underwent
▁ions
mined
▁parenchymal
▁oriented
▁osm
6;
lymph
▁nicotine
▁Factors
▁fracture
Ly
utive
oreal
▁androgen
▁carbonate
▁factorial
pirin
▁biotin
▁NPH
▁confir
▁diazepam
▁allergenic
terologous
▁CVD
▁devi
▁induction
conduc
▁0.27
enoid
▁3.2%
atological
▁corticosterone
▁hypox
▁phosphatid
tomy
▁(68%)
▁dorsal
▁contraction
▁heterologous
asal
▁inhaled
▁hydrolysate
▁brom
▁dismutase
▁homogenate
5%.
▁subfractions
▁extracts
▁casein
▁tach
80
7%)
▁(32%)
opre
▁laminae
▁hypers
jective
1-2
▁fatigue
20).
▁interim
▁denaturation
▁dyslipid
▁reversed
ulting
▁0.25%
crib
▁psor
▁dizziness
▁63%
titutes
▁monoclonal
▁fluorescence
ophor
puts
▁Pseudomonas
▁ODC
usate
antigen
▁keto
▁depended
ocated
adder
osac
opathic
ondr
okine
▁corticos
esity
▁IgG
28
▁cardiomegaly
angl
▁Systolic
▁oxid
ogenicity
odium
▁thromboses
▁unlabeled
▁concom
▁1.2%
tRNA
▁0.48
▁carbohyd
▁aggregates
▁EA
▁48%
▁virul
▁109
firmed
▁metabolized
▁mmHg
▁irregular
▁HRP
esin
▁0.52
hepatitis
▁calcitonin
absorption
▁morbidity
.3%
▁catechol
queous
isole
▁cuff
▁dermatitis
▁0.22
▁electrolytes
▁impedance
▁eti
▁hepatocytes
▁lessen
▁36%
calor
▁qualitatively
elves
gesia
▁metastasis
thalidone
▁Statis
atent
▁hepatocyte
▁phosphatidyl
▁amn
oprost
▁acinar
▁propor
-4)
▁inhalation
▁colchicine
▁malaria
▁cremaster
▁cooperative
+/
-400
▁diploid
:3
▁thalamic
▁hypocalcemia
▁recombination
▁Dys
▁infarc
▁psychotherapy
▁1985
▁limbs
▁hypercalcemia
▁grafts
▁erythroid
ostigmine
▁femur
-3
▁COPD
sian
▁quinine
▁chl
▁0.001)
perfusion
olon
▁stratification
▁700
olone
tead
▁phosphate
▁communic
▁27,
quisition
tenti
entral
jec
▁2000
▁lys
rates
▁hazards
▁18-
39
▁(63%)
adenoma
viruses
dihydro
▁contraceptives
▁100%.
▁1.3-
resis
vedilol
ylic
▁tricyclic
▁2.1
lometh
▁Measurements
▁0.02
▁proteoglycan
▁MAO
▁30%
.6%
struc
carbox
-0.0
idium
▁acad
▁depolar
plasty
▁anxio
lymer
urnal
▁autoradiography
▁Differen
▁relaxants
▁systolic
▁5)
iphene
▁saturation
saccharide
▁computerized
keto
▁16
trial
▁homozygous
▁164
veness
amphenicol
▁alterations
▁anae
▁PTCA
▁2.4%
▁terfenadine
venous
▁elevations
▁granulosa
eded
▁subscapular
▁contralateral
▁Premature
ogenesis
albumin
iloride
▁LD
▁exceeding
▁ae
▁injections
uris
MV
▁psychophysical
Hu
3-2
athetic
▁embryonic
eal
▁idiopathic
▁wheezing
spectively
80)
imbr
▁Few
azem
▁intercellular
▁oxidation
▁13.9
▁pharyngitis
▁Identif
▁infrequent
▁incubations
opressin
nitros
leb
▁cardio
▁NaCl
▁tiss
▁sulfhydryl
▁prophyl
▁adrenal
▁ket
▁prognostic
▁sulfon
▁17.1
edding
▁pleural
specified
▁apparatus
ecre
▁demonstrating
gative
▁endogenous
orubicin
▁steroids
▁extrav
cobalamin
sulf
ulence
onvul
▁amlodipine
hea
phorbol
▁nitrogen
thromb
▁Ultras
▁solids
▁Disease
▁osteopenia
BV
▁(0.1
cristine
sant
▁NH
▁hyperbil
▁pacemak
▁rheumatoid
▁MAP
▁hysterectomy
erant
isopropyl
hort
tisol
▁Trp
emia
rogenic
▁7.2%
▁cortic
bloc
astatic
otassium
▁unrel
▁hCG
▁electrode
▁silic
▁physiotherapy
▁oxytocin
▁IBS
▁fasted
atible
▁intron
▁2.
▁monocyte
ustained
▁absorp
▁modulated
▁Ace
apanese
▁iat
ocomp
▁40,000
▁10(-7)
▁3.5%
▁ambulatory
8+
▁(89
▁inoc
▁antin
▁newborns
▁gastro
▁30%.
▁Fluc
▁dysrhythmias
ifedipine
▁1990
▁oint
▁incubated
kephal
▁clamping
▁immunogenicity
▁breakthrough
▁17.3
▁mann
▁42)
▁junctions
▁thirds
▁inbred
hydroxyp
ipital
omerular
onad
ffer
TG
▁supervised
availability
atology
▁clon
600
▁agonists
▁oxym
▁endocardi
▁immunodef
▁exhibited
▁tremor
▁individualized
25
▁disadvantage
▁DNAs
▁acr
▁experim
aneously
deoxy
▁nitroglycerin
▁diameters
▁antenatal
-1
▁102
tral
▁rehabil
▁arti
▁295
▁0.4%
▁duplex
▁prevalence
receptors
▁glycoprotein
▁aneup
▁HeLa
▁deviations
▁rigor
▁bronchoconstric
▁definitive
▁1964
▁fractions
iatic
▁1/2
▁GFR
▁4.1
▁MM
▁retur
oalveolar
osm
▁anastom
▁encodes
▁bronchodil
gene
▁scl
▁pall
tene
till
▁premenopausal
initiated
▁inducible
▁Veterans
▁35-
▁FD
eck
rological
▁tetr
fused
-11
chloro
▁24,
-6-
▁disseminated
leukin
▁Concentrations
-800
▁(5.8
▁stimulated
▁metast
emias
▁polymerase
▁unsuitable
quid
assessed
reness
▁tuberculosis
obac
▁uter
▁protoc
▁Ringer
ucas
ytoin
osine
lob
▁strand
▁deduced
-50%
▁affinities
tribution
▁excluding
▁microtub
6%;
▁Ear
rography
▁8%,
adin
specifically
partum
▁choleste
▁restraint
uctose
ELISA
▁pancreas
▁disulfide
▁amino
▁micron
▁lesions
▁cryptorchidism
▁organisms
▁stimulation
vix
Ni
ongue
isters
▁rats
timate
▁lipid
vitamin
dens
ncy
▁reagents
odg
▁proliferation
athyroid
idone
▁weighed
5).
hetamine
▁lymphocytosis
dent
▁fluxes
▁Staphyloc
tionally
▁0.
sess
▁neuropsych
▁compounds
▁monocytes
▁alleviate
cys
▁Recurrent
roprus
▁adduc
▁gm
▁unres
▁glutathione
▁phagocytosis
▁39%,
▁candidiasis
▁margins
▁methionine
-10
ensi
▁exposures
predominantly
epin
IGF
▁isoenzyme
enol
▁lumbar
tension
▁17.
▁warts
13
▁(19
▁disturbance
atadine
▁biases
▁undergoing
▁eczema
▁spi
▁lysosomes
▁denervated
▁Pn
romised
▁anticonvulsants
▁Radi
▁humoral
▁preservation
▁590
▁epithelium
/90
▁0.70
▁catalase
▁arousal
▁DSM
▁choles
▁0.63
▁10(-3)
toph
phen
▁1.17
▁98%
▁reciprocal
▁fibronectin
▁brevis
▁discom
▁85
▁residues
MH
▁spleen
▁hemo
▁chromatography
▁0.09
▁adenopathy
▁enteral
-13-
cycline
▁augmenting
eptin
▁endocrine
oglob
▁TP
ilized
▁parie
oinositi
▁mitotic
▁adap
keleton
▁stiffness
▁artifact
▁20.5
▁ow
asone
ensory
restricted
ypass
▁flap
▁amput
individual
loidy
▁Modified
▁exacerbations
▁1988
▁parasites
▁1.42
▁3.9
▁halves
anide
obarbital
▁sterol
▁2,
thoracic
▁150-
▁1.47
▁abortive
▁14.
▁cumulative
▁antihistamines
▁145
imetidine
▁phyto
6)
ritical
▁VO
cephal
▁sleepiness
▁286
▁mutagenic
▁NGF
electric
illin
▁adipose
polyacrylamide
uvant
ysto
tox
▁intrinsic
▁Treatment
▁0.04
▁Ia
▁Neu
18
▁thymocytes
▁0.77
elic
▁aryl
▁proportions
▁10-
2(+)-
urement
aryngeal
▁cerevisiae
ochle
.1
▁amplification
fts
▁remod
▁immunobl
posure
▁matur
athic
▁staging
▁multiparous
aminop
astolic
▁mediate
▁infrequently
▁topically
▁puber
cemia
▁isoforms
▁anesthe
carbohydrate
zation
▁32%
▁0%,
5'-
igarette
▁kD
ighteen
▁Ventricular
▁successive
▁vertebral
▁hyperplasia
▁ejaculation
orbidity
nthe
allik
▁69%
▁antisecretory
▁10(-9)
▁titr
▁hemisphere
▁leukotriene
▁11,
adrenoceptors
▁fistula
▁submuc
▁177
ugular
▁macros
▁ane
ostic
▁eradic
▁LTB
rested
▁nonex
otide
tronic
2%)
14
▁elas
containing
▁allyl
incidence
▁resistant
15).
otropic
macrophage
▁VH
▁influenzae
▁diffic
▁1.35
▁nonsmokers
▁159
▁mortality
inatal
▁38%
▁217
siological
▁Registry
▁schiz
LTS
-3)
▁pediatric
▁parac
PGA
▁elution
▁0.9
tabl
apeu
▁polyethylene
▁physicians
▁fluoro
▁overex
▁abrup
▁GHRH
26
▁antitumor
▁rostral
vail
▁strips
▁stationary
asions
▁permeability
▁4)
ropine
labeled
▁2.1%
▁50,
▁0.06
acycl
otopic
▁correlate
2318
charged
▁12-
▁retention
▁243
▁-0.0
▁Seventeen
stolic
▁unchanged
▁Recommend
▁Newly
▁iso
oglyc
▁pulsatile
▁urethritis
▁embry
economic
▁302
▁anoxic
▁-4
▁introduc
▁confined
▁somatosensory
encephalon
▁antigenic
.9%
othreitol
▁perioperative
▁angiographic
▁coronary
▁MRI
▁coping
▁exhaus
▁fentanyl
▁24.
▁investigator
▁-0.3
▁polymyxin
▁kappa
▁transi
755
▁cystitis
gestion
▁deficits
▁numb
omagnes
molecular
▁252
▁aspartate
▁adenoma
▁hapl
▁68%
rostened
positives
luc
NIH
▁spindle
▁hu
▁medically
▁thromboembolism
▁streptozotocin
acid
▁competent
▁variability
▁inters
▁sclerosis
▁adminis
▁Pseud
idney
versity
▁diaz
▁assay
▁cartilage
olates
▁etretin
▁correlated
▁amphetamine
▁remarkably
▁microsp
▁26%
▁(1
▁causation
▁ticlopidine
psin
▁endemic
rologic
▁1.30
promoting
inemia
▁neuronal
▁tubes
▁10%.
▁worsen
trated
lue
▁somatostatin
0-
▁4,
opres
▁LH
▁immunocyt
▁stimulator
▁25.3
12),
▁predictive
death
0/
▁heterodim
hered
radi
▁Infection
▁diuretic
▁metabolism
▁3.6%
▁29,
▁raphe
▁prolonged
amphetamine
▁lysis
▁antiv
-1.1
▁oils
▁8-
ocardi
▁Nutrition
BMI
dominal
▁tonsillar
glucuron
▁desatur
▁Sprague
▁granulocytes
▁(80
▁0.71
promazine
▁(31%)
2+
▁assesses
▁ouabain
coup
▁Addition
kDa
pore
hips
▁whey
▁TIA
mental
vice
carinic
▁anes
▁lep
ydig
▁heel
▁lipase
determined
▁overt
▁positives
potential
▁1.11
5%),
▁rhabdomyolysis
▁palp
oten
▁caries
▁dissection
urane
▁surfact
ressive
170
▁donors
,6
▁FN
▁cirrhotic
18)
▁Cul
▁Effec
▁oste
▁hypos
TCA
ixation
▁sarcoplasmic
▁thickening
romed
▁corresponded
moderate
▁ventilatory
▁34%
▁melan
79
▁bronchial
2+]
▁contractile
sectional
▁deliveries
▁anticonvulsant
strain
▁lem
udation
▁immobilized
▁olfactory
▁cessation
enkephalin
▁conserved
▁varicella
▁720
zot
▁conjugates
▁endometri
▁laparo
▁somatic
▁fluc
▁insec
▁defib
▁catheters
▁papilloma
admill
anad
▁antibodies
floxacin
▁Aden
▁atherosclerotic
▁mimic
ystic
▁swelling
▁lowering
▁sarcoma
▁cytoskeletal
▁lorazepam
▁thir
▁40.
▁prothrombin
IDDM
▁1-3
rhea
▁Exposure
▁Caucas
aturia
▁Seventy
▁seizure
secreting
glucose
▁sodium
▁hemochromatosis
▁centrifugation
▁ceftriaxone
caro
trogen
ranial
▁0.8%
Tyr
omethyl
▁7.7%
oreactive
ociation
▁immunoassay
▁35
phosphorylated
▁mucin
▁Clinical
▁gases
Cu
daily
▁labeling
▁negligible
sorb
ronch
echanical
▁granuloma
fetoprotein
▁iden
▁136
▁multic
▁helix
pecific
▁internalization
▁dehydrogenase
ocortical
▁10.4
pig
urther
▁axons
injection
▁differing
.5.
aryn
minis
oA
iably
uterine
▁asymptomatic
▁cosmetic
▁4;
IgG
▁inspiratory
▁sampled
▁4.9%
▁rigorous
▁confound
▁databases
ituitary
ozo
endocrine
ochem
▁bacteri
▁progres
mia
▁dor
ovir
nitro
▁astrocy
propyl
▁beads
▁simian
▁inhibits
▁embryo
hyde
▁endobronchial
▁microliters
▁unpredictable
▁transfected
▁0.001
▁199
▁satis
luores
▁(22
▁ester
rk
▁spermatozoa
inear
0.1
titu
▁meningococcal
▁ischem
acchar
arrhythmic
▁UT
▁79
▁taurine
▁dichro
▁transluminal
▁marrow
ordial
▁antigens
ynthe
▁indis
▁hyperthermia
▁0.7,
▁modulating
▁statis
idic
▁peptide
▁intestinal
▁incompetence
ompan
vation
▁perfused
▁spp
▁DBA
astine
▁80
razosin
▁fric
▁mimicked
4%
retest
▁168
▁inadequate
▁joints
71
scherichia
▁postin
▁6.1
hormonal
▁tracer
irradi
▁serogroup
▁radiologists
ogens
▁bronch
leural
78
initi
▁danazol
▁PPV
cents
yclic
aggressive
▁Surgery
▁verte
rometer
▁thrombotic
ubs
▁exchan
▁muscarinic
dihyd
▁Rif
▁tRNA
▁gastr
4-2
▁stool
▁collec
exchange
cyte
▁fractures
▁negatives
▁elicited
▁neuropathic
▁viral
▁bloc
▁Sepharose
▁PID
▁Fifteen
▁neutrop
afe
obarb
thyl
pressing
▁homogeneous
▁pallid
▁Comparison
▁confirming
▁Cardiovascular
romy
▁72
▁viruses
▁acne
▁problematic
▁aor
▁Evid
▁0.00
▁electr
▁incis
▁mRNAs
▁(40%
▁hepatocellular
astatin
algia
▁18%,
phosphatase
cture
▁paternal
▁implants
psych
▁interfer
▁Mn
▁clus
dibular
▁aneurysms
orated
oxine
edocromil
olem
▁respec
icul
▁83%
▁2-
▁Absolute
vein
▁peptid
rance
▁262
CDD
▁gonad
▁minocycline
zotocin
otroph
30)
▁displacement
onography
▁Experiments
▁astrocytes
▁2
▁latex
▁activating
▁62%
tition
75
(0.
▁Throm
▁Engl
diagn
▁metastatic
▁0.47
▁indomethacin
▁lipophilic
▁4.3%
▁potencies
▁strains
agic
nish
ectable
▁enal
▁transplants
▁53
▁anatomical
sial
▁epidemic
▁propranolol
▁serotonergic
92
versal
▁conception
60)
HDL
▁0.43
trient
▁(37
▁larval
▁endoscopic
▁hairs
▁determinants
▁Lys
▁1984
▁Holter
cystic
▁tetan
.1%)
▁7,
▁fas
gangl
▁enlarged
▁160
5/
▁serologically
▁(1)
luding
▁calor
▁rati
▁pups
▁nif
▁0.9%
▁311
icacy
47
▁TPA
▁ves
ografts
farin
▁92
copic
urine
0.6
110
▁nucleotides
▁upstream
