▁neurologic
▁parenchyma
bisphosphate
▁tolu
▁retrovirus
32
acute
▁131
till
▁isomers
▁diarr
▁pylori
▁PDE
ected
Gy
ophyll
▁35%
insulin
▁unilateral
▁Centers
MIC
▁emphysema
romes
oneph
▁1978
ipr
▁8.3
atical
▁reentr
ceptible
▁13,
▁muc
▁dischar
▁2-3
enolone
▁cytologic
▁dissociated
ritic
▁relapses
▁derivatives
▁induces
trum
▁repression
▁medial
▁suppor
▁hepatocytes
-2)
▁shocks
3'-
▁metaphase
▁TcR
▁neoplasia
▁artery
▁junctional
▁symptomatic
67
Ts
▁smo
▁nonspecific
choles
▁solvent
taz
▁palp
(1,4,5)
nexin
▁iodide
▁MPO
astatin
▁fentanyl
clamp
▁gels
▁Comparative
▁hypercalcemia
-201
▁functionally
▁satis
▁BamHI
▁serogroup
ifferentiation
▁preferen
sided
kDa
▁amylase
▁cytos
medicated
▁tibial
assays
▁pate
tigmine
Ig
▁digesti
tryptophan
▁visceral
▁modalities
▁cancers
▁pmol
▁palate
▁microtub
▁potentiated
▁pHi
▁irritation
oxif
▁lipophilic
▁primates
▁imaged
▁VH
▁proteinase
▁warfarin
▁precipitated
▁prevalent
imethyl
7,
erent
chool
epithelial
▁(77%)
sorbed
▁isomer
▁demographic
▁166
tially
▁12.5
Hodgkin
▁188
-66
▁30%
▁cuff
▁proliferating
titial
▁principally
▁controver
nee
ulla
▁cylind
▁couns
▁Risk
▁depletion
▁(1.5
atif
▁cleft
yrene
culture
.2
▁reinfor
▁neurotoxic
▁Depart
▁mammography
othreitol
▁certainty
▁(68%)
opr
tionally
kage
▁circumflex
▁cardiac
benzyl
ysm
graphy
▁reserpine
▁GAD
thanol
iteal
▁maneu
▁convulsions
▁poisoning
radiation
4,000
RNA
▁objec
anine
▁arising
▁22,
loxacin
▁alteration
ystectomy
expressing
▁uve
▁Benz
▁dithiothreitol
dA
ainide
▁Swed
▁radiographic
▁pathway
oprec
ocyan
▁suprac
▁30.
toli
arcomas
▁ventilated
renin
▁anesthetics
▁nephrotoxicity
▁SG
ynure
▁(30
▁deoxyrib
oprotein
▁hered
▁190
transferases
agonists
▁postmenopausal
-10.
▁MMC
▁predominated
enriched
/18
▁124
▁vicinity
0),
▁perfusion
ifed
▁compressive
▁transfection
Ls
▁1987,
▁toxins
omedial
▁targeting
ichia
lip
8]
▁gait
▁lor
▁subcellular
oblasts
▁Cardi
BW
imetry
▁afterload
▁isozyme
▁nitrous
▁norepinephrine
▁modulating
▁genomes
20,
▁decreases
PCR
▁thiop
orac
ithium
▁arises
▁eliciting
▁10.0
ischemic
iae
▁2.4%
acements
▁noc
▁olfactory
▁Thyroid
▁prolongs
▁tas
▁Factors
▁0.2-
▁titer
dependently
▁heterosexual
▁chimeric
epines
▁diarrhea
▁16%
ureas
entral
▁transpor
▁aort
apeptide
plen
pecially
▁topically
hap
EPs
▁AII
-8
▁fasted
▁atres
cinolone
plas
cus
ylcholine
▁ribosome
5),
▁nondiabetic
pregnant
opropyl
▁kinetic
▁digested
PHA
▁excretion
aerobic
▁throm
entile
alian
▁doxorubicin
▁comprised
cephalus
ocated
▁clus
▁sexes
yron
▁280
▁87%
▁0.6%
▁fluores
▁trigeminal
aethylammonium
▁fibrils
▁117
▁cerv
▁instrumented
usate
gated
▁periplas
▁demonstration
▁([3
▁PU
▁unim
▁bilayers
▁173
ofil
▁untrained
▁162
▁neutrophils
▁enlar
▁4.5%
▁TPN
▁0.34
▁neuropathy
▁oscillations
estig
cytochrome
▁SCH
▁17-
▁leukocytes
▁constipation
▁29%
▁estrogens
▁devoid
▁mU
chloride
▁disturbed
▁echocardiogram
▁viscer
▁obstetr
ohyd
lycerol
▁angina
▁alternating
▁SOD
▁turnover
▁dismutase
▁75-
▁gonadotropin
▁cephalosporin
planted
antibody
▁pregnenolone
odipine
▁postinjection
▁70-
esic
glycoprotein
▁prolactin
fractionated
▁methacholine
▁Relative
▁comple
lys
erence
epsia
▁elemental
▁succin
▁transp
▁enamel
▁acute
▁antisera
▁heparin
▁allevi
stem
▁glomerular
fec
▁Pharmac
▁cascade
▁intravenous
uplex
▁Reduc
▁10(-7)
hepar
▁postre
▁enzymatic
▁metronidazole
▁stabilizing
/8
▁ophthal
▁cartilage
▁villi
▁gallstones
▁hydroxyl
ipolar
hern
▁instrum
▁periventricular
▁analogues
▁programmed
▁erythrocyte
amycin
▁Hepatic
venty
▁deviation
▁cotransport
versely
elvic
▁hyperplastic
▁prostaglandin
▁glial
▁inhibited
4+
IGF
▁(1.1
▁deprivation
thiazide
-19
▁multim
▁improves
▁(0.8
lodipine
roscop
4)
▁osm
▁adipose
plementation
▁(9
thoracic
▁0.4%
oung
lac
VIP
▁posttreatment
▁perioperative
pril
▁parenchymal
▁sulf
▁ultrac
-4)
▁Drosophila
ture
jac
▁4.4
▁6%
derived
▁irrigation
▁deficient
▁ionophore
BH
pecific
▁concep
▁stoichiometry
▁vimentin
▁seques
mitoyl
▁effec
dL
▁rupture
▁nausea
▁sickness
▁manifestation
azin
ovine
61
▁198
▁Disease
▁ECG
ytoin
essel
▁Protein
▁Sephadex
tagog
▁relaxant
▁incompletely
▁inoculation
▁(14
mediated
▁agglutinin
▁pulp
▁indications
formations
▁satisfactorily
uanti
▁impaired
▁Retrospective
hig
tryp
▁satur
▁ranitidine
ropath
▁influenzae
▁ADP
▁HeLa
▁249
blood
▁allografts
pig
▁COOH
▁homogen
▁dimer
cholic
▁morphology
▁kPa
▁examinations
othionein
▁lactate
▁tetrap
▁satisfactory
▁EI
▁visc
▁deoxyribonucle
▁photoreceptor
▁distension
tiguous
▁(93
▁osmolality
ilts
▁ultras
rosophila
▁appreciable
▁myeloma
▁pars
▁triglycerides
▁Infusion
▁waking
▁responsiveness
▁PGE
▁rho
▁coil
▁PRL
▁7-
▁NMR
▁interferon
▁chemilum
ovascular
▁epithelial
trial
▁extrinsic
tracellular
▁ammon
ellular
▁cephal
▁scre
timate
▁ductus
▁Leu
▁quantitative
▁tumours
▁streptococci
Ra
▁AChE
▁crude
▁schizophrenia
▁contraceptives
▁lact
▁constructs
▁underg
otide
23
▁smears
urk
▁alkal
luding
▁transduction
ivac
robial
ustained
▁LF
emias
rozen
occal
8;
▁stren
rosemide
▁evoke
▁mutans
▁Transi
▁29,
crimin
hydroxys
ocl
inally
▁RAS
▁tonsillar
terologous
▁predominance
nutrition
rogesterone
▁spas
tir
fractions
▁tubercle
▁polymerization
reased
▁0.36
▁wors
▁15-
▁135
▁disulf
enedi
idia
▁92%
▁antagonized
siology
▁resusc
normally
▁dihydropyridine
partic
▁attainment
▁interfer
▁collaterals
▁intrad
▁acqui
▁gangli
tant
▁saphen
▁unchanged
ections
reflex
▁chromat
▁succinate
▁undes
tero
▁titr
▁vasodilation
potential
▁suppres
▁microtubules
ilin
▁epilep
▁146
▁PPD
▁histological
endix
▁modif
ectomy
april
uality
▁121
ionine
yanodine
kinesia
▁KB
▁electroencephal
▁vitro
▁stabilize
1:
▁degeneration
▁examines
mitter
lofen
▁polycystic
▁ozone
individual
▁adrenocortic
▁cobalt
▁inguinal
▁elevating
physe
▁wean
tracted
0.00
▁acr
▁avoidance
▁bathing
iagn
▁intub
▁rhinitis
▁microtubule
▁uter
vaccinated
1-2
▁ventric
▁contractile
tamine
▁lymphokine
encephal
arcoma
▁methadone
▁inhibitor
▁Thirty
-125
phosphate
ocystis
▁propofol
Ly
▁cirrh
▁transgenic
▁Flu
▁extrav
▁176
ureus
oproliferative
▁Sera
▁-12
▁[125
▁extensively
▁8.2
▁Sixteen
▁LFA
-(2-
itoring
▁quanti
▁63%
horm
▁ovary
ocyanin
feeding
imid
oproteins
.00
2.2
▁resto
▁excitation
▁corpora
astric
▁immunore
▁piroxicam
▁39%
▁vein
▁137
▁amines
▁OD
omod
vedilol
▁reacting
▁haemoglobin
▁biologically
amid
gland
▁9,
.10
▁tubulin
▁interacts
▁appra
ncies
▁aneurysms
+.
▁logar
▁(85%)
▁taurine
▁ascending
▁Biol
opoiesis
▁repetitive
44,
▁Multiv
▁suppressing
tig
ipro
96
amellar
▁Experim
opam
▁regurgitation
purified
tally
▁0.4
▁Amin
▁noninvasive
▁untranslated
averine
▁multidrug
▁diaphragm
▁glycosylation
▁85
▁14.5
uoden
▁heterogene
oxamine
▁0.07
▁gestation
▁doxazosin
CAT
▁cyan
encephalon
▁purine
▁(62
▁cann
▁accelerated
osan
▁palmitate
▁presumptive
▁trimethoprim
teroids
▁clomiphene
▁chromosome
genesis
ystag
▁anaesthesia
▁8.4
▁pancre
idation
▁200
5%
▁cytoskeletal
▁Atrial
ystitis
▁dissected
▁incidences
▁inherent
▁Neuro
▁3-
▁therapeu
plastic
▁100,000
▁0.20
▁subunits
▁GH
unsaturated
-5,
oreg
▁sarcoid
▁0%,
timulus
tinent
ollagen
▁ERP
valence
-7
▁(1000
▁(12.5
rotic
▁relaxations
▁phosphatidyl
.0,
▁inorganic
▁blin
8).
idone
permine
trover
geal
▁12%,
▁sonographic
plying
rometry
▁prescribed
▁cosmetic
93
uracil
▁Ig
▁decarbox
▁bicarbonate
▁nonsmokers
▁uro
induc
adrenergic
▁189
enil
▁seizure
0/
▁lae
▁Pros
▁steroids
tib
ifferen
oag
▁gingiv
▁potassium
▁catechol
otherapeutic
▁Eco
▁molars
9),
▁househ
0%,
▁programmes
▁overexpression
▁ethanol
▁proportional
omyces
▁Ade
▁55%
▁diurnal
▁randomized
rography
▁declines
▁4.
▁Americ
BMI
▁blas
▁augmented
▁accumulated
iodothyronine
▁intraven
▁12%
▁6.5
ASA
pine
opian
ochondrial
▁(0
▁pyramidal
▁(1987)
AFP
▁saline
▁2.8
▁hydroxylation
▁fluc
▁degrad
HIAA
▁systematically
▁hazard
▁2.5%
▁urinary
ophil
▁comprise
▁assayed
▁cholera
▁potent
oxan
ystokinin
▁cDNA
▁5'
▁locomotion
ymme
▁RU
▁phenytoin
onomic
sively
▁lysate
▁extravas
▁229
▁relevance
▁staphylococcal
▁tuberc
▁disposition
▁antiviral
▁depressive
▁parox
lesion
macropha
▁ketone
▁subjec
infection
phasic
▁dihydro
▁thorac
lactate
odialysis
▁CsA
▁enflurane
thase
(2-
▁cardiomy
▁CFU
▁critically
▁(37
▁cholecystectomy
eeding
▁Increas
▁suscepti
▁tris
▁dentin
-198
Pa
yses
acholine
▁amygdala
▁Comparisons
▁139
teroid
▁ketamine
▁gum
▁corticotropin
▁Haemophilus
▁pM
-4,
▁(50%
▁pathogenetic
▁osmolar
▁graf
▁000
▁sporadic
▁Fluores
coated
▁incubated
▁shortened
timulation
▁sepsis
abd
▁venti
▁superficial
▁sorbitol
▁trichloroacetic
▁Surgery
▁restraint
thi
▁subtype
▁lysates
▁PTH
▁internalized
erative
▁incub
▁filaments
opsy
▁cartil
▁erythrocy
mitters
▁clarify
▁retrospectively
88
inj
▁mutagenicity
tember
urones
▁transforming
▁grise
▁proliferation
▁sows
▁exacerbations
▁Percoll
▁ricin
ximum
/1
▁minimally
▁collab
ostic
▁superfused
+,
aldosterone
▁trimester
▁encephalitis
tice
▁normals
▁prolongation
▁nephron
▁exten
▁223
▁nuclei
▁hyperch
aternal
aminoglyc
▁isotype
ruc
5%),
uliar
▁48-
▁ionized
▁morphometric
▁Glu
PW
▁cyc
▁saturable
▁antiser
▁inotropic
/3
▁phenotypes
owever
▁0.41
▁latency
otoxins
▁photon
ithin
▁immersion
▁transfect
▁thre
ntolamine
▁micrograms
▁electrodes
▁1986.
dii
▁450
▁60%
▁underestimated
▁RP
▁aids
upuncture
▁HPV
▁morphine
▁maneuvers
▁carcinogens
absorption
ivocal
▁plasmid
osol
▁labile
▁parat
oplastic
butyl
▁3-4
ffe
acil
ograft
▁preserving
▁hypogonad
▁(1988)
thromb
pyrid
▁104
▁rhodopsin
▁slowing
▁fusions
▁systemic
▁SDS
resid
▁hospitalization
▁zinc
▁Optimal
otroph
▁paralysis
CRF
-1.0
▁markers
onegative
▁gonadotrop
▁disruption
▁lisinopril
contrast
▁globulin
HM
▁kDa
▁Recovery
▁10
▁uncoupling
imide
▁Registry
▁sca
6;
▁evoked
adrenoceptor
▁PLA
irc
▁(2.6
▁0.49
▁(7%)
0.3
▁1966
▁encodes
▁sexually
independent
▁resorption
▁intensely
okine
▁colonization
kground
▁8,
ergen
▁thermo
▁spermine
MAb
▁hyperg
atitis
▁hypothalamus
▁exogenously
▁propagation
▁axial
▁thiazide
▁(36
▁albuminuria
▁69
▁limb
▁Delayed
▁canc
▁reversal
bladder
▁endocrin
▁Diagnostic
▁tymp
idne
kinje
▁(24
▁adul
▁compli
▁oocyte
0).
▁beats
▁mediating
▁microU
▁azide
▁sensory
▁memb
▁4.7
▁alveolar
▁embryonic
carbox
serum
▁Combin
-15
▁baboons
aventricular
▁(150
risk
▁encompass
2/
▁42,
▁restor
exponential
▁anemia
ocysteine
azole
umably
▁aortic
▁perme
▁Pulmonary
oglobin
▁confluent
▁intron
▁0.61
▁nitric
▁0.12
▁treadmill
odular
ignant
▁noradrenaline
▁quoti
▁neurogenic
▁inten
▁Duc
enteric
ariate
uting
▁apical
▁ABR
▁phospholipids
▁IGF
▁Amino
▁mediates
▁Isolated
iversity
▁septic
▁electroly
▁(7
▁strains
▁hydrochloride
ograms
▁pacing
(1)
▁resec
▁DCA
▁instruc
▁optimum
▁1.2
▁drin
▁Subcutaneous
5'-
▁prophylaxis
▁Tissue
▁correlations
▁GFAP
mM
oluble
▁cardioplegic
▁55-
▁genic
▁rhe
▁regeneration
estis
tocin
▁facilitates
▁contamin
fib
▁daytime
othane
otent
PAC
▁enti
▁oxidation
pended
▁differe
▁erythrocytes
ymptomatic
junctional
▁7.4
▁cholec
▁intrag
▁1,4,5-
▁rotavirus
▁stenoses
▁carriers
affinity
BV
▁vanadate
▁Clinical
▁rehabilitation
▁cyt
▁desirable
▁(28%)
▁euk
stranded
▁hypercap
▁compe
din
▁pelvic
olization
▁HRP
▁3.5%
▁GER
▁imipramine
▁0.48
▁antenatal
▁Assessment
▁200,
uron
sorb
▁socioeconomic
▁hepatocyte
osaminidase
▁61
cyclo
tran
onuclease
arous
ughter
▁natriuretic
▁inhibitors
▁Lyme
▁preservation
othalamic
▁237
▁lymphomas
▁saturating
▁nigra
▁incomplete
▁outward
uvant
▁congenital
severe
neph
adenosine
terminus
▁Concentrations
olarization
▁oligodend
▁affinities
▁sciatic
▁yohimbine
otypic
▁14.8
▁spliced
▁promp
▁MG
▁phasic
▁retarded
▁symptomatology
▁oils
tingu
rox
▁assessments
oskeletal
▁hyperlipid
▁hydrolyzed
▁irritant
▁antitumor
▁accumulation
▁expec
▁exer
▁relapse
▁macropha
▁antiarrhythmic
loid
▁EA
aminop
▁1.5%
▁interfering
▁hypertensive
Ba
▁Immun
▁Biochemistry
4),
▁impairment
▁lupus
▁dissemin
▁schizophrenic
azep
posable
MN
▁(41%)
tured
+]
▁LS
onyl
▁ald
▁(1,
▁severity
6.
-3-
▁geniculate
▁Bronch
▁conformations
▁devised
▁prenatal
rescine
▁20%,
▁chori
▁Activation
chlorothiazide
iatric
▁Metabol
▁monolayer
▁soy
▁juven
ragment
ercul
polar
▁consequent
vival
▁muscarinic
▁mating
tics
▁excluding
▁holo
▁interventions
▁CRF
osition
▁kinin
▁dihyd
▁11%
▁salbutamol
▁elas
▁phospholipase
▁RA
duction
▁dams
▁Kinetic
duced
translated
▁leukotriene
ayers
▁73%
▁saturated
▁intracor
▁definitive
▁logistic
DNA
▁Angiotensin
odds
▁ech
▁129
tiz
▁deformities
▁5.1
▁phi
▁deficiency
▁immunologic
oproterenol
gesia
estrogen
▁skeletal
▁cerebrospinal
luores
▁MU
▁electrogenic
25,
▁etiologies
▁1969
▁phosphorylated
▁VLDL
▁interne
▁Trial
kines
therapeutic
25
▁endotoxin
viruses
▁Maximum
▁abnormalities
▁elu
conduc
▁intermittent
scherichia
▁physiologic
oplasmic
ubilized
2%
▁competitively
glia
▁inducers
▁0.30
oactive
▁filament
▁71
▁apoE
ludes
▁homoz
▁antin
▁45
vation
▁compromised
▁infiltration
388
IIIa
▁0.5
lymph
▁estradiol
▁156
33
▁inver
▁TGF
etan
▁hemorrhagic
▁symme
▁collec
▁opson
▁assay
tonin
▁sporo
▁premature
▁necro
▁cohorts
▁microelectro
1);
▁Bac
▁prel
▁hemodynamic
▁aneurysm
ucleated
toid
algia
▁polypeptide
▁Elec
phic
▁6).
▁enzym
tering
▁abr
▁gout
othyronine
acted
-78
▁secretin
▁Apo
▁1,0
▁Intra
▁embryo
▁disturbances
idases
▁SPF
onstric
▁Phosphor
▁enhancing
▁postpartum
▁gm
▁correspondingly
moking
▁casein
▁91%
▁nontoxic
galact
EDTA
▁perforation
▁dor
lational
▁EG
▁(198
▁SIDS
▁epididymis
▁Gd
-34
thma
▁10(-9)
ignific
▁factorial
▁noncompetitive
▁microvascular
▁49%
▁haemat
▁carvedilol
▁86
▁ect
▁bacterium
▁recom
erop
▁donor
▁ileum
▁recruitment
▁Pseud
▁Lactobacillus
ophilus
ozo
▁IDDM
▁regenerating
▁PET
ocarcin
ellum
▁bac
▁renders
peak
ypical
-45
▁unstable
▁extensor
▁14.
▁7%,
▁hygi
otomy
▁delays
anking
oprim
▁0.001).
yrox
▁50%,
▁BP
uling
▁aluminum
▁haemorrh
▁3),
glucose
▁stratum
cancer
▁indicators
stimulating
▁appropriately
▁Gs
WB
phyl
▁fluo
▁vitreous
▁sputum
▁(3)
▁0.11
+)
▁rifampin
26
▁serologically
▁CSA
▁neurochemical
▁desaturation
500
▁mimic
amn
▁genital
rhy
▁haem
trus
▁measles
▁disulfide
▁tissues
▁alkylating
piration
tte
▁splicing
isite
▁psi
▁immunotherapy
ylcholinesterase
converting
alic
▁saliva
▁hyperpolarizing
▁potency
▁acces
▁preincubation
▁40
osocial
▁capillary
illus
▁Membrane
▁feasible
GH
asive
▁hsp
inhibition
tillation
▁(1/
▁HSV
oxine
▁currents
toxicity
buride
▁fetal
inescence
wann
▁subclinical
tiary
▁1982
uran
▁isoniazid
▁collateral
▁Nal
▁Sero
▁enal
icardium
▁hydrophobic
emius
mercapto
▁(18%)
▁aberrant
▁opiate
electrophoresis
chemical
xual
lymphocytes
▁subfractions
phosphorylation
orphin
▁epithel
enzym
▁lymphocyte
▁1
▁prognosis
▁polyclonal
▁phospho
▁conjugated
▁bFGF
▁proteoglycans
-13
▁malformations
▁dichroism
▁295
▁cavity
▁duplic
ethyl
▁percentages
▁asymp
▁dilution
sAg
▁resin
abbit
notic
▁concurrently
▁radiol
▁(71%)
CHD
throm
gely
▁liposomes
▁occlusions
▁ovarian
▁emulsion
agas
▁isoproterenol
rostenedione
NAc
▁prophyl
▁fascic
25(
▁untreated
nourished
▁(10.
▁immobilized
▁1986,
▁hepatectomy
▁prompted
assisted
▁.001).
xia
▁Pretreatment
▁40-
▁pore
perfusion
▁attenu
-1).
▁retard
▁sial
▁[(
▁shorten
47
▁nodular
esity
▁receptor
▁persisted
▁Adverse
▁0.83
▁cycloheximide
▁prerequisite
▁distor
aryn
ocrom
0-
▁photoperiod
▁Inde
inducing
odic
▁TB
▁68
▁7.1
▁unlabeled
▁inactive
roglobulin
itance
▁70.
▁arb
▁PGF
Trp
stim
▁responsive
illin
trates
2,000
▁prostagland
ometrically
osts
▁triphosphate
▁adequ
▁Injury
olec
▁amput
▁IgE
▁regenerated
▁resuscitation
cyclic
▁101
▁pectin
▁peptides
infusion
▁syndromes
acid
▁lamina
assi
▁efferent
PAP
▁bilateral
▁158
LH
▁cows
cholesterol
▁sequencing
ensory
▁0.02).
vaccination
▁adducts
▁AChR
ofol
▁lep
▁sensitization
▁lymphoid
diol
▁salvage
▁0.69
FU
▁disrup
▁epsilon
▁neph
▁depolarized
tectomy
▁[35
pired
▁intranasal
ygo
▁scaven
▁Gln
▁laparotomy
5;
▁immature
▁sympathetic
▁inducer
opausal
▁twofold
oprostol
▁66%
olgi
enkephalin
▁cytometry
▁bilirubin
▁31,
▁12
▁intraepithelial
tization
▁codons
▁pollu
▁strikingly
▁freezing
erance
▁NADP
▁hemolysis
▁kd
▁quies
▁mug
ulence
▁WHO
▁extravasation
omatosis
gut
95
▁abscess
▁prerequ
▁perturbations
▁brid
osterone
istar
odia
▁deduced
aggreg
antagonist
▁fibroblasts
▁novo
peritoneal
▁inheritance
oreceptors
▁2,
▁decreased
-2.0
▁132
▁mammary
▁xen
▁respec
▁cocaine
▁thi
▁histidine
▁nitrate
adic
iferous
▁monocytes
zymes
▁ORF
stimulation
▁artificially
▁deletion
▁tegmental
▁72%
▁15)
▁hypotheses
0.9
osylation
▁toxicity
▁Tx
▁droplets
▁defec
▁ket
oposide
sies
▁PHA
▁quisqualate
▁initiate
▁epit
▁20)
Gi
▁unequ
▁persisting
.6%
▁IIb
▁indole
▁intra
▁immunoreactive
galactosidase
ulant
uterine
bran
▁physiologically
▁Levels
▁interpretations
itidine
stolic
▁abolished
illary
ochemistry
▁accessory
-31
4]
▁perin
ietic
▁ammonia
vive
imurium
▁coincided
cein
▁anaesthetized
▁reticul
pharmac
▁dipyridamole
▁GTP
otoxicity
chymal
▁aflatoxin
▁impulse
ipramine
▁tau
▁circulatory
clonal
anuary
uronal
7-
▁bip
oxifen
jective
▁autoanti
sulf
▁leuc
onium
reas
tensity
3]
▁challen
▁proce
▁caudate
.7
turition
▁smear
▁reconstitution
5%)
tolerance
trient
▁10.8
▁heme
dense
▁10(-6)
▁cardioplegia
10
▁poten
▁substituted
ocortical
lora
▁ultim
▁(0.2
▁monophasic
▁oleic
▁quantified
glutin
▁prescribing
▁Depression
▁hypotensive
▁Extensive
opamine
▁wee
▁myoglobin
ocysts
sA
ectomized
▁homogeneity
ymethyl
▁32
▁NIDDM
vus
▁postnatally
mature
▁6),
virus
oretic
2,
▁irrig
ields
lycemic
▁homocysteine
obacterium
▁invariably
▁(1.3
rophenyl
clerosis
yx
▁tetra
▁vasospasm
muscle
renol
schemic
oligo
▁AMI
▁singly
▁oleate
openia
▁asbest
oneu
▁behavioral
hydroxylase
oblas
▁metabolic
▁affec
▁accessibility
▁birthweight
▁IB
▁IA
Cer
▁20%
▁denat
ipid
▁ejection
▁onset
▁occlusion
evoked
▁KD
▁outgrowth
▁Tris
reported
▁nicotinamide
▁NADH
▁somatosensory
▁diminish
▁nitrendipine
▁phentolamine
▁unfolding
▁5.0
▁aor
resolution
-30
▁2),
olytic
▁hydroxyproline
▁4),
-18
▁competence
▁oligosaccharide
atrop
portion
49
directed
immun
▁derange
▁Surve
▁nonresponders
▁concurrent
acids
▁posi
roprusside
▁ribosomes
▁propionate
▁12,
▁compensated
dividual
▁thyroglobulin
▁Natl
▁30-
▁ventricle
▁70
▁refrac
▁20
▁substanti
▁102
terol
▁periphery
▁1.00
▁pheochrom
▁-7
lective
rested
▁vesti
▁prosthesis
-500
▁duodenum
▁peroxidation
▁criter
cribed
▁terminals
▁neuroblastoma
▁1,25-(
▁bombesin
▁renovascular
.3.
ancomycin
▁regis
ailure
▁intramuscular
tate
▁Likewise
▁PBL
leu
▁headaches
▁0.63
▁reticulocyte
▁afferents
BSA
▁Tf
1;
▁ADR
responders
▁naloxone
▁transloc
coup
▁Leydig
▁xyl
▁illumination
▁hepatomegaly
dial
▁74%
-8-
▁acinar
mia
▁papillomavirus
▁10,000
▁76%
carinic
▁conformation
▁signaling
▁shor
▁59%
rectomy
2+)
14)
▁precursors
▁eosinophils
FV
▁Failure
▁10(-1
terone
▁preventive
▁deox
transformation
▁cardiovascular
▁hexamethonium
▁4
▁characterize
aspartate
▁keratinocytes
▁Phy
▁elevated
▁1980
▁arose
▁measurable
▁postmortem
▁adap
▁900
▁aggres
▁reas
oterol
CFU
ensities
collagen
▁Golgi
▁(1.6
▁coex
▁hamster
▁appreciably
▁Antibody
timal
▁Ace
▁contaminated
hepatic
osomal
▁collagen
plenic
▁sequelae
▁Differences
availability
▁methylene
▁vivo
▁1.05
titute
▁segreg
▁physic
▁Peripheral
▁pathological
ocin
▁cranial
idis
ysin
▁Kupffer
-2.
lastoma
criptional
▁hyponatremia
▁dispersed
injection
vaccin
7%
▁occupational
tation
ometr
▁enlarge
▁degraded
▁nephritis
▁arterial
▁243
▁vomiting
transplantation
lasses
▁metastatic
7).
opril
monary
ocytopenia
▁secreted
68
▁avidin
▁uncoup
-5
ureth
▁ouabain
▁spon
▁horiz
▁hemodynamics
▁lesioned
IgA
▁coded
uin
tec
vinyl
▁diabetic
atization
▁transmitter
▁0.67
▁Urinary
▁alloster
▁Platelet
▁pelvis
▁ata
▁prevalences
▁estrogenic
▁bacteriuria
▁omeprazole
▁inadequate
▁underwent
▁contracture
▁sphingomyel
▁caregi
thle
▁PaO
▁0%
ept
▁truncated
▁mann
▁SMC
▁aspartate
▁anaerob
▁8.
▁spi
▁caloric
▁monkey
▁viral
▁unsuccessful
oreactivity
ventral
affin
▁CHF
dered
▁prospective
▁generalized
▁TPA
▁10,
▁trout
FSH
▁KCl
depr
IFN
▁sphe
▁microp
▁esophagus
3),
▁oedema
▁periv
81
▁35-
▁negatively
63
▁hydrophob
inhib
sensitivity
treatment
IIb
▁sacr
▁locus
▁0.000
▁elicit
gestrel
▁serotype
▁fenoterol
titutes
▁dialysate
irone
▁unbound
▁DH
▁glycine
▁Mycobacterium
▁acyclovir
▁Compared
oten
▁schistosom
▁traumatic
▁lec
herence
▁GFR
▁fura
▁62%
psych
yel
▁bir
▁seasonal
▁frog
▁0,
▁Kup
▁vertebrates
-12
cephalic
▁HbA
shock
▁Cs
▁pharmacists
▁fungus
residue
hyd
▁polymorphic
▁zymosan
▁salmon
oxone
hormonal
▁administered
▁gases
ungal
0.2
▁-4
▁saphenous
▁Genetic
28
▁repressor
▁Purkinje
▁myotubes
trations
▁64%
▁(50%)
▁equine
▁FD
methoxy
▁0.04
▁radiography
▁averaged
▁anhydrase
▁pacemaker
▁amyl
Daw
▁Mast
▁behaved
▁Candida
-1
:6
▁vaccinated
▁ependym
▁Treatment
infected
▁205
▁ornithine
▁recipients
▁genomic
roph
erant
▁panc
▁46,
▁PW
▁hematuria
▁sequentially
tabol
▁sperm
tetr
▁TMP
▁MAb
responsiveness
▁cataly
▁varicella
▁microliters
othre
▁favors
▁5'-
▁98%
▁(5-
xyl
▁HBV
▁ribosomal
trone
▁fistula
▁distortion
▁(58
▁optimally
rosis
/30
phorbol
ycin
▁codeine
activation
abdominal
▁apoprotein
▁supplemental
▁ventilation
▁clustered
▁pathogenesis
▁glycos
▁catalyze
▁diminution
otine
kinson
▁9.5
ETE
iesis
▁Caucas
▁attributable
cells
▁disclosed
eded
▁femur
▁Cys
▁sput
▁synov
perme
ovol
▁leuk
OH
:1)
▁conformational
▁desensitization
oxyp
.0
▁theoretically
indings
▁pigs
ondr
▁sagittal
▁disten
▁monoclonal
▁immunogenic
▁parietal
pressure
odine
▁vulgaris
▁EGTA
dT
▁tolerability
perg
▁myel
onor
▁Interleukin
trodotoxin
.5,
tyrosine
▁transferrin
▁intrinsic
▁16-
▁concomitant
▁150-
▁glycer
▁hemat
fluo
▁preovulatory
▁pellets
▁fused
▁paral
bromo
omegal
▁perit
▁PGI
dione
olam
3+
tempor
▁Veterans
▁progression
7,000
3)
hydramine
▁uv
▁hypoglycemia
▁grading
▁impairs
▁MAP
▁aspec
yrate
riamycin
▁jejunum
▁HCC
olig
deoxy
aturia
▁1),
▁BLM
osin
▁(97
▁GVHD
molality
etidine
▁Mortality
edic
operiod
▁subclasses
facial
▁anterograde
▁contraind
▁hemorrhage
▁zoster
▁ligands
estive
▁(50
▁secretagog
▁assemb
▁intercourse
▁fibroblast
▁lymphatic
▁ischaemia
▁deposits
▁BMD
▁cleaved
rosine
▁(42
▁reservoir
▁Forty
▁enhances
▁vena
▁Nucle
▁guinea
uates
▁aberrations
▁normotensive
rangements
▁49
▁(1:
▁exchan
▁SLE
▁allelic
▁18.
▁heavier
▁25%
amet
▁manipulations
▁endocytosis
▁predictive
▁52
▁28-
▁11.
▁110
▁sedim
▁paraffin
embryonic
▁(125
▁sorting
▁Electrical
▁94
▁microscopic
▁complication
▁19-
olip
ocrit
▁discontinuation
▁Carb
tic
▁isotonic
▁migrating
562
▁transcriptase
▁293
▁larvae
▁confound
▁elevate
▁thrombocyt
▁resembled
▁glu
▁mmol
▁Sixty
PGF
▁organelles
▁vitre
rowth
Phe
▁dystrophy
opharyngeal
▁pts
ecum
certain
otoxic
▁sero
piratory
▁amin
etween
▁adren
uspid
compared
aryngeal
▁goats
antom
▁colliculus
▁hapten
▁exclusion
▁Successful
▁emerg
▁biologic
▁DMBA
▁agglutin
administered
▁MRI
▁sulph
▁dilation
LTB
rease
▁subcutaneously
▁migraine
▁ODC
acerb
▁autopsy
▁reconstituted
▁attrac
▁twitch
carbohydrate
tinu
▁conflicting
Ca
▁healed
▁correlate
ubertal
92
▁Graves
fiber
monstr
omerular
▁cardiomyopathy
10.
▁DMP
osacral
▁tryptic
▁abscesses
▁35
▁4000
▁sten
usp
▁CCl
▁retinol
atid
lobulin
ochemically
▁ABP
tis
▁follic
▁(0.4
▁reflec
▁psychiatric
-64
▁nutrient
▁phosphor
ervoir
-600
ACTH
▁iodo
▁electrophoresis
▁clind
ameth
mortem
▁vasoconstric
▁mucosal
▁Possible
▁sacrificed
▁PB
▁SRIF
▁Indi
▁lovastatin
▁subtilis
▁piper
plantation
▁calves
▁tyros
ostigmine
▁densities
▁(51
▁cic
▁placental
▁Individuals
alose
▁surfact
▁maternal
▁asymmetric
▁efflux
▁preferentially
▁hypoxia
onset
▁solvents
▁Survival
▁chel
▁inhal
bile
7)
▁evacuation
▁singleton
-13-
dia
tine
luded
vice
ospitals
-200
▁ICI
▁chloroplast
▁36%
▁caries
▁2.7
▁gag
diss
▁(10%
▁(1.8
▁secreting
lyl
myr
▁Numerous
▁injur
▁parasites
urred
▁evaluating
chym
plants
▁angiography
▁Exposure
▁adenylyl
▁dox
▁prophylactic
▁respir
1),
heric
▁groove
▁parap
▁judged
▁15,
▁offspring
-20
▁trypsin
phospholipid
aldehyde
▁enantiomers
▁transported
▁molec
▁colos
ejection
ogenic
▁predis
▁prosthe
▁0.5%
▁effluent
▁mosa
protein
▁radios
reasing
opeptides
▁oste
▁duplex
▁flavin
▁electroph
▁CPR
▁ducts
▁stoichi
▁guanosine
ulcer
lovir
▁ultrastruc
▁16.
roxic
▁12.5%
▁PDGF
▁placent
clinical
▁ergometer
▁2000
mole
50)
▁calcified
▁ammonium
yridamole
▁proteoglyc
zotocin
myristate
▁hypo
▁migrated
▁extremities
▁88%
▁atmosp
▁electr
▁axon
▁retrograde
olones
▁diabetics
▁metabolically
▁tritium
roma
▁1.15
▁thyro
▁ischaemic
▁necrotic
-1)
lipoxygenase
▁palliative
▁hypokal
▁initiation
▁0.88
▁unaltered
▁intram
ophosphate
bacco
▁chorio
▁repro
▁immunization
topril
adex
▁Increases
▁transcriptional
otox
6)
▁specimen
adder
▁magnocellular
▁histone
▁exhibited
▁synthesized
metabol
▁10.5
▁antibiotic
▁dichro
▁ofloxacin
▁dissec
▁arous
iodo
▁antich
umptive
▁8.8
▁osteocalcin
ospor
▁surfactant
▁EGF
▁neurological
▁pim
▁denervation
▁(0.
▁microM
▁ovari
▁dentures
▁25-
ineal
▁cationic
▁phenomena
▁proteolytic
▁12)
▁reperto
▁symp
▁adolescent
3.
onucl
▁DG
▁presynaptic
naud
▁mitogens
▁supernatants
▁3.8
PRL
amethonium
amisole
ipine
-24
▁fulfilled
stress
▁0.58
▁uteri
▁agglutination
▁CGRP
▁8%
ameter
▁32%
▁additive
esophageal
▁preload
▁juvenile
▁plated
stole
onidine
▁Alz
▁41
▁mitogen
▁vasodilatation
▁pla
▁Plasma
hemagglutinin
heum
frontal
0%)
emin
opathy
▁pigmented
gestation
▁implying
initiated
iclovir
▁hemo
]-
▁lam
▁UDP
tel
▁prono
zine
tructions
ogold
▁irradi
▁allosteric
terolog
▁astrocytes
▁(+/-
▁benign
▁excised
▁myosin
▁reacts
▁Significant
ereb
itudinal
oxidation
▁deficiencies
▁fatty
▁Cells
▁uric
fected
▁INH
reacted
▁progesterone
▁effusion
▁catab
▁staphyloc
▁nonsur
▁parity
▁93
▁perox
amines
▁0.21
ocortic
▁polymorphism
▁corticosterone
enin
ilep
oderm
▁furosemide
(2
oglut
azolam
65
allik
▁1.6
▁newborns
▁lesion
▁145
▁elevation
LU
ylase
▁elective
iscal
▁resolving
▁antithrombotic
tance
-100%
ophag
otopic
▁biosynthetic
▁tandem
▁rumen
sities
▁hepatotoxic
plasts
▁incision
oradi
▁pectoris
obese
▁RPE
▁degran
▁7.5%
▁sensitiz
▁Trp
eces
▁0.25
▁encephal
▁isometric
6,
▁Incubation
▁bifurc
▁arteriosus
▁transfusion
▁excision
inic
▁hyperglycemia
ressing
▁natriuresis
MK
opha
▁restenosis
centr
▁ND
▁leukotri
▁ganglionic
trically
▁vinblastine
valent
▁endpoints
▁(6)
reductase
▁43
▁fluoride
▁foci
odynamic
▁aerosol
▁traction
▁mAb
▁HC
tribution
▁valu
▁105
▁swabs
▁0.38
▁phospholip
▁semen
▁0.22
glucosamine
▁identi
▁subsets
cyt
odiaz
helin
ophasic
himbine
▁Continu
▁DHEA
roitin
90)
▁permeability
ilical
▁28,
▁secretagogues
▁extrac
▁footprin
▁bene
MW
▁WK
▁obstruction
▁bladders
imens
urgical
▁retrie
▁apoA
▁iod
ubation
▁anomal
900
▁reticulum
ifferenti
bino
▁synapse
▁5).
▁avian
75
osom
▁pneumon
▁complexes
(1
duce
▁bacilli
▁polymyxin
▁imaging
▁Dex
uminal
.3%
asone
oxybenz
▁undere
▁weighted
aethyl
▁blots
-29
bly
▁thromboembolism
▁constitute
▁ablation
1.1
entif
ohns
▁clamp
tus
▁0.19
alas
oxygenase
▁pons
ylchol
▁classify
▁0.7,
▁modeled
▁fluids
14,
lysine
▁subnucle
▁1979
▁necrosis
▁insulin
▁unsuitable
▁carbox
▁sequenced
Dawley
▁pep
oleucine
ochondr
terase
▁RNAs
natally
▁toxicities
ophysiological
rometh
▁overweight
▁arachid
▁efficacy
therapy
erum
▁600
obenz
▁(10(-7)
▁mitogenic
▁synap
▁ketanserin
▁arabin
▁6.
▁irradiation
olamine
▁equilibr
.8
tryptamine
▁coordin
▁chambers
▁Specificity
▁fetuses
▁benzoate
pharose
9).
▁extre
▁(43
▁inhibition
tested
entgen
▁analyse
▁expectancy
antibodies
omycin
▁ulcer
▁neuropeptide
▁nig
dural
▁marrow
▁segregation
▁phosphoryl
llate
▁prescriptions
-38
▁projecting
▁schist
▁deli
▁clearance
adication
▁Doses
▁urine
DOPA
▁2'-
gressive
▁genome
GSH
▁(250
ejun
-6)
▁(-)-
ipheral
▁elucidate
▁0.05
▁(49
▁microsomal
violet
▁catalyzes
isal
▁colloid
▁immunod
▁contracep
▁suppresses
▁700
yridine
▁efficacious
amel
achial
▁wedge
olymer
▁3).
▁foc
▁0.2
▁thymus
educed
.4%)
▁adenoma
tual
▁warran
▁captopril
▁resol
▁ovid
▁0.16
▁discon
▁(69
positive
▁lactating
▁exercising
▁parturition
▁sati
▁undergoes
▁supple
▁dominance
▁procollagen
agastrin
▁halves
▁209
▁lesions
▁superimposed
irradi
▁hypog
▁65
▁aminoglyc
▁dele
▁recycling
liters
▁Rats
▁nadir
▁prevail
40)
▁aberr
▁11,
▁2',
▁protons
▁rIFN
▁resection
▁conjunction
▁prospectively
▁mec
▁chorion
▁conjunctiv
30,
othelial
3-
▁LPS
bindin
▁infar
▁bouts
9,
▁100-
edding
elves
▁HBs
▁instability
▁dextro
▁systolic
▁yielding
lives
▁aerob
▁ingestion
owel
▁ecological
ller
▁tubule
rosy
▁(200
▁matur
alact
-11
-5'-
▁extracorporeal
▁substantially
▁3.6
▁pulses
▁tuberculosis
ritin
eptid
▁pyridoxine
▁flexor
▁doxycycline
fetoprotein
.9
▁bovine
otriene
▁thrombosis
(4
▁.05)
clerotic
▁intakes
▁Dietary
irradiated
▁chl
rance
.0%
▁hap
fat
▁Consid
▁electrostatic
▁bulb
▁AUC
▁Consistent
▁balloon
▁intraocular
▁LMW
cristine
▁nox
.6%)
▁contras
▁cruzi
tomy
▁BF
GFR
▁allergy
▁0.08
restricted
▁HF
▁metabol
69
▁permits
▁granul
▁splenocytes
▁auditory
▁blotting
lysis
minal
▁alkaline
▁leucine
▁tracer
▁8.7
adian
▁triglycer
americ
▁attrib
omyelitis
itus
gthen
▁bending
▁asymptomatic
▁capillaries
▁outlet
▁Phosph
sors
▁globular
▁BCG
imus
▁alterations
▁endurance
▁diuretics
omyosin
▁RFLP
▁attenuation
▁periodontitis
▁parental
-32
olesterole
▁messenger
▁0.005).
oconjug
▁Respon
phine
-]
opyr
▁antigens
phot
phila
-400
▁questionnai
coun
▁synergistically
▁quenching
▁libitum
▁wheezing
▁Bacterial
▁initiating
omatostatin
nucleotidase
amphen
LAK
▁179
genic
▁Ear
glycerin
atine
▁plating
struc
pyrene
▁(1).
▁ureth
▁prednisolone
▁1991.
▁isoenzymes
▁condyl
uncture
▁NSAID
▁hypers
pregn
▁comparative
▁converting
▁accumbens
▁noradrenergic
▁catalyzed
▁reticular
.2%)
▁antiserum
ocytochemistry
▁5.3
▁lapa
▁roset
▁Meas
▁mesangial
orphine
▁immun
redoxin
controlled
▁backgrounds
ochle
13
NK
▁1.12
9%)
atibility
▁3%
▁radicals
▁EMG
▁chewing
▁nitroprusside
heres
▁hams
▁germinal
▁aeti
ergency
▁considerations
potassium
▁fertilization
▁centrifug
ministration
dC
orption
esia
1-1
glucuron
▁dextrose
▁epicardial
▁mortality
melan
▁inadequ
glial
▁replicated
triatal
intensity
▁invasive
urium
naph
▁Contr
▁pressor
▁peritoneal
▁deform
▁10(5)
▁hydroxy
▁ethn
▁suppression
opoietic
▁reconstructed
▁imidazole
▁elic
▁promptly
▁wk
▁heterozygous
truc
▁leucocytes
myrist
tigo
▁28
▁ionomycin
▁4)
▁psoriasis
▁retinoids
▁Preliminary
predic
▁intestine
▁dibutyryl
▁apparatus
▁eosinophil
▁440
-6,
▁86%
-67
proliferative
▁paradig
▁fulmin
▁pancreatitis
immunized
translational
ophys
ticle
▁microgra
arean
▁allograft
hyde
hetamine
▁supr
▁occupancy
LDL
anide
ordin
▁exchanger
▁epidemiologic
▁1---
Ds
105
▁soluble
▁evaluable
▁cres
▁mildly
aminase
▁stimulatory
▁EcoRI
98
▁24%
▁mediast
▁7.5
▁Maximal
▁pathogenic
▁subf
▁dex
▁thyroidectomy
▁glycogen
▁MDR
▁chond
ivariate
-120
ulae
parative
▁ICAM
▁castration
ficial
▁Factor
gmental
tam
▁bup
mitochondrial
sodium
▁bioassay
▁oblique
▁migrate
ponin
▁RSV
acron
▁(28
▁leu
▁digoxin
▁leukocytosis
ostat
▁mutagenic
▁musculoskeletal
ancre
▁reinforcement
enyl
acr
▁Rates
▁recognizes
46
▁hazards
▁metabolized
▁100
▁(4.8
▁7.9
▁reactivity
epit
▁Torr
▁Previously
▁favored
-14
▁biochemically
▁DHA
▁gluc
▁Nutrition
78
▁cytochrome
▁altitude
▁Samples
opulmonary
andros
ighted
▁thromb
4.1
▁CRH
▁130
▁monoxide
ausea
yrosine
oncogene
▁polys
▁ADA
imolar
▁irrespective
▁periodontal
tabl
idney
▁kcal
▁3,
▁rup
obases
calmodulin
esti
▁coated
ocyst
▁parac
▁overlapped
▁SCC
▁43%
▁carpal
▁lenses
▁brainstem
▁diethyl
▁increas
▁murine
▁fibrillation
▁Injection
herol
▁intrap
▁determinations
thms
▁felodipine
▁TS
▁lysosomes
▁leth
▁radiological
ventricular
orporeal
▁9.4
▁subcl
▁DHT
angerhans
▁pancreas
entified
▁goat
molar
▁preganglionic
connec
▁antinoc
▁21
▁cistern
▁retinal
▁amphib
▁epithelia
▁5000
ivered
▁MDA
oxic
cessive
▁regen
▁15.
▁anticholinergic
▁provoke
iceptive
▁simplified
etaz
00,
▁EBNA
▁medically
spectrum
▁eIF
▁evid
▁(300
MV
▁spastic
▁endometrial
27
rocytes
▁2.2
▁polymers
stimulated
abilized
▁9-
11,
▁prefrontal
sequent
▁Feeding
▁acuity
▁9.2
chlo
▁preterm
▁diltiazem
▁repres
obutyl
▁Patient
trip
omegaly
estion
▁immunized
▁111
▁[14
flurane
▁caro
▁valpro
▁exhaustion
▁myristate
iline
▁radioimmuno
▁derm
▁routinely
amylase
▁PV
▁cannula
▁Hybrid
icidal
occi
▁leukemia
▁fum
▁sensitized
▁dialys
▁pati
▁curric
▁oligos
ionyl
▁cyst
▁thrombin
▁resembling
▁depolarizations
▁Tiss
▁kidney
organism
tive
▁sediment
patients
dor
▁NIH
▁194
▁VV
▁CHD
▁duplication
▁MM
tenti
sion
▁unexpl
▁1990
▁fibrinolysis
▁effectors
▁tet
ovastatin
▁unexpectedly
otom
▁spp
1-
▁trigg
▁conduction
ergic
▁93%
▁(52
ration
▁quantif
▁regression
▁discomfort
▁9.9
▁192
▁atrophy
▁eliminating
traction
tenosis
trogen
enicillin
adrenal
tilis
ropine
ofruc
▁74
esicular
isters
▁verbal
-22
▁hybridomas
▁inhibitory
▁0.001)
▁crystals
▁probing
▁equipotent
▁1.0
urine
▁differed
▁acoustic
▁translational
▁Behavioral
▁urokinase
▁focal
▁rigorous
igaret
oagulation
promoting
athiop
fatal
▁secretion
▁intraperitoneal
▁undertaken
▁200,000
▁16,
▁3.3
▁glands
▁9.0
▁proteases
▁AML
glutinin
iliated
▁prescrib
▁1.75
vely
▁barium
▁necropsy
▁exon
▁glioma
▁OC
Kd
▁indis
8)
sectional
▁suction
25)
▁185
▁sulfhydryl
▁neuroendocrine
.4%
odg
▁lith
▁mell
▁placebo
soluble
rogenic
▁(1986)
▁(65
▁virulent
▁cyclospor
39
▁neuropath
sue
clin
▁Combined
▁intrac
phosphatase
crib
ronchial
▁anticoagulation
aminophen
▁titrated
▁organs
-50%
▁31%
▁pretreatment
▁41%
dip
▁blocker
▁gentamicin
▁analgesic
bodies
CRP
▁ips
ocamp
DH
osomes
.9%)
▁thoracic
pli
▁Higher
▁HTLV
▁antagon
siological
ectable
▁interacting
▁investigations
▁maturity
▁Prol
receptors
yramine
23187
▁228
▁3'
▁Meth
fluores
▁polyaden
▁newborn
▁gradual
▁nipple
▁psychophysical
▁Repe
▁emphyse
othermic
osamine
▁ovulation
▁osteoc
kets
▁differentiate
▁bromide
▁0.005),
▁polysaccharide
razole
▁2%
▁COPD
▁Kine
▁nitrite
▁dysp
▁staurosporine
▁pharmacy
▁pH
▁NAD
▁anorexia
+/-
▁solub
PAF
▁.01).
▁anatomical
-16
▁resistances
.3%)
tively
▁overestimated
junction
▁154
▁diagnos
▁biochemical
▁aromatic
▁anore
▁APD
▁neo
▁0.86
▁exogenous
-88
▁yiel
utyric
▁immunodef
omorphine
▁EPSP
▁acyl
▁transients
heximide
ropathy
1%)
110
rofen
▁epidermis
▁ACh
▁42
▁hapl
MHC
▁MH
▁ASA
▁intoxication
▁normo
▁conclusive
▁rats
▁jugular
▁tes
examin
▁spro
Ox
▁RV
▁227
TNF
▁Positive
pharyngeal
▁enanti
clo
▁catecholamines
▁SMS
▁chylomic
ferrin
▁MV
tein
▁summarized
▁(6-
▁supplementation
yrib
▁morphological
▁FFA
razosin
▁obliter
mL
dUrd
5]
▁Acute
rogenase
▁2,4-
▁1200
▁obesity
▁AVP
▁Perc
▁pacemak
▁cytotoxicity
▁peaked
▁fatigue
▁lutea
▁doubling
umbers
▁asial
▁Depending
▁nucleotides
▁intramolecular
▁peroxis
▁pathogens
hips
yzed
polyacrylamide
edded
▁ester
▁cardi
lyc
chol
8,
sparing
supplemented
ionic
subunit
▁oxide
▁prematurity
▁spectrin
▁Thirteen
▁0
▁serolog
▁54%
▁acutely
NIDDM
▁unpredictable
tide
▁deliveries
▁DNase
▁adip
▁7.8
▁PGs
▁cGMP
▁deferens
ffer
phosphates
▁ionic
▁paralle
▁gluconeogenesis
▁angi
▁inferred
▁9.3
▁arthritis
▁tricuspid
600
carotene
▁Barrett
glutination
▁polymerase
▁leakage
▁Arter
▁termed
dic
▁IFN
▁lavage
▁LC
▁Experiment
▁spanning
▁vertebral
vascular
▁correlating
▁polypeptides
▁infra
▁benzodiazepines
lamin
differentiated
▁83
▁pneumoniae
MSH
▁(2%)
ucose
▁-0.7
▁catalase
▁elution
▁angiogram
▁opioid
uted
▁stool
▁progen
▁cytosolic
irubin
▁gonad
▁prothrombin
sistent
saccharide
▁mans
▁Ventricular
▁LD
▁reag
tries
▁thiol
▁decayed
roso
84
▁intercellular
fentanil
▁uncommon
▁monocyt
▁lowering
▁purification
▁contralateral
▁branching
siologic
fibr
▁(6
icides
dotoxin
▁blastoc
▁valves
▁blunted
▁glandular
▁mycobacter
▁methylated
baseline
▁82%
▁subdural
9-
▁spor
▁asymme
▁castrated
vic
▁chickens
▁1985,
▁collagenase
phen
onc
▁familial
growth
teral
▁osteoblasts
▁econ
▁globin
actam
conversion
tumor
▁microbial
▁0.33
▁hexa
▁glomerul
tivated
▁Glucose
▁stools
▁multin
▁practic
dopa
▁100%.
▁pKa
▁Sequence
▁vegetable
DV
fts
▁Medicare
▁athle
▁1990.
▁1990,
▁1.03
imentation
▁reproducibility
▁determinant
imentin
▁DNAs
▁vasculature
atation
▁enrollment
rele
▁cephalospor
▁heteroz
▁surgical
within
▁fixation
scher
oreal
▁Intracellular
secreting
▁discus
▁plas
▁spasm
▁84%
▁carboxy
oplasm
▁colonic
▁clindamycin
athione
▁veins
corrected
teryl
▁33%
▁dairy
▁inappropriate
▁hydrox
▁diseased
▁exons
▁radioactive
▁tryp
▁IgA
▁polarization
▁pretreated
mental
▁spermidine
erving
▁RB
tensive
▁heterozygotes
▁headache
20
ubiqu
▁glucosamine
osus
▁excretory
▁aeruginosa
aptic
Nase
▁hypothesize
▁pertussis
▁reac
▁orific
arine
quine
▁TNF
methionine
▁endot
oyl
SBP
▁119
▁thym
▁melatonin
▁Nons
▁hydrocortisone
▁isovol
▁effector
tussis
▁CaCl
▁crossover
▁cirrhotic
▁ultrasound
agonist
(1,
▁6
glycero
tages
osteroid
-48
imotor
▁glaucoma
isolated
itre
▁prednisone
▁Seventeen
▁crosso
▁contrib
riton
ocytes
▁obstructive
▁0.14
onide
▁CDDP
/24
ctive
yocardial
turb
▁acetic
graft
▁0.016
omethacin
▁electrom
etence
▁-40
▁levodopa
▁0.50
▁77
isomer
orectal
ranolol
sorption
▁inhalation
▁Computed
▁dextran
▁46%
▁connective
4,5-
▁hypox
oblastoid
tivities
▁lumen
ocomial
800
▁strands
tivity
hosts
uppression
▁conjugates
▁ascertain
▁14%,
▁CG
▁coagul
▁atherosclerosis
uthenium
▁naf
0%.
▁granulocytes
iotics
▁varicosities
ogenetic
GMP
▁proteoglycan
▁cisternae
▁sarcolemmal
embry
▁33-
▁Statis
▁positivity
▁7.2
▁precipitate
▁intravenously
▁weighing
inemia
▁Viral
▁10%.
▁adrenoceptors
brain
▁linearly
arynx
▁psor
▁seroton
▁atresia
▁subunit
▁attain
hydrox
▁adrenocortical
▁trophic
▁vagal
▁condensation
hep
▁anomalies
▁2.3
romal
xime
▁inspiratory
▁cisplatin
▁Thromb
▁Abnormal
▁ether
▁(82
▁thio
EBV
trol
▁axillary
epi
orporation
▁7,
ochem
▁.000
▁persists
omies
▁calcium
parathyroidism
▁prevalence
▁precordial
▁strepto
▁brachial
▁endarterectomy
▁consecu
3,000
▁infancy
▁10.
▁androgen
▁SKF
▁arrhythm
▁13%
▁Analyses
▁18,
▁inpatient
▁predic
ynaptic
aminobutyric
organisms
▁strand
-4.
endazole
/5
erule
CEA
▁cyto
▁overt
▁erythropoietin
▁saturation
▁hypnotic
stin
▁struc
IgG
regulated
▁extracts
ulitis
AII
resist
▁solute
▁tec
ogenicity
tase
exposure
▁detox
▁106
%).
renzepine
▁venography
oreceptor
▁1,000
▁hydrolase
gran
▁baroreflex
oglutarate
▁107
▁275
▁forsk
▁msec
ipital
▁concanavalin
▁insignificant
ochemical
▁GHRH
tiv
▁hysterectomy
race
▁142
▁epilepsy
▁oxidized
▁lumin
▁cellulose
▁choles
▁45%
▁amel
▁DVT
▁lobe
▁0.005)
▁butyrate
▁myopathy
omegalovirus
▁nonf
tage
Ala
▁Biophys
ocytosis
▁onc
▁infusions
hemical
▁experimentally
▁gestational
▁NaCl
electro
▁dizziness
tructed
▁(58%)
▁reabsorption
▁OM
platin
▁melanoma
▁indomethacin
▁amplified
▁uncom
▁instillation
orrh
▁antrum
▁fluor
▁octa
▁Transient
ocardi
ietin
▁aneuploid
▁38
andida
▁myocyte
carbons
▁metals
▁lowers
phrine
flanking
triglycer
▁48
▁catecholamine
▁Phe
-2,
▁oxime
▁supplemented
2),
▁19%
cad
140
▁89
ecyl
▁cutaneous
▁abduc
▁insufficiency
▁Cardiac
▁staining
▁histi
▁brom
oblastic
tening
▁possesses
:0
indolol
▁HB
operatively
▁digestion
▁membrane
oglyc
ologous
▁anap
▁hematocrit
okinase
▁inters
▁ICa
▁bradyc
▁radioligand
▁detrusor
▁alcoh
▁thymocyte
▁Elevated
viron
▁contractility
▁Mn
▁manu
▁tenderness
▁reduc
▁infections
▁remission
▁spontaneously
▁1976
ithelial
▁TCA
▁implic
▁recordings
amuscular
▁oncogene
▁GRF
/-
odop
▁indefinite
▁195
conjug
keletal
oxyl
▁GAL
enec
▁innervation
▁-0.8
roprus
▁vincristine
ylyl
▁stains
▁transporter
▁Nineteen
phenylalanine
▁definite
heal
▁reversible
▁(57
▁morbidity
ganglionic
▁etoposide
▁intracerebral
▁threefold
fted
.2)
filament
nish
-5-
▁HL
▁sequel
utyr
thysm
▁mIU
▁vasoconstrictor
▁Hyper
▁(10(-5)
ogl
▁cytosol
▁144
▁creatinine
▁arth
▁supernatant
uculline
▁amoxicillin
eprazole
▁cycling
▁notic
▁lipoxygenase
▁differing
▁80.
▁phosphorylation
▁LTC
▁DNP
▁PFC
▁electrode
▁fric
▁pyrid
Lys
omically
ithi
▁overex
▁paradigm
▁physici
parag
atized
Kyoto
oplatin
▁Inventory
▁pharmacologic
▁progressively
▁velocities
▁arterio
▁intracellular
▁bromocriptine
ystic
▁hyperthyroid
olateral
vae
▁atten
▁hybridoma
30)
tically
fate
▁fas
phosphorylated
▁flap
▁[2
▁hyperox
▁126
▁40,000
▁PMA
▁fmol
▁intragastric
established
▁cellular
▁asparag
▁alkylation
▁mammalian
grams
phenyl
▁epileptic
thirds
▁reperfusion
▁1.2%
▁histology
▁acco
tructive
▁decreasing
▁questionnaires
▁spores
apo
▁-0.0
▁(62%)
SEM
▁propranolol
▁Oc
▁penicillin
▁warr
▁167
▁82
▁conclu
urate
▁synovial
▁(48
▁fibrin
▁identif
▁papill
▁variability
▁exceeded
▁recor
▁microspheres
▁66
▁hyste
▁excre
▁reciprocal
▁suckling
osclerotic
neu
▁233
oxid
▁0.2%
▁Bacteroides
acquired
▁protr
▁Gly
iatr
▁secrete
▁acrosome
Hu
▁unin
▁fecal
▁PMN
olipid
▁Basal
yoto
▁0.1,
lusion
iplinary
▁6.2
▁mutants
▁Hyp
oglobulin
-3,
phosphatidyl
▁sucralfate
▁4,
▁kary
tical
opar
▁myocardi
athyroid
▁recombinant
▁phenotypic
▁fluorescein
▁intravascular
▁scars
▁radionuclide
▁arachidonic
lep
▁favorable
▁originating
othiocyanate
▁enteral
▁surgically
▁1.08
▁differentially
amagnetic
charomyces
▁thallium
tence
▁suppressive
▁Functional
ophy
▁ANP
▁tetr
▁tachy
inopril
▁radiologic
▁LAD
yto
▁46
▁0.62
▁oxidase
▁reagents
▁inversion
▁anticonvulsant
▁(3.0
▁granular
▁SPL
weekly
▁(21
▁reagent
▁CCK
▁0.02)
▁densit
▁embryonal
amus
▁lipoprotein
▁progeny
▁excreted
▁9%
▁glucone
3%
imazole
▁senes
▁meiotic
▁BK
econd
osmotic
arbox
formyl
▁plasminogen
▁adverse
hydrop
▁2.5,
nucle
▁adhere
80
▁effusions
poor
▁bronchial
ints
mittent
▁abstinence
▁identically
rocal
▁4.6
▁streptoc
▁monocyte
rospor
adherent
▁glauc
▁thir
▁25%.
targe
inemic
▁iatrogenic
▁1.5-
▁villus
▁seizures
oinositi
▁remo
lue
▁syngeneic
▁7
PMN
▁adenosine
▁350
▁Recombin
▁monolayers
oxia
▁sucrose
ocellular
▁amplification
▁hyperpolar
▁diffuse
illation
ocap
▁rhod
▁colorectal
▁adrenoceptor
tious
▁territ
arrhy
▁myocardium
▁malnutrition
▁neutralizing
▁Physicians
onucle
atology
▁splenomegaly
▁redox
▁BD
▁50,000
45
▁nasopharyngeal
pH
▁phagocytic
▁hemopoietic
▁40%.
immuno
▁immunoprecipit
adecanoyl
▁(45%)
6).
drug
plate
DHT
▁CRP
▁coordinated
surgical
▁(79
osine
▁progest
Fs
▁unnecess
▁emphasize
▁restrictive
▁favourable
gued
ulose
▁palsy
▁progres
▁parie
oreactive
teroides
▁bacterial
▁cholinesterase
toph
▁bran
ifug
▁stimulated
▁monoamine
▁stellate
▁0.65
opoly
▁Subst
havi
▁cooperativity
▁inapp
▁diagnosing
anthine
tropin
▁vitamin
▁piglets
▁lethality
▁dilatation
▁nonp
otassium
akary
▁cis
▁hypotension
▁TT
▁serially
atching
▁sorb
onas
▁menstrual
vail
▁inflow
iliac
▁choroid
▁superiority
umented
▁inclusions
▁expressing
atches
▁spontaneous
uestion
60
operoxidase
tures
.2,
uccessful
vitro
lobin
▁clotting
▁whey
▁109
hydroxyp
phyloc
▁halothane
ropriate
▁reser
▁physicians
▁disappearance
▁topical
hea
▁endemic
▁viscosity
rophob
▁197
▁tumor
▁abrup
▁aneup
▁dehydro
erated
ropyl
▁0.93
▁prone
toma
▁awak
▁resis
▁molar
2(+)-
dominal
▁anomaly
reness
▁(4.0
terious
inhibitory
aryl
▁5.8
▁translocation
cephal
▁polyunsaturated
▁lipolysis
▁ole
itamin
▁toge
▁Monoclonal
▁OH
▁DRG
▁PAH
▁urethral
▁phenol
▁gonadotroph
tetric
rachial
▁(94
▁(400
▁0.3%
▁residues
▁1.6%
▁remod
effectiveness
▁monomeric
▁NADPH
▁predictors
▁95
▁induction
▁adjustments
▁slices
ogaster
▁retroviral
▁Assess
▁56,
+/
▁virtu
aturated
ometrial
▁sensitivities
iability
▁caud
▁cerebellum
▁solubilized
▁cotrans
▁Mice
▁substitution
nitrophenyl
(-)-
PAT
▁tetramer
▁aerobic
(2+
rosal
ocriptine
▁1.13
cGMP
▁examining
aicin
▁CHO
omized
ogran
▁hir
▁TRH
▁triggering
▁0.05).
▁elast
corticosterone
mur
queous
adiol
▁90%
▁Gyn
▁isch
asions
odium
▁activators
▁hematopoietic
.8%
▁capsaicin
▁occipital
▁neurones
▁peripheral
macrophage
carboxy
▁chromophore
cholate
testinal
▁alters
significant
▁7.6
▁internally
endri
▁tumorigen
▁abor
▁cytokines
secre
▁condens
uresis
▁utero
iodarone
▁atopic
▁(0.9
▁labeling
▁membranous
-75
edema
▁tetanus
▁Wistar
catal
/20
▁androstenedione
azoline
▁glucagon
▁6.1
▁(67%)
:00
▁differentiation
TG
▁gradi
▁abundant
▁antagonist
exposed
▁organism
deple
▁Lys
▁6-
▁infused
▁consis
▁capacities
▁8)
▁hormonal
▁resultant
▁cues
▁substances
▁Sprague
▁diacylglycerol
▁crest
enzymes
▁tritiated
▁pell
oxim
▁abrogated
▁Throm
reatine
macroglobulin
▁respects
eptin
▁5%.
5%,
▁221
▁distric
▁temporally
▁nip
▁stratified
▁lymphadenopathy
▁2.6%
▁pall
▁insec
helix
000
127
▁conjugate
▁coli
▁glomeruli
▁albicans
idase
▁diarrhoea
▁infarct
:1
rotoxin
gic
▁faeces
2'-
▁prosthetic
▁Klebsiella
▁methyl
▁NP
ogenes
▁19,
▁(16%)
alsy
idol
▁fractional
▁incubations
azoxan
▁nM
2+
▁1986
▁longus
antigen
▁chromatographic
▁pellet
▁hyperp
apsular
▁infrared
▁paren
▁eminence
▁(2
▁seronegative
▁proteinases
ducts
▁coenzyme
▁calor
▁chemotactic
TSH
odiazepine
▁HI
▁Tc
iflu
GTP
▁phagocytosis
CCK
portant
cyst
▁84
▁fibres
▁Responses
rophenol
igl
▁RII
adjusted
idym
▁pyel
▁dilated
▁atrium
rendipine
inyl
erebro
kely
▁inactivated
▁owing
▁SCLC
▁complementary
▁(60%)
▁lamb
ulators
dR
xone
accharide
▁umb
▁silicone
▁latent
▁(64
▁NH
▁ethylene
tified
rotein
ipril
osyl
▁endings
▁FU
▁SHR
odalton
▁MHC
conditioned
▁1.6-
▁hairy
▁Afric
ocardial
▁(46
▁disper
▁termini
▁biology
(5
tives
▁Breast
▁phenyl
synaptic
▁1988
▁pA
▁folate
▁erosion
▁arteries
▁musc
▁detergent
▁alve
▁albino
▁encomp
▁cromoglycate
▁2.0
PKC
angl
ituit
opressin
▁fivefold
▁localization
ortic
▁fragmentation
tiazem
albumin
▁sedimentation
tency
▁indo
ductive
▁Addition
2).
▁30
ostatin
▁estrus
▁Laser
▁infec
▁(1
hene
torchid
▁(12
▁grafted
▁Actin
▁divalent
▁22-
ergenic
▁trophoblast
▁valine
▁(4%)
▁155
▁-1
▁94%
▁eluc
▁23%
▁actinomycin
oprolol
▁carotid
▁bradycardia
antial
▁attenuate
unced
▁angioplasty
▁122
▁distorted
▁gonadal
expressed
▁histologically
▁jejunal
adapted
▁0.15
tenolol
▁histopath
▁prognostic
relations
▁plaque
gus
▁transi
▁Progesterone
▁amputation
▁4.9
▁Improvement
crip
▁Ib
▁superfusion
▁ganglion
▁1.11
▁quantitate
▁contex
▁supras
versity
▁refine
cellular
thanolamine
▁10)
▁actin
chest
▁Suc
diagn
▁Diabetes
/10(6)
▁vaccination
pir
▁antimic
▁steers
▁macroscopic
▁(5.0
▁azathioprine
▁Whereas
oxin
▁spindle
▁2.1
▁homogenates
acyclin
▁0.06
FEV
-300
enching
▁posth
▁spleens
▁CSF
▁Engl
▁20,000
▁pigment
▁GE
▁acetylcholine
▁visualization
▁Tn
▁abdomen
ositis
▁oval
▁hydroxyp
pG
▁cylinder
dalton
▁monkeys
ffinities
iol
tria
▁APC
▁substrate
dition
▁Magnetic
▁Ery
rowing
▁ingu
▁lineage
▁transmembrane
▁lymphocytic
▁Shig
ongue
▁metastasis
ucas
▁abd
greater
▁tac
osum
rane
▁0.35
▁puncture
▁artifact
abec
▁harvested
methylene
94
eared
trous
▁TDI
sied
terminal
▁10(
azepine
▁latencies
▁aorta
▁neuromuscular
▁134
▁CAL
▁(15%)
gents
▁nonlinear
▁(15
▁Neu
▁Pregn
▁sickle
entary
associated
▁appendicitis
▁multis
▁Diabetic
62
11
▁6.3
▁(3),
-60
ygdal
▁immunoglobulins
35
▁hormones
▁deleterious
otypes
▁hospitalized
▁Doppler
▁benzyl
▁Obs
loon
▁perfor
deficiency
12-
adecan
▁seb
▁subclass
▁dimeric
▁Inhib
▁(80
30
▁44%
▁menstr
establ
thio
▁agon
▁Oste
abin
romethyl
▁-20
▁cocul
▁fibronectin
-6-
▁insertion
▁immunoglobulin
▁evaluations
▁MAO
▁Strep
anat
▁81
▁calcification
imetidine
▁depleted
▁integrin
▁randomised
drome
▁glucocorticoid
▁afferent
olipoprotein
-35
▁subpopulation
▁erythropo
▁ultr
▁EPA
▁trabec
▁ubiquit
▁LT
▁antec
athioprine
▁granules
▁adherent
▁lis
▁lymphokines
▁chym
▁oxytocin
itant
▁constitutive
▁transplanted
▁falciparum
▁cholesteryl
Hg
▁pools
▁examin
▁faecal
▁Bec
▁schiz
▁phosphoprotein
NH
▁sulfoxide
ymptom
▁parathyroid
▁Increasing
xate
▁anesthe
▁aerosolized
▁loci
-100
▁selec
▁cornea
▁chondroitin
▁inducing
▁adop
▁pumps
▁viability
tailed
ongest
▁lyso
▁perif
▁injec
▁infectious
▁radioactivity
▁physi
▁deficit
urosporine
riched
tub
▁blockade
▁intrathe
▁LH
▁cholesterol
▁monomer
▁theore
▁Laboratory
▁thymic
dipine
▁Accordingly
▁epithelium
▁ascertained
▁enzymes
oporosis
▁midline
plasma
lamy
▁enriched
▁0.13
▁75%,
▁gon
▁quail
tensives
▁cytokine
▁enteric
▁yolk
▁hydrogen
▁hyperb
approximately
▁cytomegalovirus
▁ectopic
▁apex
ocalcin
opharynx
▁nosocomial
orbid
atment
▁circumferen
benzo
3%)
▁171
▁antithrombin
▁chan
▁autoradiography
▁patency
▁miti
▁anastomoses
assessed
▁mutagenesis
▁260
umbar
▁Plas
▁occlusal
vity
▁soybean
▁sphero
▁clon
tism
tructural
▁Lact
▁11)
▁cryp
▁inoc
▁urea
▁5),
jected
▁absorptiometry
.5%,
▁Diabe
TPA
phal
graphic
zable
▁nebul
▁(29
roscopically
iomas
▁consequently
▁hypothetical
▁overload
▁pI
ronate
▁3.9
▁preparations
hormone
trical
▁uncomplicated
▁epitopes
▁1989
▁Acad
▁amino
▁enkephalin
▁nonc
▁hypophys
▁adaptive
▁papilloma
thick
olase
5-
▁0.05%
▁Dental
iphenyl
▁Willebrand
▁intran
▁allergic
0%),
LR
▁puber
iprofloxacin
▁pyrophosphate
haem
▁nylon
▁16
alp
▁modifying
7;
ynthe
▁quinacrine
▁markedly
▁prostheses
▁Various
▁pituitary
omn
▁80%
▁susceptible
▁hypop
▁Plasmodium
8,000
▁TATA
▁carin
▁guanidine
rostaglandin
▁tricyclic
▁borderline
▁EMA
▁disseminated
▁3.0
▁128
chrom
▁neoplasms
▁dors
▁promoter
▁CIN
▁(54
▁myot
▁platelets
▁oss
▁6%,
▁communic
ikary
▁pontine
▁coexis
▁crosses
▁0.79
▁(0.0
ophore
oscopy
▁Statistically
EI
▁8.1
▁cep
▁causative
utroph
▁bicuculline
ammonium
roblasts
▁progn
▁leukemias
▁cavities
esthetized
heresis
▁chorionic
uvate
lining
▁Stimulation
▁5.4
▁monos
etition
▁platinum
▁microf
hydraz
▁operative
▁Simult
▁1987
▁Postoperative
▁Adriamycin
▁inconclusive
▁preeclampsia
▁TCR
▁flexion
▁etiology
▁hipp
-2).
2+/
▁Antis
oppler
▁euth
▁0.05)
▁SRBC
leukin
ults
▁bronchodilator
▁epidermal
meas
▁analytical
eration
insensitive
ighting
▁otitis
18)
▁rash
▁MIC
▁motifs
▁methylation
valvular
▁muM
/12
▁demyel
bloc
▁dehydrogenase
▁mucosa
▁hemorrh
▁anxio
▁protoc
▁frontal
▁EIA
ABP
▁thrombotic
phospho
125
▁(20
▁synthase
▁thymocytes
cemia
▁poin
▁indicative
▁alopecia
pigs
alues
▁bioavailability
▁Pneum
agin
▁alcoholic
▁basilar
▁Highly
▁glutaraldehyde
▁Preincubation
serine
▁phosphoinositi
ostomy
▁Vmax
▁microelectrodes
acental
▁44
100
▁scle
epid
▁formulations
ighteen
▁cmH
ECG
▁larval
▁chimeras
oplas
.5%)
rostened
▁diets
▁GAP
▁suppressor
▁159
moderate
▁Entero
▁psycho
▁ejac
▁Estimates
utions
▁0.24
arying
PTH
▁22
▁infusion
▁trin
▁amlodipine
▁passages
▁interpre
▁chor
▁EDRF
▁Systolic
▁chlor
▁pathophy
-)-
▁reactive
▁vigorous
filaments
kerat
▁255
▁(10
▁outpatient
▁immunosorbent
▁308
▁HCV
rometer
measured
umulative
enicill
▁dissoci
▁demonstrates
▁mosquit
43
▁lysis
▁anions
▁113
ylene
▁reliably
▁shedding
uantitative
▁11.0
▁inflammation
hemo
▁murmur
▁spectrophot
▁crystalline
plasia
▁heterodimer
▁maximally
plates
▁21-
unctiv
▁(31
▁spati
▁300
▁300-
▁(1989)
inositol
▁lipid
▁preschool
▁ineffective
▁Respiratory
▁lipids
▁theophylline
▁intrat
acrylamide
years
proline
▁hereditary
▁15%
▁140
emetic
▁plasmids
kine
▁haplotypes
increased
▁surgeon
▁cortic
▁tachyc
uccin
▁bonding
uretics
admium
▁ECM
▁unusually
▁unclear
▁inositol
▁retinoic
▁PRA
illaries
▁colic
alkyl
▁enzyme
▁Raynaud
oxo
▁immunohist
▁neurob
▁clues
79
▁trapping
▁chemically
1]
▁GnRH
▁ECGs
razolam
quit
2+.
▁amygdal
▁67%
▁Milk
▁apne
▁7.3
▁degranulation
▁venom
gesterone
fusion
▁0.0001).
▁amenorrhea
▁ventrolateral
▁40%,
exin
NMDA
wk
emak
▁201
EGF
▁expenditure
▁emo
meth
91
helial
▁118
▁persistently
▁BAL
▁laminin
▁insufficient
▁trache
▁sialic
▁tolerant
▁lipoproteins
▁immortal
intestinal
▁targe
antoin
ocular
dihydroxyvitamin
lasting
prednisolone
▁hypertensives
▁anoxic
1210
▁gating
▁homose
▁FEV
azol
muc
atoxin
▁perpendicular
opulation
▁ischemic
▁molecule
▁phon
oflurane
▁phosphodies
▁compart
labeling
▁occult
▁weaned
titu
▁corneal
▁0.90
▁carbohydrate
▁intima
estim
▁cytochromes
pyr
▁tryptophan
amide
▁nickel
iasis
▁112
▁CDC
amilton
▁tertiary
termined
diagnosed
4%
▁1.9%
alate
▁CK
▁recr
▁antagonistic
▁doses
▁10(6)
▁(10(-6)
▁mandi
▁ovaries
▁inflammatory
▁modulation
▁anionic
▁stal
▁forskolin
ialysis
▁transferase
ochrom
▁discriminant
▁99
▁triacylglycerol
9.
▁aldosterone
subs
▁4.2
uthen
▁3000
▁Glc
atase
onin
pendym
▁Recombinant
▁11.2
male
▁cutoff
▁(100
▁(36%)
▁referrals
▁yeast
amphenicol
lamydia
acycl
tracheal
▁0.6
▁developmental
▁(8
nour
▁sonography
▁benz
teroidal
▁fertile
▁TC
▁concomitantly
▁mannose
▁baroreceptor
▁contributes
responsive
irds
inase
▁lambs
sisted
▁postischemic
▁0.95
▁28%
▁favorably
▁0.46
▁chondrocytes
▁asthmatic
▁prednis
-44
▁133
▁rIL
▁Recep
▁extrusion
▁stresses
▁macrophage
▁colectomy
▁respiration
▁dimethyl
▁clinician
▁interfere
▁(32%)
15
▁postprandial
▁Baseline
▁rheumatoid
▁myofibr
ipitation
▁kainate
obl
▁39,
▁3/
▁methanol
▁myotub
▁donors
▁readings
pA
idated
▁hydroxylase
▁obli
▁GST
▁ethyl
altered
synthe
▁carcinogenesis
havioral
▁conduc
▁investigator
▁septum
▁junctions
85
▁PaCO
deoxyglucose
▁incontin
▁Cushing
▁hypothermic
azem
ituitary
▁ascorb
▁modulated
avail
BK
▁40,
▁spinal
▁Ringer
▁indi
ophen
invasive
▁adulthood
arum
▁analyzing
mannose
▁proceeds
▁absorp
▁autoreg
▁equimolar
disc
▁postnatal
▁protects
▁dimers
9%
▁CNS
tectable
acetic
▁Coronary
▁3',
roline
▁cruz
▁antiv
omotor
▁(4-
HV
▁palli
▁Thr
▁65%
▁arrhy
economic
▁hydrophilic
▁calorie
iazide
▁59
welling
▁monomers
▁biotin
arachnoid
▁carp
▁estrous
▁perce
▁hydrolysis
▁tubes
ucle
-40
▁antidepressants
▁(75%)
ospinal
bic
-7)
▁compositions
▁observers
▁epidemic
▁retic
▁cords
▁thal
▁vesicle
▁193
▁recurred
▁vitamins
pinephrine
▁unfav
▁transluminal
▁preceding
Tyr
▁lumb
▁duc
▁Apgar
▁perfused
▁depended
bacter
pulse
▁EEG
olich
anoid
▁durations
▁deem
▁Histologic
▁rabbits
▁psychotherapy
▁antral
▁homolog
▁myogenic
enoic
pation
athy
oscopic
▁fluconazole
▁nominal
52
omonas
ritish
▁elimination
urys
▁repeats
▁abstin
▁autoantibody
ancreatic
▁anaerobic
tur
ece
▁daltons
mineral
▁vascul
eclamp
▁19.
▁paracrine
▁virulence
▁splenectomy
▁reliability
▁transient
trated
transferase
teric
ensi
tetradecanoyl
▁VL
▁24)
5).
▁oxidoreductase
▁psoriatic
▁Mild
▁opioids
▁synapt
▁EE
vaginal
▁cerebral
▁mcg
▁HV
▁renin
/4
▁hepatic
▁cyclosporin
▁regimen
loride
▁weaning
atab
▁discrep
▁accel
▁cured
▁secretions
odal
▁conditioned
hydro
achid
▁EPSPs
▁DF
▁arousal
sensitive
▁0.43
▁exaggerated
gol
▁grafts
▁chlo
▁antioxidants
▁disloc
immune
▁incom
LV
▁vesic
50,
▁bronchoalveolar
-7,
▁10(9)
▁exce
▁bronchoscopy
▁dyspnea
▁Intrac
resis
▁fractures
▁serotonin
▁transfected
▁arrhythmias
▁viruses
▁incis
▁trig
uria
▁wards
▁NI
velength
udin
▁adenovirus
romised
chains
▁eti
▁elec
▁CVD
umbens
▁dysfunction
▁complexed
toxin
▁(78%)
▁morphologically
▁alp
(+)-
▁26%
▁80-
▁guan
lier
▁tuber
▁ratios
cence
▁umbilical
-(3-
▁rheum
▁maturation
▁phosphorus
▁fractionation
▁carbonyl
▁IOP
▁serum
anol
rae
▁intraoperative
2-
▁antidepress
▁3;
▁chemot
▁42%
-8)
ylation
▁ovariectomized
▁7%
▁Examination
idovudine
▁thromboembolic
▁synerg
arterial
▁refractory
▁phantom
vastatin
▁Subjects
▁methionine
▁reti
▁feces
▁oxidative
▁autologous
▁referral
▁regained
▁Continuous
▁recombinants
▁165
tomas
visc
aemic
coding
▁allogeneic
tituted
ovalent
▁quantification
ifedipine
▁infants
endocrine
-90%
phoresis
▁respondents
▁thalamic
▁blot
▁60,
.6
atening
▁MK
▁reflexes
▁analyses
▁stres
onam
▁washout
▁mixtures
24
ethylmaleimide
▁ure
▁Stro
▁cigarettes
edocromil
hexidine
▁Interestingly
rotid
▁topography
▁cen
▁discharge
▁echocardi
merc
▁CBF
▁projec
▁observational
▁proteolysis
▁pestic
▁(2.5
-3.0
▁adhe
▁Hb
▁obese
▁oximetry
phs
▁calculi
▁39
▁radiotherapy
▁Staphylococcus
▁transverse
▁unrecognized
▁anis
▁Nit
achol
▁ciliary
▁endocrine
▁.1
HETE
lym
olesterol
▁bism
▁(9%)
▁insoluble
optic
▁MF
▁sonic
▁enrolled
▁nephropathy
▁hyperbil
▁mmHg
▁57
ectomies
▁extras
▁subcortical
oste
▁restric
▁rRNA
henyl
etal
▁yearly
▁rehabil
▁ultrason
▁infarction
▁underst
oracic
.7%
▁1989.
▁TM
promazine
gulation
carbon
▁infiltrates
▁cephalosporins
arcin
otrypsin
▁analges
▁elevations
butamol
dies
▁threonine
▁subc
▁fibrinolytic
▁VF
▁predicting
▁cysts
▁mammals
atible
antigens
▁239
▁80
▁9.
▁3.6%
▁glia
▁0.01).
▁twins
▁calmodulin
▁terminated
tisone
icep
▁incid
eryth
ritis
tebral
▁180
HB
▁cAMP
generating
blocker
silon
▁activates
▁LR
uronium
▁Conversely
DCK
▁kD
▁(23
▁neon
▁hypothal
indol
▁1985
deriv
▁spines
▁progestin
▁recurrent
▁intensities
-1.2
presenting
▁acids
▁intest
▁differenti
▁autoradi
▁0.60
▁kinetics
WK
▁choro
▁congen
▁13.9
▁Lung
▁feasibility
plasmin
▁thrombolysis
▁transcript
▁protec
Gln
▁amphotericin
▁transplants
-(1
▁protracted
▁acetyl
▁unfol
-1.1
▁aggregation
injected
▁audi
achnoid
odeoxy
▁standardization
▁papain
vents
▁mandible
omyel
▁peritonitis
▁dementia
lact
mortal
terin
▁calcitonin
▁(16
-70%
▁magnesium
▁exag
propanol
orh
nary
oclonal
▁RI
▁reactivation
ochrome
▁elimin
▁0.01
▁organisms
▁thromboemb
▁subgroup
▁striatal
▁73
▁hemoglobin
▁exposures
▁(38
oceptor
▁optic
▁visualized
▁glycolysis
▁DSM
maleimide
bumin
▁Prel
▁insuff
▁radiolab
▁termination
▁1991
effects
-1.
▁17.
▁tibia
▁respiratory
+)-
▁Groups
▁oxy
▁molecules
nucleotide
troph
▁tric
▁Rout
omial
▁HM
▁lacked
▁expres
lec
residues
nisolone
aline
▁Median
▁antis
limiting
ditions
▁analogue
▁92
▁Arterial
bral
▁47%
▁dias
▁keto
exercise
▁poorer
ardias
esthe
coronary
▁transcribed
▁concentrations
▁anticoag
onad
▁0.25%
▁Previous
▁induce
▁infarc
▁dorsolateral
lactam
sizing
▁propensity
▁nuclease
reducing
▁RL
▁exud
▁cla
▁employe
▁snail
veolar
ygotes
▁PEF
▁FGF
▁ane
roxim
▁hypotonic
▁cef
tole
vant
▁aggregates
▁accounted
tiveness
-1,
▁isoflurane
▁25
tococcus
▁fluidity
threatening
▁granulomas
dopamine
lycemia
▁divergent
▁endothelin
▁0.28
-1+
▁Evid
▁inflamed
RBC
▁kinase
▁malign
galy
▁anhydr
▁mep
.5.
EAE
▁ligand
entanil
▁hyperins
ulants
▁bundles
kelihood
▁biopsy
▁genesis
▁sugges
urin
labelled
▁(0.1
▁fluoxetine
▁rostral
▁bif
▁13-
▁milder
toxic
▁filtration
▁rhabdomy
vivors
▁ibuprofen
▁studi
▁stabilized
130
▁sph
jug
▁strips
▁reflecting
▁bleomycin
▁tomography
▁deposition
▁internalization
▁topo
▁discharged
▁ACE
▁ligament
▁acetate
▁Measure
▁subpop
▁similarities
opathology
adily
icardial
1)
itability
▁blasts
70
ucl
▁79%
▁salivary
selective
ceptive
▁(11
▁ankle
▁admissions
tric
thmias
▁physicochemical
interferon
▁formulation
▁catalytic
qui
istal
▁PtdIns
▁alb
▁discontinuous
▁Holter
▁sectioned
▁bowel
▁LDL
osclerosis
▁neuropil
oprol
▁fibrous
▁Finnish
▁ryanodine
-9
▁humoral
▁supra
ogeneic
endorphin
▁stroma
▁repertoire
▁assessed
namic
traum
▁17%
▁bile
▁paraventricular
▁FV
▁3,4-
dIns
▁ero
▁(56
olab
ctomy
▁mucus
tors
▁psychosis
▁attenuating
ubicin
▁unrelated
▁moieties
▁microvessel
▁modulates
▁elicits
▁spermatids
▁vasoactive
▁grains
MDA
▁neuronal
▁formalin
▁dermat
troduction
▁mutated
▁predisposition
farin
tris
ifers
ylate
▁88
lycer
roxy
occlusion
athic
▁ferric
▁NR
▁thrombi
▁alkali
siella
▁0.94
▁immunological
▁folding
▁dendrites
apamil
▁Krebs
ocarcinoma
▁preferential
▁waveform
▁accep
▁smokers
▁statis
▁subjected
▁direc
▁ribonucle
▁linole
▁individualized
uprofen
ordance
ocys
▁symmetrical
onephritis
avage
6-
▁GABAA
▁epididymal
▁latex
▁autoregulation
▁biosynthe
oporotic
▁Caucasians
▁starved
2+]
▁immunocomp
psin
▁noncom
▁0.2,
albuminuria
▁Multiple
▁serology
▁outflow
▁thrombo
LISA
▁1,2-
▁ori
▁disrupted
▁(66
▁115
▁predictor
osteroids
regulation
▁construc
▁circadian
philic
ordial
▁bypass
▁infectivity
▁whee
▁50,
▁analgesics
▁MLR
▁microsomes
▁defibr
othi
▁maxillary
▁estrone
▁ketoconazole
0.6
72
occus
kling
▁Symptom
▁introduc
▁PCA
▁lymphoblastoid
▁10(8)
ensitivity
obarb
divid
-[
▁1.8
-9)
ophysical
nitros
▁promo
-7.
▁evidenced
▁endo
amate
▁lecithin
atients
▁evolutionary
▁2/
▁ductal
▁paired
▁tetrodotoxin
▁1,3-
▁90%,
ffeine
▁27%
tration
▁distal
trients
▁swelling
ffinity
▁ulc
▁microscopy
▁microvilli
trate
▁(95
-99
▁nicot
tise
5%).
▁prostacyclin
55
ulmonary
▁Radi
▁Iso
▁neighboring
▁resum
▁contraceptive
▁proteins
▁hypocalcemia
▁Hep
▁adjunct
▁carbam
anadate
▁dobutamine
fraction
ecre
cade
▁injections
▁triazolam
chloro
▁2
▁vaccin
▁Renal
▁9.6
▁ocular
▁(18
tensin
▁34%
▁0.70
onuclear
▁13.3
▁Prolong
▁comparisons
raine
ifugation
▁asthma
▁prolif
assively
▁hemisphere
butyrate
▁mL
▁deoxy
onit
▁phosphates
▁therapies
ximal
▁NF
caro
▁corpus
▁recruited
8),
▁0.29
▁discrepancy
▁lute
quisition
▁autonomic
▁triti
▁trabecular
▁presentations
acillin
Cu
adrenaline
▁ATPase
ethanol
▁curative
esin
▁53%
▁datab
▁ventricular
-70
ofl
▁TA
▁glutathione
▁potentials
▁serosal
▁cones
▁solit
▁177
▁carnitine
▁regulate
▁testicular
ANF
tomycin
▁spiral
▁rearranged
4).
▁confined
▁resuscitated
opres
▁6.0
▁suspensions
opyran
alciparum
▁PBMC
▁scarring
ranial
▁linkage
▁basophils
▁conferred
▁gt
(+)
77
▁rectum
▁baro
▁pineal
lymphocyte
▁xanthine
▁hypoglycemic
▁unres
8.
▁prostate
igenic
▁athymic
▁intercal
flamm
▁desatur
rangement
▁230
▁(3
▁ureter
orsal
▁[1
▁LHRH
▁0.51
▁4;
▁microsp
▁histochemical
pont
▁50-
▁19
thickness
▁nicotine
▁benzodiazepine
osidase
/2
▁progenitors
▁lipase
▁parenchym
▁hypertension
letion
urea
▁infil
leb
faction
▁51
oxybenzamine
tents
enteritis
▁mesenchymal
mol
▁ubiqu
▁venous
otropin
▁97
▁ovalbumin
▁distinctly
1.
▁1974
▁(90%)
▁archite
ographies
▁CaM
nons
▁quadrup
▁10.7
ranged
pran
▁putrescine
▁perc
▁favoring
mobil
▁undergo
neumon
AO
▁uniquely
▁endoscop
▁CAH
▁duoden
▁bactere
kD
▁aqueous
▁210
▁Twelve
▁IU
▁108
▁susceptibility
▁21,
lastic
otting
▁metoclopramide
▁.05).
/6
▁intensive
▁-0.6
▁10%,
▁asymmetry
ortal
inflammatory
▁cava
▁hypother
carnitine
ecretory
▁promoters
▁268
▁nonfatal
oxide
▁anastomosis
tyline
▁pentobarbital
atum
icardi
▁GMP
▁lactose
rolateral
▁embol
alim
▁ruminal
▁incremental
▁reversing
ocyte
▁multic
▁sulfur
▁poliovirus
▁perinatal
odontic
▁fung
▁infiltrate
nthe
concentr
-4
▁phosphatidyle
▁ovine
roscopy
1,
▁torque
cytes
-1-
▁ganglioside
▁normalization
.5%
ococcal
▁positional
consuming
▁acetaminophen
▁immunoblotting
▁manganese
▁stimulants
▁lacto
▁poli
labeled
▁gastrin
▁choline
▁standardized
▁quotient
▁1.16
▁circumference
pore
nRH
▁Hib
▁continuity
▁medullary
SHR
irub
▁transplant
strual
angiotensin
▁Measurements
▁4.8
renal
thre
▁weakly
▁ach
convul
▁forebrain
▁bladder
▁microbi
▁implants
▁proline
▁augmenting
▁maize
othal
▁67
▁Replacement
iplin
▁metformin
▁amounted
tact
fibrin
▁typh
▁fibrillar
tocop
▁hypocal
▁cirrhosis
▁accumulates
casein
▁epidemiology
osensory
▁pooled
reast
700
clic
▁90-
▁VP
sych
▁macromolec
▁stimulator
▁PSA
amole
ostatic
▁coeruleus
▁fertility
▁influencing
orbidity
divided
vular
▁summ
atectomy
▁mediators
▁PTCA
▁bursts
anin
▁perikary
▁pem
▁troponin
▁(41
▁aromatase
▁seroconversion
▁fermentation
▁0.9%
▁17,
10,
continu
▁fibr
oidal
▁warts
▁Chronic
spective
▁Reduction
porting
▁inactiv
umic
rone
▁leukaemia
ulses
▁bloc
▁clonal
▁ranged
▁monotherapy
tioned
▁perfusate
HCl
oxygenation
▁glycol
▁swine
iotensin
▁stimuli
▁30,
▁(31%)
yclic
▁competent
▁labelling
▁trachea
▁bradykinin
gnetic
▁spectroscopy
▁plasmin
ilization
2.
▁idiopathic
ulline
-40%
▁anticonvul
10-
apine
▁analogous
▁CAP
▁posti
▁dynorphin
▁50
▁clearances
▁laryngeal
-3.
▁200-
▁BALB
▁4-6
▁dus
dent
▁puberty
ocorticoid
▁antibodies
▁intrathecal
▁Approximately
▁macromolecular
▁interleukin
▁0.44
▁HBe
▁stromal
▁arbor
motor
▁lateralis
▁previ
18,
▁backbone
thmatic
▁difficul
)-1
▁dysplasia
LPS
▁Lymph
▁haplotype
ocalization
▁splic
▁cardiopulmonary
▁30%.
chin
▁comprehen
▁Biochemical
▁Exc
tox
▁Muscle
-79
rophy
▁muscular
▁spikes
▁spike
▁simulated
azolium
▁worms
▁amp
▁endotracheal
▁(72
▁Gonad
ibrate
▁0.78
▁cytogenetic
▁0.7%
▁carbohyd
▁mandibular
▁epidemi
▁cG
ervations
▁dopaminergic
▁mEq
▁infrequ
Ile
-72
PGE
reening
▁(10(
ethylene
dimethyl
▁simult
▁urticaria
▁GABA
▁1975
▁chol
Ni
▁cloned
▁diastolic
▁Phen
▁exploratory
▁264
▁intubation
▁relap
▁235
limb
▁resembles
14
▁residual
▁recognizing
▁8.5
derly
▁0.1
▁AE
▁Myc
▁MgCl
gag
▁malignancies
▁gallst
glutamate
▁enhancer
▁colpos
ampl
▁Dip
eptides
▁conges
▁26
assium
▁sheath
▁virul
noradrenaline
▁endoplasmic
▁pharmacokinetic
guanine
▁presumed
acet
▁limbs
▁asbestos
▁187
anate
feron
▁homogenate
ocortex
▁boutons
idic
▁coincident
▁(3.8
▁pathophysiology
▁monensin
%),
omical
▁computerized
▁30%,
HPLC
▁detec
▁planar
anad
▁AO
▁occurrence
▁(2),
ecal
▁thalamus
▁apomorphine
▁proes
ovarian
▁Ae
▁retinas
4-
▁occlusive
▁apolipoprotein
▁contractions
▁dermis
0.5
▁valve
▁spectrometry
▁atheros
leucine
▁verapamil
/+
▁amyloid
▁decreas
▁corticosteroid
▁[3
kelet
▁241
▁Stress
▁serological
▁squamous
coag
▁2-
chid
PSPs
onine
-10
▁chlorhexidine
▁percutaneous
▁cyanide
▁amphetamine
ralazine
▁Regarding
▁mucin
alasin
stro
ingers
lived
▁dermatitis
lyb
▁iso
-3
androgen
▁guanylate
-20%
▁remodeling
▁72-
▁glycosylated
▁phleb
armac
▁neonatal
▁permeation
▁lamin
▁haemorrhage
lix
▁inflamm
34
▁preoperatively
▁splen
▁genetically
▁premenopausal
▁carbonate
▁WGA
▁medulla
▁ultrastructural
gulatory
▁steroidogenic
amido
▁selectivity
▁immunofluores
▁carbamazepine
▁numb
▁rises
▁12-
vac
▁revised
▁lysozyme
▁subun
▁outpatients
acylglycerol
IgM
▁ions
▁laminar
▁hypoxic
▁ulcers
▁spind
opause
▁regulator
▁singlet
▁103
taining
zard
ffin
rectomized
▁margins
▁amelior
▁pepsin
ploid
minis
▁Morph
▁EH
▁Immuno
erin
otides
aryng
HDL
103
ginine
▁supplements
ophylline
▁tach
calor
2]
-[3
ullary
▁biotinylated
radi
▁testes
▁pector
▁cyclooxygenase
▁chymotrypsin
▁cooperative
▁diuresis
ardiac
relaxation
iciently
sepithelial
▁coag
▁immunoassay
▁microcirc
▁120
▁suggestive
▁acne
▁1970
urgery
▁fumarate
▁Immunobl
▁MCV
▁simplex
▁substitutions
▁1.06
▁215
ternational
▁0.80
▁thyroiditis
▁selectively
▁unfractionated
▁163
mercap
▁LAK
9;
▁Hypertension
reactive
coh
▁21.
▁cruc
oalveolar
▁antifungal
▁immunogenicity
▁fibrosis
ilic
▁specificity
▁biom
▁postulate
▁4-
acrine
▁nitroglycerin
▁anaemia
▁inges
▁implant
▁bicycle
▁6.9
ivary
▁histamine
▁worsened
▁antipsychotic
▁splanchnic
▁ultracentr
isqu
▁anatomy
dine
▁neutroph
▁fluorescent
▁152
▁compares
▁schedules
acting
uccess
cents
▁0.18
▁gastro
▁114
)2
▁buspirone
▁pneumococcal
▁Alter
▁acet
▁172
▁plexus
anserin
enopus
▁0.98
▁TG
EG
▁Simultaneous
▁gilts
▁cesarean
▁(1.2
▁drip
▁cyclase
inducible
PLC
tronic
CDD
▁gyn
▁dobut
▁docum
HRP
▁Caucasian
▁irreversible
▁Diagn
ropha
▁acidic
▁34
▁nodal
▁ewes
▁muscimol
▁drinkers
endi
▁HLA
▁innervated
▁constitutes
▁developmentally
▁retur
▁streptococcal
▁4%
▁BSA
▁0.72
.1%)
▁rodents
elan
temperature
▁fibrob
▁adminis
geneic
▁(3-
▁basolateral
▁bipolar
▁inactivation
▁208
▁recons
▁galactose
▁Electro
imbr
▁inoculum
▁Secondary
▁capsule
oflav
▁qualitatively
sero
▁successive
voltage
orubicin
▁morphologic
▁antagonism
▁glycoprotein
organization
▁terat
▁(3%)
yclo
▁keratin
▁neurom
▁seropositive
▁Bmax
▁2).
▁550
▁enl
▁glucuron
▁retardation
▁crystall
▁buffered
▁uncontrolled
▁hatching
▁Infection
activities
▁mediate
7%)
▁inpatients
▁disposal
aminob
uridine
aceu
vertebral
▁7),
▁prostaglandins
▁indexes
▁oesophageal
▁afl
▁locomotor
-5.
▁criterion
benz
▁monophosphate
▁sparse
▁elastin
▁elongation
▁cytometric
roin
▁biop
emble
▁testis
omatic
▁fec
▁80%.
▁endoscopically
proteins
retion
prandial
squ
▁atenolol
▁sulfated
echanical
▁dissolved
▁inability
▁bp
▁affective
▁hypothalamic
▁porcine
adin
▁elucidated
▁intracellularly
IAA
▁clom
▁ruptured
thel
▁lutein
uctose
titis
▁luminal
▁triad
▁PLP
trig
▁necrop
pirin
▁adhering
perature
lude
▁babo
cryst
either
ospasm
glut
ticular
▁sclerotherapy
▁eccentric
▁nucleotide
▁(0.25
lyce
globin
200
▁atropine
▁fluoro
▁(8%)
▁flanking
tum
▁cytochalasin
▁arterioles
▁mumol
17,
▁Hz
▁MAbs
lpr
▁catabolism
▁blockers
▁titres
▁elongated
myc
▁synchronous
omethyl
vating
▁resonances
▁Complications
▁(4
▁eluted
▁ischemia
erb
organic
▁Triton
▁lacks
osyltransferase
▁(1.9
▁embolism
brile
▁polyp
▁Cd
▁Findings
▁incubation
ocytic
▁transcripts
cardiac
Glc
trac
▁glutamate
erents
▁constric
▁constriction
thym
▁Fischer
▁750
teria
▁affinity
▁(34
▁nal
▁unsaturated
▁carcinogen
▁Hodgkin
▁demonstrable
esides
fos
▁chemo
937
▁adenocarcin
hemoglobin
▁branched
pirone
▁esophageal
cutaneous
▁broth
▁modulate
▁thereafter
▁1987.
▁inversely
ithine
▁transiently
▁ultrastructure
▁neurolep
ediatric
▁endothelium
fective
▁6.7
methylxanthine
▁depres
▁carc
liteal
▁encephalopathy
4%)
ophilic
ulatory
fal
▁primed
▁subacute
▁trac
apeu
ivation
▁PF
enhanced
▁peri
▁sampl
▁Significantly
▁monol
▁osmotic
▁antipsych
▁standardi
rophen
actin
adap
▁chromatin
▁electrochemical
archite
▁appendic
▁diploid
diabetic
▁manifested
▁3-5
gth
▁dopamine
▁FN
usively
schem
▁DBP
▁erythematosus
▁bulls
phage
tyl
▁demonstrating
▁hypokalemia
▁gangl
▁hindlimb
▁0.02),
ohydrate
▁quantitation
▁discrimin
▁tran
uronic
▁stimulating
▁acros
iological
EMG
▁amide
▁KA
▁lymphocytes
▁axonal
▁hepatoma
tent
MH
▁herni
▁hrs
▁arrhythmia
▁Comparing
▁zym
Km
keleton
▁wavelength
▁fracture
▁subarachnoid
▁polarity
▁defic
▁vancomycin
▁(1990)
-801
▁dehydration
▁ars
▁Conventional
▁bronch
▁25,
▁scalp
▁hematologic
▁breaths
oides
▁unexplained
.7%)
▁subpopulations
inergic
PaO
▁nodule
▁diges
ELISA
:2
▁proliferate
▁radiolabeled
▁cortex
▁NB
▁Extracellular
▁Glut
▁spermatogenesis
▁rhesus
tually
▁barb
▁correlates
▁preliminary
▁lobes
trisphosphate
▁grouped
▁motif
(6
Ta
▁contraction
▁retina
▁recombin
▁intracoronary
tizing
▁phosphatidic
322
▁multiv
▁kinases
▁(4)
▁preceded
▁dosing
dihydroxy
▁tetan
▁Scale
▁phag
▁sarcolem
titution
▁radionucl
TCA
▁nephrotic
▁intake
▁hemodialysis
weighted
▁56%
▁implantation
NMR
▁tauro
▁cystic
▁distrib
▁potentiate
▁lengthen
▁60%.
▁contracted
▁concordance
▁bronchodil
dibular
▁stu
0.4
▁sple
▁saliv
▁alanine
▁nodules
▁immunocompetent
▁effic
tissue
▁estimating
▁endocardi
▁diffraction
pendicular
▁phagocytes
▁inhibin
▁cadmium
orded
▁Epidemi
▁hippocamp
▁serine
rological
ventil
▁2,3-
allium
2;
gm
hyp
rene
▁codon
.5)
odon
▁anesthetic
athe
tidine
4,
operox
eminal
▁unid
anding
hypertensive
▁MMS
enem
71
▁adenylate
▁proximal
▁Extr
▁(+)-
▁1.1
▁contraception
▁disturbance
▁crani
▁Haem
gression
▁predominant
hydropyridine
oresis
▁beads
▁oxygenated
▁hypertrophy
▁ara
▁(20%
rine
▁sterile
2318
▁luteal
▁10(-4)
ydig
▁hepat
sives
sants
▁1.7%
gA
entanyl
▁cyclic
Barr
▁Sensitivity
▁(27
▁15
▁confir
orbent
echn
▁joints
▁sutures
24,
ophren
▁empirical
ofuran
isomerase
pendence
▁covalently
echan
▁buc
"-
▁conjug
▁CAT
dle
versus
▁undetected
▁arteri
▁0.0
▁pharmacological
▁Calc
▁pollen
▁mesencephalic
5)
▁8%,
▁mRNA
▁sci
enten
opus
▁100,
tural
▁inoculated
atous
▁61%
▁LDH
▁(199
eliac
ficially
hydroxy
Gal
filtration
▁precipit
▁Bam
▁adolescence
venth
determined
▁(25
opa
▁damaging
itively
▁addi
omere
▁LTD
▁0.03
▁CEA
ocytoma
early
▁TIL
▁caffeine
▁phage
MLP
▁distinguishing
▁pups
▁HS
(3
▁rost
▁cytology
gluc
▁maxima
▁opac
▁coh
▁mathem
▁coval
oreductase
dil
▁Antibodies
▁Tyr
▁brady
▁Purified
imetric
▁macromolecules
▁leukocyte
kinetic
▁Effects
▁0.74
▁dB
▁vaginal
tetra
plast
▁fluxes
▁650
affected
▁1-4
56
▁tyrosine
omotion
valine
▁interstitial
ionate
▁unstimulated
▁87
▁embry
▁allo
▁stabilization
fron
▁irreversibly
went
▁22)
▁cofactor
▁myc
▁11.8
edle
.1,
▁drainage
▁obstetric
▁postoperatively
ioid
▁contrac
▁PMNs
▁nociceptive
▁schizophren
▁myelin
▁agarose
▁histories
▁Saccharomyces
▁persis
omat
▁mucos
ithromycin
▁introns
▁filamentous
▁equivocal
▁acad
▁vaccinia
itriptyline
▁unreliable
atally
▁polyacrylamide
▁pneumonia
▁dentate
99
▁connec
ucleotide
itin
spectively
transformed
▁mineralization
▁intermedi
▁occluded
paired
▁discom
▁dosages
▁bolus
buterol
lactamase
▁geographic
▁PMS
▁colonies
▁endometri
-26
▁natri
▁anticancer
▁permeable
▁pyr
2(
ystolic
gradely
▁adipocytes
▁flora
-21
▁1983
eradish
▁circumst
▁practitioners
▁Leuk
▁syring
▁penetration
[3
▁TP
oselective
rophyll
▁transmitted
rologic
onary
16
▁heavi
▁deaminase
▁exocytosis
▁nicotinic
▁transcrip
▁ultraviolet
▁predominantly
imetic
▁kain
fused
▁.2
adders
illar
▁thromboxane
RNP
▁thresholds
▁hepatocellular
▁Hear
▁statistically
reactivity
▁LTB
▁cation
nithine
▁shrin
eak
odopa
▁182
iminary
▁contamination
▁eradication
▁hippocampus
▁Experiments
▁monit
prising
oconstric
▁ADH
deficient
▁propor
neoplastic
▁8.9
▁Eighty
retic
▁capsular
▁21%
▁anat
▁transaminase
▁gyrus
▁OT
▁kallikrein
omeric
▁discern
▁elong
▁RIA
▁Surprisingly
▁erythromycin
▁hyperplasia
tisol
KD
▁retention
▁BN
atosis
,000
▁(84
▁allergen
ocusing
▁chronically
sus
ods
▁strep
▁Ia
▁ration
orated
.4
▁11
Rs
ygous
▁hens
rinone
eruleus
▁emergence
▁Statistical
▁invari
▁antagonists
▁rifamp
▁hypon
tonic
magglutinin
cine
enters
▁cellul
tection
diagnosis
▁tubercul
▁3.4
▁solitary
▁stratif
sant
▁ascorbate
erge
.3)
▁divergence
initi
▁rheumatic
▁chromosomes
▁ChAT
▁0.54
▁5-10
ameters
▁parotid
▁(88%)
▁micron
ardipine
perfused
▁submandibular
▁coronary
▁ampicillin
▁13.
▁selective
▁20.
GnRH
▁Tran
▁postoperative
together
▁pige
pinal
vitamin
▁enrol
▁mechanically
esarean
▁164
▁hCG
dialysis
▁iat
▁3.1
rati
▁proximity
▁abnormally
▁95%
▁carcinoma
▁advancing
▁-0.
▁transthoracic
▁articular
▁hydroly
aminated
▁256
▁lactic
▁0.75
▁detecting
▁1).
▁antigen
gment
ostal
▁injecting
▁rostr
▁Staphyloc
▁0.17
▁ploidy
▁confounding
carb
▁Severe
▁commercially
▁colonoscopy
▁Scatchard
▁Plasm
▁experim
▁benzene
▁bacteriophage
iatic
ometers
▁sarcoma
▁albic
▁FcR
hans
▁kilobases
▁superoxide
▁adjuvant
▁diffic
▁Mg
▁adduc
▁COS
ilution
agittal
▁240
▁unlabelled
▁pec
ofib
ometri
opro
HF
aemia
▁beha
▁overlapping
Ep
▁resour
▁rotational
pituitary
▁regulates
▁atypical
▁flas
▁febrile
.1
assay
mide
▁adhesion
▁0.01)
▁immuno
anoids
▁ppm
ergy
▁discontinued
▁laboratories
▁polyamines
dyle
yrid
ecu
▁(2-
IU
▁diclofenac
▁nasal
▁3.
▁37%
.0)
monella
▁2-4
Bmax
▁cholecystokinin
immunoreactive
▁alcoholics
5,000
▁antagonize
▁possessing
▁Absolute
▁submaximal
acterial
▁immunoblot
▁bic
▁0.42
kilobase
▁diluted
▁FITC
-450
electric
▁herpes
ensitized
▁hemorrhages
atoid
tead
▁oestrogen
▁encompassing
▁metaplasia
tia
▁irregular
▁Subjec
▁depr
▁antic
pretreated
▁hydration
▁33
▁24
▁junction
▁TNP
▁discharges
ophageal
arate
erver
▁immunosuppres
keratin
renaline
compartment
▁GGT
1,000
10)
enzyme
▁mannitol
mediately
aterally
▁diminished
olestero
▁streptomycin
upus
▁longitudinal
▁isot
▁silica
▁isoenzyme
iptine
▁PAS
ypass
PPP
▁183
▁eukaryotic
▁contiguous
▁0.8%
▁1600
gonal
▁synapses
▁omega
▁EPO
▁attitu
erating
▁eczema
▁irradiated
1/
tocopherol
▁mite
amethyl
choline
▁fasting
romed
ografts
oprote
▁differen
▁77%
▁typhimurium
turnal
vessel
▁diphosphate
▁inh
▁hypothe
▁micelles
rometric
▁NG
▁galact
▁abolish
▁mesenteric
▁nm
▁reductase
toriness
▁Values
onvul
otrophs
▁polyamine
ported
kade
▁(33
▁dendritic
idinyl
▁50%
restric
nine
▁counseling
▁Animals
▁visually
▁HCO
▁1.4%
OHDA
▁oriented
▁arrhythmic
▁Ure
▁OV
▁0.00
▁isolate
▁reper
▁laevis
▁nonsignificant
▁induc
ucine
Tc
▁29
▁Exercise
atchard
ispanic
trin
▁circulating
▁endocarditis
▁shortening
▁formaldehyde
▁genotypes
▁unaffected
omann
▁deterioration
▁ICU
▁Salmonella
▁electrolytes
▁dividing
▁synergistic
ALT
▁unidentified
loro
▁exhibits
▁(95%
▁denaturation
▁cerebrovascular
biotic
planchnic
▁inhaled
▁naive
▁categorized
▁overe
▁Vitamin
▁diagnoses
epam
▁27
itonin
cnemius
▁duodenal
▁1.0,
▁radiograph
ronectin
▁Tryp
.1%
▁dietary
▁capsules
▁sinusitis
▁fractions
ogenesis
loidy
yroid
▁5%
rP
imodipine
▁subjective
epti
umerous
embedded
▁ciprofloxacin
acyl
tropine
▁nore
Thr
▁acin
▁gamma
▁albumin
▁deviations
▁spectro
▁differs
▁transposition
average
▁0.84
▁Effic
▁emphasized
▁ternary
▁airflow
sul
▁chemotaxis
▁1/2
▁midazolam
▁osteoarth
▁clinicians
lowering
asal
▁streptokinase
embran
▁myeloperoxidase
achn
▁employing
idium
▁chicks
▁1(
ovirus
▁CAD
acetyl
▁lifest
▁hybridization
ysed
adrenoceptors
▁abl
▁vulg
▁embryos
▁speculate
▁hypothesized
ogens
colem
▁hypertrophied
▁-8
▁delaying
odil
▁0.001),
▁hydrop
▁infarcts
▁Biochem
▁homology
▁IK
▁pS
unctions
▁oes
▁carinii
▁BW
▁glomer
▁ank
▁rhythms
IH
▁Plate
▁Ninety
70)
▁intrarenal
▁ances
enic
▁adduct
regn
▁perone
-80
▁antid
maximum
▁Tum
aterals
-39
▁scl
▁98
▁Parkinson
phyrin
anic
▁homologous
▁FF
▁expiratory
▁UT
traumatic
▁ileal
arone
▁semin
▁quantify
▁1:
▁neoplas
▁proton
▁7.0
▁antibody
▁starch
▁Steroid
▁(35
aortic
VLDL
obronchial
▁peptide
quinone
▁Patients
▁usefulness
▁esophag
▁mutations
▁proceeded
▁endocardial
▁degradation
ronch
▁radiolabelled
-0.
▁cytotoxic
NB
incubation
▁dosage
▁Evaluation
▁polym
entia
▁argues
restingly
▁abrog
▁BH
azosin
▁congestive
▁orthoped
▁4.3
▁(0.6
▁arginine
▁hamsters
▁perip
totic
▁bismuth
membrane
▁fulminant
hydr
omiting
anavalin
▁cytokeratin
▁capsid
▁noxious
▁InsP
▁PRP
oea
▁sphincter
▁hypoth
▁absorpti
▁kHz
▁centr
▁resonance
▁enlargement
gestin
TGF
:4
amphetamine
▁electrocardi
functional
▁vesicular
tigu
▁entero
ilus
▁detachment
▁gastroenteritis
▁fores
▁cytotox
osal
▁plateau
▁-2
▁emin
▁quantit
▁ontogeny
▁expresses
▁empir
▁trypan
▁DBA
olitis
▁compartments
▁mono
▁variants
▁pubertal
▁counterparts
osac
lymer
▁pathology
11-
▁glucocortic
▁ischem
▁kappa
▁clu
▁AFP
2%)
▁teratogenic
▁sterol
▁scientif
▁6.4
▁depolarizing
▁vacu
▁submuc
erebral
atient
▁(53
▁lysosomal
FGF
tens
▁utilization
▁Nine
0.0
▁virions
▁cros
▁NaF
▁carcinomas
▁crom
operated
▁ureteral
▁neutralized
0,
▁rectif
▁strom
▁follicular
ytes
ventive
▁Serum
▁inser
tory
▁Brain
iably
▁institu
quired
▁hyperthyroidism
atell
▁postsynaptic
▁muscul
▁cGy
ominant
▁Beta
▁sequestration
▁granuloma
▁12.0
renz
▁resear
▁endoc
▁pharmac
▁RS
▁49,
▁exis
▁pallid
ycline
tubulin
bilities
▁heparan
▁disadvan
▁characteris
▁clot
amicin
▁20-
▁1,25
sibly
incub
▁microenviron
▁2-5
▁synthesize
brom
▁neutrop
▁cyclosporine
▁ventricles
▁mediator
osylated
meter
▁mercury
ysts
▁tracts
▁cytoplasmic
▁implanted
▁75%
▁silic
sess
feren
uestionnaire
ocrine
▁5-
methyl
▁pathways
▁mAbs
▁MgATP
▁foetal
▁tracers
▁discontinu
▁virion
▁extraction
▁Prospective
cepti
trimental
ographs
▁electrolyte
ishman
▁ANG
▁96
peptide
▁ow
▁Immunohist
▁anion
tophan
▁cytolytic
▁mitosis
▁hypercapnia
▁1.02
▁permissive
▁spirometry
▁Incidence
▁GSH
substituted
▁gluten
▁hyperther
utaneous
▁PN
othel
:3
▁incompetence
▁0.05,
▁malaria
antagon
▁peroxide
formin
otropic
▁glut
▁cereb
▁operon
-7-
▁GLUT
83
▁ophthalm
itone
▁detergents
orin
▁positives
rein
▁clones
▁replic
▁isozymes
▁supernat
▁analgesia
xanthine
▁0.56
▁anomalous
▁transformants
ophils
rocyte
▁titers
AIDS
▁vertebrate
helium
▁LTR
Tu
▁147
▁lysed
▁transitional
▁cloning
▁assessing
▁0.7
9)
▁produc
▁Epid
▁([
▁stiffness
▁scin
▁alkalin
▁interc
▁benzodiaz
▁multil
▁moiety
▁averaging
▁diphen
▁constituted
menopausal
▁dexamethasone
cture
▁luteinizing
▁symptom
vated
▁prostatic
▁gonococcal
viral
▁sedation
malignant
atonin
▁osteoarthritis
▁170
ectin
▁(44
(3)
▁lineages
▁dissolution
▁3.7
▁synthe
ductase
73
▁adenine
▁collic
alc
▁24-
▁melan
▁phenotyp
▁Chrom
▁Sodium
▁HBsAg
▁0.66
▁techniqu
▁tablets
oxetine
kinase
olesterolemic
▁basal
▁phosphorylase
median
▁infrequent
▁protocols
▁clonidine
▁electrophoretic
retro
▁venules
▁Michaelis
▁sulfonyl
▁5
unar
avir
ofluores
▁elastase
▁arti
ensitization
▁morb
▁-5
▁creatine
HSV
specificity
▁(13
▁autosomal
▁Recurrent
▁enrichment
▁provoked
▁fructose
▁2.3%
▁reversibly
▁neuraminidase
▁69%
▁(45
ervative
leuk
▁58%
alveolar
▁0.45
arial
▁cerebro
▁conception
ncy
▁lymphoma
oretically
▁disadvantage
ovis
▁116
-43
▁intermediates
ioma
▁transepithelial
▁parv
▁Urine
▁mares
▁REM
▁ambulatory
17
7),
Glu
▁96%
▁Crohn
▁depolar
▁undergoing
▁valvular
▁Tox
angi
▁analysed
▁enalapril
▁interacted
apride
▁constituent
▁lorazepam
▁antibacterial
▁repor
▁resected
▁270
▁recombination
roxen
vix
▁retrogradely
▁1.3
▁iliac
▁microm
.1)
▁intrauterine
▁percentile
▁nitrogen
▁amitriptyline
▁Tolerance
▁carcin
▁1500
▁euthyroid
▁loos
0.
▁dissociation
▁stimulates
▁hypertrophic
lies
grown
▁ascer
▁electromy
▁cystein
ographically
phadex
fluorouracil
▁MN
▁Intr
▁0.09
▁yr
▁immunocyt
▁degenerative
dependence
▁250
▁influenza
▁Chlamydia
rals
quid
▁semiqu
parathyroid
lectomy
plemented
ectom
▁femoral
▁guanine
▁iodine
▁redistribution
▁differentiating
▁ultrasonic
▁tracheal
▁vap
▁arter
ritten
jury
▁oocytes
▁enthal
▁altering
54
acetate
▁melanogaster
▁cerevis
▁spermatozoa
▁polymorphisms
▁0.52
▁advan
atropium
▁chyl
▁intras
charged
galactose
urrence
▁cyclical
▁5,
enal
▁isoleucine
-1000
▁penile
▁trich
ealand
▁thyroid
▁chimer
romyces
▁PAI
iloride
▁Tumor
allikrein
depleted
▁provid
▁insertions
▁interrup
▁DP
▁chow
▁150
▁inbred
▁lethal
omers
▁GDP
▁PCR
▁1,25(
▁Schwann
ocar
▁traum
estions
cis
ocor
moid
trop
ensin
60)
▁(25%)
iphene
physiological
▁stepwise
essation
ogra
4,5)
▁CoA
birth
▁qualit
▁ventromedial
▁kcat
bred
8%
▁bilayer
inamide
▁activator
▁qualitative
▁subgroups
renic
▁Induction
▁expon
▁stimulation
7,8-
▁FMLP
vul
▁scintigraphy
▁fibre
▁thrombolytic
astom
▁labelled
▁tib
▁mesen
ischem
otrophic
▁ribonuclease
▁descriptive
▁prol
▁varicos
▁enteroc
▁myo
▁nascent
▁218
▁acceptor
▁sympath
▁TLC
▁POMC
▁Ultras
▁synthetase
wes
▁(0.3
tained
spar
▁neoplastic
otri
▁labial
▁Fourteen
▁phenobarbital
▁furthermore
OV
arose
▁Increased
▁HMG
▁1960
▁196
▁.001)
HLA
▁amo
erally
▁252
systolic
coupled
▁blinded
▁sigmoid
emide
▁14
▁biosynthesis
▁nif
aceous
▁ROS
▁estrogen
sial
tro
▁xenografts
ylic
▁salts
▁exerted
▁posttrans
▁Clostr
-90
ADP
▁1)
▁tRNA
58
mandibular
▁0.001
glucuronidase
▁LPL
ustif
piride
▁requi
▁polymer
▁mitral
lasts
▁pulmon
▁5.9
atridine
▁mitochondr
induced
▁adenocarcinoma
▁6.8
▁trophob
▁nonin
gans
▁retinopathy
ysto
▁solubility
▁PAP
▁adenocarcinomas
chase
partate
▁nephro
▁hyperlipidemia
▁sedative
▁nephrectomy
▁Kd
▁microb
ophila
▁quinolones
▁tetracycline
▁PIP
▁paroxys
▁helical
▁(5)
▁CN
▁fron
▁postin
▁homozygous
▁impair
opeptidase
ziness
▁unrel
osome
▁shunt
▁catheters
▁phenylalanine
leuc
LTS
osage
▁unmodified
▁Hyd
▁peric
oAbs
▁ventilatory
▁amacrine
iciencies
▁extravascular
admill
▁behavioural
▁stably
urnal
thymidine
▁condensed
▁necrotizing
▁vege
▁Oxygen
▁Concentr
arrhythmic
▁HCl
▁arteriovenous
4'-
36
▁conductance
▁wt
▁perturbation
acetamide
▁neurons
▁airway
olone
▁0.40
▁MRSA
ogenous
▁orifice
produc
▁myeloid
▁descending
idating
▁ison
▁lumbar
▁accid
▁anoxia
▁199
▁uniformly
▁uptake
▁0.59
▁attenuated
▁pene
lebrand
▁Repeated
▁sodium
▁Consequently
ethoxy
▁FSH
coal
8%)
▁astro
▁Initi
▁pediatric
▁ventil
▁voluntary
▁chemotherapy
adone
▁diarrh
▁transplantation
olesterolemia
SOD
▁bilaterally
▁oxalate
▁dete
▁intraluminal
utin
oplasma
▁swit
▁0.10
▁0.05),
icin
▁DTH
uric
roscopic
▁implicated
▁inhibit
venous
▁Fifty
cious
ilum
▁uridine
▁dialysis
globulin
etoprotein
89
▁abdominal
▁subdivided
lebsiella
▁plasm
▁6.6
adine
▁(22
RIA
▁laminae
▁coordination
▁biliary
ypro
inhibited
▁trimeth
apid
▁mitomycin
▁protease
▁sedentary
▁angiographic
▁radioiod
▁emboli
▁160
puts
0.8
hydroxydopamine
nitine
nitroso
▁hypot
-23
▁parenteral
90
▁31
▁Effec
▁selen
▁diame
▁0.01,
onography
▁Spontaneous
▁360
▁PKC
▁subdi
▁roentgen
etitive
▁40%
▁60
phosphor
▁neutropenia
▁manipulation
▁lectins
▁chlorpromazine
▁revascular
wenty
▁confers
▁adherence
▁exert
▁dorsal
urons
▁PLC
ulfonate
tial
▁reproduced
▁anaesthe
▁Estim
▁lar
▁Bacter
▁5)
/10(
▁dioxide
hion
▁metabolism
▁enzymic
76
untary
▁0.97
sions
▁Eleven
thyl
▁9.1
arginine
▁11-
▁aneurys
omatous
-10(
keto
kephal
jec
▁awa
▁Experimental
demic
oplasia
3/
▁disapp
▁histologic
▁aspirin
oA
▁encoun
▁moderately
▁aldehyde
▁dispersion
▁outbreaks
▁acidosis
roximately
400
▁3'-
▁IAP
pontaneous
▁MCF
luent
▁RBC
▁dyst
cotic
▁40.
oside
▁immunostaining
▁15%.
▁(99
▁multicenter
▁denatured
▁lymphoblastic
enol
aminidase
otransferase
▁Chemical
▁bronchi
▁2.7%
▁apprec
oblastoma
iferative
opolysaccharide
▁2.9
▁71%
▁sham
tipation
▁monovalent
mTc
▁epinephrine
▁Electron
▁(1),
▁monke
xiety
ogluc
▁quantitated
tradiol
▁reapp
▁LV
▁intractable
▁envelop
▁insemin
alanine
▁tonic
▁deferen
▁edema
▁63
▁neomycin
▁centrifugation
▁prodrug
▁344
▁synaptic
▁186
▁reacted
asic
▁rhythmic
glycine
cys
Fc
▁commiss
▁striatum
▁anae
▁worsening
isole
odopsin
▁acetone
▁indeterminate
ermal
▁Epstein
producing
▁inhibiting
tense
floxacin
oblast
PMA
▁(63%)
▁GABAergic
▁urtic
▁1000
▁freshly
▁somatostatin
▁anteced
▁airways
▁discriminate
▁Comparison
▁mitochondrial
0%
▁malignancy
▁evaluates
▁(1.0
▁displacement
▁9)
▁centrally
ecia
▁hematoma
▁incorporation
ervo
▁motoneurones
▁characterizes
phosphon
▁aggregated
himb
▁IGFBP
-25
▁PCP
▁adriamycin
Leu
endothelial
nai
▁triam
flammatory
▁verte
▁flashes
▁constitutively
▁5.
▁naproxen
idov
▁erythema
subunits
▁astrocy
▁oxidant
entan
▁autocrine
▁pea
athetic
▁resistant
thrombotic
ocompatibility
▁starvation
▁(1.7
guan
▁papaverine
▁thrombus
thmic
▁neutrophil
▁dendri
phrag
orotic
▁rodent
▁127
opathies
▁remarkably
▁FS
acial
-1/
▁proteinuria
▁preoptic
▁(+)
▁mA
ubular
▁ae
0,000
▁reoperation
▁glucuronide
▁ulcerative
▁trachomatis
▁influenz
entical
▁physiology
atories
ardized
▁Subs
▁hepar
ocaine
tices
▁validity
essive
▁uremic
3;
▁preoperative
▁descrip
▁metoprolol
0)
▁hepatitis
lytic
otrexate
atest
▁digestive
▁chloroquine
articular
▁gland
▁gynec
▁microscop
41
▁deficits
▁9.8
▁Removal
▁Enterobacter
▁exponentially
▁nonsteroidal
▁24,
▁sigma
ocholine
▁stratification
▁10(4)
ATP
plasty
▁arachidonate
▁Molecular
▁eradic
▁abnormal
▁fulf
▁immunode
▁lithium
ylline
▁orally
▁peroxidase
▁splice
▁regimens
▁Aden
▁7.
▁pathologic
▁TCDD
▁catalysis
▁leucocyte
▁retrospective
▁atrial
ociation
▁MHz
▁MPA
amilies
▁syphilis
▁defects
▁CABG
▁thirds
▁dyes
▁1981
▁terminus
▁Cardiovascular
▁salic
▁tumorigenic
-50
▁reflux
diastolic
▁laparo
tility
▁Inte
▁0.5,
▁fimbr
onatal
olet
tochemistry
Bs
abain
HCO
▁SBP
phosphamide
triglycerid
HN
▁simian
▁polarized
proven
uretic
activated
▁exudate
▁adjus
▁recurrences
▁47,
▁lax
▁Investig
cortisone
▁138
▁[32
▁neurite
uris
kele
▁4.5
alb
4.
thrombin
▁hypercal
▁11.5
▁compensatory
▁(5%)
▁78%
▁exerts
orbol
▁hypertonic
▁bronchoconstric
-2
hydroxyphenyl
▁nifedipine
▁responder
bility
otyp
orrect
▁specificities
▁surveyed
otonic
▁substantia
blast
▁corticosteroids
▁anatomic
▁infrequently
idespread
apeutic
▁germin
▁1.5
operative
▁pancreatic
iatum
rostagland
▁micromolar
▁ubiquitin
gative
mentioned
▁hypothyroid
ylamide
▁Lp
▁Identif
▁cytoskeleton
▁supine
▁serotoninergic
primed
bruary
▁WBC
▁Proc
▁37
▁marginally
Sepharose
▁hygiene
▁cimetidine
.9%
▁3)
-150
▁dithi
anyl
▁antide
▁lymph
▁polyps
ignificant
3,
▁68%
▁trach
▁congestion
▁Sepharose
kephalin
▁slopes
▁Compound
-6
atinine
cAMP
▁impulses
CNS
loidal
▁mice
ticularly
▁reproductive
▁compartment
▁0.26
iary
▁mesenchyme
ogenin
▁pneumonitis
brids
▁GS
▁(47
ropo
/7
GABA
▁etiologic
▁enlarged
tability
▁unex
▁10%
▁constituents
▁52%
▁5.6
▁methodology
▁Myocardial
▁spectroscop
▁8-
▁solids
acchar
igand
▁1%
chers
▁bumetanide
aric
▁erg
inoc
▁OKT
▁tic
▁commerc
ontal
yltransferase
▁consul
inum
▁0.9
▁10(7)
▁esophagitis
12.
maximal
▁heterogeneous
21
▁apoB
acin
▁validated
cycline
▁chloride
▁PEG
▁metast
▁hydrolys
▁undergone
adminis
▁neuron
▁melanomas
▁cardio
prin
microglobulin
▁segmental
▁AKR
▁Inhibition
▁pressures
▁menopausal
▁Enh
37
▁20%.
▁60-
▁iden
▁morphogenesis
▁1-2
▁mening
▁selenium
generation
tite
▁13.2
▁endoscopy
partum
▁conditioning
▁sacc
▁confirms
▁exhibiting
olated
▁cytosine
▁epidural
opathic
methylation
phil
amethoxazole
▁atyp
▁specifying
releasing
labile
▁(89
▁distin
▁thems
particularly
▁Whole
▁decarboxylase
▁palmit
▁synaptosomes
▁chloro
imin
▁glucocorticoids
▁axons
▁rods
(2)
▁Growth
dens
▁reflex
isobutyl
▁cystitis
▁differentiated
7.
rotal
▁efficac
▁secretory
▁cDNAs
ventional
ymp
uginosa
▁CML
ulsive
▁ATP
▁cysteine
▁gyr
▁augmentation
▁heterogeneity
▁equivalents
▁norfloxacin
lob
▁Infants
'-
▁illnesses
▁anxiolytic
▁apo
ylephrine
▁diameters
Rb
▁ocul
▁lys
takes
▁explants
▁isoelectric
▁phorbol
-17
▁enzymatically
▁(55
▁adhesive
▁Lyt
▁70%.
▁anesthetized
HCV
▁Abnormalities
▁(75
▁influx
')2
▁dehydrated
▁asparagine
performance
▁refined
▁inducible
▁randomization
▁exceptionally
deprived
▁glycemic
▁1.2,
ATPase
▁CMV
▁possi
▁tended
▁positioning
▁IVC
▁MoAb
▁undetectable
▁hyal
▁undetermined
.5
▁agonist
▁interf
Hyp
▁neurotensin
hydroxylation
▁NK
-1;
▁plots
▁displaying
bearing
▁adjusting
▁tolerated
▁streptozotocin
▁nonselective
CSF
linking
physeal
▁acrome
13-
▁regulated
azone
▁800
▁apop
▁oligonucle
orrhea
▁uterus
59
▁regar
2+-
uclear
opeptide
▁0.99
itoneal
▁vacuoles
▁clinically
incubated
alyzed
▁ferritin
ellar
ffec
idin
aluation
▁0.55
▁bacteremia
sive
yste
▁VE
▁occl
▁cholest
onitis
▁kits
ocyt
▁340
▁graft
▁(67
▁immobil
▁illustrate
▁10.2
▁chromosomal
osynthe
▁catheter
otericin
▁avid
▁toxin
aminases
▁inhibits
tension
LN
▁intrav
▁tiss
▁55
urc
hydryl
▁ACTH
▁develops
▁comprises
▁kidne
▁adenomas
▁eradicated
tose
▁manifestations
▁aeros
helical
▁modestly
▁anastom
▁microgram
▁lining
▁pyrimidine
▁chamb
▁regurg
▁lympho
-5)
aminergic
inone
ilized
▁adrenergic
gangl
taldehyde
2)
triphosphate
▁sclero
▁0.57
42
▁harves
▁biased
▁serotonergic
▁thyrotropin
tention
▁5.7
▁14-
▁ascorbic
0.1
▁lectin
▁questionnaire
teine
▁inward
▁transfusions
idine
▁Eighteen
▁gelatin
6%
▁fla
▁gonadotrophin
▁carcinogenic
▁cumulative
lax
▁precur
erable
ilibr
▁peptid
▁localized
oxal
▁antioxidant
anav
▁scans
aginal
epine
aryotic
▁GTPase
▁54
folate
romy
issive
▁withdrawn
tetrahydro
nitro
▁0.77
▁phosphate
▁tubular
▁0.0001),
phosph
▁0.0001)
opi
veness
▁cervical
▁receptive
▁Cyt
86
.2%
▁fundus
▁purity
▁62
▁diazepam
▁Few
▁10(-10)
▁1.
▁17
concentration
▁illus
▁preincubated
▁0.47
▁500
ecan
▁cran
▁tumors
▁suicidal
ylated
▁transduc
▁MW
▁lability
itro
hexyl
actone
isol
tilled
prol
▁gradients
▁buccal
▁facilitation
▁discs
zation
▁gangliosides
▁lateral
roat
▁denti
ugular
rehen
▁exercised
▁indirectly
trypsin
▁incomp
▁metastases
itum
▁originated
▁(2,
▁(10(-4)
ardia
▁grafting
▁smoked
physiologic
▁papillary
▁probes
POA
▁therapeutic
▁decompression
19
▁fibrinogen
▁EB
▁malformation
usually
▁IgM
rates
8+
oxazole
arrh
▁relapsed
▁Alzheimer
▁epididym
▁nutritional
esium
imeth
▁addic
estradiol
▁avail
resting
▁cataract
▁glycosyl
▁plantar
aneously
▁10(-8)
▁carcass
▁scinti
▁cigaret
▁Prevention
etent
▁biopsied
▁Specifically
sia
atellite
▁tectum
ostasis
▁NSAIDs
▁+/-
lated
▁multiplication
▁assays
▁myometr
▁localize
▁-6
▁isotope
▁resemble
▁ligated
idate
-1),
▁cobal
▁181
plantable
▁angiotensin
▁orthostatic
▁gastr
astatic
irradiation
▁hepatotoxicity
urane
racene
placebo
thyroid
▁0.64
ilateral
▁cytoch
elic
▁spindles
▁18%
crist
uscular
romedial
administration
▁malignant
▁GI
38
▁compounds
▁deposited
glucosidase
▁acupuncture
▁covariates
▁(86%)
itic
otoxin
▁genit
enia
mokers
osarcoma
▁transformations
▁53
▁bacterio
▁chec
pendent
atases
▁ganglia
▁permeabilized
isopropyl
▁retin
androsterone
▁23
▁confirming
▁membran
▁corne
▁Taken
▁dib
eclampsia
▁(60
▁(2)
1%
▁3.2
▁deletions
mum
▁deprived
oscop
▁chloramphenicol
otropy
▁adrenal
▁epidemiological
ospecific
▁osteoclasts
▁tamoxifen
sian
▁pyridoxal
)-2-
DTPA
pressing
▁15.8
▁strokes
▁modality
▁phyto
oplasty
▁stent
tential
▁immunos
arbonate
▁terminate
ococcus
-96
▁12.
▁Km
lethal
▁BMI
▁phosphatases
tilb
udation
▁immunoprec
▁alleles
▁sarcoplasmic
▁leprosy
▁SPECT
pyruvate
/10
▁sti
▁cathe
gene
repres
▁nicardipine
▁hypoxemia
▁leaflet
▁0.
cemic
▁Seventy
▁vicin
▁0.025
compart
▁forearm
▁immunologically
▁embolization
conver
obut
okinetic
glycerol
▁reductions
▁Cul
▁EPR
Cs
▁tumour
uitable
ubs
▁antim
▁TEA
▁90
▁9.7
▁esterase
▁megakary
▁0.03).
▁tidal
▁carbachol
ths
▁thermodynamic
aturation
▁Evidence
Mg
tium
MuLV
creatinine
▁2.5
▁vibration
▁sut
▁substrates
blastine
▁10-
tosis
icillin
▁2.5-
overed
oate
344
▁contral
Ki
▁fourfold
▁quisqu
▁posture
▁hyaluron
▁interv
▁carboxyl
rospinal
1).
▁Gluc
▁jaundice
enolpyruvate
▁contradictory
▁infarctions
▁calibr
▁4-5
odies
turally
▁.00
urther
enone
▁lysine
lysin
▁micros
▁ile
▁myocytes
▁pneum
etine
hydration
▁reperfused
agit
▁nonpregnant
▁transmural
▁dihydrofolate
▁resul
diabe
▁antigenic
activating
▁superim
olipids
amol
otor
▁promin
rophic
▁aureus
▁soleus
▁causal
▁malabsorption
lox
urban
▁vWF
66
▁tentatively
udine
difference
▁myrist
IgE
▁(0.5
RH
-4-
▁0.71
▁Prevalence
▁periodon
▁ventral
▁1984
▁coping
▁adsorption
▁allele
▁antero
▁(197
▁IgG
▁HSP
▁attained
▁adsorbed
▁Synthe
respective
▁Bone
-52
odend
rected
leural
▁spleen
▁graded
-8,
▁1989,
.6,
▁phe
▁nitro
testosterone
▁zidovudine
▁prolapse
▁meningitis
illi
thmia
earance
▁elastic
▁isoforms
▁cortical
▁2.6
▁identifiable
▁0.89
otrop
andard
▁adrenaline
umptions
propyl
▁Retro
strain
▁400
▁benzo
▁granule
oratory
▁90%.
▁chromatography
epiandrosterone
▁deple
▁quinidine
▁sinus
▁glycerol
▁aggra
ayed
▁monitored
ompan
▁radiographs
▁175
GV
erebr
▁2.
▁mosaic
iotic
▁vagus
▁phy
▁microns
▁315
▁homogene
▁aden
▁0.76
botic
unctional
▁libr
▁cathepsin
▁inverted
▁150,
▁excitatory
▁(17
tron
▁ascribed
araldehyde
otre
▁tomographic
▁prepro
receptor
▁glutamic
orepinephrine
▁vascular
▁56
inesterase
▁mutant
▁2.4
stained
attern
▁parab
▁(24%)
ropriately
osid
exchange
▁-3
▁succes
▁centres
OA
▁Thy
turing
▁79
▁inconsistent
▁glucose
▁217
ociated
▁postulated
▁Asn
erad
▁phrenic
▁hGH
mentation
▁stimul
▁76
weed
▁lactation
tinguishable
▁septal
▁bactericidal
▁malate
▁fathers
farction
erican
▁staging
▁barbit
▁81%
semin
▁mucous
▁alkyl
120
▁corresponded
▁80,
▁peptic
▁eicos
▁mediastinal
▁recirc
natal
▁(76
▁priming
▁uninfected
monophosphate
▁lymphaden
▁increments
▁candidiasis
▁PCO
▁specimens
▁mononuclear
▁pyro
▁banding
▁steroidogenesis
▁amiodarone
crystall
▁primers
▁celiac
utaneously
DPAT
▁1,25-
▁steroid
▁macrom
▁endogenous
▁fluctu
SAID
▁paroxysmal
▁conto
▁abnormality
▁limbic
otrip
▁fibro
pain
▁topoisomerase
▁neutralization
▁skeleton
▁HDL
Vmax
imination
▁Sertoli
▁unselected
iparous
otid
6,000
tagland
▁meperidine
apanese
opo
SCLC
▁uterine
▁CAPD
▁CI
74
▁binds
▁residue
▁exocrine
▁effected
▁spermatozo
▁enroll
CHO
▁Cumulative
atural
▁LM
▁sarc
▁10(-5)
▁cultured
▁quinine
▁illumin
▁depolarization
emia
modulin
▁peroxisomal
vember
▁glyc
.8%)
cardi
▁subcutaneous
▁spacer
▁progenitor
▁perivascular
▁2.8%
umping
▁biphasic
▁esters
▁agonists
electron
nec
orpor
▁gastric
Cys
▁promotes
▁Fetal
▁EDTA
asses
▁screened
▁1,
amethasone
▁(26
▁0.82
▁phyl
ichloro
rague
▁negligible
▁neoplasm
▁prazosin
mRNA
▁1-
▁arteriography
▁intrahepatic
▁phosphoc
effec
▁immunobl
▁macrophages
▁10(-3)
000,
▁nucleolar
otidase
▁splenic
▁motoneurons
▁laparoscopy
▁parasympathetic
▁amine
ocyanate
▁vasodil
atite
▁convul
▁ventricul
▁socio
▁immobilization
▁unipolar
▁cortisol
tations
▁20,
lux
22
▁infertility
cellent
▁nocturnal
▁amniotic
▁ESR
▁transcription
▁phosphatase
vian
elec
▁incidence
reduced
▁counterpart
MTV
ertion
Cy
tality
▁MBP
▁sphing
▁narrowing
▁algor
▁angio
▁solubilization
▁somatic
▁PGA
▁rearrangements
ympathetic
▁syncy
▁5.5
uodenal
▁actuarial
▁vagotomy
blockers
inol
▁vasodilator
▁evol
▁births
▁rearrangement
▁MICs
▁neocortex
▁colchicine
▁amplitudes
ocytotic
GTT
▁reinfection
▁degen
▁atherosclerotic
▁electrically
▁livers
▁presently
▁incubating
▁tendons
▁mV
dU
▁6,
utable
▁anesthesia
▁50%.
▁ovariectomy
▁(32
2+,
▁epitope
▁stimulus
CBF
▁digestibility
▁Langerhans
▁plaques
hesus
RIF
▁accumulate
▁ultrasonography
▁citrate
▁dyne
genital
50
▁diverged
▁DEAE
sible
▁opi
▁neurotoxicity
▁RR
oconazole
▁islet
▁ulceration
▁midbrain
▁hemisp
▁whereby
▁FK
▁unde
oxicillin
▁comprising
▁nadi
▁adjustment
▁BMT
▁spherical
▁seminiferous
)],
▁tachycardia
tails
▁(39
eroxidase
▁antibiotics
hydroxyd
▁pK
▁myof
▁1:1
▁mimicked
▁allergens
▁extracellular
oil
ositol
▁deterior
▁Calcium
▁intracerebro
▁(63
▁anthrop
containing
▁antimicrobial
▁triceps
▁TK
Ti
trition
▁palpable
▁haemodynamic
▁determinants
▁oestradiol
▁activating
-33
▁methodological
▁(=
permissive
▁duct
▁CBA
▁motile
▁clamping
▁antif
▁paternal
▁5.2
esting
▁pharmacokine
▁neurites
▁serologic
ocul
treated
▁quiescent
▁clinics
▁hybridized
▁raphe
▁cadaver
trast
00
▁pseudop
▁gastritis
▁BV
1/2
ogenously
▁3',5'-
▁justif
▁isolates
posterior
▁drastically
▁23,
ervical
▁Rb
▁scanning
motic
rences
ovulatory
▁(-)
▁Thereafter
▁83%
▁Cox
othione
▁catabolic
dihydro
arboxylic
▁actu
▁steadily
▁iodinated
▁Dys
▁infertile
▁mRNAs
▁erythemat
▁cessation
▁AH
▁interruption
▁polyethylene
▁hybrids
▁autoimmune
▁hydroph
▁warranted
facturing
▁3.5
▁relieve
roxicam
▁precursor
-3)
sulfate
fir
embr
omal
▁practitioner
12,
▁9
▁tendon
▁tol
▁8.0
▁4.0
▁enrich
▁pharmacodynamic
▁(0.01
▁similarity
▁emptying
▁placenta
▁Lym
▁nucleic
▁-10
▁adhered
▁gonadotropins
▁intral
tinguish
▁arthro
▁plex
▁NGF
▁hourly
▁diffus
olecular
▁competi
olol
▁derangement
▁muta
▁ghosts
▁Pb
yrin
▁Nuclear
▁combin
▁14,
tene
toc
▁bim
▁Pseudomonas
▁intestinal
▁diabe
▁heterodim
PSP
▁leukemic
▁kerat
erine
▁fetus
▁brach
▁responders
▁stationary
▁gp
▁pregnancies
disciplinary
▁MCA
odgkin
▁Fc
▁0.87
taken
hers
▁18
▁70%
▁adrenalectomy
Hb
▁systole
▁aryl
▁8
affec
icine
glutamyl
▁reproduc
anesthetized
▁27,
▁myocardial
GlcNAc
▁detects
▁Differen
▁dispro
▁upstream
▁vaccines
cortic
zyme
▁elicited
resistant
▁eighth
▁adenoid
/1000
▁covari
▁stained
▁91
▁ventilator
obarbital
▁chlamydial
▁reversed
▁prepubertal
astolic
ophores
4/
▁151
▁islets
tative
▁desm
▁aspiration
▁unresponsive
21)
opecia
18
▁absorbance
ulinemia
▁amph
▁yielded
▁nmol
▁subend
▁Ps
rogenesis
-36
▁exponential
▁metabolite
▁1.25
5,
seud
▁epiderm
lipid
▁Invent
▁oligonucleotide
rents
atids
▁diaz
▁Dose
▁protamine
oplasts
▁225
▁calf
▁catheterization
▁PAF
▁metabolites
44
▁125
▁Determin
▁regulating
▁seminal
▁ligation
▁phosphatid
▁jaund
▁38%
▁torsion
▁syncope
▁Binding
▁stenosis
▁simultaneous
▁(92
roxyprogesterone
ocarb
▁ecz
▁Cellular
▁rectal
▁olig
▁VIP
▁repolarization
▁Intravenous
▁fertil
tition
▁ipratropium
▁ellip
amino
ipit
▁innerv
▁eosin
▁0.81
▁fungal
ralfate
-1.5
▁58
▁surrogate
heat
/100
▁sarcomas
▁replicate
▁212
▁heterologous
dehyde
▁mitochondria
▁sulfate
53
amyl
▁hairs
▁histones
platelet
umetanide
▁homogeneous
▁vestibular
▁schem
▁13
eroxide
▁nonex
▁microorganisms
▁corticos
▁varic
▁myelinated
▁fluorescence
5.
▁doubled
truction
929
▁deline
posure
▁neurofilament
▁Estrogen
▁cys
aturity
▁downstream
▁interneurons
▁cations
ogeny
▁assis
▁cefaclor
▁mutagen
tral
▁ipr
00-
NGF
▁hypoglyc
oic
robic
obase
▁rhy
▁lytic
salt
▁devi
▁mesang
▁weighed
▁-15
yelinated
▁-0.5
▁Neurop
othiaz
▁mellitus
retin
▁endonuclease
▁11.6
erox
ositi
operidol
▁remn
▁isoform
▁tolerate
▁clustering
▁CTL
▁caudal
strand
▁theta
▁oxid
▁diagnose
▁infective
▁carboxylase
▁bony
▁deuter
▁prostatectomy
▁complementation
▁rati
obac
parous
▁quin
▁sequential
▁atri
▁neuros
▁220
▁granulocyte
rinary
▁Concomitant
otone
imidine
tituting
▁proportions
▁dissection
▁spermat
▁18-
▁cytoplasm
▁neuropeptides
▁menopause
▁ferrous
▁gly
rocy
▁eryt
ifferentiated
tions
▁renal
utyryl
thymic
▁1.7
phied
▁conductances
▁75
▁48%
olism
iuria
yronine
▁colitis
300
▁sympathe
▁breeding
▁messen
64
▁60.
▁harb
SMR
▁80%,
cyte
vices
ocomp
▁histochemistry
▁antisense
▁helix
luc
▁51%
▁nutrients
▁fati
▁100%
▁pyl
dihyd
▁pyruvate
histamine
▁propria
▁fibers
▁osteoporosis
▁cochlear
▁correc
▁0.02
▁72
/9
▁pipette
▁glutamine
PV
adequ
▁galanin
robenz
▁EF
▁89%
▁Streptococcus
▁chromium
fine
▁adversely
▁overestim
▁hetero
▁Smoking
▁parasite
glyc
encephalic
▁detrimental
▁linoleic
▁cate
▁Chan
▁Tg
▁14%
▁sinusoidal
phor
planch
▁oncogenes
mega
urrent
catalyzed
6),
▁(70
eric
▁ana
▁chronotropic
rolase
▁Glyc
oarth
▁correlated
-2.5
DG
▁mesoderm
ygen
▁kidneys
blind
accharides
▁Ala
rays
▁dehyd
▁cleavage
obacter
ostr
▁dye
bular
embrane
rever
▁sugars
▁establ
trib
izine
▁0.23
▁hormone
▁endometrium
▁membranes
▁motone
▁3
SDS
▁immunity
▁replication
▁stringent
ocine
▁(5%
▁psychomotor
▁debr
▁Apparent
ulph
▁sulphate
advan
▁testosterone
lycero
▁superc
▁masked
zot
▁detectable
uppres
▁0.27
▁pathogen
▁positively
▁antioxid
reases
▁homeostasis
▁primate
▁64
▁tremor
▁tox
▁facilitated
-27
▁PGD
distal
romic
▁leukotrienes
ximide
▁(2.0
azepam
▁amn
▁(500
▁168
▁purified
tened
▁endothelial
uble
▁shear
▁1.4
▁originate
tants
dose
▁neurotrans
exis
IDDM
▁neonates
apatite
adm
▁rigor
▁mediated
▁alk
▁weaker
▁8644
▁hypoxanthine
▁99%
TCR
▁EBV
▁cervix
▁Prac
▁Pt
▁vasopressin
▁(1.4
izin
▁sclerosis
▁motility
twitch
chlor
▁231
▁0.01),
▁investigating
▁prolonged
▁feline
iosis
CoA
▁surgeons
▁hemolytic
▁AK
oride
oxygen
eptide
▁bupivacaine
▁Measurement
molecular
▁cohort
ordant
-6.
lood
iruses
▁Therapy
▁Subsequent
conjugated
▁sampled
▁1988.
▁transducer
▁triflu
▁classifications
11.
▁obser
▁203
▁hypothermia
▁kb
-0
▁(1)
▁carbonic
▁acini
oxane
▁pouch
micrograms
▁defective
▁preexisting
▁predicts
adren
ometh
▁adi
▁2.1%
▁goiter
apsulated
51
▁dP
onazole
(-)
▁skinfold
▁0.91
▁hyperthermia
optimal
4;
▁glycoproteins
▁CPB
▁reproduction
rogra
opre
yro
6/
▁impedance
▁minus
▁injected
57
oxyrib
▁microv
blocking
ducing
▁0.3
▁DD
▁LN
(2+)-
▁thickening
ococci
responding
82
▁specialty
▁progressed
▁nucleoside
▁coagulation
▁excitability
BAL
▁mongrel
▁6)
▁RNase
▁analogs
▁resemb
▁47
transplant
▁conserved
▁intox
daily
▁antidepressant
▁agar
▁titration
omatis
▁covalent
▁HPLC
ACh
▁hydrocarbon
tak
▁quantitatively
▁(40
aund
▁fibros
40
▁Fraction
▁Lipid
▁pleural
12
etus
▁mM
▁somata
▁Screening
▁NM
▁intimal
▁jejun
▁multivariate
▁androgenic
▁fractionated
▁pulsed
▁4).
▁Systemic
ositive
▁bacteri
ervated
▁eug
eptic
Gs
▁Female
▁cardiople
mmol
hCG
▁anemic
entricular
▁polyc
▁ulnar
ilol
▁amiloride
▁atria
▁0.1%
▁arcuate
▁Histological
▁157
mAb
▁psychosocial
▁hypere
▁parame
▁sarcoidosis
▁ascites
HSD
▁intolerance
▁surrog
otin
titude
101
▁5%,
0.7
▁dismut
grees
▁imbal
▁exhaus
▁intracranial
▁persist
▁potenti
▁1/
ivacaine
thood
▁cerevisiae
▁neurop
ammon
▁precipitation
▁0.001,
oventricular
opramide
▁soma
▁autoantibodies
▁perikarya
TRH
▁unil
▁ingested
▁osteoporotic
onate
▁genotype
▁intraper
imol
▁22%
▁denervated
▁pericardial
▁terfenadine
48
▁exacerb
HIV
athered
▁granulosa
ANP
▁extremity
ortical
uled
▁Escherichia
▁ceftriaxone
▁proliferative
▁sphinc
▁canine
▁vesicles
▁Thir
▁lidocaine
▁adequately
trimester
▁10(3)
▁neurokinin
▁endoscopic
▁athe
▁gallbladder
tRNA
▁biopsies
▁ery
odermal
▁0.8
▁manufac
▁synthesis
licular
▁4.1
▁(19
▁glycosaminoglyc
Ci
▁gastrocnemius
▁bronchitis
▁eryth
▁contour
▁Insulin
▁voiding
stab
87
▁mononucle
▁isop
fluoro
▁somat
▁anaesthetic
▁phospholipid
▁kine
▁platelet
▁frac
▁cerebellar
▁gingival
▁particulate
▁niacin
▁physiological
▁TI
tolerated
▁DMSO
▁methotrexate
implantation
▁Recom
▁emesis
ologic
▁paradox
▁polymorph
▁glycolytic
▁anticoagulant
▁autop
cellulose
▁ipsilateral
glycer
▁thyroxine
▁allogra
SMC
▁histopathologic
▁continuation
▁57%
▁oxygenation
▁Subsequently
▁liters
ressive
jun
erate
▁persistence
▁flaps
▁MLC
▁Hg
▁arteriolar
▁rhin
itrate
▁vertebr
amental
resistance
▁8.6
31
gia
▁iris
▁conservatively
▁attemp
selec
▁indus
phylaxis
tochem
▁follicle
▁incontinence
▁lumbosacral
▁hep
EPO
aind
ithm
▁postural
▁stimulant
▁superf
▁photoreceptors
olerance
▁transection
▁extrap
▁rota
▁Enzyme
▁Fib
oprost
▁85%
▁nucleus
▁neuropsych
▁hemag
22,
▁OA
opathological
▁mitotic
▁Stu
▁comparatively
▁polymerases
-10)
hospital
▁suppressed
▁displaced
competitive
mented
▁underestim
suppres
▁endometr
sulph
tin
▁UTI
▁mutation
prisingly
▁Sulf
itoneally
5%.
▁paralleled
▁NMDA
▁insensitive
eptidase
uracy
▁hippocampal
AVP
▁recurrence
▁apnea
bac
▁rabb
▁(5
▁transpos
▁diuretic
▁phosph
▁triglyceride
scop
inephrine
orec
▁cochle
▁LVH
▁ambient
seous
▁cholinergic
▁structurally
tif
▁preven
▁recessive
▁cyclo
indole
▁ramipril
▁isoprenaline
▁receptors
▁7)
encl
-2-
orax
uptake
▁Surgical
▁1988,
irectional
▁AMP
▁paradoxical
▁Combination
▁dermal
tized
▁90.
phosphatid
smokers
▁tetrac
▁TSH
▁43,
▁gonorrh
▁GV
▁infiltrating
97
▁phenotype
▁substitu
▁.0
▁subtypes
▁NHL
ognition
oxon
▁cytological
▁acceleration
▁manufacture
▁shif
▁concom
▁Adenosine
0%).
▁mobilization
▁catar
▁investigators
▁spre
romycin
▁adolescents
▁Clinic
kinin
▁SEM
mend
▁thymidine
phthal
-65
▁suture
▁cortisone
▁follicles
▁VSV
▁rejection
▁RNA
chicine
▁Asp
▁Oral
▁exceeding
Gly
▁tubules
▁.01)
▁androgens
cysteine
▁hypertro
▁hypothyroidism
▁1-3
▁pulsatile
PDE
tional
osoma
▁ICP
▁rebound
comitant
▁Acet
▁facilit
▁potentiation
ganese
▁123
idazole
siveness
▁sensi
▁36
▁elab
▁carbohydrates
▁acidification
3).
▁fossa
29
450
▁complications
alcip
▁206
▁136
▁VO
▁horseradish
▁mesenchym
-28
000.
osides
▁insom
▁projections
▁ELISA
▁pyram
8-
▁cil
▁lamellar
otyrosine
lamp
denat
pecies
yroxine
▁oxym
micro
▁nec
▁serotypes
▁0.002).
trating
▁213
ypeptidase
tion
molec
▁aro
▁heifers
atidyle
▁pulmonary
eal
▁reproducible
▁hyperactivity
6%)
▁clonogenic
.3
anthrene
▁irrever
▁erythroid
atrial
▁neuroleptic
▁microscope
urospor
▁rabbit
▁ANF
olysis
tokinase
▁chromaffin
agic
abies
olus
▁10.4
▁Fifteen
haled
▁potencies
▁conjugation
ellae
▁1.9
▁AIDS
▁nude
▁stric
▁putative
▁7.7
▁78
▁aggression
▁2)
▁phenylephrine
piper
▁Bacillus
▁divertic
sibility
▁stimulate
▁dodecyl
▁97%
phragm
ventilation
▁haloperidol
tivation
▁microinjection
