progesterone
▁constipation
▁antibiotics
▁intraepithelial
▁bipolar
insulin
▁decreases
▁receptor
▁impaired
▁randomization
▁asthma
▁untreated
▁incision
elective
▁extraction
▁SSRIs
▁deciliter
urinary
▁hospitalization
▁uncomplicated
▁pertussis
▁diastolic
▁reuptake
▁postpartum
▁antidepressant
▁hepatitis
▁abnormal
▁thromboembolism
genital
▁insomnia
▁decreased
▁bupropion
inflammatory
▁prospective
▁membranes
▁induction
▁Achilles
▁erythema
▁metabolism
▁heterogeneity
▁NSAIDs
▁dietary
▁endoscopy
▁Controlled
▁anticoagulant
▁subgroup
▁Oral
▁inhaler
▁pulmonary
▁metronidazole
▁lithium
▁cutaneous
▁prescribed
▁congestive
▁preterm
▁herbal
▁severity
▁melanoma
▁breastfeeding
▁corticosteroid
▁isolates
▁adjustment
▁clarithromycin
▁insulin
▁asymptomatic
▁pathology
symptom
▁assay
▁ejection
▁caries
▁mmHg
▁zinc
▁headache
▁benign
▁specificity
▁hernia
▁Treatment
▁creatinine
▁amitriptyline
▁elevated
▁cervical
▁diagnoses
▁systolic
▁diverticulitis
▁postoperative
▁angiotensin
▁hazard
▁Secondary
▁proportional
symptomatic
▁perinatal
▁bronchoconstriction
▁endometrial
▁thyrotropin
▁therapeutic
▁psychosocial
deficiency
▁lipoprotein
▁hypercholesterolemia
▁impairment
▁apnea
▁vaginal
▁peroxide
▁allergic
▁refractory
▁sunscreen
▁carcinoma
▁cholesterol
▁abdominal
▁superficial
▁colic
▁eczema
▁faecal
▁atypical
▁dyspepsia
arthritis
▁progestogen
▁therapies
vaginal
agonists
▁fracture
▁systemic
▁itraconazole
▁ultrasound
▁Screening
▁hysteroscopy
▁overweight
▁strokes
▁counseling
▁testicular
▁gastric
▁daytime
▁randomized
▁mortality
▁imipramine
▁nephropathy
▁dosage
▁hyperthyroidism
▁antimicrobial
▁expiratory
▁interventions
▁tamoxifen
▁surgical
▁cardiac
▁carvedilol
▁Serum
▁outpatient
edema
▁alopecia
▁nocturnal
▁rehabilitation
▁edema
▁Scale
▁antibodies
▁physicians
▁occult
▁mellitus
▁acetaminophen
▁desmopressin
▁ABP
▁regression
▁neuralgia
▁fluoride
▁hormone
myopathy
▁modalities
▁newborns
▁contraceptives
▁nedocromil
▁Significant
▁clinics
venous
▁steroids
▁conflicting
▁elevations
▁births
▁alarms
▁peripheral
▁gastrointestinal
▁ultrasonography
▁menstrual
▁rupture
▁estrogen
▁progression
▁infections
▁topical
▁intrapartum
▁DBP
▁anemia
▁mefloquine
▁cryotherapy
▁infusion
▁imaging
▁antihypertensive
▁concussion
▁testosterone
▁Previous
▁bacterial
vascular
▁IgG
▁bypass
▁enzyme
▁miscarriage
▁nipple
▁sulfate
▁triglyceride
▁simvastatin
▁hospitalized
▁prognostic
▁lipid
▁isoniazid
▁clinician
steroid
▁incidence
▁tumors
▁examinations
▁metformin
▁niacin
▁resonance
▁viral
▁atopic
▁postmenopausal
▁investigations
▁excision
spinal
▁osteoporosis
▁predictive
▁dysfunction
▁transient
▁maternal
▁referral
▁acupuncture
▁digoxin
▁symptom
▁cytology
▁glucosamine
▁aneurysms
▁otitis
▁dementia
▁Medline
▁antagonists
▁gestation
▁stenosis
▁myopathy
▁ulcer
▁pelvic
▁progesterone
▁suppression
▁cohort
▁myocardial
▁serum
▁cruris
▁steroid
▁reductions
▁physiotherapy
▁femoral
▁prolonged
▁spinal
▁Depression
▁obstructive
▁relapse
▁decreasing
▁inhibitors
cervical
▁plantar
▁Risk
▁ischemia
▁lowering
▁pharmacological
▁hemorrhagic
▁cesarean
▁diarrhea
▁outpatients
▁azithromycin
▁deficit
▁warts
▁circumcision
▁antihistamines
▁diuretic
▁biopsy
▁incontinence
▁diabetic
▁subjective
diagnose
▁prognosis
▁cuff
statin
▁resistant
lipid
▁adolescents
▁chondroitin
smokers
▁irritable
▁uterine
lipoprotein
▁reflux
urine
▁triglycerides
▁benzodiazepines
▁vascular
▁anticoagulation
▁infants
▁pressures
▁intake
cutaneous
▁normotensive
▁prophylaxis
triglyceride
▁Randomized
▁squamous
▁rhinitis
▁acne
▁mmol
▁agonists
▁vitamin
▁salmeterol
▁infarction
▁angina
▁hyperplasia
▁allergy
▁depressive
indications
▁insufficient
▁CHF
▁morbidity
▁manipulation
▁amlodipine
▁statin
lateral
▁alendronate
▁triage
▁venous
▁complication
▁diuretics
▁serotonin
▁redundant
▁ovarian
▁criterion
▁inflammatory
▁osteoarthritis
▁migraine
▁recurrent
▁fecal
▁paracetamol
▁oxytocin
▁transvaginal
▁ratios
nasal
▁neoplasia
▁respiratory
▁antidepressants
▁discontinuation
▁diagnosing
▁Infants
▁corticosteroids
antibodies
▁herpes
▁pneumonia
▁headaches
▁amoxicillin
▁elective
▁deficiency
▁urinary
▁invasive
▁adverse
▁Compared
▁postherpetic
morbidity
▁spontaneous
▁neonatal
▁hemorrhage
▁malignant
▁tuberculosis
▁thyroid
enzyme
▁pravastatin
▁obese
▁Trial
▁heparin
▁smear
▁relieve
▁calcium
▁intravenous
▁ischaemic
▁torsion
▁indications
▁lesions
▁supplementation
▁databases
steroids
▁prophylactic
▁clindamycin
▁ROC
▁tendon
▁weighted
▁Disease
▁coronary
▁hysterectomy
▁proximal
▁thyroxine
▁biochemical
▁hormonal
▁initiation
▁complications
▁Prevention
▁inhaled
▁abnormalities
▁aspirin
▁prevalence
▁antibody
▁gastroesophageal
▁vomiting
▁trimester
▁obesity
▁Efficacy
▁cobalamin
▁pioglitazone
▁amniotomy
diabetic
▁stool
▁nicotine
▁tetracycline
▁HSV
▁insertion
gastric
▁tablets
▁regurgitation
▁thrombosis
▁scarring
▁bowel
▁onset
thyroid
▁injections
▁idiopathic
▁lumbar
▁lactulose
▁genital
▁ischemic
▁vaccination
▁regimens
▁blinded
▁premenstrual
▁acute
viral
▁prenatal
▁cysts
▁colorectal
▁hypothyroidism
▁fibre
▁reviewer
▁infertility
▁augmentation
▁microalbuminuria
▁subclinical
▁arthritis
▁cancers
▁infectious
▁mononucleosis
▁fluoxetine
▁cardiovascular
hypertensive
▁colposcopy
estrogen
▁pregnancies
▁bacteremia
uterine
▁pneumococcal
▁TIA
▁CIN
▁subgroups
▁fibrillation
▁fatigue
▁atrial
▁percentile
▁reproductive
menstrual
▁recurrence
▁PMS
▁vaginosis
cholesterol
▁nasal
▁dermatitis
▁abstracted
▁mammography
▁Clinical
▁sodium
▁acyclovir
▁ambulatory
▁concentrations
▁glucose
▁psychiatric
▁logistic
▁renal
▁guideline
▁hemoglobin
▁bibliographies
▁artery
▁fractures
▁lesion
▁retrospective
thyroxine
renal
▁fasting
▁budesonide
carcinoma
▁PID
▁Patients
▁warfarin
▁TSH
▁lateral
▁granuloma
▁terbinafine
▁assessments
▁occurrence
▁lymph
▁antibiotic
▁LDL
▁gestational
▁contraceptive
▁smokers
▁adenocarcinoma
▁intrauterine
▁sulfonamide
▁hypertension
▁diagnose
▁ventricular
▁lovastatin
▁remission
▁fetal
▁mitral
▁symptomatic
▁tinea
▁stratified
▁regimen
▁urine
▁cellulitis
▁sectional
▁clinicians
▁erythromycin
▁metabolic
▁questionnaire
▁Sensitivity
▁placebo
▁concise
▁febrile
▁hypertensive
