▁0.10
PV
▁autoantibodies
itant
▁116
▁acids
indolol
owever
▁uptake
▁transcripts
10)
2/
▁predicting
▁86%
▁5'-
▁noradrenaline
tral
▁kinetics
▁spectro
▁6.6
tophan
▁3.8
▁routinely
▁neurons
▁1987
▁synthesis
▁immunoblot
.9
▁endometrium
▁calcium
▁2)
▁dysp
▁Patient
▁36%
▁triglyceride
▁15,
▁cytology
▁epit
▁surgeon
▁CHF
▁ouabain
adiol
affinity
▁3,
▁132
▁infusions
retin
tus
▁0.13
olip
▁electrolytes
▁viral
▁3.9
lue
olgi
ellular
▁intrinsic
▁postural
▁interventions
ignificant
▁irrig
▁facilit
estions
▁benz
athyroid
▁Swed
▁capsule
▁slowing
titute
▁retic
ucine
25
▁5.2
▁inducer
▁aggregation
▁150
obacter
85
▁hepar
trib
▁suggestive
▁proximal
▁titers
ectin
▁1:
amid
▁dele
▁carcin
▁2.0
▁combin
▁proliferation
embry
56
▁(300
▁glomerul
92
ypro
ctive
37
▁monkeys
oyl
duce
omers
molecular
▁tertiary
▁dosing
▁amputation
intestinal
▁aorta
19
▁Previous
▁nephropathy
▁fibrillation
omegaly
▁1986.
▁chemotherapy
▁prol
ocated
idine
▁mutation
▁predic
▁symptomatic
▁prophyl
ofluores
▁Alz
▁114
▁47
▁juven
▁6-
▁Measure
5%).
▁aneurysms
▁ELISA
oderm
tissue
▁uncommon
athiop
inj
(2
▁ineffective
erence
phic
▁(31
.0%
sible
▁superf
opa
ogenous
transferase
▁hormonal
onate
▁antigens
roscop
▁thymus
RH
▁aureus
gesterone
▁nig
.4
5)
▁neph
olesterolemia
▁filtration
orin
▁asymmetric
teroidal
▁radiological
atif
▁sperm
alanine
▁platelets
▁1986
▁10.0
▁cyclic
tality
▁Holter
▁peptides
▁CAP
Cs
ostomy
▁assis
▁underg
▁Statistical
tabl
accharide
agonist
▁omeprazole
orh
▁opi
▁133
▁0.1
▁detectable
▁antidepressant
▁42
virus
▁PSA
▁substrates
▁pec
pecially
▁0.24
▁AMP
▁8%
ergen
induc
7%)
▁endoscopic
▁experim
▁Increas
▁choline
▁inhal
ocin
▁0.
▁SG
▁250
39
▁CSF
▁compartments
▁postnatal
phrine
▁confound
▁onc
▁postmenopausal
dominal
▁hypertrophy
deoxy
▁0.01).
▁cohort
▁pharmacological
▁dox
▁hypercal
azole
atum
▁ammon
▁unres
▁influenz
3/
▁cen
▁7
▁impaired
▁82
▁atten
▁lactation
DH
▁persis
▁interpre
▁empir
83
-3
▁CNS
▁neutropenia
▁sero
▁4.3
▁mening
otri
uretics
▁endogenous
(2+
▁lavage
▁ventil
▁3.
60
moking
▁regression
partic
▁Gluc
uled
▁neuropathy
▁acute
uria
stolic
lives
▁tric
▁arousal
▁reproduc
trin
cis
▁indus
ordin
lastic
▁26%
▁surgically
▁asymptomatic
▁-1
▁angi
▁shorten
▁TPA
▁hir
▁subpop
▁hydrocortisone
▁melan
▁nondiabetic
▁123
▁spon
▁asthma
ositol
entical
▁atenolol
▁beats
hydro
ventilation
▁averaged
uric
▁elimination
alsy
▁pathways
▁accid
▁-5
▁crom
▁decreasing
uterine
▁variability
▁benzo
▁undergoing
▁4.5
▁unexplained
▁unusually
▁inherent
▁adhesion
eryth
onucle
▁predis
▁bladder
▁molar
▁angiotensin
▁SDS
tures
▁79
▁ocular
▁nonspecific
▁wt
ilized
▁bipolar
▁vesic
▁[125
▁degradation
CSF
▁stepwise
▁mM
cAMP
inflammatory
taz
▁fibr
▁-7
▁49
oprote
nai
ilic
operative
acyl
▁101
▁cranial
▁83%
▁nitro
tine
▁evid
2%
▁exhibited
▁graf
▁hyperlipid
▁admissions
▁sput
ylate
5%
▁placenta
▁epidemi
▁carcinoma
▁abscess
▁traumatic
▁BALB
▁exacerb
▁saliv
-2)
▁8.
▁0.12
otypic
▁somatostatin
▁plasmid
aline
-25
▁linearly
onc
9).
▁artery
-20
▁Estim
anad
▁nutritional
▁injec
dered
▁trich
pation
▁aerobic
rosy
▁102
▁subun
▁metastatic
▁Tiss
osine
cence
ignific
▁utilization
▁strains
▁hamster
▁compart
acute
▁sple
omycin
▁arth
▁pyr
ocarcin
▁follic
mia
▁3'
▁(48
piratory
positive
▁68%
▁diagnoses
illi
▁lithium
tory
ipr
▁compounds
▁carcinomas
▁intermittent
aminophen
sia
▁injected
▁synthe
▁Few
otassium
▁inhaled
▁struc
athe
▁impair
▁articular
▁sulfate
▁8.0
ields
farin
rologic
▁chlorpromazine
▁5,
▁immunohist
▁23
▁intestinal
▁muscul
ipheral
▁ventricular
▁retin
tility
▁reas
▁pancreatic
ignant
onazole
ffeine
▁malign
▁pylori
▁lectin
ifug
▁arrhy
▁8.5
▁comprised
▁Thy
▁lipoprotein
▁acetylcholine
▁syndromes
38
lox
oglobulin
lytic
▁quantitative
▁surveyed
arynx
oprol
▁immunode
tinu
treated
oxyl
36
hyd
.3
▁duoden
ortic
▁addic
testinal
▁uterine
6)
▁donors
▁alternating
▁LH
▁aldosterone
yses
aneously
▁4.7
uretic
▁7.
▁ureter
glycoprotein
.0
▁epithelial
▁vigorous
2,
▁hypothalamus
▁adversely
gestin
▁fluc
rein
atient
▁endoscop
▁mitochondria
▁LDL
▁0.4
thma
▁weighing
traction
▁objec
▁24-
▁compares
▁absorp
▁competent
▁119
rosemide
▁62%
▁66
▁gland
▁ultrasonography
molality
amole
tagland
▁antibiotics
▁Fifteen
▁strom
▁Approximately
▁gly
sive
▁pertussis
▁6.4
▁micros
▁compli
▁sinus
jac
robic
▁CI
ults
▁HB
achnoid
▁valve
mitter
▁embry
scher
▁serological
▁mice
▁consecu
▁residual
sequent
-22
adrenoceptor
utions
▁fibrinogen
▁acco
▁bacteri
7)
omial
▁fetal
rotic
eptin
ophil
▁gonadotropin
▁rehabilitation
▁(15
▁scientif
▁ethanol
▁opioids
pressing
▁(70
spective
▁cuff
▁7.6
62
adone
nec
▁aqueous
▁cardiac
▁hams
▁polypeptide
▁colorectal
▁epiderm
▁succin
ogens
▁prolactin
▁avail
▁malformations
▁(22
▁Oral
ints
▁substantially
▁localization
9.
oplas
▁blot
▁incontinence
▁61
▁TA
▁vitamin
▁emulsion
ographically
▁stratif
ubs
▁Tissue
itro
▁prophylactic
amn
▁0.01
▁respiratory
32
pH
▁ultrasound
okinetic
▁cytologic
ylic
▁plasmin
galact
▁occlusive
▁duct
▁0.04
▁MIC
▁defic
▁metabol
▁Vmax
iae
▁ND
ynaptic
▁dehyd
lobin
48
▁118
idney
▁69
menopausal
▁duodenal
weighted
▁weakly
▁heterogeneity
▁40%
▁attenuation
▁contrib
tro
osome
▁(9
▁throm
▁4
ocellular
▁validated
disc
▁exten
▁inser
oprost
▁demonstrable
▁reversed
▁(47
▁peptide
▁elastic
▁LD
titial
99
▁replication
▁retardation
phosphate
centr
▁angina
▁Significant
▁specificity
ionate
▁fixation
▁Seventy
risk
aptic
viron
itamin
▁excision
▁hypothyroidism
▁doubling
▁epitope
▁Haem
▁homology
olateral
iotensin
inic
▁immunity
▁persisted
▁Fc
▁preven
▁reactivity
-125
▁penicillin
vail
▁95%
▁(500
▁enlarged
otre
/100
▁concurrently
uminal
derly
▁nM
urnal
atology
▁-6
▁rheumatoid
▁35
800
▁basal
▁venous
▁16%
▁specificities
▁1
▁65%
azepam
14)
▁increas
▁abdomen
▁catheter
▁1.7
clonal
▁sham
▁suppressed
▁fulf
kground
▁indomethacin
▁soluble
▁glutathione
▁131
imin
▁monotherapy
▁0.19
ociation
▁identifiable
▁antagon
▁Phen
▁proportions
▁protec
tryp
4+
▁glucocortic
▁pep
▁33
▁sut
▁myocardium
▁198
▁genomic
▁IgM
▁synthesized
▁92
ilin
▁expiratory
▁fibros
▁infec
▁microbi
▁sulph
▁anesthesia
▁polyc
ferrin
▁inactiv
▁consis
▁datab
ethylene
▁evaluations
modulin
▁14
otomy
▁perioperative
▁membrane
▁intub
▁hypox
▁3.2
hea
▁trache
▁vaccination
▁inges
grees
▁polys
▁Mn
quid
▁tib
▁colonization
ifferen
▁+/-
.2
▁porcine
▁prophylaxis
itrate
▁aspirin
▁myocardial
tene
ficial
jec
▁adhesive
0.0
▁conditioning
▁analyses
▁hyperplasia
▁polymer
sively
tages
▁1.0
▁(28
▁underwent
▁neurologic
▁94%
▁characterize
▁limb
▁hormones
3).
ycin
▁reliably
opausal
leukin
▁cryp
▁fluids
▁fum
lec
▁37%
ialysis
▁IFN
omerular
▁compartment
pyr
▁coronary
sensitivity
tig
▁pathway
▁paral
etitive
▁adrenal
)2
erate
▁dete
▁mAb
sibly
▁molec
glycerin
▁recurrences
▁4.9
din
asive
incubation
▁hypoth
esthe
▁96%
thi
▁adenosine
oprec
▁LV
▁contraction
OH
natal
atients
amuscular
▁adminis
▁conduction
▁unchanged
0,
▁uncom
▁rhin
▁prednisone
▁esophageal
▁(16
▁diffic
▁gentamicin
▁differing
trum
▁electrophoresis
▁0.2
▁Staphylococcus
4.
▁manifested
bular
▁invasive
articular
ocrine
edema
oprotein
▁parox
▁psychiatric
▁neurolep
▁conductance
▁12%
▁discharge
▁perfor
welling
▁resonance
▁solitary
plantation
▁1.25
luores
thmia
tisol
▁Sixteen
pain
▁endoc
▁Myc
irds
▁uro
IU
▁sugges
▁elicited
▁anticonvulsant
stimulating
erad
▁dodecyl
▁Eighty
lamydia
▁Subsequently
trol
▁pelvic
▁perfusion
▁6.2
▁ionic
tured
▁lymphoid
loon
▁alkaline
▁21
▁clinicians
▁(44
▁radiotherapy
▁agon
▁oxidation
▁48%
▁foc
▁spermat
▁inhibiting
▁modality
▁enzymatic
acrylamide
▁longitudinal
etent
bly
▁newborn
▁(0.0
▁195
▁63
▁forskolin
▁reductions
▁corticosteroid
lasses
zation
▁(30
▁doubled
gia
▁5.8
▁criter
▁measurable
ausea
▁kidney
ongest
etal
▁digestion
▁SEM
ubation
▁(19
ected
blood
3;
▁induces
tors
▁HS
acil
enal
glutin
iatum
▁1/
▁scalp
▁progressed
▁theore
HB
▁subclinical
▁14,
▁-10
Ca
.8%
▁resul
▁conjunction
trus
▁7.7
ologic
vian
▁pancre
▁organisms
oracic
93
▁atrial
▁suppor
▁TI
▁characteris
▁systemic
▁(11
onor
▁ane
glycerol
▁(6
enzyme
▁schizophrenia
▁ligament
conver
▁kinases
oxif
▁standardized
average
▁neutrophils
▁85%
▁irradiation
▁tumors
▁10.
▁45%
/1
▁esophag
▁100-
diabetic
▁suture
▁progn
aryn
▁drin
tact
tual
siological
9%
▁amo
▁hydrophilic
▁NH
▁incision
2,000
8,
▁cyto
▁confirming
▁regurg
2).
17
▁vaginal
▁Plasma
8),
▁(0
▁ambulatory
▁phosphatidyl
effects
▁phospholipids
administered
odal
▁(1.3
▁antis
▁MH
▁Stu
▁chan
▁LN
inhib
▁secretagog
2)
▁psor
▁hysterectomy
▁nuclei
▁sensi
10,
▁145
▁attenuated
▁preceding
▁cDNA
▁decreas
NH
▁0.9%
▁dairy
▁micrograms
▁exag
henyl
-4
tiary
▁(198
▁testis
▁intestine
iversity
▁confir
▁Addition
▁incis
▁63%
▁enrol
▁rabb
MN
10.
▁edema
tially
Rs
▁coval
▁peroxide
LH
▁Ultras
▁lesion
▁mL
▁luteinizing
▁hypertension
aturated
▁75
▁fibrob
00
odiaz
▁cephal
▁synap
ronch
▁NK
▁depletion
omies
▁Injection
perature
▁febrile
▁sten
▁mitochondrial
▁implying
ropriate
▁exhaus
.5%
▁Hb
▁Compared
▁assay
tensity
iteal
▁mutations
▁juvenile
tituted
▁physici
▁mmol
▁diaz
MH
▁lumen
▁nucleotides
apeu
▁inadequ
oporosis
▁optic
▁electroly
▁chloride
▁lys
▁monoclonal
tak
▁10(6)
fec
ectomized
dose
-80
▁reactive
orsal
▁oxy
44
▁extracellular
arbox
itone
▁progestin
titu
-36
▁transplant
▁cAMP
▁reag
▁1000
▁benign
coun
rhy
▁incorporation
▁acetate
▁differe
▁acutely
sorption
▁OA
▁descending
ylation
▁amin
▁0.01),
▁8.8
▁neutrop
tensive
▁receptive
▁cessation
▁alcoh
▁dimethyl
▁pleural
78
▁flora
▁noc
romes
▁Arter
▁cartil
▁emerg
qui
▁27%
▁66%
▁immunobl
▁24
otent
1,
▁electromy
▁90
▁12-
▁vasoconstric
▁30%
▁43
▁subjec
▁moderately
75
▁atropine
▁fatigue
▁microns
▁glucose
▁chol
000.
▁diuretics
▁antimic
▁microvascular
▁fetuses
▁biopsy
▁4,
▁pmol
▁ultras
▁bronchodil
▁iod
apid
fused
72
/10
hemical
ginine
tran
▁unil
▁hep
▁conformational
orrh
▁sulf
ositi
ondr
▁ranged
▁keratin
▁discriminate
entricular
tice
alp
▁symp
▁Investig
▁choles
▁zinc
osclerosis
▁suppressor
▁spi
▁imaging
0-
▁Ig
▁injur
lip
feren
tracted
yrid
tiguous
▁99
MV
▁dysplasia
oscopy
tations
▁multim
.6
▁chor
▁detecting
diagn
▁shor
vice
tional
▁Hg
▁9,
▁pregnancies
▁swit
▁anomalies
▁thems
+)-
▁lumbar
▁stimul
▁(1
▁cerebro
▁sorbitol
inally
-1.
▁bilateral
▁4)
▁hyperglycemia
turb
▁postoperative
helium
▁exaggerated
▁tablets
▁fecal
▁polyclonal
▁promp
obenz
orepinephrine
▁assessed
▁hippocampus
▁9-
initi
▁depres
▁prono
▁72%
exposed
0.2
▁transpor
▁toge
ylated
▁nonf
▁200
▁viruses
▁12.5
tection
▁ulc
dL
ulose
▁Hyd
estrogen
▁88%
▁adolescent
▁epidural
▁substitu
lep
▁phospholipase
namic
osom
icin
▁39%
▁opioid
treatment
▁agonist
▁marrow
▁1,
▁cyclase
ucle
kage
estig
▁1,25
ffe
▁comparative
▁labeling
▁50
▁exceeded
▁fron
▁neurogenic
▁spontaneously
orption
mittent
▁Levels
▁Hyp
nthe
▁anesthetic
▁61%
Phe
leu
▁infancy
▁(43
amphetamine
▁41
▁(33
▁implants
▁75%
▁coated
clin
▁compositions
▁evoked
▁disseminated
ostic
▁Escherichia
yclo
▁6.3
▁Exercise
▁Evidence
▁remission
ylase
▁logistic
▁103
▁correlates
▁ovulation
▁daytime
lob
▁cis
▁(1.2
▁epilepsy
▁quantit
▁subgroups
▁antimicrobial
▁unclear
amphenicol
trical
▁bypass
▁neurop
effec
▁(3)
9%)
▁mutants
▁ow
▁ascorbic
tructural
stin
ypical
▁0.1%
▁placebo
uncture
▁kb
tally
▁17,
▁prostatic
queous
47
▁fasting
rox
hyde
ospor
▁3.4
odynamic
▁perip
▁normalization
▁LPS
▁HbA
▁hyperb
▁gonadotroph
▁reflux
▁carriers
▁6.
▁discomfort
▁124
▁40-
▁extensor
.1%
▁enti
▁Streptococcus
controlled
▁dors
prandial
▁21,
ranolol
oradi
▁polymorph
iotics
▁pathogenesis
▁300
▁1980
▁9
▁cesarean
▁substanti
ervical
0.5
emia
▁tumours
▁estimating
▁catechol
▁adenocarcinoma
▁64
▁conserved
lipid
▁PKC
▁anaesthe
▁complexes
▁dilatation
▁insuff
▁apnea
amethasone
▁lateral
▁BP
▁poisoning
▁98
▁(1.4
quine
▁summ
▁Thir
tivity
▁analgesia
▁Coronary
thood
saccharide
▁Reduc
affec
▁9.0
went
▁isot
tum
▁indications
▁indi
▁titration
▁13-
ocytosis
▁accep
tence
▁oxid
▁pneumonia
▁postprandial
▁calf
▁genotypes
bumin
▁obese
▁ventric
ullary
stim
▁100%
▁systematically
▁Ib
500
1%)
▁(1.0
tically
▁resto
▁81
▁antisera
ologous
infection
10
71
▁thrombo
▁mammary
▁minimally
onine
▁100,000
▁cured
▁cortic
▁PCR
125
▁induc
eak
atical
▁aor
▁births
▁(2
ograms
▁mumol
ovine
▁venti
▁intrap
inamide
▁71%
inesterase
▁[14
ocor
▁suppres
▁regulated
ruc
▁margins
▁demonstrating
▁couns
▁lipids
▁filaments
▁donor
▁113
▁concentrations
▁attemp
▁reproducible
3)
ynthe
floxacin
▁terminals
▁53%
rents
▁pts
ocomp
▁11,
establ
▁hypog
renal
▁lacks
▁hyperch
▁inhibition
▁mutagen
▁elas
▁cystic
▁stimulatory
▁disrup
sectional
91
tinguish
nucle
▁therapeutic
▁protoc
▁10(-6)
1;
2),
▁discon
albumin
fected
▁untreated
▁0.11
blockers
orectal
-6,
▁pneumon
▁excre
▁establ
▁receptor
abies
toc
▁vasodil
ectomy
acetate
2+-
ociated
▁ATP
-34
▁questionnaires
vity
▁arginine
▁Examination
▁markedly
▁projec
trated
tussis
minal
▁occlusion
plate
partum
▁postpartum
benz
▁forsk
▁phenyl
▁hydrogen
ceptive
crimin
▁progression
individual
▁androgen
butamol
elves
atid
▁96
▁averaging
▁fibroblasts
atitis
yro
▁TM
▁glycos
▁serotonin
▁dias
teral
ylchol
▁6
otropin
▁osteoporosis
▁7%
igaret
▁20
physiological
▁57
.7
▁endothelium
▁77
▁arterial
▁polym
▁rehabil
otrexate
▁diminished
▁Surgical
thyl
▁reticulum
▁aortic
▁Fifty
viral
tigo
▁dosage
12-
▁pigs
▁59%
▁vasopressin
▁tolerated
bodies
▁analysed
ture
dies
0%
sion
▁perme
▁induction
▁appropriately
▁Maximum
ergic
oride
kinase
▁sensory
▁8.1
chym
▁predictive
43
▁Sodium
▁43%
▁induce
▁disturbances
deficient
▁transverse
tivation
▁pulsed
ucose
▁astrocy
▁34%
▁interleukin
meth
5%),
scherichia
astatin
.2%
▁efficac
ysts
▁agonists
▁54
▁4.1
sives
41
▁CCK
▁preexisting
▁homologous
▁supernat
▁circulating
▁renal
▁Infection
chloride
▁direc
▁prednis
▁activator
▁menstrual
▁microsomal
▁presumed
▁74%
▁tac
▁cholest
▁estrogens
vac
▁sarc
▁retard
▁repor
vices
▁clamp
▁9.
otting
▁lipid
▁(39
hydrox
▁cyclospor
assi
▁digoxin
aturation
▁25-
▁biliary
▁graded
▁bacterial
iary
gressive
▁RNA
▁quantified
▁acros
parathyroid
▁microsomes
▁sedim
▁2%
▁outpatients
▁tox
▁turnover
▁hydrophob
▁Interestingly
▁hap
allium
▁23%
▁seropositive
▁splenic
▁lymphocyte
IgM
▁persists
▁affec
▁170
▁pooled
entif
▁99%
atosis
33
agin
▁94
▁etiology
▁somat
▁Calcium
▁800
SDS
▁morbidity
▁thromb
▁prostaglandin
▁demonstrates
sistent
▁computerized
▁splen
ilibr
▁isch
oung
▁qualitatively
▁56
▁assayed
otroph
lys
▁antagonists
▁abolished
oretic
▁smo
▁16
mented
▁acqui
▁64%
▁erythrocy
▁causal
▁Comparison
lyc
▁therapies
▁latency
ophilic
reduced
xual
▁regulate
▁gonad
▁elec
▁verbal
▁0.05),
▁(20
▁pene
yroid
▁vesicles
oresis
▁multin
▁acet
tens
▁nec
azep
rophob
ipramine
▁transcription
lysis
▁Alzheimer
▁adequately
▁gluc
▁connec
thyroid
▁transferrin
▁immunocomp
▁ventilation
▁emphasized
acetic
300
▁neutroph
▁PV
atase
▁thyroxine
otyp
etoprotein
ediatric
73
▁Serum
2+]
radi
▁hydrolysis
pecific
arachnoid
rene
▁mucosa
▁contraceptive
▁scans
olus
▁mRNAs
▁7.9
lycemia
▁overt
oxid
▁pancreatitis
▁intracellular
5).
-1.0
odies
▁PMN
▁lymphocytes
▁Biol
▁stric
▁TS
▁50%
▁twofold
▁maturation
gans
▁cerebral
▁asthmatic
▁inoc
▁loos
otypes
▁stres
▁50-
▁modulation
aric
64
crip
ecyl
▁Twelve
obarb
▁lymph
ampl
▁cytosolic
▁Factors
54
▁supplemented
amines
mental
▁sequelae
kely
▁leuk
▁amphetamine
associated
▁carbohydrates
▁deoxy
ochemical
rogenase
▁HPV
▁synthesize
elic
98
600
▁deviation
▁0.22
▁contractions
▁ischemia
▁55
▁sonography
▁synaptic
▁(8
▁administered
▁testicular
▁rhy
▁(14
uran
▁embryos
▁amp
cys
▁2.8
▁intra
elec
▁grouped
▁perin
▁incom
▁tended
▁allele
tension
ffec
▁Likewise
▁biopsies
▁antid
▁Assess
▁treadmill
▁subjected
▁unstable
tamine
▁histologic
trates
▁epidermal
▁sequential
ucl
▁fla
▁110
▁steroids
▁3.1
▁methionine
aind
31
▁107
▁50,
oreceptor
▁cardi
▁dementia
▁ovaries
▁5.1
▁hypothyroid
▁examinations
triglycer
inase
lyl
:3
▁15-
7),
-17
▁elevations
▁endometrial
▁yr
▁recordings
▁ppm
▁equivalents
tyl
▁permeability
gative
▁hypo
veness
▁1-
rease
▁1983
▁msec
ocyst
onegative
echan
▁(50
rocy
lym
▁cytos
▁diabe
▁binds
tensin
▁9%
▁wors
5;
kines
▁unresponsive
▁128
▁obstructive
3%
obarbital
▁1970
▁hydrochloride
▁repro
ithi
hion
▁metastases
siologic
120
▁generalized
▁(4)
▁anemia
horm
▁pH
NB
▁focal
▁poin
▁statistically
▁maturity
esity
▁radiolab
▁122
▁oes
terone
▁euthyroid
▁congen
▁ischem
▁grafts
administration
▁PLP
responders
▁arter
▁weighed
▁undergo
sA
apsulated
gm
teine
▁olig
▁techniqu
▁phosphatase
topril
▁hematologic
protein
▁spre
▁Diagn
adren
▁thre
▁0.18
▁infections
▁cann
▁Mg
glutinin
▁lidocaine
▁subunit
▁questionnaire
rine
▁cros
▁chronically
▁muscarinic
▁Sixty
▁constituted
▁lowering
▁nal
▁serotypes
▁progressively
▁2.1
▁cataly
▁85
▁5.6
▁EE
urea
▁radiol
▁urinary
▁hospitalization
amol
▁practitioners
▁occupational
▁(18
▁atrophy
▁supr
renol
▁commercially
Ig
▁vascular
ilateral
▁-4
ercul
▁(80
▁morphological
▁steroid
.3%
▁collagen
▁5.7
entral
terin
▁granules
-7)
hers
▁lactate
▁parathyroid
▁46%
▁differed
mokers
enia
▁IB
IFN
▁exhibiting
atectomy
unctions
▁dermatitis
▁placental
▁experimentally
▁hypocal
gic
67
▁macrophages
▁peaked
echn
▁urea
▁paralle
▁Concentrations
▁thym
antibody
▁Bec
oxic
▁vertebral
▁60%
ithin
▁relapses
thym
▁Combin
quisition
▁cruc
8).
2-
independent
▁streptococcal
/2
▁genome
▁14-
▁pneumoniae
▁microorganisms
▁hypertro
▁brainstem
▁endocrine
200
▁intake
▁15%
▁diets
tomy
▁lacked
▁immunoreactive
eroxide
▁37
▁Nine
▁subjective
▁blocker
throm
▁manu
oscopic
rophy
▁osmotic
▁resol
ported
:1
▁pulses
▁arrhythmia
tential
ometh
ophore
▁radiographic
▁obesity
▁verapamil
▁ganglion
▁rabbit
-1).
▁upstream
▁diuretic
erating
-[
/24
▁6.9
0%).
94
enol
▁lar
▁vomiting
▁metabolism
▁subarachnoid
8-
ocytes
▁cerv
▁magnesium
kine
omat
▁variants
▁bronch
▁atherosclerotic
▁corne
monstr
▁-3
▁phosph
▁deple
▁1.3
▁cirrh
median
▁crosso
▁discontinu
▁(0.
jun
▁3%
▁34
psych
▁sputum
▁87%
tioned
▁electrodes
▁voluntary
▁tissues
▁hypoxia
▁relaxant
▁1.4
▁chlor
▁attenu
▁tachycardia
▁(50%)
orrhea
▁epinephrine
unced
-8
▁urine
lact
cture
▁euth
ffinities
▁121
LDL
▁Experim
▁hypers
▁relap
▁PTH
▁0.9
▁Candida
▁offspring
▁dosages
▁1.8
ytoin
athioprine
▁amiloride
▁mEq
▁tubercul
▁elective
-18
▁morphine
▁Epid
▁0.00
▁subc
SAID
-5
▁dexamethasone
▁wk
CoA
▁HI
lamy
▁ery
riched
oxygen
8+
struc
▁oxidative
ometr
▁analgesic
uppres
▁insignificant
▁0.05).
timulation
▁28%
▁arrhythmias
meas
▁127
9;
▁parental
oside
iotic
arrhythmic
▁(+/-
LISA
▁CHD
keletal
▁hypotension
▁intram
▁126
▁MRI
▁preoperative
▁inadequate
▁intest
▁thal
fat
▁hemat
opoietic
sibility
▁(10
▁0.23
limb
▁(250
▁mildly
▁27
▁pigment
▁gyn
abdominal
▁120
▁saphen
4).
▁44
▁tubes
▁conception
▁mmHg
▁dipyridamole
▁31
▁nitrogen
maximal
▁40,
▁nucleus
lac
▁exchan
▁readings
amicin
▁.00
20
▁(45
▁deleterious
69
▁Whereas
▁circulatory
otox
▁fibers
▁secretion
▁assessing
osomal
▁premature
irubin
▁retina
▁67
ycline
▁guinea
▁PCO
▁rheum
▁biosynthe
oreactive
▁cytotoxicity
roscopic
▁questionnai
▁Nineteen
100
▁ips
▁lec
▁myocardi
tial
1)
▁stained
nRH
▁warfarin
▁superficial
ithm
▁econ
-6)
▁subgroup
▁prognostic
alc
▁cervical
bloc
▁regar
tis
ressing
urons
'-
▁0%
57
▁lapa
▁recombin
-1-
▁Eleven
▁4-
▁bac
olysis
ituit
▁18,
adic
okine
-6
ilep
▁smokers
tisone
▁(1.5
▁serolog
havi
orbol
▁pretreated
▁supple
onuclear
gated
adily
-23
ulatory
▁PEG
▁kidneys
leuk
▁plasm
▁afferent
tin
35
▁devi
▁enzyme
▁144
3,
▁heterogene
▁fluorescence
▁endot
▁Disease
▁orally
▁vivo
ophen
muscle
ronchial
▁caud
eprazole
oidal
▁SHR
▁thrombus
tia
▁rupture
000
▁8.3
▁decreased
▁complications
▁cyst
ept
▁transi
▁bolus
▁actin
phil
▁prostagland
yrox
▁tachyc
▁4.0
plasty
taining
astric
glycer
elan
▁operative
ranial
-450
▁incidence
▁RS
erving
▁fluor
▁ure
bladder
▁abnormal
trial
▁ratios
▁1990
orac
hydroxyp
epti
ducing
▁contex
ochondr
ulph
tions
▁hypothalamic
rogenic
▁tomography
2+,
▁discontinuation
crib
responsive
▁propranolol
▁effec
9-
▁investigators
▁cancers
▁recom
reactivity
▁129
▁augmentation
59
▁hypertensive
▁formulations
▁unrelated
▁graft
tidine
immune
andard
▁intensive
▁refractory
essive
▁deviations
ortal
▁analogues
3),
epine
▁BCG
sied
▁117
rectomy
gely
5.
7%
▁inhibits
▁responsiveness
▁adduc
▁cys
ocytic
▁immunofluores
▁0.07
4/
▁48-
84
-3-
tox
▁EGF
▁HDL
▁PMA
▁cortisol
platin
utyr
▁incontin
▁erythematosus
ocl
▁tetracycline
otor
▁89%
▁vein
atible
+,
reast
threatening
▁40.
▁mono
▁adenomas
▁norepinephrine
▁20%
0.1
▁1989
▁paired
▁FEV
▁conges
▁excised
idespread
icep
▁adolescents
▁coag
42
▁follicular
▁-0.
hypertensive
,000
▁efficacy
▁influx
▁(0.1
▁inhibitor
▁adap
▁repres
inoc
bacter
-9
urin
400
▁chorionic
▁stool
gus
▁19,
▁100
▁nodules
▁29
▁3.3
▁cyclooxygenase
▁87
toph
oplasty
▁staging
osomes
▁0.01)
▁calcitonin
▁5.4
▁112
▁aneurys
greater
opril
ipine
vitamin
responding
▁inh
▁0.5
▁dendri
▁scanning
▁competi
9),
amide
sych
DV
▁precursor
▁microtub
▁infertility
FU
▁enamel
6-
▁ipsilateral
till
▁GAD
▁92%
▁paradox
▁sodium
▁membran
▁deterior
▁68
▁radioimmuno
-2.
othal
itidine
onset
▁leukotri
1),
▁hipp
▁Hear
▁pellets
▁diffuse
▁lymphoma
▁epidemiologic
▁assemb
▁(4
▁contralateral
▁contractile
▁stu
▁transcrip
▁requi
▁13%
ATP
▁duc
▁tyrosine
▁increments
▁shif
▁yiel
▁analogue
ocyte
▁chamb
oreal
-2,
▁Survival
▁kinetic
(1
1/
-1.1
▁metabolite
40
▁reac
brain
▁48
▁cutaneous
▁practic
ifedipine
▁ascertain
▁400
▁preparations
venous
▁serologic
▁construc
Pa
aminop
▁obstetric
ighted
▁amph
thase
▁exposures
ximum
▁benzodiazepines
▁tetr
▁HC
▁reticulocyte
▁104
▁comparisons
▁percentages
▁0.5%
acrine
▁lute
▁sti
yzed
clo
▁athe
ochemistry
▁spasm
athy
▁reflecting
▁anticoag
▁inhibitors
▁20-
trop
▁susceptibility
▁11%
▁oxytocin
tron
idone
▁cerebrovascular
▁LM
▁attain
▁Elec
▁ultim
▁methotrexate
▁ingestion
▁coh
▁grading
▁peri
▁perit
ochrome
tric
kDa
converting
▁hepatic
-100
ogenicity
4%)
tub
▁antiserum
▁immunodef
▁monitored
▁electroph
absorption
▁markers
▁anesthetized
▁infusion
▁Thirteen
▁neoplasia
tion
▁pretreatment
▁epitopes
ventricular
▁antioxid
lycer
▁immature
tif
▁phospholipid
▁21%
▁supplementation
▁distal
pran
terol
tiz
▁bromocriptine
▁nasal
IgA
lamp
▁posi
DNA
▁105
▁brady
▁furosemide
iol
▁catalytic
▁vulgaris
gene
▁pyl
▁distin
▁pneum
▁(3
idate
-5)
istar
illin
micro
▁effector
eptic
▁differen
oluble
opro
▁elevation
▁canine
▁assessments
▁citrate
▁supplements
operatively
▁25%
▁lamin
▁sampl
▁ventricle
▁serum
▁natri
▁reliability
▁pyrid
cardi
lood
onit
▁7.5
▁bowel
▁thereafter
%).
ejun
tosis
▁.0
uppression
▁95
ymptomatic
▁differentiate
▁polymerase
taken
▁retrospective
omized
▁glycosylated
acchar
▁adi
▁IgA
▁inver
otoxic
▁ICU
▁9.2
otoxicity
siveness
ochem
yste
tening
▁arthritis
68
aminergic
ffinity
antial
▁modalities
ensi
▁latex
osus
8%
▁exogenous
▁residue
▁glutamic
▁microscopic
erb
▁estradiol
mobil
▁pate
reas
▁phospholip
▁2.
▁2-
▁socio
▁predictors
▁antigen
posure
(+)-
▁neurones
▁Meas
▁diffus
▁potassium
arial
GH
▁phy
iciently
uoden
uvate
▁percutaneous
▁(75
rological
etine
tent
▁surgeons
▁symptom
ifed
zymes
▁dissemin
▁phorbol
geal
▁accumulation
-0.
▁identi
▁gangl
▁correlations
▁abdominal
▁tes
▁intolerance
ipitation
▁alcoholics
▁sucrose
▁7.1
▁90-
▁anticoagulant
▁evaluating
ophy
▁puncture
injection
ocarcinoma
▁TGF
cyt
▁synerg
▁5.5
▁staining
▁intracranial
12
sian
resistant
▁diabetic
▁65
49
-0
oplasm
▁incid
▁uncomplicated
▁amplification
▁rotavirus
▁55%
▁promin
hep
tizing
ostatic
▁solub
cemia
▁blockade
▁acces
cyclic
dial
rays
▁triglycer
▁Multiple
▁xyl
▁leukocytes
▁screened
▁valu
▁phosphor
▁salbutamol
tropin
▁homogene
BH
▁hemodynamic
▁carbohydrate
▁insertion
▁angioplasty
▁thi
▁adren
glut
▁Increased
▁3.5
▁residues
OA
phyloc
▁polypeptides
▁percentile
angl
▁53
▁schedules
eal
phor
isol
▁dihydro
▁intran
30
▁Ace
▁protr
olec
▁ATPase
tead
▁3.0
▁phosphorylation
oscop
▁PGE
▁erythrocytes
▁prospectively
▁[3
▁adip
-7
▁allergens
▁excretion
▁enteric
▁progen
jected
▁accel
▁stimulus
▁pulmonary
▁phosphatid
lude
-15
▁conformation
▁distinguishing
▁peritoneal
▁91
tiv
▁25,
▁simplex
lycerol
▁embryo
.6%
orbent
▁11.5
▁tryp
▁discharged
▁inactive
▁quantif
odon
▁abnormally
▁thresholds
▁adherence
▁47%
truc
]-
▁estrogen
▁concurrent
etan
erin
▁TNF
▁neon
▁successive
▁exce
▁inhibit
▁TSH
▁thrombocyt
▁lesions
reactive
▁salivary
▁0.75
anking
FSH
▁inconsistent
essel
eration
▁challen
bral
anding
▁1.5-
▁investigations
-3.
▁meningitis
raine
▁atypical
▁0.03
▁hydroly
▁neutralizing
rotid
vular
▁inducing
opo
yel
▁ferritin
tabol
▁homogeneity
immun
▁distrib
▁incubation
▁epidemiological
ococcal
▁ADP
▁implicated
▁innerv
▁kidne
▁intravenously
erance
odop
▁currents
▁glyc
▁strep
▁infused
osts
monary
tic
▁20.
▁parac
▁Subjec
▁inflammatory
▁eti
▁reperfusion
▁nitroglycerin
cents
▁lutein
▁incomp
▁antibodies
▁restenosis
▁embryonic
▁gestational
tering
abain
▁prosthe
vated
▁PAF
▁kinase
▁ampicillin
▁bronchial
leb
▁arachid
vation
▁phosphate
▁13,
hyp
onad
▁DMP
idase
▁predictor
ischemic
▁affinity
admill
▁secrete
orphine
▁168
▁inversely
assay
-12
alian
▁psychosocial
ygen
▁ablation
▁220
▁HSV
orec
▁83
▁ganglia
ituitary
ylcholine
▁irradi
▁definitive
▁headache
▁embolism
▁hepatocellular
▁ovarian
▁sensitivities
▁summarized
oxifen
▁recons
ietic
▁-2
▁echocardi
ergy
▁fibrin
vaccin
▁46
▁qualit
5%)
▁synovial
roma
▁bir
.9%)
zard
▁25
-2
▁thrombin
▁oxidase
▁ligands
▁attributable
▁pharmacokine
▁thromboemb
▁guan
▁progres
▁0.17
-50%
▁inflammation
angiotensin
▁prolif
ocortic
▁fetus
sess
zyme
osamine
odium
ophageal
omotor
0.8
/4
24
16
▁(46
▁(150
gression
▁4.6
▁metabolites
▁trimester
▁centr
▁(5
▁hazard
ofl
▁bile
▁canc
▁fluoride
▁trypsin
▁ovari
itus
3%)
▁triglycerides
▁inappropriate
▁eluc
▁14%
opr
ternational
-3)
▁recurrence
▁thir
Hb
▁alterations
yroxine
aund
▁(40
▁gonadotrop
▁haem
fib
▁atheros
▁Forty
▁ascorb
▁microM
▁dissociation
rowth
▁pharmac
▁encephal
▁OC
▁erythromycin
▁58%
▁wee
77
odipine
▁rectal
▁neurotrans
▁2.5
0%.
▁1988
osition
▁immunosorbent
tency
▁monocytes
ereb
phosph
orpor
▁seroton
quit
▁HBsAg
RNA
▁memb
0%)
▁immuno
▁0.000
acterial
▁81%
essation
▁antidepress
oproterenol
olytic
▁reduc
▁perforation
▁aerosol
▁trac
olarization
▁positively
▁84%
brile
▁reticul
▁38%
▁fung
▁ligand
▁2.5-
▁perinatal
▁extracts
lobulin
▁70
urgery
dine
▁ventral
▁palp
▁dehydration
▁nmol
▁cultured
yx
Hg
▁carotid
▁commerc
▁2.6
▁Immun
2%)
▁inters
▁influenza
▁peripheral
eptid
epithelial
▁duplex
▁extraction
▁plasminogen
45
scop
▁insulin
▁fibrosis
▁entero
carinic
▁ionized
illary
acin
▁proliferative
▁hemoglobin
▁clinics
▁plaques
▁manipulation
TSH
▁LR
smokers
▁discontinued
olism
ods
▁bovine
▁mitral
▁ana
tious
acetyl
▁(2)
▁anomal
▁Positive
▁incub
▁bicarbonate
ulant
▁dopamine
▁resection
vents
loxacin
▁verte
ritin
ocardial
▁deficit
▁phenotype
▁clonidine
▁chond
ulla
ysm
▁extrap
itoneal
▁glands
rowing
▁30-
▁30
▁behavioral
▁indicators
▁tibial
▁aspec
▁saturated
▁expressing
▁3
usp
athione
gluc
4,
5%,
occal
▁genital
▁22
onin
▁lupus
▁incubated
▁intraven
▁fas
mediately
▁carbox
▁intraper
▁NSAID
▁glucocorticoids
▁pati
▁Relative
▁neonatal
▁inositol
▁(42
▁receptors
▁ANF
dition
utaneous
ocamp
luding
▁alveolar
▁inversion
infected
oglyc
▁relapse
▁0.15
▁panc
▁localized
rocyte
gment
▁diazepam
ellar
▁mRNA
▁(7
▁Ninety
▁optimum
▁quin
/3
robial
0,000
▁axons
80
▁7.2
▁outpatient
/12
▁cytoplasm
▁amn
▁ligation
rance
▁sequentially
▁sial
illation
▁dietary
▁abd
▁CN
▁intracerebral
▁toxin
▁occl
6).
gthen
▁cytochrome
▁beha
▁mU
organisms
▁(38
▁washout
▁restric
▁(95%
▁anesthe
razole
▁38
feron
▁TP
▁bran
▁selective
apeutic
adrenergic
timal
▁spontaneous
uccess
▁colonic
▁alteration
18,
anol
0%),
▁neonates
lyce
▁necrosis
uscular
otrop
▁ranitidine
▁Caucas
ocardi
▁hormone
▁serotonergic
▁pancreas
icillin
▁retur
▁methyl
▁multivariate
▁selectively
tization
▁predominantly
-2-
▁Seventeen
erox
▁congestive
▁histology
▁prescribed
oag
traumatic
▁42%
▁adhe
▁discus
flammatory
▁immunoprec
▁CRP
eptides
▁isoproterenol
▁advan
roph
▁crossover
ermal
icardi
▁casein
▁normotensive
▁regimens
▁3.6
clerosis
▁immunore
▁Chan
▁79%
▁postin
▁mellitus
▁caries
anin
▁Higher
oA
imeth
aicin
prising
▁homogen
▁astro
65
uted
▁20,
▁labelled
▁adjus
▁5.
▁malignant
▁transloc
▁respec
▁adulthood
▁TC
▁Insulin
▁ile
iatric
▁suppressive
illus
▁pla
▁7,
▁deletion
▁enrolled
amycin
salt
phen
titution
▁contrac
▁deform
▁insufficient
▁immunos
▁endothelial
HDL
▁ejac
cortisone
mediated
▁brom
▁Severe
▁definite
roximately
▁poten
▁adipocytes
expressed
▁dissec
▁Afric
▁identif
▁mortality
plementation
▁alk
▁oste
▁50%,
▁disturbance
▁coordination
▁cows
70
▁statis
▁5.0
▁discom
letion
astolic
▁pituitary
embran
8)
▁gels
▁clearance
21
▁Hep
▁nadir
acting
▁cytoplasmic
▁previ
▁muc
/7
▁carbohyd
certain
▁diarrhea
▁33%
▁tumour
trogen
xime
.7%
▁IGF
▁audi
▁hepatitis
▁microb
▁angiography
▁10%
lies
olig
▁hypercalcemia
tumor
▁oxygenation
.00
▁specimens
wes
opathological
▁mammalian
▁196
90)
▁(24
▁defec
▁hetero
▁pressures
▁dysfunction
▁thrombosis
mend
ayers
▁45
thre
oretically
▁multicenter
pregnant
▁chec
▁glomerular
epines
▁Plas
activated
▁refrac
bility
▁nucleotide
▁lep
▁cef
▁ae
95
▁10(
▁nonc
66
▁monol
▁32%
▁57%
▁3-
chlorothiazide
3-
▁intermedi
▁bene
▁(13
▁ach
▁yielding
▁remo
▁sorb
-50
ameth
▁adop
esti
▁30.
trac
1).
▁60
▁spectroscop
▁antigenic
▁hCG
armac
▁(1.6
▁Calc
▁hydrox
acental
▁115
▁cathe
▁hemorrhage
▁excluding
Ts
▁lumb
uble
yclic
▁secretory
▁autosomal
-70
▁endoscopy
4%
▁reversible
▁41%
▁80%
▁17
▁limbs
▁2.3
/8
▁Tran
tural
labelled
▁ulcer
ogenesis
▁grains
▁5.3
ration
▁(23
chlor
▁vitro
▁molecule
▁esters
▁unaffected
ropine
▁chromosome
▁ANP
cellular
▁tamoxifen
▁resistant
aminase
▁degeneration
▁glucocorticoid
xate
▁secreted
pregn
obl
▁1.5
1%
▁clon
▁glomer
▁scre
▁converting
▁cellular
▁DBP
6,
imens
▁cyclosporine
▁dissection
▁congenital
▁19
parathyroidism
▁hepat
▁implanted
duction
vul
▁doses
▁4.4
olol
▁keto
▁ect
loid
▁fractions
acted
aturity
▁circumference
ocaine
opha
▁Km
▁NP
▁44%
▁semen
▁saline
assium
▁reper
ichia
▁4.2
▁bup
▁31,
▁terat
▁marginally
xone
▁actu
▁ascer
▁Significantly
▁enalapril
▁arti
blocker
rometry
▁occurrence
▁cortical
▁8.4
romycin
0.3
▁130
bacco
.8
▁6,
oneph
▁stimulating
▁rati
actin
▁coli
▁initiate
hydroxy
▁reflex
lated
8.
▁possi
▁superoxide
esophageal
▁spikes
▁glut
▁7.8
uron
4)
86
▁600
▁MM
▁traum
wk
▁59
▁inhibited
orphin
▁Consequently
alact
peptide
▁dialysis
ATPase
▁elic
▁uter
▁stimulation
▁potenti
containing
▁diarrh
▁ciprofloxacin
epam
▁exclusion
▁yeast
asic
▁biop
▁transluminal
55
▁prognosis
▁renin
18
enic
▁52%
▁inflamm
▁conclu
▁electrolyte
▁paren
▁formulation
▁carbam
estion
▁physiological
▁depolarization
▁PRL
▁exer
▁(10.
▁kDa
ffer
TG
▁exud
ohyd
6%
▁luteal
▁esterase
▁anat
▁clinically
oglobin
▁hypot
produc
▁enhances
regn
▁infectious
▁contral
▁defects
usate
tative
▁hybridization
▁fluores
tration
▁hippocamp
▁88
▁1%
▁conjug
reness
thirds
itonin
▁histological
strain
13
opi
ronectin
▁musc
thrombin
▁leukocyte
▁intrav
▁caffeine
achn
▁stenosis
▁mell
▁cumulative
EG
pendent
▁undere
▁58
▁synthetase
▁peroxidase
▁28
Gs
▁provid
luded
dor
▁apo
feeding
ecal
▁Bacter
▁mediated
▁emo
roscopically
▁autoradi
▁sequenced
▁anatomic
ompan
urther
promoting
ystic
▁1.5%
▁derivatives
corrected
▁complication
▁neuronal
andida
▁initiation
ogenic
▁minus
▁squamous
▁(26
▁abnormalities
▁0.001).
▁exis
▁adjustment
▁monit
esium
▁tas
inergic
phosphon
▁usefulness
restricted
7-
merc
ocar
rected
tant
▁enal
5-
▁Intr
▁degrad
▁84
4;
tries
▁granul
Cu
-45
58
BV
entia
▁immunoglobulin
▁docum
▁0.3
▁calor
receptor
▁5
venty
esin
34
▁gases
▁8.6
▁coenzyme
▁abnormality
▁inspiratory
omethacin
▁pacing
▁locus
▁hyperg
▁prenatal
motic
▁progesterone
▁subsets
▁effic
▁ions
ionine
opathic
▁surgical
▁26
▁tracts
▁judged
induced
nine
▁paroxys
▁newborns
▁retrospectively
▁10-
▁follicles
lusion
▁Fourteen
▁toxicity
▁2.7
tivities
HF
▁WHO
kephal
▁soy
ogra
▁24,
▁0.8
▁Golgi
bic
▁ket
xia
0)
▁cate
▁hypoglycemia
▁bip
tized
▁veins
▁saturation
▁recruited
▁randomized
▁tran
erge
ventil
▁algor
▁perc
▁hereditary
▁precur
▁leukemia
▁modifying
▁cleavage
ardia
▁arteries
▁10
kelihood
▁isolates
▁satis
idation
occus
▁0.14
embrane
▁transcriptional
▁functionally
▁smears
-1)
cus
generation
▁abor
▁LC
▁herpes
acet
▁0.09
5),
ospasm
uprofen
▁transplantation
▁tiss
▁hered
▁antic
▁Reduction
/-
▁dyspnea
▁horiz
▁56%
▁78
▁Neu
-65
▁capillary
tance
▁amino
▁hemo
▁substances
▁pathologic
▁233
atinine
▁1)
amel
▁macrophage
▁heparin
odds
ominant
▁eryth
▁reflec
years
▁unex
pli
▁bioavailability
▁interv
▁VO
▁durations
▁iso
-4)
▁developmental
▁mucosal
8%)
▁onset
▁persist
▁produc
▁avoidance
piration
oic
63
▁menstr
urrent
▁22%
▁retinal
traum
▁polyethylene
6.
▁Scale
▁dorsal
▁pathology
▁accounted
▁cirrhosis
▁78%
5,
blind
▁fibronectin
plemented
▁determinants
▁confirms
▁depolar
▁comple
measured
▁(17
partate
▁eccentric
▁resis
ucas
irc
▁NaCl
▁15
hetamine
▁reproductive
adm
▁pathological
arrh
▁suppression
▁AIDS
▁73
▁fractures
▁sampled
▁69%
▁methodology
▁Haemophilus
cholesterol
▁1.1
iasis
▁susceptible
90
▁promo
idis
▁97%
formations
▁hemorrh
organic
▁82%
reased
astom
glucose
▁genotype
▁1.
▁albumin
▁immun
atoid
onstric
ophys
molec
▁Subjects
osyl
▁RA
▁73%
▁sugars
yrib
▁retention
-16
apanese
opamine
▁epithelium
adjusted
▁endo
▁fibroblast
▁106
▁colitis
ontal
76
9)
▁32
utable
▁propor
▁0.06
comitant
▁500
▁39
otides
iazide
carb
▁aberrant
encephal
illar
▁biochemical
toxic
▁8.2
▁microscopy
versely
-30
▁differentiated
ecu
▁enl
.9%
▁smear
▁stimulate
▁cyclo
plants
▁eosin
▁metabolic
▁bic
▁biosynthesis
▁IU
olesterol
▁gastric
▁18
▁potentials
pinephrine
▁135
▁targe
9,
▁prolonged
othi
▁muta
▁(1)
▁3)
▁dye
▁omega
oceptor
▁Initi
▁intrac
▁0.1,
hydrop
▁preferen
▁111
▁torsion
amino
iline
▁(56
ureth
▁instrumented
▁ACTH
▁promoter
ritic
450
oste
46
Ds
▁polyp
▁0.05)
▁competence
▁cloned
agic
odil
▁clus
1-
ariate
▁(12
0.6
2.
11
stimulated
▁qualitative
▁24%
0.
ditions
▁ischemic
rever
▁prednisolone
▁antibiotic
▁excitatory
▁100,
▁prevalence
▁chemically
▁favorable
▁enzym
▁extrac
▁sheath
▁aspartate
▁gastro
adequ
▁stren
enicillin
▁cardiovascular
▁undertaken
▁infar
▁tubular
▁hypothal
cribed
ospitals
fetoprotein
▁correlated
odic
phasic
▁2.9
▁(10(
kinin
▁maternal
▁lith
▁junction
▁280
ximal
▁chromat
▁femoral
atest
52
nisolone
▁nm
▁socioeconomic
▁allergic
▁resec
vival
▁cyt
▁5%
▁ori
▁quanti
▁uv
fusion
▁myel
planted
▁13
▁plateau
▁resour
▁metoprolol
▁undergone
cysteine
tase
▁decarboxylase
▁0.02
▁perfused
labeled
▁suscepti
▁spati
selec
ropyl
▁Factor
respective
▁intramuscular
clinical
urys
ylamide
▁threefold
▁hygi
▁reductase
▁deoxyrib
patients
▁atopic
pir
▁studi
anthine
acerb
79
▁chromosomes
▁shortened
iagn
seud
▁0.001)
▁drainage
eric
▁Hz
▁spor
▁136
▁0.7
▁precursors
tec
▁maneu
omiting
▁lis
▁enzymes
▁11-
arean
▁reacted
olamine
osocial
▁3.7
aemia
roscopy
▁cholinergic
opathy
▁(0.4
0%,
ffin
▁streptococci
▁CAD
▁slices
▁rup
▁airway
▁LT
▁137
thmias
▁(27
▁35%
▁subcutaneous
promazine
▁Increases
▁simultaneous
▁72
▁fati
invasive
▁leakage
rosis
▁Evaluation
oconstric
▁extre
▁yielded
▁62
▁hyperp
eces
▁improves
7).
sors
▁lamb
▁5)
▁metast
iability
▁cytotoxic
50)
▁109
▁captopril
cine
fts
urate
▁350
▁assays
▁Prel
▁CG
▁hematoma
▁rats
▁folate
entile
▁potent
▁2000
▁cran
▁immunotherapy
▁NADP
▁10.5
ecre
▁36
aginal
.4%
▁(100
▁Leu
▁suction
7,
▁Clinical
▁cereb
▁spinal
0.9
▁compe
▁impairment
.5
▁Thirty
▁preventive
6),
onyl
ipit
ergency
tigu
▁imipramine
▁fertility
▁desm
inephrine
vely
▁physiology
▁hyperthyroidism
trate
▁RR
▁propionate
erent
▁termination
▁coagulation
2;
owel
▁expres
erative
▁numb
▁efflux
tives
▁critically
▁myosin
ymptom
▁schiz
eptidase
▁illnesses
inemia
sue
▁intrauterine
▁lam
▁sexually
adder
▁4%
resist
eptide
▁seronegative
overed
▁kine
ocyt
▁tuberculosis
aryngeal
tation
regulation
1.
azolam
echanical
▁transmitted
Bs
▁creatine
▁saphenous
▁0.25
▁adequ
▁mec
▁AFP
▁98%
uting
drug
▁transfusion
▁amput
▁0.30
inyl
▁aspiration
vic
chol
▁encomp
athetic
▁anhydr
14
avage
▁virtu
▁noninvasive
▁depressive
urine
▁arteri
▁sci
titis
▁contracep
▁rabbits
▁outflow
▁responsive
▁occult
▁bronchitis
▁bactere
▁6.5
▁withdrawn
▁mutant
▁reser
▁inactivation
▁10,000
▁flexor
▁parame
▁comprising
ropha
gth
iloride
▁extracorporeal
april
gents
▁encephalopathy
▁morb
▁ester
▁apical
hydr
▁17-
▁differenti
plas
▁aluminum
▁immunized
-60
▁0.6
phosphor
▁93
▁89
olated
▁predominant
cessive
ureus
▁attrib
▁carc
clic
▁radionuclide
dle
osin
▁DF
▁plaque
▁enlargement
lymph
▁mV
▁satur
▁dermal
▁protease
▁197
flamm
PCR
▁skeletal
▁interferon
cious
▁FSH
ectom
minis
▁spleen
ophilus
-90
▁buc
▁EG
▁hydrophobic
ophren
▁anaerobic
▁ESR
rele
▁injections
▁enlarge
▁mononuclear
oxazole
▁recurrent
▁glycol
aryng
sies
oplasmic
▁heavi
anic
▁frac
▁instrum
▁inten
atation
▁71
mentation
▁bathing
▁capsules
▁lysis
▁microscop
▁sympathetic
aternal
▁cartilage
3.
ordance
▁5-
▁76
▁retinopathy
96
▁interfer
▁isoform
rates
ulmonary
74
▁hypotonic
▁51
idic
llate
trover
▁54%
▁infarction
availability
▁immunogenic
▁targeting
▁3).
▁vaccinated
oprolol
▁probes
icine
▁proce
▁Mortality
▁transient
▁0
▁Increasing
▁polysaccharide
-35
onary
thromb
immuno
sus
ropathy
▁hydrop
▁cG
▁natriuretic
▁(2.5
▁caloric
▁multic
galy
ecretory
▁mobilization
achid
▁histopath
▁10,
adrenaline
▁adenocarcin
▁deli
▁selec
ameter
tics
22
atell
▁199
coated
▁2.4
▁TRH
▁regulating
idne
oclonal
▁elu
abd
▁hepatocytes
▁oocytes
umerous
-1
▁60-
spectively
▁normo
osterone
ncy
terase
▁arose
▁infants
yridine
▁postmortem
.1
derived
ritis
▁deox
anine
otoxin
-14
apamil
▁1985
▁4.8
▁76%
▁chromatography
▁severity
▁stimuli
27
▁Subsequent
▁malignancies
▁stratified
▁latent
▁nifedipine
▁2.2
onvul
▁0.0
▁uniformly
upus
coh
▁visualization
▁125
29
osynthe
▁29%
teroid
▁Doppler
enteric
tition
▁glycoprotein
eared
atab
opres
▁amniotic
▁uric
asone
▁Preliminary
▁aden
▁ald
▁jaund
15
▁allergen
▁0.08
ochrom
▁17%
▁leukotriene
tein
ticular
▁arous
▁sepsis
aemic
▁recombinant
uresis
▁alanine
▁manifestations
erated
▁referral
▁affinities
▁bloc
ipro
▁ulcers
odine
▁ECG
duced
▁sedimentation
tingu
▁uterus
▁gp
early
▁instruc
hospital
▁PB
▁tumor
▁hypoxic
▁underst
-4-
▁differentiation
▁cholesterol
▁5'
▁adrenergic
51
oxide
▁auditory
atrial
4),
▁concomitant
rosine
pine
releasing
▁fibres
dehyde
▁malignancy
97
ovirus
urgical
▁synthase
▁analges
▁9.5
▁bilirubin
wenty
ifugation
▁19%
▁Bac
00,
▁proteins
▁stimulated
▁GnRH
▁topical
plasia
ionic
▁86
▁gamma
▁disapp
▁melanoma
▁antibody
▁deficiency
▁70%
▁0.5,
▁purified
tive
▁organs
fraction
tively
▁postoperatively
idin
amus
▁90%
▁(21
roxim
achol
▁histamine
▁physicians
estis
tetr
arate
mol
▁putative
ughter
ller
onomic
ensitivity
▁neutrophil
iminary
▁creatinine
▁67%
▁mitochondr
▁trig
phenyl
farction
▁incomplete
economic
▁nicot
▁(0.5
acr
▁recor
eded
▁pediatric
53
▁GH
▁criterion
▁erg
▁influenzae
▁molecules
▁concom
ithelial
▁chloramphenicol
▁prospective
▁sph
▁obser
lux
▁substrate
▁12,
▁tymp
sulf
valence
▁antiser
▁phosphorylated
▁implic
▁2
23
▁16,
▁contamin
▁capsaicin
mortem
▁osm
▁prostate
▁ankle
▁(25
▁murine
▁recipients
gland
▁proteinuria
▁cysts
▁unilateral
▁80
aryl
tage
▁ech
▁hygiene
-13
▁irregular
esic
▁rejection
phal
▁dextro
brom
vascular
-24
2+
helial
rofen
LV
▁regurgitation
opressin
sant
▁glutamate
▁18%
▁91%
▁vaccin
50,
▁1.6
▁monke
▁1500
▁sediment
▁tendon
▁benzodiazepine
▁esophagus
openia
-19
▁52
▁derm
▁77%
▁erythrocyte
thmatic
idated
inositol
4-
▁infarct
▁proton
▁diame
glyc
▁bacteremia
▁kappa
▁Treatment
▁helical
▁GABA
▁Americ
▁adenylate
veolar
orated
▁collec
tur
▁blockers
+)
-1,
▁systolic
▁bp
▁nicotine
▁efficacious
azol
ocys
▁equilibr
▁dehydrogenase
26
▁hemorrhagic
methyl
ymme
plast
ylline
arrhy
▁108
▁idiopathic
▁140
▁elimin
▁rhe
▁glycoproteins
88
▁fluorescent
▁testosterone
▁sedation
▁persistently
▁97
▁8
▁hypothe
bac
▁Transi
▁hospitalized
▁8-
aturia
▁clot
10-
tate
▁autoimmune
versity
▁MHC
▁0.20
▁lact
▁pharmacologic
lasts
▁therapeu
amate
▁thyroid
otide
▁neoplasm
▁lipophilic
dia
lier
▁resemb
eliac
ayed
▁HLA
phyl
▁Combined
▁calcification
opus
▁simult
▁700
▁infil
▁balloon
▁obstruction
▁substitution
tents
trition
▁recr
bearing
▁spleens
▁perox
▁decarbox
▁evol
▁deterioration
amphen
▁heterozygous
osal
omal
rati
unctional
▁insoluble
▁platelet
▁pharmacokinetic
▁tetrac
▁160
▁40
otropic
▁concep
triglycerid
▁examining
ethyl
kets
▁medial
▁multiv
▁glucagon
▁initiating
▁examin
tical
▁myc
▁revascular
▁membranes
▁Patients
▁electr
mature
▁clones
cepti
erebral
▁(32
▁Fib
▁biphasic
▁acetyl
▁(4-
directed
asal
▁12
▁nonpregnant
▁HL
▁elevated
oxygenase
▁corticosteroids
idazole
▁Abnormal
thmic
▁regimen
▁cation
▁serine
/6
▁palsy
▁cortex
▁11
atment
▁macropha
lactam
▁pathophysiology
▁controver
0.7
▁plas
arbonate
▁bradycardia
▁microgram
▁morphology
onephritis
▁subf
▁interf
▁cavity
8;
▁Hyper
acid
▁0.05
itin
▁arachidonic
▁gonadotrophin
▁IgG
▁islet
▁tol
▁4.
▁interstitial
mL
▁immunization
▁interc
tero
▁ank
▁mann
▁nocturnal
▁familial
▁74
▁diastolic
hydropyridine
▁potency
▁fracture
adian
genic
▁Chronic
▁conduc
▁effusion
-10
▁7-
▁vesicle
entified
tained
ctomy
▁agglutination
▁hyperthyroid
▁gynec
▁contaminated
tensives
▁insufficiency
▁acetic
▁correlate
cephal
▁cytoch
▁4).
irub
▁31%
▁supra
▁fluoro
MDA
▁nausea
61
▁gradi
▁1.9
0.4
▁neoplas
▁adul
ymp
affected
sions
%),
sensitive
▁radioactivity
oxin
▁endemic
▁ejection
▁Lymph
▁allergy
onography
7.
▁93%
▁cytosol
▁gradual
tel
▁Leuk
endri
▁rheumatic
▁GTP
ilization
avail
mega
▁somatic
▁cla
▁preterm
▁antiarrhythmic
odia
▁6.1
olone
▁1.2
▁EB
▁detec
▁gestation
▁6%
▁cytotox
ovascular
retic
▁tach
50
▁autologous
kele
28
▁adverse
▁intravenous
▁tec
ophag
truction
tradiol
▁BAL
6%)
loro
terminal
▁Acad
▁0.35
▁phag
▁fatty
romy
▁poorer
oratory
▁validity
▁glycogen
tention
▁deposition
teroids
▁inhibitory
▁dermat
insulin
▁ACh
▁disclosed
tiveness
▁Functional
▁acidic
ostatin
▁discrimin
▁decreases
▁alcoholic
pig
▁2,
▁antagonist
▁dex
▁subunits
▁transaminase
▁gon
ealand
ogl
▁IgE
▁Myocardial
