▁vaccination
▁hepatotoxic
▁attainment
▁molecule
termined
clin
▁pea
hydroxyp
▁revised
▁overe
▁pediatric
▁etretin
▁1,25(
ecan
.1%
▁ampicillin
▁abnormalities
▁65%,
▁condens
▁([
▁intraven
▁5'
▁excretion
▁levodopa
▁adequ
▁soleus
▁alteration
turb
olus
50.
3-4
▁fibrin
phosphon
▁antidepress
▁vaccinated
poor
▁metatar
isole
▁Pharmac
▁hypotension
induced
▁1.5
▁pancre
lication
specifically
▁sedation
▁clinics
▁adrenal
▁progestin
▁rup
▁comparative
▁clom
▁micron
▁antibiotic
▁strepto
▁centr
dominal
thrombin
amilton
romes
iability
▁infusions
▁lumbar
upus
▁prol
▁contraction
150
▁kappa
▁440
▁institu
▁immunoprecipit
▁menstruation
▁293
▁drip
▁pancreatic
▁medulla
▁propionate
(2)
amisole
▁(500
▁22%
▁filaments
oxic
tified
▁underst
▁cytochrome
▁balloon
▁crosso
▁antidepressants
▁0.87
▁antiser
▁smo
▁adrenoceptor
▁sodium
▁(400
▁gonadotrophin
▁fibers
▁sebaceous
▁Immuno
-(1
▁latencies
4)
▁diaz
istar
▁glycol
▁bilaterally
▁2000
▁regulating
opulmonary
▁constituents
itro
▁Optimal
llate
urred
/3
ecal
21)
regn
▁myelin
▁tracer
▁splenectomy
▁cleaved
▁0.91
atell
▁mutagen
▁0.1%
ayed
▁Depending
▁iodide
▁iden
GFR
▁catabolism
urgical
▁ophthal
▁sciatic
gression
▁lupus
▁sinusitis
▁4)
-34
▁diastolic
rofen
thymidine
▁immunofluores
▁bleomycin
▁supernatants
90
▁Combination
▁cavity
uling
peak
▁tuber
▁(2.5
▁norepinephrine
▁determinant
lysine
sul
17
▁melan
rele
▁potency
▁2.4%
▁0.34
▁transpor
▁phi
romyces
.0
▁Calc
▁Higher
▁warr
▁oxym
omegalovirus
▁prednisolone
ergency
ulla
▁persist
chymal
▁EF
▁fractions
▁infectious
▁metabolized
▁acetaminophen
,000
▁(80%
▁12%
▁spermatozo
esium
▁(24
▁difficul
▁cyt
▁interpretations
▁decarboxylase
ilical
▁120
▁ovulated
▁142
ibrate
astatin
▁30.
▁2%.
tetr
▁specialty
acil
▁nadir
▁Prol
ontal
▁dox
▁adenoma
▁hepar
▁5
▁enriched
ucle
▁tolerability
▁0.64
ermal
rene
rachial
▁ventricular
▁trigg
tero
4,
enteric
▁cathe
orrheic
-16
▁Sixty
otox
▁candidiasis
hesus
amol
▁(68%)
▁secretory
entan
▁sacr
▁300
▁cortical
onas
ogenicity
Ls
acylglycerol
.7%)
▁persistence
▁capsules
▁electrophoresis
approximately
ogenes
▁diameters
▁polycystic
▁283
▁concanavalin
▁Biopsy
▁Acet
ilol
▁suppor
▁genomic
▁Strep
fos
▁secretions
▁phospho
▁pate
▁postin
adian
▁ulc
▁hypokal
▁beha
utyr
▁tryptophan
ergy
edded
ymmetric
▁chamb
trial
▁negligible
cortisone
filtration
istal
▁1/2
▁specification
Ci
▁tablets
rosis
▁neuron
▁hyponatremia
parathyroid
▁modalities
▁calf
menopausal
18,
▁11.6
▁dextrose
absorption
▁stepwise
trypsin
▁insec
-18
ocyanate
tions
▁TDI
▁Leu
▁organs
▁elevate
lyte
▁attained
▁feasible
▁subarachnoid
ypass
isolated
▁0.06
90,
▁62
▁iso
urgery
▁165
▁ectopic
▁specificities
▁Thirteen
▁24)
sial
▁4;
▁substituted
topril
▁gm
▁4.6%
▁inversely
▁invasive
ipolar
▁acne
thanolamine
uginosa
ostomy
▁fatigue
▁uncommon
▁transluminal
1),
▁heifers
▁aneurysms
▁adjustments
▁systematically
▁(23
▁Neph
▁Severe
▁endocardi
▁catar
▁pK
▁genic
▁44-
utyryl
omatic
▁OD
verbal
imbr
NK
▁undere
▁13.
olol
osyl
idem
▁clomiphene
▁imaged
tidine
▁ICP
uccessful
▁microscopy
irubinemia
ept
otoxicity
▁fluids
uretics
▁TSH
tations
▁Longer
▁CHD
▁compe
▁glutamine
▁nifedipine
went
osts
rocal
allikrein
▁mediators
▁prosthesis
▁vaginal
promoting
▁scinti
▁nonsmoking
▁0.48
▁palpable
▁behavioral
▁progression
▁dosing
▁intram
amicin
▁[35
▁ileal
▁IBS
▁endogenous
▁blotting
osarcoma
injury
chid
▁glut
prising
▁normalization
tisone
▁lessened
▁alleles
▁80%,
▁otitis
▁multicenter
-0.
▁vitamin
▁tamoxifen
▁routinely
53
▁comple
uron
▁immunodef
▁Cumulative
▁parasites
▁glomeruli
aptic
ensi
▁8.8
▁intercal
▁kain
vice
▁relapses
▁220
loro
▁alopecia
▁interp
▁(11
▁88%
osidase
▁HI
atients
▁corpuscular
administration
▁spati
▁10%,
▁27%,
▁synthesis
▁Efficacy
▁interfer
▁Subcutaneous
carinic
benefit
▁canine
▁subgroups
-1000
carbon
tiv
▁ointment
nec
▁preexisting
▁colos
▁serological
/-
▁methodological
▁erg
enching
▁degen
44
▁haemorrh
▁pancreatitis
IgM
amethasone
▁laparo
▁Effic
▁(1/
enem
▁prospective
28
▁6.4
▁coughing
intensity
▁liposomes
▁esophagus
emetic
▁midbrain
▁sperm
arrhythmic
duced
▁distin
▁crom
▁streptococci
▁1.56
▁ipsilateral
inopril
cyte
nucle
▁Ear
CDC
▁matur
opeptidase
▁disposable
▁pulses
valent
▁Simult
▁Electron
▁MV
itoring
▁urinary
▁200-
tro
▁68%
derly
cade
▁Doses
▁instrum
etent
tebral
▁2.6%
▁6.7%
▁typhimurium
cein
▁amiloride
▁prevalences
▁0.4%
▁52
ographies
olamine
/9
▁apoB
▁arteries
▁Eighty
glycerin
7%)
▁sugars
▁acqui
▁messen
lysis
aturation
▁neutrop
▁RI
▁anesthe
osage
▁poorer
▁phagocytic
▁Outcome
▁allele
40
ymp
▁SMR
▁inversion
rotal
▁HL
▁intolerance
▁angina
▁(67%)
▁assis
vaccin
▁homogenates
tradiol
▁Bmax
unctions
▁ventil
▁neurob
▁hygi
▁agon
▁minus
▁gluten
▁Diets
▁concordance
ventilation
7).
▁22
▁(86%)
rement
xone
lovir
▁congenital
▁smears
siveness
athione
▁salts
▁masked
inesterase
▁exhibits
▁thromboxane
assays
▁11.8
▁swab
▁Effects
zoster
▁restric
▁visualized
▁gangl
▁cyto
▁hypothalamic
fine
▁quiescent
▁perone
▁critically
▁ethnicity
atine
▁seroton
▁presumed
▁dermal
▁allergens
4),
notic
▁postoperative
ectomized
oderm
▁magnesium
mature
▁cones
▁lectins
▁gonadotropin
ture
▁ves
▁eicos
▁PTCA
fts
ophore
▁piglets
epine
▁larvae
▁muc
▁syngeneic
▁isop
▁490
▁contrac
tec
▁opioids
atab
orbent
▁practitioners
▁calmodulin
rhea
▁normals
igarette
1.0
athyroid
tration
▁CAD
▁hepatic
▁14.5
▁menses
▁9.5
▁compartments
▁polyc
ostatin
▁methodologies
minis
transformed
▁46,
▁neurom
▁elevation
▁threefold
▁109
cellent
ropath
chlor
▁granulosa
lym
▁linearly
▁10)
floxacin
▁hypocal
▁incis
▁BAL
restric
ynthe
▁(1,
▁constitutive
▁inactive
▁fluxes
▁splenomegaly
race
sorb
▁Forty
▁0.2%
▁hemodialysis
▁(1.0
▁6.8
▁physici
▁luminal
15.
▁(9
medicated
omann
▁Wistar
▁modif
enoid
▁ABR
seud
▁Screening
▁111
.4%
▁synthase
▁loos
▁regeneration
▁metastases
▁12,
ulinemia
▁helix
▁81%
LR
astric
▁thrombin
eptides
Ti
▁ineffective
▁bip
▁lisinopril
acholine
ispanic
▁azathioprine
resist
▁clonal
carb
ochromatosis
esarean
▁incidence
▁curric
▁thrombocyt
▁competence
▁resusc
▁0.14
▁therapists
▁inflammatory
phrag
xanthine
▁Topical
▁(84%)
▁ile
Ki
▁mRNA
rozen
atient
▁Hz
▁gyrus
▁extensor
▁adnex
▁cytoch
▁prescriptions
▁papilloma
▁9,
▁divalent
▁interc
▁endometr
▁0.75
▁polymorphism
electric
▁5.4%
▁recurrent
▁-0.
▁prostatectomy
keleton
86
▁Bronch
arental
▁dismutase
arthritis
▁sca
▁IGF
▁fetus
▁phasic
▁exchan
▁discrimin
▁abd
ughter
▁microsomes
▁tendon
▁ison
Leu
▁nedocromil
▁thym
▁206
-32
tance
▁MCV
ycin
▁15%.
ludes
▁multiv
▁apparatus
anserin
conjug
▁biologic
6-
▁diabe
▁sequenced
▁Ace
▁recurrences
arate
▁stoichi
▁chol
▁verapamil
▁(24%)
▁13.3
▁zoster
▁immunoblot
acental
▁actu
▁electrode
▁cycloheximide
▁prevalence
viron
▁(0.4
▁SRIF
0-
▁methylation
▁cytometry
▁fluoxetine
▁loci
ulence
velength
▁familial
▁3
smokers
ipitation
ophilus
positive
itriptyline
▁Transi
▁transformations
crip
▁Salmonella
▁crystals
adal
▁tiss
▁interstitial
roxic
▁modifying
chers
▁dendritic
tium
▁astrocy
▁100%
▁subtypes
▁nocturnal
▁0.6
▁PMA
▁Significantly
▁pharyng
▁thresholds
▁quadrup
▁pharmacokine
▁denti
sectional
▁encompassing
odend
deple
ystokinin
▁PKC
▁fibros
▁delaying
▁outlet
▁rearrangements
romised
▁haem
▁antisecretory
▁ipratropium
▁isotonic
▁confirmatory
▁radionucl
folate
yclo
▁osmolality
5%),
eptic
responders
125
▁vomiting
▁CTL
lowering
▁unclear
▁infused
▁intranasal
▁megakary
enzymes
▁98%
▁glutamate
▁morb
olitis
▁Chlamydia
increased
▁unlabeled
olism
opharynx
▁augmented
▁septum
.6%)
▁urtic
▁ulnar
▁Transient
ochemical
thin
-24
▁noradrenergic
▁vacuoles
▁315
jac
lated
▁sensory
▁extrav
▁thymus
▁amn
(+)-
▁calculi
ipheral
(2+)-
urrence
tolerated
▁unaffected
▁concomitant
▁excitatory
▁39%
▁7%,
rometry
attern
▁monkeys
pendent
nary
cephal
▁periv
▁bicarbonate
▁reas
▁twitch
ductase
acerb
▁deem
cis
▁49
▁tubule
▁cic
▁symptom
▁births
-22
▁diazepam
▁irrig
▁incid
▁endotoxin
▁CK
▁polypeptide
moking
▁Depression
▁valves
▁dendrites
▁blots
▁fibrils
PKC
▁MM
▁referrals
▁trichloroacetic
phrine
▁immunosorbent
▁analytical
▁ischemia
cessive
▁antenatal
▁slows
▁NMDA
▁contraception
▁multivariate
molecular
ulant
iotic
▁hepatomegaly
ovascular
CHD
▁eradication
▁poten
▁(76
▁hybridized
▁Compared
amide
moid
▁PEG
▁Acad
▁(2),
▁Combin
GH
7%
atrop
▁harves
▁CU
▁terminals
▁Maximal
20
▁euk
▁dilat
▁42,
▁dizziness
oag
HF
▁gyr
▁CMV
▁0.19
▁postsynaptic
▁Sulf
▁ibuprofen
▁interpre
▁absorp
FGF
▁neoplasms
▁myeloma
▁ack
▁avid
48
▁methacholine
encephalon
adenomas
▁Ade
▁clonidine
▁labelling
enopus
pretation
▁dele
▁stimulants
▁56%
ischemic
▁embryonic
▁obser
unced
▁inoculation
▁255
edle
▁exacerb
▁worsening
▁tendons
▁heterologous
▁17%
▁assessing
tam
▁pallid
bronchial
▁preserving
▁immunogenic
▁catheter
▁leukaemia
visc
olec
▁6.7
▁resuscitation
▁2.1
▁1.01
deriv
individual
▁Replacement
/6
angiotensin
azepam
rophob
▁autoradiography
oxyrib
specified
▁interf
din
mL
▁kine
▁subunit
2.
aemic
▁sti
▁subpop
▁mediate
▁139
▁pressor
ocyt
▁confers
▁osmotic
▁thyroid
planchnic
5;
▁(70
cardi
.2%)
akary
▁8-12
▁subfractions
ypical
ompan
▁certainty
▁3%.
▁depended
▁occlusion
ticular
bloc
▁EMG
Ni
ellum
▁thalamus
opr
23
tep
surgical
rents
▁PTS
▁chickens
▁nasopharynx
▁2)
▁conception
tiary
▁stimuli
▁20%
▁resistant
▁perfor
▁neurotrans
▁ANF
▁0.05,
▁pineal
BMD
▁DBA
▁ventricul
▁0.005)
jected
▁lysozyme
▁comprehen
overall
▁vesti
▁60
▁107
▁128
iplinary
▁supplements
4+
▁(15%)
▁injected
ysts
▁5.6%
▁Abnormalities
lob
tensives
▁ferritin
▁37%
▁bismuth
▁cerevisiae
opramide
25).
lline
▁induces
▁KCl
ophen
▁radiography
▁avail
▁deposits
opulation
▁Addition
tissue
NB
▁thymidine
▁herb
wenty
▁myeloid
aminergic
▁terminus
2-
retic
▁endarterectomy
nosis
chond
olates
▁cytolytic
▁cytoplasmic
terone
ameter
▁fractional
▁gonadotroph
▁Dys
▁xen
▁Sensitivity
-198
▁28
▁mesen
▁eradicated
▁0.60
▁(250
▁convul
▁231
▁unstable
vaccination
tious
tant
lymer
onephritis
▁diabetic
▁dissection
▁neutrophils
▁0.3%
▁wt
diabe
▁compounds
▁(1%)
▁homogeneous
romy
▁assessments
▁Epidemiological
▁-10
igaret
silon
anesthetized
▁43,
echn
▁histidine
idym
-2
catal
▁resultant
▁questionnai
8)
▁750
▁Infants
▁121
▁dermat
▁serum
▁ventricles
vedilol
▁(33
selec
▁quantit
endocrine
▁Scatchard
atum
▁corticos
▁substitu
▁2.5%
inj
▁physiologic
▁intakes
▁Escherichia
▁reversibly
▁90%,
12-
▁endothelin
▁percentile
immune
gangl
immunoreactive
▁positives
▁Bacter
64
tir
▁prosthetic
0%),
till
▁metformin
9,
▁nasal
-79
▁striatal
▁reconstituted
chol
rease
keratin
ELISA
▁4.2
cessively
▁pathophy
conventional
▁chemot
▁tracheal
sive
▁ascorbic
▁chlorpromazine
odiazepine
▁psittac
yridamole
diagn
▁intest
▁trimester
hips
yel
thirds
essive
▁AChE
meg
▁uniquely
▁psycho
teria
▁detectable
.9
actam
▁particulate
pharmac
+.
▁vasoconstrictor
▁diame
▁.1
▁triglycerides
pinephrine
amycin
▁phosphorylation
▁(50%
▁3.9
▁extrac
▁investigators
▁0.28
▁cholesteryl
▁hypothal
▁6.0
COP
▁hybridization
▁tachy
▁(41%)
▁homogen
elvic
▁indicative
▁esters
▁anteced
▁arteriosus
▁immunogenicity
▁persis
▁PID
exposed
▁chan
▁2.7
▁102
invasive
hemo
▁(1),
▁unid
terolog
▁76
determined
▁0.65
alasin
▁glycosyl
▁whey
herence
▁propor
▁forskolin
▁1.9
▁conclusive
▁reagents
administered
▁PN
▁Estrogen
▁chlor
▁dysplasia
labeled
LN
▁diacylglycerol
▁abundant
▁phentolamine
▁Symptom
stranded
▁enzymatic
clic
▁166
standardized
idol
▁PBL
ronch
▁angiography
▁AMI
blocker
dip
▁Secondary
▁counseling
▁emergent
ymptomatic
lamyd
onin
▁discom
▁exercising
atoid
▁16-
▁apprec
▁lamb
▁CDC
▁contaminated
▁biphasic
▁receptor
▁stu
▁oscillations
▁simplex
▁fibrinogen
piratory
onstric
▁glucagon
▁beverages
aminase
▁microm
opolysaccharide
imazole
protein
▁24
▁ascending
aemia
oretic
▁preeclampsia
▁stratif
prisingly
▁quinine
▁topical
▁pharmacological
▁discomfort
▁grafted
▁Statistically
ionic
▁cDNAs
oprol
▁187
vascular
000)
fortable
▁GTP
5/
ittac
▁ligand
▁Cells
ammonium
▁cytosol
▁(0.
▁rotavirus
MH
▁hematuria
▁41%
▁yielding
tally
glut
0%.
▁prophylactic
MW
▁Candida
▁CAP
▁thrombotic
▁compartment
▁breeding
▁Hyper
▁extre
▁10(-7)
onography
▁ICU
esting
ethyl
blockers
▁Hib
▁attributable
27
erant
meth
PaO
▁270
performance
azole
▁(22
▁0.62
▁interventional
kage
▁myel
▁regression
dehyde
-40
▁1.21
▁elimination
▁Antic
▁(25%)
pirone
contrast
1;
▁attemp
.8
▁connective
▁parenchym
▁Significant
▁employing
▁solit
crib
neumon
▁antide
1.
▁blot
mediated
neph
ineal
91
▁80%
▁fasting
Ta
early
▁pectin
opar
▁chewing
eprazole
adjusted
▁rhin
▁unexpectedly
(6
oil
▁(90%
▁atria
▁eosinophil
▁formulation
icardi
▁venous
atoma
▁phosphates
phorbol
▁abdomen
▁spirometry
▁motone
▁undergone
ignific
ximide
lamydia
▁-0.8
▁radiological
ulitis
17,
▁Radi
timal
nitro
▁158
▁disruption
aspartate
▁resuscitated
11.
kephal
▁remin
▁87%
▁DCA
▁theoretically
▁adverse
containing
▁reciprocal
▁swine
▁2.5,
▁biotin
▁19
treatment
▁optimum
▁40%,
ofib
stress
▁anomaly
▁posth
▁-12
▁objec
▁5.7
▁dextro
olam
▁vesic
▁phos
▁0.54
aryotic
14.
eeding
▁BMD
▁strains
-90%
▁(13
▁100,000
ensities
valvular
▁toxin
▁endurance
trover
▁dissec
CoA
omat
▁(200
rength
fraction
igl
▁attendant
▁angiotensin
▁swit
ococcal
ogenous
▁neonatal
▁1.17
▁vascular
▁adenine
43
meas
othiaz
ritis
▁(5-
▁disturbances
firmed
ocrine
▁intrav
▁1%.
▁testosterone
Gy
▁substitution
▁triazolam
▁oocytes
▁silic
Nase
▁anatomical
▁ovine
▁locus
▁apical
thick
▁spontaneous
▁appra
educed
troduction
▁daytime
▁2-3
▁proce
▁selec
▁stent
turally
▁discharge
triglycer
gans
▁purified
▁topo
▁arter
▁serologic
▁Hyp
.5.
aminoglyc
▁BW
▁lumb
osac
titudes
▁antipsych
▁epidemiologic
▁diminished
▁linole
razosin
arose
▁bundles
therapeutic
▁activators
▁tubules
▁metronidazole
▁hypnotic
jun
tilis
▁33%
▁unipolar
tability
▁aeruginosa
▁carcinoma
▁ingu
eclamp
▁parat
itone
▁0.89
itance
▁infants
200
▁attain
astatic
▁fluc
▁1990
▁EB
taken
▁Saccharomyces
otamine
▁FN
▁pell
▁HS
▁fibrosis
▁thio
▁duplex
▁specificity
▁parie
ardia
▁Schwann
tents
trous
▁2.5
▁homogeneity
porting
aldosterone
▁confir
▁lowering
romal
oskeletal
87
-1),
▁cleavage
▁0%,
18)
▁acyl
vail
▁uncl
▁Triton
ROS
▁albicans
▁gradients
▁naf
▁amygdala
iatum
▁synov
▁qualitative
▁electrom
▁0.52
▁prazosin
▁0.01,
▁obstetric
▁Phen
▁quotient
▁entero
▁schiz
▁premature
iscal
kilobase
2(+)-
▁weaker
atosis
▁allografts
▁oxidation
▁plateau
▁couns
▁adduc
37
▁118
thyl
▁5.5,
tical
eptidase
▁buspirone
▁asthmatic
▁strokes
▁etiologies
▁endothelial
gestrel
blood
▁radiotherapy
▁brevis
▁plas
rostagland
▁depleted
▁albic
▁cyst
▁blister
ostasis
▁contras
▁internalization
▁glyc
▁0.70
▁anticonvulsants
▁30%,
▁preincubation
risk
▁pem
▁insignificant
▁ultrastruc
4%)
▁(5.3
▁dyspepsia
▁TP
▁heterogeneous
strand
▁cystic
▁ducts
▁rheumatic
▁EMA
cemia
▁pyr
▁(8
retin
▁natriuretic
▁neurones
▁MAb
▁229
▁deviations
▁allogra
▁remarkably
osal
▁0.25
▁erosion
▁terminated
▁corneal
oreceptors
▁(5)
▁interacts
-96
encephalic
▁(2-
amines
▁ACh
esic
uestionnaire
▁heterozygous
▁gemfibrozil
▁plaques
▁(150
▁cartilage
▁membran
▁serology
▁gonadotrop
▁predicting
▁logistic
▁maneu
hyde
tructive
kelet
-90
trodotoxin
▁fibroblast
agas
▁evaluations
▁neuropeptide
▁oss
▁scalp
▁113
▁tox
▁luteal
gm
activation
▁Urine
▁ole
oconazole
tussis
▁choleste
tency
▁methodology
▁latex
▁10,000
10)
▁plasmids
▁HRP
▁10.7
▁glycoprotein
▁gangli
butyl
▁ceph
▁diabetics
systolic
▁menopause
▁leukemia
130
androgen
▁PEFR
luores
▁Protein
visual
▁morbidity
ranial
initi
▁0.04
▁(1
phine
▁hypog
▁abstinence
polyacrylamide
AFP
▁platelets
▁femur
▁lactulose
ystatin
▁84%
fication
lep
▁SPF
othelial
▁(16
tiguous
▁purification
)],
Tc
colem
▁amino
anding
▁dodecyl
tumor
▁8)
anic
▁VLDL
phil
▁Concentr
ixime
▁omega
▁admissions
▁malformations
▁Arter
▁syphilis
luded
▁influenz
▁proliferative
rophilic
▁arrhythmic
4,5)
▁horseradish
▁ascer
▁IgG
▁4,
▁modality
6;
▁homolog
▁eliminating
heres
▁PBMC
▁chromosomes
roline
▁monophosphate
▁LD
▁complementary
▁HSV
▁1966
▁90
6,
▁Likewise
▁10,
vertebral
phosphate
▁seminal
▁0.98
diagnosed
▁depletion
▁17-
▁blu
alazine
dR
▁ventricle
▁sero
▁inositol
xate
▁1,25
Rb
▁symptomatic
occal
▁shear
oxicillin
-10.
ejun
▁lysosomal
teryl
ranolol
otherap
▁CAH
▁Plate
ocytes
1)
▁50-
▁psychophysical
ifferentiated
▁coordin
▁enalapril
▁cytologic
▁dilated
▁151
▁1980
▁185
▁neuropathic
ongue
ocompatibility
▁430
▁anastomosis
9)
▁7.8
Ep
▁perc
▁(=
▁0.84
ogl
▁nitro
50).
▁intran
ituitary
▁13%
▁incontin
▁Diagnostic
▁cortisol
tence
▁cGMP
apine
diabetic
imens
▁somatostatin
▁cotinine
▁18%
azone
oxidation
▁neuros
▁grains
▁tetr
ubicin
sion
▁cerebro
▁mobilization
▁50,000
▁(1.6
▁oval
▁rupture
▁obstetr
▁supernat
▁Pseudomonas
thmatic
▁(92
▁85%
ophyll
▁inhibitory
1);
plasty
▁-6
3;
ocortic
tition
proved
flammatory
▁0.66
▁transduction
50
▁164
▁referral
▁adipos
ordial
-9
(1
clerosis
▁persisting
temperature
▁tetrac
▁inconclusive
▁undetectable
tigo
▁adequately
osin
▁dexamethasone
▁mutant
▁274
omeric
BSA
acetic
▁transmitted
▁exacerbate
▁diffic
▁pHi
assium
▁bovine
erad
▁statistically
erent
rhy
▁synaptic
▁enlar
▁digestion
aldehyde
▁0.71
▁NK
▁Purkinje
▁socioeconomic
▁203
tabl
▁spike
▁aneurysm
▁scaven
▁innervated
▁1%
▁danazol
pine
▁Holter
▁favors
▁99
dic
▁exponential
▁cotrans
▁4-5
psych
mokers
ganglionic
▁cuff
proven
▁anhydrase
▁mannose
▁utilization
▁reversed
▁harvested
▁tas
▁rebound
▁152
▁electrophoretic
▁atropine
▁7.6
▁ery
brids
osum
▁precipitated
▁intestine
▁Medicare
▁0.01
▁labelled
▁alterations
00,
endix
▁Suc
opro
▁ana
bilities
▁disrup
iteal
▁cutoff
▁(67
phosph
▁fibr
usively
▁arrhythm
▁reversing
▁fertil
▁(42
▁dilation
duction
hea
▁psoriatic
uclear
cepti
▁63%
receptor
▁RAS
osyltransferase
▁Decreases
ocamp
orption
idney
phthal
▁11.5
▁retrograde
leuk
4-
▁angiogram
▁progest
plas
▁mIU
▁prescribing
▁levamisole
achn
▁inducible
rague
▁cerevis
▁cardiovascular
▁209
Gly
ographically
iodarone
Hyp
ochrom
▁examining
▁psor
▁3.2%
▁testicular
▁succinyl
▁protocols
▁pneum
▁palsy
entile
▁scientif
▁verte
2+,
▁(25%
ipid
▁enrolled
orrh
▁cyclosporine
▁preliminary
▁oriented
▁phospholip
▁hypertonic
▁isoniazid
amate
puts
▁motoneurons
dipine
8]
▁corticosteroid
▁0.49
▁dimers
onuclear
Gal
▁denat
▁ket
▁physiological
arcin
ocomial
ogeneic
trum
▁60-
▁homology
▁hypoth
▁Trial
▁Chlamyd
▁dehyd
▁polym
ophils
▁homoz
▁reper
▁counterparts
▁abnormality
▁elic
▁opi
▁SHR
▁273
▁retard
▁identifiable
▁carc
▁9.0
urium
▁archite
SOD
▁xanthine
tracellular
ivation
▁246
HDL
PGE
zard
▁jaund
vular
▁88
▁numb
▁66%
▁sprin
essional
▁distorted
▁13-
▁IU
▁(10.
▁recipients
▁Newly
▁solvent
▁hypother
▁acetylcholine
▁surrogate
16)
▁substrates
▁venom
▁malabsorption
tin
47
▁86%
▁182
▁0.23
▁lax
▁hydrophob
thase
▁234
▁2,
▁benzodiazepine
▁Fifteen
iesis
▁myot
▁electrodes
gag
▁phon
▁abolished
▁muta
▁embryos
Ala
▁sten
▁hippocampus
adecan
CAH
asic
orectal
.0)
▁7
▁infec
▁(21
▁immunocomp
moderate
acrylamide
truc
carbohydrate
▁histone
▁solitary
▁deterioration
▁0.001)
acin
▁uni
-70
▁fung
▁nausea
▁sple
inol
▁hemodynamics
HIV
▁blas
▁molar
▁4.7
pregn
significant
▁glands
▁pyl
▁transcrip
▁vena
▁expon
▁100
orrhage
ocytosis
▁precur
▁hepat
placebo
▁thymocytes
isomer
▁Vitamin
▁gonococcal
▁chromatin
▁myof
▁68
▁deduced
roxy
oxetine
▁methotrexate
oxif
ereb
oradi
▁3.2
▁streptococcus
▁compli
▁polarity
▁plexus
sodium
▁substantia
▁Renal
▁suscepti
▁analogous
▁osm
▁hir
▁serologically
ymptom
▁endoscopy
▁alginate
▁supervised
▁aro
▁implants
▁prostate
▁85
hern
▁ionized
ods
6%)
obacterium
▁haemat
▁Morph
▁degraded
322
▁0.76
activated
▁flas
mediately
▁quantif
hydramine
▁aspec
▁aerosolized
▁exhaustion
▁(31%)
▁valve
▁enroll
▁sarc
▁endoc
▁Twelve
▁shif
cholate
8).
tural
▁axon
▁herni
▁anemia
(+)
acting
▁penicillin
▁posttreatment
▁333
▁0.99
▁antioxid
▁reacted
▁penetration
daily
▁acutely
estive
lycemic
▁lacks
exchange
▁14
▁spp
▁36%
▁cows
▁elution
▁unpredictable
.9%)
▁200,
tinu
pyruvate
▁tibial
owel
▁derivatives
independent
heal
pirin
▁unilateral
▁classifying
▁mucosal
▁lectin
▁monit
uracy
▁appropriately
44,
tenolol
opharm
▁(89%)
▁postmortem
▁alprazolam
uran
▁myosin
reatine
▁1.16
acids
▁adolescence
phosphatid
VH
▁bumetanide
ffin
▁foci
▁eluc
▁immature
IIIa
yrib
opecia
kinson
▁0.22
▁maturity
▁supr
▁PAI
▁caudate
/12
▁ouabain
▁chloro
▁7.5
▁physicians
▁cephalosporins
▁fibrillation
▁qualit
▁heavi
▁CGRP
phosphorylation
either
▁satis
▁serotoninergic
hig
▁181
▁cromoglycate
icine
Gs
▁235
▁gynec
▁systolic
▁influx
▁16
▁prel
bral
▁41
▁kallikrein
omethacin
tabol
▁6-
verages
▁(95
▁mesang
osine
▁kinetic
25,
▁86
▁evol
▁serotonin
▁supplemented
enal
oporotic
resistant
ugular
▁reactivity
thromb
piper
terologous
▁outpatients
/4
ococcus
▁irrever
▁spinal
▁ruptures
bumin
▁LTB
otonic
▁lovastatin
▁pharmacologic
4.1
▁fibrous
edding
ophosphate
▁circumference
▁nondiabetic
▁tumour
▁salbutamol
▁bac
▁-0.7
ureth
-5)
▁initiation
▁sensitivities
irubin
▁9.9
▁regulated
▁carpal
▁chorionic
itoneally
ophag
acr
ophylline
▁adjustment
▁titres
▁0.72
ropha
▁mitogenic
▁progeny
▁14.8
▁traum
▁saliva
rowth
ophy
uprofen
▁adducts
othal
▁provid
▁CAL
▁carbachol
▁surfactant
phyloc
▁carboxy
imolar
kinin
▁1,25-(
▁mutagenesis
▁addi
▁(84
▁oxid
▁forebrain
sied
▁carp
▁codeine
▁lethal
glutamate
▁experim
▁Crohn
insensitive
▁hemat
luding
▁swelling
▁contamin
▁striatum
lobin
subunit
▁stabilization
▁globulin
▁Prac
▁cholera
▁proliferating
MV
▁cirrhosis
ropo
▁downstream
8+
iciently
▁quantitatively
▁rearrangement
hemolytic
PMN
▁possesses
▁triam
▁denervation
opa
▁nonc
▁fertile
▁stratified
▁glycine
▁persists
▁adenomas
▁Alz
▁mucus
▁MHC
▁sediment
▁electroly
▁pathologic
▁techniqu
▁elast
▁1:1
▁0.15
aryngeal
toid
▁insufficient
▁untreated
scop
▁prothrombin
▁hemorrhage
▁constipation
orrhea
▁correlates
urk
sufficient
▁protoc
▁ATP
▁eluted
▁200,000
▁HTLV
iasis
osylation
atment
▁hydroly
▁Consid
▁iod
▁RNase
▁redistribution
▁kinetics
▁0.47
▁spon
▁precursors
▁placental
▁fibres
xime
▁acco
▁excreted
▁Myocardial
▁NSAID
▁bile
▁papillary
▁consul
▁thromboemb
66
▁Activation
▁periodontal
▁85%,
▁Surgery
▁241
▁0.01).
▁60%
▁hepatocytes
▁ovary
▁Chan
▁0.0001).
▁intraoperative
▁autosomal
▁spre
▁48
▁sph
▁socio
osom
▁2.6
▁juven
▁stimulation
▁bacteri
odon
▁hypogonad
▁absorptiometry
▁8.3
▁NN
▁Multiple
▁communic
▁resis
▁21%
000.
irradi
▁95%.
ocusing
▁exer
ietic
▁(75%
▁pathogens
▁aeros
▁avoidance
▁sampl
▁benzodiaz
▁vimentin
▁endoscopic
▁potent
▁phle
▁22)
7)
▁chondroitin
hep
▁pepsin
▁PEF
▁3'-
▁grise
▁schem
sych
▁Measure
▁ankle
olerance
▁Oral
▁nodules
▁hepatotoxicity
▁249
▁spleens
▁possi
▁TM
geal
▁aortic
▁15,
oretically
odds
▁5.2
▁anhydr
▁1.33
▁vesicular
▁shunt
viruses
42
▁bFGF
ytes
▁implant
▁canc
▁neurogenic
▁accep
ulcer
vic
▁commerc
fibrozil
▁RR
5),
▁133
FU
▁Fourteen
▁occult
izin
rological
▁urea
aminases
dihyd
▁168
▁rota
▁cardiac
▁contradictory
57
junction
glycer
▁6.5
▁additive
ygotes
atchard
DH
ffinity
▁(32
▁5000
▁arthritis
▁Calcium
eclampsia
tte
▁transcriptional
▁Abdominal
▁monkey
▁microtub
▁Phe
▁discharges
▁cytotoxicity
▁predominant
▁contralateral
6)
omial
▁diploid
opathy
▁chlamydial
icillin
▁MAbs
▁keratin
▁23%
alic
▁hypotensive
ithin
▁Relative
▁scrotal
ardized
hormonal
▁sensitiz
▁EGTA
isomerase
▁inhibin
competitive
ovarian
roth
▁whee
operoxidase
oea
▁dialysis
ituit
examin
▁vagin
▁mucosa
▁sucrose
tice
▁(18
▁ferric
ichia
▁databases
▁nitrogen
▁nec
econd
ochem
▁tonic
▁162
▁meperidine
aminated
▁retinoids
glutin
▁MH
maximal
artum
▁6.5%
▁gly
occi
13.
rested
▁1.6-
▁repor
▁TGF
▁peroxidation
ilization
▁33-
▁inability
▁galactose
▁dermatitis
▁brainstem
▁molecules
▁genit
terminal
tur
▁prenatal
▁1991.
▁propranolol
feron
24
sively
▁0.82
icides
▁antigen
▁(16%)
2/
olipid
▁AK
▁motility
/7
yronine
▁Combining
▁disulfide
enoic
▁56
-1
▁diethyl
▁damaging
oxid
sibility
▁concentrations
median
angl
sibly
Trp
enicillin
plate
▁SDS
▁defec
60)
molar
▁NADH
okinetic
▁hypothe
loxacin
▁synapt
▁polyp
ticle
▁forsk
▁leuc
▁epididym
▁oxytocin
▁25,
▁suppressive
▁99%
obarbital
▁agglutinin
▁collateral
▁malignant
motic
▁perce
▁cohort
▁topically
▁23
▁erythrocyte
▁ratios
▁46
▁vigorous
arying
ventional
▁constriction
▁tib
▁-2
77
▁IUD
▁turnover
Gi
roxicam
▁adhering
▁allogeneic
▁memb
▁(1000
iuria
▁hypoxic
▁extraction
▁quanti
timate
▁tet
▁squamous
▁218
▁hemodynamic
immun
ubation
▁ovulation
▁radiolabeled
▁staining
▁marginally
omal
▁lamin
▁regis
▁amoxicillin
▁defects
▁dietary
trate
▁subcellular
▁metabolite
▁AII
/2
▁TCDD
▁polymorph
▁4.
versely
umbers
▁confound
▁microsp
imination
oratory
▁dye
ospor
ratic
MHC
▁180
▁flexor
▁PSA
3+
uppres
▁21,
▁inactivation
69
▁clot
lycerol
▁exon
▁(56
▁initiating
▁intracellular
▁fluorescein
▁appreciable
▁-0.6
ellar
▁crystall
▁7.2
IGF
▁1.36
▁incision
osamine
▁substances
▁pefloxacin
▁correlated
▁tricyclic
▁90.
▁cephalosporin
▁mA
reased
etoprotein
2)
▁argues
mental
▁encodes
carotene
▁infarctions
tyl
▁vaccines
▁ingestion
73
▁hap
▁Prospective
▁splen
▁hippocamp
▁termination
▁oxide
▁recor
▁plotting
▁1960
valine
▁neoplasm
▁protec
▁5,
▁emboli
tics
▁appendix
orac
uridine
pA
▁66
▁requi
▁nip
.1,
▁195
▁antagonized
▁follic
ediatric
▁enlargement
▁1.2%
▁citrate
▁antiarrhythmic
▁EG
usp
▁problematic
63
sess
▁Conversely
▁uncovered
▁(63%)
measured
▁acute
▁inadequ
▁adjusting
▁Consequently
iol
▁3-4
▁vancomycin
▁derangement
apular
▁deleterious
▁MIC
▁yielded
▁stools
▁fla
▁AFP
▁priming
illin
▁fluconazole
▁resembled
▁inges
zot
releasing
26
▁nephropathy
70)
▁grouped
apeutic
▁reiter
▁overlapping
-1.6
▁phenotype
2.2
▁membrane
▁prophylaxis
ochrome
▁permeability
▁autoradi
▁bipolar
hospital
▁cytotox
▁anticholinergic
taining
▁potassium
▁osteoporosis
+/
▁(100
24,
henyl
-17
▁hypothyroidism
▁Thirty
▁titration
atible
▁Older
terin
▁Asp
ocor
▁actin
▁hyperbil
coronary
▁impairs
▁3-
▁pector
▁Intra
▁jejun
oxygen
▁4.3%
▁adi
titis
▁histology
▁tremor
acetate
ofl
oprec
▁implicated
▁pim
▁NAD
▁percentages
alb
▁haemoglobin
▁lymph
.1
▁124
▁vasopressin
▁18.
▁daltons
▁intravenous
▁resto
oprostol
▁(31
▁misoprostol
▁NaCl
aturia
partum
▁prolongation
▁0.55
▁conserved
acchar
pressing
▁recombination
▁definite
▁ions
ylic
▁vasoactive
▁83
▁5)
operox
▁malign
obl
onc
▁12.
▁(63
▁rhesus
▁correlate
parathyroidism
▁postinjection
ejection
55
tense
▁reflexes
▁transfected
ostr
▁Kd
▁(4.0
olated
▁endos
▁calcitonin
lyb
▁readings
▁estrogens
IgA
▁chel
▁cysts
.0,
yron
▁slices
▁gastric
0)
▁nonfatal
▁Insulin
0,000
cture
ocul
▁microscop
Daw
▁VV
▁stiffness
ylyl
▁enzym
▁pneumonia
▁aromatic
omotor
▁Randomized
▁SEM
▁evoked
▁cosmetic
▁5%.
▁42
atidyle
lobulin
▁zinc
▁fractionated
Ts
▁offspring
itively
10,
20.
fal
▁38
▁cGy
restingly
▁progressed
-3)
ubiqu
▁RV
▁grafting
yzed
tia
▁wk
▁7,
tomy
▁subtype
▁AML
▁Hear
▁methadone
-66
▁brach
fied
alveolar
adecanoyl
incub
inemia
sives
average
12.
oblast
▁132
opian
▁fetal
▁Respiratory
▁immunode
amphen
rogenase
▁heteroz
azem
▁viscer
tivation
▁pM
▁atten
▁aggres
▁bladders
▁detrimental
cutaneous
▁Tum
▁radiographic
▁carbohydrates
▁decarbox
arone
▁strands
▁(3),
▁Drosophila
▁proteoglycans
▁perikary
clonal
traumatic
▁pall
icidal
▁agonist
GTP
▁exceptionally
▁cathepsin
physe
▁pravastatin
▁tomography
mRNA
quam
▁perioperative
kinase
▁detec
5-
'-
▁Differences
▁95%,
▁mcg
▁sucralfate
▁150
▁promo
▁LH
▁phagocytosis
▁10(-3)
▁0.30
▁PMNs
▁myocytes
▁tubercle
oglobin
-100%
▁Biol
▁560
▁5.0
▁complications
▁hospitalization
▁269
ungal
▁stimul
▁alb
▁proteins
▁spermatozoa
antoin
▁pec
▁plasm
truction
▁progestogen
▁trigeminal
ymal
echanical
-60
▁clamping
▁(26
▁RBC
▁complication
terase
▁48%
▁Neu
▁1986.
armac
amuscular
▁Fewer
▁nebul
▁colonic
odine
tite
▁gentamicin
tingu
▁hypophys
weighted
▁HPV
▁114
tisol
▁succinate
▁prematurity
oplasmic
▁bronchi
▁orthoped
▁electrolytes
▁transaminase
▁0.43
▁Complications
▁TIA
▁bisoprolol
▁Hb
▁colonization
▁COOH
reas
ymethyl
▁innerv
▁valproate
bac
▁physi
convul
▁universally
▁tolerate
anthine
affin
▁menopausal
▁mucos
wes
▁preferentially
PCR
▁10(-8)
ulon
▁PCR
▁titrated
-2).
toli
▁localized
▁167
▁2.
▁advan
▁extracellular
600
▁cyc
▁(5.1
▁80.
▁reinfor
▁empiric
▁newborns
ositive
ocarcinoma
ohns
▁proportional
▁calorie
tub
▁subgroup
omonas
genital
iliac
tosis
▁serine
▁EEG
▁mathem
▁leukotriene
▁6.1
▁soybean
adders
▁specimens
▁79%
▁130
patients
▁IA
▁Streptococcus
▁accumulation
▁quoti
0.8
▁24,
▁OA
▁10.4
gland
▁Electro
▁(1.2
▁aldosterone
▁192
▁dib
▁hemorrh
▁intrauterine
▁Asi
▁velocities
idase
▁yohimbine
omotion
▁sclerosis
.7
▁attenuated
▁150-
▁differen
▁synapses
▁HCC
aric
,000)
▁deficits
timulus
Ra
▁irradiated
-600
▁lith
▁mann
▁IGFBP
▁efficac
▁selectively
▁isometric
usate
osteroid
▁antibiotics
dition
▁caloric
▁occlusive
orbol
▁cytotoxic
▁implanted
olipids
+)
▁prescrib
-20%
pharose
aryng
▁pH
▁equi
▁endocrin
▁tau
.5%
▁allevi
▁0.05%
▁6.6
▁corne
methionine
▁IB
▁visc
▁0.40
tures
onium
▁unrelated
modulin
▁constitutively
tized
▁reliability
▁cereb
DV
▁dilution
▁antihist
grees
umetanide
himb
umbar
▁hyperg
▁outflow
▁IDDM
▁cDNA
▁rash
▁histologically
ordin
▁GS
availability
▁phenylalanine
▁contraceptive
olgi
▁NP
▁Comparing
▁309
teine
odgkin
3.
▁irrespective
▁(94
vac
oprolol
▁parenchyma
(2-
olesterolemic
▁278
▁TMP
▁neoplasia
▁medullary
▁ganglia
▁elec
orotic
▁twofold
thle
▁dyspnea
▁hydroph
▁Proc
raconazole
▁156
pregnant
▁(49%)
trast
▁bism
venty
▁HPLC
TCA
dihydroxy
dividual
razole
22
atology
▁proximal
▁recurred
▁Melan
▁radiologic
▁urodynamic
▁articular
atical
uates
▁metastasis
▁thiaz
▁intraper
ominant
▁anaesthesia
ercul
bearing
produc
▁Exercise
▁anoxic
aryl
▁limbs
eric
▁sulf
▁Intensive
▁bradyc
adenoma
fir
▁61%
▁Aden
▁weakened
fected
▁1.75
▁RU
▁simult
▁carbam
▁hyperlipidemia
▁Tryp
▁supra
conjugated
1.2
hetamine
rals
8.
▁Enal
ocytic
▁Smoking
tis
▁hormone
▁0.94
▁Pt
▁lipid
▁Estim
▁trypsin
▁IgM
thood
uitable
▁pyrid
roids
▁89%
▁medial
▁randomized
▁neurolep
bromo
▁heterosexual
▁hairy
▁16.1
enol
▁transloc
▁mite
▁39
▁manifested
openia
▁condensed
▁bup
▁pelvic
▁azithromycin
▁antacids
atectomy
▁atherosclerotic
trus
▁transient
▁Breast
▁endo
teroidal
entral
tiazem
grams
.7.
▁adminis
▁subc
▁summarized
▁Stress
▁characterizes
planch
▁alcoholic
▁justif
▁depres
▁influenzae
▁hyperch
▁heterogene
▁cochle
clinical
▁HER
troph
▁atenolol
▁hamsters
1).
▁doxorubicin
ocin
lue
▁allo
▁89
triglycerid
oxal
13
▁prostaglandins
▁simplified
▁afferents
-400
compared
▁1.11
▁nonf
▁clinician
▁triamcinolone
▁accumulate
21
▁145
rotid
▁1.4%
▁Pseud
esthetized
tein
tif
▁Clinic
▁targe
oidal
Hg
▁prostaglandin
▁1.12
▁choro
/10(
▁distor
ration
lec
cad
▁cisapride
▁acids
▁cefaclor
▁kb
▁mitochondrial
▁abduc
▁incomp
emak
-30
operated
▁haplotype
▁superficial
▁1,2-
nine
▁thickening
0.
severe
▁recombinant
3,
▁CG
-50%
▁neoplas
▁0.97
▁hydrocortisone
LPS
caro
odular
▁40%.
▁Mild
▁2.3%
ariate
▁Registry
▁39,
blind
▁regimens
▁hospitalized
▁Comparative
ffe
▁predominantly
▁artery
rati
▁intrap
baseline
▁reticulum
▁diphen
Phe
cribed
▁4.6
▁Coronary
generation
▁(12.5
▁fati
▁retinal
ronate
anking
▁cAMP
▁carriers
gus
▁appraisal
orbidity
▁doxazosin
▁underwent
jec
▁bilateral
▁[14
▁hematopoietic
perme
▁bacteremia
promazine
▁subdural
arous
▁cep
toxin
▁thromboembolic
▁Fifty
▁-0.5
▁intravenously
obut
▁titer
osan
▁neurons
▁Indi
▁manu
▁297
▁surfact
▁ACI
▁Km
▁lymphomas
othre
▁cranial
rostened
eak
▁lymphocytic
▁intral
▁divertic
▁hormones
▁PAF
▁4.8%
▁(0.6
glucose
omagn
oxane
▁infancy
▁sinus
▁Exc
▁kerat
▁specifying
▁responsiveness
▁minimally
rected
ymme
▁amput
▁28.
trone
▁0.6%
▁Depart
▁159
▁progn
▁1983
▁10-
▁5.8
hydr
kely
▁seropositive
▁AO
omyces
▁interfere
aminophen
▁repro
▁septic
obase
amyl
restricted
bile
▁.0
chrom
▁epicardial
idium
▁18%,
▁77%
▁HeLa
ordination
▁preparations
▁268
▁1991
▁alanine
umented
▁51
▁creatinine
▁replication
▁sterol
▁proportions
zine
1:
▁sensitization
▁exce
89
▁0.02)
-2.0
teroids
▁adherence
ertion
▁Diabetic
▁fumarate
LU
▁solubilized
endri
hypertensive
insulin
▁parox
15)
▁conjunctivitis
▁thi
oproterenol
▁62%
▁ethyl
atally
▁lobe
vaginal
▁blockade
▁112
ventricular
▁homozygous
▁menstr
illus
▁respiratory
▁hypocalcemia
▁allograft
tage
▁37
▁nore
▁CSF
▁Cardiac
▁stratification
bred
▁101
82
▁monitored
▁spleen
▁(197
▁analgesics
▁diaphragm
▁intercourse
olytic
▁synovial
trates
▁proteinase
▁benzo
▁Engl
▁discrep
organisms
929
▁strips
▁seizure
▁folding
▁intrad
▁gon
opamine
ochondr
▁92
ecu
tionally
▁0.016
▁usefulness
▁sexually
ducing
▁selectivity
▁streptococcal
lop
▁pregnancies
ATP
razolam
imaging
ventive
▁GAD
▁immunization
imeth
▁pyram
▁69%
▁mU
▁polyclonal
▁attitu
▁0.27
ergen
▁foc
resis
heximide
antigen
▁nM
▁isoelectric
▁fluo
anide
▁Tx
opam
▁Cul
vitamin
▁endonuclease
▁atri
▁ethanol
cyt
LG
▁resour
▁dams
▁lesion
▁20-
creatinine
▁pep
▁hydrop
▁disabling
tory
▁transforming
▁confirms
▁200
▁reser
oling
▁enl
odies
▁AMP
▁hypertension
ervoir
dimethyl
▁catheterization
ophil
▁oste
▁filament
erox
▁(50
▁endoscopically
tension
▁unreliable
crist
▁calor
▁intermedi
▁metoprolol
▁practiced
▁dipyridamole
▁stratum
▁differed
153
▁neon
ocytopenia
▁dips
▁chond
anadate
▁leuk
▁physiology
▁dichro
helial
▁emo
▁thir
odone
effects
inamide
▁3%
stem
▁pigment
▁lymphocytes
phal
0.3
olig
avoid
rox
Tu
▁homogenate
▁dysfunction
▁airways
4/
▁efficacious
sus
▁Ig
trop
onad
▁anaesthe
POA
▁hypogonadism
accharides
▁DBP
strain
titial
▁217
trig
▁-0.0
▁correspondingly
▁correlations
▁endoplasmic
▁truncated
▁overex
chloride
inhib
bular
athered
▁duodenal
▁3/
▁MG
▁pentoxifylline
▁TRH
▁unsuitable
▁thirds
▁Nit
▁reduc
▁cellul
▁computerized
▁caud
vivors
▁exogenous
▁ald
erents
▁preoptic
▁GABA
▁colonoscopy
▁KD
TSH
idne
▁oxy
▁atrium
▁endometrium
▁pertussis
oracic
▁underestimated
▁phy
▁grafts
oreactive
▁psychiatric
▁retinoic
▁posttrans
▁Computed
▁halothane
▁analgesic
▁gases
▁intrac
▁wean
▁epinephrine
▁amplification
lamy
▁indefinite
▁subpopulations
opus
phragm
tional
▁catecholamines
▁hyperthyroidism
▁ligands
▁Lact
tine
anad
ovine
mortality
▁Staphyloc
▁embry
▁1-2
▁unresponsive
▁amenorrhea
▁1.7%
▁excitation
lactating
-1-
▁(1.25
edema
omegaly
ucose
▁(37
2),
▁1.
▁(36%)
iclovir
rays
stim
anav
tality
▁129
▁enhancing
▁myc
▁herpes
▁Assess
tRNA
0/
▁modulating
▁thyroidectomy
▁0
asses
▁hemoglobin
▁implying
▁MRSA
-14
▁bp
ysm
▁pars
▁polyethylene
▁RII
OH
▁dementia
otoxic
osus
▁rIL
ncy
▁stimulating
▁mesenteric
▁eccentric
.5
▁prostacyclin
▁carbonic
-13
▁elevations
▁(50%)
ocalization
idis
▁effector
erose
▁subcutaneous
▁0.69
▁7.
▁54%
▁193
▁construc
▁endometri
▁isot
▁allyl
ocardi
▁radicals
mTc
▁30%
▁adipocytes
▁mating
oprotein
▁intraepithelial
endi
▁glutathione
▁(60%)
acterial
▁Increased
▁Biochem
Dawley
▁immunohist
eded
▁stres
▁1.44
00
-3
-19
▁merit
waves
inic
▁neurop
biotic
uncture
ostatic
urea
exercise
▁coordination
▁0.000
tamine
adenosine
▁isoforms
▁captopril
illar
▁pyro
ulants
▁undergoing
▁myocardial
▁preferen
violet
ocl
uin
67
icep
▁Lym
▁sequentially
▁nutrient
▁venography
▁(3%)
▁factorial
oA
naud
rance
tead
▁dyst
▁(0
▁dias
obenz
othyroid
▁Abnormal
iferative
eal
▁VO
▁ulcer
▁mutagenic
▁yeast
▁termed
▁questionnaire
▁waking
▁suture
▁latent
▁Seventy
ectable
ulline
▁withdrawn
▁parac
▁reperfusion
▁acet
▁8%
▁hypothetical
▁TS
▁cruc
▁anesthesia
RIF
▁resembling
▁atherosclerosis
▁synthetase
▁abl
▁aspartate
▁perforation
▁antigens
▁Myc
▁RNAs
pig
-7)
ecia
▁parental
▁1.7
odeoxy
▁nonsmokers
▁0.50
▁adop
▁inward
ruc
▁fulminant
▁subend
▁femoral
▁0.7%
▁Thir
elan
gol
▁tendencies
▁ventric
▁Neuro
▁10.0
0),
flurane
▁103
▁terat
▁psoriasis
▁12.5%
▁assayed
anese
▁antagon
nithine
▁PCO
▁hepatitis
trol
-6)
▁smear
opre
▁TC
▁atelectasis
▁HB
ogenetic
▁tac
▁35-
▁indi
▁duc
▁(5.8
7/
▁Aspirin
Bs
bacter
▁synthe
▁efficacy
reactive
39
posure
▁keto
▁PRL
anol
▁neutropenia
▁mitochondria
▁autoantibody
▁0.07
▁aggression
osides
▁239
▁ethn
▁104
icardial
▁forearm
▁cros
▁deform
▁oligonucleotide
▁thal
▁induce
▁angioplasty
ionine
▁phe
▁valpro
emory
BMI
▁rehabilitation
▁gradi
▁weakly
▁0%
albumin
▁reproduc
▁thymic
.00
ulmonary
▁fatty
trating
▁Doppler
sero
wann
▁119
▁bilirubin
▁122
▁marrow
▁biased
▁mediated
▁upd
▁(82
▁1.18
acute
chlorothiazide
▁morphological
semin
▁3.5%
▁hematocrit
▁circumst
▁reversible
▁adjus
▁thorac
▁brid
▁cerebellum
▁caro
androgenic
utions
▁(28
▁ceftriaxone
trin
▁CRP
▁constituted
▁inhalation
ervical
▁gonad
▁18
portant
▁227
onate
incubation
▁cumulative
▁Veterans
enters
oxone
▁0.44
▁reproductive
▁substanti
▁chloride
▁intubation
pli
▁cardio
▁(32%)
▁chromatographic
▁3',
▁mitogen
▁semin
edic
ographs
▁leukocyte
▁lacked
▁106
▁312
▁276
▁dentate
▁stationary
▁junctions
▁elong
▁piroxicam
▁mildly
▁oestrogen
▁aor
▁2.8
rectomy
+)-
aminob
▁practitioner
▁empir
▁migraine
▁1600
ociation
RCA
▁spasm
▁transthoracic
▁LV
irds
▁0.56
mined
oalveolar
tig
▁PGI
▁45%
▁nitroprusside
▁genetically
athioprine
tectomy
▁criterion
uted
dia
▁hyperb
▁urticaria
omyel
▁94%
▁Lactobacillus
erop
tential
/8
tran
dotoxin
ducible
▁Geor
ducts
▁glomerul
▁Accordingly
▁libr
virus
▁cac
tioned
▁plots
idone
▁vitamins
-1).
:30
▁aluminum
/24
▁empirically
▁persistently
osol
▁(5
▁2.1%
▁monocytes
▁uncontrolled
▁diets
▁phospholipase
regulated
▁1.35
▁Recurrent
erate
rosemide
urate
acet
▁atrophy
asive
ults
▁desm
76
opha
plemented
▁exhibiting
▁budesonide
▁hypon
▁5.4
▁cholec
▁[1
▁cerebrovascular
ochondrial
▁contracep
▁voluntary
untary
▁(80
▁adrenergic
▁(1.5
▁hyperthyroid
atories
▁(8%)
▁anticonvulsant
▁folate
ometri
▁bradycardia
▁Combined
▁sonography
▁prognosis
▁5%,
▁intercellular
thmic
astolic
▁1-
▁hygiene
▁Routine
▁fibre
▁fracture
9;
▁9-
sensitivity
▁SG
▁PB
tent
▁hyperthermia
▁Duc
GABA
▁Progesterone
2%
▁metered
▁HLA
▁antecedent
SAID
▁incubated
lood
thanol
▁LM
transferase
▁(48
▁(5%)
▁Apgar
aturity
linded
tigu
yclic
uccin
▁1.6
▁Recommend
▁noninvasive
▁guanine
▁decreases
▁agglutination
othyronine
therapy
▁147
▁11%
ozo
▁fas
▁catechol
▁retention
▁tran
▁sput
▁endpoints
articular
▁8.1
▁unchanged
▁jejunum
▁PHA
lora
▁Risk
radi
▁resol
3%)
▁Increases
▁leukotri
lytic
4;
▁0.
▁voiding
▁spectrometry
▁pyraz
▁900
dine
▁potentials
opeptide
▁100%.
▁(3
ucl
openhagen
immuno
mol
▁exert
ected
-1.4
▁48-
▁0.025
▁promin
▁diarrh
▁infil
▁infertility
▁carbox
▁1.15
▁17
▁postnatal
▁Identif
▁60.
▁hexa
exis
▁Lp
leu
pecific
uled
▁varicella
▁recruitment
takes
▁(198
▁2.3
▁frog
▁ribosomes
▁neuroendocrine
000
▁endometrial
▁24%,
▁antif
▁nonm
-1,
▁immunologically
ellular
▁conges
▁54
orpor
▁amniotic
▁algor
agin
▁83%
▁secreted
▁13,
0.0
▁outward
▁perfusion
▁regimen
▁OKT
▁cystitis
▁elucidate
issive
▁hipp
ognitive
▁20.
▁inhaled
▁nuclease
▁emesis
▁spindle
▁arterial
▁0.01),
19
3-
.6%
▁hyperpolar
▁neuromuscular
vices
tively
▁erythematosus
flamm
▁stren
▁fertilization
venous
otting
▁Mn
▁ODC
25)
orh
▁restor
amphetamine
34
abd
ophilic
phosphatase
responsive
▁Examination
gia
icul
▁pyramidal
▁antagonism
yro
▁biopsy
adex
ochemistry
oactive
▁Findings
▁investigations
▁NADPH
9).
▁circulatory
oproteins
▁MAP
▁norfloxacin
▁Tyr
▁hyperglycemia
▁144
▁occl
▁estrogenic
▁palp
▁progen
▁medically
ylamide
centered
▁0.45
▁ank
▁0.12
▁accelerated
▁undetected
onucl
▁21.
▁clind
▁duoden
▁fec
▁pups
muc
▁inotropic
▁35%
▁irregular
80
▁Functional
▁analogue
▁stenosis
distal
phen
▁selen
▁discon
▁gestation
▁lifest
▁radiographs
▁SPL
▁pati
▁flashes
▁segreg
adder
▁Graves
▁31
otoxin
▁51%
▁neuropsych
Lac
▁thrombolytic
acti
▁immuno
▁corpus
7.
osclerotic
mented
▁Reduction
▁placebo
▁morphology
▁inoculated
▁circadian
ofil
▁musculoskeletal
▁orally
-6
▁caries
▁eukaryotic
▁exceeded
▁Bac
▁cytosolic
▁71
athetic
OA
▁opiate
▁resonance
▁(38
sAg
thmias
▁Cys
.3%)
▁decreas
▁aspirin
ritish
kines
dependently
▁0.61
▁adenocarcin
▁nonlinear
▁severity
SBP
▁inhibitors
▁trache
▁interventions
Glu
▁aureus
7,
▁modeled
▁196
▁FFA
▁gamma
▁Alzheimer
▁DMP
.0%
▁lysis
adrenoceptors
▁variability
▁deficit
KD
▁parame
eared
romed
▁platelet
▁regurg
▁transfusion
▁promoter
▁bronchodil
▁55
▁344
▁placent
brom
▁incompetence
▁antis
ecre
▁undertaken
▁antibody
▁lability
▁instability
molec
▁adiposity
▁upstream
▁monol
▁paternal
▁yearly
▁5.5%
▁paral
▁Vmax
▁allergic
▁tumors
uting
▁0.05),
▁centrifugation
▁pollicis
diastolic
uplex
icin
▁expressing
affec
hydryl
▁Ib
versal
▁MCF
▁selective
ycardia
-20
▁0.005).
▁dosage
alities
▁consecu
▁posed
▁immunized
embry
overed
▁cylinder
osclerosis
▁sequel
rinary
▁enrol
LH
odopa
▁(99
▁opioid
amus
ximal
▁dihyd
romic
pendence
▁2.5-
vian
phila
▁retur
▁hypothalamus
▁8-
▁augmentation
epin
▁mediator
diol
▁isozymes
▁favored
▁(7%)
oglob
▁resected
▁seroconverted
ocysteine
▁preterm
▁eosin
▁Eleven
respectively
▁pI
▁hazard
-81
otides
phyl
▁inappropriate
▁53%
▁uv
▁insulin
▁43%
▁75
▁doses
▁Lyme
▁primiparous
▁modulation
tained
DNA
ocyan
▁abnormal
▁metr
lyce
▁ACE
▁acces
▁microns
osomal
▁simultaneous
▁mimic
▁obstructions
▁sphing
▁inad
▁0.7,
▁palmit
▁-9
▁Caucasian
▁anomal
vity
subs
odipine
muscle
plementation
▁8.0
udation
▁Cardi
▁potencies
▁antidepressant
▁surrog
▁prolactin
▁mumol
▁shortening
▁Evaluation
▁LMW
▁residue
▁CVD
menstrual
▁(97
▁fructose
0.1
▁parietal
ditions
ogenesis
▁epidermal
▁hydrophobic
▁febrile
▁melanomas
asone
hydrox
▁preservation
-1.2
▁4
▁androgens
▁IgA
lymph
idazole
▁dopamine
▁confirming
▁transplant
▁intron
▁20,
▁compositions
otide
▁TNF
spective
▁Gyn
ulph
tensive
SMR
etence
▁fron
▁weaning
opres
particularly
▁adenylate
▁epidermis
▁attenu
▁DF
▁supernatant
▁microorganisms
▁distrib
▁staphyloc
▁resolving
▁pacemak
▁mediating
▁reticulocyte
▁encoun
▁monolayers
thma
evoked
centr
erving
obacillus
chym
oste
▁increments
iminary
teral
IH
rosal
ximum
65
▁Individuals
robial
▁60%.
▁discriminant
stro
▁Reduc
▁poli
▁Taken
tide
▁-5
▁addic
▁cen
opause
▁80
78
▁20.5
▁kidney
▁susceptibility
▁spectro
▁conjugates
ullary
▁cyclospor
▁epithel
▁genotype
▁progenitors
▁lambs
tization
▁acceleration
▁(3)
▁carbohyd
▁cyclo
▁acyclovir
EMG
▁recordings
PAP
▁flexion
▁immunos
▁exud
▁36
years
▁ultrason
vus
49
▁10(5)
▁biopsied
▁saphen
▁24-
▁1986
▁testis
▁1.03
▁adrenaline
▁noncom
▁exis
▁transverse
▁BV
▁determinants
▁tubercul
▁catalyzed
▁0.08
▁chlorhexidine
▁(93
▁monolayer
CRP
▁reac
▁nodal
gestin
▁Lymph
▁halves
▁sclerotherapy
▁anatomic
kD
▁perin
▁operon
▁recr
▁previ
4%
▁excision
▁cerv
▁synergistic
pyr
▁186
▁alleviate
rophic
DG
unsaturated
tate
▁Improved
uantitative
▁30%.
▁nodule
▁viral
▁.01)
Glc
▁ECGs
▁immunoreactive
▁lytic
▁granule
▁differentiated
▁cardiomyopathy
▁15%
▁rheum
▁benign
-2)
oluble
rotein
amilies
▁latency
▁hyperlipid
▁rabb
▁encomp
otriene
▁(2
apride
ths
esia
tryptamine
▁deple
▁bladder
astom
▁CCK
▁chromat
▁adhesive
▁ambulation
▁hydrophilic
12
▁cate
ammon
▁0.80
▁vaccin
▁[(
▁puber
atriptan
oagulation
obarb
▁titers
▁0.20
▁+/-
▁LMWH
asthmatic
▁Previous
▁transmembrane
▁(4.8
▁quantified
▁cultured
▁nonresponders
▁96%
▁Cs
▁CHF
assi
▁polysomn
▁2.7%
acted
ecyl
▁freshly
▁pharmacy
hion
▁explants
ighteen
▁insomnia
▁retrospective
derived
▁hypo
oplasia
▁tol
▁buc
saccharide
▁(71%)
▁tyrosine
uronal
ditional
▁wors
oselective
▁vivo
▁40%
▁paroxys
TGF
coated
oplas
▁proliferation
pharyngeal
▁hematologic
roat
▁microliters
▁junction
triphosphate
▁improves
▁phenomena
▁cycling
▁combin
lastoma
▁EA
▁epilepsy
▁invasiveness
▁280
▁immun
▁glycerol
glycerol
▁hered
▁postoperatively
▁(45%)
aceous
▁erythrocytes
▁3,
▁2.9
▁shorten
▁isotope
▁effusion
comitant
predominant
blinded
▁clu
ylate
▁adulthood
disc
fractions
▁Experim
omers
liters
▁1)
▁Histologic
torchid
▁infar
▁horiz
hydration
▁muM
olization
charomyces
▁graded
▁72
▁oxidized
rostenedione
▁fluoro
tive
▁symp
▁21
(3
▁(3.0
6.
affinity
▁13.9
sia
▁devoid
▁3.6%
▁(2.6
roxen
itonin
▁11.
▁retin
▁Ure
▁hetero
otri
▁intravascular
▁inver
▁arrhythmia
iodothyronine
1-
▁105
▁preschool
psin
▁cann
▁pathology
▁estrogen
phot
uracil
▁deposition
▁esterase
▁conformational
▁0.74
▁eryth
▁iatrogenic
pressure
▁91
▁osteopenia
translated
▁demonstrable
▁8
▁kinase
tagland
▁0.81
6%
ithine
▁Prevention
▁Gluc
within
natal
▁clindamycin
▁clon
▁selenium
▁carcinogenic
ensitized
▁suppressor
tices
tially
▁inhibited
▁relap
▁monomeric
ylline
cells
▁biop
▁experimentally
5)
▁59%
▁Chronic
▁73%
letion
▁0.13
▁isoprenaline
death
havi
▁arterioles
▁BALB
izine
▁epithelial
effectiveness
▁postinjury
0%).
▁Eco
▁inadequate
▁cyclic
▁Mg
▁transcripts
▁digesti
▁equivalents
▁bronchoscopy
sac
kets
▁2/
▁AH
▁sham
ALT
▁hypertro
▁degrad
▁sulfate
ologous
rogenic
▁9
glutinin
upuncture
▁cholest
alian
▁19%
▁postural
ogens
▁Staphylococcus
▁cortic
▁adherent
▁sorb
▁puberty
▁HDL
▁infrequent
▁Injection
▁bloc
▁irritant
▁transduc
▁NSAIDs
embr
adiol
dered
stab
anavalin
osacral
olateral
dyle
reasts
▁conflicting
ixation
uminal
Cs
]-
▁0.77
▁1.13
▁elective
ifed
▁irritable
▁Afric
▁exhibited
nitine
▁transi
rolase
▁studi
▁Concentrations
▁Rout
▁ionic
romatosis
▁PMS
examination
▁ureth
14,
ficial
▁converting
▁obese
▁favorably
▁synthesize
▁GFR
amel
-6,
pecies
▁[125
▁macrom
orsal
▁antisera
▁NMR
elong
▁blockers
omical
▁codon
▁mammalian
CAT
dent
▁radioimmuno
▁celiac
0.00
▁(5.0
ampl
▁FSH
1.1
ilep
▁conduction
▁adenocarcinoma
▁suction
▁Kinetic
▁1500
▁mRNAs
exy
▁58%
▁31,
yrox
farin
▁exten
▁derange
emin
▁anastom
▁radioactive
▁diges
▁abortive
▁unwanted
50/
ller
excluding
uanti
▁indis
▁electroph
▁cesarean
▁athe
▁microvascular
▁livers
▁tolerated
▁kinases
▁126
ococci
yrate
▁vasoconstric
▁amo
amino
▁osteoc
estim
700
▁bene
▁compensatory
▁originating
▁197
▁(40
▁10%.
▁hypoglycemic
▁nonex
▁motif
▁0.2,
▁INH
▁intermittent
▁vasodil
rosophila
▁296
▁1.2,
▁anaerobic
ologic
▁crude
▁43
filament
▁asbest
ipril
▁(300
▁Sixteen
▁125
irub
▁3;
▁multis
crimin
▁similarities
▁immunocyt
reening
▁trophob
▁paroxysmal
▁evacuation
▁clones
▁cerebral
▁substantially
ikary
▁relieve
▁171
Rs
onidine
aginal
orin
▁rifampin
etan
-[
roprusside
tened
▁Nineteen
olestero
▁regar
▁phenotypic
luent
▁neuroleptic
▁lumbosacral
▁3.1
▁lesions
▁injur
▁intensities
▁Steroid
1/
▁cations
▁1.9%
coh
iotics
▁epitope
▁(-)-
adication
itudinal
100
tronic
▁hypothyroid
▁translocation
feeding
sants
▁lamina
▁600
10),
▁starch
▁0.1
▁shortened
ivary
▁salivary
▁deliveries
0%,
▁Bacterial
▁potentiation
▁contractions
▁transplanted
▁glycosylation
▁cohorts
ropriate
molality
▁nicotine
MDA
olone
▁3.0
▁Golgi
▁murmur
▁longitudinal
jury
ylcholine
ctive
▁exudates
-5
▁antifungal
infection
gnetic
▁malignancies
▁septal
▁Thyroid
▁unrel
▁unil
ighted
▁transcription
olip
▁trac
▁autologous
monella
▁sigma
▁vein
▁PGE
▁phosphate
▁Laser
▁(27
▁incom
lod
Ig
▁contractility
endazole
▁classifications
▁anae
▁HCl
▁pneumon
▁cardiople
98
▁prognostic
▁carbamazepine
6).
▁arth
▁ether
▁asymme
▁peripheral
▁esophageal
uspid
4.
▁antiserum
nutrition
▁antipsychotic
▁3.8
▁superiority
▁digoxin
▁aggregation
▁parathyroid
▁ventral
▁binds
▁Cyt
▁renders
▁equivocal
▁lumen
▁antec
uality
▁aided
turition
-7
▁insuff
▁disper
▁superoxide
mum
▁stric
potassium
PGF
▁hypertensive
▁lem
▁(60
▁quantitated
▁precursor
▁ventilatory
▁97
▁amel
▁atopic
▁lowers
▁gluc
▁74
▁Clinical
▁molec
hydrop
vul
adren
▁0.05
▁defic
▁heterodim
tic
SDS
erance
▁enhances
16
ADA
yocardial
riamycin
▁nigra
▁vertebrate
▁dysp
Lys
▁Specificity
▁adren
itre
▁meningococcal
▁20,000
▁attenuating
▁seronegative
▁interleukin
oate
otopic
▁recruited
▁uniformly
▁proteolysis
roscop
▁vesicles
▁kary
▁59
▁venti
ophila
▁75%,
▁micros
imentation
tries
okine
bly
ylase
▁radiol
▁6.9
ionate
▁asymmetric
▁subcl
▁lineage
▁Tc
▁thems
▁Copenhagen
tensity
▁57
▁(9%)
5).
uride
▁albuminuria
odip
▁20%,
▁phosphorus
▁reflex
56
CABG
▁hypotonic
spar
admium
▁unfractionated
toxicity
adrenoceptor
▁53
▁limb
cys
deoxy
renal
▁adenosine
▁conditioned
CSF
bronch
ylephrine
▁necrosis
▁olfactory
vastatin
▁echocardiogram
▁aryl
erable
ethanol
▁galact
▁hippocampal
▁differing
▁perfusate
vae
▁LTC
96
▁hemisphere
▁anticoagulation
▁malignancy
thi
estions
▁autopsy
▁relaxant
▁uterine
▁mutations
repres
▁LVH
uccess
▁phenyl
▁ciliary
turnal
▁waveform
eptide
▁oximetry
▁imaging
Ox
ophren
operidol
isters
choles
45
▁glucocortic
haled
▁sutures
▁secretagogues
▁ow
▁suppos
eliac
▁mell
▁atopy
▁immunosuppres
trimester
7,000
▁edema
▁nif
▁labeling
▁lactate
▁symme
▁puncture
▁neurologic
yx
▁1000
▁transporter
eryth
▁nucleotides
▁neutralizing
establ
▁monoclonal
▁nmol
iprofloxacin
ifedipine
▁AGA
▁mononuclear
▁extracorporeal
▁aerosol
▁cloning
▁identif
▁negatives
acial
120
ferrin
▁131
roin
▁1.08
▁0.001
▁spind
incubated
▁derm
▁solids
tituted
melan
▁ecological
▁calves
▁calcification
▁CRF
9),
▁bathing
▁Inhibition
▁brady
▁schedules
▁islet
▁morphine
▁UTI
▁Hep
disciplinary
▁modestly
▁300-
tron
▁anxio
dural
epti
▁lep
TNF
estion
/10
▁Binding
lix
▁cytoskeletal
▁32%,
▁1989
▁inhibition
▁phosphatase
▁microbi
▁psychosocial
▁Caps
▁incub
▁ACTH
glyc
▁35
parative
▁concurrent
▁sexes
▁pancreas
idation
▁microM
▁polys
those
▁Evid
19.
olum
▁duodenum
▁fasted
planted
▁hydrolysis
oclonal
▁functionally
▁sci
▁hybrids
LDL
▁colonies
activating
▁tetrodotoxin
▁ultr
▁mercury
▁cyclase
rocy
▁Oste
▁lysosomes
▁anomalies
gestation
titutes
▁statis
▁seb
▁80%.
ondr
uretic
lasting
▁accessibility
iphene
▁contributes
umably
▁indirectly
▁polymerization
▁subcutaneously
▁degradation
59
▁uptake
▁insufficiency
ometh
▁(43
▁therapeu
▁esophagitis
ypro
opped
▁0.86
▁nucleic
Pa
omatous
▁reinfection
▁Comparison
▁fossa
▁hyperactivity
50)
5%,
2;
achid
▁undetermined
▁21-
▁-1
▁Whereas
▁formulations
▁validated
▁DNAs
cious
▁90-
ogenously
41
▁Leydig
▁285
▁laminin
▁intensive
pinal
▁(10(-6)
NH
▁0.5
▁0.01)
zotocin
▁17.
▁coag
▁ketoacidosis
▁pathological
▁splicing
▁perfused
oung
▁Surve
▁benzyl
▁singleton
,2
-45
▁randomization
▁cef
▁deficient
▁leukemic
40)
▁jejunal
ustif
▁glucuron
▁regurgitation
quamous
▁nylon
▁laboratories
▁27
abies
gment
▁creatine
olem
▁thyro
▁spermat
▁allergy
▁macropha
-2.2
feren
▁antiv
▁42%
▁effic
▁differentially
▁mitotic
▁roset
fusion
▁distinguishing
▁bioavailability
▁Indo
reness
▁displacement
▁dopaminergic
▁antagonist
effec
entical
▁LPS
▁methionine
▁8.2
otherapeutic
▁margins
▁fecal
▁intra
serine
plast
tectable
thio
viral
▁NH
▁splic
▁saphenous
▁seizures
▁spacer
scher
ventil
▁cardiopulmonary
▁Factor
IU
▁biochemical
▁muscarinic
▁pla
isoxazole
gesic
▁Treatment
tetra
▁contraceptives
▁eradic
sian
▁cofactor
▁biologically
▁estradiol
ocortical
▁lysine
▁pharmacokinetic
ometrial
pended
▁GV
▁(89
Cu
imus
▁cereal
merc
▁VH
▁triphosphate
electro
▁transplants
otropin
▁nonsteroidal
odop
umbered
▁transplantation
51
enkephalin
mostly
rowing
▁17.8
▁(49
-]
faction
ortal
)2
limiting
▁methimazole
.6,
▁astrocytes
▁arousal
endorphin
▁extensively
▁vitro
urement
▁affec
▁dehydrated
uria
cellulose
▁casein
▁phosphorylase
tening
ncies
▁modulated
azepine
▁140
reflex
▁(88%)
▁1.4-
▁pS
▁(35
▁DVT
avail
▁joints
▁devi
▁Elec
▁GH
▁amyloid
amental
▁Epid
▁homocysteine
cycline
aind
▁postpartum
▁potenti
ysto
agonists
▁uterus
roprus
▁primed
▁hypercalcemia
▁epiderm
atitis
▁Maximum
▁carcinogen
thoracic
▁lymphocytosis
welling
▁(10(
▁tes
▁isoform
79
60
▁79
▁Growth
6/
▁Incubation
▁intraperitoneal
▁benzoyl
enzyme
▁8.4
▁hemorrhagic
▁fibrill
RH
▁desatur
▁mEq
odil
▁mixtures
▁33
▁SIDS
▁phosph
orenal
urin
ifugation
ygo
buride
127
84
alc
▁guinea
cephalic
▁traumatic
▁27%
▁AVP
▁213
itant
azep
-50
▁acupuncture
▁glyburide
▁8.6
▁facilitated
corrected
raine
▁chor
▁transferase
plastic
▁fluor
opathology
▁abnormally
▁treadmill
oflurane
teroid
▁nitrate
azin
▁intrinsic
WB
ANF
tetradecanoyl
▁SOD
▁Respon
▁spectroscopy
uric
ystic
▁schizophren
▁ischem
▁microbial
oligo
▁autonomic
▁phenobarbital
▁alternating
▁91%
▁IVC
▁porcine
▁elicited
▁nm
▁pulsed
▁VAS
▁hamster
Hep
mia
▁preferential
▁benzodiazepines
iae
▁diuretic
▁nominal
-8)
ilized
atif
▁degeneration
▁subtilis
▁Disease
▁interim
▁indus
▁ovaries
▁teratogenic
mittent
▁starvation
▁DD
▁Phy
indol
▁0.83
▁permits
▁produc
▁0.1,
ometers
▁scl
.7%
▁judged
▁lyso
roglobulin
▁29,
loride
tococcus
▁33%,
▁1.10
ealand
▁recognizes
ervative
▁198
▁Testing
▁endemic
▁hemo
▁scre
▁intake
▁obesity
▁3.3
fiber
entified
▁Differen
-65
▁undergo
▁10(9)
▁deviation
▁(17
▁antibodies
odia
▁diffus
2,
▁yiel
▁infrared
▁55%
▁0.29
▁115
azoline
2+.
oventricular
ovastatin
00)
azol
pH
▁4-
uctose
▁-0.3
▁212
bladder
▁70-
▁rigor
▁precordial
▁deline
▁9%
osterone
▁pneumoniae
▁clinicians
▁antin
▁graft
odium
12).
▁epidural
▁breakthrough
▁expulsion
▁Stu
▁Diabetes
owever
▁propensity
▁264
ritic
▁unstimulated
threatening
sies
▁63
▁hemisp
lational
▁75%
▁confounding
▁elevated
trac
purified
brain
sensitive
▁3).
riched
opril
▁cys
▁cytology
hyp
▁actinomycin
avage
secre
▁skeletal
▁5.1
Pu
0.9
osynthe
▁glycosaminoglyc
▁splenic
▁bedtime
▁identi
▁17.1
aturated
oglobulin
inum
▁NIDDM
Hu
▁nonsurgical
leural
▁erythropo
pectively
▁0.0
▁dilatation
▁rabbit
▁macrophages
rophen
▁Conventional
▁messenger
▁Haemophilus
18
▁proline
otom
▁hydrolys
ucas
▁natri
▁NR
erebral
facturing
brile
GlcNAc
▁mucin
▁sulfhydryl
▁cured
▁72%
▁irritation
▁choles
▁enamel
inositol
▁1.25
rane
▁pylori
▁1.19
▁varic
▁inters
▁goiter
▁immunologic
trient
▁Swed
3/
otypes
HN
▁16%
▁(95%
▁PF
▁promoters
ranged
▁congestion
▁monomer
yrid
▁adap
▁fungus
conver
▁diagnose
▁overt
▁myo
ocaine
▁brom
Tyr
eroxide
▁mitral
▁blinded
▁successive
▁effec
othane
otrypsin
▁serotypes
▁cloned
enin
▁lapa
▁PDE
iline
2,000
▁replic
▁vertebral
asal
▁Initi
%),
▁bic
▁3.4%
umption
consuming
▁0.5).
mitters
▁0.24
▁proteinuria
▁recombin
▁peroxis
▁Plasma
guan
2]
▁junctional
ucine
coun
▁hairs
-1.3
▁metoclopramide
▁covari
▁nonpregnant
7;
ithelial
14
▁Finnish
▁positively
ropathy
▁moderately
ylation
▁1.04
ACA
omain
oneph
▁flunarizine
▁unres
gely
▁epidemic
▁Intravenous
▁ANP
▁focal
▁substrate
idated
"-
avir
▁Experiments
oxamine
estis
▁25%.
21.
▁GMP
▁80-
▁arginine
▁strand
▁electrically
▁hepatoma
▁fixation
respective
oceptor
▁artifact
▁awak
▁262
umbens
erule
onine
▁reag
opo
▁PDGF
apeptide
▁adolescent
▁0.21
enriched
▁typh
etus
phetamine
▁basolateral
▁gout
▁exudation
▁transferrin
▁instrumented
▁275
cellular
▁VP
▁enhancer
olarization
▁cutaneous
▁neonates
▁gradual
▁postmenopausal
meter
▁256
▁progressively
▁tachycardia
▁potentiated
▁increas
▁unexplained
tral
▁prospectively
▁antim
▁coli
inally
▁Krebs
zyme
▁shor
▁illus
▁discontinu
▁fluctu
▁patency
▁NADP
ordance
▁catheters
▁pacemaker
tracted
▁nucleoside
ophys
reasing
▁84
▁ureter
▁rabbits
▁tetan
▁sequencing
▁68,
wk
▁inducer
-40%
▁Lys
primed
▁177
rosy
▁excised
onyl
▁bony
perfusion
32
(1,
▁mAb
▁preoperative
▁paradox
weekly
▁standardi
throm
▁9.7
ustained
▁worsened
genic
▁conjug
▁1.02
entanyl
▁renin
epines
▁thyroiditis
mend
hene
-5,
-9)
lyl
▁lam
▁Patients
-3.
▁immunocompetent
▁miti
▁psychomotor
-35
▁neutroph
▁therapies
▁inpatients
ochemically
▁alkal
▁tec
odopsin
ameth
▁ADA
▁virul
▁MBP
▁(0.3
▁anemic
▁radiolab
▁angio
▁autop
23187
5,
▁0.63
2318
▁gland
▁prolif
-4
0.2
▁degenerative
▁DEAE
▁optic
▁plasmin
imodipine
000,
▁Epidemi
▁histologic
xiety
31
ensitization
▁electrocardi
▁respec
▁cholinergic
▁preceded
▁ovariectomized
▁vulgaris
keto
▁purine
▁stimulant
▁denaturation
▁Infection
▁hydrochloride
▁ewes
▁0.5-
▁genitourinary
▁(78%)
▁allergen
▁ADP
ocyte
incidence
▁exerts
▁scanning
ailure
8-
▁premenopausal
▁spas
▁secretagog
▁transgenic
▁drainage
illaries
▁incubation
▁gum
▁Preliminary
▁saline
ynaptic
-12
ognition
▁apolipoprotein
-0
globulin
ietin
▁disappearance
osocial
▁Changing
▁0.4
▁relapse
dil
▁depolarized
ithromycin
▁interacted
▁dismut
▁expec
▁18.3
eradish
▁.05)
olesterol
▁10(-4)
▁epsilon
▁179
▁PTH
▁radiograph
atinine
▁Incidence
▁10(
-88
▁coronary
▁embolism
▁Thi
▁ofloxacin
▁intox
▁proceeded
ialysis
eminal
58
macrophage
▁tach
ulae
▁ECG
▁Neurop
▁tetra
lamp
ocys
etine
▁50,
xual
▁apo
enan
▁17.3
▁nipple
▁ach
-6-
▁oestradiol
▁phosphodies
▁enzyme
▁hydrolyzed
▁Thy
imentin
▁ae
▁succes
▁overload
▁47
▁remo
▁recom
▁echocardi
▁saliv
▁amputation
▁65%
adic
▁32
▁1:
april
▁Viral
▁(5%
▁carboxyl
▁ganglion
▁singlet
▁toxicity
▁expres
▁kD
-5.
▁transfection
▁(46
▁inflamm
▁perox
alate
▁3.7%
▁polymerase
▁detects
▁sulbactam
ogenic
FSH
amn
▁initiate
reast
▁amygdal
glucosidase
butamol
inase
onorgestrel
odg
▁Stimulation
roscopy
▁unco
▁1-3
▁Subjects
apamil
▁methyl
romycin
ofluores
▁incorporation
0.6
▁sequelae
▁sacrificed
▁(72%)
▁serotonergic
▁embol
heum
-)-
▁stimulate
tak
rences
▁HM
▁standardization
Ca
▁64
▁micrograms
▁(70%
▁sonographic
▁(0.2
ints
tative
▁Combinations
▁12%,
▁10.
ardias
esthe
▁adjuvant
▁ovari
acrine
osome
namic
.6
odialysis
▁thallium
▁5.5
▁70%.
onegative
traum
▁disadvantage
tillation
▁abrup
hicle
entif
azolam
▁carcinogenesis
▁variants
thym
▁terfenadine
oprim
dial
▁50%
▁deoxy
ocar
▁71%
▁genotypes
ignant
assay
▁4.2%
emble
▁accid
▁deoxyrib
▁vagal
atite
ectin
lamin
▁chorio
▁tRNA
▁303
admill
▁95
▁Gonad
▁sarcoma
Ace
HCO
▁NF
-10)
adox
earance
elves
▁Cardiovascular
odiaz
▁hypothesized
▁gastro
oten
▁Nine
geons
oxin
tility
▁carvedilol
reported
-3.0
▁5-
▁glutamic
▁dosages
parous
ycline
▁causal
anine
▁1200
2+
▁scle
8%)
▁phenotypes
▁herp
▁dextran
abain
▁Delayed
BH
▁lorazepam
▁resul
▁1.07
▁enal
▁1,
▁0.88
▁crest
PRL
▁regen
▁allergenic
andida
▁0.2-
▁resec
gene
▁110
▁Investig
▁endocervical
▁muscul
gulation
1.5
▁iodine
450
▁slowing
cence
▁ejection
▁biopsies
▁murine
greater
▁emphasized
▁10(6)
ductive
▁adul
▁serotype
leucine
ilateral
opressin
▁laparoscopy
encephal
▁Regarding
▁protr
▁HBV
▁hyperther
▁rostr
▁amph
▁reabsorption
unar
▁erythro
male
reases
▁CABG
▁insensitive
▁unusually
tensin
AO
▁neutrophil
▁islets
rein
▁12
▁9.
▁tended
▁1970
▁700
cinolone
▁cytokines
▁34
▁augmenting
▁26.5
90)
▁fum
▁29
diagnosis
▁pleural
▁5.6
responding
lasts
trib
▁fmol
▁transported
▁rodent
aminop
▁oncogene
▁Biopsies
tection
reactivity
▁mellitus
arrh
uppression
▁inhaler
▁tubes
▁PGF
roso
▁4).
▁averaged
▁ips
ervations
▁thrombus
lact
19)
▁predisposition
▁abstin
lactam
71
▁uncomplicated
▁refrac
▁proton
▁1.6%
▁(25
oside
▁heavier
▁263
▁differe
phenyl
▁(45
▁0.33
▁1.1
-72
▁depolarizing
▁1.2
dihydro
▁228
▁exposures
▁cisplatin
anat
95
▁discontinued
umerous
▁continuation
arbonate
▁Inventory
▁recons
embrane
▁calcium
▁epidemiological
▁LDL
▁trig
divid
▁olig
rae
▁237
▁calcified
▁bulb
▁67%
▁308
▁93%
▁(18%)
▁saturable
▁psychosis
▁adsorption
▁cla
▁2%
ronchial
▁identically
quinone
▁lor
oxia
▁evaluable
.4
▁interv
▁Groups
▁inconsistent
▁5.
▁Extr
▁untrained
glycoprotein
▁disseminated
▁characteris
ffer
rever
▁ligament
▁covalently
▁plex
▁urine
mild
▁glycogen
▁ane
▁examin
RNA
▁bromocriptine
▁residual
iagn
▁TA
▁uric
▁instruc
▁electromy
▁amp
▁adhered
rospinal
▁lactose
▁alters
zation
onatal
▁cyan
▁oligonucle
▁sulph
thre
▁hypoglycemia
▁poin
erated
schem
edocromil
▁prevalent
▁69
▁3.4
ADP
▁staging
▁26%
onvul
▁doubled
▁coagulation
▁androgen
arynx
▁173
onam
chlo
▁0.26
achial
▁14,
▁aden
▁127
00-
-4.
▁bowel
▁inten
urons
▁subsets
▁asymp
toph
▁oint
accharide
▁Increas
2).
▁impairment
▁epidemi
tinguish
gluc
▁97%
depleted
▁constitute
▁1/
glutamyl
ociated
▁furosemide
▁diarrhea
▁plantar
urrent
▁ANG
▁nosocomial
▁examinations
▁ori
yridine
▁tryp
▁sulfonylurea
▁Increasing
IAA
▁demonstration
▁paradoxical
▁umbilical
▁sputum
4,5-
▁measurable
▁glycemic
▁1.5-
▁polyacrylamide
▁streptoc
▁resemb
▁coated
plenic
▁alk
▁collic
ACh
▁(28%)
▁carbohydrate
iodine
▁fractures
▁ester
▁sedim
phasic
▁impedance
▁leucine
▁Hispanic
▁189
traction
tropin
99
▁promp
gesterone
▁Centers
lox
7),
▁qualitatively
gents
▁paren
rine
2+-
cus
▁reticul
▁membranes
Cer
▁subun
▁intermediates
▁theophylline
▁77
▁uninter
▁attrib
Hb
▁thalamic
▁(0.9
orbid
bility
▁Lipid
TN
▁nucleus
▁congestive
▁suspensions
▁myopathy
coag
▁succin
▁disturbing
osyn
biased
▁serogroup
ivered
▁Interestingly
▁demonstrates
anuary
+/-
▁ventilated
▁34%
mortem
▁audi
▁30-
▁EE
▁compares
ropine
/30
▁sulphate
▁eosinophils
▁fibrob
▁chorion
▁lactation
▁investigator
▁PGA
entia
▁indomethacin
oscopy
▁fulfilled
▁catalase
▁breaths
▁(47
lodipine
epam
▁systemic
cancer
▁0.93
kephalin
▁radioactivity
▁refractory
imidine
anazol
itin
▁optimally
▁0.10
roph
iatic
timum
calor
▁chemotherapy
▁Subjective
perature
▁.00
trophy
▁neutralization
▁215
▁1.26
▁SCC
toc
▁labial
tens
▁(79
▁implic
uterine
▁inorganic
oxide
▁invari
methoxy
oyl
▁hams
▁CFU
NSAID
glucuron
▁tic
antibody
▁0.9%
▁12.0
atropium
▁LC
52
NAc
▁leukocytes
▁Sprague
.1%)
▁82%
-8
▁nevi
22,
▁(10%
▁12.5
tial
eces
▁spikes
▁277
-5-
mide
thyroid
▁analges
▁colorectal
▁promptly
ropyl
▁develops
▁arose
ophysical
oblastic
▁acin
▁32%
75
▁dorsal
105
▁cerebellar
clamp
▁actuarial
▁hydroxy
▁conductance
▁Inte
monstr
▁Ia
▁HbA
▁umb
etitive
▁radiologists
roitin
.4%)
ovir
-4)
▁thyroxine
omies
▁uncom
▁aggregates
scherichia
sequent
▁sugges
▁108
ocyst
▁elongation
▁asthma
▁organelles
▁cholecystokinin
lycer
zinc
▁modulate
▁Elevated
+]
rogesterone
▁satur
otyp
1%)
-28
▁WK
erum
▁ammonium
▁rhy
▁phorbol
▁positional
▁supplementation
▁Adherence
▁bronchodilator
▁vertigo
ospasm
atrial
▁38%
▁252
▁bronchospasm
▁axons
agonist
▁recurrence
otypic
▁Intracellular
▁BCG
▁collagen
▁neomycin
▁monocyte
▁57%
▁UDP
controlled
▁160
▁activating
ressive
leb
▁vege
▁protons
▁(29
tum
clo
▁confined
▁contiguous
▁DP
▁diclofenac
▁ablation
limb
allium
▁abscesses
▁Urinary
rocytes
▁scarring
physiological
otropic
▁nonin
erence
iplin
▁manipulation
▁detrusor
1]
▁projections
▁hydroxylase
associated
▁hypertrophic
3.1
▁precipit
▁0.78
ylcholinesterase
▁rGH
benz
▁sorbitol
gthen
▁vestibular
▁170
▁vacu
▁aerobic
▁Leuk
etween
▁exploratory
zymes
hydroxy
tus
▁quinolones
▁0.46
▁40-
▁nonselective
oporosis
▁conjunction
▁Tolerance
30)
▁responders
▁contral
81
▁BK
▁0.17
▁nondis
▁UT
▁2.4
▁practic
▁colic
▁discriminate
▁microelectro
ipro
athe
▁washout
iably
▁250
.3.
imin
97
▁183
ensitivity
▁differentiation
▁78%
otrexate
▁GSH
▁excessively
▁affinities
PSPs
dor
piration
▁theore
orec
histamine
trition
▁antiviral
nee
opoly
classified
▁defective
▁reinforcement
▁arous
▁(140
▁0,
0.7
▁(75
▁amphetamine
▁mutation
sulf
titution
▁aqueous
▁flanking
aline
▁follicles
oride
NIDDM
▁luteinizing
apsulated
▁immunoblotting
▁uro
heat
▁Localization
yroid
▁mammography
▁0.51
▁123
▁exag
guing
▁cancers
▁contractile
terol
queous
▁29%
▁ranged
▁macrophage
▁135
▁0.7
▁RNA
▁influencing
▁enrich
rospor
▁gelatin
▁Behavioral
ginine
3)
ATPase
ositi
occus
otrop
acetyl
Ds
▁evaluates
▁albuterol
▁40
thmia
▁leakage
fetoprotein
-1.5
kine
tinent
▁dimer
▁renovascular
▁unnecess
arean
hort
▁necrotizing
veness
galy
▁0.42
▁impair
▁0.05)
▁endocytosis
ifug
▁pharmac
▁preven
/90
▁somn
▁triglyceride
▁summ
surgery
lusion
anin
▁topoisomerase
PV
ocardial
▁(62
▁immunological
▁suppres
▁comprised
▁hydrolysate
▁overlapped
otone
etidine
▁cytoskeleton
emia
▁eczema
aternal
▁irradi
itic
▁gingival
▁airflow
PMA
▁paired
irradiated
sions
▁sulfonyl
6),
▁hypokalemia
atural
▁xyl
xia
soluble
▁lymphatic
▁colchicine
▁responsive
▁lipophilic
ocycline
▁parasite
IgG
▁disposition
▁leth
▁translational
▁hypers
▁inhal
▁beads
▁solub
▁administered
▁dehydrogenase
▁musc
▁alveolar
idine
▁osteoporotic
▁ketoconazole
▁mesangial
▁reviewing
enil
▁0.3
▁contex
▁3.6
▁infrequently
▁consis
▁glomerular
▁birthweight
▁secrete
▁heterogeneity
▁structurally
38
▁fistula
▁lateral
▁percutaneous
▁AIDS
monary
▁87
▁intractable
tact
hered
atified
ronectin
▁27,
▁isolates
kinje
rophenyl
▁glycosylated
▁characterize
▁suicidal
▁thrombo
▁seques
▁350
▁comprising
sulfamethoxazole
▁0.001),
potential
utaneous
▁bioassay
▁psychotherapy
rologic
▁(12
▁Raynaud
103
▁maturation
oinositi
▁lymphadenopathy
▁amyl
▁newborn
plen
▁hemorrhages
omerular
88
▁(2%)
▁enlarge
retion
▁relevance
9%)
▁NGF
▁10(-6)
▁Pertussis
▁(1.4
tric
retro
▁Cooperative
▁valu
▁phospholipids
▁4.9
antial
▁subf
▁desaturation
▁lis
▁0.11
▁discus
aerobic
5]
▁tetracycline
onor
▁reflecting
achol
0.4
mobil
▁viability
utyric
▁stripping
▁reductase
▁homeostasis
ocellular
tivated
astases
▁Highly
▁syncope
▁unex
▁cytoplasm
plants
ralfate
▁tuberc
▁satisfactory
vate
▁chromosome
▁6.3
▁disapp
▁accel
dibular
▁metabolism
▁anion
▁depolarization
▁5%
esity
▁steroid
resid
▁microscopic
▁phyto
tomies
tocin
▁blin
▁RS
▁glucocorticoid
▁Bec
oxazole
posable
stimulated
▁elastic
usually
▁maternal
▁1.5%
%).
allik
▁antid
70
▁atypical
▁sequential
tenti
▁44
▁fetuses
▁cis
▁introduc
LTS
▁10.2
▁IFN
300
glutination
▁coping
▁supine
abin
apid
▁ejac
▁Adverse
▁projec
▁lipids
LV
▁PRA
▁284
▁17,
trated
▁VIP
▁antitumor
▁tenderness
▁relaxants
▁demonstrating
fluoro
▁deletions
▁immobilized
ectomy
▁Survival
tering
▁0.001).
ohyd
▁retardation
▁0.25%
utable
nitros
▁manifestations
▁hormonal
▁leukocytosis
▁insoluble
/100
-80
▁Epidemiologic
horm
opathic
▁Basal
urane
▁corresponded
▁0.00
arum
▁polypeptides
▁deficiency
▁-4
▁15.8
▁nutritional
▁CEA
uble
vaccinated
etaz
▁pigs
▁covalent
▁trimethoprim
▁vertebr
-1.
▁mep
▁moiety
▁Various
▁periphery
▁prostagland
▁apnea
▁ambulatory
▁intracranial
▁cocaine
hCG
▁econ
▁asymptomatic
▁30
▁statistic
adrenergic
tually
▁enox
30,
▁DSM
oplastic
▁90%
▁ELISA
ussion
assessed
▁saturation
loidy
▁inh
▁20%.
-78
▁vascul
relaxation
▁FDA
▁hysterectomy
▁triad
▁0.02).
olones
▁ventilator
▁dimethyl
atation
▁proteoglyc
▁disclosed
▁specimen
▁crossover
▁underg
▁bacterial
-15
iterranean
▁hsp
▁92%
▁proteases
▁milder
▁isozyme
▁tuberculosis
▁prophyl
▁Atrial
receptors
▁challen
▁81
▁antic
▁rheumatoid
▁granular
nowled
otomy
oterol
▁Modified
▁circulating
dL
tention
▁airway
▁collec
▁7.7
ternational
tomas
▁ductus
▁enti
▁20
-23
1/2
▁irreversible
▁rejection
▁Hypertension
▁8,
▁proteoglycan
94
▁capsaicin
▁synthesized
▁indeterminate
ovirus
keletal
tructural
▁overestimate
▁134
▁rhinitis
ischem
▁Pretreatment
▁filtration
▁nitroglycerin
▁tonsillar
110
▁diagnosing
▁(1)
▁pulsatile
▁clamp
▁mM
▁ingested
▁tric
▁pharmacists
▁genital
▁(58%)
5.
▁RIA
▁64%
▁47%
▁26
▁traction
1-1
Km
tiveness
▁drinkers
osteroids
▁satisfactorily
▁ubiqu
▁ultim
▁stimulatory
▁parenteral
conduc
buterol
▁enteral
▁80,
Mg
▁denervated
▁sulfon
▁spectroscop
havioral
▁lymphoid
▁microtubule
68
▁5'-
olac
ethylene
▁incomplete
siologic
15
tase
robic
▁subjective
▁shedding
(4
▁dB
▁occurrence
▁cephal
▁adenoid
gressive
affected
▁faecal
▁BP
andard
▁lavage
▁stained
▁pacing
estradiol
▁alkaline
▁ammon
▁nig
-8.
1,
▁EDTA
2+]
roscopic
opi
▁pneumococcal
▁nonp
▁-3
▁accumbens
▁chromosomal
estig
▁000
▁98
▁facilit
platin
aneously
▁reflux
▁homogene
▁corticosterone
▁295
▁irradiation
▁(7
▁duplic
▁intestinal
Sepharose
▁surgical
▁ascites
▁metabolites
▁inherent
certain
▁(6
sue
▁perit
▁alp
athic
▁acetic
▁Adh
▁bronchodilators
8%
▁tibia
amet
tib
▁envelop
oretical
▁infarct
▁onc
uestion
33
▁(1).
▁negatively
▁11,
▁polymy
itus
▁harb
leukin
adin
▁gp
▁linkage
esin
▁rostral
▁encephal
▁0.67
-25
▁hypot
▁CNS
▁irrigation
▁Trp
tically
▁restenosis
Ly
tages
▁withdrew
▁Systolic
▁mitochondr
myc
▁orthostatic
▁19.
▁exerted
▁deli
exin
▁chromatography
▁abrog
acquired
▁ADH
▁restraint
enterolog
alas
athy
▁genome
aortic
▁enanti
▁libitum
▁carcin
hexyl
▁albumin
▁mmol
▁thiazide
▁0.57
roma
▁14%,
chemical
▁hypertrophy
▁correlating
toxic
▁superf
4]
▁virtu
▁stool
50,
▁0.02
▁classify
arterial
36
▁3.5,
emide
▁8.5
▁mening
teric
onide
▁chimer
▁LAK
jective
arbox
▁HC
▁Evidence
500
nish
irone
▁8.
▁triglycer
▁endot
▁catecholamine
erb
▁activates
▁(4%)
bran
▁niacin
▁enzymes
kling
secreting
valence
▁Antibodies
-1.0
▁postnatally
-2.5
utin
ameters
otent
▁acinar
▁smokers
▁Nons
operatively
▁immunoprec
iceptive
▁(30
antagon
▁secretion
▁11
▁msec
peptide
odal
vival
▁0.8%
▁acidosis
strual
:1)
▁unin
tested
ausea
▁ciprofloxacin
▁56,
▁subclinical
gative
-1.1
54
▁connec
▁1988
▁fathers
idating
uvate
▁progenitor
▁0.03
▁amylase
▁47,
ancomycin
.2%
▁Successful
▁PPD
▁immobil
▁currents
trogen
▁phleb
▁mutants
▁tumor
veolar
▁146
▁contrib
electron
phadex
▁beats
ortic
▁6
▁pathways
omatosis
▁transmitter
▁metast
lactams
helium
▁12-
▁repetitive
▁Subjec
altered
▁carotid
-4-
▁unrecognized
▁diarr
▁sarcolem
▁osteoarthritis
9.
+,
chloro
▁154
▁phospholipid
ifers
▁thromb
▁scans
▁capillary
▁cramp
▁granulocyte
▁wedge
▁Haem
▁glycos
olis
▁ND
▁presynaptic
▁veins
▁25
nthe
neu
▁HF
▁ischaemia
▁infections
▁electr
14)
-125
ticularly
800
▁avian
iflu
trical
▁hydroxyl
▁viscosity
61
pation
hemical
▁stimulates
▁adip
olecular
sible
ayers
▁valproic
▁retinopathy
▁radionuclide
▁Feeding
3]
▁chl
▁compart
atase
▁mimicked
2.1
▁lipoproteins
▁polymorphic
▁controver
ithium
▁keratinocytes
▁establ
▁16,
▁mmHg
tist
-4,
▁nontoxic
casein
▁pretreatment
otin
▁thiol
▁ranitidine
▁doxycycline
hepatitis
▁3000
mur
loon
▁verbal
▁depressive
▁phage
▁Americ
enteritis
3%
orphin
▁synap
▁dete
▁transcript
▁(2)
-52
▁sial
iary
▁atrial
▁coh
▁mice
ctomy
rosine
ulators
▁overestimated
▁cation
▁skinfold
▁3.
pecially
▁prednisone
▁retrospectively
▁PMN
erally
galactosidase
▁-7
yste
▁tris
▁10(-9)
▁ambient
deficiency
iotensin
vely
tinguishable
▁CIN
ympathetic
bic
▁microv
epsia
▁phosphorylated
▁naloxone
responsiveness
3),
▁bolus
▁HCO
▁uteri
▁conjugate
▁sarcoplasmic
▁efflux
▁facilitation
▁arising
▁GST
▁imipramine
algia
▁unselected
growth
▁quies
ervo
▁gallbladder
▁sulfoxide
10
isal
▁obstructive
rates
▁neuronal
▁reproducible
tism
isol
▁sedimentation
lycemia
umulative
optic
▁direc
▁receptors
▁peptides
▁(4)
▁SLE
▁ambul
▁(15
ytoin
idin
▁autoimmune
ranean
salt
-1)
arial
▁NI
▁caffeine
▁monke
▁dissociation
▁kidneys
▁stringent
lac
▁titr
ovalent
▁hyal
inergic
embers
▁surveyed
▁Surgical
▁100-
▁similarity
▁torsion
▁(1.3
▁elicit
▁kcal
gestational
▁activator
4).
atches
▁(85%)
▁pressures
▁conduc
/20
170
▁organism
▁macromolec
rehen
▁fractionation
roxim
▁psychopathology
▁16%,
▁thrombosis
:1
▁neuroblastoma
▁yolk
▁2.2
▁prono
▁dissoci
▁95%
▁deletion
▁glomer
▁adipose
▁respir
▁GER
233
▁mono
▁thromboembolism
▁progesterone
▁endotracheal
drome
8),
▁dus
▁aorta
▁Prel
obronchial
urine
▁ultraviolet
▁247
▁overweight
▁Dip
productive
▁uncoup
▁endocrine
▁athle
tribution
▁idiopathic
spectrum
▁isoflurane
tual
▁hypothermia
epithelial
▁0.38
▁occupational
prin
abdominal
apeu
illi
▁polymer
▁299
▁40.
▁capsule
▁acetyl
ophageal
0.5
▁Dex
testosterone
▁ipr
roximately
demic
▁catalytic
▁surgeon
ylchol
ometr
▁resin
▁endothelium
▁ascertain
▁stabilized
▁tympan
▁capillaries
▁221
▁10.5
bA
initiated
▁tymp
directed
▁emptying
▁incontinence
▁diuretics
▁differs
▁weighed
oscopic
ulatory
▁1.0
(2+
TPA
▁GHRH
▁doubling
▁gynecological
▁weighing
-7.
▁averaging
▁resemble
▁oligodend
▁6)
▁definitive
galact
▁4.5%
▁neurological
▁65
▁multin
▁hyperplasia
▁accessory
▁208
▁136
-3,
▁25-
▁800
infected
▁subunits
▁multim
▁oligos
▁137
▁probes
▁ESR
▁sheath
▁histological
▁anticoagulant
deficient
▁Prevalence
▁conjugated
abec
cysteine
▁117
▁(3.8
▁(54
▁diagnoses
hap
▁predictor
▁exaggerated
estrogen
▁dithi
▁viruses
▁predictive
▁7-
▁hematoma
▁itraconazole
▁haemodynamic
▁Meth
▁appendicitis
▁rRNA
essel
atid
▁10(4)
▁subjected
▁colpos
FEV
▁stripe
charged
▁kits
vix
HB
▁predic
bodies
globin
▁carcinomas
tizing
iversity
uating
▁ribs
▁lys
▁Bacillus
hydroxylase
▁outbreaks
▁scars
ureus
▁putative
opausal
▁bursts
▁inactiv
▁stroma
rof
▁EBV
▁immunotherapy
organic
▁-15
▁Tiss
▁Hg
▁CAT
▁nulliparous
lipid
PTH
▁LN
▁10(-5)
ffec
▁5.9
▁Invent
▁immunore
continu
▁insom
MN
adm
sities
▁coval
enia
▁Subsequently
▁desensitization
10-
iparous
▁Immun
lude
▁biliary
ystitis
▁progres
▁validity
▁appendic
heavy
tel
▁collagenase
▁subjec
▁estimating
▁(76%)
-3-
▁oxygenation
metabol
▁outgrowth
▁revascular
▁choline
▁exhaus
reduced
aicin
▁immunoglobulin
pran
fate
adine
▁Ps
▁suppression
▁tachyc
ergenic
nRH
▁tumours
▁concurrently
▁raphe
ziness
linking
▁(19
▁aneup
▁interrup
▁tissues
▁felodipine
▁euth
▁rhabdomy
▁remod
▁67
▁deox
▁adduct
▁Meas
▁repres
emias
▁fulf
▁10
▁glial
▁(75%)
gth
-10
fused
▁0.90
▁ultrasound
▁strom
▁Dental
▁serolog
▁phosphoinositi
quine
▁tubular
▁TCA
phic
▁sphinc
▁fibronectin
partate
▁199
▁glucocorticoids
▁schizophrenia
▁sut
▁dioxide
▁throm
jug
▁simulated
▁cigaret
itum
nons
EAE
▁2-
▁thoracic
▁monos
▁analyses
▁conservatively
induc
▁aberr
▁19,
nisolone
roscopically
HV
ochle
ecutive
itoneal
ocarcin
▁juvenile
▁1.05
▁protease
▁triceps
oprost
▁dehydration
30
▁therapeutic
sparing
▁neph
▁resear
▁preventive
▁CI
ipine
▁irregularities
▁peri
opoietic
-11
ntolamine
intestinal
▁amplitudes
▁DH
▁reversal
▁anxiolytic
▁soy
▁cartil
cents
▁microorganism
▁noc
dT
▁immunostaining
vated
▁injec
inflammatory
▁segmental
140
iloride
▁incompletely
▁curet
74
▁Positive
▁Diagn
▁AUC
▁50%,
▁Scale
thickness
▁6.2
lyc
▁arachidonic
▁constric
▁gyn
obac
obacter
ministration
ASA
▁amin
▁morphologically
stin
▁backgrounds
oscop
▁granulocytes
▁Effec
linic
onucle
uscular
80)
▁agonists
▁7)
▁Magnetic
▁DNase
▁70.
▁0.9
▁anesthetized
▁hypercal
▁Statis
▁lymphocyte
▁longus
▁lipoprotein
EI
▁embryo
▁retina
▁descending
▁peptide
▁covariates
▁elemental
amethoxazole
dies
▁castrated
▁6%
▁1.00
▁microscope
▁developmental
▁Pregn
▁(+)-
igenic
▁phag
▁disturbance
athiop
▁cervix
▁resection
▁13.2
▁prostatic
▁alcoh
▁tubulin
▁cytokine
operative
formations
actin
sors
▁31%
▁prostatitis
▁extracts
botic
▁glycoproteins
▁chemically
fec
▁(+/-
oplasty
▁concom
tenosis
.2
▁dissemin
ygdal
▁Milk
hyd
tured
▁infiltration
▁1.45
▁afferent
/5
▁4.0
▁illumin
▁soluble
▁sati
▁antithrombotic
▁90%.
▁inactivated
▁cran
▁immunity
▁Fib
motor
▁yr
▁chemotactic
▁protracted
(2
▁lymphokine
▁cimetidine
▁taurine
▁TI
▁aerob
▁nuclei
▁enteric
▁nucleotide
▁reserpine
▁granulomas
onset
▁Rates
▁excretory
▁Measurements
▁mediast
▁14%
▁500
▁MRI
85
olesterolemia
▁261
▁arti
versity
▁0.18
▁inhibiting
▁datab
▁1.2-
tives
prol
▁complexes
lys
▁cellular
▁alkyl
▁LT
▁penile
▁78
▁antagonists
▁acros
onazole
otassium
▁erythema
▁hypop
▁dentures
lux
▁8%,
gated
▁17.7
lastic
▁clearance
▁mortality
▁49%
ipar
oreceptor
▁ketoacid
▁chloramphenicol
orated
▁pathway
▁jaundice
adone
▁Extensive
▁isch
bacco
▁pathogenesis
▁nonspecific
▁pyridoxine
▁fluoroquin
▁(40%
▁headache
▁7.3
▁conditioning
▁eti
▁GnRH
acid
29
lycero
▁Sephadex
▁cortisone
kDa
▁bromide
▁xylitol
5'-
▁neoplastic
micro
-800
▁1969
▁10.8
▁synerg
▁concep
etal
▁Hyd
carbox
▁223
ipr
▁iat
tryp
erating
▁pathogenic
▁(15%
ohnson
HRP
▁differenti
▁clarify
▁1,000
▁Serum
▁chym
itamin
▁6,
urnal
▁strep
▁prolongs
▁14-
▁abor
▁spor
uvant
loid
▁encephalopathy
adequate
Ba
▁cremaster
▁nal
▁aneurys
▁analogs
▁metabol
aminidase
▁positioning
▁toge
.9%
▁7%
9]
▁inser
▁biosynthe
▁fused
▁integrin
▁4.7%
▁0.36
▁6.
▁hirsutism
acycl
omn
▁96
▁trich
amid
▁noradrenaline
▁TT
roxyprogesterone
omized
tation
gic
pain
▁Adding
▁retinol
aund
▁1.8
▁205
▁cyanide
▁650
▁swabs
▁quinacrine
▁pulmonary
▁acetate
oxan
▁25%
riton
▁prolonged
93
▁fric
▁11.2
onary
PPP
opsy
5%
▁188
▁Improvement
odic
▁innervation
▁interne
▁LR
▁follicle
5,000
conversion
ritin
▁Physicians
▁rectif
▁76%
▁rigorous
▁amine
▁colliculus
▁pools
onit
▁cervical
geneic
▁perip
▁ligation
identified
ervated
▁Phosph
▁Absolute
▁papill
▁decayed
▁carbonate
hers
▁Plas
ectomies
▁ovarian
▁elimin
xyl
▁donors
▁diffuse
▁22%,
orubicin
▁disrupted
oic
▁onset
▁deterior
▁blocker
omiting
▁residues
▁(0.1
-2.
▁ure
▁Adequate
▁alcoholics
plasia
▁heel
tiz
▁0.35
▁11-
▁Antim
taz
▁sepsis
▁mV
▁endings
▁mononucle
▁etiology
▁antimic
▁predictors
▁isoproterenol
▁TPA
cAMP
▁ribonucle
▁Ventricular
▁regulate
▁reticular
smoking
yses
▁fluorescent
▁lute
anate
▁quantitative
▁MK
▁warts
selective
▁inspiratory
▁hypox
▁0.58
▁bacteriuria
itrate
▁4.8
▁Subsequent
▁oes
onance
atonin
▁mug
▁agar
-6.
▁glucosamine
▁Barrett
▁efferent
▁polysaccharide
▁Tran
▁550
timulation
▁supple
▁Sodium
▁acceptor
ceptive
900
▁nonsignificant
▁presentations
▁500,
▁accumulated
▁bronch
oppler
▁humoral
oprote
EGF
ongest
ostic
▁adhe
adequ
▁oxidative
sant
▁prodrug
formin
▁LHRH
▁dissociated
▁elicits
▁aberrant
▁Inhib
▁EI
▁Intr
▁3.8%
▁antero
▁esophag
▁benz
▁lymphoma
producing
▁Enalapril
▁reactive
▁0.09
▁unrestricted
fibr
urther
▁Patient
▁exacerbations
▁depolar
▁Animals
▁orch
kele
▁transaminases
▁Angiotensin
▁prescribed
▁15-
▁antich
▁Injury
▁epilep
stolic
himbine
▁Tn
ocrit
▁50
▁(44
osomes
▁proteolytic
▁4000
▁Experiment
▁regained
▁virulence
▁anat
▁(4-
▁electrolyte
▁postulated
▁reductions
▁(1:
▁rats
▁exons
1%
▁fertility
▁inducing
▁gastr
▁androgenic
▁TG
unctional
farction
macropha
IDDM
▁elas
/18
▁discontinuation
▁dors
▁(90%)
▁nasopharyngeal
adrenaline
/1
idic
▁monotherapy
▁infarction
▁EGF
▁cirrh
▁surgically
alanine
▁basal
▁adolescents
▁mec
ithm
▁bouts
gian
▁ORF
▁gastroenteritis
▁1
▁determinations
▁Specifically
osylated
▁75-
▁agarose
▁abscess
▁neuropathy
▁aids
▁0.5,
▁somatic
▁Thin
▁155
▁expectancy
▁suppressed
▁speculation
urys
▁4.3
plantation
▁myocardium
▁locomotor
-10(
▁normo
▁Benz
▁influenza
▁(14
LISA
▁[3
omegal
predic
▁operative
▁diagnos
▁anticoag
▁Assessment
▁inhibitor
▁colectomy
▁coenzyme
testinal
▁subpopulation
▁stimulus
.8%
▁isolate
▁tracts
▁arrhythmias
▁retic
EG
udin
▁arachid
cine
▁MMS
▁astro
▁evidenced
▁prednis
▁sensi
▁1.3
▁thre
▁Exposure
▁pmol
drug
▁bran
tise
▁0.2
organism
inoc
phor
▁provoke
▁intramuscular
▁18-
▁guan
-100
ifferen
▁Retrospective
▁elastase
▁Tumor
▁(0.5
▁Few
lives
specificity
oxygenase
▁hep
luc
▁assessed
▁0.95
▁maneuvers
▁nephro
▁phenylephrine
▁WHO
▁7.1
▁0.5%
elec
umping
25
▁struc
▁400
▁expiratory
lax
▁fibroblasts
kground
▁duct
ecretory
95%
▁substitutions
indings
▁absorpti
▁lipase
ulsive
tene
3).
▁gestational
▁simvastatin
mega
fat
rotic
▁transcribed
▁49,
▁guanosine
▁morphologic
▁acad
▁100,
▁radioligand
▁tritiated
agic
▁13
WBC
lies
▁anaesthetized
▁46%
erative
oconstric
▁Ultras
▁elu
▁cardiomy
▁(0.0
cemic
▁axial
qui
▁naproxen
▁poisoning
▁7.5%
▁gonorrh
▁metic
▁Rats
oglyc
lective
erver
ureas
-200
▁nicot
▁peaked
▁ultras
7]
injected
onuclease
ignificant
ichloro
▁thereafter
erge
▁ionophore
▁emerg
ilus
72
▁adaptive
▁hazards
▁cortex
▁ribosomal
▁1.06
antibodies
▁349
▁infusion
omorphine
▁aspiration
▁oils
clerotic
olipoprotein
▁wheezing
quit
▁3.7
▁gels
▁elevating
▁corticosteroids
erus
▁anes
olysis
▁94
▁pulmon
enec
▁axonal
▁meningitis
▁Acute
▁regain
▁placenta
inephrine
▁TCR
▁microtubules
▁altering
▁exclusion
amphenicol
▁(69
▁bir
▁40,000
▁arthroscopy
TG
▁homologous
▁discharged
▁decreased
chool
osition
▁fenoterol
SEM
olet
uris
▁helical
▁detergent
▁55-
▁mitogens
▁Tissue
▁stromal
10.
▁steroids
▁antigenic
▁affinity
mitter
▁disulf
fatal
31,
ingers
▁Estimates
▁cadmium
-70%
▁internally
▁cytos
▁pretreated
92
▁inflamed
▁induction
46
0,
▁depr
▁maximally
concentration
▁Seventeen
chicine
ritical
lasses
magglutinin
▁pituitary
tivities
▁differentiate
▁Pneum
asions
▁conclu
▁excluding
▁transiently
▁.05).
▁visualization
▁testes
▁bactere
arrhy
ressing
ergic
▁bronchitis
ipit
▁Statistical
ithi
▁GE
ioid
▁chicks
▁2.9%
▁ischemic
ospitals
▁sampled
titute
▁reservoir
pir
▁isomer
▁infertile
convulsive
▁standardized
rometer
iatric
vents
propanol
▁receptive
▁discontinuing
▁competent
quisition
entricular
▁mammals
▁Mast
▁inflammation
▁70
quired
▁nicotinic
▁93
▁amitriptyline
▁dibutyryl
▁lysates
▁mediates
ported
othi
▁OC
arginine
▁generalized
▁vesicle
▁nude
▁zym
esides
▁TB
▁apne
▁clinically
ections
▁microb
▁peroxide
▁1984
35
▁postprandial
▁achieves
thel
▁hepatocellular
▁Cd
▁inhibit
vation
▁immunobl
converting
difference
rangements
imid
▁bronchial
▁Therapy
propyl
▁IgE
▁menstrual
▁headaches
acyl
otine
▁amlodipine
▁markers
▁fluorescence
▁hapl
▁deprivation
▁flap
▁assay
▁suprac
▁CBF
▁dispersed
▁CHO
▁triti
▁glucose
ophor
▁wee
▁equilibr
▁erythroid
▁(62%)
▁1.4
▁(39
▁organisms
▁0.8
▁durations
▁displaced
▁illnesses
rangement
▁vegetable
▁accounted
▁HBsAg
▁somat
▁52%
tipation
▁157
▁glycer
.3
indolol
▁graf
▁attenuation
iazide
▁nebulizer
▁Mortality
▁inguinal
▁cG
▁hepatocyte
▁(60%
▁necro
▁chec
▁lar
imurium
lier
▁indo
amole
▁heme
▁4.4
polar
▁3.5
▁cryp
▁immunoassay
0).
5%)
ystag
expressed
▁(20%
▁emulsion
▁catab
▁parenchymal
ivacaine
▁rickets
▁angiographic
▁markedly
ANP
▁peritoneal
cholesterol
▁perme
▁multiparous
▁erythromycin
▁screened
tochemistry
uresis
▁1985
oplasm
orphine
treated
▁lidocaine
▁docum
imetry
▁mesenchymal
myr
▁plaque
imetidine
▁caregi
onomic
ivac
▁(4.6
phyrin
▁2).
eptin
hydropyridine
▁journals
▁melanoma
▁spi
idespread
coup
▁stimulated
▁Caucasians
▁Sertoli
▁flora
thrombotic
igand
ylated
▁sialic
dose
▁4%
▁23,
▁-0.4
▁epitopes
▁0.79
▁194
9-
▁dex
imethyl
▁microsomal
ields
▁Caucas
▁hydrox
▁(-0.
▁cholinesterase
▁116
siology
▁oocyte
idate
ilic
▁cataly
▁hypoxia
▁microspheres
▁wards
▁1.3-
7-
CDD
▁uninfected
phosphor
minal
illary
odynamic
itidine
▁ulcers
renaline
▁persisted
▁abdominal
ocrom
kelihood
▁indicators
▁grading
elic
angi
▁amplified
▁rati
▁lec
▁glandular
urban
▁tricuspid
▁ocular
▁150,
0%
▁spontaneously
▁cysteine
▁assays
▁10(3)
rophy
▁implantation
▁antimicrobial
▁(4.3
▁pene
▁CsA
▁haloperidol
sorbed
▁6%,
▁outpatient
5%.
olesterole
orepinephrine
▁hypothesize
embran
ffeine
▁FD
resting
▁pentobarbital
inyl
ystolic
phage
▁cardi
▁syndromes
duce
lofen
▁myocardi
trophin
(5
▁CN
9%
▁sedative
▁dihydro
▁comparisons
sA
▁omeprazole
siological
-2,
tomized
IFN
▁intimal
▁ultrastructural
ovis
▁evaluating
labelled
tropine
▁chimeric
▁mL
▁questionnaires
▁0.05).
▁hCG
-36
erican
enyl
▁28%,
achnoid
opropyl
ocomp
▁Failure
▁7.9
▁awa
▁(1.9
▁hereditary
▁HAM
▁7.4
▁LDH
▁arteri
▁61
/1000
▁reliably
▁rehabil
▁ischaemic
▁novo
▁myofibr
terminus
▁RP
dle
2%)
▁occluded
alact
oreal
oresis
stimulating
iosis
▁atyp
Fs
▁competi
illation
▁286
▁ppm
▁Stroke
oxine
▁Stro
cretion
▁28)
▁172
iciencies
▁vasodilation
.10
ilibr
▁clues
▁Nutrition
▁metastatic
helin
▁2.8%
▁45
▁37.5
▁18,
▁pellets
▁HBs
▁predis
▁(4
▁repeats
▁facet
ocular
▁anesthetic
▁adenovirus
▁163
ograms
.5%)
▁contamination
▁pathophysiology
▁unaltered
ilin
ipramine
lip
▁panc
▁enrollment
▁240
▁immunoglobulins
▁abbrevi
▁posi
▁bradykinin
▁oligosaccharide
▁ascorb
▁baro
▁extrap
esophageal
▁injections
▁70%
▁PLP
▁metabolic
hepatic
▁phosphatid
cyclic
▁GDP
▁reagent
▁evid
▁resorption
▁tryptic
▁dendri
▁localization
aterally
▁cyclical
▁trachea
▁kidne
▁nonsur
:3
▁descriptive
pore
▁indications
▁uter
▁intracerebral
▁mandibular
▁Beta
▁ecz
osid
ositol
▁233
uoden
▁1964
▁0.0001)
▁PV
myocardial
▁0.75,
tructed
.8%)
▁pyel
▁fluoride
▁follicular
▁FEV
atibility
echan
fib
1-2
▁hydrogen
needle
▁340
vating
injection
1-4
▁30,
essation
▁peroxidase
▁angi
▁243
eration
▁induc
▁obstruction
▁colitis
▁epit
ucleotide
▁28%
▁obstetrical
yroxine
▁microgram
▁diverged
▁cholesterol
▁warfarin
▁remission
▁cessation
▁20)
▁prosthe
▁9.2
83
▁analogues
osm
▁excre
gesia
ylene
▁14.
▁Ringer
▁Kine
▁257
▁rhe
8,
▁enlarged
▁autoanti
▁73
▁semen
▁infarc
▁ammonia
▁histochemical
▁adversely
▁pollic
▁ATPase
▁lact
▁16.
▁clus
oblasts
ourinary
▁fluores
▁acr
▁lithium
▁ect
▁bypass
▁paraffin
▁rectal
▁paralle
▁4.5
ifferenti
▁kDa
▁antioxidants
▁176
vant
gA
arcoma
▁auditory
▁transmural
imide
▁favoring
▁ruptured
▁leu
struc
▁acidic
▁hypercalciuria
apanese
▁quin
▁Hodgkin
▁trabec
▁MN
rography
tophan
▁RA
▁granules
▁normotensive
▁weighted
prandial
Cy
otroph
▁44%
▁donor
▁BMI
▁detecting
▁3'
▁gastrin
▁conformation
▁intub
▁2.0
▁fulmin
▁pts
▁Fc
osensory
▁Ninety
esti
▁dischar
▁multic
▁Factors
▁commercially
▁diltiazem
▁acquiring
alp
▁inoc
▁15.
▁scintigraphy
▁surgeons
▁COPD
oxifen
aryn
▁11.0
otre
▁frontal
▁adhesion
▁3)
▁(72
▁compressive
alsy
▁dor
▁malaria
▁10%
dens
▁histopath
▁observational
▁congen
irc
tilage
▁phosphor
▁paralleled
▁interferon
▁mammary
▁reti
ritten
0%)
▁7.0
▁4.1
mentation
▁74%
▁sympathetic
▁erythrocy
▁pyruvate
▁bilayer
▁distal
cyst
eptid
ygous
▁categorized
▁arrhy
▁redox
enic
rocyte
▁phosphatidyl
▁sickness
▁renal
methyl
oxyl
▁0.59
PSP
▁plasminogen
ydig
▁abr
▁cyclooxygenase
alene
▁atheros
utaneously
▁preceding
▁melatonin
atest
mmol
▁decreasing
▁suggestive
▁insertion
▁epithelium
▁ejaculation
▁10(7)
▁chronically
▁1987
▁polymyxin
▁adver
erin
▁tertiary
economic
regulation
tors
▁0.41
.3%
▁2
ughters
▁morbid
▁inhibits
nai
▁favorable
hydro
▁lutein
▁perinatal
-2-
tion
▁analysed
ocytochemistry
▁plasmid
Kd
▁ileum
tivity
▁cerebrospinal
Au
▁scin
▁targeting
▁parity
▁arterio
▁criter
BV
▁susceptible
copic
▁Approximately
▁precipitation
▁respiration
-450
▁heparin
▁oxidase
acyclin
graphy
astine
▁pooled
ectom
▁symptomatology
oreg
tox
▁1.09
▁(10
▁individualized
titu
▁analgesia
▁reflec
▁NIH
ocated
▁15
▁(77%)
quid
▁granuloma
62
▁(20
phosphamide
iological
spectively
renol
ogra
▁saturated
400
8;
▁biosynthesis
tonic
▁ultrasonography
▁epithelia
ocrin
▁ferrous
adily
sorption
▁superv
▁hyperp
▁ech
▁positivity
▁Gly
▁unde
▁caudal
▁fentanyl
▁Levels
omycin
▁encompass
partic
ygen
▁5.3
▁acidification
▁(69%)
▁frac
▁sphincter
▁cistern
▁endoscop
sistent
▁granul
▁muscular
11
▁ramipril
ffinities
▁densities
▁impaired
▁histamine
ensory
hexidine
ulose
▁1.24
▁58
▁assemb
opathological
▁24%
▁dairy
dU
▁visceral
▁autoantibodies
▁cardiomegaly
▁40,
otor
▁eighth
▁82
▁ventilation
▁bif
▁sensitized
arachnoid
▁drin
▁euthyroid
otransferase
▁Glu
▁vasodilator
5%).
-8,
ubs
tochem
albuminuria
▁deformities
