▁neurologic
▁parenchyma
32
acute
▁131
till
▁diarr
▁pylori
ected
▁35%
insulin
▁unilateral
romes
oneph
ipr
▁8.3
atical
▁13,
▁muc
▁dischar
▁2-3
▁cytologic
▁dissociated
ritic
▁relapses
▁derivatives
▁induces
trum
▁medial
▁suppor
▁hepatocytes
-2)
▁neoplasia
▁artery
▁junctional
▁symptomatic
67
Ts
▁smo
▁nonspecific
▁solvent
▁fentanyl
taz
▁palp
▁iodide
astatin
clamp
▁gels
▁hypercalcemia
▁functionally
▁satis
▁preferen
kDa
▁amylase
▁cytos
▁tibial
assays
▁pate
Ig
▁visceral
▁modalities
▁cancers
▁pmol
▁microtub
▁potentiated
▁pHi
oxif
▁lipophilic
▁proteinase
▁warfarin
▁prevalent
7,
erent
epithelial
sorbed
▁isomer
tially
▁12.5
▁30%
▁cuff
▁proliferating
titial
▁controver
ulla
▁couns
▁depletion
▁(1.5
atif
.2
▁reinfor
opr
kage
▁cardiac
ysm
graphy
▁reserpine
▁GAD
thanol
iteal
▁maneu
▁poisoning
RNA
▁objec
anine
▁arising
loxacin
▁alteration
▁Swed
▁radiographic
▁pathway
oprec
ocyan
▁30.
toli
▁ventilated
▁SG
▁(30
▁deoxyrib
oprotein
▁hered
▁postmenopausal
enriched
▁124
▁perfusion
ifed
▁transfection
▁targeting
ichia
lip
▁subcellular
oblasts
▁Cardi
imetry
▁isozyme
▁norepinephrine
▁modulating
▁decreases
PCR
orac
▁10.0
ischemic
iae
▁noc
▁olfactory
▁tas
▁Factors
▁titer
▁chimeric
epines
▁diarrhea
▁16%
▁transpor
entral
apeptide
pecially
▁AII
-8
▁fasted
plas
cus
ylcholine
5),
▁nondiabetic
pregnant
opropyl
▁kinetic
▁excretion
▁throm
entile
alian
▁doxorubicin
▁comprised
ocated
▁clus
▁sexes
yron
▁280
▁87%
▁fluores
▁fibrils
▁trigeminal
▁117
▁cerv
▁instrumented
usate
gated
▁demonstration
▁neutrophils
▁enlar
▁neuropathy
▁oscillations
estig
▁17-
▁leukocytes
▁29%
▁estrogens
▁devoid
▁mU
chloride
▁viscer
ohyd
lycerol
▁angina
▁alternating
▁SOD
▁turnover
▁dismutase
▁gonadotropin
planted
antibody
odipine
esic
glycoprotein
▁prolactin
▁Relative
▁comple
lys
erence
▁succin
▁enamel
▁acute
▁antisera
▁heparin
fec
▁glomerular
▁intravenous
▁Reduc
▁10(-7)
▁enzymatic
/8
▁cartilage
▁hydroxyl
hern
▁instrum
▁analogues
▁erythrocyte
amycin
venty
▁deviation
versely
▁prostaglandin
▁glial
▁inhibited
4+
IGF
▁deprivation
-19
▁multim
▁improves
roscop
4)
▁osm
▁adipose
plementation
▁(9
oung
lac
▁perioperative
▁parenchymal
▁sulf
-4)
▁Drosophila
ture
jac
▁4.4
▁6%
derived
▁deficient
▁ionophore
BH
pecific
▁concep
▁vimentin
▁effec
dL
▁rupture
▁nausea
ovine
61
▁198
▁Disease
▁ECG
ytoin
essel
▁Protein
▁Sephadex
▁relaxant
▁inoculation
▁(14
mediated
▁agglutinin
▁indications
formations
uanti
▁impaired
tryp
▁homogen
▁HeLa
▁satur
▁ranitidine
▁allografts
▁influenzae
▁ADP
blood
pig
▁dimer
▁morphology
▁examinations
▁lactate
▁satisfactory
▁visc
tiguous
▁osmolality
▁ultras
rosophila
▁appreciable
▁myeloma
▁pars
▁triglycerides
▁responsiveness
▁PGE
▁PRL
▁7-
▁NMR
▁interferon
ovascular
▁epithelial
trial
tracellular
▁ammon
ellular
▁cephal
▁scre
▁Leu
▁quantitative
▁tumours
▁streptococci
▁AChE
▁crude
▁schizophrenia
▁lact
▁underg
otide
23
▁smears
urk
▁alkal
luding
▁transduction
ivac
robial
rozen
occal
8;
▁stren
rosemide
▁Transi
crimin
ocl
inally
terologous
nutrition
reased
▁wors
▁15-
▁135
▁disulf
▁92%
▁antagonized
siology
▁resusc
partic
▁interfer
▁intrad
▁acqui
▁gangli
tant
▁saphen
▁unchanged
▁chromat
▁succinate
tero
▁vasodilation
▁suppres
▁microtubules
ilin
▁epilep
▁histological
ectomy
april
▁121
ionine
▁vitro
▁degeneration
mitter
lofen
individual
physe
▁wean
tracted
▁acr
▁avoidance
▁bathing
iagn
▁intub
▁microtubule
▁uter
▁ventric
▁contractile
tamine
▁lymphokine
encephal
arcoma
▁inhibitor
▁Thirty
-125
phosphate
▁transgenic
▁cirrh
▁extrav
ureus
▁[125
▁extensively
▁8.2
▁Sixteen
▁quanti
▁63%
horm
▁ovary
feeding
imid
oproteins
.00
▁resto
▁excitation
astric
▁immunore
▁39%
▁vein
▁137
▁haemoglobin
▁biologically
amid
gland
▁9,
▁tubulin
▁interacts
ncies
▁aneurysms
+.
▁taurine
▁ascending
▁Biol
▁repetitive
tig
ipro
96
▁Experim
▁regurgitation
purified
tally
▁0.4
▁noninvasive
▁diaphragm
▁glycosylation
▁85
uoden
▁heterogene
▁0.07
▁gestation
CAT
▁cyan
▁purine
▁cann
▁accelerated
osan
teroids
▁chromosome
▁anaesthesia
▁8.4
▁pancre
idation
▁200
5%
▁cytoskeletal
▁inherent
▁therapeu
▁3-
plastic
▁100,000
▁0.20
▁subunits
▁GH
unsaturated
oreg
valence
-7
rotic
▁phosphatidyl
▁inorganic
8).
idone
trover
geal
rometry
▁prescribed
uracil
93
▁Ig
▁decarbox
▁bicarbonate
▁uro
induc
adrenergic
▁seizure
▁steroids
oag
ifferen
▁potassium
▁catechol
▁Eco
9),
0%,
▁ethanol
▁proportional
▁55%
▁randomized
▁4.
▁Americ
▁blas
▁augmented
▁accumulated
▁intraven
▁12%
▁6.5
pine
▁(0
▁pyramidal
▁saline
▁2.8
▁fluc
▁degrad
▁systematically
▁hazard
▁urinary
ophil
▁assayed
▁cholera
▁potent
ystokinin
▁cDNA
▁5'
ymme
▁RU
onomic
sively
▁relevance
▁antiviral
▁depressive
▁parox
macropha
▁subjec
infection
phasic
▁dihydro
odialysis
▁CsA
thase
(2-
▁cardiomy
▁CFU
▁critically
▁(37
▁Increas
▁tris
▁suscepti
-198
Pa
yses
acholine
▁amygdala
teroid
▁Haemophilus
▁pM
-4,
▁graf
▁000
coated
▁incubated
▁shortened
timulation
▁sepsis
abd
▁venti
▁superficial
▁sorbitol
thi
▁lysates
▁subtype
▁PTH
erative
▁incub
▁filaments
▁cartil
▁erythrocy
mitters
▁clarify
▁retrospectively
88
inj
▁transforming
▁proliferation
ximum
/1
▁minimally
ostic
+,
▁trimester
tice
▁prolongation
▁exten
▁nuclei
▁hyperch
aternal
aminoglyc
ruc
5%),
▁48-
▁ionized
▁Glu
▁saturable
▁antiser
▁inotropic
/3
▁phenotypes
owever
▁latency
ithin
▁thre
ntolamine
▁micrograms
▁electrodes
▁1986.
▁60%
▁RP
▁morphine
▁HPV
absorption
▁plasmid
oplastic
butyl
ffe
acil
thromb
▁104
▁slowing
▁systemic
▁SDS
resid
▁hospitalization
▁zinc
otroph
-1.0
▁markers
onegative
▁gonadotrop
▁disruption
▁globulin
▁kDa
▁10
imide
▁sca
▁evoked
adrenoceptor
irc
0.3
▁encodes
▁resorption
▁sexually
independent
okine
▁colonization
kground
▁8,
ergen
▁hyperg
atitis
▁hypothalamus
▁axial
▁69
▁limb
▁canc
▁reversal
bladder
▁tymp
idne
kinje
▁(24
▁adul
▁compli
▁oocyte
▁mediating
▁beats
▁sensory
▁memb
▁4.7
▁alveolar
▁embryonic
carbox
▁Combin
-15
▁(150
risk
2/
▁restor
▁anemia
azole
▁aortic
▁perme
oglobin
▁intron
▁0.12
▁treadmill
ignant
▁noradrenaline
uting
▁neurogenic
▁inten
▁mediates
enteric
ariate
▁apical
▁phospholipids
iversity
▁septic
▁IGF
▁electroly
▁(7
▁strains
▁hydrochloride
ograms
▁pacing
▁resec
▁instruc
▁optimum
▁1.2
▁drin
5'-
▁prophylaxis
▁Tissue
▁correlations
oluble
▁rhe
▁regeneration
estis
tocin
▁contamin
fib
▁daytime
othane
otent
▁enti
▁oxidation
pended
▁differe
▁erythrocytes
ymptomatic
▁7.4
▁cholec
▁rotavirus
▁carriers
affinity
BV
▁Clinical
▁rehabilitation
▁cyt
▁euk
stranded
▁compe
din
▁pelvic
▁HRP
▁imipramine
uron
sorb
▁socioeconomic
▁hepatocyte
▁61
tran
onuclease
ughter
▁natriuretic
▁inhibitors
▁preservation
▁lymphomas
▁nigra
▁incomplete
▁outward
uvant
▁congenital
adenosine
terminus
▁Concentrations
olarization
▁affinities
▁sciatic
▁yohimbine
otypic
▁promp
▁MG
▁phasic
tingu
rox
▁assessments
▁hyperlipid
▁antitumor
▁accumulation
▁exer
▁relapse
▁macropha
▁antiarrhythmic
loid
▁EA
aminop
▁1.5%
▁hypertensive
▁Immun
4),
▁impairment
▁lupus
▁dissemin
azep
MN
tured
+]
onyl
▁ald
▁(1,
▁severity
6.
-3-
▁prenatal
▁Activation
chlorothiazide
iatric
▁monolayer
▁soy
▁juven
ercul
polar
vival
▁muscarinic
▁mating
tics
▁excluding
▁interventions
▁CRF
osition
▁11%
▁salbutamol
▁elas
▁phospholipase
▁RA
duction
duced
translated
▁leukotriene
ayers
▁73%
▁saturated
▁definitive
▁logistic
DNA
odds
▁ech
▁129
tiz
▁5.1
▁phi
▁deficiency
▁immunologic
oproterenol
estrogen
▁skeletal
▁cerebrospinal
luores
▁phosphorylated
▁VLDL
▁interne
kines
▁endotoxin
viruses
25
▁Maximum
▁abnormalities
▁elu
scherichia
▁intermittent
▁physiologic
oplasmic
2%
▁0.30
oactive
▁filament
▁71
▁homoz
▁antin
▁45
vation
▁infiltration
IIIa
▁0.5
lymph
▁estradiol
33
▁inver
▁TGF
etan
▁hemorrhagic
▁symme
▁collec
▁assay
▁premature
▁prel
▁Bac
▁aneurysm
▁hemodynamic
toid
▁polypeptide
▁Elec
phic
▁enzym
tering
othyronine
acted
▁Intra
▁embryo
▁disturbances
onstric
▁enhancing
▁postpartum
▁gm
galact
moking
▁casein
▁91%
▁perforation
lational
▁EG
▁(198
-34
thma
▁10(-9)
ignific
▁microvascular
▁haemat
▁86
▁ect
▁recom
▁donor
▁ileum
▁recruitment
▁Pseud
ophilus
ozo
▁IDDM
ocarcin
ellum
▁bac
peak
ypical
-45
▁unstable
▁extensor
otomy
▁hygi
anking
▁0.001).
yrox
▁50%,
▁BP
▁aluminum
▁haemorrh
glucose
▁stratum
▁indicators
stimulating
▁appropriately
▁fluo
phyl
▁sputum
▁(3)
▁0.11
+)
26
500
▁mimic
amn
▁genital
rhy
▁haem
trus
▁disulfide
▁tissues
piration
▁splicing
▁immunotherapy
converting
▁saliva
▁potency
▁acces
▁preincubation
▁40
osocial
▁capillary
illus
GH
asive
▁hsp
tillation
▁HSV
▁currents
toxicity
▁fetal
wann
▁subclinical
tiary
uran
▁collateral
▁enal
▁hydrophobic
▁opiate
▁aberrant
chemical
xual
phosphorylation
▁epithel
orphin
▁lymphocyte
▁1
▁prognosis
▁polyclonal
▁phospho
▁conjugated
▁bFGF
▁proteoglycans
-13
▁malformations
▁cavity
▁duplic
ethyl
▁percentages
▁dilution
sAg
▁resin
▁radiol
▁concurrently
throm
gely
▁liposomes
▁ovarian
▁emulsion
▁isoproterenol
rostenedione
NAc
▁prophyl
▁untreated
▁(10.
▁immobilized
xia
▁Pretreatment
▁40-
perfusion
▁attenu
-1).
▁retard
▁sial
▁[(
▁shorten
47
esity
▁receptor
▁persisted
▁cycloheximide
aryn
0-
odic
▁TB
▁68
▁7.1
▁unlabeled
▁inactive
roglobulin
itance
▁PGF
stim
▁responsive
illin
trates
2,000
▁prostagland
osts
▁triphosphate
▁adequ
olec
▁amput
▁IgE
▁resuscitation
cyclic
▁101
▁peptides
▁syndromes
acid
▁lamina
assi
▁efferent
PAP
▁bilateral
LH
▁cows
ensory
cholesterol
▁sequencing
▁0.02).
▁adducts
▁lep
▁sensitization
▁lymphoid
▁disrup
FU
▁epsilon
▁[35
▁neph
ygo
▁scaven
5;
▁immature
▁sympathetic
▁inducer
opausal
▁twofold
▁66%
olgi
enkephalin
▁cytometry
▁bilirubin
▁31,
▁12
tization
erance
▁NADP
▁quies
▁mug
▁WHO
95
▁abscess
▁brid
osterone
istar
odia
▁deduced
▁fibroblasts
▁novo
oreceptors
▁2,
▁decreased
▁132
▁mammary
▁xen
▁respec
▁cocaine
▁thi
▁histidine
▁nitrate
adic
▁monocytes
zymes
▁ORF
▁deletion
▁72%
0.9
osylation
▁toxicity
▁defec
▁ket
sies
▁PHA
▁initiate
▁epit
.6%
▁intra
▁immunoreactive
galactosidase
ulant
uterine
▁Levels
itidine
stolic
▁abolished
illary
ochemistry
▁accessory
ietic
▁perin
▁ammonia
imurium
cein
▁anaesthetized
▁reticul
▁dipyridamole
▁GTP
chymal
otoxicity
ipramine
▁tau
▁circulatory
clonal
anuary
uronal
7-
▁bip
oxifen
▁autoanti
sulf
▁leuc
onium
reas
tensity
▁challen
▁proce
▁caudate
.7
turition
▁smear
5%)
trient
▁heme
▁10(-6)
10
▁poten
▁substituted
ocortical
▁ultim
▁quantified
glutin
▁hypotensive
opamine
▁wee
sA
ectomized
▁homogeneity
ymethyl
▁32
mature
virus
oretic
2,
▁irrig
ields
lycemic
obacterium
▁(1.3
rophenyl
clerosis
yx
▁tetra
muscle
renol
▁AMI
openia
▁asbest
▁behavioral
hydroxylase
▁metabolic
▁affec
▁IB
▁IA
▁20%
▁denat
▁ejection
▁onset
▁occlusion
evoked
▁KD
▁outgrowth
▁NADH
▁phentolamine
▁5.0
▁aor
-30
olytic
-18
▁competence
▁oligosaccharide
49
directed
immun
▁concurrent
▁posi
roprusside
▁ribosomes
▁propionate
▁12,
dividual
▁30-
▁ventricle
▁70
▁refrac
▁20
▁substanti
▁102
terol
▁periphery
▁-7
rested
▁vesti
▁prosthesis
▁duodenum
▁peroxidation
▁criter
cribed
▁terminals
▁neuroblastoma
▁1,25-(
▁regis
▁intramuscular
tate
▁Likewise
▁PBL
leu
▁reticulocyte
▁afferents
1;
responders
▁naloxone
▁transloc
coup
▁Leydig
▁xyl
dial
▁74%
▁acinar
mia
▁10,000
▁76%
carinic
▁conformation
▁shor
▁59%
rectomy
14)
▁precursors
▁eosinophils
terone
▁preventive
▁deox
▁cardiovascular
▁4
▁characterize
aspartate
▁keratinocytes
▁Phy
▁elevated
▁1980
▁arose
▁measurable
▁postmortem
▁adap
▁aggres
▁reas
ensities
▁Golgi
▁(1.6
▁hamster
timal
▁Ace
▁contaminated
hepatic
osomal
▁collagen
▁sequelae
▁Differences
availability
▁vivo
titute
▁segreg
▁pathological
ocin
▁cranial
idis
-2.
lastoma
▁dispersed
injection
vaccin
7%
▁occupational
tation
ometr
▁enlarge
▁degraded
▁arterial
▁vomiting
lasses
▁metastatic
7).
opril
monary
▁secreted
68
▁uncoup
-5
ureth
▁ouabain
▁spon
▁horiz
▁hemodynamics
IgA
tec
▁diabetic
▁transmitter
▁Urinary
▁omeprazole
▁inadequate
▁underwent
thle
▁0%
ept
▁truncated
▁mann
▁aspartate
▁8.
▁spi
▁caloric
▁monkey
▁viral
affin
▁CHF
dered
▁prospective
▁generalized
▁TPA
▁10,
FSH
▁KCl
IFN
▁esophagus
3),
▁periv
63
inhib
▁negatively
▁hydrophob
sensitivity
treatment
▁sacr
▁locus
▁0.000
▁elicit
▁serotype
▁DH
▁glycine
▁Compared
▁traumatic
▁lec
▁GFR
▁62%
psych
yel
▁bir
▁frog
▁0,
-12
▁HbA
▁Cs
hyd
▁polymorphic
oxone
▁gases
▁administered
0.2
▁-4
▁saphenous
28
▁Purkinje
▁64%
▁(50%)
▁0.04
▁averaged
▁pacemaker
▁amyl
Daw
▁Candida
-1
▁vaccinated
▁Treatment
infected
▁recipients
▁genomic
roph
▁panc
▁sequentially
tabol
▁sperm
tetr
▁MAb
▁cataly
▁microliters
▁5'-
▁98%
▁(5-
▁ribosomal
▁HBV
trone
▁fistula
rosis
phorbol
ycin
activation
abdominal
▁ventilation
▁pathogenesis
▁glycos
kinson
▁9.5
iesis
▁Caucas
▁attributable
cells
▁disclosed
eded
▁Cys
▁sput
▁synov
▁leuk
OH
▁conformational
▁desensitization
.0
▁pigs
ondr
▁monoclonal
▁immunogenic
▁parietal
pressure
odine
▁vulgaris
▁EGTA
dT
▁myel
onor
trodotoxin
▁transferrin
▁intrinsic
▁16-
▁concomitant
▁hemat
▁pellets
▁fused
▁paral
bromo
omegal
▁perit
▁PGI
3+
▁progression
3)
▁uv
▁hypoglycemia
▁grading
▁MAP
yrate
▁aspec
riamycin
olig
deoxy
aturia
osin
molality
etidine
▁Mortality
▁hemorrhage
▁ligands
▁fibroblast
▁secretagog
▁(50
▁assemb
▁cleaved
▁lymphatic
▁ischaemia
▁deposits
rosine
▁(42
▁Forty
▁enhances
▁guinea
▁normotensive
rangements
▁49
▁exchan
▁SLE
▁25%
▁predictive
▁52
▁110
▁paraffin
▁sedim
▁94
▁microscopic
▁complication
olip
ocrit
▁discontinuation
tic
▁larvae
▁confound
▁thrombocyt
▁resembled
▁mmol
▁Sixty
PGF
▁organelles
rowth
Phe
▁pts
certain
otoxic
▁sero
piratory
▁amin
etween
▁adren
uspid
aryngeal
▁exclusion
▁biologic
▁emerg
administered
▁MRI
▁sulph
rease
▁subcutaneously
▁ODC
acerb
▁autopsy
▁reconstituted
▁twitch
tinu
Ca
▁correlate
92
▁Graves
monstr
omerular
▁cardiomyopathy
10.
▁DMP
▁tryptic
▁sten
▁35
usp
▁retinol
atid
lobulin
ochemically
tis
▁follic
▁(0.4
▁reflec
▁psychiatric
▁nutrient
▁phosphor
▁electrophoresis
ameth
mortem
▁vasoconstric
▁mucosal
▁sacrificed
▁PB
▁SRIF
▁Indi
▁subtilis
plantation
▁calves
▁densities
▁placental
▁surfact
▁maternal
▁asymmetric
▁efflux
▁preferentially
▁hypoxia
onset
▁Survival
▁chel
▁inhal
7)
dia
tine
luded
vice
ospitals
-200
▁36%
▁caries
▁2.7
lyl
myr
▁injur
▁parasites
▁evaluating
chym
plants
▁angiography
▁Exposure
▁dox
▁prophylactic
1),
▁judged
▁15,
▁offspring
-20
▁trypsin
aldehyde
▁transported
▁molec
▁prosthe
ogenic
▁predis
▁0.5%
protein
▁oste
▁duplex
▁electroph
▁ducts
▁stoichi
▁guanosine
▁ultrastruc
▁PDGF
clinical
▁2000
50)
▁ammonium
yridamole
▁proteoglyc
▁hypo
▁88%
▁electr
▁axon
▁retrograde
▁diabetics
roma
▁thyro
▁ischaemic
-1)
▁initiation
▁unaltered
▁intram
ophosphate
bacco
▁repro
▁immunization
topril
adex
▁Increases
▁transcriptional
otox
6)
▁specimen
adder
▁histone
▁exhibited
▁synthesized
metabol
▁10.5
▁antibiotic
▁dissec
▁arous
▁8.8
ospor
▁surfactant
▁EGF
▁neurological
▁denervation
▁(0.
▁microM
▁ovari
▁25-
ineal
▁phenomena
▁proteolytic
▁symp
▁adolescent
3.
onucl
▁presynaptic
▁supernatants
▁3.8
PRL
-24
ipine
▁agglutination
▁CGRP
▁8%
ameter
▁32%
▁additive
esophageal
▁juvenile
▁Alz
▁41
▁mitogen
▁pla
▁Plasma
0%)
opathy
▁implying
]-
▁hemo
▁lam
▁UDP
tel
▁prono
▁irradi
terolog
▁astrocytes
▁(+/-
▁benign
▁excised
▁myosin
▁Significant
ereb
oxidation
▁fatty
▁Cells
▁uric
fected
▁progesterone
▁effusion
▁catab
▁staphyloc
▁93
▁perox
amines
ocortic
▁polymorphism
▁corticosterone
ilep
oderm
▁furosemide
(2
azolam
65
allik
▁1.6
▁newborns
▁lesion
▁145
▁elevation
sities
ylase
▁elective
tance
ophag
otopic
▁incision
oradi
eces
▁0.25
▁encephal
▁isometric
6,
▁Incubation
▁transfusion
▁excision
inic
▁hyperglycemia
ressing
opha
▁restenosis
centr
▁ND
▁leukotri
▁43
▁fluoride
▁foci
odynamic
▁aerosol
▁mAb
▁HC
tribution
▁valu
▁105
▁phospholip
▁semen
▁0.22
▁identi
▁subsets
cyt
odiaz
helin
himbine
roitin
90)
▁permeability
ilical
▁extrac
▁bene
▁WK
▁obstruction
imens
urgical
▁iod
ubation
▁anomal
▁reticulum
ifferenti
▁avian
75
osom
▁pneumon
▁complexes
(1
duce
▁imaging
uminal
.3%
asone
▁undere
▁blots
bly
▁constitute
▁ablation
entif
▁clamp
tus
▁0.19
alas
oxygenase
ylchol
▁fluids
lysine
▁necrosis
▁insulin
▁carbox
▁sequenced
Dawley
▁pep
ochondr
terase
▁RNAs
▁arachid
▁efficacy
▁600
obenz
▁mitogenic
▁synap
▁6.
▁irradiation
olamine
▁equilibr
.8
tryptamine
▁coordin
▁fetuses
pharose
9).
▁extre
▁(43
▁inhibition
omycin
▁ulcer
▁neuropeptide
▁nig
▁marrow
llate
▁deli
▁clearance
▁urine
gressive
▁genome
▁(250
ejun
-6)
▁(-)-
ipheral
▁elucidate
▁0.05
▁microsomal
violet
▁contracep
▁700
yridine
▁efficacious
amel
▁3).
▁foc
▁0.2
▁thymus
educed
.4%)
▁adenoma
tual
▁captopril
▁resol
▁discon
positive
▁supple
▁lesions
irradi
▁hypog
▁65
▁dele
liters
▁Rats
▁nadir
▁aberr
▁11,
▁protons
▁resection
▁conjunction
▁prospectively
▁mec
othelial
3-
▁LPS
▁infar
9,
▁100-
elves
▁instability
▁dextro
▁systolic
▁yielding
lives
▁ingestion
owel
ller
▁tubule
rosy
▁(200
alact
-11
▁extracorporeal
▁substantially
▁3.6
▁pulses
▁tuberculosis
ritin
eptid
▁flexor
.9
▁bovine
fetoprotein
irradiated
▁.05)
▁thrombosis
clerotic
rance
.0%
▁hap
fat
▁bulb
▁AUC
▁balloon
.6%)
▁contras
tomy
▁allergy
▁0.08
restricted
▁HF
▁metabol
69
▁permits
▁granul
▁auditory
▁blotting
lysis
minal
▁alkaline
▁leucine
▁tracer
adian
▁triglycer
▁attrib
itus
gthen
▁asymptomatic
▁capillaries
▁Phosph
sors
▁BCG
▁alterations
▁diuretics
▁attenuation
▁parental
-32
olesterole
▁messenger
▁0.005).
▁Respon
▁antigens
phot
phila
▁questionnai
coun
▁libitum
▁initiating
amphen
genic
glycerin
atine
struc
▁ureth
▁prednisolone
uncture
▁NSAID
▁hypers
pregn
▁comparative
▁converting
▁accumbens
▁noradrenergic
▁catalyzed
▁reticular
.2%)
▁antiserum
ocytochemistry
▁5.3
▁lapa
▁roset
▁Meas
▁mesangial
orphine
▁immun
controlled
ochle
13
NK
9%)
atibility
▁3%
▁radicals
▁EMG
▁nitroprusside
heres
▁hams
ergency
▁fertilization
ministration
orption
glucuron
▁mortality
▁inadequ
▁invasive
urium
▁pressor
▁peritoneal
▁deform
▁10(5)
▁hydroxy
▁suppression
opoietic
▁elic
▁wk
▁heterozygous
truc
tigo
▁28
▁4)
▁Preliminary
▁intestine
▁dibutyryl
▁apparatus
▁eosinophil
-6,
▁86%
▁pancreatitis
ophys
arean
▁allograft
hyde
hetamine
▁supr
LDL
ordin
▁epidemiologic
Ds
▁evaluable
▁soluble
▁mildly
aminase
▁stimulatory
98
▁24%
▁mediast
▁7.5
▁Maximal
▁pathogenic
▁subf
▁dex
▁glycogen
▁chond
ulae
ficial
▁Factor
▁bup
▁bioassay
▁(28
▁digoxin
▁mutagenic
acr
▁recognizes
46
▁metabolized
▁100
▁7.9
▁reactivity
-14
▁gluc
78
▁cytochrome
opulmonary
ighted
▁thromb
▁130
ausea
▁polys
imolar
▁irrespective
▁periodontal
tabl
idney
▁kcal
▁3,
▁rup
esti
▁coated
ocyst
▁parac
▁43%
▁brainstem
▁diethyl
▁increas
▁murine
▁fibrillation
▁Injection
▁intrap
▁determinations
▁TS
▁lysosomes
▁radiological
ventricular
▁subcl
▁pancreas
entified
▁21
▁retinal
▁epithelia
ivered
oxic
cessive
▁regen
iceptive
00,
▁evid
▁(300
MV
▁endometrial
27
rocytes
▁2.2
stimulated
▁9-
sequent
▁9.2
chlo
▁preterm
▁diltiazem
▁repres
▁Patient
omegaly
estion
▁immunized
▁111
▁[14
iline
▁radioimmuno
▁derm
▁routinely
▁PV
icidal
occi
▁leukemia
▁fum
▁sensitized
▁pati
▁oligos
▁cyst
▁thrombin
▁Tiss
▁kidney
tive
▁sediment
patients
dor
▁NIH
▁CHD
▁MM
sion
▁1990
1-
▁trigg
▁conduction
ergic
▁93%
ration
▁quantif
▁regression
▁discomfort
▁atrophy
traction
tenosis
trogen
enicillin
tilis
ropine
▁74
▁verbal
-22
▁inhibitory
▁0.001)
▁crystals
▁1.0
urine
▁differed
▁focal
igaret
promoting
athiop
▁secretion
▁intraperitoneal
▁undertaken
▁16,
▁3.3
▁glands
▁9.0
▁proteases
▁AML
glutinin
vely
▁exon
▁OC
Kd
▁indis
8)
sectional
▁suction
odg
.4%
▁sulfhydryl
soluble
▁lith
▁mell
▁placebo
rogenic
▁cyclospor
39
sue
clin
▁Combined
▁intrac
phosphatase
crib
ronchial
aminophen
▁organs
-50%
▁31%
▁pretreatment
▁41%
▁blocker
▁gentamicin
▁analgesic
bodies
▁ips
ocamp
DH
osomes
.9%)
▁thoracic
pli
▁Higher
▁HTLV
▁antagon
siological
▁investigations
▁maturity
▁Prol
receptors
23187
▁3'
▁Meth
▁newborn
▁gradual
osamine
▁ovulation
▁osteoc
kets
▁differentiate
▁bromide
▁polysaccharide
razole
▁2%
▁Kine
▁dysp
▁pH
▁NAD
+/-
▁solub
▁anatomical
-16
.3%)
tively
▁biochemical
▁aromatic
▁exogenous
▁yiel
▁acyl
utyric
▁immunodef
omorphine
heximide
ropathy
1%)
rofen
▁epidermis
▁ACh
▁42
▁hapl
MHC
▁MH
▁normo
▁rats
▁tes
▁RV
TNF
▁Positive
clo
▁catecholamines
ferrin
▁MV
tein
▁summarized
▁supplementation
yrib
▁morphological
▁FFA
razosin
mL
▁Acute
rogenase
▁obesity
▁AVP
▁pacemak
▁cytotoxicity
▁peaked
▁fatigue
▁doubling
▁nucleotides
▁peroxis
▁pathogens
yzed
polyacrylamide
edded
▁ester
▁cardi
lyc
chol
8,
ionic
subunit
▁oxide
▁Thirteen
▁0
▁serolog
▁54%
▁acutely
▁adip
▁7.8
▁cGMP
ffer
▁ionic
▁paralle
▁angi
▁arthritis
600
glutination
▁polymerase
▁leakage
▁Arter
▁termed
▁IFN
▁lavage
▁LC
▁Experiment
▁vertebral
vascular
▁polypeptides
▁benzodiazepines
▁83
▁pneumoniae
ucose
▁catalase
▁elution
▁opioid
uted
▁stool
▁progen
▁cytosolic
irubin
▁gonad
▁prothrombin
sistent
saccharide
▁LD
▁reag
▁thiol
tries
roso
84
▁intercellular
▁uncommon
▁lowering
▁purification
▁contralateral
siologic
fibr
▁(6
dotoxin
▁valves
▁glandular
▁82%
9-
▁asymme
▁spor
vic
▁chickens
▁collagenase
phen
onc
▁familial
growth
teral
▁econ
tumor
▁glomerul
tivated
▁multin
▁practic
DV
fts
▁athle
▁determinant
imentin
▁DNAs
atation
rele
▁heteroz
▁surgical
▁fixation
scher
oreal
▁Intracellular
▁discus
▁plas
▁spasm
▁84%
▁carboxy
oplasm
▁colonic
athione
▁veins
corrected
teryl
▁33%
▁dairy
▁inappropriate
▁hydrox
▁exons
▁radioactive
▁tryp
▁IgA
▁pretreated
mental
erving
tensive
▁headache
20
ubiqu
osus
▁aeruginosa
aptic
Nase
▁pertussis
▁reac
quine
▁TNF
methionine
▁endot
oyl
▁119
▁thym
▁melatonin
▁hydrocortisone
▁effector
tussis
▁crossover
▁ultrasound
agonist
(1,
▁6
tages
itre
▁prednisone
▁Seventeen
▁crosso
▁contrib
riton
ocytes
▁obstructive
▁0.14
/24
ctive
turb
▁acetic
omethacin
▁77
isomer
orectal
ranolol
sorption
▁inhalation
▁dextran
▁46%
▁connective
4,5-
▁hypox
tivities
▁lumen
800
tivity
uppression
▁conjugates
▁ascertain
▁CG
▁atherosclerosis
0%.
▁granulocytes
iotics
ogenetic
▁proteoglycan
embry
▁positivity
▁7.2
▁intravenously
▁weighing
inemia
brain
▁linearly
arynx
▁psor
▁seroton
▁subunit
▁attain
hydrox
▁vagal
hep
▁anomalies
▁2.3
xime
▁inspiratory
▁cisplatin
▁Abnormal
▁ether
▁thio
trol
▁7,
ochem
▁persists
omies
▁calcium
parathyroidism
▁prevalence
▁strepto
▁consecu
▁infancy
▁10.
▁androgen
▁13%
▁18,
▁predic
ynaptic
organisms
▁strand
erule
▁cyto
▁overt
▁saturation
stin
▁struc
IgG
regulated
▁extracts
resist
▁tec
ogenicity
tase
▁106
%).
oreceptor
▁1,000
▁107
▁forsk
▁msec
▁concanavalin
▁insignificant
ochemical
▁GHRH
tiv
▁hysterectomy
▁epilepsy
▁oxidized
▁choles
▁45%
▁amel
▁lobe
▁0.005)
omegalovirus
▁nonf
tage
Ala
ocytosis
▁onc
▁infusions
hemical
▁experimentally
▁gestational
▁NaCl
electro
tructed
▁reabsorption
platin
▁melanoma
▁indomethacin
▁amplified
▁uncom
orrh
▁fluor
ocardi
ietin
▁38
andida
phrine
triglycer
▁48
▁catecholamine
▁Phe
-2,
▁supplemented
2),
▁19%
▁89
ecyl
▁cutaneous
▁insufficiency
▁Cardiac
▁staining
▁brom
oblastic
tening
indolol
▁HB
operatively
▁digestion
▁membrane
oglyc
ologous
▁hematocrit
▁inters
▁bradyc
▁alcoh
viron
▁contractility
▁Mn
▁manu
▁reduc
▁infections
▁remission
▁spontaneously
ithelial
▁implic
▁recordings
amuscular
▁oncogene
/-
odop
▁195
conjug
keletal
oxyl
▁transporter
▁innervation
roprus
ylyl
▁Nineteen
▁definite
heal
▁reversible
▁morbidity
ganglionic
▁intracerebral
▁threefold
filament
-5-
▁HL
utyr
▁vasoconstrictor
▁Hyper
ogl
▁cytosol
▁144
▁creatinine
▁arth
▁supernatant
eprazole
▁cycling
▁differing
▁phosphorylation
▁LTC
▁electrode
Lys
▁pyrid
ithi
▁physici
▁velocities
▁pharmacologic
▁progressively
▁arterio
▁intracellular
▁bromocriptine
ystic
▁hyperthyroid
olateral
vae
▁atten
tically
▁fas
▁flap
▁126
▁PMA
▁fmol
▁cellular
▁mammalian
grams
phenyl
thirds
▁reperfusion
▁histology
▁acco
tructive
▁decreasing
▁questionnaires
▁propranolol
▁penicillin
▁82
▁conclu
urate
▁synovial
▁(48
▁fibrin
▁identif
▁papill
▁variability
▁exceeded
▁recor
▁66
▁excre
▁reciprocal
neu
▁233
oxid
▁protr
▁Gly
▁secrete
Hu
▁fecal
▁PMN
olipid
▁Basal
▁0.1,
lusion
▁6.2
▁mutants
▁Hyp
oglobulin
-3,
▁4,
▁kary
tical
▁myocardi
athyroid
▁recombinant
▁phenotypic
▁fluorescein
▁intravascular
▁arachidonic
▁radionuclide
lep
▁favorable
▁differentially
▁surgically
charomyces
tence
▁suppressive
▁Functional
ophy
▁ANP
▁tetr
▁tachy
▁46
▁oxidase
▁reagents
▁reagent
▁inversion
▁anticonvulsant
▁granular
▁(21
▁CCK
▁0.02)
amus
▁lipoprotein
▁progeny
▁excreted
▁9%
3%
▁BK
arbox
▁plasminogen
▁adverse
hydrop
nucle
80
▁bronchial
ints
mittent
rocal
▁4.6
▁streptoc
▁monocyte
rospor
▁thir
▁1.5-
▁seizures
oinositi
▁remo
lue
▁syngeneic
▁7
▁adenosine
▁350
▁monolayers
oxia
▁sucrose
ocellular
▁amplification
▁hyperpolar
▁diffuse
illation
▁colorectal
▁adrenoceptor
tious
arrhy
▁myocardium
▁neutralizing
onucle
atology
▁redox
45
pH
▁phagocytic
immuno
▁immunoprecipit
adecanoyl
6).
drug
plate
▁CRP
osine
ulose
▁palsy
▁progres
▁parie
oreactive
▁bacterial
toph
▁bran
ifug
▁stimulated
opoly
havi
anthine
tropin
▁vitamin
▁dilatation
otassium
akary
▁cis
▁hypotension
▁TT
▁sorb
▁menstrual
vail
iliac
▁expressing
▁spontaneous
60
operoxidase
tures
uccessful
lobin
▁109
hydroxyp
phyloc
▁halothane
ropriate
▁reser
▁physicians
▁disappearance
▁topical
hea
▁endemic
▁viscosity
rophob
▁197
▁tumor
▁abrup
▁aneup
erated
ropyl
▁resis
▁molar
2(+)-
dominal
reness
aryl
▁5.8
▁translocation
cephal
▁ole
itamin
▁toge
▁gonadotroph
▁residues
▁monomeric
▁NADPH
▁predictors
▁95
▁induction
▁slices
▁Assess
+/
▁virtu
aturated
▁sensitivities
iability
▁caud
▁cerebellum
▁solubilized
▁cotrans
▁substitution
▁aerobic
(2+
rosal
▁examining
aicin
▁CHO
omized
▁hir
▁TRH
▁0.05).
▁elast
queous
adiol
▁90%
▁isch
asions
odium
▁activators
▁hematopoietic
.8%
▁capsaicin
▁neurones
▁peripheral
macrophage
cholate
testinal
▁7.6
endri
▁abor
▁cytokines
secre
▁condens
uresis
iodarone
▁atopic
▁labeling
edema
▁Wistar
catal
▁glucagon
▁6.1
▁differentiation
TG
▁gradi
▁abundant
▁antagonist
exposed
▁organism
deple
▁Lys
▁6-
▁infused
▁consis
▁8)
▁hormonal
▁resultant
▁substances
▁Sprague
▁diacylglycerol
▁crest
enzymes
eptin
5%,
▁stratified
▁pall
▁insec
000
▁conjugate
▁coli
▁glomeruli
idase
▁infarct
:1
gic
▁prosthetic
▁methyl
▁NP
ogenes
▁19,
alsy
idol
▁fractional
▁nM
2+
▁1986
▁chromatographic
antigen
▁hyperp
▁paren
▁(2
▁seronegative
▁coenzyme
▁calor
▁chemotactic
TSH
▁HI
▁Tc
iflu
GTP
▁phagocytosis
▁fibres
▁84
adjusted
idym
▁atrium
▁dilated
inyl
kely
▁inactivated
▁complementary
▁lamb
ulators
dR
xone
accharide
▁umb
▁latent
▁NH
osyl
▁endings
▁SHR
▁MHC
▁Afric
ocardial
▁(46
▁disper
tives
▁phenyl
▁1988
▁folate
▁arteries
▁musc
▁detergent
▁encomp
▁2.0
angl
ituit
opressin
▁localization
ortic
tiazem
albumin
▁sedimentation
tency
▁Addition
2).
▁30
ostatin
▁infec
▁(1
▁(12
▁divalent
▁-1
▁94%
▁eluc
▁23%
oprolol
▁carotid
▁bradycardia
antial
unced
▁angioplasty
▁122
expressed
▁histologically
▁0.15
tenolol
▁histopath
▁prognostic
▁plaque
gus
▁transi
▁amputation
▁4.9
crip
▁Ib
▁ganglion
▁contex
versity
cellular
thanolamine
▁10)
▁actin
diagn
▁vaccination
pir
▁antimic
oxin
▁Whereas
▁spindle
▁2.1
▁homogenates
acyclin
▁0.06
▁spleens
▁CSF
▁pigment
▁acetylcholine
▁Tn
▁visualization
▁abdomen
▁oval
▁monkeys
ffinities
iol
▁substrate
dition
rowing
▁lineage
▁transmembrane
▁lymphocytic
ongue
▁metastasis
ucas
▁abd
greater
▁tac
osum
▁0.35
▁puncture
abec
▁harvested
94
eared
trous
sied
terminal
▁10(
▁latencies
▁aorta
▁neuromuscular
gents
▁(15
▁Neu
associated
62
11
▁6.3
-60
ygdal
▁immunoglobulins
35
▁hormones
▁deleterious
otypes
▁hospitalized
▁Doppler
loon
▁perfor
12-
adecan
▁Inhib
▁(80
30
▁44%
▁menstr
establ
thio
▁agon
abin
▁fibronectin
-6-
▁insertion
▁immunoglobulin
▁evaluations
▁Strep
▁81
▁calcification
imetidine
▁depleted
▁glucocorticoid
olipoprotein
▁afferent
▁erythropo
-35
▁subpopulation
▁trabec
▁LT
athioprine
▁granules
▁adherent
▁lis
▁chym
▁oxytocin
itant
▁constitutive
▁transplanted
Hg
▁pools
▁examin
▁Bec
▁schiz
NH
ymptom
▁parathyroid
▁Increasing
xate
▁anesthe
▁loci
-100
▁selec
▁chondroitin
▁inducing
▁adop
▁viability
ongest
▁lyso
▁injec
▁infectious
▁radioactivity
▁deficit
riched
tub
▁blockade
▁LH
▁cholesterol
▁monomer
▁theore
▁thymic
dipine
▁epithelium
▁enzymes
oporosis
lamy
▁enriched
▁0.13
▁gon
tensives
▁cytokine
▁enteric
▁yolk
▁hydrogen
▁hyperb
approximately
▁ectopic
atment
3%)
▁chan
▁autoradiography
▁patency
▁mutagenesis
▁Plas
vity
▁clon
tructural
▁cryp
▁inoc
▁urea
jected
TPA
phal
▁(29
roscopically
▁pI
▁3.9
▁preparations
trical
▁uncomplicated
▁epitopes
▁1989
▁Acad
▁amino
▁nonc
▁hypophys
▁papilloma
5-
▁intran
▁allergic
0%),
▁puber
▁16
alp
▁modifying
ynthe
▁markedly
▁Various
▁pituitary
▁80%
▁susceptible
▁disseminated
▁3.0
▁128
chrom
▁neoplasms
▁dors
▁promoter
▁platelets
ikary
▁(0.0
ophore
oscopy
▁8.1
▁progn
esthetized
▁chorionic
uvate
▁Stimulation
▁5.4
▁monos
▁operative
▁Simult
▁1987
▁TCR
▁flexion
▁etiology
▁hipp
▁euth
▁0.05)
leukin
ults
▁epidermal
meas
▁analytical
eration
insensitive
▁MIC
▁methylation
▁muM
/12
bloc
▁dehydrogenase
▁mucosa
▁hemorrh
▁frontal
▁protoc
125
▁(20
▁synthase
▁thymocytes
cemia
▁poin
▁indicative
▁bioavailability
agin
▁alcoholic
serine
▁phosphoinositi
ostomy
▁Vmax
acental
▁44
100
▁scle
▁formulations
ighteen
oplas
.5%)
rostened
▁diets
▁suppressor
▁ejac
utions
▁0.24
PTH
▁22
▁infusion
▁interpre
▁chor
▁chlor
▁pathophy
▁reactive
▁vigorous
▁(10
▁outpatient
▁immunosorbent
measured
▁demonstrates
43
▁lysis
▁113
▁reliably
uantitative
▁inflammation
▁maximally
plasia
▁21-
▁(31
▁spati
▁300
inositol
▁lipid
▁ineffective
▁lipids
▁theophylline
acrylamide
years
▁hereditary
▁15%
▁140
▁plasmids
kine
▁cortic
▁surgeon
▁tachyc
uccin
uretics
admium
▁unusually
▁unclear
▁inositol
▁retinoic
▁PRA
illaries
▁enzyme
▁immunohist
▁neurob
▁chemically
79
▁GnRH
2+.
quit
▁7.3
▁amygdal
▁venom
▁67%
gesterone
fusion
▁0.0001).
wk
emak
EGF
▁emo
meth
91
helial
▁118
▁persistently
▁BAL
▁laminin
▁insufficient
▁trache
▁sialic
▁lipoproteins
intestinal
▁targe
ocular
lasting
▁FEV
azol
muc
▁ischemic
▁molecule
oflurane
▁phosphodies
▁compart
▁occult
titu
▁corneal
▁carbohydrate
pyr
▁tryptophan
amide
iasis
▁112
▁tertiary
4%
alate
▁CK
▁recr
▁doses
▁10(6)
▁(10(-6)
▁ovaries
▁inflammatory
▁modulation
▁forskolin
ialysis
▁transferase
ochrom
▁99
9.
▁aldosterone
subs
▁4.2
atase
onin
male
▁(100
▁yeast
amphenicol
lamydia
▁0.6
▁developmental
▁(8
▁sonography
▁benz
teroidal
▁TC
▁mannose
▁contributes
responsive
irds
inase
▁lambs
▁28%
▁asthmatic
▁prednis
▁133
▁rIL
▁macrophage
▁respiration
▁dimethyl
▁interfere
15
▁postprandial
▁rheumatoid
ipitation
obl
▁donors
▁readings
pA
idated
▁hydroxylase
▁GST
▁ethyl
altered
▁carcinogenesis
▁conduc
▁septum
▁junctions
85
▁incontin
azem
ituitary
▁ascorb
▁modulated
avail
▁40,
▁spinal
▁Ringer
▁indi
ophen
invasive
▁adulthood
arum
▁absorp
disc
▁postnatal
▁dimers
9%
▁CNS
tectable
acetic
▁Coronary
▁3',
roline
▁antiv
omotor
▁(4-
HV
▁65%
▁arrhy
economic
▁hydrophilic
iazide
▁59
welling
▁biotin
arachnoid
▁hydrolysis
▁tubes
ucle
-40
bic
-7)
▁compositions
▁retic
▁thal
▁vesicle
pinephrine
▁transluminal
▁preceding
Tyr
▁lumb
▁duc
▁depended
▁perfused
bacter
▁EEG
▁durations
▁rabbits
enoic
▁homolog
pation
athy
oscopic
52
omonas
▁elimination
urys
▁repeats
▁anaerobic
tur
▁daltons
▁vascul
▁reliability
▁transient
trated
transferase
ensi
5).
▁opioids
▁synapt
▁EE
▁cerebral
▁renin
/4
▁hepatic
▁regimen
▁discrep
▁weaning
atab
▁accel
▁cured
odal
▁conditioned
hydro
achid
▁DF
▁arousal
sensitive
▁exaggerated
▁grafts
immune
▁incom
LV
▁vesic
50,
▁10(9)
▁exce
▁dyspnea
▁fractures
▁serotonin
▁transfected
▁arrhythmias
▁viruses
▁incis
▁trig
uria
▁NI
velength
▁adenovirus
▁eti
▁elec
umbens
▁dysfunction
toxin
▁morphologically
(+)-
▁26%
▁guan
lier
▁ratios
cence
▁umbilical
▁rheum
▁maturation
▁phosphorus
▁fractionation
▁serum
anol
▁intraoperative
2-
▁antidepress
▁chemot
▁42%
-8)
ylation
▁ovariectomized
▁7%
▁Examination
▁synerg
arterial
▁refractory
▁Subjects
▁methionine
▁oxidative
▁autologous
▁referral
tomas
aemic
▁allogeneic
tituted
ovalent
ifedipine
▁infants
endocrine
▁thalamic
▁blot
.6
▁MK
▁reflexes
▁analyses
▁stres
▁mixtures
▁washout
24
▁ure
▁Interestingly
rotid
▁cen
▁discharge
▁echocardi
merc
▁CBF
▁projec
▁proteolysis
▁(2.5
▁adhe
▁Hb
▁obese
▁39
▁radiotherapy
▁Staphylococcus
▁transverse
achol
▁ciliary
▁endocrine
▁.1
lym
olesterol
▁insoluble
optic
▁enrolled
▁nephropathy
▁mmHg
▁57
oste
▁restric
▁rRNA
henyl
etal
▁rehabil
▁infarction
▁underst
oracic
.7%
▁TM
promazine
carbon
otrypsin
▁analges
▁elevations
butamol
dies
▁subc
▁predicting
▁cysts
▁mammals
atible
▁80
▁9.
▁0.01).
▁calmodulin
tisone
icep
▁incid
eryth
ritis
▁180
HB
▁cAMP
blocker
silon
▁activates
▁LR
▁Conversely
▁kD
▁(23
▁neon
▁hypothal
▁1985
▁progestin
▁recurrent
▁intensities
▁acids
▁intest
▁differenti
▁autoradi
▁kinetics
▁congen
▁transcript
▁protec
▁transplants
-(1
▁acetyl
-1.1
▁aggregation
injected
▁audi
achnoid
odeoxy
vents
omyel
▁dementia
lact
terin
▁calcitonin
▁(16
▁exag
▁magnesium
orh
nary
oclonal
▁RI
ochrome
▁elimin
▁0.01
▁organisms
▁thromboemb
▁subgroup
▁striatal
▁73
▁hemoglobin
▁exposures
▁(38
oceptor
▁optic
▁visualized
bumin
▁Prel
▁insuff
▁radiolab
▁termination
effects
-1.
+)-
▁respiratory
▁Groups
▁oxy
▁molecules
▁tric
omial
▁HM
▁lacked
▁expres
lec
nisolone
aline
▁antis
limiting
ditions
▁analogue
▁92
bral
▁47%
▁dias
▁keto
▁transcribed
▁poorer
esthe
▁concentrations
▁anticoag
onad
▁Previous
▁infarc
▁induce
lactam
▁nuclease
▁exud
▁cla
veolar
ygotes
▁ane
roxim
▁hypotonic
▁cef
▁aggregates
▁accounted
tiveness
-1,
▁isoflurane
▁25
tococcus
threatening
lycemia
▁endothelin
▁Evid
▁kinase
▁malign
galy
▁anhydr
EAE
▁ligand
▁bundles
kelihood
▁biopsy
▁sugges
urin
labelled
▁(0.1
▁rostral
▁bif
▁13-
toxic
▁filtration
▁studi
▁stabilized
▁sph
jug
▁strips
▁reflecting
▁bleomycin
▁tomography
▁deposition
▁internalization
▁topo
▁discharged
▁ACE
▁ligament
▁acetate
▁Measure
▁subpop
▁similarities
adily
icardial
1)
70
ucl
▁79%
▁salivary
selective
ceptive
▁(11
▁ankle
▁admissions
tric
thmias
▁formulation
▁catalytic
qui
▁Holter
▁bowel
▁LDL
osclerosis
oprol
▁fibrous
-9
▁humoral
▁supra
ogeneic
endorphin
▁stroma
▁assessed
namic
traum
▁17%
▁bile
▁(56
ctomy
▁mucus
tors
ubicin
▁unrelated
▁vasoactive
▁grains
MDA
▁neuronal
▁dermat
farin
ifers
ylate
▁88
lycer
▁ferric
▁NR
▁immunological
▁dendrites
apamil
▁Krebs
ocarcinoma
▁preferential
▁accep
▁smokers
▁statis
▁subjected
▁direc
▁ribonucle
▁linole
ocys
uprofen
ordance
onephritis
avage
6-
▁latex
▁biosynthe
2+]
▁immunocomp
psin
▁outflow
▁Multiple
▁thrombo
LISA
▁1,2-
▁ori
▁disrupted
▁115
▁predictor
regulation
▁construc
▁circadian
▁bypass
▁50,
▁microsomes
othi
0.6
72
occus
kling
ensitivity
obarb
divid
-[
▁1.8
-9)
nitros
▁promo
▁evidenced
▁endo
amate
atients
▁paired
▁tetrodotoxin
ffeine
▁27%
tration
▁distal
▁swelling
ffinity
▁ulc
▁microscopy
trate
▁nicot
5%).
▁prostacyclin
55
ulmonary
▁Radi
▁contraceptive
▁proteins
▁Hep
▁carbam
fraction
ecre
▁injections
chloro
▁2
▁vaccin
▁Renal
▁ocular
▁(18
tensin
▁34%
onuclear
▁comparisons
raine
ifugation
▁asthma
▁prolif
▁hemisphere
▁mL
▁deoxy
onit
▁phosphates
▁therapies
ximal
▁NF
▁corpus
▁recruited
8),
▁lute
quisition
▁autonomic
▁triti
Cu
adrenaline
▁ATPase
ethanol
esin
▁53%
▁datab
▁ventricular
-70
ofl
▁TA
▁glutathione
▁potentials
▁regulate
▁testicular
ANF
4).
▁confined
opres
▁6.0
▁suspensions
▁PBMC
ranial
▁linkage
(+)
77
▁baro
▁pineal
▁xanthine
▁unres
8.
▁prostate
igenic
flamm
rangement
▁(3
▁ureter
orsal
▁[1
▁LHRH
▁microsp
▁histochemical
▁50-
▁19
▁benzodiazepine
▁nicotine
osidase
/2
▁lipase
▁parenchym
▁hypertension
letion
urea
▁infil
leb
▁51
tents
mol
▁ubiqu
▁venous
otropin
▁97
1.
ranged
pran
▁perc
mobil
▁undergo
▁endoscop
▁duoden
▁bactere
kD
▁aqueous
▁Twelve
▁IU
▁108
▁susceptibility
▁21,
lastic
otting
▁.05).
/6
▁intensive
ortal
inflammatory
▁hypother
ecretory
▁promoters
oxide
▁anastomosis
▁pentobarbital
atum
icardi
▁GMP
ocyte
▁multic
▁perinatal
▁fung
nthe
-4
▁ovine
roscopy
1,
-1-
▁normalization
.5%
ococcal
▁immunoblotting
labeled
▁gastrin
▁choline
▁standardized
▁circumference
nRH
▁medullary
irub
▁transplant
angiotensin
▁Measurements
▁4.8
renal
thre
▁weakly
▁ach
▁forebrain
▁bladder
▁microbi
▁implants
▁proline
othal
▁67
tact
▁typh
▁hypocal
▁cirrhosis
osensory
▁pooled
reast
clic
▁90-
▁VP
sych
▁macromolec
▁PSA
amole
ostatic
▁fertility
vular
▁summ
atectomy
▁mediators
▁PTCA
▁bursts
anin
▁perikary
▁0.9%
▁17,
10,
▁fibr
oidal
▁Chronic
spective
▁Reduction
▁inactiv
▁bloc
▁clonal
▁ranged
▁monotherapy
tioned
▁perfusate
▁glycol
▁swine
iotensin
▁stimuli
▁30,
yclic
▁competent
▁labelling
▁trachea
▁bradykinin
gnetic
▁spectroscopy
▁plasmin
ilization
2.
▁idiopathic
10-
▁analogous
▁CAP
▁50
-3.
▁BALB
▁puberty
▁antibodies
▁Approximately
▁interleukin
▁stromal
▁previ
18,
thmatic
▁difficul
▁dysplasia
LPS
▁Lymph
▁splic
▁cardiopulmonary
▁comprehen
tox
rophy
▁muscular
▁spikes
▁spike
▁simulated
▁amp
▁carbohyd
▁mandibular
▁epidemi
▁cG
▁dopaminergic
▁mEq
PGE
▁(10(
ethylene
dimethyl
▁simult
▁GABA
▁chol
▁cloned
▁diastolic
▁Phen
▁intubation
▁relap
limb
14
▁residual
▁8.5
derly
▁0.1
▁Myc
▁malignancies
glutamate
▁enhancer
ampl
eptides
▁conges
▁26
assium
▁sheath
▁virul
▁endoplasmic
▁pharmacokinetic
▁presumed
acet
▁limbs
feron
▁homogenate
idic
▁pathophysiology
%),
omical
▁computerized
▁detec
anad
▁occurrence
ecal
▁thalamus
4-
▁occlusive
▁apolipoprotein
▁contractions
0.5
▁valve
▁spectrometry
▁atheros
leucine
▁verapamil
▁amyloid
▁decreas
▁corticosteroid
▁[3
kelet
▁serological
▁squamous
onine
▁2-
PSPs
-10
▁percutaneous
▁cyanide
▁amphetamine
▁mucin
alasin
▁dermatitis
▁iso
-3
▁glycosylated
armac
▁neonatal
▁lamin
lix
▁inflamm
34
▁splen
▁genetically
▁medulla
▁ultrastructural
▁selectivity
▁immunofluores
▁numb
▁12-
vac
▁lysozyme
▁subun
▁outpatients
acylglycerol
IgM
▁ions
▁hypoxic
▁ulcers
▁spind
▁103
taining
zard
ffin
▁margins
minis
▁Morph
▁Immuno
erin
otides
aryng
HDL
ginine
▁supplements
ophylline
▁tach
ullary
radi
▁testes
▁pector
▁cyclooxygenase
iciently
▁coag
▁immunoassay
▁120
▁suggestive
▁1970
urgery
▁simplex
▁substitutions
ternational
▁selectively
▁LAK
9;
reactive
coh
▁cruc
oalveolar
ilic
▁fibrosis
▁specificity
▁4-
acrine
▁nitroglycerin
▁inges
▁implant
▁6.9
▁histamine
dine
▁neutroph
▁fluorescent
▁compares
▁schedules
acting
uccess
cents
▁0.18
▁gastro
▁114
)2
▁acet
▁plexus
anserin
enopus
▁TG
EG
▁cesarean
▁(1.2
CDD
▁cyclase
▁gyn
▁docum
HRP
▁irreversible
▁Diagn
ropha
▁acidic
▁34
▁nodal
▁ewes
▁HLA
▁innervated
▁retur
▁streptococcal
▁4%
elan
▁fibrob
▁adminis
geneic
▁basolateral
▁bipolar
▁inactivation
▁recons
▁Electro
▁galactose
▁capsule
▁qualitatively
▁successive
orubicin
▁morphologic
▁antagonism
▁glycoprotein
▁terat
yclo
▁keratin
▁neurom
▁seropositive
▁Bmax
▁2).
▁enl
▁glucuron
▁retardation
▁crystall
▁Infection
▁mediate
7%)
aminob
uridine
▁prostaglandins
▁locomotor
▁criterion
benz
▁monophosphate
▁elongation
emble
▁biop
▁testis
prandial
▁atenolol
echanical
▁inability
▁bp
▁hypothalamic
▁porcine
thel
▁lutein
uctose
titis
▁luminal
▁PLP
trig
lude
perature
glut
ospasm
ticular
▁eccentric
▁nucleotide
lyce
200
▁atropine
▁fluoro
▁flanking
tum
▁arterioles
▁mumol
▁MAbs
▁Hz
▁catabolism
▁blockers
myc
▁(4
▁eluted
▁ischemia
erb
organic
▁Triton
▁lacks
osyltransferase
▁embolism
brile
▁polyp
▁Cd
▁incubation
ocytic
▁transcripts
Glc
trac
▁glutamate
erents
▁constric
▁constriction
thym
▁affinity
▁nal
▁carcinogen
▁Hodgkin
▁demonstrable
esides
fos
▁adenocarcin
▁esophageal
▁modulate
▁thereafter
▁inversely
ithine
▁transiently
▁neurolep
ediatric
▁endothelium
▁6.7
▁depres
▁carc
▁encephalopathy
4%)
ophilic
ulatory
▁primed
▁trac
apeu
ivation
▁PF
▁peri
▁sampl
▁Significantly
▁monol
▁osmotic
▁standardi
rophen
actin
▁chromatin
▁diploid
diabetic
▁manifested
gth
▁dopamine
▁DBP
▁erythematosus
phage
tyl
▁demonstrating
▁gangl
▁discrimin
▁tran
▁stimulating
▁acros
▁lymphocytes
▁axonal
▁hepatoma
tent
MH
▁arrhythmia
▁zym
Km
keleton
▁fracture
▁subarachnoid
▁defic
▁dehydration
▁bronch
▁25,
▁scalp
▁hematologic
▁unexplained
.7%)
▁subpopulations
inergic
▁diges
▁radiolabeled
▁cortex
▁rhesus
▁correlates
▁preliminary
▁grouped
▁motif
▁contraction
▁retina
▁recombin
tizing
▁multiv
▁kinases
▁(4)
▁preceded
▁dosing
dihydroxy
▁tetan
▁Scale
▁phag
▁sarcolem
titution
▁radionucl
▁intake
▁hemodialysis
weighted
▁56%
▁implantation
▁cystic
▁distrib
▁bronchodil
dibular
▁stu
0.4
▁sple
▁saliv
▁alanine
▁nodules
▁effic
tissue
▁estimating
▁endocardi
▁inhibin
▁cadmium
▁hippocamp
▁serine
rological
ventil
allium
2;
gm
hyp
rene
▁codon
odon
▁anesthetic
athe
tidine
4,
operox
eminal
▁unid
anding
hypertensive
71
▁adenylate
▁proximal
▁(+)-
▁1.1
▁disturbance
▁Haem
gression
▁predominant
hydropyridine
oresis
▁beads
▁hypertrophy
rine
2318
▁luteal
▁10(-4)
ydig
▁hepat
sives
entanyl
▁cyclic
▁(27
▁15
▁confir
orbent
echn
▁joints
ophren
isomerase
▁covalently
echan
▁buc
▁conjug
▁CAT
dle
▁arteri
▁0.0
▁pharmacological
▁Calc
5)
▁mRNA
▁sci
opus
▁100,
tural
▁inoculated
▁61%
▁LDH
eliac
hydroxy
Gal
▁precipit
▁(25
opa
▁addi
▁CEA
▁0.03
early
▁caffeine
▁phage
▁distinguishing
▁pups
▁HS
▁cytology
gluc
▁coh
▁mathem
▁coval
▁Antibodies
▁Tyr
▁brady
▁leukocyte
▁Effects
▁dB
▁vaginal
tetra
plast
▁fluxes
affected
56
▁tyrosine
▁interstitial
ionate
▁unstimulated
▁87
▁embry
▁allo
▁stabilization
went
▁cofactor
▁myc
▁drainage
▁obstetric
▁postoperatively
▁contrac
▁schizophren
▁myelin
▁agarose
▁persis
omat
▁polyacrylamide
▁dentate
▁pneumonia
99
▁connec
ucleotide
itin
spectively
transformed
▁intermedi
▁occluded
▁discom
▁dosages
▁bolus
▁colonies
▁natri
▁pyr
▁adipocytes
▁flora
▁1983
eradish
▁circumst
▁practitioners
▁Leuk
▁penetration
▁TP
▁transmitted
rologic
onary
16
▁heavi
▁nicotinic
▁transcrip
▁predominantly
▁kain
fused
illar
▁thromboxane
▁thresholds
▁hepatocellular
▁Hear
▁statistically
reactivity
▁LTB
▁cation
nithine
eak
iminary
▁contamination
▁hippocampus
▁Experiments
▁monit
prising
oconstric
▁ADH
deficient
▁propor
▁Eighty
retic
▁21%
▁anat
▁transaminase
▁kallikrein
▁elong
▁RIA
▁erythromycin
▁hyperplasia
tisol
▁retention
atosis
,000
▁allergen
▁chronically
sus
ods
▁strep
▁Ia
orated
.4
▁11
Rs
ygous
▁Statistical
▁invari
▁antagonists
tonic
magglutinin
cine
tection
▁tubercul
▁3.4
▁solitary
▁stratif
sant
erge
initi
▁rheumatic
▁chromosomes
▁micron
▁coronary
▁ampicillin
▁selective
▁20.
▁Tran
▁postoperative
pinal
vitamin
▁enrol
▁hCG
▁3.1
rati
▁abnormally
▁95%
▁carcinoma
▁-0.
▁articular
▁hydroly
▁0.75
▁detecting
▁antigen
gment
▁rostr
▁Staphyloc
▁0.17
carb
▁Scatchard
▁Severe
▁commercially
▁experim
▁sarcoma
▁superoxide
▁adjuvant
▁diffic
▁Mg
▁adduc
▁240
▁pec
aemia
HF
opro
▁beha
▁overlapping
▁resour
▁atypical
▁flas
▁febrile
.1
assay
mide
▁adhesion
▁0.01)
▁immuno
▁ppm
ergy
▁discontinued
▁laboratories
dyle
yrid
ecu
IU
▁37%
▁nasal
▁3.
monella
immunoreactive
▁alcoholics
5,000
acterial
▁immunoblot
▁bic
-450
electric
▁herpes
atoid
tead
▁oestrogen
tia
▁irregular
▁Subjec
▁depr
▁antic
▁33
▁24
▁junction
▁discharges
ophageal
arate
▁immunosuppres
keratin
renaline
10)
enzyme
mediately
aterally
▁diminished
olestero
upus
▁longitudinal
▁isot
▁synapses
▁omega
▁attitu
erating
▁irradiated
1/
▁fasting
oprote
▁differen
▁77%
▁typhimurium
turnal
▁inh
▁hypothe
▁galact
▁mesenteric
▁nm
▁reductase
onvul
ported
▁(33
▁dendritic
▁50%
restric
nine
▁Animals
▁HCO
▁oriented
▁0.00
▁isolate
▁reper
▁induc
ucine
Tc
▁29
▁Exercise
atchard
trin
▁circulating
▁shortening
▁genotypes
▁unaffected
▁deterioration
▁ICU
▁Salmonella
▁electrolytes
▁synergistic
loro
▁exhibits
▁(95%
▁denaturation
▁cerebrovascular
▁inhaled
▁overe
▁diagnoses
epam
▁27
itonin
▁duodenal
ronectin
▁Tryp
.1%
▁dietary
▁capsules
▁fractions
ogenesis
loidy
yroid
▁5%
▁subjective
epti
umerous
▁ciprofloxacin
acyl
▁acin
▁gamma
▁albumin
▁deviations
▁spectro
▁differs
average
▁emphasized
▁1/2
▁clinicians
asal
embran
achn
▁employing
idium
▁chicks
ovirus
▁CAD
acetyl
▁hybridization
adrenoceptors
▁embryos
▁hypothesized
ogens
colem
odil
▁0.001),
▁hydrop
▁homology
▁pS
unctions
▁oes
▁BW
▁glomer
▁ank
▁Plate
▁Ninety
enic
▁adduct
regn
-80
▁antid
▁Tum
▁98
phyrin
anic
▁homologous
▁expiratory
▁ileal
traumatic
arone
▁1:
▁neoplas
▁proton
▁7.0
▁antibody
▁(35
aortic
▁peptide
quinone
▁Patients
▁usefulness
▁esophag
▁mutations
▁degradation
ronch
-0.
▁cytotoxic
NB
incubation
▁dosage
▁Evaluation
▁polym
entia
restingly
▁congestive
▁4.3
▁arginine
▁hamsters
▁perip
omiting
hydr
anavalin
oea
▁sphincter
▁hypoth
▁centr
▁resonance
▁enlargement
gestin
TGF
amphetamine
▁electrocardi
tigu
▁entero
▁cytotox
osal
▁plateau
▁-2
▁quantit
▁empir
▁DBA
▁compartments
▁mono
▁variants
lymer
▁pathology
▁glucocortic
▁ischem
▁kappa
▁AFP
2%)
▁scientif
▁6.4
▁depolarizing
▁vacu
erebral
atient
▁lysosomal
FGF
tens
▁utilization
▁Nine
0.0
▁cros
▁carcinomas
▁crom
operated
0,
▁strom
▁follicular
▁inser
▁Serum
tory
iably
▁institu
atell
▁hyperthyroidism
▁postsynaptic
▁muscul
ominant
▁endoc
▁pharmac
▁RS
▁exis
ycline
bilities
▁characteris
▁clot
amicin
▁20-
▁1,25
sibly
incub
▁synthesize
brom
▁neutrop
▁cyclosporine
▁ventricles
▁mediator
osylated
▁mercury
ysts
▁tracts
▁cytoplasmic
▁implanted
▁75%
▁silic
sess
feren
ocrine
▁5-
methyl
▁pathways
▁discontinu
▁extraction
cepti
ographs
▁electrolyte
▁ANG
▁96
peptide
▁ow
▁anion
tophan
▁cytolytic
▁GSH
▁hyperther
utaneous
▁PN
:3
▁0.05,
▁malaria
▁peroxide
otropic
▁glut
▁cereb
▁operon
83
itone
orin
rein
▁clones
▁replic
▁isozymes
▁supernat
▁analgesia
xanthine
ophils
rocyte
▁titers
helium
▁cloning
▁assessing
▁0.7
9)
▁produc
▁Epid
▁([
▁stiffness
▁scin
▁interc
▁benzodiaz
▁moiety
▁averaging
▁constituted
menopausal
▁dexamethasone
cture
▁luteinizing
▁symptom
vated
▁prostatic
viral
▁sedation
atonin
▁170
ectin
▁(44
▁3.7
▁synthe
ductase
73
▁adenine
▁collic
alc
▁24-
▁melan
▁Sodium
▁HBsAg
▁techniqu
▁tablets
kinase
▁basal
▁phosphorylase
median
▁protocols
▁clonidine
▁electrophoretic
▁5
ofluores
▁elastase
▁arti
ensitization
▁morb
▁-5
▁creatine
▁(13
▁autosomal
▁fructose
▁reversibly
▁69%
▁(45
▁58%
leuk
alveolar
arial
▁cerebro
▁conception
ncy
▁lymphoma
oretically
▁intermediates
▁116
▁ambulatory
17
7),
Glu
▁96%
▁depolar
▁undergoing
angi
▁analysed
▁enalapril
▁repor
▁recombination
vix
▁1.3
▁microm
▁intrauterine
▁percentile
▁nitrogen
▁carcin
▁1500
▁euthyroid
▁loos
0.
▁dissociation
▁stimulates
▁hypertrophic
lies
▁ascer
▁electromy
ographically
phadex
▁MN
▁Intr
▁0.09
▁yr
▁immunocyt
▁250
▁influenza
quid
parathyroid
plemented
ectom
▁femoral
▁guanine
▁iodine
▁redistribution
▁tracheal
▁arter
▁oocytes
▁altering
54
acetate
▁cerevis
▁spermatozoa
▁advan
▁5,
enal
▁trich
ealand
▁thyroid
romyces
▁PAI
iloride
▁Tumor
allikrein
depleted
▁provid
▁interrup
▁DP
▁150
▁lethal
omers
▁GDP
▁PCR
▁1,25(
▁Schwann
ocar
▁traum
estions
cis
ocor
moid
trop
physiological
▁stepwise
essation
ogra
▁qualit
bred
8%
▁bilayer
inamide
▁activator
▁qualitative
▁subgroups
▁expon
▁stimulation
vul
▁fibre
▁thrombolytic
astom
▁labelled
▁tib
▁mesen
ischem
▁prol
▁myo
▁acceptor
▁Ultras
▁synthetase
wes
▁(0.3
tained
▁neoplastic
▁phenobarbital
otri
▁Fourteen
arose
▁Increased
▁196
▁amo
systolic
▁14
▁biosynthesis
▁estrogen
sial
tro
ylic
▁salts
▁exerted
▁posttrans
-90
ADP
▁1)
▁tRNA
58
▁0.001
ustif
▁requi
▁polymer
▁mitral
lasts
▁5.9
▁mitochondr
induced
▁adenocarcinoma
▁6.8
▁trophob
gans
▁retinopathy
ysto
partate
▁nephro
▁Kd
▁microb
▁tetracycline
▁paroxys
▁helical
▁(5)
▁CN
▁fron
▁postin
▁homozygous
▁impair
opeptidase
osome
▁shunt
▁catheters
▁phenylalanine
▁Hyd
▁ventilatory
iciencies
admill
urnal
thymidine
▁vege
▁Concentr
arrhythmic
36
▁conductance
▁wt
▁neurons
▁airway
olone
ogenous
produc
▁myeloid
▁descending
▁lumbar
▁accid
▁199
▁uniformly
▁uptake
▁attenuated
▁pene
▁sodium
▁Consequently
▁FSH
8%)
▁astro
▁Initi
▁pediatric
▁ventil
▁voluntary
▁chemotherapy
adone
▁diarrh
▁transplantation
olesterolemia
SOD
▁dete
▁swit
▁0.10
▁0.05),
icin
uric
roscopic
▁implicated
▁inhibit
venous
▁Fifty
cious
▁dialysis
globulin
etoprotein
▁abdominal
▁plasm
▁6.6
▁(22
▁coordination
▁biliary
ypro
apid
▁protease
▁angiographic
puts
▁160
0.8
nitine
▁hypot
-23
▁parenteral
90
▁31
▁Effec
▁selen
▁diame
onography
▁PKC
etitive
▁40%
▁60
phosphor
▁neutropenia
▁manipulation
▁chlorpromazine
▁revascular
wenty
▁adherence
▁exert
▁dorsal
urons
tial
▁anaesthe
▁Estim
▁lar
▁Bacter
▁5)
/10(
▁dioxide
hion
▁metabolism
76
untary
sions
▁Eleven
thyl
arginine
▁11-
▁aneurys
omatous
-10(
keto
kephal
jec
demic
3/
▁disapp
▁histologic
▁aspirin
oA
▁encoun
▁moderately
▁acidosis
roximately
400
▁3'-
▁MCF
luent
▁RBC
▁dyst
▁40.
oside
▁immunostaining
▁multicenter
enol
aminidase
▁apprec
iferative
opolysaccharide
▁2.9
▁71%
▁sham
mTc
▁epinephrine
▁Electron
▁monke
▁quantitated
tradiol
▁LV
▁envelop
alanine
▁tonic
▁edema
▁63
▁centrifugation
▁synaptic
▁reacted
asic
cys
▁striatum
▁anae
odopsin
ermal
producing
▁inhibiting
floxacin
oblast
▁1000
▁freshly
▁somatostatin
▁airways
▁discriminate
▁Comparison
▁mitochondrial
0%
▁malignancy
▁displacement
▁(1.0
▁hematoma
▁incorporation
phosphon
himb
▁IGFBP
-25
Leu
nai
flammatory
▁verte
▁5.
▁astrocy
entan
athetic
▁resistant
ocompatibility
guan
▁thrombus
thmic
▁neutrophil
▁dendri
phrag
▁remarkably
▁rodent
▁127
▁proteinuria
▁mA
▁ae
0,000
▁influenz
entical
▁physiology
atories
▁hepar
ocaine
▁validity
essive
3;
▁preoperative
▁metoprolol
0)
▁hepatitis
lytic
otrexate
atest
articular
▁gland
▁gynec
▁microscop
41
▁deficits
▁24,
▁sigma
▁10(4)
ATP
plasty
▁immunode
▁abnormal
▁fulf
▁lithium
ylline
▁orally
▁peroxidase
▁regimens
▁7.
▁pathologic
▁TCDD
▁retrospective
▁atrial
ociation
▁defects
▁terminus
-50
▁reflux
diastolic
tility
▁Inte
▁0.5,
olet
tochemistry
Bs
abain
HCO
phosphamide
triglycerid
uretic
activated
▁adjus
▁recurrences
▁Investig
cortisone
kele
▁4.5
thrombin
4.
▁hypercal
▁11.5
▁compensatory
▁78%
▁exerts
orbol
▁hypertonic
-2
▁nifedipine
bility
otyp
▁specificities
▁surveyed
▁substantia
▁corticosteroids
▁anatomic
idespread
apeutic
▁1.5
operative
▁pancreatic
iatum
rostagland
gative
▁hypothyroid
ylamide
▁supine
▁37
▁marginally
Sepharose
▁hygiene
▁cimetidine
.9%
▁3)
▁antide
▁lymph
ignificant
3,
▁68%
kephalin
-6
atinine
cAMP
▁mice
▁reproductive
▁compartment
iary
brids
▁(47
ropo
/7
GABA
▁enlarged
tability
▁unex
▁10%
▁constituents
▁52%
▁5.6
▁methodology
▁Myocardial
▁spectroscop
▁8-
acchar
igand
▁1%
aric
▁erg
inoc
▁OKT
▁commerc
ontal
▁0.9
maximal
▁heterogeneous
21
acin
▁validated
▁chloride
▁PEG
▁metast
▁undergone
▁neuron
prin
▁segmental
▁Inhibition
▁pressures
37
▁60-
▁selenium
▁1-2
▁mening
generation
▁endoscopy
partum
▁conditioning
▁confirms
▁exhibiting
olated
▁epidural
opathic
phil
releasing
▁distin
▁thems
▁decarboxylase
▁palmit
▁chloro
imin
▁glucocorticoids
▁axons
(2)
▁Growth
▁reflex
▁differentiated
7.
▁secretory
▁efficac
▁cDNAs
ymp
uginosa
▁ATP
▁cysteine
▁gyr
▁augmentation
▁heterogeneity
▁equivalents
lob
'-
▁illnesses
▁apo
ylephrine
Rb
▁diameters
▁lys
takes
▁explants
▁isoelectric
▁phorbol
-17
▁adhesive
▁anesthetized
▁(75
▁influx
performance
▁inducible
ATPase
▁CMV
▁possi
▁tended
▁undetectable
▁hyal
.5
▁interf
▁agonist
▁plots
▁NK
bearing
▁tolerated
CSF
linking
▁regulated
▁800
▁oligonucle
orrhea
▁uterus
59
▁regar
2+-
uclear
itoneal
▁vacuoles
▁clinically
incubated
▁ferritin
ellar
ffec
idin
▁bacteremia
sive
yste
▁occl
▁cholest
ocyt
▁graft
▁immobil
▁chromosomal
osynthe
▁catheter
▁avid
▁toxin
▁inhibits
tension
▁intrav
▁tiss
▁55
hydryl
▁ACTH
▁develops
▁kidne
▁adenomas
▁manifestations
▁aeros
▁anastom
▁microgram
▁chamb
▁regurg
-5)
aminergic
ilized
▁adrenergic
gangl
2)
triphosphate
42
▁harves
▁serotonergic
tention
▁5.7
▁14-
▁ascorbic
0.1
▁lectin
▁questionnaire
teine
▁inward
idine
▁gelatin
6%
▁fla
▁gonadotrophin
▁carcinogenic
▁cumulative
▁precur
ilibr
▁localized
oxal
anav
▁scans
aginal
epine
aryotic
▁54
folate
romy
issive
▁withdrawn
nitro
▁phosphate
▁tubular
phosph
▁0.0001)
opi
veness
▁cervical
▁receptive
▁Cyt
86
.2%
▁62
▁diazepam
▁Few
▁1.
▁17
▁illus
ecan
▁500
▁cran
▁tumors
ylated
itro
▁transduc
isol
prol
▁gradients
▁facilitation
zation
▁lateral
▁denti
rehen
▁indirectly
trypsin
▁incomp
▁metastases
itum
ardia
▁grafting
▁papillary
▁probes
▁therapeutic
19
▁fibrinogen
▁EB
rates
▁IgM
8+
oxazole
arrh
▁Alzheimer
▁epididym
▁nutritional
esium
imeth
▁addic
estradiol
▁avail
resting
aneously
▁10(-8)
▁scinti
▁cigaret
etent
sia
ostasis
▁+/-
lated
▁assays
▁-6
▁isotope
▁resemble
idate
-1),
▁angiotensin
▁gastr
urane
thyroid
ilateral
▁cytoch
elic
▁18%
uscular
administration
▁malignant
38
▁compounds
itic
otoxin
enia
mokers
osarcoma
▁53
▁chec
pendent
▁ganglia
▁retin
▁23
▁confirming
▁membran
▁corne
▁Taken
▁dib
▁(60
▁(2)
1%
▁3.2
▁deletions
oscop
▁chloramphenicol
▁adrenal
▁epidemiological
▁tamoxifen
sian
pressing
▁modality
▁phyto
oplasty
tential
▁immunos
arbonate
▁Km
▁immunoprec
▁alleles
▁sarcoplasmic
/10
▁sti
▁cathe
gene
▁0.
▁Seventy
▁0.025
▁forearm
▁immunologically
conver
obut
okinetic
glycerol
▁reductions
▁Cul
Cs
▁tumour
ubs
▁90
▁esterase
▁megakary
▁carbachol
aturation
▁Evidence
Mg
tium
▁2.5
▁sut
▁substrates
▁10-
tosis
icillin
▁2.5-
overed
oate
▁contral
Ki
▁interv
▁carboxyl
rospinal
1).
▁Gluc
odies
turally
▁.00
urther
▁lysine
▁micros
▁ile
▁myocytes
▁pneum
etine
▁nonpregnant
▁transmural
▁resul
diabe
▁antigenic
activating
olipids
amol
otor
▁promin
rophic
▁aureus
▁soleus
▁causal
lox
66
▁(0.5
RH
-4-
▁ventral
▁1984
▁adsorption
▁allele
▁antero
▁(197
▁IgG
▁attained
respective
odend
rected
▁spleen
▁graded
▁phe
▁nitro
testosterone
▁meningitis
illi
thmia
▁elastic
▁isoforms
▁cortical
▁2.6
▁identifiable
otrop
andard
▁adrenaline
propyl
strain
▁400
▁benzo
▁granule
oratory
▁chromatography
▁deple
▁sinus
▁glycerol
ayed
▁monitored
ompan
▁2.
iotic
▁phy
▁microns
▁homogene
▁aden
▁cathepsin
unctional
▁libr
▁excitatory
▁(17
tron
otre
receptor
▁glutamic
orepinephrine
▁vascular
▁56
inesterase
▁mutant
▁2.4
exchange
▁-3
OA
▁Thy
▁79
▁inconsistent
▁glucose
ociated
▁postulated
erad
mentation
▁stimul
▁76
▁lactation
tinguishable
▁septal
farction
▁staging
▁81%
semin
▁alkyl
120
▁corresponded
▁eicos
natal
▁priming
▁uninfected
▁increments
▁PCO
▁specimens
▁mononuclear
▁pyro
utaneously
▁steroid
▁macrom
▁endogenous
▁fluctu
SAID
▁abnormality
pain
▁topoisomerase
▁HDL
▁Sertoli
tagland
apanese
opo
▁uterine
▁CI
74
▁binds
▁residue
▁spermatozo
▁LM
▁sarc
▁10(-5)
▁cultured
▁depolarization
emia
modulin
▁glyc
.8%)
cardi
▁subcutaneous
▁progenitor
▁biphasic
▁esters
▁agonists
nec
orpor
▁gastric
▁EDTA
▁screened
▁1,
amethasone
▁(26
ichloro
rague
▁negligible
▁neoplasm
▁prazosin
▁1-
effec
▁immunobl
▁macrophages
▁10(-3)
000,
▁splenic
▁motoneurons
▁amine
▁vasodil
atite
▁convul
▁socio
▁cortisol
tations
▁20,
lux
22
▁infertility
▁nocturnal
▁amniotic
▁ESR
▁transcription
▁phosphatase
vian
elec
▁incidence
reduced
tality
▁MBP
▁sphing
▁algor
▁somatic
▁rearrangements
ympathetic
▁5.5
blockers
▁vasodilator
▁evol
▁births
▁rearrangement
▁colchicine
▁amplitudes
▁degen
▁atherosclerotic
▁electrically
▁livers
▁mV
dU
▁6,
utable
▁anesthesia
▁(32
2+,
▁epitope
▁stimulus
▁plaques
hesus
RIF
▁accumulate
▁ultrasonography
▁citrate
50
▁DEAE
sible
▁opi
▁RR
▁islet
▁hemisp
▁unde
▁comprising
▁adjustment
▁tachycardia
▁(39
▁antibiotics
▁pK
▁myof
▁mimicked
▁allergens
▁extracellular
ositol
▁deterior
▁Calcium
containing
▁antimicrobial
trition
▁haemodynamic
▁determinants
▁oestradiol
▁activating
▁duct
▁5.2
▁pharmacokine
▁serologic
ocul
treated
▁quiescent
▁clinics
▁hybridized
00
1/2
ogenously
▁justif
▁isolates
ervical
▁scanning
motic
rences
▁83%
dihydro
▁actu
▁mRNAs
▁cessation
▁AH
▁polyethylene
▁hybrids
▁autoimmune
▁hydroph
▁3.5
-3)
▁precursor
omal
▁9
▁tendon
▁tol
▁8.0
▁4.0
▁enrich
▁similarity
▁emptying
▁placenta
▁Lym
▁nucleic
▁-10
▁intral
tinguish
▁plex
▁NGF
▁diffus
olecular
▁competi
olol
▁muta
▁combin
▁14,
tene
toc
▁Pseudomonas
▁intestinal
▁diabe
PSP
▁leukemic
▁kerat
▁fetus
▁brach
▁responders
▁stationary
▁gp
▁pregnancies
odgkin
▁Fc
taken
hers
▁18
▁70%
Hb
▁8
affec
icine
glutamyl
▁reproduc
anesthetized
▁myocardial
▁Differen
▁upstream
▁vaccines
zyme
▁elicited
resistant
▁stained
▁91
obarbital
▁reversed
astolic
4/
▁islets
tative
▁desm
▁aspiration
▁unresponsive
18
▁amph
▁yielded
▁nmol
-36
▁exponential
▁metabolite
▁1.25
5,
seud
▁epiderm
lipid
▁oligonucleotide
rents
▁diaz
▁calf
▁catheterization
▁PAF
▁metabolites
44
▁125
▁regulating
▁seminal
▁ligation
▁phosphatid
▁jaund
▁38%
▁torsion
▁Binding
▁stenosis
▁simultaneous
▁rectal
▁olig
▁VIP
▁fertil
tition
amino
ipit
▁innerv
▁eosin
▁58
/100
▁heterologous
dehyde
▁mitochondria
▁sulfate
53
amyl
eroxide
▁homogeneous
▁vestibular
▁schem
▁13
▁microorganisms
▁corticos
▁varic
▁fluorescence
5.
▁doubled
truction
▁deline
posure
▁cys
aturity
▁downstream
▁cations
▁assis
▁mutagen
tral
oic
robic
obase
▁rhy
▁lytic
salt
▁devi
▁mesang
▁weighed
▁mellitus
retin
▁endonuclease
erox
ositi
operidol
▁isoform
▁CTL
▁caudal
strand
▁oxid
▁rati
rinary
▁quin
▁sequential
▁atri
▁neuros
▁220
▁granulocyte
otone
imidine
▁proportions
▁dissection
▁spermat
▁18-
▁cytoplasm
rocy
▁gly
ifferentiated
tions
▁renal
utyryl
▁1.7
▁75
▁48%
olism
yronine
▁colitis
300
▁messen
64
▁harb
vices
ocomp
▁helix
▁fati
▁100%
▁pyl
▁pyruvate
▁fibers
▁osteoporosis
▁0.02
▁72
▁glutamine
PV
adequ
▁EF
▁89%
▁Streptococcus
▁adversely
▁hetero
▁parasite
glyc
encephalic
▁cate
▁Chan
▁14%
phor
mega
urrent
6),
▁(70
eric
▁ana
rolase
▁correlated
DG
ygen
▁kidneys
blind
accharides
rays
▁dehyd
▁cleavage
obacter
ostr
▁dye
bular
embrane
rever
▁sugars
▁establ
trib
▁0.23
▁hormone
▁endometrium
▁membranes
▁motone
▁3
SDS
▁immunity
▁replication
ulph
▁sulphate
▁testosterone
lycero
zot
▁detectable
uppres
▁positively
▁antioxid
▁homeostasis
▁64
▁tox
▁facilitated
romic
ximide
azepam
▁amn
▁(500
▁168
▁purified
tened
▁endothelial
uble
▁shear
▁1.4
dose
▁neurotrans
exis
IDDM
▁neonates
adm
▁mediated
▁alk
▁weaker
▁99%
▁EBV
▁cervix
▁Pt
▁vasopressin
▁(1.4
▁sclerosis
▁motility
chlor
▁0.01),
▁prolonged
iosis
CoA
▁surgeons
oride
oxygen
eptide
molecular
▁cohort
lood
▁Subsequent
conjugated
▁sampled
▁obser
▁hypothermia
▁kb
-0
▁(1)
oxane
▁defective
▁preexisting
adren
ometh
▁adi
apsulated
51
onazole
▁hyperthermia
4;
▁glycoproteins
yro
▁minus
▁injected
57
▁microv
ducing
▁0.3
▁DD
▁LN
(2+)-
▁thickening
responding
▁progressed
▁nucleoside
▁coagulation
▁6)
▁RNase
▁analogs
▁resemb
▁47
▁conserved
▁intox
▁antidepressant
▁agar
▁titration
▁covalent
▁HPLC
ACh
tak
▁quantitatively
▁(40
aund
▁fibros
40
▁pleural
12
▁mM
▁jejun
▁multivariate
▁fractionated
▁pulsed
▁4).
▁bacteri
ervated
eptic
Gs
▁cardiople
hCG
entricular
▁polyc
▁atria
▁amiloride
▁0.1%
▁psychosocial
▁parame
▁ascites
▁intolerance
otin
▁exhaus
0.7
▁dismut
grees
thood
▁intracranial
▁persist
▁potenti
▁1/
ivacaine
▁cerevisiae
▁neurop
ammon
▁precipitation
oventricular
▁autoantibodies
▁unil
onate
▁genotype
▁intraper
▁22%
▁denervated
48
ANP
▁exacerb
HIV
▁granulosa
uled
▁Escherichia
▁proliferative
▁sphinc
▁canine
▁vesicles
▁Thir
▁lidocaine
▁adequately
▁10(3)
▁endoscopic
▁athe
▁gallbladder
tRNA
▁biopsies
▁ery
▁0.8
▁synthesis
▁4.1
▁(19
▁bronchitis
▁eryth
▁Insulin
▁isop
fluoro
▁somat
▁phospholipid
▁kine
▁platelet
▁frac
▁cerebellar
▁gingival
▁particulate
▁physiological
▁TI
▁methotrexate
ologic
▁paradox
▁polymorph
▁anticoagulant
▁autop
cellulose
▁ipsilateral
glycer
▁thyroxine
▁allogra
▁57%
▁oxygenation
▁Subsequently
jun
erate
▁persistence
▁Hg
▁rhin
itrate
▁vertebr
amental
▁8.6
31
gia
▁attemp
selec
▁indus
tochem
▁follicle
▁incontinence
▁hep
aind
ithm
▁postural
▁superf
▁extrap
▁rota
▁Fib
oprost
▁85%
▁nucleus
▁OA
opathological
▁mitotic
▁Stu
-10)
hospital
▁suppressed
▁displaced
mented
▁endometr
tin
▁mutation
prisingly
itoneally
▁paralleled
▁NMDA
▁insensitive
eptidase
▁hippocampal
▁recurrence
▁apnea
bac
▁rabb
▁(5
▁diuretic
▁phosph
▁triglyceride
scop
inephrine
orec
▁cochle
▁cholinergic
▁structurally
tif
▁preven
▁cyclo
▁isoprenaline
▁7)
▁receptors
-2-
▁Surgical
▁AMP
▁dermal
tized
phosphatid
smokers
▁tetrac
▁TSH
▁GV
97
▁phenotype
▁substitu
▁.0
▁subtypes
▁acceleration
▁shif
▁concom
0%).
▁mobilization
▁investigators
▁spre
romycin
▁adolescents
kinin
▁SEM
mend
▁thymidine
phthal
-65
▁suture
▁follicles
▁rejection
▁RNA
chicine
▁Asp
▁Oral
Gly
▁tubules
▁.01)
cysteine
▁hypertro
▁hypothyroidism
▁1-3
▁pulsatile
tional
▁ICP
comitant
▁facilit
▁potentiation
▁123
idazole
siveness
▁sensi
▁36
▁carbohydrates
▁acidification
3).
29
450
▁complications
▁136
▁VO
▁horseradish
-28
000.
osides
▁projections
▁pyram
▁ELISA
8-
lamp
yroxine
micro
▁nec
▁serotypes
trating
tion
molec
▁pulmonary
eal
▁reproducible
6%)
.3
▁irrever
▁erythroid
atrial
▁microscope
▁rabbit
▁ANF
olysis
agic
abies
olus
▁Fifteen
▁potencies
▁1.9
▁AIDS
▁nude
▁stric
▁putative
▁7.7
▁78
▁2)
▁phenylephrine
sibility
▁stimulate
▁dodecyl
▁97%
phragm
ventilation
▁haloperidol
tivation
