▁deficiency
▁pharmacological
▁pulmonary
▁depression
▁sunscreen
▁plasma
vascular
▁glucosamine
▁hernia
▁acne
▁interventions
▁PID
▁obesity
▁torsion
symptomatic
▁simvastatin
▁metformin
▁steroid
▁diastolic
▁fluoride
▁Randomized
▁dose
▁hormonal
▁strategies
▁trials
▁deficit
▁antimicrobial
▁acetaminophen
▁ventricular
▁digoxin
▁amoxicillin
▁neoplasia
▁fold
▁erythromycin
▁antidepressant
▁morbidity
▁injections
▁abstracted
▁corticosteroid
▁infections
▁intravenous
▁adolescents
▁sustained
▁outcomes
▁fibrillation
▁survival
▁menstrual
▁thyroid
▁logistic
▁terbinafine
▁contraceptive
▁tobacco
▁treatments
▁Clinical
▁centers
▁deaths
▁dosage
steroid
▁progesterone
▁estrogen
▁diagnostic
▁pelvic
▁clinics
tolerance
▁impaired
▁Rating
▁lymph
▁randomized
▁prophylaxis
▁outpatient
▁metronidazole
▁lipoprotein
▁examination
▁chronic
▁surgery
psychological
▁Overall
▁laser
▁thyrotropin
▁Trial
▁concussion
▁perinatal
vaginal
▁elective
indications
▁Patients
▁prophylactic
▁carvedilol
▁fetal
▁breastfeeding
▁adjusted
cutaneous
enzyme
▁weekly
▁apnea
▁femoral
▁prospective
▁smoking
▁cardiovascular
▁disorders
▁mortality
▁warfarin
▁bowel
▁mammography
▁cruris
▁remission
▁TSH
▁obese
▁anemia
▁malignant
▁genital
▁incision
▁cholesterol
▁symptoms
▁infarction
urine
▁muscle
▁rupture
▁Scale
▁indication
▁pregnant
▁peripheral
▁pregnancies
▁lifestyle
plasma
▁faecal
▁mild
▁chest
▁venous
▁fasting
▁trend
▁postoperative
▁decreases
▁osteoporosis
▁tolerance
▁respiratory
▁angina
▁ratios
▁corticosteroids
▁likelihood
▁insomnia
▁agonists
▁anticoagulation
menstrual
▁laboratory
▁tissue
▁fluoxetine
▁pravastatin
▁maternal
▁systemic
▁tamoxifen
▁Risk
▁gestation
▁fiber
adequate
▁hyperthyroidism
▁vaccination
▁warts
▁knee
▁benign
progesterone
▁screening
▁angiotensin
▁cough
▁diuretics
▁classified
▁hypertension
▁diseases
▁refractory
▁systolic
▁prevalence
▁anxiety
▁incidence
▁extraction
renal
▁diabetic
▁spontaneous
▁rehabilitation
▁onset
▁athletes
▁atopic
▁eligible
▁hysterectomy
▁syndrome
▁abdominal
▁prolonged
▁hazard
▁cultures
▁migraine
▁coronary
▁diagnose
▁severity
▁ultrasonography
▁congestive
▁guideline
▁postpartum
▁abnormal
▁mitral
clinical
▁daytime
▁topical
▁intervention
▁healing
▁investigated
▁investigations
▁Medline
▁azithromycin
▁atypical
▁amlodipine
▁testicular
▁questionnaire
▁specificity
▁clinic
▁enzyme
▁medication
▁weighted
▁diagnosed
▁mood
▁fatigue
▁acute
▁progestogen
▁fracture
▁endoscopy
cervical
▁elderly
▁Secondary
▁prescribed
▁ischemic
▁supplementation
▁bipolar
lipid
▁tendon
▁abnormalities
▁progression
▁hospitalization
smokers
▁artery
▁vaginal
▁inhibitors
▁ultrasound
▁thromboembolism
▁nedocromil
▁alcohol
▁reductions
▁therapies
thyroxine
▁desmopressin
▁gastrointestinal
antibodies
▁thyroxine
▁prevention
▁physicians
triglyceride
▁diuretic
▁retrospective
▁liver
▁treating
▁inflammatory
▁subclinical
▁subgroups
▁obstructive
genital
▁gestational
▁biopsy
▁recurrence
▁herpes
▁urinary
▁cream
▁percentile
▁triglycerides
▁exposure
▁resistant
▁augmentation
▁diabetes
▁emergency
▁disorder
gastric
▁sensitivity
▁Achilles
insulin
▁examinations
▁ovarian
▁therapy
▁depressive
▁ambulatory
▁calcium
▁assessment
▁smokers
▁clarithromycin
▁vascular
elective
▁impairment
▁dietary
▁bacterial
cholesterol
▁vaccine
▁pioglitazone
▁nephropathy
▁atrial
▁caries
▁diagnoses
▁cohort
▁statin
▁bleeding
▁nasal
▁punch
▁cysts
▁regimens
▁arthritis
▁illness
▁otitis
▁proximal
▁mmHg
▁Prevention
▁irritable
▁colposcopy
▁oxytocin
▁Drug
▁postmenopausal
urinary
▁gastric
▁randomization
▁constipation
▁incontinence
▁sulfate
▁isolates
▁miscarriage
▁triglyceride
▁stool
▁physician
▁pneumonia
▁headache
▁intake
▁premenstrual
▁sodium
▁reuptake
▁oral
▁reviewed
▁cervical
▁mmol
deficiency
▁PMS
▁infants
▁eczema
▁moderate
▁hemoglobin
▁aspirin
▁adults
▁bupropion
▁cutaneous
▁vitamin
sensitivity
▁indications
lipoprotein
▁colorectal
▁disability
▁bone
▁asthma
▁admission
▁odds
▁mineral
therapy
▁intraepithelial
▁carcinoma
▁regurgitation
▁deciliter
diabetic
▁diet
▁serum
▁births
▁juice
▁pregnancy
▁antihypertensive
▁hormone
▁endometrial
▁superficial
▁vaginosis
▁infectious
▁IgG
▁complications
▁lovastatin
▁NSAIDs
▁dermatitis
▁risks
▁placebo
▁Controlled
▁drugs
▁mononucleosis
▁osteoarthritis
compliance
▁cytology
▁consensus
▁cryotherapy
▁glucose
▁HSV
▁reflux
▁Compared
▁surveillance
▁transvaginal
▁thrombosis
▁psychological
▁creatinine
▁steroids
▁blinded
steroids
▁antibiotic
▁relieve
▁infected
▁biochemical
▁symptom
▁concentrations
▁hypertensive
▁CIN
feeding
▁discontinuation
▁fibre
▁renal
hypertensive
▁uncomplicated
▁circumcision
venous
▁idiopathic
▁inhaled
▁alopecia
▁wound
▁receptor
▁childhood
▁contraceptives
▁tablets
▁asymptomatic
▁regimen
▁imaging
▁lipid
▁bibliographies
▁untreated
nasal
▁dysfunction
▁hemorrhage
▁invasive
▁anticoagulant
▁medications
▁therapeutic
▁relapse
▁urine
panic
▁antihistamines
▁occult
carcinoma
▁clinicians
▁clinical
diagnose
▁herbal
▁examined
▁intrapartum
▁recurrent
▁baseline
clinic
▁foods
▁erythema
▁LDL
▁ABP
▁clindamycin
▁pressures
▁myocardial
▁findings
▁hypothyroidism
▁pneumococcal
▁concise
▁allergy
▁surgical
▁ischaemic
▁guidelines
▁adjustment
▁heterogeneity
▁diarrhea
▁bronchoconstriction
▁paracetamol
▁nocturnal
▁antidepressants
▁hepatitis
▁adverse
▁mellitus
▁elevations
▁Treatment
▁insufficient
▁throat
▁lesion
▁CHF
▁Screening
▁elevated
▁cardiac
symptom
▁antibodies
arthritis
▁antagonists
morbidity
▁melanoma
▁spine
▁injuries
▁mothers
▁Depression
▁intrauterine
▁squamous
diagnosed
▁benzodiazepines
inflammatory
▁feeding
▁infertility
▁recommendations
▁ulcer
▁lesions
▁referral
agonists
▁fractures
thyroid
▁heparin
▁hysteroscopy
▁systematic
▁cognitive
▁effectiveness
estrogen
▁insulin
▁neonatal
▁tinea
▁predictive
▁transient
▁imipramine
▁excision
▁Efficacy
▁preterm
▁decreased
▁cesarean
▁infection
statin
▁panic
▁adequate
▁symptomatic
▁hyperplasia
▁compliance
▁lowering
▁overweight
▁lithium
▁allergic
▁prognostic
▁diagnosing
indication
▁prenatal
▁diagnosis
▁sulfonamide
▁reproductive
▁Grade
▁antibiotics
▁pertussis
