hydr
▁ovarian
▁somatic
trogen
▁GA
▁questionnaire
▁uncom
▁accep
▁suscepti
▁ascorb
▁psychiatric
erent
genic
ectin
▁disorder
▁elastic
odal
adequ
▁reversible
rowth
▁pyr
ithelial
▁TC
▁histopath
▁measuring
▁asthma
idase
ogenous
▁pneumon
▁conjunction
▁randomized
▁surge
▁inges
▁antibiotics
▁incub
▁Evidence
otyp
▁mmol
elec
▁cryp
otor
▁exposures
▁bone
opathy
ture
▁deficiency
trum
▁differen
▁thickness
▁acids
▁pneumonia
lysis
veness
▁responsiveness
teral
inated
▁preventing
▁HPV
▁statistically
▁mitral
▁plac
▁ventilation
tein
▁mobilization
requ
▁hormone
generation
ergy
▁resection
idation
▁survived
▁vesicles
gth
▁biopsy
▁oxy
▁unrelated
atitis
▁demonstrating
▁operative
▁metast
▁gon
▁immunoglobulin
▁inhib
▁pregnancy
▁stimul
▁inhibit
▁intrac
lux
▁exposure
▁Fifty
hydro
ositi
ximum
▁gonadotropin
▁regurgitation
▁injections
LH
methyl
▁characteris
▁bronch
▁produc
▁hep
▁inflammatory
elves
urine
itro
▁optimum
▁subcutaneous
ochemical
▁remission
▁smoking
seud
▁mothers
ulum
▁aqueous
tors
ogenicity
oxic
duction
▁Nine
▁capillary
▁anomal
linked
teroid
▁Twelve
zyme
olism
cence
sions
effective
▁demonstrates
▁hepatitis
plants
▁lactation
tions
taz
▁establ
▁interc
▁traum
▁hydrox
▁enl
NH
▁cruc
▁probes
▁cystic
▁contracep
▁screening
▁injuries
ensitivity
ipine
gesterone
mented
▁abnormalities
▁sulf
▁considerably
tively
fib
▁angioplasty
▁immunization
▁accounted
▁impaired
oscopy
▁fracture
oxid
aturated
▁compartments
eration
▁nutrition
▁medication
▁benz
hion
▁DS
▁Increas
▁inhibitors
arly
tur
ygen
▁carriers
▁Clinical
chloride
stimulating
inally
bac
▁detectable
▁aging
ifedipine
▁uptake
▁stom
amines
▁MRI
ilateral
trin
▁assessment
ducing
▁cohort
▁symptomatic
oglobulin
▁reactivity
▁elderly
iaz
▁comparative
olec
angl
▁relapse
▁hepatocellular
▁citrate
▁objec
resist
▁Afric
ximal
▁urea
oxide
▁initiated
▁receptor
▁spon
otype
▁elimination
ylic
ocys
▁stab
▁plasm
▁cognitive
▁lavage
▁donors
reactive
▁vaginal
stim
olone
▁cyst
▁multic
ylated
epam
▁mellitus
▁transplant
ifed
▁seroton
rolog
▁fatigue
▁beats
▁Sixty
▁histamine
▁depressed
▁normotensive
iant
▁expiratory
▁aspirin
romes
▁synthesized
▁predic
tituted
utaneous
▁Leu
▁sour
▁regulate
▁infants
sia
▁brom
▁deaths
controlled
▁PD
lytic
oxin
▁structural
tivity
▁retur
coated
▁pediatric
▁overl
▁strains
▁ejection
▁eryth
▁atropine
▁thems
oconstric
▁calf
onary
▁aerobic
▁toge
bodies
▁glomer
▁administered
▁alcoh
▁tobacco
▁assis
wes
▁defic
ipramine
bacter
▁chronic
responsive
▁edema
▁pulse
▁tension
lym
▁adjusted
▁inhibitor
▁abdominal
▁vitro
▁direc
▁splenic
orac
▁kinase
▁tube
▁puls
▁bypass
phic
lycemia
ingle
▁dehyd
▁neutrophil
ept
▁cigarette
▁bolus
▁panc
hypertensive
ylase
itary
▁standardized
oxygen
▁saturation
▁deoxy
thyroid
rosis
▁cardi
▁diagnostic
olytic
ching
sies
arent
ospitals
▁conges
▁expressing
▁tissue
▁resec
▁affec
onate
▁smokers
▁caffeine
etan
amination
tents
▁toxic
▁toxicity
▁retic
▁termination
▁antagon
▁depression
yroxine
▁mg
rocy
nec
▁asthmatic
▁sple
▁tomography
▁blocker
▁glyc
▁dosing
▁linearly
▁transcription
▁altered
▁complication
ophilic
▁drain
▁symptoms
▁plateau
▁rhe
▁hypotension
ophag
▁chloride
ocl
▁longitudinal
▁thi
▁ferritin
▁polyp
▁basal
roscop
assi
estis
yste
▁positively
▁antagonists
trop
▁postnatal
▁anat
azole
▁instrum
▁atrial
▁depres
▁indication
▁suppressed
▁intact
▁fractions
▁weakly
aicin
▁Serum
▁gastric
▁discus
▁sti
▁quantitative
▁assays
▁wee
tic
▁poten
▁sequenced
▁cartil
▁cys
▁proportions
olesterol
tro
chol
▁indus
▁constr
ycl
keletal
ressed
▁dys
▁undergo
hydrox
ateral
rous
▁markedly
▁postoperative
▁biological
pite
▁absorb
▁pregn
▁lowering
ensitive
eptide
▁vag
▁promin
▁diets
▁experimentally
▁bab
▁doses
▁glucocortic
▁lacking
▁consecu
▁evaluating
▁offspring
▁incorporated
▁colorectal
▁idi
▁diabetic
▁diastolic
▁rhy
oretic
▁identif
▁dose
chlor
▁eti
▁concentrations
▁vein
ycin
oride
idine
▁retin
vian
▁dorsal
▁disturbances
▁enti
molec
tine
ecu
▁prostaglandin
▁idiopathic
rease
TG
▁nonc
▁severity
menopausal
▁cereb
anine
▁isch
▁agonists
regulation
▁determination
peptide
odil
▁nonspecific
▁mell
plied
▁capsule
▁ovulation
▁disorders
▁placental
osts
▁lipids
feron
▁differentiate
▁hypog
terone
▁coag
nai
▁sten
oids
olved
▁lymphocytes
▁coated
▁thyroid
dine
▁concomitant
▁distal
ulose
▁casein
educ
tomy
sion
▁moderately
▁acqui
▁tox
irub
▁titers
luding
tron
olution
▁interf
cepti
▁oste
▁behavi
▁urine
▁aden
▁rhythm
osity
▁yeast
▁aureus
▁beneficial
tenance
osus
ospor
▁progn
▁advan
ffinities
▁abnormal
olol
ocrine
▁creatinine
▁adherence
▁heterogeneity
▁benign
phosph
▁atten
resistant
▁Meas
anol
ocardial
▁suppression
▁discontinu
trical
romy
▁uro
▁vaccination
itus
▁enzymes
DH
▁latent
omal
otox
▁colonic
ophys
▁commerc
usp
▁nicot
▁tolerated
lec
▁reproduc
▁chest
▁uter
▁coagulation
▁recurrence
rogen
▁fetal
▁conditioning
lox
▁complic
tric
trial
▁ech
associated
▁infusions
emic
tisol
▁progressive
ologic
yro
tory
▁bip
▁Measure
▁anxiety
agic
ronch
▁prol
▁blot
▁PP
icin
▁inversely
atible
reased
ication
▁Twenty
▁imaging
▁reas
epti
▁chor
enzyme
itone
lobulin
▁precursors
sess
ceptive
▁testis
▁volunteers
▁duplex
▁retention
▁absorption
▁adi
▁nutritional
▁physician
ecal
▁tas
▁analyses
illin
▁parental
icient
▁oxytocin
▁ester
▁virtually
▁preoperative
otherapy
▁fluids
▁sero
tral
dition
▁endocrine
insulin
▁lith
▁carcin
▁receptors
▁agon
▁chemically
▁quantified
▁invasive
▁controlling
▁trials
loro
esic
▁Significant
otropin
▁reversed
avage
▁electroly
coh
spective
▁elic
bumin
▁healthy
▁reproductive
▁laboratory
▁bilateral
▁perfusion
▁canc
enicillin
antial
▁responsive
▁pronounced
▁reductions
thmia
drug
▁survival
okine
▁paired
▁sensitivity
▁angiography
▁lymph
ipit
▁correlated
iotics
▁glucocorticoid
▁adop
bacco
▁alanine
▁fetuses
▁acute
▁carotid
assium
▁viral
▁pituitary
tec
otri
asone
▁underg
▁hypertrophy
▁fixation
▁prednis
▁spontaneous
▁uterine
▁angiotensin
otoxic
▁antibody
▁electrical
▁potenti
plies
▁alcohol
▁micros
▁reser
▁opioid
olute
▁brainstem
lycer
▁excre
▁bic
ophil
▁phosphate
▁differed
adily
▁regulation
CAM
▁hemorrhage
ocial
usate
▁cate
▁femoral
▁duodenal
▁weekly
▁childhood
▁dex
▁feeding
ogens
▁achie
▁nasal
▁progres
▁interleukin
cyt
▁satis
▁manifestations
▁experi
▁artic
▁microscopic
idated
▁Overall
xate
leukin
▁usefulness
▁challen
lusion
ovascular
amycin
osomal
▁complications
BH
umerous
flamm
▁methyl
thyl
▁HL
▁ultras
▁shorten
lated
▁localized
▁prognostic
▁reflects
▁MI
▁supple
acetic
▁adren
▁strain
piration
▁stric
cholesterol
▁BM
▁stimulation
ethylene
▁potassium
ignific
▁examinations
patients
iatric
▁intracranial
▁concentrated
immune
▁ELISA
hyd
▁compounds
▁cytoch
▁untreated
▁carb
hydrop
mentation
▁satur
romycin
▁testicular
▁Clin
▁Bec
▁amiloride
irubin
▁recurrent
arb
▁substances
acid
ereb
▁impair
achol
▁subgroups
▁thromb
sA
▁prevalence
amine
▁regulating
▁pressures
ocytosis
▁lact
▁immun
RP
▁secreted
▁schiz
▁dysfunction
operative
otroph
▁inducing
▁intest
▁initiation
Cs
treatment
▁adults
illar
effec
▁immunobl
ayed
thma
▁valve
▁cartilage
▁inflammation
sy
▁hyperg
tracted
▁drainage
aturation
hep
▁percutaneous
▁autoimmune
▁dopamine
tance
▁moderate
▁modest
▁compartment
▁subjec
tingu
went
ureus
▁contractions
▁immunized
olated
▁increas
▁withdrawal
odium
▁progression
▁unchanged
▁comprised
▁neonates
▁provid
▁salivary
▁fluoride
▁yielded
▁ae
itol
▁aspir
▁statis
tained
▁exce
▁malignancy
ocon
▁arti
▁anesthesia
▁dental
▁placebo
▁nervous
▁infar
▁islet
▁spine
▁intense
▁succin
▁surf
trib
▁renal
rometry
▁estradiol
deficient
intestinal
▁sodium
iability
▁Recently
kely
ergen
▁decarboxylase
▁heal
induced
▁horiz
rated
▁biochemical
ocor
▁infusion
▁analogue
▁Recent
▁injected
▁hemo
▁syndrome
esium
▁substanti
▁ischemic
floxacin
▁duoden
sis
▁recor
▁examined
atients
▁comparisons
▁tes
▁chronically
anding
kine
omes
oag
▁Neither
▁theore
▁obstructive
▁pelvic
▁arteri
▁congen
▁urinary
otassium
▁pep
▁adap
▁newborn
▁poorly
▁probe
▁hemoglobin
▁pathologic
▁fati
apse
plas
acchar
▁surgical
▁acidic
tivation
zymes
▁proce
▁wk
▁glands
tional
otoxicity
▁phenyl
epine
▁leuk
ranolol
enteric
▁assessed
▁vascular
mend
pir
▁junction
jec
▁biphasic
▁nons
▁dosage
▁pH
▁LT
▁adoles
▁plasminogen
onin
▁detecting
ses
urea
▁characterized
▁obesity
osterone
▁intra
inergic
tative
▁transient
▁exhibited
onyl
▁stomach
▁histological
▁glycos
treated
ergency
▁bleeding
ritin
dominal
▁Staphylococcus
hea
venous
mong
▁compli
▁metabolism
encephal
▁IgA
renal
sibility
▁qualit
▁predominantly
eak
▁screened
▁bloc
▁oxygen
▁lesions
aminop
▁declined
▁variability
▁Whereas
kers
▁cortisol
▁gradual
ochrome
▁suspected
tically
▁amin
▁cultured
versity
▁lidocaine
▁indomethacin
topril
▁glomerular
adder
owever
▁analys
▁normo
▁duct
radi
▁rats
▁adrenal
▁drugs
▁Eight
ocomp
▁systolic
▁drin
jun
ancies
apamil
▁supplemented
opres
▁neurop
roup
▁undergoing
▁monit
▁HSV
▁posi
▁acet
▁Hear
▁electr
feren
▁frac
ensi
▁squamous
mittent
ications
▁enhanced
▁muscle
▁cerv
▁cutaneous
▁evid
▁exceeded
▁HP
▁neonatal
limb
▁scanning
▁Dop
▁guinea
ocyte
▁membran
▁diffic
idne
▁analges
tact
vul
▁anemia
▁nodules
▁elec
▁supplementation
athyroid
▁plasma
▁interferon
estern
jected
ucose
orbent
osyl
tus
tensive
▁wheat
▁intake
▁sepsis
▁ECG
▁hospitals
bic
▁protective
robial
piratory
▁treating
entif
▁involvement
▁implicated
nine
oprol
terase
▁membranes
▁gestation
entricular
gluc
▁spinal
▁cerebral
itant
▁injur
uble
▁spor
▁lipid
▁progesterone
▁excretion
DNA
▁estrogen
▁unilateral
lact
▁reticul
▁prognosis
alc
terol
sulf
▁bacterial
▁attributable
occal
▁reflux
▁peritoneal
▁ineffective
▁activator
▁prophylaxis
▁steroids
BP
▁admission
▁melanoma
▁antagonist
vents
▁genetic
oplasty
▁classified
▁patches
▁kinases
▁injec
▁immunity
▁albumin
hetamine
▁severely
▁labeled
▁Patients
▁postoperatively
▁examination
monary
▁pig
▁cortic
ypical
▁thir
▁responded
▁kidney
▁hypothal
▁immune
▁LD
▁preparations
▁fasting
icep
▁congenital
▁favorable
▁cervical
amide
▁myocardial
▁influenza
▁ligation
▁maintaining
▁facial
orption
▁antib
▁ket
▁amn
▁peripheral
echn
ymp
onomic
▁temperatures
ensity
▁retrospective
iable
▁occurring
▁suppres
▁affecting
▁acquisition
▁perip
▁sediment
▁stren
▁cumulative
yrox
▁knee
geal
mL
timal
▁gland
▁potent
▁chan
▁cardiac
▁enzyme
▁tooth
▁glut
oluble
▁hypothalamic
rele
▁soy
▁esophageal
ascular
▁tach
▁dietary
olamine
meth
▁discon
▁preval
▁bicarbonate
ethyl
inesterase
▁diagnosis
▁neph
duced
tice
ardia
tration
usive
▁epidemi
▁strategies
ophageal
▁respiratory
yroid
▁bacter
▁quanti
▁ery
▁defects
▁lesser
tious
▁stain
▁decreas
▁accurately
opath
▁fibrillation
ffin
▁cyt
▁pancre
▁differentiated
urther
▁mineral
▁correlates
▁NP
mitted
▁plaques
cine
opathic
oidal
▁unstable
▁decreasing
rogenic
oic
▁copper
tin
▁reveal
queous
trac
pig
▁suppor
▁pertussis
▁allele
acted
▁parathyroid
traction
▁supra
blind
acr
ogl
▁attenu
partate
▁hypers
▁requi
▁MIC
tiz
iminary
▁acces
▁numb
▁persisted
▁hypo
eces
astolic
trated
▁IgM
opa
▁resting
▁rele
▁consensus
▁contamin
▁analyzed
▁choline
▁luteal
▁steroid
ranial
▁transferrin
omotor
▁precur
matched
fusion
▁antic
▁testosterone
illus
▁glycoprotein
▁placenta
▁graded
▁metastatic
▁intravenous
rents
▁diarrhea
▁lutein
▁Initi
▁examin
▁morb
▁gestational
tensin
▁persis
▁exten
▁osmotic
▁resonance
▁extre
▁infected
▁cere
▁regurg
▁Hg
▁functionally
▁esophag
▁antibodies
olus
▁HDL
▁surgery
▁rheumatoid
cyclic
ctive
▁IgG
▁arterial
▁endogenous
ostic
▁comparable
micro
sors
▁healing
▁focal
▁nig
▁anaerobic
▁zinc
tical
pregn
▁treatments
▁insertion
coun
opic
ritis
teroids
tives
▁limiting
▁wound
organic
ifferen
▁mann
tivities
▁recipients
▁latency
▁pharmac
releasing
▁ventricular
▁rheum
lyc
▁findings
▁ultrasound
▁diseases
ignificant
risk
▁assessing
▁rectal
idin
▁intensive
▁sedimentation
▁aspec
▁elevated
tual
▁PCR
entral
ercise
erating
▁phenomenon
▁fractures
▁hepatic
▁extrac
▁perin
trol
▁insulin
▁experim
▁ori
▁filtration
▁endometrial
▁PT
▁decline
ulant
zard
▁saturated
acrine
▁nursing
▁prospective
▁hepat
▁fatty
▁oral
▁fiber
sibly
▁biopsies
atation
brom
▁transi
▁liver
▁respec
▁tolerance
tured
▁scans
reast
▁exis
▁dexamethasone
▁multiv
▁glomerul
▁auditory
▁consistently
taining
sistent
▁behavioral
▁kidne
entric
▁hyperplasia
▁ane
▁fever
▁pleural
diabetic
▁Comparison
▁intervention
acet
▁Tran
tive
▁pump
tiveness
▁specificity
▁restric
respon
▁extracts
▁judged
▁exclusively
▁congestive
▁ischemia
▁clamp
▁methionine
▁onset
invasive
ontal
▁granul
▁breathing
▁rati
▁ulc
▁HLA
▁synthetic
ropathy
▁resul
▁bronchial
tent
vascular
▁VT
aminase
▁herpes
▁amph
▁allergic
▁smo
amethasone
▁risks
containing
▁stimulus
osal
▁stenosis
median
▁adequate
▁excl
▁prospectively
▁utilizing
▁regimen
gative
▁excluded
▁esters
gely
tention
▁cancers
▁clinic
▁reactions
▁arthritis
▁verapamil
▁decreases
▁fetus
▁detec
tures
ration
titution
eric
▁Calc
▁incom
adrenergic
▁intermedi
▁discharge
rief
▁describ
▁iso
▁pigment
▁cef
▁cyclo
▁recordings
▁PI
▁maternal
ulatory
pecific
▁viruses
vation
▁tuberculosis
▁hetero
▁transfusion
▁angi
▁glucose
▁PE
directed
▁ppm
omized
mol
oprotein
ditions
atient
▁creatine
accharide
▁inadequ
▁horm
athy
▁fluc
▁quantit
molecular
toc
▁pneum
centr
▁prevented
▁subjective
roscopic
erence
▁TP
▁actin
▁affects
ergic
▁Thirty
▁histologic
▁instr
oscop
▁prolactin
idity
▁reveals
sectional
▁cis
▁trend
throm
▁endoscop
▁perc
▁wash
▁cardiovascular
▁excessive
▁incidence
▁outflow
ocellular
▁infectious
▁malignant
▁Compared
▁impairment
▁histology
▁hypertensive
▁epid
orts
omycin
▁tric
▁ure
▁pati
lys
till
▁superficial
▁intram
▁coli
▁electrodes
▁unaffected
▁neon
▁predictive
▁deter
▁mamm
mature
▁acetate
▁retinal
▁deterioration
▁eliminated
arbox
▁spont
▁deterior
tension
enic
greater
▁tended
idazole
▁leukocyte
▁practition
▁malign
▁continuously
▁kidneys
▁efficacy
april
▁blockers
▁sustained
▁cholesterol
armac
▁sulfate
hist
▁melan
thmic
bility
▁Increased
▁isolates
mia
▁artery
▁hypoxic
▁antibiotic
▁indi
▁calcitonin
▁dihydro
iasis
▁symptom
ostatic
inemia
▁immunosorbent
▁adenocarcinoma
▁monitored
idate
▁physiological
▁Treatment
amic
erate
▁arter
▁Thir
onucle
plete
▁cultures
▁effec
▁therapeutic
▁cavity
▁pyl
▁LDL
▁uterus
▁differe
arge
▁infections
▁defec
▁angina
produc
ulin
▁diabetes
▁underst
▁cessation
odies
▁sham
▁renin
▁plas
▁peroxide
fed
▁centers
sych
▁implants
▁preparation
▁sensi
cessive
▁inhibitory
▁ultim
▁bowel
▁protoc
▁graft
olic
▁Escherichia
esity
LDL
▁ventil
tle
▁respon
ometh
▁concom
▁gels
▁reac
mega
▁dye
▁elevation
▁HIV
▁subc
lyl
▁splen
▁nitrogen
versely
tics
ially
acts
▁underwent
▁coronary
orrh
eled
▁dox
▁bilirubin
uscular
arbonate
ocytes
▁clonidine
tiv
▁organic
▁adverse
▁noc
▁investigated
▁infarct
lood
▁pulmonary
ociation
▁alcoholic
▁orally
retin
tif
thmias
tial
opamine
dial
▁cephal
density
▁Hb
▁scre
itamin
ocyt
▁practic
viral
▁Addition
seven
▁relaxation
▁throm
▁contex
orpor
▁conclusions
▁phosph
▁EG
▁enlarge
loxacin
hydroxyp
adren
▁ey
▁attemp
vely
▁prevention
▁metastases
▁hig
▁biop
plasia
▁calcium
▁morbidity
▁antigen
tox
iotensin
dle
thmatic
▁limb
▁meth
▁lateral
▁myc
▁captopril
imens
▁cros
itrate
orectal
▁possi
▁conduc
loid
▁shor
▁clinically
▁abor
▁presum
▁investigations
▁assay
▁enhances
▁presumably
▁reactive
ucl
▁remo
▁insufficiency
▁serum
duce
▁pregnant
▁perox
ochem
adm
ordance
▁normalized
▁hypot
ovirus
▁TSH
▁plasmin
▁resistant
▁simultaneous
▁morphine
istar
▁bacteria
iloride
▁dissection
▁vaccine
exposed
ocaine
▁synthesize
▁emergency
▁therapy
▁induce
yrid
▁agonist
ocin
tation
▁lumen
▁diet
▁embry
▁fibr
eight
▁omega
ffec
▁susceptibility
▁sugges
oneph
▁mortality
▁obese
▁magnesium
▁dimethyl
aired
tially
▁nifedipine
▁affinities
toxic
tinu
▁physici
▁diaz
▁ulcer
▁compliance
sive
▁vesicle
ortic
azol
▁obstruction
astric
▁pregnancies
aryngeal
▁pancreatitis
iotic
▁residual
▁chol
siveness
▁thereafter
shaped
▁lute
▁hypothe
▁neuro
▁clus
atoid
forming
▁hemat
▁lumbar
▁PV
igible
plication
amus
▁nerve
rein
▁concer
▁selec
▁dramatic
bladder
▁menstr
▁ingestion
▁lipoprotein
▁infection
▁immunos
▁pretreatment
▁contraction
▁ratios
▁regimens
▁sampl
ariate
selec
▁reflex
▁diagnosed
▁Doppler
▁preven
▁hydrogen
▁deposition
▁intrav
▁relap
ilic
turb
tility
onstric
▁intestinal
▁pathology
▁chlor
oyl
▁mening
tition
▁amplification
ipr
▁reflec
▁skeletal
▁effectiveness
oxy
igaret
▁carcinoma
▁mucosa
▁chemotherapy
▁bladder
▁vitamin
▁LV
orec
▁asymptomatic
▁etiology
▁paren
leu
▁dors
▁erythrocyte
▁limbs
▁determining
lobin
▁molecule
▁conductance
▁propranolol
▁balloon
ionine
▁clinical
▁clon
ogenic
▁veins
▁baseline
▁refractory
▁Insulin
arrhy
otypes
▁diabe
rologic
▁implications
▁ocular
▁selective
▁atrophy
osamine
▁intermittent
natal
LISA
▁infarction
▁ranging
▁beha
▁struc
uminal
▁dilatation
▁pretreated
openia
▁triglyceride
▁pancreatic
▁triglycerides
ectomy
▁Subjec
tally
ameth
▁HR
ocar
crib
embran
▁nicotine
illary
crip
▁carcinomas
▁laser
▁tumors
▁illness
earing
tural
inic
▁Americ
onography
▁triglycer
ologically
▁muc
▁emerg
▁proton
▁gonad
oglobin
rine
aline
ymptom
▁fibrosis
▁HB
▁developmental
▁proximal
▁premature
▁aspartate
▁arrhythmias
otrexate
amuscular
vices
ofl
otting
opl
actin
▁gluc
▁ambulatory
▁mast
ucle
▁physicians
▁mice
▁indications
▁heparin
▁repl
iciency
immun
hyp
duc
bearing
▁pulses
echan
▁trauma
▁identi
acting
▁techniqu
▁excision
▁lumb
▁suspension
▁mL
▁diminished
▁thrombosis
▁quin
▁Forty
▁meal
tinguish
▁mild
bral
▁pharmacokinetic
▁decreased
tioned
▁averaged
▁tumor
▁inh
protein
▁prophyl
▁quantif
▁recur
ticular
ophy
▁airway
asal
tussis
▁deficit
LV
amous
oracic
dose
osom
▁tiss
▁inflamm
▁analgesia
▁postin
ffeine
▁cytochrome
▁presenting
▁nitro
titis
▁abnormality
▁brush
▁differing
▁hypox
▁functioning
▁lesion
▁reduc
▁arth
▁lowered
acin
▁systemic
▁prostatic
▁soluble
uretic
▁androgen
▁prolonged
rected
▁hypothyroid
▁adip
▁carbohydrate
aryn
▁vaccin
xia
ichia
▁hemorrh
▁reviewed
epithelial
erad
▁inhal
▁bac
▁HA
ults
rox
iol
luded
opausal
▁repor
▁consis
▁metabolic
▁unex
▁venous
▁ranged
▁substantially
▁intrap
▁gradi
itonin
mg
urgical
▁hypertension
uresis
tile
▁nec
amel
▁gastro
mental
omethacin
otre
▁recr
▁stu
yridine
▁FEV
▁phenotype
olysis
uric
odiaz
positive
