otom
▁angiography
phosphonate
▁Biochemical
▁dosing
ctomy
lusion
▁clus
▁predicts
▁pla
mixed
oten
▁physiological
arous
▁leukocyte
▁stren
▁extensor
▁Afric
acr
▁mucosa
▁carbohydrates
▁mucos
▁Cox
ulae
tries
▁tiss
asive
tific
5-
▁substitution
▁VD
▁atres
Hu
▁kerat
21
▁metabol
ophren
▁insertions
▁endarte
▁AO
▁gly
9-
neumon
▁underestimated
▁coel
▁Multiple
responders
▁leakage
▁adjuvant
▁improves
▁specimens
▁constitutes
▁auditory
sies
Ig
▁anat
RH
▁bronchi
ureus
▁pS
ighted
▁synthesis
▁microbiological
0-
Ba
▁identically
▁decreasing
aginal
▁topical
▁genotypes
▁reproducibility
▁hypertension
▁nosocomial
orative
ilical
ogra
▁PCO
omized
▁Kup
-9,
ociated
ocaine
▁embry
adication
urine
▁appropriately
cele
ffer
induced
▁systolic
ampl
gic
idement
▁latency
▁fragility
▁exclusion
▁neurolog
mature
▁thi
▁putative
opathy
▁Vac
▁GER
uccess
▁radiography
drome
▁injections
dents
phal
undibular
lateral
▁PCP
▁repres
▁osteoporotic
▁tissues
▁neurologic
▁proteins
▁appendicitis
oracic
▁kidney
ergic
loro
GV
aceous
▁testis
▁DSM
▁thrombo
quired
▁overe
ocytic
-0
▁prenatal
▁mann
▁soy
▁radiograph
idation
▁polyps
▁tib
▁differen
▁tumour
orphic
sible
▁sciatic
▁glands
▁alve
▁gastric
onyl
▁wors
▁vascular
▁cate
ocul
▁modulates
▁Treatment
▁inflammation
ellosis
▁LV
▁2
▁tomography
▁clinically
▁LDL
▁obese
tib
▁7
faction
▁deem
▁palsy
ivocal
▁cardiomy
▁prevalence
▁ventric
▁cerebrovascular
ochemical
arcin
▁questionnai
▁cutaneous
▁subgroups
anic
▁warrants
▁progestin
▁glucose
enin
▁awa
▁ultras
▁4
▁confir
▁subjected
▁Streptococcus
▁systemic
phrine
▁worsened
▁Trial
▁endarterectomy
oxic
46
▁reproducible
▁derangement
phosphon
▁gland
▁sensory
totic
▁consultations
▁sti
tion
BK
▁deformity
▁Phe
guided
▁MRC
ypical
sul
▁receptors
▁examin
lective
▁deficits
ithms
agal
▁counseling
▁500
▁assay
ceptual
▁11,
▁AMP
Tu
▁induction
▁Ear
Cu
▁perip
onol
▁discom
▁evolving
vant
▁NH
Cer
▁variability
▁chan
sych
▁60
▁lumbar
▁colonoscopy
▁aort
▁correlated
▁opioid
cribed
rophyl
▁somatic
trative
oung
▁VO
urther
ophag
▁suppression
eric
▁mediates
▁5
▁striated
▁RA
▁polymorph
▁overlying
oscopic
bladder
▁decreas
associated
nec
enic
otor
atif
▁adenoma
▁arthritis
edullary
▁hypers
ximal
gents
irrh
▁residency
▁undergoing
mig
▁13
▁laparoscopy
▁underg
▁pter
▁redund
idated
owever
▁traumatic
▁heterogeneous
▁antibodies
▁neo
▁preferen
▁graft
regulation
▁contributes
▁influenza
▁inadequ
▁oste
rehen
▁acids
▁pancre
versely
lastic
▁subgroup
tach
▁48
0%
▁differentiated
mur
▁linoleic
omotor
herence
▁RBC
kade
ancement
▁benz
▁contamin
ifol
atoid
osom
▁cervix
▁sepsis
▁synthe
▁thoracic
▁discon
LV
onin
▁sev
iol
▁laparo
▁evaluating
urgery
▁surgeons
▁antec
▁ach
▁tumors
▁endometr
▁31-
seal
▁histologic
▁epi
astatic
▁eradication
▁laparotomy
▁ventilatory
▁anastomotic
yroid
asal
omat
▁discrimin
▁cohorts
▁Phy
echan
bic
▁diabetic
▁homogeneity
▁organisms
imens
▁molec
▁ECG
▁amput
▁selectively
LB
EGF
gment
crib
▁resol
▁gangl
dition
▁hepatitis
▁Removal
lym
activation
▁mandibular
▁perinatal
▁phag
tam
orin
▁occlusal
▁fracture
agin
armac
1-2
MRI
▁evaluations
▁Delayed
▁HL
▁surrog
▁SNP
▁200
tration
▁feasible
▁psychosocial
▁scanning
itin
▁implantation
▁defic
▁favourable
ituitary
anyl
▁transurethral
angl
injured
utions
dent
epit
▁modif
▁rCBF
▁perce
increased
▁correlates
IgM
▁ICS
ostat
▁indeterminate
ancre
▁regis
entists
▁Acute
▁Taken
▁detrimental
▁merits
ocyte
acil
▁inhibitory
▁pathologically
▁prospective
▁emerg
▁MCP
▁detachment
atial
mentation
▁thickening
▁HI
isol
▁shortened
iliac
▁tert
▁physiology
ocar
iferation
▁unex
arate
▁indicative
10
anol
▁beha
▁oxygenation
▁studi
icine
itance
hemo
▁disapp
jective
tectable
mented
opamine
▁22
▁pancreatic
▁mL
▁arteries
▁adhesive
thma
▁annulus
▁paradigm
▁supple
illary
▁Ara
▁therapies
▁demographic
▁11
▁sut
atories
▁symptomatic
ration
▁hormonal
▁PB
▁eosinophilic
▁overlaps
▁streptococci
▁substituted
▁PAS
ducts
▁endoscopic
▁metformin
▁Ras
28
▁Tum
▁judged
lip
TK
▁fetus
▁overlapping
iary
ochem
22
▁unevent
▁genotype
▁insufficient
▁anomal
▁40%,
▁tamoxifen
▁HCMV
rogra
certain
▁pineal
ventional
▁comple
▁porcine
▁venous
hyd
istrib
uptake
occi
▁dexamethasone
▁nonadherent
heum
▁chemotactic
▁referral
▁outpatient
itro
▁follic
▁vaccines
▁esophag
▁corne
▁surgeon
oplasty
▁hypot
▁agonist
▁MN
▁shor
▁APC
▁34
▁occl
▁poten
▁mellitus
▁echocardi
▁implicate
vul
▁paradig
urrent
▁collateral
.2%
pir
▁disappearance
▁lobe
▁corneal
-2
▁removes
▁85%
▁40
▁excimer
▁communic
▁molar
▁heparinized
PV
▁parotid
vice
▁circumference
▁35
▁discharge
urc
▁concordance
▁ossification
cture
▁abnormal
▁fluor
atical
▁fetal
estion
anish
lood
▁schiz
▁ulcer
▁seropositivity
ostal
▁VC
▁unclear
▁Continu
▁postmenopausal
▁inhibition
▁oligo
ologic
▁mediation
▁specificity
ocardial
▁birthweight
▁allo
▁microb
-1
▁elu
▁glomer
▁positioning
rosis
▁prophylactic
▁cathe
▁markers
▁noncom
▁elimin
centr
▁compressed
lec
▁chemotherapy
erance
physiologic
▁socio
▁chec
▁27
unctional
▁insertion
ofol
▁amines
trip
▁lymphadenectomy
▁parag
▁depar
▁traum
fusion
▁pedig
▁Greater
taining
echn
▁precedes
ochemistry
KD
▁perc
phic
▁localized
▁oxide
▁IH
bility
▁oro
▁1
jejun
▁lobectomy
▁abdomen
loride
thle
▁IgM
stab
▁glu
▁HU
▁fati
▁anastomosis
▁carcinogens
▁preclude
▁resection
▁LN
▁chewing
identical
ectable
▁onc
ailure
▁predictor
▁concurrently
▁Cushing
▁hypo
▁artery
▁phe
▁recom
HB
▁causative
▁practic
▁encoun
▁lithotrip
acental
prising
▁thorac
▁Physicians
odial
▁immunological
▁femur
▁ACE
▁turnover
▁Contrary
encl
▁adhesions
▁bloc
2.
▁iso
tection
▁appendic
▁cen
▁Surgery
▁tran
itic
5.
race
cad
irc
▁GV
4-
1-3
eration
quine
▁adverse
inol
▁biom
▁naltrexone
▁pelvic
▁infections
▁gait
▁cyst
osal
▁pulp
▁Phen
genesis
▁pharmacy
rates
▁ascertained
▁engraftment
orectal
idney
raine
▁aortic
clerosis
ints
ocusing
utin
▁LOS
▁sequelae
2%)
duced
hips
▁bip
▁unexpl
pine
omerular
▁uptake
▁resusc
esity
othel
▁chl
3-
osomal
▁rhe
▁vaginal
▁dex
▁superficial
▁hypoxia
▁overd
reatine
▁neutroph
▁suture
▁pregnancies
ymp
▁Neurop
iatic
▁acqui
tolerated
▁empirical
0.
▁manifestations
employ
▁parental
▁relapse
renal
▁muscul
umulation
▁potency
spectively
▁prescrib
▁carcinoma
▁biopsies
▁amyloidosis
anin
▁Blockade
▁HN
▁latent
▁juven
▁ana
▁hepatic
atient
edic
▁techniqu
▁poin
▁oxy
00
▁UL
▁enrol
▁palli
▁prognostic
80
▁gallst
▁sulfonyl
▁deform
▁pancreatitis
▁LD
78
▁lipids
▁migrated
ithm
▁dysfunction
▁saline
▁ambient
▁compli
▁loosening
▁endemic
▁caro
▁postoperatively
▁rhy
legia
tus
▁debr
estig
▁debridement
odic
▁7%
▁PET
oradi
tors
immune
▁Contr
104
ronch
pies
ods
▁metastas
▁synovial
▁circumferen
▁statistically
▁mammography
▁Emergency
▁compartment
▁vitamins
▁tris
▁anatomical
▁pneumonia
▁exacerb
astric
▁scoliosis
inj
▁herpes
▁8.
▁coronal
aminated
ipient
▁ischemic
estive
▁stimulate
▁irradi
▁HLA
▁gluten
▁infar
▁bronchoscopy
▁comparisons
▁evacuation
▁perone
ervations
▁estrogen
▁exce
▁prophylaxis
▁HS
opro
▁enlarged
▁parap
ejun
▁axillary
▁bene
LN
ths
27
tual
▁Operative
▁volumetric
▁haem
▁atrial
57
▁confron
quid
ureth
lasting
▁hemorrhagic
▁carriers
ileptic
▁neon
▁contral
▁phy
▁heparin
▁Lys
▁catheters
▁agon
rophob
▁testicular
▁consolidation
▁chemot
▁overex
Ra
▁ovarian
▁Medicaid
sia
▁contaminated
esia
glum
▁rigor
▁histological
▁stimulation
▁identifies
▁MHC
▁intrag
lep
adequ
▁pathologies
▁16
enzymatic
▁regulate
▁IU
namic
consuming
sive
imin
▁placent
ximum
▁unil
▁vagal
▁undetected
▁congen
athyroid
▁cytology
orrhagic
transplantation
50
adherent
weighted
emia
▁IgG
▁canc
nutrition
▁somatostatin
ogens
▁FH
▁autosomal
MN
▁tonsil
▁preparations
▁pneum
▁chor
▁19%
Ti
idate
▁tes
▁relap
coun
▁acetab
85
▁overexpression
clinical
menopausal
▁unrel
▁reperfusion
tak
▁umbilical
opulation
▁distin
▁physicians
▁muc
seud
▁definite
▁nutritional
positive
odon
ayed
▁cuff
▁pathogenesis
erating
keletal
gely
▁mucosal
2)
▁cochlear
▁undergo
▁vaccination
▁overestimated
tent
onatal
ivation
▁DG
▁fatty
▁Engl
▁Biochem
▁differenti
itamin
▁impaired
▁gynec
▁Neu
▁79
ariate
▁CAM
ulfonyl
▁pylorus
EG
▁alterations
▁restenosis
▁utero
▁Findings
othermic
▁poorer
▁neutrophilic
▁erg
xual
▁skeletal
▁angi
▁acupuncture
▁advisable
▁pharmacological
▁10
▁assessments
xia
▁symptom
entif
▁Medicare
▁metastasis
▁Estrogen
iciencies
▁referrals
12.
▁tumor
▁differentiate
▁MG
ognition
birth
▁endometrial
▁spon
ontal
▁intraven
regulated
▁menopausal
iminary
▁comprehen
▁stratification
▁intrav
▁COS
▁LF
blast
▁Intra
▁Pregn
orax
▁behavioral
ulatory
chers
▁bipolar
▁insulin
clin
60
▁evol
▁enti
▁scre
▁withdrawn
▁PEEP
-5
▁employing
▁continence
olysis
cence
lax
ectom
32
jug
tomy
▁rebound
moid
▁21-
▁characterize
▁perin
eliac
cis
▁Therapeutic
Phe
▁cyt
ronchial
hern
▁insufficiency
▁elimination
▁receptor
▁avascular
loid
▁PCR
▁prophyl
atell
▁anatomic
▁assessing
rants
orotic
▁adolescents
▁supplementation
▁thir
ioid
reas
20
76
▁IB
▁chole
▁premature
▁deliveries
.6
▁pharmacists
▁impairment
▁rati
adder
▁nal
cessive
arean
ostomy
▁examinations
iplin
vic
▁anastom
mittent
▁prevalent
▁IVF
fos
▁prostate
athe
tur
▁UTI
▁Bone
▁endoc
▁depic
▁valu
eded
▁validated
▁oes
▁tuber
▁regimens
kele
▁positively
▁autoimmune
uterine
ospor
▁complementary
▁synerg
▁unstable
▁melanomas
▁injected
▁1.7
▁stimul
▁atherosclerosis
▁somat
urethral
▁psychotropic
▁uncom
▁inten
▁ascer
lac
▁wee
▁GFR
▁urinary
▁hypertensive
▁MM
▁proct
rested
diagn
ialysis
▁rationale
▁tol
▁fixation
▁amp
uccessful
ucle
▁Vitamin
▁WHO
▁preventive
▁maternal
nee
▁corrective
▁cirrhotic
ceptive
dic
0.5
11
uncture
▁exis
ecre
opsy
NH
▁predic
sensitive
▁enl
▁modality
▁Tumor
▁modulate
▁trough
▁fragile
▁tibial
BV
▁surgical
▁bronchial
▁3-
▁underst
radi
▁inver
mental
feren
heric
▁alveolar
ubtedly
▁seb
retion
▁suggestive
▁melatonin
derly
tero
▁myo
lymph
tensive
▁antibiotic
occal
▁previ
▁peroneal
▁dilated
▁strom
elan
▁IA
▁exo
▁8
34
▁30
▁-0.5
▁subtraction
▁eluc
▁biop
ctive
54
econd
▁Serum
MIC
▁adequ
venous
▁pelvis
▁socioeconomic
▁mediated
▁Alter
▁1.
▁sph
▁decisive
ught
▁olig
▁leuk
cutaneous
inic
pH
▁progn
sian
▁dentists
▁versa
▁congenital
SCC
▁Chest
chol
▁pati
▁HCM
tis
sion
▁facilitated
▁silicone
▁elic
aemic
▁consequent
▁homogene
▁creatine
▁persist
osition
▁provocation
rae
diol
▁laboratories
▁subsp
▁causal
▁torsion
▁differing
Ds
veolar
filtration
agit
opathological
▁surrogate
▁interc
▁infil
▁adenomas
IH
▁criter
ulcer
▁desm
▁synergistic
▁DN
▁distrib
▁HPV
▁heavi
SPECT
▁decreased
resting
ithiasis
▁seizures
▁alteration
▁1-
vaginal
▁40%
glyc
▁omitted
▁adjunct
Ta
▁ultrasonography
▁paraventricular
▁edema
▁aor
▁disks
3,
6.
▁unsuccessful
▁cardio
economic
.2%)
▁thromboembolic
▁scin
effectiveness
discharge
▁inflammatory
▁chol
lux
▁rigorous
▁radiographic
▁hormone
▁tracer
mTc
▁lith
bac
▁nucleus
hers
▁bypass
▁EMS
▁repaired
alian
▁gradi
erally
▁metastatic
▁thrombolysis
▁patellar
40
▁cereb
▁deficit
▁molecule
rene
CRP
sial
▁thresholds
▁abolishes
ortal
▁150
▁prostatic
▁ventil
▁gout
▁ventricular
▁intrauterine
▁prevalences
▁proportional
stolic
sus
▁coh
dor
▁Samples
▁Pregnancy
▁thre
iological
▁indications
▁flexion
▁ow
▁reactivation
eal
▁OT
▁MH
▁musc
crimin
▁neurop
▁esophagitis
▁homogeneous
▁fas
▁occupational
▁vomiting
▁establ
▁appreciably
▁determinants
▁abdominal
FV
▁excision
▁VS
▁physiologic
19
igaret
rine
ditions
▁nodules
ipolar
▁lipid
MV
phen
▁intravenous
▁32%
▁(5
uting
atment
ubted
▁stroma
▁fractures
▁favorable
14
otomy
▁ure
▁Treatments
otrop
▁metoclopramide
▁restor
oskeletal
hap
▁eliciting
dle
▁shif
ropriately
1-
▁cerv
▁reag
▁microm
▁RH
carcin
▁gallbladder
ograms
aturated
astom
invasive
▁chorio
▁geniculate
▁pathologists
4)
▁errone
▁adop
▁chond
▁undoubtedly
▁19-9
▁Ig
entral
etus
▁elevated
erals
▁AE
▁scintigraphy
▁measurable
ithin
monary
2-
bral
▁inhibit
▁morb
▁occurrence
▁retention
84
licular
hospital
▁IBD
▁Rout
gm
▁complemented
resses
▁pathology
▁inh
▁multifactorial
▁BP
▁propensity
▁hospitalized
onomic
1.
▁Asp
▁pituitary
▁manifestation
▁incidence
isture
▁TK
▁inserts
onor
ocular
▁pathogen
▁intragastric
▁readings
▁milieu
odal
▁followup
▁undes
▁ceased
▁Comparison
entanyl
graft
natal
▁avail
ycin
▁metast
▁iliac
▁immunomod
▁scl
▁ket
▁embryo
ophilic
▁aspiration
ressive
unar
ivoc
ults
▁normo
▁adolescent
▁elucidate
ostatin
onate
▁distinguishing
▁cigarettes
erable
▁ae
Ki
acted
▁urine
-9
ept
▁cyclosporine
▁Cyt
rotein
illus
▁unres
▁satur
▁50
▁exer
▁cocaine
adic
▁advancement
▁follicular
KA
perfusion
APC
▁displacement
▁heroin
erate
▁leu
▁FS
-67
controlled
Tn
razole
▁preterm
tected
▁ane
▁develops
▁conclusive
▁metabolism
▁minimally
▁thyroid
▁umb
▁verte
▁nonc
▁stenosis
▁indicators
urys
aryn
omial
uvant
cyst
retro
▁lesions
iferol
▁monit
AIDS
▁assurance
threatening
essive
▁foc
atrial
▁enrolled
▁septum
▁oss
67
▁External
▁renal
▁reac
▁injur
▁Inclusion
trast
▁moles
phe
▁mono
▁intra
▁tertiary
▁thromb
tif
TG
▁preservation
▁complication
▁Significant
onad
erated
acerb
▁biochemistry
DG
aemia
▁silic
▁phagocy
▁initiating
asone
ture
itus
▁CRP
▁Accordingly
romed
▁uremia
▁Hyp
-6
▁unresectable
ophil
udin
▁juvenile
▁vitro
▁airway
▁CABG
tation
ystolic
▁pigmented
▁atmospheric
▁reagents
▁surgically
lact
▁Adverse
▁phon
▁limb
▁hemorrh
▁inducer
▁restric
▁pylori
▁amyl
ergency
erop
.8%
▁concurrent
atonin
▁uncomplicated
opa
tum
▁laparoscopic
▁immature
▁screened
▁endoscopy
▁RB
▁pH
▁implic
asses
▁questionnaires
99
▁streptococcal
tinu
▁BMI
000
▁compart
▁prescribing
ewish
▁overdose
oplastic
▁repro
oxif
▁morphology
▁chloroquine
▁ile
▁BV
risk
▁melan
▁recor
▁epinephrine
itively
▁deterior
9,
▁definitive
▁periodontal
▁prel
implantation
▁specialty
lated
yro
▁PRP
▁atheros
odynamic
▁asthma
▁prostatectomy
stress
▁osteoporosis
ustained
▁algor
▁musculoskeletal
▁cervical
andard
▁unilateral
tec
aneously
lore
kely
opia
ropriate
%).
functional
▁alp
opausal
cardi
roph
▁ratios
▁transi
tebral
FH
▁predominantly
ostic
▁concentrations
▁ration
▁Percutaneous
oplast
▁episodic
ritish
▁connective
▁hepat
▁exacerbations
reness
▁OC
▁ambulatory
phth
▁PAN
▁apop
0%,
idis
▁staging
▁hemodynamic
▁compartments
▁utilization
81
qui
▁haemorrhage
▁evoked
▁Addition
▁sulf
▁pathological
duction
▁neph
sequent
▁TGF
▁directional
trexone
▁gad
▁transfusion
▁Chan
▁mortality
▁irradiated
olated
atectomy
uin
▁rash
▁2.5
▁VE
▁diffic
▁LS
gulation
▁microc
plantation
▁phagocytic
▁ischemia
▁quantitative
▁enucleation
embr
▁consequently
▁multicenter
▁prospectively
▁practitioners
▁undo
eak
▁recurrent
▁macrophage
tin
▁distinctly
▁schizophrenia
▁analyses
▁TAA
▁cue
▁deli
years
athy
▁GI
▁sclerosis
▁scans
itoneum
parative
▁cardiomyopathy
tical
fine
▁calcified
▁calcification
erb
oxidation
▁susceptibility
oplasm
▁transplantation
antial
▁linole
▁deformities
estis
umulative
▁glomerular
HM
▁lesion
oidal
▁physi
▁Ket
oglyc
▁athe
▁sten
oic
29
ternational
▁drainage
ithi
OA
-3
▁investigating
ertion
53
rectomy
ectomies
ministration
▁CSA
rane
tead
▁cann
vail
▁increas
gland
▁80
▁uter
▁4-
ocytes
osocial
▁nec
▁experim
▁Failure
▁medial
2/
valent
▁microvascular
▁NPC
sue
▁biopsy
▁identif
▁arterial
mL
▁randomized
itally
▁topographic
▁contex
ovascular
uted
contrast
xone
▁intrinsic
▁vancomycin
▁consol
yel
ometr
▁ALT
▁routinely
▁dietary
itone
▁adolescence
▁widening
▁prolonged
oag
▁microv
(5
▁Steady
▁impair
▁hepatocytes
▁arth
▁warr
▁abd
▁sedation
ulitis
▁CI
▁hypog
evaluated
.5
rele
8.
▁radiotherapy
▁Severe
urin
▁pathway
▁pathologic
iotic
▁quantit
urred
▁shorten
lysis
▁ruptured
▁requi
nai
diagnosed
▁2.
oscop
▁acidosis
aline
▁Analy
▁hazard
CBF
▁rehabilitation
orac
▁colonization
16
entary
▁tas
▁preferable
▁poisoning
▁confound
▁exercised
▁BD
▁PCT
▁cannulae
enhanced
ameters
▁apex
arer
ysm
▁hemis
versity
▁Thromb
urse
MH
iosis
▁hazards
▁ablation
▁DF
▁AGE
▁perceptions
▁adhe
osin
ventricular
alues
▁equivocal
▁dislocation
▁ultrasound
▁99
▁stellate
▁metastases
Ia
ocele
▁uncontrolled
▁effic
▁simultaneous
alsy
▁chori
▁heterogene
▁ESR
vival
▁tec
tel
▁clinics
▁tox
tact
▁indetermin
teric
▁amin
▁allergic
.8
rone
rals
▁instability
Pa
▁Paget
▁splenectomy
oscopy
▁recurrence
▁regar
▁preoperative
▁0
▁colloid
▁resis
angli
▁acyclovir
▁metabolic
sions
56
▁10-
▁sequentially
fir
▁7.
▁Concomitant
▁palliative
▁acute
▁OA
ygen
▁behavioural
▁demonstrates
▁stimuli
▁provid
▁80-
▁usefulness
oprotein
▁throm
otyp
▁subtype
49
▁ethanol
▁intervertebral
▁adherence
▁neoplasm
tant
heal
zation
▁multivariate
▁Systolic
▁intraoperative
olism
▁obesity
▁subf
▁advan
omedullary
44
rectal
▁gallstones
▁6
▁predicting
▁underlie
▁satis
▁ADH
uran
otropic
▁Regarding
▁pT
tions
tic
▁saturated
comitant
▁athle
▁reagent
▁fulf
▁bowel
formin
▁adequately
spective
▁restorative
kage
urrence
▁plaque
▁combin
▁hypothyroidism
▁Bec
ignific
▁anomalies
▁interacted
atine
▁amyloid
onc
ensory
▁numb
leu
▁hypertrophied
▁excre
vation
ibi
▁derange
▁Chronic
omiting
▁grouped
▁reliably
▁segmental
▁20
▁catheter
▁5-
itudinal
▁mec
▁Surgical
▁rheumatoid
▁linkages
iatric
▁15%
relevant
dose
omies
▁tracers
ocarcinoma
▁cumulative
▁contrib
▁exposures
▁abl
rents
venth
lys
illic
genital
8%
gments
▁PEG
▁neutrophil
▁recessive
operative
▁hypoxic
urgical
entan
▁facilit
ographically
▁chlor
7.
▁peptic
▁iatrogenic
ected
▁summ
▁endothelin
▁hernia
▁cholest
▁eosinophil
hei
▁unde
uscular
ococci
▁pneumon
.2%).
▁needles
▁epidemic
▁TBI
▁parame
ervative
valence
▁HSV
HN
▁investigations
othelial
▁cancellous
▁postoperative
▁bilateral
▁Hb
▁MV
35
▁PSA
cents
▁cues
▁bladder
ocyt
▁rectal
▁excretion
▁CK
oxia
▁imaging
▁graf
▁valve
occus
▁myoepithelial
ilic
ivary
▁minerals
▁predictive
rati
lapping
▁fibers
▁acceleration
▁preoperatively
▁UT
isqu
97
gesia
▁membrane
zard
▁sickness
usp
▁conceptual
▁femoral
▁margins
AO
pation
iably
▁esophageal
▁phenotype
▁ACL
igel
▁antegrade
▁lymph
▁adjustments
trol
▁Histologic
▁Throm
▁rotational
▁pharmac
▁overweight
either
umbar
▁glyc
▁Alcohol
▁79%
uality
▁warranted
vascular
▁smo
▁reas
▁aden
▁tet
utroph
▁cadaver
▁epileptic
▁adaptive
ece
48
rophy
atid
▁fatigue
▁polym
▁thyroidectomy
erine
▁eosin
25
▁headache
ameth
▁Dil
▁differentially
▁efficacy
▁unselected
bacco
▁pediatric
urally
ipid
gia
asic
▁resuscitation
▁infants
osts
▁Magnetic
▁spi
▁pyramidal
▁antic
▁toxicity
▁ovari
▁carbohyd
estions
▁cancers
▁Atropine
▁inheritance
▁50%
atural
▁cla
ineph
gression
hea
tive
▁glut
odies
▁inpatient
DH
▁Whereas
onit
estim
▁allevi
▁intensive
▁verteb
▁salivary
bly
▁unrelated
eared
▁crest
▁tymp
HF
yses
▁malign
▁Increas
▁diminished
▁transient
morph
▁hep
▁Patient
▁assis
▁disadvantages
▁discusses
▁mitral
▁rotated
cine
helial
cold
inemia
▁vegetable
▁variants
▁SCH
1,
▁proce
roin
▁births
Ts
▁labial
▁substantially
▁infusion
▁clinicians
▁Muc
▁empir
▁sexes
reported
trib
fron
vac
▁demonstrating
▁9
▁fatality
▁misleading
▁illustrates
▁responsiveness
▁individualized
▁100
facial
opramide
▁Swed
clim
▁highl
wk
itant
▁pyl
ilization
▁anatomy
severe
▁opi
▁PF
hep
▁cesarean
▁pate
owel
▁HCC
▁remission
▁platelet
orphism
graftment
▁sphincter
▁21
scop
acial
▁multic
▁coexistence
operatively
▁challen
2,
▁atresia
▁remo
tro
▁heavier
▁multim
atest
▁hemisphere
▁systematically
amet
atients
ections
ethyl
olones
▁psychiatric
rox
ucleation
genic
IIIa
▁longitudinal
▁DST
aryngeal
stem
▁31
▁supervision
ropine
PAP
relations
▁caregi
vely
Gi
▁rigidity
jun
▁HM
omatic
tig
▁serum
lix
▁discordant
▁14
▁TG
onography
▁TB
▁Effective
hesive
▁resear
▁anemia
▁necrosis
▁hyperg
▁MEP
BW
tage
▁Preoperative
▁divertic
odialysis
▁severity
▁simult
▁100%
▁comparative
FG
oprote
atheter
erican
▁hypothe
attern
▁PVR
▁NP
urate
versus
▁endpoints
▁GVHD
▁sequential
▁assays
▁benign
▁differentiation
▁discus
▁infarction
responder
▁intercostal
luc
▁conservatively
vertebral
▁ketamine
▁multiv
▁reproduction
▁sci
▁19
▁carcin
vating
▁endothelial
▁colorectal
▁stu
▁prognosis
erad
▁trophoblastic
▁peripheral
▁plantar
▁tolerated
▁bedside
▁cigaret
▁exogenous
ressing
6%
saturated
DNA
acet
▁pall
▁IHD
▁TA
▁speculated
▁aerobic
viron
▁15
ervical
▁workload
▁vaccin
tyl
▁chemo
vated
65
▁ASA
▁depr
Hb
▁heterogeneity
4).
▁pressures
▁abnormalities
▁operative
▁2-
▁morphologic
▁reflux
omal
▁carotid
▁cortisol
odynam
▁drin
aluation
▁SG
▁cava
▁morbidity
▁aneurysm
lectomy
▁deterioration
xiety
▁Dopamine
▁eyel
Cy
▁coex
duce
▁resected
onium
▁abnormality
▁dissection
2%
▁12
12
▁intrap
clo
▁lar
Ly
▁myocardial
▁Increased
Ca
▁TC
▁hemodialysis
▁chloride
▁coronary
▁placenta
ACS
▁feasibility
▁theore
lyc
▁palp
▁pleomorphic
fal
erations
▁vasomotor
mend
▁microcirc
▁plur
▁gluc
orrh
▁periodon
▁genic
treatment
▁sacr
▁correlate
▁hypoglycaemia
▁Tran
IU
ergy
▁desirable
▁lipoprotein
4.
gmental
▁MRI
▁palpation
▁Comparisons
noise
▁Mucosal
mia
▁swelling
▁intramuscular
stro
▁CMV
tering
▁NB
▁radiological
cious
dominal
▁buc
▁cardi
▁lax
▁correlations
ociation
▁tric
▁bronch
▁APD
lob
▁fri
agic
▁hygiene
▁estimating
▁AMI
▁amputation
▁psychotic
Fs
otomies
5%
▁aerob
▁ultrason
▁mutations
▁adhere
oagulation
▁etiology
▁locus
▁immig
▁trophob
▁Intravenous
▁regimen
erum
▁5.
▁202
▁retrospective
▁inappropriate
▁anticoagulation
▁evid
9%
▁uncommon
tained
▁concom
rins
▁visually
▁deficiency
▁percutaneous
▁polymorphism
75
cysteine
roma
▁selective
▁postnatal
▁neurological
▁unin
toc
▁neonatal
▁saliv
▁syndromes
fat
monstr
▁inversely
dia
▁intrarenal
▁grading
ilized
▁vein
otent
▁influenz
▁invasive
ilateral
▁masked
▁lumb
▁arter
oplasmic
intestinal
▁inflamm
tate
▁vitamin
▁RM
▁ascertain
▁deficiencies
tein
▁enteral
▁Considering
▁infiltration
▁RP
▁buccal
▁validity
▁progression
oride
▁suppressing
▁tubes
▁haemorrh
▁manipulations
ogenous
thre
▁sequel
▁OSA
NB
▁ventilation
utaneous
▁Doppler
ritis
atab
opi
▁LC
▁75
quit
▁disparity
▁reductions
▁CPAP
▁undertaken
▁tympanic
▁distal
▁spati
ignant
▁depressive
▁1.6%
▁reper
▁prednisone
ventive
romes
▁disparate
▁lis
▁inadequate
elvic
▁Clinical
▁doses
▁oils
ococcus
alp
▁RAR
▁reproduc
▁bir
▁discomfort
▁emphasizes
▁manu
▁SLE
▁ocul
▁inapp
▁limbs
▁MBC
▁undergone
tens
▁contralateral
▁atrophy
erative
▁diluted
▁vena
cus
15
▁diagnose
pT
▁implant
▁discern
lead
taken
▁deprivation
CMV
▁detectable
▁implantable
ameter
trop
jected
▁adenocarcinoma
Tc
▁VL
▁curative
▁stillbirth
▁cephal
▁discontinued
▁RS
▁mell
▁intermittent
▁coincidence
▁reduc
▁moderately
hemia
LU
▁acad
entical
▁zinc
▁spinal
▁chloro
▁modestly
▁cholecystectomy
▁vulnerability
immunization
▁cerebral
▁ultr
eptin
sess
iasis
▁nig
▁hygi
▁Chemical
▁cohort
trimental
onary
▁soybean
▁glycoprotein
1)
▁cystic
umably
oleic
alc
icin
▁Alternatively
etal
echanical
tial
evaluation
▁carc
LF
ediatric
▁immun
▁isch
urea
luent
▁HG
▁cardiovascular
regn
▁correcting
ourable
13
▁pulmonary
ficial
▁LVH
▁85
▁newborns
▁FD
▁substances
▁Kupffer
▁nasal
mide
continu
▁fentanyl
▁peri
▁Improvement
vents
▁FV
eces
▁atropine
▁pyram
▁unexplained
▁adjustment
▁necro
imination
▁intram
▁hemodynamics
ollicular
▁immunode
▁interv
▁perfor
istal
▁implicated
sities
.7
geal
hering
▁tidal
▁physici
abies
omod
▁GBS
atitis
ometrial
immun
▁labeling
▁confined
▁57
▁proliferation
ositive
▁respondents
▁anticoag
▁accumulation
▁cardiac
▁coeliac
farct
erator
oru
ullary
70
▁secretion
▁hospitalization
anding
erin
ortic
▁onset
lowering
ectomy
▁counteract
gative
ocl
opam
gth
▁illustrate
oplas
esting
helin
▁thromboemb
piration
ococcal
responding
lesion
▁2,
TNF
▁(54
▁3
▁Prospective
▁lithotripsy
▁inherent
▁HC
▁trac
erving
ivariate
▁resour
▁melanoma
▁migraine
▁interventions
onset
▁discriminative
reast
▁clinician
▁diagnoses
▁PV
▁ganglion
▁hCG
▁GE
▁histopathology
▁201
▁ultim
WB
▁progest
vity
▁hepar
▁geriatric
▁therapeutic
▁blin
▁attrib
▁atten
▁inhibitors
edle
olenic
din
69
▁cholestasis
▁reflecting
▁familial
dial
30
▁32
▁hypox
▁diagnos
▁malignant
▁bac
ustif
31
▁perfusion
amn
▁predictors
▁gradients
▁endoscop
acting
▁1.6
▁Patients
TB
▁sampl
▁concomitant
essential
adily
eclampsia
▁polyethylene
▁elevation
Ka
ineal
-1,
▁inhibin
▁aorta
▁IIb
▁circumferential
▁adhering
hig
▁disruption
▁memb
▁synov
▁micron
▁extre
▁pulmon
idne
▁coexist
rogenic
▁gyn
▁resonance
pendent
enol
▁intake
▁audi
▁Pretreatment
aventricular
stim
.2
▁preliminary
▁enhancing
▁ischem
▁Compared
oratory
▁follicle
erper
▁aureus
▁irritation
▁spontaneous
▁spikes
dimer
omical
▁atmosp
▁complications
oxid
▁ageing
▁sedentary
earance
79
▁monitored
▁undetectable
7%
2).
hemical
▁tumours
▁prol
▁synchronous
