▁immune
His
▁criterion
ologically
▁peroxidase
lives
▁umbilical
▁erythrocytes
▁dimethyl
odgkin
▁Continu
▁PSA
ogenic
LV
oblasts
▁sphing
planch
▁immunofluores
ophag
▁185
▁excitatory
▁labelling
▁washed
acin
tinent
▁1).
ulum
▁aneurys
uppression
▁nonpregnant
heres
▁rostr
▁mediators
▁infertility
▁amino
▁deletions
▁Lp
▁murmur
lobulin
▁0.02)
brile
thre
▁spleen
▁microelectro
▁Biochemistry
▁triphosphate
▁objec
▁perikarya
ults
▁incision
▁diaphragm
▁0.95
▁vaccination
▁ison
▁6%
▁prospectively
▁Extensive
olization
▁alanine
ctive
▁alteration
rogenic
▁slic
sorption
▁surgery
▁cytomegalovirus
▁83
▁98%
▁ligation
▁consistently
april
▁aorta
▁prostagland
▁intramuscular
▁46
▁mammography
inum
▁44
ighted
uation
▁dissection
▁labeling
▁spectra
▁205
tilb
▁corticosteroids
▁400
▁ductal
▁144
▁sucralfate
mokers
▁8%
tact
▁inguinal
▁bupivacaine
▁10%
moderate
carbox
trin
▁fluoride
▁5'-
ostomy
▁inhibitors
▁adduct
▁intravascular
▁albicans
▁intraepithelial
▁adrenergic
▁negl
▁molecules
asive
▁presumed
▁lapa
kilobase
▁guanine
onit
▁subclinical
onium
▁cuff
▁clinical
conduc
▁platelet
▁TS
▁4.5
▁subun
.1%
alact
▁basolateral
▁phospholipids
▁cyclooxygenase
immun
▁imipramine
bromo
▁noradrenaline
▁administered
▁4.0
▁intoxication
▁juice
ocomial
orin
▁cutoff
▁glomer
eryth
upus
▁Mortality
▁automated
▁apparatus
▁immunore
▁recurrence
▁calories
veness
iesis
▁myocardial
NK
▁fibrosis
▁transitions
inducible
▁diurnal
either
▁protoc
araldehyde
▁13-
▁Phase
▁transmitter
▁Neuro
▁bradykinin
▁7.3
orporeal
▁0.28
▁experim
tructural
▁utilized
ADP
gradely
▁contributes
▁polymerase
▁Tumor
iloride
▁abolished
chers
acetyl
Cu
galactosidase
estradiol
2%)
▁3.0
▁atherosclerosis
oxal
▁caries
▁preoptic
▁conjugates
▁rigorous
assays
▁recr
▁differentiating
▁radiographic
▁atherosclerotic
▁sputum
fraction
▁recombin
▁larval
▁seroton
romycin
▁anesthesia
▁harb
▁punct
tic
jac
▁PH
▁pyram
▁diuretic
iazide
reness
69
▁NI
▁socioeconomic
▁Indi
▁activated
▁velocities
tance
▁crystal
▁faecal
jug
-22
▁200-
.6,
▁receptive
tus
plantation
aced
ynaptic
▁4.4
▁lumb
▁Experiment
▁hyperactivity
arcoma
▁1.9
-16
▁familial
▁chemically
▁forebrain
obases
▁glut
trone
▁validity
▁EGF
▁AI
▁0.09
▁attenuated
▁Few
▁500
ygotes
▁plexus
▁correlations
▁0.001).
▁lamina
eradish
▁achievement
▁myel
▁inhibit
iparous
▁mA
▁Grade
timulation
tiazem
associated
▁evoked
▁protective
▁direc
▁aerosol
▁thal
▁covalently
▁resting
ncies
▁monitored
▁monthly
tRNA
▁41
▁tendon
ecretory
▁tRNA
▁Histological
▁86%
▁SDS
▁chromatin
▁leuk
▁RV
▁uteri
injected
▁isomers
iph
▁Failure
▁prevention
▁nodal
oglobulin
▁Lact
tics
▁genotypes
▁unres
orbol
▁stoichi
▁benzodiazepines
▁Recent
▁hormonal
onography
▁follic
▁resemb
▁proteolytic
▁phospholipid
29
▁embry
ymptomatic
▁blot
thyroid
cytochrome
▁lysis
▁stimulates
▁denervation
EA
▁molecular
▁parame
okinetic
▁porcine
▁initiate
.4%
tran
Cys
.3
▁divalent
▁transection
▁freezing
▁subunit
▁IIb
▁vascular
▁Oral
▁5,
▁Vitamin
roscopic
icide
adiol
▁(37
piper
▁refractory
▁(10(
/20
▁leukaemia
▁multis
▁diltiazem
▁arti
▁swit
▁7%
▁Subjec
▁Elevated
sies
▁oxide
titial
partic
ensity
▁ane
▁165
menopausal
stranded
▁kD
▁vulgaris
67
▁adhesive
▁17,
▁0.20
thrombotic
▁anticonvulsant
hap
▁ovariectomized
▁reflecting
arate
▁46%
▁filament
▁epitopes
▁globulin
▁syncy
▁REM
oblast
ses
▁recombination
▁78
oxid
.4
▁177
▁0.14
adm
edema
▁elongation
▁modality
▁retardation
folate
▁Americ
▁(3)
▁protons
▁genetically
▁ruptured
odermal
▁ulcerative
▁precursor
▁solub
trip
tive
▁dimers
iable
▁Ultras
phosphorylated
ologous
▁potentials
▁urine
▁morphologically
▁0.78
▁glycoproteins
▁Risk
▁segmental
▁Electro
▁RU
utaneous
▁1986.
iciently
▁94%
▁encomp
TPA
▁homozygous
▁vasoconstrictor
▁schizophren
▁cytokine
▁Peak
▁TB
osynthe
▁immunoassay
ocyt
atous
-2.
▁immunocyt
▁hemo
▁Tes
▁155
▁Phen
48
ophageal
▁prosthesis
▁neuropeptide
▁32
▁regulating
▁penicillin
corrected
urys
fractions
tivated
▁42%
▁Levels
uble
▁hypophys
▁glycerol
tence
▁vaccin
▁homologous
izine
articular
contrast
▁Different
▁cessation
thanol
ugular
▁abstinence
▁thromboembolic
▁vagal
▁(62
▁dilation
▁validated
▁affinities
▁antibiotic
▁immobilized
▁carbonate
ulent
obl
▁surveyed
▁pmol
adap
▁hospitals
-198
▁LDL
▁myc
▁inhalation
▁Evidence
▁angioplasty
helium
▁syndromes
▁ect
▁benz
onuclear
▁neurogenic
▁spectrophot
88
virus
osterone
teine
enteric
anserin
▁spp
▁0.9
▁transmural
)2
▁enhancing
Ds
▁outpatients
▁-2
▁monol
▁methodological
▁fibres
PAP
,000
▁permanently
onyl
▁diversity
▁paralleled
▁Kine
otide
turally
▁foci
retion
▁wash
▁cholinesterase
▁perin
amous
▁Pulmonary
opoietic
▁oestrogen
▁(82
lofen
linking
▁complication
▁-7
▁38
▁peroxis
▁acet
▁granulocyte
▁10(-8)
▁pentobarbital
▁hygiene
▁enkephalin
oxic
▁migraine
yro
▁ascer
produc
inyl
▁(95
▁HCC
▁prophylaxis
▁14%
▁transcripts
patients
▁mesen
tization
▁distor
imolar
▁Approximately
ollagen
▁autoanti
8.
▁peaks
▁analogues
▁30,
▁sphinc
▁amiodarone
oratory
omere
▁1.3
▁chromosome
psych
▁centers
75
-9
▁placent
ocytes
▁survived
myrist
wes
▁relevance
▁distinctive
▁beef
0.0
▁supportive
▁(38
▁pene
▁Organization
▁ratios
▁rash
▁olive
LH
ensitivity
▁assis
▁-10
▁overt
▁experi
▁neurologic
significant
▁abl
▁depression
aemia
infected
▁portions
▁effector
▁monos
ipramine
▁excre
▁phagocytosis
lycemia
3+
iper
▁hospitalized
▁4.3
▁activates
▁fluxes
embran
omatous
▁mediates
▁prosthe
▁compromise
▁activators
▁midline
ortic
▁modif
Trp
▁albic
▁cytokines
▁stimulatory
▁allogra
▁discrimination
▁Adverse
0%,
▁136
▁macrophages
▁platelets
▁heme
▁molec
▁ultim
thrombin
phrag
▁proteinase
▁cyclic
HIV
▁166
▁babo
▁strom
▁limb
▁99%
8),
▁rupture
▁mobility
▁volunteers
.2%)
▁uncomplicated
▁carcin
▁microtubules
rostenedione
ammonium
▁perioperative
▁Sout
ilin
▁inactive
▁shar
ressive
-6,
▁discontinuation
mol
▁endothelial
▁psoriatic
▁antidepressants
▁28
pyruvate
23
erating
▁activate
▁histology
sia
▁diets
▁contribut
▁innerv
nisolone
▁preservation
▁Removal
▁3000
eight
▁gallbladder
▁flexion
▁pretreated
▁percentages
▁arteries
mide
arum
▁incubations
▁postoperatively
PMN
66
▁0.6
▁90
oidal
▁cann
alian
chicine
PGF
▁resin
▁inhib
timal
▁Immunohist
▁TG
omerular
▁mood
▁duodenal
▁phosphorylation
▁(1.4
▁catalyzes
▁(76
▁cytoplasmic
▁thalamus
amine
▁0.11
▁infra
uppres
▁recognizes
ingle
▁PW
▁hep
▁caution
oxy
▁surgeons
athiop
▁actively
▁ulc
▁myof
glutamyl
▁Leydig
▁histidine
▁anis
▁oxy
aldehyde
entanil
▁abdominal
▁basal
▁pharmacy
ionate
▁emphasized
▁bundles
(2+
▁abruptly
▁inflammatory
▁Bec
portant
65
▁fibrin
▁EG
▁ovary
▁competent
rection
ocortic
▁tumor
▁characterized
▁Optimal
▁catar
▁diethyl
▁excitability
▁CAD
aric
▁mimicked
▁Activation
▁neuro
▁surgically
▁vasoactive
acet
▁2),
omegal
olitis
▁releasing
▁progenitor
▁incom
▁emotional
▁acidosis
▁vertebrate
▁survival
▁gallst
▁distal
▁prophyl
▁COPD
▁ate
▁stain
▁Experimental
▁incremental
▁controversial
▁birthweight
▁irradi
▁anxiety
lyb
▁lymphokine
▁sonic
▁lasted
olipoprotein
▁felodipine
lipid
geneic
▁(10
sor
▁pyrophosphate
▁enrolled
▁0.4%
▁Cyt
▁Inte
▁interacting
▁protec
Rs
▁monocyte
▁ELISA
▁45
▁diffic
ilical
urgical
▁eliminating
▁immobil
hea
▁sigma
▁unexplained
▁nonc
▁toxins
teroids
▁isch
▁exhaustion
omal
▁57
▁clinically
iotics
oxif
▁discharges
rolateral
▁perfusate
oconazole
years
ystag
responsiveness
▁EPR
asone
▁decreas
dihydro
▁protease
▁electromy
▁advan
atation
▁astrocy
▁unstimulated
▁contex
nthe
▁decisions
▁thymocytes
▁Michaelis
puts
▁TNF
▁compartments
keleton
▁Immun
▁nude
▁10.8
▁exceeded
aund
▁(34
drug
▁taurine
▁91
▁suction
▁satur
▁10(-4)
▁alcoholic
rotic
tophan
▁clinicians
▁35-
respon
▁7.2
▁sial
▁pHi
within
moking
▁adverse
olab
ubation
▁controversy
▁proteolysis
▁unlabeled
▁cartil
glycerol
▁descriptions
▁sedimentation
rogen
▁bilateral
▁epithelia
abilized
32
▁transported
▁distress
▁promising
▁28%
ucas
▁reversible
▁mixtures
macropha
RV
roscopy
▁pharmacologic
lational
.7
▁proximal
vated
▁hig
obut
▁cohorts
▁outpatient
▁hypothesized
▁Histologic
seud
othane
▁crystall
▁facilitate
▁29
▁280
lated
arginine
▁cys
electron
▁aor
entia
▁severely
▁synthesized
▁septic
▁genomes
▁WHO
amuscular
ulates
▁Significant
fibr
▁ethanol
▁tetr
▁10(-9)
▁pell
▁tox
HDL
▁reac
ffinities
▁secretory
zotocin
anadate
PGE
▁intrathe
▁normalized
▁hematoma
28
Gs
▁hypertensive
▁triglycer
▁providers
oplastic
erally
▁questioned
▁hazards
▁HF
fused
pinephrine
Rb
estern
▁capability
▁hybridized
▁promotes
ionine
▁subtilis
oxia
▁vaginal
▁IFN
▁Salmonella
▁antiserum
▁17%
▁monkey
▁thyro
▁shunt
▁saliva
facial
systolic
▁glucagon
▁toxicity
▁spermat
▁ultrastructure
thma
▁biphasic
▁isolates
▁60%
▁gyr
▁rearrangement
▁11,
▁propionate
Ala
oxidation
immunoreactive
arrhy
ortal
▁monomer
adecan
▁weaning
▁babies
aterals
▁hippocamp
▁lymphatic
▁Eff
▁prognostic
▁Pharmac
tidine
▁depletion
▁mann
▁frontal
inone
▁23%
▁(0.5
-28
sities
▁fascic
idone
opropyl
phorbol
LISA
.5.
▁termination
dered
5'-
▁fractionated
▁pigment
▁152
▁lesions
▁isoprenaline
▁(84
▁keratinocytes
▁Rates
▁salts
▁desaturation
▁positioning
▁proline
▁analysed
iciencies
▁graft
heric
▁edema
anine
▁rheumatoid
▁methadone
▁180
60
▁92
▁tobacco
▁institu
0%)
bic
paired
▁belie
▁interventions
▁GABAA
▁awareness
▁demonstrates
▁additionally
▁wound
▁elicit
otid
▁Overall
arynx
GABA
▁lowering
▁sensory
ergency
pended
▁60,
▁Reduc
uspid
schem
▁pools
▁traumatic
▁ulcer
ration
▁hemisp
▁docum
▁infused
▁controlling
3;
▁30
▁piglets
▁deviations
▁cancers
▁microscop
2-
acute
▁antim
▁promp
▁cardiopulmonary
enin
▁plaques
tition
atest
-7
▁eti
▁gonadotrophin
▁negligible
onset
▁succes
VT
bac
▁reticulum
▁hypogonad
▁(80
▁ureth
loro
orrh
▁uterine
inic
▁inadequ
▁immunocomp
▁hemat
esic
▁contralateral
▁guanosine
keratin
▁cation
phosphamide
▁frog
91
ocamp
45
▁enalapril
amic
oxine
▁silic
▁bowel
▁Relative
▁suspicion
▁intron
▁transfection
▁cros
▁mamm
125
astom
▁infrequ
Kd
▁60
▁parietal
▁virulence
▁organs
▁multivariate
▁antiarrhythmic
unctions
tetra
▁pallid
otomy
▁aspirin
idespread
▁analys
siologic
▁impair
▁disruption
▁densities
▁stroma
▁epiderm
▁14.
▁PAI
▁undergoing
rangements
▁fibronectin
▁6,
iagn
tia
effec
▁alkyl
▁2.7
▁endometri
▁ejection
amide
adine
▁lymphocytes
▁placenta
▁euk
venous
▁ascorb
ycline
ivation
▁chewing
97
▁electr
▁myeloid
▁cryp
▁cere
▁Higher
▁Retrospective
▁autonomic
iaz
olerance
glycerin
▁22
▁linkage
mitters
otine
yto
89
▁thickening
oreg
ubiqu
resid
▁lep
▁CK
▁classified
▁viruses
glucosamine
▁tachy
lood
▁supplements
▁drinking
partate
Ba
▁influenz
▁0.38
▁1.25
▁parasites
▁yolk
inemia
daily
▁neurob
ofluores
▁hypothyroidism
rophob
▁catab
mental
▁41%
▁uncoup
▁hybridization
oreactive
patient
▁antec
▁enrichment
▁asbestos
▁diagnosed
oxane
GMP
▁azathioprine
▁9,
▁interstitial
▁ibuprofen
administration
0%).
terone
▁substitu
trients
otonic
▁antipsych
osin
▁mutations
▁odds
▁correlates
▁leuc
▁1:1
▁EcoRI
immuno
▁concer
▁enteric
invasive
grees
▁bacteria
▁soybean
▁96%
anesthetized
▁20,
▁aneurysm
▁intractable
ocin
▁favorable
▁hydrox
istically
▁exclusion
▁inactivation
▁11.5
▁excit
▁isot
▁moiety
▁particulate
▁129
▁Phe
▁Statistical
minal
▁ascites
struc
▁homogene
▁91%
arent
▁confound
▁epidemiologic
▁Aden
▁covari
▁feeding
▁plex
aminophen
▁secretions
▁5.5
▁analyzing
▁regulation
▁reagent
▁3',5'-
-60
▁9.2
▁iod
rendipine
▁anemia
▁admission
▁noradrenergic
mia
▁paradig
▁digesti
ostic
▁achie
▁mercury
▁evolutionary
aline
▁resuscitation
▁compares
phadex
▁6.1
embry
rophen
▁childhood
yclo
▁allograft
oprolol
▁ET
▁dilatation
BH
▁rehabil
▁nurse
▁Purified
tryptamine
▁antiser
lycer
aternal
▁ascorbic
▁cruc
▁dopaminergic
▁dexamethasone
1:
umulative
▁laparoscopy
▁hyperthyroid
▁descrip
▁indirectly
▁61%
▁PDE
▁cholinergic
▁expenditure
▁HB
ATPase
▁amygdala
▁resemble
ariate
%),
▁hemorrhage
omorphine
64
▁mediast
▁CIN
▁4.9
▁scle
▁acids
▁(1
-2
pir
▁absorption
anide
▁gradual
ntolamine
▁1.1
▁TF
▁Myc
oventricular
▁Gly
▁antidepressant
vul
▁underst
umetanide
▁reacted
tead
▁mild
▁colitis
onin
▁inward
▁conclu
guan
▁fulfilled
acholine
electric
▁hepar
▁expense
▁Plas
▁0.36
▁titres
especially
▁androgens
oste
renal
acrylamide
▁BP
▁immunohist
▁encoun
▁2.6
▁bloc
ocytosis
trib
▁enrol
▁reconstituted
▁puber
rosis
urones
▁cirrh
SBP
▁allogeneic
▁3-4
▁autoradiography
▁lumbar
placement
▁nicotine
▁1/2
▁examined
▁androgen
▁contractions
inated
▁quies
▁crossover
▁0.05
▁quantitative
ovine
▁calves
dle
abec
▁pouch
▁HDL
IFN
▁differentiate
▁phy
▁mortality
orphine
measured
▁membrane
olipids
emide
▁ionized
tually
▁motone
▁(28
▁platinum
itic
30
▁carboxy
1,
plast
▁haemorrh
triglycerid
1).
▁dyspnea
▁92%
▁implantation
▁transduction
▁perception
uclear
immune
ocyte
▁Meth
▁0.00
8-
clerosis
▁congenital
zymes
▁quantified
hest
▁cG
▁homology
▁simian
▁(250
▁cartilage
▁parity
▁(198
▁Eco
topril
▁75%
▁disclosed
-10
abies
▁concomitant
▁Transient
▁newborn
eak
▁uric
▁15,
olig
▁enzym
epi
apeptide
thromb
▁2.8
▁catalyzed
▁articular
▁raises
▁lymphoma
▁accessibility
▁numb
-50%
▁ODC
amphenicol
▁lactation
etine
▁135
▁(1.2
▁ribosomes
▁36
▁24,
▁167
▁measurable
▁affecting
▁VT
▁specialized
▁cohort
ontal
▁adjustment
ministration
▁unresponsive
irds
▁cholecystokinin
▁Surgical
▁neurite
▁gonadotropin
▁VA
▁ultra
▁lymphocytic
apine
▁restric
icine
0,000
▁RBC
▁staging
trover
ompan
ositol
▁clinician
▁corpus
▁pathologic
tiveness
▁potentiated
▁analogous
▁depressed
ithm
▁kine
▁thromboembolism
▁arrhy
▁monoclonal
akary
conversion
orbent
▁anesthe
ethylene
▁behaviors
yrid
▁analyses
▁21,
▁similarities
▁170
▁varies
FSH
▁initiation
▁hypertrophic
MDA
rine
tential
omical
examin
▁receptor
olesterol
▁decreasing
▁morphological
▁dehydrogenase
▁shifted
▁collagenase
▁comprising
▁162
DG
arterial
subunit
▁clus
▁discriminate
▁poisoning
▁physiologically
▁25-
▁sero
▁8.2
▁GSH
▁Urinary
▁contras
▁emboli
▁79
▁0,
atinine
▁hypertrophy
▁knees
▁NMR
▁impaired
▁rhy
▁LM
▁progestin
ospitals
▁20%.
sively
plication
▁organelles
▁(400
▁seropositive
▁69%
▁chan
▁complementary
ipril
PAF
opathological
orectal
▁48
-1.
▁Sepharose
▁melanomas
▁superoxide
imetry
hydroxyp
▁163
▁immunostaining
▁hypog
▁methylation
▁pancreatitis
isolated
▁KD
glut
▁predictor
0)
▁200,
▁conges
▁2,
ranolol
matched
▁identi
hexidine
▁56%
eptic
▁AMP
▁synaptic
▁spectrometry
▁enrich
ocardial
erican
▁quenching
▁supernat
▁ranged
▁distric
ASA
ecal
ventil
▁dental
admill
stained
▁(31
▁7.7
21
▁1.7
▁melan
atell
▁6.8
idium
tious
▁donor
▁8.6
▁8)
▁modulating
3).
▁PBL
velength
▁embolism
PKC
▁ole
▁requi
translated
▁mitogenic
▁adjuvant
22
▁incorporation
▁elu
▁mononucle
▁infrequently
▁tas
trogen
▁168
▁hemodynamics
sorb
fos
gestin
▁monotherapy
▁spine
▁prognosis
promoting
▁ventricle
ocortical
▁actin
▁ANP
opa
▁transfected
aryng
▁manipulation
eptin
▁1-2
ilized
▁healing
▁hyperch
▁negatively
▁6.6
▁progression
oA
▁obstruction
uminal
▁10(
armac
-24
▁possi
thymidine
▁stabilized
▁trabec
▁antibody
▁Carb
▁thromboemb
▁encompassing
▁Evaluation
▁obstetric
erative
fts
chid
▁substitutions
▁reconstitution
ydig
▁supra
▁tendons
adecanoyl
63
onephritis
▁21
anoid
▁secretin
antigens
▁autopsy
▁PCR
▁eligible
tryp
ographs
▁27
▁titrated
▁glycemic
▁2.4
apse
▁TC
▁inoc
▁crucial
▁manifestation
▁pector
▁dyst
▁HS
isite
▁Eighteen
61
organic
.8%
EAE
▁acinar
▁90%
▁18
erence
▁ward
lactam
▁gon
ignant
orh
▁cytolytic
▁71%
▁attitudes
GD
erant
▁ile
▁invasive
▁antigen
▁constructs
HF
rehen
osts
▁172
▁124
▁sham
▁neurom
poor
▁(15
.10
▁10.0
▁subfractions
▁gyn
▁deleterious
physe
▁Epstein
iary
▁cardiople
tening
▁intraven
▁(47
▁substance
▁extraction
▁plasmids
mediately
▁employing
▁nervous
itant
▁glial
▁duplic
gative
▁0.15
▁myocardi
▁metall
▁cis
-8,
▁nonf
▁Pneum
▁outcomes
▁injections
toph
▁1000
▁percentile
entif
▁electrolytes
▁supernatants
▁recipient
▁inhibits
▁astrocytes
ventional
▁Doppler
▁paradoxical
▁Sephadex
▁heterologous
esity
▁proteinuria
▁sugars
▁arterioles
▁auditory
62
orough
▁106
▁pharmacokine
▁fluoro
▁cortex
▁intakes
▁chl
▁PF
▁2)
derly
▁cris
macrophage
▁10(4)
▁artic
restric
mature
-20
▁99
▁spreading
0.7
▁placental
▁upright
▁uterus
▁tau
4).
▁sugges
cg
albumin
▁catalytic
▁palmit
pran
▁AChE
▁150
amines
▁adults
▁tes
▁cysts
▁thrombocyt
gene
▁precipitation
parathyroidism
ulses
▁0.05,
opulation
▁lamin
▁submuc
▁cathe
▁eicos
2+]
▁71
▁forearm
cein
▁Crohn
▁mammals
obacterium
enzymes
ilep
▁tibial
▁streptozotocin
globulin
accharides
▁Engl
▁supplement
▁suspic
4/
▁6
-90
▁spectroscopy
urane
▁aeti
▁treadmill
spective
▁chromatography
6)
▁fluor
▁saturable
urin
incubation
▁eliminated
ystic
roprusside
▁androstenedione
▁85%
dibular
▁autoantibodies
▁postnatal
ociated
▁alveolar
-5
▁brainstem
▁osmolality
chlorothiazide
▁interfere
▁phosphatase
▁glucocorticoids
atonin
▁dehydration
▁ultrastruc
▁Fc
▁peroxidation
positive
▁Groups
▁Therapy
ocompatibility
adication
▁tymp
▁promoting
oscop
▁transc
tency
oblastic
▁infarc
▁Cys
▁TA
▁membran
terologous
▁grafting
0.2
▁clon
PCR
▁deform
▁10(-6)
▁electroly
▁enhancement
▁endemic
alasin
coh
▁resected
▁chemot
abin
oconstric
▁spikes
tial
▁BT
▁solitary
hion
uated
▁degeneration
▁suppres
ysm
/1
▁chicks
▁prol
▁transverse
▁myot
▁HP
▁Afric
derived
uronic
iprofloxacin
oflurane
▁phe
Mu
9.
▁stained
▁questionnaire
▁cloning
▁transluminal
▁detrimental
vive
▁(9
elves
▁PGF
▁adherent
▁Measurements
ietic
▁fentanyl
▁phorbol
▁diameters
▁acr
▁gum
lected
mg
▁initiating
▁suicide
regulation
toxic
▁modulate
rosal
▁sensitivity
▁strongest
▁relating
brain
1-2
/10(
degree
▁seas
▁risks
▁buspirone
▁induces
▁7.0
polyacrylamide
▁frozen
▁Lym
▁bacter
▁35
▁glycol
▁pediatric
▁Maximal
▁endarterectomy
▁RF
▁tubular
▁comprehen
Daw
▁8,
▁immunogenicity
▁decarbox
▁crosso
800
▁aortic
▁demographic
-200
▁cardi
ferrin
▁dextrose
▁borderline
▁reservoir
enicillin
opolysaccharide
▁strand
▁0.26
onegative
▁pancreas
▁0%
IAA
▁RAS
plas
▁marginally
▁difficul
▁haemoglobin
▁lactic
9%
▁0.19
▁surveys
▁veins
ympathetic
tris
eration
▁uncom
vix
▁surfact
00
ochle
▁40,
▁(0.3
▁germinal
▁nitroglycerin
▁propranolol
smokers
▁hypothe
amycin
8)
tempor
▁quantif
▁vitro
▁dB
98
▁deliveries
▁heifers
arity
▁Examination
plications
▁encour
▁menopause
loon
▁pig
▁8.
rocy
▁nal
▁neuroleptic
100
vertebral
▁oste
opres
▁dissociation
▁Rats
▁consensus
▁tear
▁respondents
tations
yzed
▁anat
▁APC
-10)
▁conformations
usate
▁SMC
▁BMD
iant
▁digestion
oblas
▁clinics
▁accelerated
osan
▁0.03
acental
irectional
▁topoisomerase
▁laparotomy
▁malabsorption
▁passive
▁dehyd
▁CM
▁hematuria
▁selec
▁stepwise
5,000
▁7.6
▁chlor
-7)
▁glutamine
▁lympho
adrenoceptor
▁(2),
2;
▁haem
fusion
▁62
▁chromat
▁Flu
▁SEM
▁26
▁Tiss
lasts
ipital
▁PD
▁fatty
▁radiol
▁primers
atrial
.1%)
▁intox
▁retention
xone
▁Escherichia
▁replication
surface
▁ana
idate
feeding
▁isoproterenol
▁corresponded
▁examines
▁retinopathy
▁retard
▁isolation
▁optic
▁responders
0.4
▁phenyl
Dawley
cells
▁intim
prandial
▁NaCl
▁cortisol
▁prostaglandins
▁neurones
▁hyperthyroidism
unts
▁reper
▁excised
rological
▁MLC
▁neutrophil
ilateral
2+-
▁unstable
▁encephalopathy
▁DP
▁muc
▁voluntary
▁displ
▁chickens
▁1988,
▁polycystic
▁oligonucleotide
16
▁leukocytes
▁genetic
▁locomotor
ophilic
▁enlargement
3),
▁vasoconstric
-26
▁augmentation
▁jugular
▁conducting
▁dichro
transformed
unately
▁ery
▁libitum
▁hemisphere
▁serologically
▁physicians
▁reflux
▁anaesthe
▁assayed
▁genome
▁thi
MG
ziness
▁16
▁modeled
▁suggestive
▁confirming
▁dosing
▁0.50
▁unusually
otone
▁vitamins
▁isomer
polar
ancomycin
▁inters
▁theophylline
▁apnea
4-
traum
▁gains
ranged
▁retinol
▁posttreatment
kage
itrate
▁Combin
▁lact
▁3.4
▁glycosylated
9).
tensity
▁tol
▁respir
yronine
omotion
▁.1
▁oestradiol
▁postural
essive
ikary
▁Consid
▁microspheres
▁disorders
epithelial
odopa
opeptidase
▁epithel
▁modalities
▁clot
▁Impro
▁TEA
ulinemia
▁spectroscop
▁prel
▁estrogen
yclic
▁antenatal
▁hypotonic
▁72
▁inducing
▁microtub
▁(10(-5)
trial
▁hydrophilic
▁acetylcholine
▁practition
▁awake
abd
olarization
fat
▁Thyroid
▁102
▁NG
▁10(5)
plete
▁junctions
▁lymphocyte
othyronine
▁emergency
▁remo
▁allevi
ethanol
romed
▁mitral
obronchial
▁kit
otyp
▁aromatase
cence
tained
▁0.43
▁habits
▁translocation
▁bacterial
▁hypotensive
▁presum
▁puberty
▁Arter
▁superficial
▁occurring
▁1.4
▁masked
▁follicle
▁1200
▁Additional
otherapeutic
utyr
enopus
▁chondroitin
▁recurrences
lycemic
▁vimentin
arge
▁constriction
1/
lasting
▁biop
▁HSP
▁cerebrospinal
erance
▁haloperidol
▁synerg
▁blasts
▁deterioration
▁203
ysts
▁diagnostic
▁heterogeneous
▁analyzed
ignific
▁endonuclease
▁arousal
▁107
omatic
▁reas
▁symptoms
▁proton
▁Gluc
▁contral
▁epinephrine
aturation
quinone
▁omega
▁carbonic
atment
▁bleeding
▁Estimates
adjusted
osocial
▁Purkinje
▁isoenzyme
▁progen
▁symme
imbr
/6
▁rectal
▁lec
ching
▁Diagnostic
▁intact
+/-
▁23
▁calcium
81
▁assessments
▁cardiovascular
▁indication
▁synthase
▁dodecyl
glutination
▁rises
itidine
▁weekly
▁fibroblasts
essation
▁glomeruli
▁lactose
▁PLC
▁unchanged
▁amygdal
-23
▁tracheal
▁ischaemic
▁addi
▁titration
▁establ
▁comprised
▁82%
▁reticular
▁conditioning
▁0.1%
▁sarcolem
▁chimer
▁fron
▁collecting
ausea
▁dietary
▁reductions
▁excision
▁carnitine
▁sequential
▁quanti
▁myrist
▁atri
rogesterone
▁nodules
▁kDa
ocrit
▁tonic
roxim
horm
▁Bone
▁gonadotroph
▁mRNA
6,
Gly
▁preparation
ETE
▁allele
▁-0.
▁paral
▁demonstrable
▁medullary
▁concurrently
▁Significantly
itary
oxamine
1;
requ
57
▁NIH
illaries
▁sulphate
▁LH
▁ionophore
▁ewes
▁retarded
▁unfractionated
▁thickness
▁muscarinic
▁subend
hern
▁soy
▁latencies
▁advances
▁construc
▁progressive
producing
▁hypercalcemia
▁Tn
iliac
▁pyr
▁dermal
▁overnight
ivary
▁radiological
onitis
.3%
▁mothers
▁bacteri
▁preincubation
▁20%,
acked
flammatory
▁cesarean
tide
dural
▁amphetamine
lep
▁microsomal
▁Cul
iliated
▁endotoxin
▁gluc
▁208
▁extremity
onatal
▁hypoglycemic
▁PTH
▁whereby
▁substrate
24
▁4-
▁TI
▁146
▁ank
gic
▁juvenile
▁screening
▁shifts
▁isoflurane
▁coag
▁prazosin
plied
▁brady
tized
▁accep
▁inhibitor
▁79%
▁(200
▁10.7
▁reporter
FEV
adren
incubated
▁mitochondrial
▁activating
▁phosph
phs
▁calcification
▁29,
kine
▁stool
▁presentations
76
tigo
▁104
▁gp
tric
trating
▁pharmacokinetic
blind
▁implicated
▁surfactant
▁survive
▁sati
2+
▁chemotactic
▁adrenoceptor
aminobutyric
▁corticos
▁eminence
roxy
▁nuclei
▁interference
▁unc
▁NADH
chloride
rought
▁acyl
▁myeloma
▁sickness
▁preferential
▁54
▁Eight
▁latent
plies
otox
▁TGF
ffin
osity
individual
▁reinforcement
▁fluorescent
▁integrin
▁practic
▁febrile
▁unil
▁testes
-75
▁needle
▁vicin
▁behavioral
ocar
▁microsomes
▁LHRH
▁abd
▁horseradish
▁prono
▁glucocorticoid
terase
▁preliminary
▁surround
▁splicing
roup
/4
▁inhaled
▁melatonin
▁agglutinin
9%)
▁60.
▁FMLP
44
▁granulocytes
▁subgroups
reactive
gans
▁1,25-(
selec
odipine
▁cryst
igaret
ichloro
▁(2.5
▁tyros
▁endpoints
hist
▁3%
▁132
imide
osid
▁AH
ymme
dependently
▁metoclopramide
▁dibutyryl
▁crest
vian
othi
went
▁intensities
▁minority
▁provid
▁26%
93
▁pressures
▁perforation
parag
▁phenylalanine
▁damaging
oactive
▁specificity
▁neuromuscular
▁calmodulin
cellular
tradiol
▁luminal
▁synap
▁Intracellular
▁DBA
▁Compared
▁IA
▁demonstration
urine
▁otitis
▁Mild
administered
▁constituents
▁0.12
incub
▁14,
▁PN
▁distin
vae
formations
▁residue
▁conjugated
▁sour
▁lowered
▁1500
▁inconsistent
▁ascertain
▁fasting
▁87%
▁CGRP
icillin
▁indicators
▁adherence
▁tracts
▁paroxysmal
5-
ogra
▁irritation
▁lysates
▁repression
▁15-
▁nitroprusside
▁myometr
▁pyramidal
▁pancre
▁hepatic
tisol
idol
▁microm
opoiesis
▁athletes
▁18-
▁degrad
▁diz
▁Tyr
terolog
▁prednis
thi
▁antioxidants
▁poten
▁residual
▁deoxyrib
▁aspec
▁lysosomal
▁1987,
havi
▁measles
uded
▁BK
▁Seventy
▁emptying
cristine
▁preventive
▁sequelae
galy
▁intracerebral
feren
▁extracts
▁AVP
RIF
▁decayed
▁PCO
-1-
▁(+/-
▁hypother
otrypsin
▁algor
▁confers
▁0.0001).
▁supple
▁IgA
▁microtubule
▁hyste
▁malignancy
▁mandatory
▁motif
▁salbutamol
▁transi
31
▁covalent
▁ethical
ereb
▁plasmid
phil
▁NADP
▁vesti
atinum
▁descending
▁thereafter
keto
eptide
▁Isolated
▁chemotherapy
▁5.2
sistent
2318
ronchial
aminob
icated
▁amo
▁longus
pH
truc
▁Fifty
onazole
▁bombesin
▁cofactor
▁colorectal
tions
▁1990
rated
▁analgesics
▁wavelength
▁enzyme
▁DL
▁septum
idney
▁glucosamine
▁neomycin
-70
oposide
llate
▁0.
1.1
dominal
BV
alanine
▁lovastatin
▁Oc
▁homogen
▁previ
▁mell
istal
1%
▁Phy
▁hetero
.2
cholesterol
atally
▁Sixty
▁chromosomal
isomer
▁0.75
▁trache
IU
▁glomerul
7%)
▁12-
▁8-
▁isometric
▁locus
acycl
▁findings
▁Concentrations
▁viscer
▁127
itals
▁immunoreactive
▁drinkers
▁islet
phenyl
terminal
▁broth
tage
▁(79
disc
▁coated
phragm
▁vasopressin
▁Throm
▁arous
▁esterase
▁warfarin
▁cate
chloro
▁unrelated
olamine
▁ascorbate
▁tumors
bilities
▁isozyme
odds
▁replic
▁arising
▁tric
▁dihyd
soluble
▁infarction
carbon
▁CNS
plasia
▁establishing
▁59%
▁tandem
▁tendency
oxyl
▁yeast
anat
ogenes
cyclic
▁Recently
phot
▁ionic
▁glycosylation
-18
inositol
▁nucleotides
toxin
▁ribosomal
idity
▁overl
▁intrinsic
▁0.55
▁drin
4+
▁alumin
▁polymerization
▁forskolin
osyltransferase
▁infected
TSH
▁instruc
▁lipoproteins
▁hemorrhagic
▁CEA
▁24-
▁neutroph
ulline
▁tritiated
▁exag
odend
chemical
enyl
▁structural
▁constitutive
ologic
▁homogenates
▁alcohol
▁Effec
▁extrap
▁formulation
vely
▁implications
▁bile
etition
SHR
▁angi
ercul
hyd
110
▁EA
AH
ifedipine
▁thio
▁SRIF
▁cereb
:1
-13
▁infrared
▁spon
▁0.99
▁rotavirus
botic
▁endoc
▁ester
-5-
▁ganglion
18
▁TATA
▁strategies
15
oag
Bs
▁hydrolysis
▁circulating
▁epithelial
▁inversely
lastic
2).
▁perip
▁1,2-
▁SHR
BSA
-14
hydr
▁disturbance
0.5
▁reinfor
antigen
.2%
▁aerobic
conver
▁154
▁neurolep
testosterone
▁(39
iotensin
0-
▁uninfected
▁194
▁diazepam
▁concentrate
-48
ethyl
▁(16
▁oligosaccharide
aicin
existing
▁83%
▁responsive
▁repor
▁resorption
irradiated
▁blockers
▁pathophysiology
▁metabolite
▁nephron
▁Calc
▁beads
▁stimulate
.6%
▁fused
ropha
▁substanti
indings
ocated
yste
▁ovaries
▁Lys
▁typhimurium
▁regurgitation
▁membranes
▁pneumon
ocul
▁horiz
▁1.2
▁chronic
▁sedative
▁carbohyd
▁3).
▁colonic
▁melanoma
▁leucine
▁infarctions
▁corticosteroid
▁hypercal
▁protracted
▁Assess
▁PRA
(1
▁(36
lycerol
▁occult
▁corticosterone
▁.05).
▁pathogens
obacter
▁lytic
▁93%
▁characteris
ture
hydropyridine
▁Angiotensin
RD
▁bromocriptine
▁glycine
urgery
▁DBP
▁focal
vant
osomes
▁adipocytes
▁2.5
▁preferen
▁utilization
▁immun
vascular
▁paradox
▁nitrate
ondr
▁dye
▁comparative
▁2.
▁(60%)
▁flora
▁contrac
tocin
▁subcellular
pecific
▁MCF
.6%)
herence
tococcus
monary
▁specimen
metic
▁Mice
▁aspiration
sych
▁folate
▁congen
▁(24
▁neoplas
▁10(-10)
▁antagonized
ronectin
▁bioavailability
rele
▁irrig
▁withdrawn
▁reproductive
▁cholesteryl
▁visualization
▁magnesium
▁smokers
▁paternal
▁dias
▁fractions
▁biom
▁hens
▁pars
bearing
aminergic
otropin
phosphon
▁lupus
▁IgM
▁semen
Nase
▁Schwann
▁myocardium
▁40%
▁bactere
GTP
ganglionic
ervoir
▁Haem
▁respec
orphin
▁ADP
tability
.0)
▁IgG
occus
8,
tituted
▁123
trated
▁240
▁Mg
▁inactiv
rolog
▁contributing
▁DS
ayers
ialysis
▁80
▁immunization
▁digoxin
ascular
onide
▁precursors
▁doubled
▁potenti
▁coli
▁absorp
▁revised
▁inositol
▁EGTA
▁rhythmic
▁putative
▁151
▁vascul
eal
▁nadir
▁hapl
osaminidase
▁125
▁lipophilic
ximide
▁131
▁Eleven
uled
▁0.06
▁90-
igible
ejun
▁transplants
ergy
▁(5
-6-
▁clu
▁inadequate
▁superim
ameth
▁patent
ifferenti
▁archite
▁keto
▁continuously
▁abundant
cine
▁abrup
▁inges
▁determinations
▁successive
▁expend
▁dendrites
▁TD
▁pleural
▁valve
resistant
▁[32
▁hydrolyzed
▁12%
▁5.4
selective
▁Complications
▁inverted
oalveolar
▁89%
▁abscesses
bral
lec
▁abnormally
▁chloro
▁drain
▁Trial
▁amn
25)
▁recor
▁bacteremia
receptor
mber
▁terminus
kground
▁endocrine
▁extensor
▁confluent
IgG
limb
▁Measure
▁shorten
ophren
▁27,
atible
▁exhibits
▁mU
▁discrep
▁morphine
▁thiol
depleted
othelial
▁dermat
▁phenotypic
ficial
▁retina
▁visc
▁sarc
▁respiratory
▁hipp
BT
▁adenosine
▁chond
▁interne
▁repeats
▁triglyceride
ateral
42
▁rup
95
▁perone
▁carbox
▁gastr
▁dramatic
▁traits
▁relapse
etence
▁specificities
▁valves
▁plasmin
taz
adex
tebral
▁utero
tronic
▁cholera
▁resonance
nec
▁elbow
▁dischar
▁enhances
arachnoid
▁mucosa
▁subpop
alveolar
▁25%
▁subtypes
▁interviewed
▁breeding
▁lens
▁projec
tro
▁neuroblastoma
▁viability
▁58%
▁8.3
▁induc
▁cyanide
isely
▁transitional
Lys
▁115
molar
▁abnormality
wenty
▁thresholds
▁electroph
DV
▁aden
uginosa
chymal
▁0.30
11
oporosis
achn
arrh
▁daytime
▁micrograms
▁intraoperative
▁fimbr
▁facilitation
ovastatin
▁Leu
▁pulmon
▁halothane
▁fluores
▁(10(-6)
▁sucrose
▁enteral
▁deterior
echn
iatic
alues
▁bronchoscopy
▁100,
tate
gthen
▁phosphatid
thal
brom
nai
neu
▁cardiomyopathy
▁megakary
▁modulated
41
▁collic
▁immunotherapy
▁pyruvate
▁monolayers
▁16%
▁preoperatively
▁suspensions
▁Preliminary
fem
▁iso
25,
PAC
▁50%,
▁mechanisms
▁harves
▁cognitive
▁microscopic
▁ATPase
▁impairs
odies
▁BCG
ordial
▁prolongation
▁syphilis
▁skeletal
▁constric
▁119
▁fertilization
▁suspended
▁quantitatively
▁neurop
▁epidermis
▁endocytosis
ocap
▁peritoneal
▁extremities
sion
opoly
▁concanavalin
▁FT
▁cisplatin
▁trimethoprim
-3
▁(93
▁abstin
▁attemp
arose
▁Hodgkin
lymphocyte
tinguishable
▁competitively
▁antimicrobial
▁aldosterone
▁elevation
icient
▁accumulation
▁diabetic
▁hematocrit
▁pulp
odil
▁jejunum
▁polymorphism
8;
▁progn
▁Symptom
▁reserpine
▁ultrasonography
▁triacylglycerol
▁critically
▁157
▁TCA
▁2,3-
thase
▁emo
▁tac
82
glutamate
▁1,25
▁trunk
oprol
▁mV
▁worsening
acchar
▁(0.1
▁galactose
▁deficiency
▁halves
opamine
reening
anad
▁bip
▁clamp
kephal
Tc
▁Urine
/30
loid
▁8.0
▁streptococci
-19
geal
▁collateral
▁myo
▁sheath
▁muscul
isole
▁fluo
MV
▁carcinogenesis
▁grafts
▁precipitated
▁MCA
ticular
7,
▁microvilli
SAID
▁competitive
▁TSH
opam
▁biologic
37
▁thir
cad
▁pM
kephalin
▁Highly
▁decline
▁LT
issive
▁washing
▁pyel
▁20%
▁unre
▁Golgi
▁ORF
▁periodontal
▁cycling
▁airflow
▁follicular
epine
▁receptors
▁derm
orpor
iliary
▁Nineteen
idase
▁affinity
▁balanced
ancies
▁ACh
leukin
▁couples
▁DF
▁internalized
▁(40
▁2.5,
▁(45
roma
▁centr
▁synthesis
mitted
▁longitudinal
▁Depression
/5
itone
▁2.2
▁0.24
▁positional
▁sustain
▁favorably
▁breakdown
▁GM
▁arterial
physiological
▁10)
▁judged
▁rhythms
▁tryptic
▁impedance
▁7.5
entanyl
▁conserved
namic
▁thrombosis
▁HCO
▁GH
▁89
opar
▁neurons
anthine
▁recipients
/24
2,
▁cyan
▁cystic
alp
▁epilepsy
▁dismutase
▁Sequ
spectively
▁CDC
▁benzyl
tioned
▁oxid
▁compensatory
2+,
▁45%
omyel
olateral
▁axonal
stim
▁HM
-1.2
bacter
odiaz
▁HPLC
▁presumably
▁contractile
.8
traction
▁reass
opath
dial
ectable
▁radiotherapy
yrate
▁Biol
▁stools
▁practitioner
ductase
orec
▁vasodil
ococci
▁synaptosomes
▁outlet
▁cough
▁curric
phenylalanine
uary
▁fluorescence
▁Cardi
cellulose
▁antiv
tensives
rosine
HB
riched
▁MG
▁morphology
▁throat
▁mediator
▁malaria
▁aggregates
▁exerts
absorption
himb
▁0.65
▁cellular
▁treating
▁capsule
▁dimer
▁homogeneous
▁transaminase
▁ib
ellular
▁stimulation
otri
▁visceral
ellum
aminoglyc
phyloc
▁destro
▁tow
▁phosphodies
▁avoidance
▁regis
▁gluten
rever
▁enhancer
inergic
▁tumours
eled
▁carcinogens
inesterase
▁270
▁coupled
▁bromide
itin
▁splen
5.
▁(92
▁gonorrh
▁gastritis
▁islets
▁95%
iteal
▁conformational
▁steroidogenesis
▁Animals
▁biotin
tur
antoin
▁interrup
▁stric
▁1.8
.9%)
▁comparisons
▁GABAergic
▁predictors
6).
urate
aminop
atient
▁palli
omethacin
▁(49
▁14-
▁immature
▁(46
▁chemo
▁(0
▁Large
lox
▁hepatocellular
▁incid
▁diame
▁EMG
▁iodine
▁cran
▁peripheral
▁neon
▁ultraviolet
▁flap
▁pups
▁1),
▁rebound
▁appreciable
▁helic
tetradecanoyl
▁rehabilitation
▁tubules
rocal
orubicin
▁ventricul
▁lengthen
▁cutaneous
methyl
▁chest
-2)
▁(18%)
dU
▁evid
▁psychosocial
borne
▁methodology
▁scinti
-1.1
▁epit
▁mAb
▁intracranial
uantitative
astric
▁resistant
▁instr
▁parac
ylline
▁kain
ulose
▁catheters
▁turnover
▁acuity
▁cathepsin
1-
▁symptomatology
▁weakly
▁4.
▁esophagitis
8]
phic
BW
orax
▁buc
90
▁laparo
▁cyc
▁nuclease
▁hindlimb
▁(197
▁(1),
▁catheterization
/8
▁5-
▁4-5
unting
▁slowing
▁conduc
▁cleft
▁sensitization
vastatin
erated
▁63%
tak
▁spontaneous
▁Respiratory
▁transcription
▁galact
▁identif
siveness
▁52
evoked
▁assessed
▁159
osom
▁outlined
▁arachidonic
▁lobe
▁Experiments
.1,
lamydia
uplex
ivac
▁axial
eptid
▁surgical
▁titer
▁vacuoles
▁endocarditis
▁regulate
otting
▁xen
▁weighed
▁42
+-
irradi
▁ischaemia
▁lute
▁panc
violet
tir
▁adrenaline
▁oleic
▁onset
▁normalization
13
azone
▁HTLV
▁stratified
▁subunits
▁PGI
tyrosine
▁mitochondria
▁pneumonia
rocytes
74
▁pacemak
▁implants
modulin
sis
exposed
pressure
▁(150
▁fluids
▁fertil
hydro
▁kidne
▁6.4
acterial
▁scalp
▁RNA
▁lowers
achial
0).
▁oss
▁evaluations
▁scans
▁fractionation
▁FSH
▁mesang
oscopic
▁erythrocy
tumor
▁elective
▁137
▁vibr
▁calorie
12
▁vitamin
tally
liters
▁(32
▁killer
▁BMI
▁clinic
▁bronch
-8)
iably
▁behavi
▁0.3
▁cement
▁implanted
▁periv
chym
▁deter
▁progeny
▁bronchodil
inely
acrine
▁tricyclic
Leu
▁submaximal
opi
▁seasonal
▁recruitment
▁gestation
▁examination
aterally
▁Differences
▁jejunal
regn
▁Cycl
ochondrial
▁ampicillin
ximum
▁pancreatic
tub
▁retic
▁transduc
▁notic
▁profound
▁priming
▁Individual
▁connec
46
▁erythropo
▁nights
▁symp
▁apolipoprotein
▁hepat
▁imaging
▁ANG
viral
▁biochemical
▁commercially
▁limiting
▁Bacter
▁Diagn
▁Comparative
▁saturated
serine
itoring
▁radioligand
TNF
ongue
▁Incubation
▁targe
▁refrac
▁suppor
▁localized
▁cotrans
▁laminin
ially
oplasty
▁ultrac
▁stab
itamin
▁deposits
▁cleavage
▁dithiothreitol
▁37%
▁hyperb
▁gonadal
▁regen
▁(14
minute
otre
▁acco
▁4.6
▁embryos
▁Monoclonal
▁neuron
were
▁5%,
▁subjected
34
▁excretion
▁30%.
▁proteins
▁BL
▁rhesus
▁incub
nitine
▁bilayer
▁smears
▁70
▁incontinence
▁discre
▁HI
entric
iatum
▁dairy
▁differen
pain
▁eradic
▁excreted
▁dilution
▁correspon
Gal
treated
▁promo
▁ADH
▁harvested
▁156
▁polyaden
▁questionnaires
▁fibre
▁113
merc
▁preval
▁tissues
reast
▁hydrochloride
phyrin
▁headache
▁premenopausal
▁Pain
▁radios
▁transmembrane
▁cavity
▁Ninety
▁spontaneously
▁menstrual
▁gm
▁ambulatory
5%),
▁FN
trast
700
trop
▁stren
subs
▁injuries
▁retur
38
eptidase
▁elicits
▁conditioned
▁frac
iminary
▁estrous
79
-3)
▁Cells
▁bleomycin
▁gelatin
▁promoter
▁reacts
▁anastomosis
▁minimally
▁examinations
okine
▁elevated
▁ocular
▁evac
▁comprehensive
▁antioxidant
▁nonselective
vaccinated
ohyd
-3,
▁tissue
▁euth
dividual
▁eryth
▁10.2
▁Swed
riamycin
▁intral
▁(1)
electro
▁contraceptives
▁6.0
▁insoluble
▁reveal
aturia
▁myelin
▁physiology
▁manifested
▁psoriasis
▁0.025
ditions
▁streptococcal
▁EE
▁striatum
▁pneumococcal
▁NP
▁(12
26
▁1.5%
▁118
▁poin
▁0.05),
ritic
▁microb
▁procollagen
ypro
▁0.01),
adily
▁termed
otin
tracellular
anuary
▁acetate
▁urinary
▁glycosyl
▁menstr
▁anionic
▁amph
▁TPA
▁vag
▁logistic
▁noc
▁grading
▁radicals
▁Beta
▁lungs
1%)
▁hydrop
stolic
▁crude
▁derange
▁(50%)
ceptive
ogenesis
achol
pretreated
▁hematopoietic
▁bone
▁homogeneity
▁spind
▁(30
trate
brids
▁pathological
tivity
▁Identif
sian
▁1988
owever
DH
▁evolved
-4
trition
▁mammary
▁choles
(2
▁substituted
▁quin
▁inflamm
5]
▁GMP
tiz
opeptide
▁spasm
tribution
▁hormones
▁gingival
opsy
otherapy
▁cationic
▁nucleus
ipitation
▁0.42
▁anaerobic
▁29%
▁fibrinogen
▁spray
▁counterparts
▁HBsAg
▁adren
▁10,
▁irreversible
8+
▁airway
▁envelop
▁calculi
erebral
▁pituitary
oriented
▁harmful
ochem
activation
/100
ituitary
▁dissec
chlor
▁ventral
▁larvae
▁gangli
▁pregn
▁antigenic
encephal
iodarone
▁focusing
▁contracep
roline
▁precur
▁78%
sied
▁hydrogen
▁biopsy
anav
▁Secondary
▁CABG
▁reversal
▁quantit
▁70%
▁endurance
ithelial
Ls
PMA
▁biosynthesis
86
roat
▁distinguishing
▁fossa
▁173
▁CMV
inating
▁deficits
▁yiel
-)-
▁terminals
▁exert
olute
▁shortened
▁adenocarcinomas
oxygen
▁anxiolytic
▁Hig
allium
▁0.22
▁epsilon
▁aggres
portun
pig
▁RP
▁3.7
▁PaO
onucle
▁accumulate
▁potassium
ophysiological
▁neutrop
▁comparable
▁126
▁Intr
▁ischemic
▁practitioners
Barr
▁CBF
▁posi
▁repl
▁oxidation
IDDM
▁viral
lact
▁anxio
incip
ygdal
tructed
▁accidents
▁adduc
iron
▁(18
phosphates
▁predic
▁EB
▁reser
triglycer
▁MAb
induc
▁radiography
vac
▁ornithine
▁hybrids
▁skinfold
▁digested
olones
▁Forty
▁calcified
▁reflects
helix
ocyst
thanolamine
▁ulcers
▁ranitidine
▁declined
roglobulin
▁illness
▁expressing
▁nylon
▁mM
▁obstructive
▁failures
▁regar
gressive
ongest
duced
organisms
▁TK
▁chromosomes
▁postprandial
sensitivity
▁revascular
▁systemic
ANF
▁nonsmokers
▁concentrations
▁sequenced
▁polymorphic
ocys
▁Krebs
▁enzymes
▁recommendations
▁rheumatic
exc
itre
Ps
▁averaged
▁nodule
▁PPD
▁Severe
▁(50%
▁dismut
-70%
▁recordings
▁parenchymal
▁sepsis
inol
tensive
▁66%
ochemical
▁antis
▁chol
blood
▁predis
olam
▁plates
ymethyl
▁nutrient
▁recur
▁fever
▁Ace
▁(0.4
▁acros
▁Haemophilus
▁ald
olase
▁satis
ivered
▁crystals
▁exceeding
▁predominant
▁cultures
▁0.4
▁vaccine
▁immunological
estis
tically
/18
▁-3
▁750
▁0.90
▁vesicle
▁50,
PAGE
▁elution
▁WK
▁conflicting
▁Intravenous
▁excluded
cessive
▁dorsal
▁preexisting
▁(1.9
▁inversion
ominant
illar
ioma
▁spindle
▁(3.0
▁thrombin
▁endometrium
▁0.000
▁arb
▁suppressive
▁swim
▁strips
▁meal
▁plantar
pirone
▁virul
▁normotensive
(1,
▁6.2
▁fibrob
▁congestive
▁indications
ochrome
GFR
▁adenovirus
0,
▁dramatically
▁10%.
aminase
KD
ositi
▁thyroiditis
▁throm
▁subjective
-[
▁Clinical
▁[1
kers
▁efficacious
▁glutamate
gangl
▁doses
linked
▁34%
▁0.5%
▁electrical
▁cooling
▁ammon
▁adenocarcinoma
▁medial
▁inducible
5)
▁cultured
tism
rotid
▁circulation
EMG
ensory
▁(10.
▁unexpectedly
▁bac
▁dextro
▁decarboxylase
▁benzodiazepine
▁Replacement
▁expiratory
▁characterize
▁accumulated
rofen
▁RI
▁attending
▁cooperative
▁ANF
tenance
▁monomeric
▁PMA
▁molecule
▁Vmax
▁endocardi
acetic
▁Simult
5%).
▁scaven
▁optimum
▁caro
▁DSM
eroxide
▁benzo
▁Cardiac
▁simulated
▁77
▁HA
ilol
▁Chronic
▁discom
uretics
▁macromolec
▁rabbit
▁desensitization
▁shedding
▁0.25
▁irradiated
▁substantia
▁neutralization
▁methanol
▁MMC
oplasm
▁Calcium
▁graded
ylic
▁tubule
▁acceptor
▁denaturation
▁accompanying
▁Tx
▁139
▁112
toxicity
▁amplified
▁sarcoma
▁reflexes
▁adequately
▁isoform
▁Bmax
rogenase
▁eradication
tant
▁ovari
ximal
▁stromal
▁alkaline
▁nonex
adder
▁synthesize
seven
▁BV
▁relie
resis
▁lutein
▁painful
▁hydrophobic
▁cistern
▁tuberc
ifornia
▁pylori
odopsin
▁adhesion
atosis
erents
▁fructose
ocial
▁psychomotor
ifugation
▁[14
▁Dise
odeoxy
phage
▁DNAs
▁immunogenic
▁pyrid
▁transforming
▁Sertoli
▁effectiveness
lobin
keletal
▁myosin
iruses
4,5)
▁54%
responders
▁undergone
atite
▁interferon
▁adenocarcin
▁vancomycin
92
tetr
▁Almost
imination
▁complaints
▁55
▁predisposition
▁vaccinated
eclampsia
diabetic
▁84%
▁ganglia
▁percutaneous
▁resultant
▁antigens
▁mum
obarbital
▁bronchodilator
▁purine
esthe
▁allergen
▁dentate
▁Initi
▁Alz
▁abnormal
▁(8%)
otypic
rangement
oea
▁reactive
untary
▁9)
▁cerebro
▁multic
▁103
▁hepatitis
ucle
▁phosphorus
enol
exercise
molality
▁helical
tured
▁cyclosporine
▁1.00
lymer
otoxicity
purified
crib
▁pathway
osylated
histamine
▁survivors
-17
▁4.1
▁infrequent
▁methotrexate
▁rectif
planted
▁widespread
etoprotein
▁escal
▁hemorrh
▁9.5
▁duct
▁inflamed
▁gland
▁mitochondr
▁Inhibition
▁cava
▁maneu
▁catecholamine
retic
▁smoking
predic
atening
▁chec
▁heterodim
hetamine
▁MF
scherichia
bloc
▁regimens
▁hered
▁ciprofloxacin
matic
astolic
▁0.2%
onomic
▁intracor
uoden
thmia
▁recruit
▁retrospective
▁poorly
▁choline
etween
▁anae
▁Maximum
▁phosphate
▁elast
▁PMS
▁erythroid
▁polys
▁disturbances
▁Infection
lyc
▁mutagenesis
▁0.2
▁inpatients
▁recessive
▁positively
ytoin
▁adjusted
▁pregnant
▁105
▁regurg
asions
▁effusion
pyr
mur
▁absorbance
▁(56
ocaine
arly
0.
▁volunteer
ocyan
▁3.9
▁persis
▁answ
▁MoAb
▁glycosaminoglyc
wann
Glu
naph
Km
▁145
▁solely
▁0.01
▁inhibiting
▁uptake
▁increas
avail
Phe
▁anhydrase
▁displacement
▁drugs
tissue
▁adipose
▁rati
▁proteoglycan
thms
▁gonad
▁mitogens
▁dex
▁brom
teryl
iol
▁5.6
icep
odg
EGF
0.8
▁iodide
(3
▁urea
▁hyperlipid
oproterenol
▁cholest
▁antin
▁epidemiological
omeric
gents
cepti
▁monke
87
▁disappearance
▁ovine
tral
▁mutation
urther
▁deficient
myc
▁arachid
▁contamination
▁weakness
▁exagger
▁0.07
▁heterogene
▁messen
▁abrupt
▁anaesthetized
▁chronically
▁3.2
▁subpopulations
rested
▁7.1
teroidal
▁220
illance
▁fourfold
▁EBV
▁evaluating
▁determines
▁aluminum
▁1960
▁vacu
▁PMNs
▁nondiabetic
▁anesthetized
▁fluorescein
▁108
:3
▁NAD
loidy
▁availability
▁encompass
intensity
phosphor
▁monolayer
▁octa
▁discus
▁olig
PTH
▁0.98
▁Clin
tration
gesia
SOD
▁pathogenesis
tened
9,
▁withdrawal
romy
600
▁targeted
▁depolarizing
▁subcutaneously
luores
utyryl
40)
istar
▁nM
▁antagon
▁sympathetic
▁Recom
eliac
strand
▁ICU
apanese
▁nitro
▁polyclonal
▁emulsion
▁laboratories
imid
▁phenomenon
▁prophylactic
otent
▁excessive
▁resc
▁(42
lym
▁Tran
itum
▁vena
▁4000
▁pall
omotor
▁7.9
phthal
▁AK
icidal
Asp
▁readings
urnal
▁influenza
▁intensive
▁transferase
unsaturated
tigmine
cAMP
▁altered
tingu
▁synov
▁analogue
oscopy
▁inherent
▁Taken
atched
tin
▁96
▁depolarized
▁ICI
▁acqui
▁cDNA
▁BW
▁fulmin
▁phenotype
▁retrograde
ofl
odium
▁ovulation
▁(2-
▁cure
▁insignificant
salt
▁salivary
▁sarcoplasmic
▁Staphylococcus
▁exerted
restingly
▁lipid
helical
▁chemicals
glutin
▁Pb
2/
▁38%
▁SOD
▁256
▁resear
catalyzed
▁facial
▁0.001
▁Progesterone
▁renovascular
▁phosphoinositi
▁systematic
▁lith
▁whee
omies
▁parox
teroid
▁CDDP
▁accessory
▁acin
tectable
▁OC
reased
▁6.9
tisone
▁fecal
ocytic
urium
amino
assay
▁23,
▁intravenously
pation
oxazole
▁ischem
▁beneficial
▁neoplasia
▁underestimated
▁BAL
atid
dose
prising
▁ileum
▁equilibr
▁reag
▁intense
▁cDNAs
▁0.08
▁degen
▁2.9
▁mobilization
73
▁muscle
/10
/10(6)
▁1.
450
▁Hypertension
HRP
performance
butyl
riton
▁infancy
▁stratum
▁tetra
molec
▁intubation
▁beats
▁100%
▁onc
▁61
ternational
▁(17
▁3',
▁detec
▁defic
▁commerc
▁adjustments
▁Combined
▁natri
▁convul
▁sonography
▁100,000
RNA
ozo
▁Subjects
ocular
▁hormone
▁psor
▁intracellular
ilization
▁vivo
ostr
▁Hz
imodipine
▁(4)
crip
▁asymptomatic
iability
▁steroid
▁histologically
▁biopsies
0.9
▁Pregn
▁diagnoses
-35
▁counseling
▁tryp
▁contaminated
▁electrically
tile
▁GI
tified
▁caudal
ylamide
heximide
▁indis
▁dilated
▁72%
▁sterol
50,
▁functionally
▁retinoids
▁cones
2%
▁pretreatment
-100
omod
▁121
▁chorionic
▁congestion
▁targeting
LDL
▁adversely
rospor
fentanil
▁polarity
▁striatal
▁interf
▁18,
▁redox
▁HbA
▁gestational
▁VO
blockers
asting
▁cataly
▁0.01).
▁micron
▁cerevisiae
stin
▁newborns
educ
ields
▁staining
avirus
▁perox
▁instrumented
lamin
▁phenobarbital
▁zym
sulph
▁corne
59
thmatic
▁Radi
▁neoplastic
▁contraction
▁physi
▁80%
ruc
▁detergent
toid
ostigmine
▁zinc
▁caudate
oyl
oprec
▁semin
▁macrophage
RP
▁infiltration
▁antidepress
▁oxidative
▁produc
▁trachea
▁Drug
▁ferric
roscop
▁CCK
MHC
▁adenomas
▁31,
tiary
▁theore
/3
▁100%.
▁Dex
▁RS
▁efflux
▁12,
▁HSV
▁heating
▁antisera
▁fetal
▁alleles
▁80,
.1
▁palp
tron
uncture
▁parie
▁metastatic
▁Feeding
▁2%
▁synovial
average
acetate
▁discon
iferative
ilts
▁nutrients
▁transit
96
▁medulla
▁lisinopril
kling
▁350
▁Holter
▁uncommon
butamol
▁hGH
acting
▁agonist
▁LVH
affinity
▁restor
▁abdomen
▁0.1
apatite
▁prescription
rolase
▁prednisone
▁donors
meas
▁linearly
▁hyperther
ietin
▁colonization
ensitized
▁ventricles
▁ineffective
▁indi
47
▁testosterone
ginine
ocarcinoma
▁sti
▁folding
flurane
▁carp
▁cAMP
▁transplanted
mitter
▁purification
▁coronary
▁neuraminidase
perature
1)
▁1983
▁incontin
▁truncated
ilibr
▁respon
asic
▁Pretreatment
roso
vents
rospinal
ials
▁Hep
▁parasite
▁desm
diagn
▁aort
▁autoreg
▁diacylglycerol
oxone
-25
▁conjunction
▁computerized
▁redistribution
▁trigeminal
▁chel
▁171
▁kinetics
▁mutants
▁libr
▁colchicine
▁maxillary
natal
ervical
▁decade
▁complementation
exis
▁occluded
▁succinate
▁elucidate
14
▁blast
▁cytometry
▁coenzyme
▁hypercap
▁glomerular
▁exploration
▁extracellular
-12
ucine
▁leakage
▁88%
ralfate
rae
▁stimulator
▁ureter
▁0.8
uccessful
.5%
▁unex
▁inver
▁CRH
▁ipsilateral
▁Diabetes
▁repressor
▁cortic
▁clamping
▁7-
▁vasodilation
hep
onstric
▁hydrophob
▁perfused
▁(27
▁monkeys
▁narrowing
▁Factor
▁Hg
▁transporter
▁decreases
▁SLE
▁accumbens
romic
▁nonsteroidal
▁beds
elec
▁visualized
3/
transferase
▁8.8
kelihood
▁stratif
▁metast
▁accid
▁participating
LPS
▁11%
fron
vices
glucosidase
▁regulated
helin
▁histochemical
imetric
▁shel
▁prolonged
▁0.05)
▁researchers
▁12
▁grain
casein
oxin
▁1.0
▁hamster
▁caffeine
▁15
▁glycoprotein
ogeneic
▁Streptococcus
controlled
▁elastic
▁penile
▁7.4
▁lacks
▁differentiation
▁polysaccharide
▁reticul
▁nifedipine
ressing
▁helix
▁transmitted
operatively
▁arrhythmias
▁(-)-
▁10.
▁3.3
caro
▁0.27
platin
▁antic
▁NMDA
▁investigating
▁(63
opathy
glyc
2),
▁sensitivities
▁steroids
400
▁peptid
▁symptom
▁scintigraphy
othal
▁physiologic
inj
▁cervical
▁adap
▁femur
▁selective
▁vesicular
▁barrier
oplasia
peptide
▁vaccines
amel
Sepharose
tox
tent
▁splice
▁quantify
▁originating
▁cil
▁dysfunction
▁standardized
▁bic
▁133
▁papill
▁activator
▁197
▁mannose
9;
atical
▁recurrent
▁titers
▁assay
▁pectoris
▁disper
▁Pt
rein
▁undere
▁pts
▁adenine
▁incubation
▁10(-3)
oric
-11
▁infants
▁40-
▁packed
odine
▁pathology
▁verbal
rhy
▁201
opl
▁188
▁depressive
▁exaggerated
▁cerebellum
▁stres
▁pharmacological
▁circulatory
▁angl
ovalent
ctomy
▁stabilization
ophosphate
+)-
▁grafted
▁postpartum
4)
3.
▁creatinine
indolol
▁aberr
▁detectable
angi
lective
ept
▁meth
resist
galact
duc
▁lipase
osensory
▁mening
▁cGy
▁pulses
alcip
▁pacemaker
▁relieved
PB
▁alters
.9
▁catabolism
▁yielding
isol
▁blas
atab
tual
10.
▁76
tosis
▁hapten
-1.5
resting
10-
glycoprotein
osac
▁orthostatic
oxifen
oustic
▁fist
alate
▁intercellular
▁diploid
▁experiencing
oretic
ograms
maximal
▁electrocardi
▁potencies
▁heavi
▁implic
grams
clusive
▁10.4
▁strains
▁reacting
idym
diastolic
ffec
mentation
echan
▁leukemia
▁overe
aning
coronary
▁indus
▁inoculation
▁nicotinic
tabl
▁disrupted
▁doubling
▁Abnormal
-80
▁bovine
dies
▁homolog
▁esophagus
junctional
rected
▁GF
▁RPE
edded
▁arthritis
othiaz
▁allergens
-40%
85
▁polypeptide
▁morphologic
potassium
idation
▁enlarged
▁possesses
▁freshly
oproteins
posure
▁3.5
▁3.1
▁rhin
▁electrode
▁unselected
iosis
HV
osides
effects
hexyl
▁21%
▁conservative
▁simplex
tants
alc
▁reflex
▁1.5-
▁0.01)
▁incompletely
iplinary
ithi
roprus
▁soleus
▁FFA
.8%)
▁Biochem
jury
▁cytokeratin
▁glyc
▁radionucl
▁debr
▁pate
▁arteriovenous
▁nasal
▁femoral
▁lacking
hemoglobin
duction
▁supr
▁(1,
▁HCl
▁amylase
▁Infusion
▁64%
▁128
CAM
ipolar
▁bumetanide
17
▁formulations
▁clearance
▁3.
▁anomalies
▁suppression
▁palpable
▁cations
hCG
▁trigg
▁(11
tum
▁hamsters
▁oral
usions
cryst
▁arteriosus
trical
trous
▁tablets
▁adolescents
5%)
oic
azepam
▁thalamic
▁mammalian
cancer
ermal
▁4.8
Cer
diagnosed
rography
▁GAD
dipine
▁bp
▁adenylyl
54
greater
luent
▁asbest
▁illus
▁vulnerable
atients
▁heparan
▁angina
▁impairment
▁etiology
throm
luding
▁arth
▁carrier
49
▁proliferate
oprotein
▁qualit
▁LPL
▁pulmonary
▁examin
totic
encephalon
▁horm
▁19
▁hypocal
▁PDGF
▁osm
▁paralle
▁relaxation
58
▁bilirubin
▁proteoglycans
ducing
AVP
▁adenylate
▁centrifugation
▁heterozygous
cardi
▁mg
▁neoplasm
▁13,
▁exhibited
▁abor
▁Alzheimer
50)
▁phospholipase
adian
▁attitu
strain
▁controver
56
7;
▁Oste
▁estimating
▁(70
▁cephal
▁nucleoside
▁9.0
fib
2.
wk
▁Fib
▁tubercul
▁erythrocyte
▁gradi
mega
imentation
10,
▁multim
▁UDP
(2-
ondon
▁perc
arbonate
▁trypan
▁97
olism
14)
▁nicot
▁alcoholics
▁consumed
/2
maleimide
▁accounted
▁bolus
▁0.7
-50
clonal
▁tubes
▁RII
▁diabe
000
▁extracorporeal
himbine
▁dele
▁sensitized
▁predominantly
▁durations
▁TCDD
▁moieties
▁mice
tagland
▁1986
pinal
▁therapy
▁antif
▁abortion
▁deple
▁10(9)
▁cytotoxicity
▁OKT
▁preincubated
-1
ophysical
ygen
▁microns
median
▁(15%)
▁bradyc
amily
▁glioma
▁coeff
▁improves
angiotensin
romes
▁phasic
▁choro
azole
olgi
▁adip
ovirus
▁involvement
1/2
lycero
▁starvation
▁dox
▁inapp
lux
rosophila
receptors
▁reactions
▁serotype
flamm
altered
▁4%
onuclease
▁hippocampal
▁reproducibility
▁intestinal
▁injec
▁VP
▁acidic
hers
▁overload
trient
84
▁discharged
gold
▁lys
methoxy
anking
▁trend
trac
quid
▁deduced
otype
emias
fiber
anol
▁linole
▁efficacy
▁(300
▁cysteine
▁disulfide
PSPs
▁33%
▁adequate
▁62%
▁110
▁responded
ticle
idis
▁diagnose
▁VH
▁Treatment
▁(5%)
xanthine
▁hematologic
opathology
▁differing
▁Graves
▁solubilized
▁Basal
▁2-3
▁LD
▁recons
▁calor
▁intravenous
83
▁mucos
▁kidney
▁tracer
clin
oceptor
-1).
▁49
dihydroxy
teric
6;
tors
▁restoration
▁formalin
gland
▁reductase
▁precipit
yrox
tering
tracted
▁Unlike
▁serolog
stimulating
▁dissociated
hydryl
▁blots
▁histological
▁mmHg
▁cytoch
▁(69
tolerance
▁5
oxetine
moid
▁spleens
8%)
▁carb
▁Entero
▁IGFBP
▁collaterals
▁hydroxylase
▁kinetic
▁embryo
▁50
▁RIA
▁160
olytic
Cs
▁epididym
▁117
8%
romised
▁inducer
▁olfactory
▁plasminogen
▁ESR
▁mec
▁canine
▁5)
▁apomorphine
radi
▁Protein
aind
▁nig
▁creatine
omycin
53
▁succin
▁daltons
▁1988.
4]
▁methacholine
▁tachycardia
▁anticoagulation
▁estrus
▁instrum
▁radiolabeled
fluoro
▁isoelectric
rays
yx
▁(16%)
27
▁gentamicin
14,
▁bronchoalveolar
etitive
trypsin
▁topically
▁filaments
erable
▁echocardi
▁0.33
▁therapeutic
athy
thyl
onvul
▁stere
monella
▁haplotype
ogenous
▁ACTH
haem
▁margins
▁carriers
adequ
▁isozymes
▁56
olated
stant
▁phagocytic
aluation
▁phosphatidyl
ioid
▁hypertro
▁promptly
▁yohimbine
▁electrophoresis
▁Tissue
aginal
ospor
▁0.9%
▁CsA
▁somat
▁identifiable
jected
idated
▁affects
▁slowed
▁kary
▁localization
▁behavioural
▁syngeneic
acyclin
odular
▁injected
▁lateral
▁exploratory
ncy
▁1970
osum
▁approx
propyl
▁perfor
globin
lyce
▁blocker
▁kinases
▁cortisone
▁facilitated
dR
▁hyperg
▁(21
actin
ACh
▁mating
▁analogs
▁immunoglobulins
▁genital
▁sexes
-34
phrine
▁glands
▁10(6)
▁pathways
▁mutagenic
▁hyal
-2).
▁regulatory
▁efficac
▁(26
osal
▁1989
▁(1.5
▁MAO
▁192
▁233
▁93
ureus
▁joints
▁0.02).
▁enti
Hg
▁muscular
▁ions
sives
uterine
otassium
▁radioactivity
thoracic
▁obtaining
▁coex
▁defective
▁58
▁ips
▁serotonin
opic
▁beha
PV
▁consecu
▁messenger
▁penetration
vation
▁35%
▁Exc
▁clonidine
phyl
ineal
▁undergoes
▁descriptive
etan
▁neuros
▁challenges
▁humoral
▁GHRH
▁DMP
▁promoters
MH
▁constituted
▁Antibodies
▁50%
▁erythromycin
▁carboxyl
▁1985
▁sca
▁knee
▁menopausal
▁ure
▁guidelines
▁uro
▁neph
▁postmenopausal
hypertensive
▁ey
▁hypothyroid
▁emin
▁81
▁motility
labeled
▁TT
▁opiate
▁carbohydrates
▁pigs
▁VIP
PRL
▁ventilation
▁lineage
planchnic
▁hir
▁stationary
kinje
▁alloster
▁amiloride
▁Drosophila
ostatin
▁hepatocyte
▁ketoconazole
▁Km
▁conduction
carinic
▁plateau
▁healthy
antibody
5%
▁aggression
▁amplitudes
▁gastrin
RB
▁parenchym
51
approximately
robic
▁Proc
▁xyl
▁53%
modified
▁infusion
allikrein
ropine
▁underwent
releasing
▁eosinophils
▁bronchi
▁Plasma
▁shor
▁midbrain
▁instability
▁peroxide
▁outbreaks
▁stiffness
▁acutely
hyde
▁dosages
▁serotonergic
▁SPL
▁Factors
oxan
▁emerg
ailure
genic
▁burden
▁isotonic
upuncture
azoline
Glc
▁pyro
▁exacerb
▁0.17
amole
hemat
▁.0
▁luteal
ylation
▁8.4
apamil
farction
oxygenase
▁births
posal
sibly
▁etoposide
▁40%,
▁hysterectomy
▁IDDM
▁NSAID
▁6.5
▁serological
▁morb
▁(25%)
omonas
▁dioxide
perme
ipine
-1),
▁phi
rences
gmental
▁cytos
▁cephalosporins
▁ultrason
taken
▁probes
▁bilayers
▁ars
▁FEV
▁lis
▁(0.2
▁2.0
▁peaked
▁denervated
renaline
▁resembling
ogens
▁smo
▁dithi
insensitive
PAT
ampl
prin
BG
▁norepinephrine
trained
▁wee
▁5.3
▁nebul
fec
oplas
▁LC
▁metabolism
lysine
opressin
▁protr
▁swine
▁surveillance
▁tiss
▁opioids
68
FGF
▁venom
▁venti
▁nurses
▁abrog
.7%
fine
epines
▁heterogeneity
dine
▁athle
▁4).
▁tetan
▁aeros
▁contamin
▁rheum
mediated
/7
yridamole
osylation
ochondr
▁intervention
▁diarrh
4;
▁diges
▁connective
▁atrial
lysis
▁Injection
erent
▁intermittent
kinson
▁abscess
▁ligands
▁lob
▁projections
▁cats
▁overlapping
▁1987
▁starch
▁cardiac
▁breathing
▁feces
▁CTL
▁Glucose
opha
▁discharge
▁Phosph
▁25,
▁vertebral
▁transient
▁virtu
▁metastasis
▁AIDS
▁thallium
▁rhythm
▁suppressed
▁thyroidectomy
▁laser
▁flas
▁tension
lyl
▁[125
arrhythmic
▁improving
lix
▁unm
▁tape
▁preceded
▁122
▁ophthal
▁disability
▁polyacrylamide
▁hypox
▁hydroxyl
▁Triton
atitis
ignificant
▁persisting
▁(44
▁seiz
ulators
▁rated
▁visits
ordance
▁dissoci
▁Exposure
▁PGE
▁tibia
micro
9)
▁strands
▁prescrib
ysto
tives
▁Evid
sized
▁asymmetric
▁detects
unar
▁74
▁vesic
▁diaz
▁NGF
▁inoculated
othre
▁avian
▁tomography
therapy
protein
▁outflow
▁progesterone
ochemically
▁mucin
▁balloon
erate
tec
aturated
veolar
▁equivalents
▁attrib
▁immunobl
▁recruited
ocrine
oprost
eminal
▁glutamic
charomyces
ogenicity
▁Thirty
▁GnRH
acted
▁fragmentation
sodium
▁umb
▁qualitatively
▁(43
enh
osarcoma
▁resul
▁accordance
▁circumflex
36
▁ultrasound
tection
▁rele
roscopically
▁leukotriene
▁BALB
▁clom
▁linoleic
▁pepsin
▁ingested
▁immunodef
BP
▁colos
traumatic
▁preparations
atibility
▁macropha
▁mAbs
▁pH
athic
▁prostaglandin
▁.05)
▁51
▁lectin
▁phosphates
entified
▁amel
razole
▁tremor
▁TCR
▁actuarial
▁resembles
roximately
▁PCP
▁TM
▁occupancy
▁screened
▁nursing
▁duoden
▁vicinity
▁challenged
▁neuropsych
▁0.46
▁insufficient
▁diuretics
▁inhibition
▁nodular
ostasis
▁hypertonic
trus
▁hypot
▁experimentally
▁investigators
▁9
▁ductus
▁repetitive
▁Leuk
▁pK
▁irrit
availability
itance
▁somata
-72
▁somatic
embrane
▁164
ceived
ociation
▁novo
tures
▁RNAs
▁perinatal
▁stratification
allik
phosphatid
ofil
▁granular
▁reagents
ophen
▁immunos
ischem
▁phenomena
ipr
▁kidneys
▁markedly
▁absorb
ipher
BM
▁develops
▁consultation
▁Elec
▁infection
120
tice
-1000
ighteen
tonic
▁mineral
▁transgenic
▁severity
▁68
▁antid
▁regulates
▁14.5
limiting
▁amines
▁HMG
diabe
olip
yrib
olol
▁polypeptides
expressed
gluc
▁granule
▁sodium
▁Caucas
rosemide
▁perikary
▁anesthetic
idine
ospecific
▁occl
▁PV
pA
elan
hospital
▁CRP
▁intermedi
▁Assessment
ronch
RH
clinical
▁medically
▁fmol
treatment
▁correspondence
osus
▁anticoagulant
▁hypere
94
▁rodents
▁biology
atectomy
▁diseases
attered
▁quoti
▁ori
-6
▁nitrogen
▁neutrophils
▁junction
▁suspension
oblastoma
7.
▁achieving
tabol
▁immunoblotting
▁scientif
▁7.
dihyd
.5%)
▁soluble
▁psychiatric
▁37
▁limbs
oglyc
▁varic
threshold
▁pharmac
filtration
primed
▁ablation
▁85
▁obesity
orption
▁5000
otoxin
▁chamb
ochemistry
MSH
2)
assi
▁scre
▁Thir
rents
▁extrav
ecyl
6-
▁thyrotropin
▁avoiding
▁retrospectively
ulant
▁astro
▁oocytes
▁fluctuations
ocor
coup
habil
▁poorer
hydration
▁determining
▁adjusting
50
▁ethyl
olone
▁ejac
uctose
heal
▁32%
ipro
▁0.18
pendence
▁msec
▁stimulus
▁oval
entricular
99
▁deline
▁electrophoretic
▁questionnai
▁pneumoniae
▁epithelium
▁obese
tation
▁enamel
▁cycloheximide
tenolol
embr
▁10(3)
▁satisfactory
creatinine
▁sutures
▁95
oradi
otor
onor
icients
ervated
emak
▁glucuron
19
▁cows
ocon
▁tumour
12-
▁ferritin
admium
utaneously
▁abuse
▁depolarization
▁deaths
▁asthmatic
economic
rox
▁worm
jec
▁sclerosis
▁outgrowth
▁endothelium
accharide
▁exogenous
pite
▁Prospective
ynthe
▁responsiveness
▁incorporated
▁GST
10
gp
ropyl
▁aureus
bladder
▁simultaneous
▁CB
operox
2,000
▁subarachnoid
▁2).
▁metabolites
▁fulf
▁tubulin
▁74%
▁peptides
▁fibrils
sant
▁microbial
▁myristate
▁identifying
7)
▁nephropathy
▁trends
ylcholinesterase
▁gastric
iasis
rophic
▁mandibular
▁6.7
▁44%
ensi
▁teratogenic
▁IGF
▁phentolamine
▁cerv
onary
▁paren
tality
aceous
23187
▁inbred
▁threonine
▁granules
comitant
conjugated
▁reduc
▁1%
▁7.8
▁intraper
▁ascending
▁ultr
+/
ubicin
tomy
athione
▁stiff
Ki
generation
▁unid
▁aneup
▁discontinu
▁preferentially
lue
▁opi
▁endoplasmic
▁virions
eric
▁LMW
▁(50
▁parturition
motic
▁Tryp
rometry
▁oxygenation
4.
▁tris
oneph
▁yr
bly
▁coordination
▁cranial
▁morbidity
▁chains
▁0.001),
▁thromb
▁reviewed
▁radioimmuno
▁epid
▁47
▁tube
queous
▁seizures
▁(75
inflammatory
▁anion
.5
venty
▁stimulant
▁aids
▁Addition
▁agonists
▁luteinizing
▁radioactive
titis
apeutic
▁tyrosine
▁ADR
lastoma
▁phenotypes
▁HeLa
cys
▁secrete
terious
▁enzymatic
-0
▁vege
▁trials
▁Kd
▁9.9
kinin
▁sorbitol
▁1980
▁perme
▁Comparison
▁papilloma
▁196
▁24
▁Subsequent
thel
▁PT
▁allografts
lusion
▁classify
▁Eighty
▁denti
▁3'
▁30.
▁complications
▁fati
▁efferent
ophils
tested
▁homogenate
achid
aryngeal
opathic
responsive
icin
muc
▁pellets
▁11
cemia
▁5.1
acer
ectom
hesus
▁rejection
▁UV
▁16-
▁genic
2(
▁10
▁compli
▁diarrhea
▁nonresponders
▁preoperative
plants
▁iliac
▁examining
▁3)
▁categorized
▁metabol
cutaneous
▁TP
orated
-5)
▁dermatitis
▁routinely
▁oxidized
▁Changes
bile
ercise
forming
ticularly
▁persistence
▁peric
transfer
▁prostate
0%.
▁saliv
▁differe
trig
otopic
▁implant
tium
▁13%
oplasmic
▁bipolar
amination
▁reveals
pyrene
33
▁hydrocortisone
determined
▁peptide
▁gases
▁phospholip
]-
▁13
▁angiography
▁reticulocyte
ivariate
▁48%
uric
ustained
siology
▁LN
▁resour
▁projecting
▁manifestations
▁bicarbonate
▁microM
▁assays
▁tended
▁erythema
▁suture
▁afferent
▁marginal
▁treatments
▁synthetic
▁copper
▁wk
▁lymphadenopathy
oprote
▁undertaken
▁additive
filament
▁aberrations
▁presenting
sibility
▁(48
▁amide
▁histamine
-45
▁elab
▁Whereas
▁antagonism
▁manu
▁chimeric
▁0.35
▁adsorbed
gus
reported
▁elucidated
▁6-
ulsive
agic
entan
▁depres
vail
epam
▁maintaining
atchard
ipit
▁urgent
▁regained
▁59
▁discontinued
semb
▁vestibular
TGF
olestero
▁carcinomas
optic
clerotic
▁Cd
▁innervation
▁enal
bisphosphate
▁immunity
econd
amphen
▁compliance
hemical
▁Wistar
▁neuroendocrine
▁Hyd
IgA
▁phag
▁BMT
▁elec
elic
▁rumen
pregnant
unced
▁attenuation
▁metastases
▁Fifteen
▁utilizing
▁0.001)
astatic
▁atypical
testinal
500
▁brach
▁reperfusion
azolam
▁selectively
▁immunoprec
apid
▁CFU
▁placement
iotic
▁flanking
opausal
▁cytosol
▁victims
▁trimester
▁MN
dition
▁50,000
reasing
▁deprivation
▁synthe
sue
▁hydroxy
operoxidase
▁professionals
▁diminished
▁100-
oung
echanical
▁MK
▁rats
▁0.1,
▁stomach
▁51%
ensin
▁undergo
▁residues
OA
300
▁kerat
-3-
odialysis
▁Doses
▁ingu
▁calf
▁lavage
▁sorb
▁16,
▁reasonably
▁hyperlipidemia
ocks
▁relaxed
affected
eprazole
▁explants
ellar
filaments
▁naloxone
▁functioning
▁underg
▁spacer
▁constitutively
▁undetectable
▁patches
▁compounds
▁atheros
lymph
▁142
▁adi
▁Previous
▁occlusive
ocysteine
ylcholine
▁interc
achnoid
▁subjec
▁probe
▁insufficiency
▁subpopulation
zot
centr
▁ovid
ycl
oretically
▁AUC
▁wounds
▁underestim
benzo
▁alve
rase
▁NIDDM
▁citrate
▁endoscopic
▁lobes
uronal
▁.00
leucine
▁carcinogenic
▁septal
▁24%
▁spermatozoa
sors
▁remarkably
▁ration
▁lam
▁entero
▁surge
▁trauma
▁800
ungal
▁degraded
▁typh
aryotic
▁-4
▁unidentified
▁axons
ploy
▁myelinated
▁2
▁denat
▁8.1
▁microscopy
▁permits
▁rearrangements
▁attenu
onidine
▁positives
▁cytosolic
▁endometr
▁venous
▁freeze
▁Increasing
▁omeprazole
iplin
enzyme
6%)
ardized
thle
tional
▁101
adrenaline
▁1,
fetoprotein
4,
▁189
▁fetuses
alkyl
▁baseline
▁PLA
osome
▁thrombus
▁BA
52
turb
▁PAP
▁antiviral
▁transplant
▁triglycerides
FN
▁thym
▁Twenty
▁osteoarthritis
ensitive
▁pim
▁consequently
▁30%
potential
▁sialic
▁endoscopy
esthetized
▁mucus
▁abnormalities
35
▁therapeu
unctiv
▁ligament
▁complic
▁castrated
▁glutathione
▁encodes
-3.
▁extrac
▁PE
▁inhibited
▁(19
omes
▁progressively
▁parathyroid
ammon
▁genes
▁duodenum
▁PAF
▁hypotheses
▁mug
Hu
▁(2)
▁thirds
▁36%
inally
▁insec
▁Bacillus
ughter
▁squamous
▁muscles
▁EI
▁enriched
▁Neither
rotal
▁20.
▁weighing
amet
▁amin
▁tryptophan
▁variability
▁(0.
▁5'
tectomy
herent
▁branched
▁calibr
▁1984
▁pronounced
▁acces
(2)
▁physici
aminidase
oxide
▁0.3%
ventricular
RF
Ins
-10(
▁cardiomy
▁expectations
tember
ocl
▁ongoing
▁immunoprecipit
▁phospho
▁(8
(+)-
▁mitotic
umerous
▁kb
▁twofold
-4,
▁pregnancy
▁GA
▁lactate
▁Intra
▁constitute
▁glycer
oresis
▁MI
tural
terin
▁65
▁10(-1
▁pati
▁theoretically
▁stom
antibodies
▁secreted
▁exposure
▁4.2
▁0.05).
▁9.
▁147
▁resusc
▁CHD
rophenyl
90)
▁bronchial
mortem
uprofen
▁concep
▁osteoc
▁Consequently
feron
phosph
▁metronidazole
-2-
▁10(-7)
▁enhance
▁(22
vitamin
▁investigations
▁trypsin
▁periphery
▁blacks
▁roset
encephalic
▁seminal
▁0.5
▁artery
▁kappa
▁98
▁endings
▁pyl
▁-5
▁reliably
▁enlarge
▁sph
▁esters
▁CHF
ocomp
▁ouabain
▁electrodes
▁serogroup
▁schiz
▁radionuclide
▁satisfactorily
lys
omegalovirus
▁hypothesize
normally
▁unaltered
tamine
letion
andard
▁splenic
▁cytotoxic
▁superf
orts
divided
▁microorganisms
▁ADA
▁Certain
▁mimic
▁mumol
▁nm
antagon
▁morphometric
ensities
iceptive
▁interfer
▁esophag
osamine
▁baro
▁pulse
▁antib
ifed
▁deficit
▁inappropriate
helial
▁papillary
▁occlusion
-7,
occi
▁coping
3,
Fc
▁PTCA
▁chambers
buterol
▁oligos
▁infections
UV
▁Dop
ergic
▁raphe
▁determinants
▁subtype
heum
ophys
rozen
ococcal
▁potentiation
▁PBMC
▁(0.0
▁programmed
▁discriminant
▁nonin
▁epidemi
▁8
meth
▁hypoglycemia
▁mildly
▁secretagog
▁catechol
▁maternal
▁fasted
tomas
tents
▁116
▁waveform
yel
▁arteri
▁Arterial
rostagland
▁19,
▁diarr
usive
▁Amin
▁5.
▁amine
azol
▁prothrombin
▁sharply
▁176
▁esophageal
▁Transi
▁inhibin
▁nephro
▁ACE
parathyroid
olysis
▁capsaicin
Ci
▁collec
atories
▁jaund
▁favored
▁stimuli
▁Statis
▁splenomegaly
.3%)
▁fold
▁PP
-450
▁postsynaptic
▁LTB
androgen
earing
▁lesser
▁LTD
▁migrating
tiguous
▁antide
▁explored
▁2.3
apsulated
)],
▁0.01,
▁Renal
▁chor
-125
ergen
oclonal
myr
▁institutional
▁LPS
▁benign
▁proliferation
▁17-
CSF
▁erythematosus
▁reversibly
▁SG
bran
amus
▁transcrip
▁myocytes
▁displaced
▁competi
▁cerebrovascular
▁compositions
plasty
▁renin
5),
▁axon
.6
▁hybrid
erad
tention
▁progres
▁DHT
▁0.5,
▁5%
▁Seventeen
tropine
▁fertility
▁ventilatory
▁Caucasian
▁1/
▁susceptible
▁differs
dotoxin
▁topo
▁centres
reduced
ichia
▁Epidemi
-27
▁86
▁moderately
▁monit
▁syndrome
▁chondrocytes
tropin
termined
romyces
henyl
▁patency
▁regimen
-65
imeth
00,
▁NF
CDD
butyrate
▁maturation
▁5.8
▁discomfort
▁stent
thood
▁700
▁53
atized
▁methionine
▁acetic
▁serum
▁wt
▁dipyridamole
ulants
▁varicella
opr
▁polymorph
Tyr
▁angiographic
ocytochemistry
▁3.8
▁hydroph
oride
▁interleukin
ometr
-9)
▁ICP
▁CAP
▁normals
uvant
reflex
▁uv
affec
▁damaged
ropriate
anded
▁splic
▁mathem
enching
phine
▁Responses
▁slices
▁phyto
▁CoA
▁Increases
▁disulf
▁oligodend
▁epidural
▁mediating
▁terat
▁histopath
▁staphyloc
▁64
-21
▁0.45
▁operative
▁granuloma
▁exis
▁corneal
▁ubiqu
▁cytoskeleton
4%)
▁subf
▁0.52
▁gyrus
ograp
▁0.005)
retin
pressing
ischemic
ylon
▁hairy
▁liposomes
▁streptoc
▁mesenchymal
▁temperatures
▁interacted
yses
▁fibrillation
▁telephone
▁1,25(
▁Increased
dyle
▁osteoporosis
▁EEG
kines
metabol
secre
▁oils
▁thrombotic
▁hrs
▁monocytes
▁depleted
ocyanate
▁1-
mittent
ediatric
▁primed
▁digestive
▁hypothal
alsy
▁sput
uccess
ications
▁hepatotoxicity
▁Lymph
▁10(-5)
▁1,000
inopril
▁apprec
▁nucleic
▁199
▁CRF
clamp
aemic
▁nmol
oplasma
▁splanchnic
▁anaesthesia
SEM
teria
▁depress
saccharide
▁sacrificed
dT
▁dementia
▁adequ
▁asthma
▁metabolic
6%
bility
ulph
▁nonlinear
▁responding
ollen
reed
PSP
pli
suppres
▁reactivity
icardi
▁lipoprotein
▁sulfhydryl
▁fibr
IgM
▁oocyte
▁pulsed
▁rodent
ANP
▁strain
▁electrolyte
▁suscepti
TG
▁COOH
▁erythropoietin
▁43%
▁microvascular
▁cerevis
▁Increas
▁6.3
▁supine
ophilus
▁demonstrating
ocellular
hydrop
oprim
▁LR
trates
ithine
aryl
▁glucose
▁rabbits
▁immunized
terol
▁fractional
ithin
gm
▁selen
▁hind
▁commiss
▁adul
▁nontoxic
▁preventing
▁surgeon
4,5-
▁77%
▁hsp
▁adaptive
▁malignant
tens
ycin
ieties
▁lining
▁plas
▁hypothermia
▁diagnosis
-20%
▁granulomas
▁natriuretic
effective
▁randomized
floxacin
▁0.44
ometri
▁nigra
▁ventil
▁ECG
ameter
▁anatomy
▁appropriately
▁selectivity
relations
▁0.04
▁muM
ovascular
▁infec
▁unequ
▁vagotomy
isopropyl
/12
▁dissemin
▁investigated
▁tetrodotoxin
▁haplotypes
-1,
▁sampled
aints
thmic
▁4)
▁hepatocytes
arous
▁antral
▁concentrated
▁remission
obal
▁influencing
8).
▁antitumor
▁IgE
▁structured
▁eosin
▁confirms
xate
▁colony
▁synthetase
▁hypoxic
▁intrav
▁cooper
▁guinea
▁uniquely
▁Sprague
▁brains
▁lethal
▁intran
reatine
▁Diff
ardia
▁Ventricular
▁poli
-(1
▁cytoskeletal
(+)
▁(0.6
▁resection
▁molar
▁celiac
▁cochle
▁pA
Hodgkin
▁nasopharyngeal
onucl
tussis
sulf
opyr
80
000.
▁physician
▁(1.3
▁moderate
▁mature
▁40,000
▁Mn
▁AML
▁gamma
▁3,
▁bonds
tilis
mobil
fed
arean
▁analytical
▁envelope
iated
20
triphosphate
ication
▁transfusion
▁SCC
▁bactericidal
▁cytotox
CRF
▁suppressor
respective
▁supplemented
9-
atidyle
▁angiotensin
▁determination
ypical
▁84
▁Immuno
▁valvular
▁indicative
▁hypoxia
▁assessment
ygous
▁pI
▁neurological
▁fatigue
▁68%
▁augmented
▁histone
▁trophob
▁hypertension
otroph
ashing
▁NH
▁Gs
valence
responding
-6.
▁mellitus
▁Chrom
▁hydrolase
▁detecting
stimulated
itonin
▁insertion
▁hypothetical
▁malign
▁cen
▁circadian
5).
Pen
▁0.47
amicin
rease
▁modest
shaped
▁cyst
▁0.56
nutrition
▁autoantibody
▁ovarian
roin
▁PLP
pendent
▁carcinogen
molecular
ffer
▁biosynthe
2]
▁pacing
▁20-
▁pS
▁lymphomas
▁exchanger
▁torsion
gth
▁39%
▁chym
▁ventilator
▁afferents
▁ventricular
▁dose
▁sensi
otoxic
▁describ
itr
ogl
▁topical
▁systolic
albuminuria
▁63
tries
▁antero
▁hyperpolar
▁amplification
acil
▁Trp
enic
▁RR
▁GV
▁(60
▁thromboxane
▁depr
▁embryonic
▁isolate
▁(75%)
▁spinal
▁mononuclear
0.3
▁hospitalization
▁disseminated
▁maximally
RR
.0%
▁sulf
odal
uestion
-1)
odic
▁bronchoconstric
-5,
▁overex
▁outbreak
ancre
▁jaundice
ophy
▁virtually
4),
▁parenteral
▁influx
ipheral
▁prospective
ffeine
oreceptors
▁nocturnal
▁reproducible
▁spermatozo
▁oxidase
▁Findings
▁gels
▁8.5
▁adenoma
▁macrom
▁juven
▁effec
esarean
▁compe
▁ammonium
▁88
▁lesion
▁4,
enem
▁proteases
idne
▁dyn
▁(95%
tivation
▁lumen
oes
▁[3
methionine
▁vein
▁ducts
omers
▁hypothalamus
idic
▁testicular
cemic
rief
▁mRNAs
▁fluctu
▁Morph
.7%)
ylyl
ymp
▁3'-
▁mmol
▁monoamine
▁sedation
▁neonates
ATP
▁epicardial
▁sequencing
▁restraint
▁9-
▁junctional
rectomy
▁tubercle
▁mEq
▁schizophrenia
requency
▁participate
▁accurately
▁prevalent
▁splenectomy
▁pregnancies
▁ml
▁influences
▁RT
▁PHA
▁7
▁tetracycline
▁nonsignificant
▁polymer
NAc
sequent
10)
tenti
▁Insulin
odop
▁loos
itro
▁prednisolone
▁viscosity
▁segreg
▁sinusoidal
rophy
▁intra
▁spont
▁substrates
gulation
▁paroxys
ylchol
▁apoB
-36
▁nerve
colem
▁methyl
▁vesicles
▁sphincter
▁cigaret
▁leukemic
▁CSF
▁22%
nRH
oracic
▁Ringer
▁mL
▁hypothalamic
5%,
kDa
irubin
▁sciatic
vaccin
▁AFP
▁adhe
▁mutagen
▁195
fected
▁2.5%
▁drainage
▁pathogenic
▁transferrin
▁anomaly
▁intake
xime
▁relapses
▁discrimin
▁binds
aturity
▁amyl
▁vincristine
directed
▁unde
▁subcl
▁unaffected
18,
rowing
3)
orsal
erin
restricted
igenic
▁summarized
▁nonspecific
▁atropine
▁arginine
▁genomic
dimethyl
▁codon
▁catecholamines
▁fistula
tene
phor
▁viable
loxacin
density
▁NADPH
▁evidenced
▁.01)
▁aimed
ifferen
tenosis
deple
▁clones
▁cocaine
▁VLDL
▁prenatal
▁Candida
▁maturity
ocarcin
▁(500
threatening
▁rigid
inoc
usp
olesterolemic
▁labelled
▁acidification
▁intram
▁gonadotrop
▁keratin
▁aromatic
▁uter
uresis
-4-
▁subc
atine
▁contiguous
▁elas
nithine
3%)
▁recurred
▁antich
▁blin
▁subcutaneous
illary
tee
overed
▁OA
leu
onad
▁97%
▁granulosa
risk
▁MAbs
▁agon
▁rods
nitros
▁atm
aneously
▁confirmation
▁crom
tigu
▁carbamazepine
18)
▁heavier
▁intercal
▁(33
▁radiographs
▁anhydr
usal
▁aryl
43
▁labeled
astatin
enters
▁potency
inamide
▁multicenter
▁adhered
▁FGF
ylated
▁absorbed
▁PEG
hyp
▁MHC
▁GFR
▁cervix
otropic
▁hemodynamic
▁endo
▁pineal
▁cholesterol
▁(100
▁preven
▁bFGF
▁dial
▁malformations
▁900
plemented
orable
▁autosomal
yron
▁seizure
▁lyso
Gl
▁plasm
▁atyp
▁leukocyte
urea
▁Prol
▁phage
▁normo
ococcus
rati
.00
▁ppm
▁altering
▁incis
urations
hydroxy
▁saturation
▁12.5
▁spor
ulous
25
▁hydroly
yrene
▁0.40
osyl
▁addic
occal
▁blunted
▁Physical
72
▁statistically
olved
▁55%
concentration
farin
▁MBP
▁rhabdomy
▁plastic
▁weaker
▁+/-
esium
▁kinase
▁Experim
azep
▁irrespective
6.
▁sut
▁BM
quine
▁extre
▁remn
▁carbachol
78
▁Twelve
▁reinforce
okinase
▁chromaffin
▁ech
omat
oglobin
▁competence
thmias
▁tightly
▁pharm
cortisone
▁guan
▁kcal
▁inflation
lytic
▁Cancer
▁Strep
▁concomitantly
▁caud
▁HPV
▁Ala
▁determinant
▁nec
-30
▁defec
▁diastolic
▁AMI
▁concordance
▁interacts
▁prolif
▁epidemic
MN
▁incubated
▁ventilated
▁Positive
▁incidence
rocyte
-2,
▁insensitive
▁Reduction
ifferentiated
ografts
▁migrated
▁cited
glutinin
▁irradiation
▁developmental
▁aberrant
▁LV
sulfate
porting
▁pathophy
▁transiently
▁haemat
6),
▁metoprolol
yroid
ported
arone
▁symptomatic
iciency
▁specimens
▁0.48
▁catalase
amyl
▁endothelin
actam
▁depolar
ceptions
esides
▁enanti
romedial
▁bulb
ulin
▁Subsequently
lamy
▁Various
▁wors
▁(20
oate
iflu
▁sampl
▁arom
▁differentially
▁27%
▁pneum
versely
▁transcript
uretic
▁internalization
ionyl
▁secretion
▁perceived
▁ingestion
▁tertiary
▁Coronary
▁organism
agonists
▁lasting
imetidine
IGF
leuk
▁hygi
ystokinin
yridine
▁BSA
oluble
▁contractility
▁2-
▁340
▁atopic
▁rhinitis
▁NT
ogenetic
▁increments
▁cochlear
▁proteoglyc
▁(99
▁ferrous
viruses
aptic
▁aggregation
▁excitation
▁stenosis
Mg
▁interneurons
▁microscope
ropath
▁incomp
▁chloride
▁90%.
▁Acad
▁sinus
erule
adders
▁antioxid
▁depended
▁cytoplasm
▁capillary
▁cerebral
▁phleb
▁agglutination
ulitis
▁levodopa
▁thyroxine
▁0.23
▁regenerating
azem
aid
▁GABA
disciplinary
▁109
▁Hear
▁emphasis
▁glutaraldehyde
▁strepto
▁antagonist
▁motoneurons
▁adjus
▁captopril
▁microliters
▁sulfate
titu
▁67
ventilation
▁PG
▁qualitative
▁isop
▁cellulose
gely
▁(6
▁mediated
phasic
▁confined
▁cholec
tle
ospasm
▁surviving
▁quantitated
▁bacterio
opause
▁progenitors
sions
chol
▁000
▁resembled
▁wedge
▁infusions
▁prostacyclin
▁Surgery
▁48-
▁climb
▁0
agittal
▁1-3
▁retinal
affin
▁diuresis
▁dys
▁-6
▁lenses
▁atr
▁postmortem
▁yielded
▁aqueous
▁Myocardial
▁HR
▁exchan
irub
dehyde
▁3-
sial
cephal
▁11.8
▁resec
▁expec
+,
▁quiescent
athe
atoid
▁glandular
phosphorylation
oderm
opril
▁remod
atology
hydroxyphenyl
▁fibers
▁phosphor
▁excretory
adrenergic
minis
onine
▁shear
acr
▁epilep
▁nosocomial
▁schem
▁10%,
▁transpos
operative
9),
erox
▁benzodiaz
▁granul
▁12.
▁bladder
iline
ller
▁caloric
isomerase
opramide
fate
▁cytochalasin
tiv
▁blockade
▁4
▁preterm
▁pelvic
▁relaxant
▁Epid
omegaly
▁devoid
tails
esophageal
▁4.7
▁anoxic
▁assessing
acids
▁5.9
▁Lipid
▁fluc
.4%)
▁correlating
▁eukaryotic
ACTH
eptides
▁exons
▁thems
▁oxygen
▁initiated
tivities
▁bony
▁solvent
5;
▁ultras
▁0.10
3-
▁vertebr
▁peripher
▁quinine
1.
▁averaging
▁loci
▁solubility
amn
duce
▁ether
▁acoustic
▁vigorous
▁capillaries
agonist
urons
ostatic
▁hazard
notic
▁progressed
ureth
▁microgram
▁50-
▁brush
▁strokes
▁endoscop
sA
orrhea
▁illnesses
▁tachyc
▁atrophy
▁diet
▁thoracic
▁Patient
olecular
▁wean
0.6
.0
▁structurally
▁ammonia
▁justif
▁nucleotide
amate
illin
▁idiopathic
▁insurance
▁acyclovir
▁traum
▁lipids
▁differed
▁Likewise
educed
▁Respon
▁glycos
olesterole
▁344
▁exten
rosy
▁cerebellar
iodothyronine
▁hypo
▁1.6
▁Tum
uin
▁CN
▁sustained
omized
athyroid
▁Comparing
CAP
yroxine
erge
omatosis
▁medications
▁(1.6
▁elong
tase
▁usefulness
▁outward
antial
▁orally
carotene
▁diabetics
▁perit
▁microv
roitin
▁globin
▁dichroism
membrane
▁hyperthermia
bumin
▁surviv
early
▁rhe
▁neuronal
▁coval
▁postin
ustif
▁prosthetic
▁FE
hene
sy
▁multiv
▁renal
▁0.80
olesterolemia
inhib
enkephalin
aortic
▁DD
▁laminae
siological
▁Survival
▁puncture
▁anastom
xual
▁condens
40
alas
▁Scatchard
▁albumin
+.
partum
anin
othreitol
▁10-
epti
▁AO
myristate
▁pertussis
▁11-
eeding
tizing
▁21-
▁mono
▁fixation
-8-
▁PI
.0,
▁relap
nucleotide
jun
▁bioassay
▁prevalence
uity
▁substantially
carb
▁outs
▁Rb
ochrom
▁cloned
▁diabetes
entral
▁carotid
tochem
▁49%
osine
chlo
rologic
▁sediment
▁capsules
▁phosphorylase
▁substances
renol
▁Obs
▁carbam
ucl
▁surf
▁oscillations
▁mitogen
ealand
opulmonary
etidine
▁epidermal
▁predicting
▁cumulative
▁livers
▁GRF
▁grades
▁exce
▁metabolized
▁chymotrypsin
imidine
crist
athioprine
▁conformation
▁198
▁jejun
▁ae
▁toxic
▁tolerability
▁disorder
▁clotting
▁0.21
▁34
tension
▁cyclospor
▁thymus
▁MRI
▁oligonucle
▁hemolytic
tages
GH
apeu
▁cleaved
▁cadmium
▁inhal
▁induce
▁hyperp
▁immunologic
abain
▁HC
▁mesangial
▁measuring
deoxy
▁11.0
▁GLUT
▁forsk
▁neutropenia
athetic
bular
▁attained
▁transloc
▁phenylephrine
mRNA
▁120
▁triti
▁amitriptyline
thirds
▁athe
▁allergic
▁stimulating
▁meningitis
perfusion
takes
▁inspiratory
▁parenchyma
▁Atrial
▁bilaterally
▁193
NMDA
▁5.0
▁hap
▁monophosphate
▁mitosis
▁serine
▁ventric
▁virulent
▁.000
sive
▁lor
orepinephrine
▁Sixteen
▁psychological
induced
▁arter
▁irrigation
▁downstream
openia
▁dopamine
rostaglandin
▁discrepancy
▁tuberculosis
▁necro
▁GVHD
taining
herol
▁tricuspid
▁cocul
▁31
dil
▁0.34
▁fetus
ectin
▁tablet
▁ligand
▁occupational
pharose
uran
▁guanylate
▁psycho
▁11.2
ubertal
gesterone
arbox
▁epitope
▁avid
7).
▁ofloxacin
▁scin
▁somatostatin
▁pep
oids
▁deox
omethyl
▁adulthood
icardial
▁meals
▁20,000
ropathy
▁158
▁proce
▁proliferative
-40
▁nif
▁spike
▁inflammation
▁agar
▁ribonucle
▁ND
-1.0
▁tach
dC
▁Patients
tical
entile
PEG
▁endot
▁nausea
▁10.5
loride
imentin
diol
▁signaling
razosin
ilic
▁weighted
▁cef
-29
otypes
▁bull
▁fibrous
aned
▁heal
onate
▁zymosan
7%
bodies
▁contraceptive
blocker
▁RNase
terminus
▁dams
▁prevented
tory
injection
▁elevations
▁fibros
▁pooled
obutyl
▁HLA
▁cyclase
▁glycogen
tine
▁departments
▁endometrial
▁114
▁blotting
▁LFA
▁eosinophil
▁haemodynamic
Hb
3]
Ra
▁protocols
aldosterone
▁modulation
plic
▁necrosis
▁neuropathy
▁compartment
▁chick
▁lysosomes
▁HL
▁33
▁OT
-4.
▁GS
▁nitric
▁diagnosing
iatric
▁opioid
▁glucocortic
▁transcribed
▁proliferating
▁gangl
▁40
▁30%,
▁spi
oxicillin
▁ket
▁111
▁organisms
utyric
▁1989,
enec
▁shortening
▁biologically
▁ethnic
▁30-
sAg
▁hypotension
▁65%
itoneally
▁concom
zation
monstr
▁meaningful
-4)
▁agarose
operated
uridine
▁7)
▁heparin
▁awa
▁600
▁(5)
▁lactating
▁indomethacin
▁genotype
▁premature
▁airways
phylaxis
7),
▁quantitation
insulin
weighted
▁postoperative
▁intrac
ectomy
▁lithium
▁carbohydrate
▁(0.9
▁Serum
▁Growth
▁reciprocal
▁MIC
▁neo
▁Differen
▁autoimmune
▁mannitol
hydroxylase
▁malignancies
▁fiber
▁KCl
▁extensively
▁alterations
anic
▁irrever
▁osmotic
▁colonies
uanti
▁dors
▁LTC
▁rIL
▁dysp
ucose
▁0.70
▁biological
plicated
▁predomin
▁6)
▁synapt
-32
▁tamoxifen
omiting
▁mutant
lamp
▁20)
stro
entical
▁paraffin
tein
3%
▁anatomic
itol
▁untreated
enriched
till
▁bones
▁apex
▁myofibr
▁reflec
arb
▁acquisition
▁deposition
competitive
▁adoles
graphy
amol
▁susceptibility
0%
anding
▁ischemia
▁(13
HCV
▁intimal
▁cGMP
▁somatosensory
inase
▁spati
prol
tochemistry
▁twitch
glycer
idin
▁adrenal
inescence
tionally
luded
ulatory
ressed
▁amputation
▁cirrhosis
▁endotracheal
▁degenerative
phosphate
▁multin
▁lacked
endri
▁EDTA
▁acetyl
▁elic
▁immunoglobulin
▁anions
osomal
▁prolactin
▁couns
anavalin
itus
▁Thirteen
▁syncope
▁employment
▁Acute
uracil
NM
▁interv
▁sperm
▁(25
olic
▁bronchitis
▁Sodium
0.1
▁dendritic
▁sexually
▁indo
angl
▁cimetidine
▁filtration
▁19%
robial
▁gradients
0%),
▁consciousness
▁Thy
lude
-8
▁inhibitory
orac
▁infil
▁HIV
▁casein
▁130
▁illumin
▁atten
▁palsy
trol
▁positivity
tinguish
▁follicles
▁regulator
▁antibodies
▁Acet
▁aggressive
▁10,000
▁nutrition
▁(67
▁innervated
▁hemoglobin
▁nutritional
ithromycin
ophil
▁drops
▁eccentric
▁aspartate
▁insulin
▁diffuse
▁predictive
sectional
▁analgesia
umbens
activated
▁arterio
-2.0
istribution
▁respiration
▁placebo
▁purified
glucuron
▁Chlamydia
▁0.29
▁dextran
▁microsp
▁Glu
▁atrium
▁intest
▁AII
▁exhibit
▁acute
▁alternating
imurium
▁degradation
rinary
ylate
▁polyethylene
▁chicken
▁threefold
enal
7-
▁leth
▁secretagogues
▁Exercise
▁presynaptic
▁encephal
▁tolerance
pregn
cholic
imens
▁adolescent
▁CHO
▁saline
▁intrad
▁translational
ulae
▁radiologic
▁15%
▁homeostasis
▁thorac
oreal
▁82
reactivity
▁elastase
▁stu
GI
▁Tc
▁18%
rague
▁pulsatile
vular
rowth
▁7,
endocrine
▁exhaus
nine
▁autop
▁MAP
▁hepatoma
▁asymme
▁thymic
frequency
▁HRP
▁deoxy
▁consis
sess
▁3
▁plasma
▁14
▁accel
GlcNAc
▁goiter
▁organic
itriptyline
otides
▁DEAE
▁parental
▁differentiated
▁standardi
▁gastro
tially
▁verapamil
ygo
▁supernatant
gnetic
▁autocrine
ometh
200
yrosine
▁cobal
▁DH
▁retin
welling
▁bathing
▁noninvasive
zyme
▁hCG
▁saphenous
▁cyt
▁intraocular
▁ciliary
▁fracture
▁marrow
prisingly
▁1.5
▁dosage
adrenoceptors
5,
titution
edding
▁17
pread
coun
▁60-
▁100
▁demands
▁Meas
ituit
▁6.
▁statis
uccin
▁retinoic
opes
▁currents
▁Platelet
tig
endorphin
▁oriented
▁81%
▁PKC
uron
▁1
trum
▁intrauterine
acylglycerol
trodotoxin
▁admissions
▁parotid
mL
▁Kinetic
▁excl
▁alcoh
▁synergistic
▁10(7)
▁prescribed
(2+)-
▁dib
▁systematically
▁enhanced
▁valpro
▁gynec
ucleotide
▁40.
vival
▁primate
▁300
acerb
▁serotypes
▁reversed
▁blinded
SDS
▁apical
▁musc
plastic
muscle
000,
▁immunode
converting
▁kilobases
▁seques
-400
acyl
apo
mTc
▁reconstruction
mented
▁Estim
▁67%
▁aneurysms
mercap
▁latex
▁immunosuppres
▁bif
tility
▁immunologically
4%
▁clonal
▁basement
enoic
▁potent
▁hereditary
being
▁colliculus
▁quinidine
▁Lyt
▁pore
IIIa
▁exclusively
▁swelling
▁shif
▁chlorpromazine
ophore
▁immunoblot
▁rota
silon
osidase
▁Disease
eces
▁cytochrome
▁supplementation
▁plac
▁fibroblast
ectomized
▁hemodialysis
▁idi
gated
▁postulated
ainide
bacco
▁Accordingly
▁duplex
▁uremic
▁0.0001)
▁attain
▁lambs
uscular
▁PB
▁MV
▁250
▁therapies
▁sulph
▁[35
cture
▁gly
▁seronegative
▁posttrans
▁inactivated
▁ulnar
▁(4-
turition
▁physiological
▁hippocampus
▁decreased
▁polyp
divid
▁inability
obase
▁aeruginosa
physiologic
▁cirrhotic
▁wheat
▁66
▁TRH
▁intolerance
▁Ia
igand
cholate
▁micros
tyl
▁94
▁tolerated
▁200
▁condensed
▁carc
▁ultrastructural
▁inotropic
▁actinomycin
▁(1.0
▁exhibiting
▁causal
infection
▁cyto
▁denatured
cycl
▁fractures
▁sple
▁140
▁suckling
▁DNase
▁chloramphenicol
▁evaluable
▁microbi
▁cigarette
▁abundance
▁feasible
▁foods
-6)
cyclo
▁exon
▁suspected
▁perfusion
initi
▁leukotri
▁strep
▁kallikrein
▁aspir
versity
andida
truction
▁0.005).
▁enlar
▁HBV
▁9%
▁69
▁Pseudomonas
▁adminis
hepatic
▁continuing
▁tetrac
olus
oside
inephrine
▁laboratory
GF
▁hypers
phosphatase
70
▁dialys
tively
aspartate
▁MH
▁biliary
▁adducts
ylase
tillation
▁definitive
▁antagonists
illus
▁Inhib
ayed
mong
▁nerves
▁eluc
▁analges
▁macromolecules
▁regeneration
promazine
▁mediate
▁nons
▁saphen
estrogen
▁circumference
ivacaine
teral
▁(+)-
▁pump
▁constr
▁smear
asses
▁latency
12.
ymptom
▁thymidine
39
▁ranging
▁sten
▁mucosal
ophylline
▁autologous
tative
▁CAT
plen
▁Plate
deficient
kelet
peak
▁medication
▁coagulation
▁dialysis
▁80-
▁unilateral
esin
▁theta
▁synapses
ffinity
▁acetaminophen
DNA
▁inorganic
▁attributable
▁euthyroid
▁fum
▁acad
▁permeability
▁alkal
▁salvage
▁transplantation
▁socio
▁76%
▁furosemide
▁thyroid
kD
▁Sensitivity
▁canc
nary
▁trich
ritis
▁flexor
▁paired
▁70-
▁ectopic
▁0.13
▁weigh
▁homoz
▁Staphyloc
▁histologic
▁persistently
ELISA
ecan
▁elimination
▁heteroz
▁refr
amid
▁Saccharomyces
-0.
▁0.60
▁(7
▁39
▁persists
▁Systolic
▁lymphoid
ullary
ensitization
▁bursts
▁sulfoxide
▁DT
crimin
oice
acement
▁fertile
▁(23
tensin
atoxin
▁amyloid
HIAA
▁anomal
coated
▁bup
▁ankle
▁catheter
▁intestine
▁Functional
enil
▁thrombolytic
▁rostral
▁31%
▁hyperglycemia
lasses
+]
▁Concentr
▁PRL
▁infarct
azepine
▁atria
▁serologic
-13-
2+.
CoA
▁phosphorylated
asal
▁challen
FU
ervo
▁grains
▁1:
rometer
▁dispersed
▁elevate
dL
▁47%
▁antimic
▁stret
▁compete
▁mast
▁lectins
containing
titute
▁bab
▁intraperitoneal
▁consistency
magglutinin
kely
▁57%
▁87
stress
▁amput
Ts
▁2.5-
▁2000
▁scanning
▁herpes
▁thrombo
itoneal
▁chromatographic
▁eluted
▁LDH
tif
kinase
ovulatory
cyst
▁proportions
▁9.7
▁confounding
▁cyclosporin
▁excluding
acts
▁enl
▁lysozyme
▁oncogene
▁autoradi
▁restenosis
71
▁compound
▁inh
secreting
▁GDP
.9%
ecu
▁estrogens
▁wrist
▁accounting
▁encouraging
▁20
idazole
▁hypokal
▁complexes
▁stimul
▁schedules
▁hyperplasia
▁3.6
▁mesenteric
regulated
ogenously
▁vomiting
▁cured
ranial
▁intermediates
ecre
▁elicited
▁exposures
▁cytology
CBF
osclerosis
▁doxorubicin
▁untrained
redoxin
▁likelihood
▁rRNA
adenosine
udin
▁MT
illation
piratory
▁isoforms
▁recombinant
▁Scale
▁mutated
▁plaque
▁conclusions
atching
▁Effects
▁-1
▁transcriptional
▁immunosorbent
▁Nine
▁polyc
▁lamb
▁impulse
▁intrap
▁collagen
phila
abdominal
obenz
▁operon
▁influenzae
kets
thym
▁toxin
▁75
▁prostatic
zard
2(+)-
▁(2
▁correlated
▁sedim
tract
▁allergy
tructive
▁pressor
activating
sus
▁GTP
▁therap
▁hams
aryn
odynamic
▁cyclo
▁infectious
▁oxytocin
entgen
▁paras
▁(35
▁referral
acid
ologists
▁resis
erver
obarb
▁antibiotics
▁reliability
▁eating
eclamp
adone
▁calcitonin
▁134
oil
▁neonatal
unctional
▁Clinic
HCO
▁(5-
▁offspring
piration
▁insuff
▁52%
▁TMP
▁techniqu
▁overweight
ritish
▁infar
olution
▁sequentially
otrexate
▁intercourse
▁43
▁2.1
▁aerob
▁puls
▁tuber
▁reproduc
▁washout
▁conductance
▁dete
▁Stimulation
ylephrine
olec
psin
▁11.
▁dysplasia
amethasone
▁isotope
▁conjugate
▁adop
▁injur
sts
▁toge
▁implying
hydrox
▁anticoag
units
oreceptor
▁adsorption
olet
▁liver
▁lifest
▁affec
rostened
ographically
toli
▁xanthine
▁struc
sorbed
▁neurotrans
▁Prel
hemagglutinin
▁promin
operidol
▁increasingly
▁testis
▁considerably
▁biosynthetic
▁atenolol
▁immuno
cysteine
▁amniotic
toc
▁stimulated
conjug
▁ileal
▁occasional
uvate
▁0.0
ducts
1),
nitro
tinu
rous
▁introducing
▁elderly
bred
▁uncontrolled
▁spectro
benz
▁(3
▁reabsorption
atase
glucose
independent
emic
semin
aired
thio
-15
▁exud
77
amphetamine
▁ICAM
▁1)
▁lidocaine
▁dihydro
▁bradycardia
attern
▁(54
uronium
intestinal
▁disrup
▁bypass
▁73%
▁carcinoma
▁aging
▁(29
▁Conversely
cyt
▁modeling
▁(4
▁muta
▁immunod
/9
▁lymph
▁defects
ritin
▁(72
▁anatomical
▁cortical
cents
ocusing
oinositi
▁vasodilator
▁bladders
▁oes
ifug
▁restr
labelled
▁radiolab
▁panic
▁intub
sensitive
etent
▁neutralizing
ocardi
▁recru
mend
▁73
55
▁5.7
▁cytologic
▁upstream
▁mim
▁feasibility
NH
▁Fourteen
olipid
▁irr
turnal
rates
▁sequel
▁facilit
assium
▁murine
▁analgesic
-300
xyl
▁PMN
▁glycolytic
growth
▁tooth
▁deletion
▁Registry
xia
▁0.02
▁transpor
avage
ropo
▁Interestingly
▁dendri
▁LAK
▁GD
uodenal
▁estradiol
▁Hb
▁vasculature
▁endogenous
establ
nucle
▁lysine
▁neoplasms
▁25
▁wake
ifers
7,000
ulmonary
▁persisted
▁arrhythmia
