▁hydroly
titution
▁selective
isal
▁280
▁65
▁preincubation
▁provid
keletal
▁mucosal
▁luteinizing
▁reliably
idine
aemia
rometer
▁reag
adenosine
▁4.7
ayers
▁kine
▁biological
▁molar
▁uncl
operatively
▁prednisolone
entified
▁fric
▁phentolamine
▁ascites
▁neuroblastoma
propanol
▁68%
atid
iably
Nase
▁suicide
▁doubling
ochromatosis
icidal
▁diz
idney
erally
▁messenger
▁inducible
▁273
serine
ameter
▁vena
▁Basal
▁unfractionated
▁thyrotropin
▁preferentially
▁metastasis
▁postprandial
crist
ococcal
▁Fifty
▁deter
▁avian
▁paired
▁hypophys
▁adenomas
▁euthyroid
RNA
▁GSH
RD
▁monomeric
rostaglandin
▁schiz
▁Differences
▁internists
▁ureth
otent
▁isotope
▁excre
lastic
79
kephalin
▁phenotypic
trating
▁relie
▁Experimental
▁irrever
▁mitogen
natal
▁malignancy
fetoprotein
▁NADH
▁proteinase
tence
▁exten
▁nicot
oung
▁adherent
▁Bec
▁sediment
▁8.5,
▁grafts
lamydia
▁triceps
ymmetric
▁beef
▁thereafter
osacral
▁weighted
alas
apeptide
erad
▁21.
▁thromboemb
▁lymph
IU
▁unpredictable
▁seques
▁regurg
▁isoniazid
▁1.30
▁cosmetic
▁developmental
▁Meth
▁thymidine
▁CsA
▁persistently
iclovir
▁laparoscopy
oacetic
▁dyn
odies
epines
▁1200
▁aggressive
diagnosed
moking
▁hematopoietic
asone
▁incid
▁Prospective
▁ultras
olones
pran
▁94%
▁hyperplasia
▁blister
▁preven
▁vasoconstric
▁contributing
essation
▁pharyng
ometh
▁Pertussis
▁alleviate
▁vagal
▁normals
▁kinase
▁thrombo
▁1000,
1.
ximum
450
▁Hear
▁nm
acquired
▁arachidonic
▁0.05,
▁estrogens
▁RF
▁weakened
obl
▁0.00
tained
clinical
amole
quam
▁arterial
▁Tric
▁tumors
▁electroph
▁1
itoneal
FGF
ymptom
induc
▁kinetics
▁viable
▁psittaci
▁hippocamp
▁antisecretory
▁PPV
-0.0
▁6.8
▁0.9%
▁acquisition
▁desensitization
ighteen
onography
▁derm
▁absorp
▁1.4%
▁tau
▁inad
orbent
▁facet
▁challenges
piper
tious
▁1.44
gement
▁substantia
▁functionally
▁specificity
▁RU
gm
▁levonorgestrel
▁phospholip
▁5%.
tonic
▁probe
▁1.04
▁synthesized
▁Cd
loride
icillin
fine
5%,
/1000
▁panic
▁superf
tak
▁endothelium
prol
enzymes
▁therapies
▁undetermined
▁inhal
nucle
25
-2.5
roscopically
▁cere
▁7.6
▁increas
▁cytolytic
▁0.65
22,
ymal
iated
alact
9),
amuscular
-4.
roxicam
vedilol
▁surveyed
▁(1.25
▁VP
▁pathological
95
▁diuretic
▁chor
▁(47
▁50,
▁recalled
▁propranolol
▁TCR
41
▁exceptionally
▁mastoid
▁aneurys
▁rostr
meth
enoic
▁remed
ohyd
▁shorten
▁1988,
▁assessing
▁nonspecific
▁exce
▁resuscitation
olesterol
5;
▁latex
▁Tes
▁hyal
biotic
▁Acet
▁phospholipase
odic
▁distor
▁cranial
/10(
▁Estimates
▁Electro
▁asymp
▁amplitudes
▁nebul
erating
sA
▁-15
bloc
▁lutein
▁insurance
ostr
adenoma
inoc
▁Infants
61
▁frog
▁(+)-
▁cochle
▁hormone
▁PAP
▁leukocytes
▁1.00
abec
▁1.2,
▁dehydration
▁HIV
▁detrimental
azem
▁crystal
▁parathyroid
progestin
tors
▁interc
tized
▁enroll
▁arousal
▁bulb
▁WHO
venous
itre
entif
-9)
▁18%
▁99%
▁hormonal
▁discontinuing
▁amphetamine
▁psychomotor
▁Conventional
▁93%
▁tyrosine
▁observational
40.
▁diabetic
▁8.3%
▁residue
▁crossover
▁conjunction
▁(15%)
▁4;
atite
▁edema
▁genital
▁promin
▁(10
▁exhibiting
2]
▁GMP
▁Mini
▁ey
▁NP
▁altered
▁immun
nthe
▁tryptic
onine
▁52%,
▁0.58
amilies
▁ACh
7%
▁bronchospasm
amet
▁differed
carbohydrate
▁infection
▁diversity
▁fulf
usive
utin
inely
cyte
▁Cul
▁capability
opoiesis
▁2.3
▁determining
▁amide
▁(5.0
▁monomer
▁precursors
▁tumours
cemia
thma
▁naloxone
IDDM
▁collagen
▁Chang
bacco
pyruvate
▁intra
▁FD
itidine
▁transmitted
▁Localization
▁homogeneity
IgM
rae
▁investigators
▁allergens
▁inhibition
▁reconstitution
tomies
▁demonstrable
-96
▁pim
▁analges
▁descending
▁17.1
▁10.2
▁renders
yrate
▁Hz
acycl
▁0.005).
oblast
▁pyram
▁skeletal
ionine
vaccin
▁hepatotoxic
▁pathologic
onide
▁routinely
▁Exercise
▁lacked
utaneously
▁phyto
▁cleavage
endorphin
▁anesthetized
▁acetylcholine
▁antipsych
▁sensitivities
enteric
ulmonary
▁heel
▁indoor
▁strategies
tance
▁statistically
omyces
▁intermediates
▁preceded
▁zinc
ducible
▁gangl
opha
▁microsp
▁excluded
▁aro
minal
▁gonococcal
▁peroxis
▁vascular
▁cardiomegaly
▁restric
timal
▁mitig
omegalovirus
▁hep
glutamate
Cu
▁infected
▁mutagenic
▁cooper
▁contraception
▁bacteremia
rachial
▁268
200
▁1-2
▁pharmacists
▁Combination
▁69%
▁0.9
▁transthoracic
▁Cycl
▁wound
▁Intra
▁maternal
▁1.17
formerly
▁perit
▁5,
▁normotensive
▁striatal
ocar
lamp
▁5%,
▁(72%)
▁beats
▁thromboembolic
-20%
▁mutagen
GTP
▁awareness
00,
▁itching
▁elicits
organic
arbox
▁57
▁psoriasis
reactivity
itoring
physiologic
▁availability
▁(78%)
odular
retro
▁virtually
▁discre
▁disper
roat
osensory
heximide
facturing
ogenous
▁lumbosacral
▁VH
▁remod
icardi
romised
▁carcinogenesis
▁5.5%
▁correspon
▁0.05).
▁accel
4-2
▁aerobic
▁9,
14
▁saturation
▁fenoterol
▁direc
233
▁interv
▁catecholamines
tract
▁(80%
▁12,
▁CST
roxen
omain
apeutic
▁rup
▁relaxation
encephal
osamine
▁referrals
illion
2%
▁qualitative
▁Physical
▁vibr
▁atrial
itus
▁abnormally
▁mA
▁lactation
▁classifications
▁caudal
12).
epam
monitoring
tracted
incip
▁inadequ
▁veins
▁tension
tention
ologic
▁plasmids
▁kain
opes
▁25-
▁bleeding
▁46%
▁MIC
▁intim
titut
opre
-6.
▁lobes
▁lipoproteins
▁fructose
graphy
▁316
▁paradox
alb
94
odium
dU
ystatin
▁postinjury
000.
▁BMI
▁COPD
galy
onit
▁BSA
▁fracture
▁prothrombin
ocol
▁Caucas
▁aberrant
oreal
ylephrine
tact
rosophila
▁hyperbil
tured
ecutive
▁medial
opian
▁fibroblasts
▁myrist
exy
▁counseling
▁focal
athyroid
.9
▁quiescent
▁nausea
ectom
opram
▁mediator
tyrosine
▁Geor
▁CK
formin
▁67%,
methionine
exercise
▁biosynthe
ially
idity
arbonate
▁(1).
uppressed
▁teen
▁AGA
▁athle
▁differe
acids
sives
▁66
▁serolog
iological
▁alanine
osage
▁iodide
▁tolerated
▁5.
▁117
▁wean
▁ADR
▁contiguous
▁reactions
▁insec
olus
/7
ominant
omated
ept
▁pyridoxine
▁smo
anadate
▁thallium
indolol
athetic
▁positively
onium
tivities
▁freeze
▁intub
▁275
▁fibrill
▁tet
tisol
oscop
odone
▁rebound
seven
▁9.9
▁lymphocyte
▁bioavailability
icides
▁virtu
ifornia
ypro
▁phenylephrine
▁Prel
▁Intr
▁Responses
ourinary
cysteine
fused
▁(1%
econd
▁uninfected
▁21.2
▁electromy
isomer
▁233
▁physicians
▁favorable
▁(68%)
onin
▁blockers
thanol
itin
▁Changing
tussis
86
▁indefinite
▁pretest
▁209
▁injec
uccess
phrag
havioral
▁8.8
▁molecular
odine
▁oligos
▁(77%)
▁3.7%
▁Abnormal
▁albuminuria
▁hypokalemia
▁retrospectively
▁carbohydrate
anthine
▁jaund
jac
ulin
▁twitch
▁Thin
▁serine
ensory
70
strual
velength
▁sclerotherapy
tic
rox
icated
▁biphasic
▁visualization
spar
silon
▁CGRP
ranged
proven
▁contraceptives
▁prostatic
▁stu
exc
▁unrelated
adone
▁tetrac
ailure
arterial
▁thoracic
▁postnatally
▁Newly
oprost
▁relapses
▁harmful
▁pepsin
▁vagin
▁amitriptyline
coh
12
▁swab
▁VLDL
▁congestion
▁contex
▁spanned
-1
▁metatarsal
▁tape
opause
▁roset
▁58%
phosphorylated
65
▁titration
subunit
Rs
herent
brids
hypertensive
asic
▁puberty
▁defec
PEG
▁PDGF
▁disappearance
▁polymer
teine
orough
titudes
▁Examin
▁outlet
▁hairy
▁alcoholic
▁gemfibrozil
achnoid
ylon
▁40-
▁Leukotriene
▁aerosolized
▁accid
▁Transi
vicular
▁Initi
▁inadvertent
▁symptomatology
erebral
▁surviv
▁locomotor
▁unchanged
▁secretagogues
3-4
▁investigated
agonist
▁alkal
▁apne
▁infancy
roids
▁monocytes
omagnes
▁(3%)
▁purified
▁yiel
▁deletions
▁3.5
▁conductance
oxan
ulose
▁hysterectomy
▁nylon
▁lymphocyt
▁acidification
▁atrophy
virus
▁Exc
▁evid
▁Parameters
▁rabbits
▁optimum
▁fulminant
▁Subjec
osome
▁0.78
onset
▁plotting
ifferentiated
▁intermittent
Pu
▁extremity
▁isomer
▁0.4%
iron
CDC
▁Adh
▁5.6
lycer
-2,
▁atm
▁allergic
▁offspring
▁1.5
diabe
omod
aem
▁phosphatidyl
▁toxins
▁hepatotoxicity
▁pharmacy
▁anxio
▁0.50
▁249
ieties
▁palmit
CHD
▁chloro
▁sheath
▁innerv
otyp
▁GLUT
▁creatine
▁clindamycin
oreg
pyrene
▁Diff
▁85%,
▁8.6
ductive
rography
▁systemic
SOD
9.
casein
IH
▁GA
▁arrhythmia
▁polymorphism
▁doxorubicin
▁dose
▁fulmin
platin
▁thrombocyt
▁genic
▁antiser
orepinephrine
lives
▁4,
riched
▁bronchitis
▁pressor
▁maxillary
▁cholesteryl
▁blunted
▁propensity
▁reass
reased
▁nicotine
▁pant
atriptan
alene
▁8.
osin
▁HLA
prisingly
ller
kinje
▁nitric
▁tomography
erence
▁ADA
▁nmol
▁lec
▁bronchoconstric
lyce
▁6.5%
▁anomaly
▁disadvantage
▁cleft
enteritis
53
▁MCA
▁murmurs
avir
▁reinforce
▁emo
▁clinics
▁myelin
▁1.33
▁neutralization
▁relating
▁positioning
▁10%.
▁regimen
sar
▁kinases
alc
▁Hig
▁circumference
itoneally
▁forsk
6,
▁polycystic
▁crom
▁abdomen
▁DS
▁secrete
tub
tep
deficient
ubertal
▁predictors
▁mec
▁internalization
▁surgically
riages
increased
▁meniscal
▁CNS
▁femoral
▁epicardial
▁puncture
siology
▁categorized
▁Immun
▁chemicals
blocker
ozo
▁homoz
▁simplex
▁Whereas
▁progesterone
PGA
usate
▁parenchym
▁5.8%
pirin
▁superoxide
ticle
9]
▁prolongation
▁labelled
▁71
LPS
▁4-5
▁(62%)
▁establ
▁orthostatic
▁discriminant
▁cortical
▁36
tetra
3+
ulsive
▁0.3
▁surf
uble
rospinal
anad
▁herni
▁staging
▁fractions
▁Subjects
▁treating
▁resting
ubicin
▁bactere
▁initiated
▁Protein
▁8.4
acchar
▁discrimination
iodothyronine
▁gp
▁exceeding
▁rGH
albuminuria
▁depolarizing
▁Rif
▁infra
▁exercising
▁Epid
▁oes
ults
▁dithi
-400
▁debr
ocalization
tents
▁latency
▁influenza
anese
▁journals
otonic
▁synthase
▁lambs
▁0.001)
▁breakthrough
reement
▁Doses
HF
exis
▁sugges
tus
▁emin
▁denti
▁peptid
▁nitrogen
▁concurrently
▁vesicles
▁pools
▁mandibular
▁sple
▁ovine
▁confirmatory
▁discon
ovirus
▁pector
antagon
▁bradykinin
2%)
▁5.3
LISA
▁stimulant
itively
▁possesses
▁covari
▁Evidence
▁dehyd
▁suppressed
▁indi
crip
Tyr
▁11-
▁pefloxacin
vail
▁concanavalin
ifferen
▁graded
▁sacrificed
▁dyspnea
▁45%
▁chloride
iant
17,
▁30.
▁suggestive
▁thorac
▁Thirty
▁cerebrospinal
-2)
▁glucosamine
▁serotoninergic
▁brady
▁replic
ochrom
▁sensitization
▁cigaret
HRP
1.1
▁disturbance
onephritis
▁CHF
▁206
▁quinolones
▁cocaine
▁Combining
▁acin
▁psychopathology
derly
▁muscul
▁gradients
▁rats
11.
▁exons
▁glycosaminoglyc
▁manufacturer
▁3',
-19
▁albumin
▁Oste
▁ibuprofen
▁microliters
▁sarc
▁10(-9)
66
▁contraceptive
hea
RIF
▁asbest
▁angiographic
▁Gynec
▁48-
▁alcoh
▁dendri
ocon
▁viruses
▁immunoreactive
▁ovarian
▁inflammation
▁superv
▁299
▁dendrites
Ki
atinum
▁embry
coup
▁diagnosis
▁utilization
perfusion
▁0.70
▁tibial
▁disabling
prising
▁HSV
▁Screening
▁40%
▁nuclei
▁3.6%
▁(32%)
neonatal
▁-4
▁biotin
▁xanthine
BM
▁immunod
▁fungus
▁augmenting
▁51
imazole
▁psychiat
▁sialic
Phe
ulitis
phosphon
▁autologous
sor
achid
▁constellation
▁Invent
▁diagnoses
▁therapy
▁42%
▁Animals
aminoglyc
SMR
,2
▁quantified
▁caregi
▁hypertrophy
▁physiological
▁sampled
▁cardiac
chemical
▁enrolled
acrine
▁proportions
▁CDDP
▁71%
ikary
▁isometric
▁presenting
▁zym
▁limb
▁bypass
osus
clerosis
bic
3).
▁motif
▁oriented
00
▁41.5
rometry
tative
ionized
ilized
▁cDNA
▁monitored
▁borderline
oposide
aerobic
sities
eclampsia
▁statistic
▁GF
assay
▁Chlamyd
▁GRF
▁14,
5),
ardia
oalveolar
detection
titute
▁peptide
▁herb
EMG
▁Secondary
▁4.2
▁enlar
▁therapists
▁adenocarcin
significant
tia
strand
▁ranged
▁experimentally
dL
▁problematic
▁endoscopically
affec
▁Finnish
▁adenovirus
▁SG
othal
▁ventric
▁FSH
▁Fram
mber
▁.01)
ecal
▁jejun
▁alp
▁docum
▁Bmax
5/
▁posttrans
▁intravascular
▁perox
▁vasoconstrictor
severe
▁8.3
▁resolving
retion
▁asthmatic
zation
kDa
tilis
▁Graves
▁premature
▁(58%)
estern
▁32
orac
otropic
▁neurological
▁genomes
ositive
▁Veter
amisole
▁corpus
▁centr
ovarian
ogenously
▁MDI
▁bolus
▁ionic
▁heifers
▁nebulizer
ochrome
▁Criteria
ocor
▁Significant
tructive
▁carvedilol
▁supine
-198
aturated
▁cerevis
▁Lyme
▁confluent
▁reviewed
▁carp
lodipine
▁Magnetic
▁examin
▁belie
▁histone
▁crystals
ugular
infection
henyl
▁liver
BP
▁predis
▁beha
-1).
▁Viral
adrenoceptors
-20
▁phosphate
oppler
▁gum
15).
▁lactulose
▁0.000
▁kits
▁ultrastruc
▁responded
GlcNAc
▁15.8
▁contractility
▁fused
:1
▁nif
▁1000
▁adop
▁1.2%
tle
▁cystic
ipher
▁180
▁fluoroquin
▁4000
▁morphine
4]
▁contralateral
▁10.5
▁universally
▁ischemia
▁acco
▁modulate
▁methacholine
iceptive
▁implant
conjug
▁adip
.2%)
▁Conversely
esarean
were
▁64
▁attenuating
▁condens
▁ganglia
▁hepatic
▁limiting
▁effusion
▁expectancy
▁Feeding
yel
▁secretagog
▁(19
▁strepto
▁dialysis
▁PEG
▁17%
▁Systematic
▁erythro
▁accidents
▁(82
▁cirrhotic
▁VV
▁RIA
▁Lym
▁UTI
▁physician
▁muta
sych
▁0.97
▁(12.5
▁EST
▁150,
▁(38
PaO
adol
onuclear
rief
▁39%,
pretation
alsy
▁signaling
ecia
▁urticaria
▁somatic
Dawley
▁Incubation
▁1.26
▁ECGs
83
▁Highly
▁justif
▁haplotypes
▁midw
▁KCl
lyl
▁dental
▁adulthood
▁nitro
atibility
▁DMP
itness
▁recipients
▁218
▁clind
▁outbreak
embran
▁contrac
▁mRNAs
▁122
▁alterations
▁oxy
▁laparotomy
adenomas
▁myc
onary
▁erythropo
olestero
▁menstrual
▁Saccharomyces
▁AMI
▁hyste
▁clu
▁ect
▁antihistamines
▁electroly
ercise
nutrition
copic
▁acr
omann
▁1989
▁axons
menopausal
▁heterosexual
imethyl
erose
▁transient
▁(5.1
tality
opathological
▁nitroglycerin
ungal
▁0.04
tening
▁natriuretic
▁laparo
8%)
▁urgent
▁homology
▁Wistar
osidase
atidyle
▁rhythm
risk
eroxide
actin
▁(4
▁6.5
rocal
tability
vein
mostly
disc
▁8.0
▁threonine
▁meal
▁subcutaneous
entric
opathic
▁75-
▁valpro
▁150-
▁2.5-
▁participate
ertion
▁30%
▁occl
▁parie
▁covariates
ogonad
▁helical
vular
muscle
throm
▁intraperitoneal
▁nip
▁prophyl
▁plates
▁reveals
▁CB
lycero
loro
▁answ
▁horm
▁ward
▁17.3
▁Calc
uity
iciencies
▁assay
▁natri
▁4.8%
▁Parents
tidine
icients
amus
▁androgen
LH
▁necrotizing
▁eryth
▁nonp
NSAID
▁3.3
+]
▁ornithine
▁cil
LDL
valvular
vating
azepine
tium
atosis
▁DD
▁FMLP
lym
-1.3
▁1.25
trate
ergic
hemical
▁larvae
▁prematurity
▁macropha
▁pHi
▁eluted
▁intron
▁cran
sored
▁(2%)
afe
▁centrifugation
▁histopath
▁Biopsies
▁heme
inesterase
▁cerv
▁75
physiological
▁mercury
▁needle
▁18.3
▁imaging
105
▁immunos
tential
Bay
▁amniotic
rences
▁accelerated
pressure
▁9.5
rophilic
▁heparin
▁pneumoniae
aned
▁(0%
▁gm
▁viscer
▁inducing
/8
▁absorpti
respectively
▁sarcolem
▁progestogen
amine
▁protective
▁RV
▁elec
▁55-
▁exacerb
ocompatibility
▁pren
▁compromise
tituted
▁0.02).
▁assessments
isolated
96
▁cytotox
▁enlarged
▁eradic
▁regulated
▁bedtime
▁immunore
▁flour
▁apical
-32
incub
cents
ogel
Gly
▁interacted
tran
otopic
-52
deficiency
▁sulfoxide
▁modulated
▁dermatitis
/32
▁conservative
▁symp
ondr
eptic
▁dimer
▁RNase
▁247
▁Dip
▁volunteer
-2.0
retic
eeding
infected
▁aspir
oflurane
▁AH
heal
▁suppos
▁practitioner
▁filament
▁recipient
▁placebo
▁iso
iosis
▁acetonide
▁socioeconomic
▁119
kling
▁Streptococcus
▁meaningful
▁restenosis
▁membrane
7,
▁(4.8
▁carcinomas
▁seroton
▁hydrocortisone
tenti
19.
▁Hypertension
▁intravenously
▁insensitive
▁candidiasis
▁antid
igand
omotor
▁60%.
ographically
glutinin
rolase
▁facial
▁inappropriate
ludes
▁norepinephrine
▁217
▁tobacco
protein
▁3%
▁emergent
▁MEDLINE
phs
retest
▁(10(-6)
▁hemoglobin
▁temperatures
▁82
stolic
▁isolates
iology
onor
▁dissociated
▁unlabeled
▁caud
98
▁800
▁succes
▁homologous
▁elu
▁collecting
▁5.2%
Fc
arachnoid
▁nal
▁scintigraphy
▁analgesics
▁modeling
▁indo
tophan
▁transfusion
eradish
-1.8
▁screened
▁BM
▁NH
▁DMA
uresis
13
▁hapl
▁pars
▁(1,
000)
▁0.91
▁moderate
tinu
acet
▁TCDD
▁physici
▁facilitation
▁expense
▁improving
eptide
sorb
-21
tual
umbers
▁297
▁monophosphate
▁inducer
ficial
jun
▁sucrose
▁granular
▁1.38
▁lymphatic
ulph
▁submuc
▁perinatal
▁synthe
▁interrup
▁airway
obal
5%),
▁43,
▁buc
▁AFP
▁incubations
▁enzymatic
▁cisplatin
▁traction
▁repl
trig
▁intraper
lational
macrophage
▁RAS
▁arb
▁occupational
▁ips
▁polyp
▁hypothe
xone
▁9.0
▁Individual
▁adaptive
▁acuity
▁(72
essive
▁neurologic
ANF
ethyl
▁90.
▁discom
▁compe
▁sphincter
▁infil
▁actuarial
▁tes
abd
48
▁flanking
▁6
▁3;
orubicin
▁therap
▁Addition
▁plaques
urate
ignant
emetic
▁potency
▁rectif
▁gloves
▁deem
▁sepsis
▁0.6
weekly
▁Aspirin
▁estrogen
▁0.82
tin
anine
▁110
▁conjugates
▁integrin
▁enanti
inhib
▁parotid
▁24,
▁polyclonal
▁synergistic
▁Indo
▁GER
seud
▁proton
▁mild
▁HA
amyl
▁respondents
6;
▁gestation
900
▁proliferate
▁ester
▁vaccin
▁14%
elong
▁flas
linded
▁stab
▁(18%)
titutes
inol
▁regained
▁28.
82
-6,
triphosphate
cB
produc
hemolytic
▁isoforms
▁Tum
▁aberrations
igl
▁satisfactory
ulators
▁220
atrop
▁0.05
glutin
abies
toxicity
▁PDE
oblas
▁mAbs
▁0.7,
/1
▁accumulated
▁conduc
▁dehiscence
▁conges
▁Forty
▁pump
▁donor
ucleotide
▁osteoc
ocomial
▁1:1
ulous
CoA
▁sulphate
umbar
▁21,
uates
▁DNAs
▁glyburide
▁Experiments
▁elic
▁insoluble
▁mumol
▁adenoma
yclic
▁200,
tional
tively
▁unde
▁Diagn
▁betamethasone
feeding
invasive
atally
▁transplants
polyacrylamide
▁Comparing
0%.
oxyl
▁(26
▁presentations
▁carbamazepine
▁psoriatic
▁awak
▁multiv
TGF
▁progres
ociated
▁balanced
▁enriched
▁biopsies
▁polys
▁introducing
▁6%,
▁81
siveness
▁ceftriaxone
▁islets
▁bacitracin
SBP
ectable
▁Breast
▁helix
▁swim
▁perikary
▁antiarrhythmic
eptin
▁embryonic
▁controversial
6%)
▁ICU
▁placenta
▁cytoskeletal
▁neurom
▁haplotype
▁rhinitis
▁solvent
BMI
▁modalities
▁lineage
▁traits
▁porcine
▁quinacrine
retin
osides
phthal
▁assis
▁microelectro
▁dete
▁241
thle
glycerol
▁viscosity
azoline
pharmac
enyl
▁DVT
imodipine
▁162
▁phe
▁Injury
▁hams
▁regar
bladder
▁lability
prac
▁exis
cellent
kephal
▁progestin
50
PAF
otomy
▁0.41
▁hindlimb
▁parenteral
▁bouts
stro
▁bFGF
▁oligonucle
▁standardized
early
▁0.24
upus
▁10.0
▁modestly
▁50-
tructed
▁erythrocytes
tur
▁obstruc
▁deple
▁FT
electro
▁subpopulation
▁NT
▁Bacterial
▁shor
ografts
▁Fc
▁87
▁sorbitol
5,000
▁0.56
1.2
aid
▁surviving
▁nulliparous
vaccinated
▁177
▁terat
1:
teryl
sparing
▁dioxide
▁sebaceous
arose
irradi
myr
TNF
▁quanti
▁immunotherapy
ressing
▁13%
▁radiographic
▁platelet
idase
▁chlorhexidine
▁17,
▁needing
▁CMV
▁aided
▁curettage
▁240
▁77%
ithi
▁rickets
rogesterone
▁glycoprotein
▁communications
▁febrile
▁mammalian
amid
▁transloc
▁nutrient
helical
▁platelets
▁larval
▁transcripts
▁venti
▁excit
ylase
tetr
▁biologic
▁glyc
▁glycogen
▁organs
▁sleeping
14,
▁ECG
▁26%
▁parity
▁spindle
▁motility
▁saphen
ocial
▁drain
▁folate
▁suppression
▁pyl
▁interventions
nucleotide
tering
containing
aluation
▁bronchoscopy
enon
▁decreased
▁243
opsy
▁Somatic
▁concentrate
reactive
▁[125
ffin
▁demonstrates
▁antibiotics
ussion
▁toge
ranolol
▁prescribed
▁clamp
jury
▁hepatocytes
▁Available
fected
HCO
enoid
▁carboxy
▁Schwann
▁medicines
▁pharmacokinetic
4,
▁concer
riton
▁preparations
oresis
olab
▁basal
50.
▁(8
oporotic
▁4.5%
▁retin
▁progressed
▁reproducible
▁gamma
▁stationary
▁atypical
▁14-
▁ventil
▁gonorrh
▁spray
▁clot
▁3.6
▁perfusate
-48
▁neurite
adine
within
▁88
kine
selective
rof
▁Rating
▁GS
▁verbal
▁consultant
ucine
▁histological
coun
▁tended
▁consequently
▁severity
carinic
▁spermatozo
atories
▁xyl
▁23
▁10.
▁(2
▁(9%)
▁106
▁(60%
▁spectroscopy
▁pineal
ATPase
▁heterogeneous
▁cerebral
those
▁.05).
electron
▁esophageal
▁ket
▁descrip
▁fluoride
Hu
▁diet
rospor
▁prosthesis
0.5
▁ofloxacin
▁104
▁fibros
▁cefaclor
reases
aminop
▁providers
His
▁differentially
roline
5%).
globulin
metabol
▁compete
ACTH
▁hemochromatosis
▁hypere
▁capillary
▁colonization
▁postmortem
-125
ocardial
▁hyperpolar
▁radiologic
.2
▁galactose
▁(15
▁cephalexin
▁186
▁pharmacokine
▁immunoblotting
▁hepatomegaly
▁confirmation
▁ecological
enriched
▁clinicians
▁prostacyclin
▁inhaled
▁lysosomal
▁plexus
▁diuretics
iatic
▁manifestations
▁Lys
▁nicotinic
▁insufficient
▁visceral
▁Disorders
.3.
▁methodological
▁AMA
tist
▁sulfhydryl
growth
ronchial
▁antin
▁2.7
oplasm
▁cholest
zine
▁Positive
▁washout
0.
aturity
▁umb
▁IFN
+-
evoked
▁64%
.6,
▁hepar
▁identically
▁conserved
▁screening
▁39
▁cis
2+]
▁innervated
▁precipit
▁10%,
▁Carotid
▁0.001),
▁subjective
▁outbreaks
▁sympathetic
▁prosthetic
▁viability
▁selen
▁decade
▁saturable
▁electrolytes
endocrine
▁adenocarcinoma
▁nodule
azepam
▁adjustment
▁Chrom
kle
▁relaxants
▁Drug
▁corneal
ysts
▁potentials
▁venous
rostened
▁(46
▁speculation
▁Changes
▁276
▁transforming
▁7.4
▁hydrolysate
▁ethnic
▁11.
▁clones
inergic
▁ejac
▁SMR
▁0.86
▁Intravenous
▁halves
0),
▁twofold
▁occurrences
▁8.2
ipr
emide
PAGE
▁murmur
adequ
▁cystitis
vents
▁Pharmac
▁CHO
arental
▁pectoris
▁227
▁reagent
▁5.0
▁fimbr
▁physiology
▁eliminating
▁128
▁arter
▁validated
▁crest
20
▁colliculus
plenic
▁maturation
▁guan
▁postinjection
▁NMDA
▁intox
▁projec
osclerotic
▁lesion
▁hemolytic
acetyl
▁cathepsin
spective
cellular
▁Atrial
▁poorer
▁papillary
▁(0.5
iagn
▁breaths
▁sonographic
ituitary
▁dramatic
▁ovulation
flammatory
▁maximally
osm
▁3'-
▁seb
aturia
sue
sensitive
othyronine
thio
▁dihyd
amycin
DNA
▁transfected
▁Differen
lomethasone
ucl
▁adduc
▁chronic
ophen
0.3
▁currents
▁Tc
yron
▁(95%
5%)
▁transitions
occal
▁neomycin
esophageal
▁resorption
▁simulated
▁pulmonary
▁decayed
▁crystall
▁neoplas
amous
determined
▁wards
▁cerebellar
▁Epstein
▁Neither
rofen
▁22)
▁shifts
▁76%
▁(1.9
▁hypothesize
▁arth
▁1.48
▁deox
upuncture
▁8)
▁95%,
▁insertion
▁1.75
▁forearm
▁syncy
▁carbox
▁trend
▁fasting
▁analgesic
chlo
▁evac
▁extracts
benz
▁interpretations
▁stere
▁bacteria
olipid
▁conformations
▁overe
▁stres
▁amino
ardized
Glc
ocusing
orated
▁77
▁fibres
▁5.4
▁stained
ionate
▁continuation
▁definitive
tolerated
▁spor
▁dilation
araldehyde
(1,
uitable
amphenicol
gic
▁(150
LTS
olip
▁abundant
▁arising
▁varicella
▁AChE
▁perme
▁tris
▁substance
▁Caucasians
▁somatostatin
▁displacement
lep
10),
▁adequ
▁Subsequent
▁examiners
▁Respon
▁1),
▁(71%)
▁wheezing
urement
109
▁trypan
▁Recommend
ffeine
▁additive
▁anticoagulant
▁heterozygous
4%
erable
▁refusal
▁visits
▁necrosis
▁carcinogenic
sac
rologic
oprostol
▁methimazole
▁Reduction
▁centers
nine
opoietic
▁coeff
▁lactating
▁manipulation
▁Caps
:30
▁transection
▁regeneration
▁(3
▁corticosteroid
▁superficially
▁preschool
ellular
▁suspicion
WB
pirone
▁(45
gus
iodarone
Vi
▁inorganic
▁decreases
▁pathogenic
atinine
▁microgram
▁ars
▁hypertension
▁undere
▁ethnicity
▁Included
bromo
▁colic
oreactive
-5,
▁CTL
▁gastric
▁reproductive
▁hyperg
▁Extr
▁densities
▁innervation
rophen
▁threefold
▁70
▁blotting
cale
▁tymp
▁BV
▁actively
▁15,
iprofloxacin
vation
▁cephal
▁HER
▁pressures
▁cimetidine
▁enalapril
▁descriptive
▁reciprocal
▁fetus
▁surgeon
▁psychophysical
929
▁translocation
lovir
▁cloning
▁advised
▁endothelin
heavy
deriv
asive
NAc
▁fibrous
▁cyst
▁fluoxetine
▁hypogonad
▁conclusive
▁potassium
▁thirds
oporosis
▁resin
▁nM
▁fecal
▁assayed
▁carboxyl
owever
▁diarr
difference
partic
AVP
tomas
▁PP
ilateral
▁mammography
88
rangements
▁jugular
90,
▁predomin
▁diges
▁261
▁normalized
▁glucagon
▁hydrolyzed
adiol
▁danazol
▁muscarinic
gely
▁antigenic
▁sprin
vated
▁10(-4)
/30
▁methionine
▁couples
▁anticholinergic
▁Routine
2),
estradiol
▁damaged
▁adren
▁homogene
thmatic
▁frozen
▁interfere
▁0
RR
▁fatigue
hion
▁mediast
▁83%
30,
▁8,
▁respiration
▁Swed
ocamp
▁rodent
▁Surgical
pli
specified
▁algor
▁deoxyrib
romy
cg
▁37
▁-0.7
/9
▁nonm
tiveness
parous
▁hig
▁spind
ophosphate
▁bombesin
▁anticoag
▁gland
▁determinations
hemat
▁evaluations
▁succin
▁suicides
▁tetracycline
razolam
oxif
▁keratinocytes
▁cholera
▁acutely
plete
▁antagonism
▁foods
-2
▁(3),
pir
hern
pecific
▁PMS
▁mV
osylated
▁60,
▁etiologies
▁attitudes
-36
irubinemia
aise
▁thiazide
▁breakdown
▁circulation
athered
▁adhesion
▁uteri
▁abscess
▁promp
Gal
otre
xin
otide
▁vaccinated
▁serotonin
▁antiv
allium
conjugated
▁refr
▁isoflurane
aginal
matic
eliac
ervations
ixime
▁radiography
-28
▁osteoporosis
ondyl
▁phle
▁allergenic
▁catecholamine
responders
asting
▁duodenal
▁microsomal
gian
economic
▁hydroxy
▁diabetics
▁glycemic
ulence
▁0.20
Ga
▁1.21
greater
ditional
▁weaning
▁spon
▁189
▁corne
▁nitrofur
death
▁hydrox
prandial
▁underway
▁triad
ophylline
amination
pharyngeal
▁methotrexate
▁nonlinear
▁hypothal
▁coval
▁volunteers
▁poisoning
▁prevalence
▁triglycerides
▁alkaline
oreceptor
▁antagonist
▁microscop
▁24.3
Ly
▁achieving
▁irregularities
▁labial
imidine
osal
pendent
▁hrs
▁tumour
usively
▁56%,
▁arteries
▁duodenum
▁constriction
▁controversy
onuclease
▁1960
hydr
▁neurop
12-
▁capsaicin
-18
▁tow
olic
▁neuropsych
▁vertebr
▁conjugate
▁DEAE
▁Behavioral
carbox
ocom
aired
▁11%
▁enteric
atab
▁surfactant
erus
▁asbestos
▁PCO
▁MRI
▁sequenced
▁EPR
▁catar
▁ulnar
orphin
osteroids
▁proteoglycan
▁stimul
▁nodal
▁GD
▁implanted
▁15.
timulus
▁spontaneous
▁52%
▁10,000
osine
▁aggres
▁(20%
cristine
▁dentate
▁Regular
▁atri
38
▁saliv
▁aureus
▁niacin
mediately
▁pharmac
urgery
▁bism
▁painful
▁interstitial
▁plantar
▁GHRH
▁2.4%
4),
▁aortic
▁Urine
▁0.8%
▁(200
▁(63%)
▁prolongs
▁thrombin
▁pyruvate
▁wake
▁TC
▁hepatoma
▁ectopic
hig
eight
tochemistry
▁reiter
ensities
▁Replacement
▁monocyte
▁Assessment
fentanil
ographies
▁dilated
ucle
▁HMG
tif
▁ultra
▁oxidation
venty
oxone
▁difficul
▁Groups
▁Trp
1).
▁Reas
mitter
ication
duced
▁0.60
olipids
▁substanti
▁oximetry
▁Hyd
▁evaluates
▁caries
abdominal
tronic
adequate
▁isotonic
▁endocardi
▁fibrosis
tivated
▁hypertrophic
)2
▁chemically
uric
▁ultrason
▁Weight
▁participant
▁elbow
independent
tensives
▁characterized
25).
▁Rats
uanti
▁prostaglandins
▁-3
▁80%,
▁(92
▁mutations
fraction
▁prevalent
dependently
leucine
▁vacuoles
▁poorly
▁29
▁tubulin
▁correlating
otting
epin
▁cervix
▁leukocyte
/5
▁Arter
▁malignant
divid
peak
ulcer
▁cytosolic
olateral
▁Evid
ologists
▁173
▁enl
▁sarcoplasmic
▁pem
meas
▁ELISA
ropyl
▁(2.5
▁theore
molar
▁BAL
orrh
▁chol
anate
77
▁mesen
▁approx
▁antibodies
▁vesti
▁injur
ylated
itol
▁coupled
CSF
▁sulfate
iflu
▁postmenopausal
43
▁nadir
▁212
19
▁111
gp
▁mucus
ofib
▁Vmax
▁transaminases
▁35-
▁insulin
▁1,
▁(97%)
▁inhibitor
▁(7.4
chloro
ethanol
▁stimuli
▁hypothermia
▁LD
osterone
atonin
-3.0
rophenyl
ometers
▁albicans
▁277
ycardia
▁palp
▁cones
▁cortisol
illin
0/
▁audit
▁thrombotic
ranial
▁EMG
▁admissions
▁Hib
▁0.54
scherichia
▁reacted
▁Phy
ventional
▁malign
▁120
▁supportive
▁progenitor
PGF
▁allergen
oglobulin
▁unexplained
▁neoplasm
▁1.8
▁olig
▁aspiration
▁rhin
ilol
▁5.7
olp
▁Testing
▁fist
achial
▁superficial
▁Veterans
▁abor
▁elderly
▁33%,
otoxicity
▁dyslipid
athe
▁cryptorchidism
▁paraffin
▁nonsur
▁demands
▁1.5%
▁mann
▁asymptomatic
▁sustained
astolic
▁visualized
tene
▁10.4
▁displ
▁digesti
ocortical
▁fentanyl
▁prazosin
-4
▁Hb
▁dismutase
ivacaine
▁47%,
▁spleens
▁lymphoma
▁1991
urium
▁phosphoinositi
GF
▁3-4
▁solitary
▁nons
▁hyponatremia
medicated
esic
▁antagonists
fusion
▁cisapride
▁DNase
sul
▁.1
encephalic
▁normalization
▁ureter
10,
phyl
translated
▁instruc
▁Immuno
5-0.
criptions
ensitized
thym
▁Triton
Hep
▁contractions
imolar
ostatic
▁paralleled
-15
▁pretreated
▁plasma
▁bactericidal
▁uncovered
▁Specificity
ochondrial
▁fmol
▁(27
▁posed
Ls
▁fertility
▁chances
▁consultation
▁0.06
▁psittac
mend
▁reflec
▁3'
-200
▁autoimmune
▁hemorrhage
▁infrequ
othelial
▁MBP
▁Nutrition
▁utero
▁560
rotein
▁tablet
-7
▁levodopa
▁4.
▁EG
omegal
▁nonsurgical
▁EDTA
30
RF
orrhea
▁gangli
opharmac
▁2
▁0.005)
▁spas
▁conformation
▁anaerobic
poor
▁recurrences
-40%
timum
▁supernatant
▁slows
azin
▁rises
▁4.2%
▁leukocytosis
alities
▁bisoprolol
▁anae
▁objec
14)
▁Eff
▁hypotensive
▁untreated
0.9
▁eosinophils
▁vitamins
2+
▁canine
▁80%.
▁attendant
▁contracep
▁bup
▁streptococci
angl
creatinine
portant
▁mature
▁sting
UV
▁90%.
Ala
wenty
▁cryp
tead
habil
▁receptors
▁phenylalanine
▁ions
idem
▁furosemide
olism
▁sulbactam
▁reagents
▁morbidity
▁cardiovascular
▁lymphocytosis
dial
itrate
▁jejunal
2)
uminum
▁sinus
▁controver
faction
-11
▁obstetrical
▁blots
Bs
tation
potential
▁Gonad
▁septal
opoly
chool
odiaz
hepatitis
daily
44,
apride
-)-
▁explants
▁erythrocy
▁transcriptional
jec
ometrial
atisfaction
▁progen
▁Statistical
▁supplements
acin
idis
800
▁achievement
▁tightly
▁structurally
▁hemodynamic
▁abl
▁irradiated
▁0.18
▁pathogenesis
▁restoration
lox
▁Interestingly
labelled
▁immunogenic
▁Estrogen
▁0.81
oxetine
▁hematuria
oglobin
▁IgE
▁dehydrated
▁22%,
28
▁nucleoside
▁sugars
tages
erative
omatous
80)
▁cavity
▁Prac
▁linole
blinded
▁isomers
▁spp
▁expectations
▁clonidine
▁depressive
ectin
▁35%
92
▁masked
▁Diets
▁intrav
▁mood
▁113
planted
▁actin
▁EBV
6/
anavalin
▁catabolism
▁elicit
tib
otone
▁smear
ologous
▁aneup
▁insufficiency
▁interfer
▁contamination
odop
▁artery
▁brisk
▁-6
▁cuff
▁immunocomp
▁immunologic
▁Outcome
dR
▁orthoped
▁spati
xia
▁tricuspid
▁tube
▁1969
ipital
▁singlet
atrial
▁lymphokine
▁Lp
▁percentile
▁piglets
ophag
▁ATPase
diol
▁saliva
▁vesicular
▁scalp
▁152
▁ketoacid
▁ipratropium
▁Compared
▁organism
▁rheumatoid
▁(5.3
▁abduc
▁prevention
▁reproduc
gestin
▁Factor
▁137
▁kcal
epsia
▁phenobarbital
▁stiffness
igenic
▁HAM
▁implicated
-4.5
▁cAMP
ubiqu
▁markedly
alues
-0
▁transplanted
▁Alz
▁halothane
▁hydrolys
▁mathem
icient
0.2
▁curriculum
▁involvement
arone
▁NSAID
▁hemodynamics
▁conduction
▁chickens
▁presynaptic
▁302
▁scre
▁Afric
▁estradiol
kers
▁remarkably
arying
istar
▁bone
▁suspended
▁cryst
imentation
opausal
▁medically
▁2.5,
▁haemorrh
▁seas
▁leukemic
▁7.3
▁illnesses
ulting
▁cruc
carotene
sions
▁confers
▁118
▁Haemophilus
▁oral
▁13,
▁stimulatory
▁spectroscop
olecular
▁205
▁molecule
▁microns
ulinemia
▁describ
tabl
uncture
yrox
uoden
butamol
whe
▁erythema
▁1.24
▁demonstrating
▁37.5
▁14%,
tigu
▁transfection
▁Sodium
▁argues
▁yielding
▁biosynthesis
▁constituents
▁apomorphine
▁bacterio
placebo
MH
▁interventional
▁compares
▁168
▁anaesthesia
▁Dop
▁lesions
▁0.8
ritical
oA
▁extrav
▁specimen
▁polyc
▁0.22
▁arterioles
epti
ipolar
▁dye
▁reveal
▁postsynaptic
▁carbonic
▁parat
▁1.1
posal
▁scro
▁surrog
▁produc
ochemistry
▁levamisole
▁diameters
enzyme
tochem
▁amylase
▁MH
teroid
otypes
▁ribs
▁benzo
▁neurones
▁cardio
▁Proc
▁paroxysmal
ocellular
▁endocrin
▁Reflex
duce
▁appetite
▁professionals
▁midbrain
▁antenatal
▁ruptures
▁enrollment
76
ervo
▁84%
▁nontoxic
▁circulating
▁-0.4
▁seiz
ffec
▁exudation
glycer
esthetized
▁implic
▁oxid
dil
iodine
▁monotherapy
Mg
▁IA
▁immunocyt
▁oestrogen
▁deemed
▁(16
▁(1
▁Abnormalities
phosph
▁heterodim
▁impairs
▁oxygenation
▁lidocaine
▁strom
▁stain
butyrate
▁4.0
▁viral
▁metastatic
▁1.19
▁granules
icit
▁crucial
▁angi
▁cyto
toc
11
▁quies
▁insom
emin
placement
asthmatic
▁carrier
▁augmentation
▁inhibit
▁20%,
▁neurotrans
allik
▁resembles
▁resemb
▁pregn
▁Copenhagen
▁pollic
▁glycosylation
▁evoked
0%)
▁eligible
tron
▁awa
omere
osum
▁incompletely
3%)
▁anastom
▁proteolytic
▁elution
▁requi
injury
▁latent
▁intact
hydropyridine
luent
(6
etent
indings
aminob
yzed
▁nocturnal
▁ascertain
ustif
▁magnesium
▁angio
omes
▁cremaster
▁adiposity
lysine
▁deoxy
▁0.30
▁naproxen
▁facilitate
onstric
55
▁Medicare
▁colonies
▁soy
▁Inhib
lobin
ytes
▁131
▁antis
▁potencies
amphetamine
▁TCA
▁induce
▁lacking
▁17.7
▁workplace
▁priming
▁49,
▁negatives
fib
▁Thy
▁multis
▁0.11
▁59%
turally
▁accumulation
hist
/6
ophren
-79
▁2.2
▁(50%
▁buspirone
▁VIP
▁ranging
orbid
▁deaths
▁0.99
fat
▁55
▁dissociation
▁progressively
▁electrode
tillation
▁agglutination
▁monke
▁oxide
▁gonadotrophin
▁transmitter
enec
▁abstinence
ipine
▁myot
▁cerebro
-2.
▁shortened
▁intestinal
▁sour
osclerosis
9)
▁Amin
veolar
ective
5'-
▁cultures
▁phagocytic
odopsin
▁abbrevi
iph
▁4.3%
▁declined
▁pacemak
▁acyl
▁immobil
7]
▁63
myrist
-88
itamin
▁organic
tine
▁lysosomes
entical
▁yielded
▁nonrandomized
glycerin
iazide
lys
▁splenectomy
▁wt
▁appendic
aminobutyric
▁350
▁580
▁hyperthyroidism
▁measurable
▁monkeys
▁(94
▁Depression
erum
▁fiber
▁torsion
sulf
▁Sleep
orts
▁sickness
lysis
unced
▁reconstituted
▁avoidance
ressed
ifedipine
▁Experim
▁prescribing
parathyroidism
▁TF
▁androgens
▁lasting
▁2.4
bA
▁mU
ticularly
▁appreciable
▁-0.8
ycin
▁ambulation
▁5.5,
ochle
8+
▁ductus
RV
yto
▁attenuation
▁erosion
▁Effic
oconstric
▁0.0
▁hemisp
▁agonists
alveolar
▁89
salt
▁ligation
parag
mature
▁TSH
ylate
dotoxin
▁adjus
▁43
▁keratin
▁itraconazole
-25
▁nephro
▁SCC
▁cyclosporine
diagnosis
▁progenitors
▁neoplasms
▁possi
▁retina
▁alcoholics
▁hairs
▁antiserum
▁chromatography
-50%
▁LMWH
▁(49
▁1)
▁46
umented
-]
reasts
cholesterol
▁herpes
▁hospitalization
▁32%
.0%
▁sedation
▁muM
oride
roitin
▁Fib
▁fistula
ratic
▁39%
trast
▁308
▁deficient
xate
MDA
kelet
▁sput
▁cancers
▁3,
ections
500
▁dendritic
▁hypertonic
▁pancre
ophy
▁differentiated
cture
▁Measurements
▁prednis
.7%)
toxin
▁Activation
mercap
▁Epidemi
▁splenic
▁4.6%
5)
otriene
cholate
ituit
▁vaccine
▁equivocal
▁amputation
▁retested
olpidem
trition
cein
uride
alkyl
▁dys
▁lysates
▁hypotonic
▁12.5
VAS
▁chemotherapy
▁herp
atients
receptors
opharynx
▁feasible
▁transporter
phine
3)
ausea
10).
ellar
7,000
▁strips
▁childhood
▁dosages
▁IUD
▁(3)
▁satis
romal
bran
▁(16%)
▁expressing
cycl
ibrate
▁Sixteen
plied
turition
anding
iotic
▁Failure
▁-1
dition
▁placement
acil
▁+/-
ortic
▁clarithromycin
▁hypotheses
▁homogeneous
▁Nons
arrest
▁resected
notic
▁rele
103
eclamp
▁globulin
▁coughing
▁spont
▁7,
▁valproate
chol
▁HTLV
iliac
▁induces
▁addi
▁urinary
▁286
systolic
▁albic
▁aggre
▁angiotensin
generation
90
▁obese
▁LV
unctions
0).
▁0.7
yocardial
▁enox
ignific
opramide
▁quadrup
ulon
irone
▁inactiv
▁6%)
▁perc
▁suicidal
▁thir
▁postural
▁Thyroid
▁calibr
▁estimating
▁prol
▁28%,
18
▁papilloma
15.
▁osm
▁dimethyl
▁gradual
▁Ventricular
▁hered
▁DH
ipar
▁polymyxin
▁neuropathic
▁1.46
▁spike
▁venom
▁surrogate
plants
▁adhesive
3-
▁Phe
▁taurine
eled
▁hernias
▁eccentric
▁(22
▁8-12
▁wk
bred
▁24%,
▁Injection
sAg
drug
BMD
incubated
▁Angiotensin
relations
▁PMN
▁elemental
▁synovial
▁angl
omonas
kinson
▁PG
▁Epidemiological
▁embolism
▁5.9
▁functioning
ureth
▁susceptibility
umping
▁donors
secre
▁malarial
▁5)
ygo
▁gluc
▁PH
verages
▁Increas
grams
▁chondroitin
▁acros
▁Tests
▁321
▁basement
azole
▁refrac
-60
reed
atine
olamine
▁ambul
umetanide
iliated
▁consumed
▁aids
▁seated
▁Chlamydia
esting
▁urea
apamil
▁relapse
84
idated
▁derangement
▁achieves
▁hypocalcemia
▁paternal
respon
▁excessive
▁fulfill
▁Levels
▁Complications
fluoro
▁retur
▁LTC
▁0.2
▁bronchodilator
▁70-
▁20.
onatal
rogenase
▁triacylglycerol
▁solids
▁Biochemistry
▁0.33
▁optimizing
promoting
EDL
▁172
▁chlamydial
▁antich
▁nerves
▁ewes
tails
▁1.06
▁decreas
titu
▁(37
▁underg
▁Candida
▁CAT
rates
▁retrograde
glutamyl
▁cohort
IgA
ilin
atchard
▁neuropathy
-70%
▁14
tum
uppression
▁efficacious
▁Assess
▁chlamydia
▁vivo
▁vigorous
tice
▁rhinovirus
▁10.7
▁envelope
actam
60
▁6.6%
hydramine
▁potentiation
▁concentrated
ubation
▁Eleven
▁cytokines
mortem
▁carcin
lod
mong
▁(39
phosphorylation
150
▁codeine
▁hypers
robial
▁stimulates
strain
gents
▁13.
1-
▁kinetic
▁androgenic
trum
▁41%
ducts
-1000
rein
ymptomatic
▁72%
▁BW
▁glomeruli
PSPs
ysto
▁mice
▁discontinued
▁Tissue
▁toxicity
▁complication
▁105
▁seropositive
bumin
HbA
▁21
▁beliefs
Kd
▁disorder
▁293
▁HCl
yclo
omn
ineal
osarcoma
32,
▁transplantation
▁infections
▁disorders
leuk
▁terfenadine
▁prel
atent
▁TG
▁hybrids
▁marrow
loid
AH
▁prodrug
▁(1.5
olesterole
▁FN
▁degenerative
ergenic
▁splanchnic
▁blacks
cys
▁thickness
▁89%
▁carcinoma
▁Nit
▁15-
astine
▁deficiency
▁irreversible
muc
▁(33
carbon
▁Escherichia
▁dissoci
▁(4.6
▁40%.
▁142
▁12.5%
▁acquiring
▁Pulmonary
▁smokers
urones
▁neph
▁cholecystokinin
▁upstream
▁(1:
trimester
▁filtration
▁triazolam
▁estrogenic
▁pulmon
▁[1
ayed
▁acet
▁anhydr
▁crude
▁oint
▁abrup
waves
ctive
ypass
▁guinea
▁comparative
▁piroxicam
▁exclusion
▁109
▁1986.
18)
▁eti
lactating
▁glycol
aryng
▁absorbable
▁aspartate
▁diarrh
ilization
▁accumulate
▁phenyl
▁catalase
astom
▁hemorrh
bile
adm
▁cigarette
▁0.01
▁beads
▁radiograph
▁neon
roprus
▁stripping
sively
▁microvilli
▁cann
▁0.72
quine
▁occlusion
▁efferent
▁Insulin
▁obesity
▁surgeons
▁Stress
-6
▁NSAIDs
▁desaturation
incubation
linic
▁fractional
▁0.001
▁10%
hers
▁segreg
atest
isters
▁monthly
▁micron
▁binds
roin
thymidine
▁vesicle
▁ascer
▁reversibly
butyl
▁ventricles
▁1984
▁noradrenergic
▁anatomy
depleted
▁competitively
▁Trial
▁bursts
oglyc
diagn
▁asthma
olipoprotein
-29
▁feeding
▁0.63
exin
▁allogeneic
iters
▁predictor
cros
▁spectra
tries
▁spectro
2+-
▁premenopausal
▁tol
▁multicenter
ithm
▁testosterone
▁relied
pain
aneously
osyn
▁substrates
echanical
▁endobronchial
▁survival
▁(0.4
ogenesis
▁Sequ
ocap
▁immunofluores
▁bacteriuria
obac
▁parietal
▁questionnaires
iminary
▁SRIF
▁Efficacy
▁dihydro
pled
▁37%
▁vertebrate
lowering
▁Maximum
▁transaminase
uantitative
▁1.42
▁1,25-(
▁0.57
acholine
▁islet
tec
▁impair
▁resection
▁9.
▁sham
▁reperfusion
tamine
▁fibronectin
▁Abdominal
▁calmodulin
2).
▁Urinary
▁leukotriene
feren
▁26.5
rals
resis
▁0.95
▁olive
termined
leu
▁regulates
▁decisions
4).
▁Throm
▁backgrounds
▁RNAs
ureus
▁nonin
especially
▁splicing
tide
▁TDI
amol
acyl
▁interestingly
▁discrimin
▁allergy
▁glutathione
openia
rehen
-8)
▁dissection
apo
oinositi
▁ovary
▁respiratory
▁0.67
▁esterase
▁dairy
▁Neurop
adication
uronium
▁wee
classified
▁laminin
▁dysp
oplasma
▁ovariectomized
aryl
▁absorptiometry
▁qualitatively
▁irrespective
▁healthy
▁ovari
zot
▁fulfilled
▁peripheral
▁1.36
▁unstable
▁FDA
▁hydrochloride
▁gentamicin
▁perceived
resc
46
PGE
▁Subcutaneous
insensitive
▁transcription
availability
▁(29
▁3.2
Hg
▁(197
▁clues
3/
▁9
▁HL
▁intrapartum
regulated
▁stripe
overall
▁immunization
roscopy
educ
oxamine
tig
thre
▁colonoscopy
▁plaque
▁subtypes
activated
▁adverse
▁trimester
tics
▁Intracellular
ocrine
cells
▁minocycline
▁cessation
68
imentin
▁stimulator
▁conditioning
▁intimal
▁conjugated
▁conducting
▁granul
▁kit
dimethyl
▁Preliminary
▁mediators
enters
▁stimulation
udation
drome
▁deviations
weigh
▁resear
amethasone
dT
erule
genital
▁100,
sus
▁hyperactivity
▁Combin
acetic
transformed
reated
▁preservation
uretics
▁carotid
▁membran
.7%
▁glycerol
▁deterior
▁revised
(4
orbol
ioid
▁tas
.5.
▁10,
plantation
▁(75%
▁prevented
convul
▁endot
Daw
Ni
▁aberr
▁thiaz
heres
▁diacylglycerol
olerance
trover
▁diploid
▁(300
▁divalent
▁idiopathic
ariate
▁amyloid
thyroid
otom
ylene
▁0.4
▁unrestricted
ospasm
▁Increases
▁prolonged
▁(2),
▁postnatal
▁retinol
▁Recurrent
vely
▁Effec
▁Pb
▁fibers
▁dial
olol
▁suture
lora
▁OD
▁2.7%
went
androgenic
piratory
finding
▁cats
▁unsuitable
▁metformin
▁leuc
▁meningitis
▁phasic
▁mEq
▁215
fication
▁stric
▁intakes
▁benz
▁readings
▁duplic
▁limbs
▁Ringer
▁18,
▁prevalences
ocytes
mobil
aicin
elic
▁regis
▁catheters
▁(75%)
dip
▁21-
▁escal
▁intrinsic
biased
mum
trac
▁hepatocyte
▁juven
▁gonad
atched
ocyanate
orating
ejection
64
▁perception
▁alleles
athiop
▁examinations
▁rupture
▁kappa
▁TGF
▁agonist
▁naf
ognition
▁bif
oag
ellum
otoxic
HDL
▁compressive
▁dysrhythmias
▁pancreatitis
▁immunoblot
▁methyl
▁splenomegaly
▁NI
ocytochemistry
convulsive
ognitive
arum
▁Authors
▁UV
▁emboli
▁confine
23
▁flexor
▁medications
opeptide
ectomy
▁polymerization
▁154
▁carbonate
▁perioperative
occi
▁olfactory
▁24
ields
▁(1.6
▁antero
▁bull
▁1.6-
▁carbohyd
eptidase
▁sucralfate
▁sedim
alp
▁0.29
▁DCA
▁benzodiazepines
▁ventilator
▁surgery
organisms
▁Intensive
▁mug
▁1986
25)
▁[35
▁reversing
vaginal
▁Taken
▁aeros
oproteins
▁kary
▁microbi
▁mamm
merc
disciplinary
surgery
stimulating
▁1985
▁recurred
▁Enal
ococcus
▁microsomes
▁alkyl
▁mitogenic
▁bundles
▁pallid
▁.00
▁ery
▁congestive
+/
▁0.1
inum
▁physiologically
▁preeclampsia
helix
▁connec
▁caudate
▁assessment
▁(0.9
rotic
▁47,
oblastoma
▁coagulation
▁superiority
thromb
▁connective
▁disruption
▁testicular
iasis
Tc
▁exerts
▁GE
▁phag
lastoma
▁1970
iline
▁glands
antibodies
▁enlargement
tensive
7.
scheduled
▁nonc
25.
etaz
(5
▁mannose
▁CFC
▁micrograms
rosy
▁dismut
▁0.84
▁Elec
▁atrium
unar
15
arrhy
menstrual
110
▁standardi
▁blast
kD
▁swine
▁stepwise
▁cooperative
▁50%,
▁10(-7)
▁unrecognized
buride
aternal
-34
90)
ordination
▁striatum
▁medullary
oscopic
eration
▁255
▁neuroleptic
ammonium
trients
▁HC
▁splen
▁calcified
▁mitogens
ophys
-5.
▁281
▁galact
▁efficacy
▁knee
zinc
2.2
▁anion
▁analyses
obronchial
▁paral
▁turnover
▁microscopy
▁fertil
▁helic
ogenes
▁dilution
▁constitutive
confirmed
estis
▁dispersed
fiber
hydrox
▁attemp
▁influences
phila
physe
▁ingestion
▁Bone
▁preexisting
▁intense
▁Statistically
tures
▁lob
▁unin
▁enlarge
chond
itching
▁alumin
▁720
91
▁occult
GD
▁77%,
▁adversely
▁underst
anide
▁27,
▁metr
▁(2-
▁proliferating
▁87%
▁tooth
▁wash
naud
▁reticulum
▁LDH
CRP
27.
▁choline
▁40,000
▁cadmium
acyclin
▁megakary
▁PGA
dose
▁hospitals
atical
ereb
oblastic
▁40.
▁0.76
▁commiss
▁electrophoretic
8-
▁rRNA
▁agon
ocarcin
teral
▁ipr
farin
▁allerg
▁Sixty
▁albuterol
▁309
ACh
▁testes
▁mast
▁obstruction
▁stimulating
▁(90%)
▁hippocampus
▁radiolabeled
▁bile
chlor
▁prednisone
▁270
▁107
▁endocervical
▁(1.3
7),
▁SDS
▁histologically
▁stratified
riamycin
▁aggregates
▁tendency
respective
▁11.5
crib
▁antiviral
atoid
▁cooling
oconazole
▁chamb
▁adults
▁ubiqu
being
▁afferents
▁proce
▁euk
propyl
▁savings
AFP
▁bronchodil
▁scientif
roma
RM
onucl
arcoma
takes
▁subpopulations
▁hippocampal
imental
PMN
onvul
▁atten
▁treatable
▁statis
▁recordings
▁phosphorylation
▁sampl
arms
▁modeled
▁causation
ipit
▁dermat
▁biased
▁acces
tory
particularly
oxin
activating
dyle
▁(84%)
▁nedocromil
▁metoclopramide
▁weakly
uginosa
▁unresponsive
▁tandem
▁achie
matched
reast
▁whereby
▁HSP
▁CAH
▁145
116
dural
▁disulfide
▁revascular
▁bioassay
hydro
▁posttreatment
▁lipids
▁confound
▁salvage
▁sedative
olig
ctomy
▁tissue
▁Consid
▁insomnia
volving
▁97%
▁Retrospective
▁wounds
▁remission
vus
▁Progesterone
lline
▁percutaneous
diastolic
ifers
ropo
▁(80
pendence
▁subf
RH
▁0.55
▁syphilis
▁preincubated
anin
ochem
-40
▁uro
▁27%
▁ligament
▁perfusion
▁1.16
▁leu
▁encompassing
▁grain
tility
▁endonuclease
▁anxiolytic
ensitive
▁(18
operated
deple
▁Pt
▁340
▁consecu
▁infarc
▁PLC
ogens
ohns
ovastatin
ventilation
▁0.52
ontal
omies
▁ambulatory
▁13.3
▁3.5,
▁neurob
▁gyrus
cyclo
▁6.9
▁intensities
▁2.9
▁dosage
▁cholec
▁constr
▁warfarin
▁nonf
.6%)
▁colorectal
▁hospitalized
▁unequ
troduction
▁Measure
▁Growth
▁Comparative
enal
semb
plasty
9%
▁33%
▁empirically
▁hCG
▁18
affin
chym
CAM
▁(31%)
hir
▁(69%)
▁osteoarthritis
▁sodium
▁(5.8
oskeletal
▁ank
liters
rague
plastic
tam
testinal
ropath
▁genetic
▁anaesthe
nosis
▁ejaculation
▁doses
▁cream
gestrel
(0.
▁atr
oclonal
▁PF
▁musculoskeletal
isomerase
myristate
▁diastolic
▁155
▁(8%
▁SPF
▁proximal
▁polysomn
orenal
▁700
opped
tive
▁ammonia
▁hypothesized
atesticular
▁injected
▁(25%
osid
▁enrol
▁BCG
▁breeding
▁residual
▁crust
▁ib
▁92%
▁specificities
▁knife
▁(5%)
tency
▁sputum
▁hemodialysis
▁CFU
13.
▁HBV
▁414
▁normo
-1,
▁ipsilateral
▁dams
▁replication
▁resc
▁overload
▁distin
▁eukaryotic
▁mmol
▁LPS
▁embol
▁oils
▁RR
gressive
ploy
▁macros
▁(50
▁idi
▁stimulate
▁2.0
▁enhancement
gans
▁recombin
▁myometr
cardi
▁Experiment
▁PLA
▁17-
▁junctional
▁199
azone
▁institutional
▁reflexes
6%
▁dyspepsia
oronary
1,
arrh
-2-
rinary
nitine
idate
omyc
▁3.1
▁EEG
▁consciousness
▁neuron
▁endothelial
▁subcellular
▁69
▁quartile
ologically
acement
▁embryo
▁0.71
▁horiz
▁7.2%
▁iodine
▁junction
idespread
loidy
▁cros
▁TD
▁(11
▁posi
▁methodologies
3,
▁60
▁anteced
▁(16%),
▁phospholipids
▁1.47
▁(93
▁latencies
▁interne
▁comprised
▁discomfort
trodotoxin
▁Risk
▁PGI
▁blocker
centr
omethyl
▁benzyl
▁urinalysis
aemic
KD
kelihood
▁0.05),
▁precordial
▁exposure
▁30-
▁fluo
▁nutrition
motor
▁employment
oxine
▁chec
▁testis
▁hepat
▁catheterization
macropha
oratory
▁behavi
▁originating
▁isch
▁contradictory
▁Successful
▁Computed
▁antigens
▁myosin
▁peaks
▁autosomal
▁adhered
▁opi
▁loos
▁respon
▁accep
▁chromat
12.
▁dilat
▁dox
▁neoplastic
▁recons
▁ducts
cinolone
.00
▁cholinesterase
▁sulfonyl
(7
▁dosing
▁gradi
primed
▁additionally
repres
▁49
▁10(7)
uris
floxacin
0-
▁1,25(
▁methyldopa
▁factorial
▁amygdala
▁[14
▁tic
lusion
formations
▁1980
▁2%.
yridine
▁prostaglandin
▁comprehen
▁myofibr
▁Recent
▁responsive
21)
lymph
adjusted
nons
etween
▁impaired
▁2).
▁blu
ectomized
▁elevating
ocarcinoma
admill
.6%
▁progest
itary
▁24)
73
(2
▁CRP
Ins
▁(5)
illary
▁inadequately
▁confounding
-24
▁analogs
activation
CRF
ainide
▁(67
▁heavier
▁440
▁tendon
▁triamcinolone
openhagen
▁venography
▁progressive
▁evacuation
linking
▁collaterals
osteroid
▁mmHg
imeth
osomal
EI
▁morphologic
ongest
▁Seventeen
▁NIH
▁compositions
▁glucocorticoid
▁BK
▁granule
▁Morph
▁(4-
▁91%
▁fixation
▁1.7%
▁0.02
▁reac
ialysis
▁pigment
▁(10(-5)
▁effec
▁chest
▁Survival
opamine
▁prolactin
▁22
.1
-1-
ivered
▁Cancer
▁phosphates
▁subscapular
▁pigs
▁exaggerated
▁ABR
trophy
arrhythmic
imens
▁autopsy
ipid
assium
▁adolescent
▁subjec
▁doubled
▁adnex
▁nipple
140
inositol
▁56
rogen
▁expec
▁histology
▁amiodarone
▁scl
▁amph
▁endurance
▁mechanisms
ergen
▁metall
treated
▁stringent
▁salivary
▁microorganism
▁antioxid
▁tonic
▁isozymes
▁sensitizer
rk
taken
▁gestational
▁HS
▁mammals
▁chemot
vival
▁managing
▁cations
turb
arginine
▁undertaken
▁excision
▁releasing
▁epic
ietin
▁fluor
▁0.03
gestion
icine
▁48%
▁emotional
▁recruited
▁0.43
▁10(4)
neu
plasia
uvate
▁airways
troph
▁11
▁chym
▁7.9
acterial
▁tetr
onance
Sepharose
▁conformational
▁adminis
▁promising
tage
▁5
▁neutrophils
oea
▁PHA
ostic
illaries
▁bic
▁chlor
▁sulf
▁poses
▁multin
Lac
▁neurons
▁rated
▁abbreviated
▁epithel
▁scaven
▁overex
▁tiss
▁Reduc
▁inactivation
322
▁amplified
▁oxymetazoline
▁supervised
iparous
▁targeted
▁hypog
▁30%.
▁colleagues
▁brevis
▁ovulated
▁Thoracic
▁infusion
emory
▁hydroxyl
▁azathioprine
▁vasopressin
▁intraven
aceous
▁166
achn
▁influenzae
▁epsilon
▁13-
rati
▁undergone
▁VA
▁ACE
▁steroids
▁dipyridamole
▁trends
ews
sies
▁cytokine
▁prognostic
hydroxylase
▁32%,
▁SLE
inemia
▁phosphatase
▁19%
▁diltiazem
▁uterus
▁279
cortisone
hicle
eptid
PAT
▁mucosa
▁isop
▁(36%)
▁1.18
▁pyr
▁heterogene
▁-5
▁emergency
omatosis
secreting
▁malignancies
▁1.35
▁contaminated
▁beverages
▁immunized
▁benign
▁Calcium
▁Secretory
▁desatur
▁mediating
ogenetic
▁anes
sive
ternational
▁hypoglycemic
othyroid
▁respir
▁74%
▁28)
▁stabilized
▁withdrawn
▁INH
▁traumatic
▁toxin
▁autoradiography
oside
▁cytomegalovirus
▁cuts
▁neutralizing
▁Tryp
otor
athic
▁depleted
aortic
600
▁chel
▁impedance
carb
gol
fatal
tens
ivac
ongue
pore
ergency
▁analogues
▁pulsatile
▁discus
▁3.0
ammon
tionally
▁flap
▁virulence
antoin
▁chorionic
▁maintaining
inopril
trates
▁sensitiz
▁deformities
▁seasonal
iatum
▁lumbar
▁0.07
▁brach
▁acupuncture
▁0.25%
aptic
Ds
▁agar
▁knees
▁prolif
rotid
.8%
HIV
motic
▁trigeminal
▁migraine
▁intensive
▁metabol
▁elastic
0.4
▁hind
▁intrap
▁lactose
▁certainty
▁83
▁questioned
-6-
▁CU
▁0.025
▁antithrombotic
▁telephone
▁punch
▁substitu
▁antide
choles
▁msec
inyl
▁feather
gesic
▁Alzheimer
ynthe
▁thal
▁enhances
▁insol
▁xen
▁MT
oil
▁unbiased
leukin
▁1.29
either
oxic
▁0.08
toph
▁echocardiogram
▁physiologic
mur
▁immunity
▁coordination
30)
▁ciprofloxacin
-1.2
▁effector
acental
▁6.
▁filaments
▁ampicillin
▁genomic
▁(1/
45
▁ligands
oes
▁myeloid
▁meningococcal
intensity
Wo
RCA
ynaptic
ithine
ostigmine
lli
▁unco
▁caffeine
▁sti
▁7-
ffinity
melan
▁108
irubin
▁10(-6)
▁enamel
▁fru
▁pneumon
▁Golgi
▁Concentr
sensitivity
TG
▁homeostasis
▁aerosol
▁resusc
farction
ofluores
▁untrained
▁discrepancy
effective
▁myopathy
▁favored
▁sutures
oretic
chers
selec
nals
▁dehydrogenase
3.1
▁guanylate
teria
▁presumed
▁pellets
▁(28%)
▁malaise
GFR
▁tuber
▁chlorthalidone
▁0.69
▁3%.
▁hygi
▁therapeu
▁plasminogen
▁0.88
▁strokes
▁residues
apse
▁cetirizine
glutination
▁concom
▁exag
▁fluorescein
▁duoden
▁(44
▁antibiotic
▁periv
▁formulation
▁amiloride
ampicillin
sia
▁1983
▁ACI
▁disseminated
adap
▁afferent
▁conjunctivitis
▁reticulocyte
ometr
▁stabilization
oate
▁plasmid
▁tuberc
▁triphosphate
▁vacu
Nor
▁hyperch
▁pM
▁0.2%
mTc
▁70%
amethoxazole
terol
▁hyperlipid
▁illumin
gangl
▁Pregn
psych
filtration
▁0.19
▁electr
▁vimentin
okine
umulative
Ev
ocyte
▁Nine
▁tremor
-81
lometh
conc
▁Phen
▁clinician
ischem
400
▁compliance
▁20-
▁exploration
▁adenosine
▁affecting
globin
▁myocardium
posure
▁1).
▁controlling
sied
▁undergoing
▁1.9
enh
▁ventricul
▁diabetes
▁guanine
▁synerg
ecu
enopus
phosphatid
▁pregnancies
▁0.38
molality
-23
▁(88%)
helium
▁emphasis
▁oxygen
▁pacing
▁acetyl
▁trypsin
▁reinfor
▁bradyc
ETE
▁resonance
▁seronegative
▁fractures
oxidation
emias
▁8.5
1/2
▁thromboxane
▁incompetence
▁spermat
▁eosinophil
▁primiparous
esides
▁questionnaire
terase
tectable
athy
▁infrared
anazol
16
imurium
otine
▁reduc
tomized
obarbital
▁30,
▁identifying
▁anemia
▁bathing
12),
▁scin
▁preoperative
▁PAI
▁tamoxifen
▁4.9%
▁Milk
▁menstruation
Mu
▁incubated
▁157
▁fumarate
▁hyperthyroid
▁enzym
micro
▁immunode
inescence
tions
▁10(5)
▁pathophy
diabetic
VT
▁duplex
onidine
▁ultr
BH
▁exploratory
usal
▁intercellular
ocul
schem
obases
siologic
▁lysis
▁cytochrome
ensity
▁wedge
▁intramuscular
▁electrophoresis
tense
▁ure
▁termed
▁PEFR
▁pharm
▁salbutamol
▁cathe
tomy
mitters
▁116
▁aerob
▁7.7%
▁endometrial
▁MRSA
ganglionic
▁cardi
quid
▁neuros
▁bp
▁hypercal
▁(9
▁outlined
▁pate
erin
truc
▁catechol
.5%)
oriented
▁nore
erican
▁GFR
▁yolk
▁dysplasia
romic
rosis
▁rhe
▁nursing
▁resuscitated
mega
▁ejection
concentration
taz
▁LH
ATP
▁scrotal
▁melatonin
tructural
▁depression
orphine
▁1.05
▁overl
▁(69
▁kallikrein
▁mammary
-8,
uron
-72
▁angiography
hydration
▁gallbladder
▁rifampin
▁neuroendocrine
▁metabolites
▁benefited
▁postoperatively
traumatic
▁nystatin
▁DL
75
opam
▁frontal
ventil
andida
▁adenocarcinomas
▁4.0,
▁oste
▁AII
maleimide
RP
▁1.09
▁recurrence
▁16.
▁placental
▁mono
▁epiderm
▁uncomplicated
▁gastr
▁Adverse
PAP
▁Diagnostic
▁glomerular
▁OB
restricted
▁-0.
▁IIb
▁chewing
▁poten
▁explored
▁calculi
▁2-
elves
PV
▁tach
iper
▁phosphorus
ophor
▁fibrinogen
▁muscle
atient
▁wrist
hydroxyphenyl
▁quantif
aints
▁abortion
▁labelling
aterally
▁LPL
▁anoxic
▁stimulus
▁haemat
▁neonatal
ylyl
▁thrombosis
▁attending
▁11,
▁5.6%
razole
▁permits
▁cereal
▁inverted
▁exhibit
▁18.
▁lys
ulum
▁atherosclerosis
▁implantation
GABA
▁aneurysm
▁cellul
olone
▁inability
asal
▁rearrangement
▁lessened
utyryl
atectomy
ocyan
▁enterocolitis
▁whey
▁avoiding
▁ultim
ceptions
▁perfused
▁mAb
▁inbred
ticular
▁vitro
visc
GH
▁Engl
▁exposures
-13-
▁TIA
oventricular
▁immunogenicity
ospitals
ocycline
▁nurse
hexyl
▁NPH
▁dyst
▁bladder
▁inhibited
▁specialty
▁CCK
fibrozil
▁reinfection
quinone
▁clinic
tox
kground
roxic
▁recor
▁parame
▁linkage
effects
▁awake
120
▁38%
erant
rase
sorption
▁vasoactive
ressive
▁ischaemic
COP
▁lifestyle
lun
▁gonadotropin
▁intranasal
▁abscesses
▁MG
blockers
▁denaturation
opathy
▁acoustic
▁ventricle
geons
▁31,
▁30%,
oderm
▁rhabdomy
▁1/2
▁adherence
▁tric
▁fasted
▁phos
adox
▁quantit
▁urethritis
▁complications
▁38
▁mcg
▁269
,000)
xide
▁biopsy
▁analyzing
aryn
▁pollicis
oxygen
▁264
▁endoc
▁pneumonia
renal
▁4
▁Suc
▁PCI
▁nucleus
icin
aminases
ximide
astases
▁pneumococcal
▁ANP
ritis
▁cumulative
▁pancreas
▁nephropathy
▁60-
▁affinities
tified
▁prognosis
▁astro
▁IgG
▁unusually
▁complic
▁experim
▁encompass
▁extrap
itone
ophilus
polar
▁(400
▁genome
▁hypothalamus
-65
ilical
tenance
.7
omycin
ochemical
▁absorbed
posable
NIDDM
▁(1.2
▁evidenced
ocks
▁135
▁analgesia
▁Few
endazole
00-
inated
▁0.6%
▁supplementation
icacy
tices
▁rejection
tiazem
baseline
▁palli
romes
gA
▁unilateral
▁(7.2
▁trunk
▁microm
▁adhe
omethacin
▁4)
▁leakage
myocardial
▁mefloquine
iplin
viral
▁appraisal
▁257
▁lymphoid
▁shunt
▁transi
▁disability
phadex
▁156
▁NN
apid
rever
▁pathway
▁colchicine
pectively
▁400
▁1.6%
▁schedules
▁96
▁7%
▁IgA
▁perfor
▁Grade
▁sedimentation
otherapy
▁tolerate
▁aorta
▁thalamus
▁meperidine
▁laser
▁constipation
50)
▁9-
hydrated
roprusside
trone
97
▁suprac
stin
ferrin
parathyroid
▁GV
▁(4.0
2;
uded
▁6%
▁lectin
moid
renaline
▁4.9
kic
▁hypercalciuria
▁epidemi
▁intracranial
▁bony
existing
obenz
▁spleen
▁DBP
▁mobility
▁arteriovenous
▁cyclical
itonin
▁protocols
23187
▁90-
▁virul
ispanic
▁prenatal
thirds
▁introduc
▁650
▁agarose
▁Purified
▁shaft
▁genotype
▁terminus
▁severely
ecan
▁thymus
▁axial
▁elevation
mediated
▁biologically
heat
▁inadequate
▁caro
▁predic
▁phorbol
▁15
5).
uding
▁epitope
galactosidase
▁triglyceride
▁CBF
orotic
▁83%,
iuria
▁pH
▁256
▁MN
▁ligand
▁Lact
acted
terin
▁intercal
▁osmolality
▁transmembrane
oluble
oxy
arent
▁calor
mL
rays
▁postin
▁mitochondrial
▁hydroph
hort
▁conflicting
▁relieving
tric
▁42
▁(75
monary
▁dopamine
▁lacks
▁Bacillus
▁acyclovir
▁ate
▁tendons
▁RP
▁minority
▁relieved
omegaly
▁-0.6
▁throat
▁Coronary
▁anemic
▁suppressor
edle
▁autoradi
versely
otin
▁casein
botic
▁tryp
itic
▁pK
glucuron
▁Americ
ifferenti
uspid
utyr
▁79%
ospor
▁autoantibody
▁degradation
▁diarrhea
roscop
▁trials
potassium
FU
amic
▁ascending
▁intracerebral
▁nec
▁inoculation
▁Cardi
▁reversed
▁placent
ophore
zyme
▁6.6
▁dextran
▁homogenates
▁sclerosis
89
▁70.
▁sha
versity
PCR
osomes
▁illus
▁hypothetical
▁endocytosis
▁assesses
▁endoplasmic
▁epinephrine
▁isot
ervative
aryngeal
▁plasm
▁0.01,
▁friction
▁monol
perme
LG
▁initiate
▁hormones
▁structural
▁cyclic
tracellular
▁titr
erent
itro
▁Drosophila
▁contractile
▁lax
▁1.7
roscopic
▁assays
taining
▁actinomycin
▁fetuses
PPP
▁pep
)],
ulae
phosphor
▁valves
obase
▁discontinuation
▁Tran
▁(6),
entgen
▁aden
arcin
▁cyclospor
ittac
▁accumbens
atology
▁retinoic
▁polyethylene
▁coag
▁adipose
▁352
dihydrop
▁suscepti
▁nurses
▁amn
▁causal
▁psychotherapy
essment
▁hirsutism
parative
▁65%,
inally
▁bovine
▁pyrid
▁gout
▁mesenteric
akary
phage
▁anions
acute
nRH
▁urine
▁optic
▁(+/-
▁cG
-2).
.5%
▁ethical
▁acceptor
dihyd
-78
hemoglobin
▁syndrome
umbens
▁arous
▁disturbances
omagn
1.5
▁Unlike
,3
▁hydrop
21.
flurane
▁(89%)
▁cutoff
▁loci
▁HDL
▁25.3
▁cachexia
▁160
▁phenotype
▁121
oxane
atropium
▁ESR
▁echocardi
1);
odend
▁ADP
▁CAL
▁1-3
tropine
▁5'-
▁practiced
▁0.75,
gold
▁suction
:3
ygotes
▁PN
▁elective
▁42,
+.
glucose
▁invasive
▁antibody
/10
▁phosphorylase
roxim
▁stomach
▁4.7%
▁fluctu
rele
roso
▁nude
▁structured
▁emptying
roup
▁0.34
▁constructs
▁hydrophilic
▁pathways
▁chronically
jug
▁tubercle
▁hypothalamic
▁(12
▁uniquely
ogra
▁skinfold
▁adi
▁vomiting
▁(76%)
toli
▁CN
▁endotoxin
▁0.25
▁lining
Ta
▁bilirubin
▁ketoacidosis
▁interf
ocytic
▁incorporated
▁DP
▁shear
hemo
ovaginal
geal
▁confirming
▁neuro
dominal
oplas
▁-0.3
▁1.4
agic
▁corticosterone
▁MV
▁stool
▁anesthe
▁outcomes
distal
▁HI
▁1/
▁denervated
▁88%
▁inoculated
▁6.7%
okinetic
thal
▁infar
chicine
▁ileum
▁Staphyloc
soluble
▁microv
▁bronchi
▁FFA
▁hypoglycemia
▁biopsied
▁permeability
▁collateral
anat
cancer
▁aryl
▁carcinogens
▁inversely
▁150
adecan
▁anaesthetized
▁penile
▁redistribution
ntolamine
▁0.5
▁ablation
▁17.8
▁AVP
▁regulate
▁mening
▁atropine
▁000
roglobulin
bacter
▁suspension
ughter
▁ingredients
▁(35
▁promoting
▁unvaccinated
▁substances
▁hypo
▁nondiabetic
▁97
▁cytoplasm
ealand
apsulated
▁hamsters
▁likelihood
▁lupus
-22
▁315
zotocin
▁carriers
▁migrating
▁lethal
▁mortality
▁3)
oyl
▁eczema
▁187
tested
▁cen
urred
blind
▁averaged
ureas
▁peptides
▁94
60)
▁parasites
▁mM
exposed
▁athe
▁inherent
sufficient
▁marginally
▁clinically
zard
▁Previous
▁Stimulation
▁treatments
▁Individuals
▁179
▁microvascular
▁unc
▁classified
▁serotypes
▁spectrometry
folate
testosterone
▁pyro
thi
lux
0%,
▁melanomas
▁antacids
▁Overall
▁probes
▁digested
▁Recently
▁irrigation
▁comprising
▁rodents
▁euth
ths
▁PBL
▁uninter
▁jeop
▁40%,
▁selectively
mia
appropriate
▁canc
▁50%
▁(25%)
▁consul
ingle
▁4.1
8.
▁0.23
▁verification
▁occlusive
FSH
▁Examination
plication
▁analogous
smoking
patient
▁inotropic
▁reconstruction
▁surge
▁swelling
oxia
▁tumor
trical
rogenic
▁amygdal
▁47%
corrected
catalyzed
▁leuk
▁arthroscopy
oxicillin
▁regimens
referred
regn
requ
▁arom
wann
published
amphen
▁consensus
▁implying
▁thyroiditis
▁streptozotocin
▁1.31
▁5.1
▁(79
▁electrodes
▁secreted
▁circulatory
▁junctions
▁specialists
▁lymphadenopathy
▁(20%).
▁denervation
enol
▁HF
SEM
▁0.83
psin
▁transit
uracil
▁102
aryotic
▁appropriately
reness
▁microM
▁24.7
▁elimination
optic
itum
▁amplification
▁suppor
▁chond
▁virions
▁17.
opres
▁kDa
▁enteral
▁surveillance
▁glomer
▁glioma
▁misoprostol
▁assessed
▁sexes
jected
▁abundance
▁nifedipine
▁stent
-5)
▁microtub
▁Large
gated
▁recruitment
nai
▁infants
▁Approximately
ncy
▁ointment
▁0.26
▁adjusting
▁Inventory
▁adrenoceptor
▁baro
▁heal
▁acqui
▁Raynaud
▁Significantly
vac
▁alopecia
zoster
/20
▁Leu
▁95%
▁CRF
ustion
▁10(3)
▁sphing
▁amo
otransferase
▁vaginal
immunoreactive
phylaxis
▁12-
▁20%.
▁predominant
▁protec
resistant
▁vertebral
administration
ropine
▁MAb
omotion
▁eradication
▁neonates
▁rigorously
▁(1000
mation
▁scanning
tilage
quamous
▁polarity
▁fever
keto
▁diagnostic
erythro
ordial
▁analyzed
ipril
▁augmented
40
▁congenital
▁6.3
▁AO
2(
oprol
aldosterone
▁arrhythmias
asalazine
-4,
tococcus
tically
blood
aric
▁(-0.
▁MCF
▁exert
oprotein
▁(0.6
1%)
apanese
▁resul
iloride
oglob
iteal
▁mum
uronal
22
▁Thir
▁KD
▁pertussis
▁quantitated
▁perikarya
▁divertic
▁deline
▁longitudinal
▁dysfunction
▁ramipril
▁logistic
▁unwanted
others
ilibr
cellulose
▁fractionated
▁lipoprotein
▁harvested
▁novo
▁aggregation
▁exclusively
-3-
▁pell
▁CIN
▁indications
▁characterize
▁methylation
▁(1.0
▁plex
▁73
▁Formal
▁substrate
▁retarded
▁Ultras
▁1991.
Gl
▁0.61
trient
▁thrombus
9).
▁indis
-35
tetradecanoyl
6).
▁0%,
▁sexually
▁tubules
▁Increasing
▁resis
▁mothers
zymes
▁750
ductase
▁spreading
lymphocyte
stim
ographs
▁corticosteroids
▁bacter
▁anatomic
tradiol
▁fron
▁facilit
▁facilitated
▁Concentrations
oidal
▁hygiene
coronary
▁Delayed
▁angina
calorie
gesterone
▁Extensive
geneic
opulmonary
▁monoclonal
oconstriction
▁IgM
▁mitochondria
▁aqueous
2318
▁1.11
atment
▁negligible
▁trauma
▁atopy
▁303
▁(3.8
▁meticulous
▁astrocytes
ropriate
▁catalytic
idating
▁Urea
▁1.08
▁LM
orpor
▁PEF
▁BT
altered
▁retention
▁fati
▁[32
oplasty
▁3.8%
▁90
0)
▁raises
tism
59
5);
▁acidic
myc
▁Antic
yloid
▁98
thyl
▁0.15
thrombotic
▁triam
uin
▁vegetable
▁critically
obacterium
▁cocul
▁postulated
▁0.1,
▁paren
▁epidural
▁Nineteen
▁detects
▁outpatients
▁serologically
thin
ovulatory
▁conservatively
▁oligosaccharide
PMA
▁elicited
▁couns
▁0.51
▁circadian
-4)
IAA
▁exudative
examin
▁continuously
▁macrophages
▁illness
▁TPA
▁bacterial
▁54
▁cortisone
▁cirrh
▁modulation
▁68
▁genetically
▁reactivity
otassium
▁thio
reflex
▁previ
▁ventilated
▁initiation
▁randomization
▁enti
▁eliminated
▁modif
1/
▁28%
▁arrhythmic
▁immunologically
osyltransferase
.3%)
▁mL
▁sleepiness
FEV
▁voluntary
▁periodontal
osol
▁pene
▁restor
▁nasopharynx
idium
▁78%
▁thromboembolism
▁Smoking
ervical
positive
▁eluc
▁recombinant
▁Sephadex
methyl
▁sphinc
▁Simult
-10.
▁marginal
▁palsy
vix
ergy
▁etretinate
tch
▁leth
tiguous
▁2.5%
▁attenu
oxid
▁emissions
▁Laser
▁cyclo
▁1.45
ritin
▁tachycardia
20.
ophils
▁70%.
sors
▁unid
▁GDP
▁sarcoma
▁isoenzyme
▁standardization
▁bacteri
▁depolarization
▁Capsaicin
ophysical
rease
▁trich
adder
57
▁pathogens
ulant
▁ribosomal
▁opiate
▁0.17
▁prosthe
▁criterion
ithelial
▁sperm
▁2.8
eprazole
▁46,
trogen
▁lobe
▁mononucleosis
▁electrom
▁vasodil
▁cerebrovascular
▁1.32
▁sequel
▁vegetables
▁organisms
terone
idic
3]
▁medulla
▁submaximal
00)
▁100%.
surgical
▁dichro
▁thym
oves
▁cured
▁reser
▁precipitation
▁laminae
▁Isolated
orption
WBC
▁topo
▁(0.
▁differentiate
▁phy
▁Impro
▁excretion
responding
tenosis
.9%)
▁livers
oretically
▁spirometry
▁nig
▁hyperglycemia
▁hypothyroidism
31,
renol
▁Diabetic
▁dips
▁lamina
operox
▁glandular
glycoprotein
▁acidosis
▁PE
▁cyan
▁40,
ograp
▁fluc
▁traum
▁diazepam
▁influenz
▁14.8
▁gains
▁Kinetic
sion
▁multic
arate
▁induc
anded
▁ionophore
▁aneurysms
▁psychosis
▁glutamate
▁82%
▁sunlight
▁intrac
▁parenchymal
▁triglycer
▁phi
▁neutrophil
▁PLP
urea
EGF
▁births
▁luteal
▁IGF
▁fibr
▁metast
ateral
▁strains
▁140
ivation
▁62
▁syndromes
▁0.66
ustained
▁mitral
▁Respiratory
▁injuries
▁FE
000,
▁15%
lymer
▁12.0
GI
▁Consequently
▁radioimmuno
▁percentages
PRL
albumin
oneph
tir
▁sulph
occus
80
nisolone
ecyl
PKC
130
buterol
▁damaging
Au
▁repeats
▁uni
uppres
fibr
ignificant
▁incision
▁streptococcal
▁athlete
▁(43
▁luminal
pyr
▁Acute
▁1,25
oxazol
▁instability
▁grading
▁1.2-
obut
ufficient
▁IGFBP
▁reactive
24,
▁intral
▁mononucle
lyc
▁microb
▁encephal
IIIa
▁SPL
▁55%
▁synov
▁iat
▁elevated
▁80-
▁2/
▁Apgar
crimin
▁shar
▁azithromycin
▁treadmill
▁infarctions
romycin
alazine
▁supr
tate
▁immuno
-1.6
▁immunoglobulin
rents
▁CEA
▁inward
▁223
▁(15%
▁hypnotic
enil
ococci
6)
vals
absorption
▁cycloheximide
immun
▁sonography
▁alveolar
tiz
▁slices
▁inhibin
-1.1
▁tubular
entanyl
ocardi
till
▁19
▁antihist
▁deposits
9/
▁BMD
▁NADPH
▁titer
hemagglutinin
▁PCOS
▁incontinence
▁antib
▁establishing
▁grades
bronch
yx
▁uter
alanine
▁6.7
▁methadone
▁noc
odopa
▁nonselective
ecretory
▁norfloxacin
▁teratogenic
▁CHD
▁tear
rostenedione
▁7
▁portions
9%)
▁somn
endri
▁tenderness
/24
▁deposition
▁asymme
▁3
▁7.1
▁microtubule
acial
▁296
▁0.87
teroids
phenyl
▁degraded
▁grafting
▁thyroidectomy
▁59
induced
▁16%
cence
▁focuses
▁Progression
asses
▁responders
▁BMT
▁captopril
▁overt
ronate
▁3000
▁Transient
▁Doppler
▁pancreatic
▁cartil
Gs
idazole
2-
▁favoring
▁hazards
52
▁7.
▁socio
▁omeprazole
▁determination
▁0.94
▁fluorescent
arean
▁fetal
▁Cys
▁yearly
▁NGF
▁modulating
ollagen
operative
▁inflamm
athioprine
ziness
▁0.09
▁VAS
24
▁Fewer
▁unexpectedly
ffer
acylglycerol
▁pacemaker
▁calcification
▁nondis
▁syngeneic
▁amine
▁0.14
▁iatrogenic
magglutinin
herol
▁35
olerant
fortable
▁depended
tioned
▁STI
opar
turnal
▁84
▁transferrin
▁peritoneal
azol
▁cytos
ulates
iotics
depend
▁cirrhosis
▁cerevisiae
▁lytic
▁reasonably
▁decarboxylase
▁granuloma
▁polymorph
▁isolation
▁intraoperative
▁0.98
▁secretion
▁RII
▁plateau
bac
▁articular
-66
▁elucidate
▁competitive
▁judged
▁terminals
▁NF
▁NIDDM
▁necro
ochondr
▁peroxidation
▁ethyl
pended
▁-2
-5
▁excitability
▁Indi
eptides
ameters
lasting
iaz
opolysaccharide
▁Oc
▁neutropenia
.6
▁somat
▁stoichi
lyte
▁granulosa
trus
hop
▁noradrenaline
▁diethyl
▁uv
-90
▁experi
▁tubes
▁supra
▁Exposure
▁Enalapril
▁arteri
opal
▁cDNAs
saccharide
▁31
▁slowed
▁serological
▁sut
othiaz
▁tubule
lective
▁unil
▁erythromycin
▁transpor
▁dischar
▁drank
▁gynecological
▁1.01
▁ultrasound
▁hypogonadism
lix
tyl
▁Certain
▁electrocardi
▁Registry
▁polysaccharide
▁93
▁curric
adian
▁pleural
▁equivalents
▁cytoskeleton
▁9.2
otroph
alasin
-600
▁Almost
▁3/
▁velocities
▁chicks
▁(5-
onegative
6-
▁supernat
▁(1.4
▁11.2
▁absorbance
▁MCV
ethylene
▁stools
vascular
▁30
▁comparable
▁persisted
▁attenuated
▁appendix
▁umbilical
▁accordance
stimulated
▁stenting
plo
▁cytologic
▁autop
releasing
▁bronchial
operoxidase
▁prostatitis
▁opioid
▁dorsal
▁inver
▁arachid
16)
rophy
phic
esin
▁specimens
robic
sodium
performance
PSP
▁80
▁(10%
▁20,
ophilic
▁4.6
▁allografts
32
▁instr
tially
/100
▁tac
illus
-16
▁preoperatively
▁descriptions
▁alteration
0.00
▁PTS
▁75%,
▁curet
▁deleterious
isole
osan
terolog
articular
rhea
▁lisinopril
▁proving
pharose
▁MK
▁EMA
achol
▁washed
▁endpoints
▁effectiveness
▁1:
▁hsp
▁Excluding
▁seminal
▁VT
▁glucose
▁yr
▁undergoes
▁45
▁oleic
▁sati
▁infiltration
sts
▁200
eminal
▁isoelectric
.0,
▁92
otoxin
▁PCR
▁correlations
▁evaluable
▁impairment
▁ANF
▁distorted
▁mediate
utaneous
▁metabolized
-12
▁cef
▁termination
tiv
▁67%
transfer
▁stratification
▁tracer
▁gonadal
▁0,
▁septic
▁resemble
▁CM
examination
▁nutritional
▁adolescents
ventive
▁worsened
35
▁ceph
letion
otides
▁competent
▁phosphatid
ystitis
▁blas
▁behavioural
POA
▁codon
▁HM
▁DSM
▁dentures
▁systematically
lected
▁molec
▁ison
▁UT
▁sulfon
▁pylori
▁patency
plen
▁.0
▁transduction
density
▁detrusor
-100%
▁Bronch
5,
▁outgrowth
▁208
▁PV
▁diphen
oradi
▁SOD
▁catalyzes
ogenicity
▁pretreatment
▁bronch
agonists
▁allevi
▁oligodend
median
▁(42
▁depres
▁nerve
▁hypotension
.8
▁inflamed
ylcholinesterase
▁8%
▁regain
▁initiating
thoracic
▁surfact
amn
▁1%
▁absorption
▁regularity
TN
tectomy
urgical
▁0.59
▁menopause
▁chromatographic
▁0.1%
▁sumatriptan
▁merit
▁epidermis
▁undetected
▁serum
▁pati
ching
ials
10)
51
▁endings
▁nonsmoking
▁hir
▁modest
▁stiff
HB
▁abrog
▁hypop
▁bromide
▁recur
▁daltons
▁(4)
perature
tition
therapy
▁protr
2+.
stant
▁221
▁(2%
tenolol
omal
31
▁0.48
▁7%,
1]
▁succinate
6),
▁Wound
onates
▁psor
▁alters
▁[3
▁ethn
ucose
▁techniqu
▁36%
▁compartment
phor
▁libr
▁extracorporeal
▁alprazolam
▁nucleotide
▁Cells
▁trichloroacetic
havi
▁147
▁immunodef
▁Strep
▁51%
eck
▁gastrin
ymethyl
▁Mediterranean
▁transc
▁Centers
hiscence
trin
▁transported
oracic
▁165
▁exhibits
imid
▁irrit
ncies
odipine
▁inhibits
▁Optimal
Km
▁orally
▁progn
igarette
ocyt
▁79
▁44%
orh
▁virulent
▁caregivers
▁86
hesus
▁propionate
phrine
tissue
▁polymorphic
29
▁3.8
▁enrichment
▁12
▁phosph
▁flora
▁PRL
▁follicular
▁supplemented
▁900
%),
monstr
▁jejunum
▁ethanol
▁cyclooxygenase
abain
▁anhydrase
▁53
▁ration
▁adequately
▁fec
▁0.5%
-7)
▁cotinine
enkephalin
acr
.5
▁ischemic
▁1964
adrenoceptor
▁6-
▁managers
▁mildly
ystag
yridamole
2/
▁Surve
▁nonsignificant
▁degen
uran
▁phagocytosis
sequent
etidine
▁hypoxic
▁chlorpromazine
▁tibia
▁intestine
▁autonomic
▁inh
▁muscular
tivity
33
▁cardioselective
osity
▁streptococcus
issive
▁suspic
▁emerg
hormonal
urane
▁elongation
▁responsiveness
▁7.5
▁Improvement
▁115
ithromycin
tization
▁cylinder
cyst
methoxy
galact
34
ovalent
▁cytometry
oterol
topril
NK
rophic
▁Stroke
▁300
49
▁endos
▁158
▁denat
▁symptoms
▁midline
▁drops
▁prescriptions
ocular
▁chromosomal
▁epidemiological
▁collagenase
olved
▁mep
▁headaches
▁dexamethasone
▁1987
omplete
▁adolescence
▁Individ
▁antec
▁malaria
▁antagonized
▁cardiomy
▁ferric
▁Holter
▁53%
▁metatar
▁topoisomerase
ervoir
▁gluten
admium
▁condensed
▁administered
tilb
luded
controlled
▁identifiable
▁12.
▁shortening
chid
▁chloramphenicol
forming
▁similarities
cephal
▁Elevated
traum
▁(89
▁rabbit
-8
▁Ace
▁lectins
▁CABG
125
▁5-
▁failures
▁600
▁ventilation
8]
▁prescription
▁(6
▁predicting
▁satisfactorily
▁NAD
molec
▁Tyr
▁cotrans
imination
triglycer
effec
▁reas
ormone
▁simultaneous
phosphamide
-1.
years
▁11.8
▁412
▁DV
▁tachyc
▁hemat
olates
▁synthetic
relaxation
▁infrequently
queous
LN
valence
▁complaint
chloride
▁prostate
▁haloperidol
eric
▁cleaved
ture
▁UDP
onazole
▁Cardiovascular
▁underwent
▁adap
▁grains
sized
▁cys
30-
-8.
atase
▁elevate
▁manifested
▁Estim
etan
▁sph
▁overweight
▁catab
▁198
▁spinal
kage
▁glutamic
1%
▁proges
ceived
▁0.5).
cine
▁serogroup
▁strongest
▁192
▁chemotactic
▁vaccines
▁presumably
▁myocardial
▁acids
yses
▁transluminal
▁genit
usually
▁postoperative
▁3.2%
▁washing
▁morphologically
▁reflects
sy
accharides
▁bonds
▁10)
▁microspheres
▁theophylline
▁RI
▁AMP
▁(7%)
abin
-9
▁guanosine
operidol
▁Statis
▁heavi
▁100
▁breasts
▁vesic
▁valerate
/12
fractions
tisone
▁phleb
ichia
▁protons
▁nevi
unts
▁spermatozoa
▁vestibular
timate
▁263
orporeal
▁myel
▁slic
▁hamster
▁Symptom
▁4-
▁inhibiting
▁292
▁HP
▁maneu
etence
▁cytochalasin
▁anesthesia
▁basolateral
▁quin
▁utilizing
▁bivariate
orec
▁cardiomyopathy
▁ascorbic
ritish
0.1
▁ultrastructural
▁dopaminergic
uclear
▁massage
linked
▁saline
otrypsin
▁Disease
▁recommendations
▁diagnos
▁ori
▁ether
▁morphology
acid
▁5000
▁positional
▁exon
odds
transferase
Lys
▁emotions
▁lith
-7.
nisone
amel
Cer
▁intracellular
▁waking
▁213
▁ocular
▁deterioration
▁microorganisms
▁ack
▁liposomes
▁Biochem
iscal
▁strain
50).
▁maturity
▁panels
▁sero
apular
iability
▁aluminum
▁1.56
▁Ninety
▁adul
▁193
▁implants
▁75%
▁20
▁78
▁mononuclear
▁equi
titial
clonal
mented
▁laboratories
olem
▁ouabain
etitive
Fs
oreceptors
▁333
▁159
algia
▁Beta
▁mRNA
▁Biol
▁discharge
edding
▁lungs
▁seroconverted
▁glycine
▁bromocriptine
▁bleomycin
▁ductal
▁warr
▁Clinical
tivation
▁escalating
-0.
tinent
+/-
40)
antibody
▁participating
▁valproic
ffinities
▁pathophysiology
▁90%
epine
▁(60
▁correlates
8,
▁gyr
▁relap
▁restraint
▁disturbing
0,
feron
▁metabolism
urys
smokers
▁mg
uating
▁specialist
▁Neph
otox
oxyrib
.3
▁immunoprecipit
▁snoring
opic
▁leukotri
prin
▁notic
▁exudates
▁300-
sess
▁radioactivity
inephrine
▁OA
▁contral
▁adsorption
▁coli
▁Biopsy
▁reservoir
▁BL
▁nonsteroidal
▁Lyt
▁prono
▁coping
▁phospho
▁bladders
▁0.90
acerb
osite
▁bones
cervical
25,
guan
CBF
▁nights
▁transgenic
-10
▁endarterectomy
▁grafted
▁acetic
tral
▁inactivated
▁truncated
▁2%
oxygenase
▁amyl
onam
▁substituted
▁investigator
▁punct
porting
duc
67
▁infused
▁-0.0
ostatin
brom
▁Tumor
▁distinguishing
▁epid
▁hap
▁gon
ocin
▁castrated
▁comparisons
▁benzodiazepine
▁oxidized
▁musc
▁joints
elan
▁inpatients
▁variability
▁persistence
▁secretory
thrombin
attern
▁(100
▁encouraging
▁neuropeptide
▁septum
▁PTH
echn
▁systolic
▁compounds
▁Treatment
▁transcript
▁yohimbine
▁excessively
▁mim
▁cited
▁favorably
lyb
▁carbachol
▁isolate
▁lymphocytic
oping
armac
▁defecation
▁cytoch
thickness
▁diminished
▁preliminary
▁Functional
21
▁0.75
inating
unting
▁affects
▁COOH
regulation
.9%
▁antichol
fec
GMP
▁2.6
▁rigor
▁diets
▁Caucasian
erts
▁brainstem
▁185
kinase
ifug
▁237
▁contamin
icide
▁infec
▁miscar
▁Vitamin
aminidase
alian
gene
▁defects
icardial
converting
▁0.2-
▁cac
▁39,
gnetic
▁determinant
▁unselected
TSH
▁subc
▁exhibited
hospital
▁Myocardial
▁parenchyma
▁perip
▁homogen
▁proteins
otri
▁Likewise
oids
▁cephalosporins
▁succinyl
dibular
▁radicals
units
ucas
▁tolerance
▁technologies
▁schizophrenia
▁hypoxia
▁lact
skin
gesia
▁mite
tent
adrenaline
▁organelles
▁restr
▁immunoglobulins
▁tryptophan
tile
▁stratum
phosphonates
▁0.47
▁thyroxine
ercul
ermal
▁microscope
▁11.6
▁100,000
iferative
anol
▁PID
▁summarized
62
aced
▁6.1
vitamin
▁depolar
erance
▁bronchoalveolar
▁intest
▁harves
ositi
▁anastomosis
▁1,2-
osylation
assessed
▁substitutions
▁corpuscular
neph
lated
▁monkey
▁Fourteen
▁averaging
cepti
5]
overed
▁lyso
▁prophylaxis
▁(40
▁235
▁responding
▁esophagus
▁miconazole
.10
▁112
▁cysteine
▁(14
▁paras
▁positivity
▁jaundice
▁blinded
brile
▁peroxide
▁Eye
▁analysed
olization
▁valve
▁proteolysis
consuming
rement
▁mineral
▁balloon
▁hypercalcemia
▁extrac
▁myocardi
▁epitopes
▁ultrasonography
▁1.40
▁motone
▁62%
▁supple
oxide
▁accounted
▁bipolar
▁22%
10-
▁precipitated
▁graft
▁lowered
▁4.3
▁1.10
valine
ymme
▁cement
▁Glucose
▁subtilis
▁nutritive
-70
iol
▁faecal
▁mandatory
▁elevations
▁glucocortic
▁1966
▁arrhythm
ociation
-85%
ulatory
0.7
(+)-
▁hyperther
plemented
ocated
▁Mast
indol
▁diffic
omical
▁rash
ycline
▁celiac
▁0.
individual
▁proliferation
ypical
▁5.8
▁preferen
▁tracts
▁libitum
phasic
▁349
▁pS
▁fluconazole
.4%)
patients
▁departments
▁subun
osyl
▁efflux
imetry
▁beds
,000
▁Antim
▁perforation
▁21%
▁500,
▁detec
▁disposable
resist
▁ineffective
-6)
arity
▁295
ensitivity
▁induration
▁Mice
▁cyc
entia
erver
ilic
pecial
▁chromatin
▁chimer
isely
ylation
▁bac
gth
▁endo
wk
▁adrenergic
▁HBsAg
ADP
▁pathology
▁adenylyl
▁flexion
▁motivation
▁infectious
nish
▁preferential
▁nitrate
▁heparan
▁modality
positives
ischemic
▁bumetanide
onyl
▁regulation
▁pyramidal
▁Melan
▁psychological
▁203
▁reflux
▁arginine
urther
▁(4.3
▁labeled
hest
▁homozygous
▁linearly
▁cerebellum
▁96%
▁Patients
vate
▁vaccination
▁fibrob
▁oscillations
▁250
nary
identified
▁diseases
▁ultraviolet
755
▁183
▁degrad
▁transcrip
anav
androgen
▁radioactive
▁radionuclide
8%
▁strands
▁pts
oxal
▁worm
ispanics
▁hyperlipidemia
▁nonoperative
▁4.4
▁6.2
99
▁cloned
dehyde
▁mutagenesis
▁exogenous
▁Evaluation
▁81%
▁31%
cyclic
▁20)
tigo
▁lam
-1.4
▁adoption
▁characterizes
▁menses
sectional
▁premenstrual
amily
▁rIL
ropion
▁hypos
unately
iciently
▁biop
▁12%,
▁auditory
▁trigg
▁ANG
▁chimeric
▁clus
▁146
▁thi
▁hypot
▁57%
▁retardation
▁chl
▁surgical
▁discriminate
▁manifestation
▁sensitivity
valent
▁thickening
▁refractory
▁maneuvers
▁grise
▁humoral
modulin
adily
approximately
▁predictive
▁quotient
▁oxym
8)
▁24-
▁enrich
secondary
-800
BT
▁astrocy
ohnson
▁exercises
▁hetero
▁calves
tein
rated
aminase
"-
▁staphyloc
ACA
▁rigorous
▁ileal
▁41
▁ionized
▁respec
▁Sepharose
▁colony
▁parental
olesterolemia
aning
▁analys
▁hemorrhages
▁emesis
▁GM
▁referral
ropathy
acking
▁intrad
▁satur
▁LDL
▁pectin
SDS
▁titrated
▁encephalopathy
orrhage
▁metered
▁practic
▁cutaneous
▁monolayer
trypsin
▁osteopenia
comitant
▁longus
▁430
ectomies
mined
ifugation
▁leucine
▁fum
▁amel
▁Meas
▁aggression
xiety
/34
aund
▁1988
▁obstetr
degree
▁durable
endix
rocy
▁muscles
▁spirometric
▁phosphorylated
opropyl
▁antimic
onad
ostomy
▁PMNs
▁lowering
▁pulsed
▁cholesteatoma
▁postpartum
intestinal
▁metabolite
▁thrombolytic
▁sore
▁Antibodies
▁decline
▁oestradiol
▁TMP
▁immunosorbent
▁Adherence
▁mutant
▁activate
▁drip
gestational
mortality
gthen
ylline
dyn
glyc
▁classify
pinal
oretical
▁nonsmokers
▁ane
▁3.5%
acked
▁1.03
chymal
▁aspirin
▁serology
apeu
.2%
▁16,
erge
▁HeLa
▁receptive
acts
▁CAD
▁adipocytes
▁(90%
standardized
othi
stem
▁smoking
▁lactobacilli
fem
ipro
▁0.01)
▁patent
▁9.7
stress
▁glycer
▁folding
▁antifungal
oxazole
7/
▁RBC
▁phenomena
5%
mild
▁nucleotides
14.
▁660
tally
▁uncontrolled
▁intravenous
▁undiagnosed
▁hypox
▁thyro
estim
▁potentiated
▁healing
▁bilateral
▁preparation
▁reticular
▁82%,
astric
▁reductase
minute
▁choro
adrenergic
▁343
roxyprogesterone
▁4.0%
▁27%,
roxy
▁hepatocellular
▁incubation
▁glycosyl
▁regulatory
▁challenged
▁affinity
▁repor
adex
▁granulocytes
0%),
▁9%
▁cows
▁overnight
CAP
▁16
▁complementary
▁imaged
udin
15)
▁gelatin
▁considerably
▁carbohydrates
▁6)
▁cefixime
▁antidepressant
erox
▁inhaler
▁anticonvulsant
▁fluores
▁profound
▁356
▁preventing
▁antioxidants
▁LTB
▁PCP
clin
pinephrine
izine
HV
flamm
▁irritable
Barr
▁remin
metic
▁atelectasis
▁yeast
arous
▁examination
▁10(-3)
itant
▁pronounced
keleton
cad
▁Hg
▁measuring
yster
sibly
▁(2.6
▁biases
▁15%.
▁expiratory
▁radiologists
histamine
▁decarbox
ixation
▁quoti
▁65%
▁asymmetric
▁synaptic
phragm
▁micros
56
▁231
weeks
▁operative
▁Pseudomonas
▁Krebs
tration
0%;
▁paroxys
▁312
▁pentobarbital
▁reflex
enicillin
average
7-
osporin
thalidone
▁injections
▁osteoporotic
▁relaxant
▁bismuth
rought
▁carcinogen
▁AUC
▁headache
-[
haled
▁gels
attered
▁ald
ocytopenia
tants
bral
▁arthritis
▁inversion
▁61
▁saturated
▁ventilatory
▁lengthen
irradiated
eryth
imide
▁(50%)
olet
otypic
(1
▁1.5-
uary
▁exagger
ofl
▁dietary
▁challen
trophin
▁TB
vul
.0
▁panc
▁salts
▁atenolol
totic
uccessful
▁1.02
dihydroxy
iesis
▁extensively
▁differs
▁recr
▁246
▁5.5
▁empiric
▁ODC
▁10(9)
stranded
▁dex
▁0.0001)
▁26
▁disrupted
▁0.46
ullary
▁vasodilator
▁deduced
▁ferrous
▁soluble
▁melan
▁Tiss
▁chymotrypsin
iable
▁lipophilic
▁HR
▁excluding
▁radiological
SAID
▁otitis
▁EB
▁reflecting
.4%
IGF
▁exacerbate
▁advan
▁PPD
▁PAF
rength
tinguish
▁targeting
▁starvation
▁blot
▁calories
▁indomethacin
thmic
▁ile
+,
dihydropyridine
▁tRNA
▁BALB
conduc
▁formulations
▁sigma
hydroxy
▁nonpregnant
▁0.62
▁discontinu
▁permanently
▁RSA
▁Eight
▁fourteen
▁8%,
▁HCC
loxacin
▁theoretically
▁choleste
▁151
▁primed
urine
▁subclinical
uretic
nec
▁reviewing
▁increments
Hyp
▁acetaminophen
▁nef
▁antim
▁pig
▁congen
▁pound
▁mitotic
▁lamb
▁Seventy
benefit
-450
thel
▁hydrogen
▁heteroz
▁lumb
▁scars
▁mutation
hyde
clusive
▁cep
paired
▁microscopic
itance
▁2.8%
duction
▁unipolar
▁individualized
▁incis
▁margins
▁rhy
9,
rolog
▁4.5
▁anomalies
keratin
▁344
etine
▁melanoma
▁attainment
▁behavioral
lec
▁Plasma
spectrum
oprolol
opressin
▁indeterminate
▁oocyte
▁ruptured
▁excl
▁TNF
▁suspected
▁prescrib
7;
▁infertile
▁ribosomes
.3%
▁distress
▁eradicated
rangement
▁exacerbations
▁encodes
▁follicles
▁localization
▁fibrils
▁aeruginosa
▁10(-5)
▁commercially
▁trimethoprim
▁sensi
▁irritant
▁therapeutic
▁emulsion
▁(24
semin
▁xylitol
▁epithelium
▁extraction
▁catalyzed
▁(21
▁appendicitis
▁200,000
▁500
▁stimulants
▁124
▁immune
▁(0.1
terologous
▁increasingly
▁evolutionary
▁viewing
▁moiety
▁oval
primarily
mol
▁Effects
▁ratios
▁80.
elec
▁homocysteine
▁discharged
▁acetate
▁adipos
▁interviewed
unctiv
▁61%
▁prospective
▁diagnosing
tant
▁pregnant
▁epidemiologic
▁ranitidine
numbered
▁potent
ascular
▁Dex
4+
trained
-(1
▁abnormality
▁Cooperative
▁Findings
▁mucin
▁antigen
▁188
specifically
▁antitumor
▁confirms
7).
▁systematic
▁rearrangements
Gy
ortal
▁smears
▁chicken
▁isoform
74
▁peers
nowled
▁isoprenaline
ses
▁(8%)
▁2,
▁abruptly
▁recru
▁compli
▁familial
▁Combined
hetamine
yroid
▁simvastatin
/3
ritic
▁construc
▁synthesize
3),
tagland
▁prox
▁differen
▁adjuvant
obarb
lamy
pressing
▁elong
ovir
▁extensor
▁outpatient
▁132
▁identi
ronch
acti
▁(10(
glucosidase
▁dizziness
EAE
▁HPLC
iliary
▁FGF
▁antecedent
▁clonal
dividual
▁2)
yro
avage
dies
▁subunits
▁FEV
▁swabs
brain
▁cardiople
7)
illance
thood
tipation
▁Mg
▁2.1
tial
▁calf
piration
-1.5
▁epit
▁dodecyl
▁hydroxylase
orin
▁Ala
▁corp
▁morbid
▁arrhy
▁(36
odil
5.
▁mycoplasma
▁distal
▁1.
▁synapses
▁(2)
▁Incidence
▁1.3-
tinguishable
anesthetized
VV
▁tonsillar
▁surveys
▁inconclusive
▁252
▁milder
▁instrum
Ep
▁topical
▁Therapy
plast
▁recurrent
▁shel
▁-10
▁PBMC
▁preserving
▁optimally
▁hypertro
▁234
ighted
oselective
cystic
▁selectivity
▁numb
▁diabe
▁3.
▁MI
▁usefulness
▁indus
phyrin
▁ACTH
maximal
▁forebrain
romed
▁bicarbonate
neumon
▁deprivation
▁subfractions
▁hypoventilation
▁teratogenicity
▁IVC
▁Protection
hydroxyp
temperature
▁creatinine
▁palpable
inflammatory
72
▁glutamine
unsaturated
▁constitutively
▁synapt
▁infarct
▁1.07
pretreated
▁cortex
effectiveness
otype
▁IBS
▁consis
39
TCA
▁fibrin
▁denatured
▁athletes
avoid
▁avid
▁addressing
▁remn
000
▁ICP
▁1990
▁subpop
▁nonresponders
illar
enan
▁6.0
▁phosphodies
uvant
▁clothing
▁interp
▁3',5'-
▁pooled
▁symptom
fied
erated
▁inhib
phot
▁(54
▁GI
▁nuclease
electric
▁reper
enterolog
▁cephalosporin
▁vertigo
/18
CAH
▁serotype
▁suppres
sorbed
unctional
ogeneic
▁biom
▁abuse
▁onset
▁60%
grees
▁lysine
requency
obacillus
▁123
▁Randomized
▁mitochondr
▁98%
charomyces
▁persists
▁aspec
▁serotonergic
▁morb
rectomy
▁PI
▁syncope
▁(32
▁heating
reported
▁neutrop
▁chick
roximately
▁recombination
▁antidepress
▁climb
/90
pregnant
adren
▁anomal
▁renin
18,
▁2.3%
▁preval
▁ventral
▁insuff
▁reti
anis
▁plas
▁cGMP
tened
▁16%,
▁pediatric
cessive
horm
▁favors
BG
▁epididym
▁(63
▁1.2
phetamine
conversion
▁APC
▁daytime
responsive
ipitation
▁CDC
ranean
coag
▁Sout
▁chan
▁(30
▁radiotherapy
▁Trials
▁investigations
▁delaying
▁5%
▁Hispanic
reasing
calor
uscular
-45
▁PTCA
ylic
▁annually
▁allele
▁depressed
▁adequate
Asp
▁forskolin
▁coated
▁practition
▁abnormal
▁confined
Ci
ocys
▁43%
▁(1)
ensitization
▁supplement
▁HbA
▁lymphocytes
▁agglutinin
rosemide
▁mixtures
tebral
▁encomp
isol
atches
▁renal
lycemic
▁negl
▁ulcers
illation
▁2,3-
▁overestimated
▁promo
MN
▁spi
verbal
▁pups
▁carb
▁squamous
▁derange
deoxy
0%).
10.
ilep
▁Kine
▁identif
▁228
4-
▁Infection
▁kidney
ectasis
▁6,
▁irradiation
▁8.1
▁subtype
ystic
▁pneum
▁admission
▁neurogenic
osom
▁tox
cAMP
therapeutic
▁MAP
toid
▁Mn
▁enhanced
▁babo
▁epithelial
▁immunocompetent
▁ADH
▁exceeded
kilobase
0%
▁Mortality
▁TI
▁thalamic
mRNA
▁infarction
-1)
-3
▁.05)
▁reserpine
▁disulf
▁nervous
▁RS
▁swit
▁constitute
▁weigh
▁ferritin
nitro
▁continuing
▁axonal
▁Additional
▁histochemical
▁constituted
▁radiol
aterals
otamine
istically
rection
esthe
rological
▁Twenty
▁fibrillation
aline
▁Absolute
▁ketoconazole
uated
oligo
restingly
▁IDDM
▁opioids
▁oxidative
▁5.4%
1;
▁(70%
▁rhesus
▁rotavirus
▁glycos
▁0.13
adders
▁experiencing
▁meth
bly
reatine
dered
directed
170
▁molecules
▁114
xual
ocrom
ughters
ancomycin
lofen
▁glucuron
bilities
BW
▁hipp
tural
▁0.001).
▁Leydig
TPA
odg
▁elast
▁hemorrhagic
▁transcribed
▁warts
orbidity
▁regenerating
uestion
DH
▁80%
127
antigen
-5-
▁consistently
idol
▁survivors
vices
▁stromal
▁poli
▁colposcopy
accharide
▁trachea
▁calcium
▁endometri
▁incorporation
▁irrig
▁polymy
ocysteine
▁preventive
▁inoc
acting
hCG
▁antif
etus
▁goiter
▁victims
▁Chronic
▁excretory
▁Phase
enin
▁absorb
▁parox
immune
▁stenosis
▁destro
▁gonadotrop
▁hyperthermia
lasses
▁proteoglycans
▁verapamil
▁incidence
▁drinkers
▁meals
▁47
▁cofactor
▁-7
▁correlated
esity
organism
▁abrupt
▁33
▁176
astatin
arge
▁citrate
▁institu
▁0.79
▁134
▁distinctive
▁clomiphene
▁pharmacological
▁entero
▁dors
▁potenti
▁neurolep
▁Hep
-2.2
▁formalin
▁MoAb
▁bronchodilators
teric
▁pA
uctose
derived
▁endocrine
▁chromosome
▁deliveries
▁cromoglycate
▁demonstration
▁mobilization
olam
▁trabec
eces
▁0.80
▁Salmonella
vae
▁lysozyme
▁polymerase
▁secretions
▁expulsion
▁Fifteen
asions
0.8
▁rati
▁intermedi
▁compartments
▁rheum
▁semen
angiotensin
▁repetitive
▁TT
yrib
153
dle
▁1.0
▁7)
▁Patient
▁lavage
▁tablets
odip
▁obstetric
▁hypocal
▁Pretreatment
▁dextrose
▁whee
iotensin
▁reversible
▁bottle
PTH
▁neuraminidase
▁0.40
irub
rans
radi
▁progeny
▁iliac
▁eosin
▁phenotypes
onical
▁557
▁dilatation
▁pooling
▁confounders
▁CRH
entile
pap
▁colitis
lue
▁0.12
alic
▁ammon
▁Recom
▁histologic
▁automated
▁unaffected
elvic
▁cobal
▁mitosis
▁imipramine
rected
insulin
bility
▁4).
limiting
▁-0.5
▁pregnancy
▁27
▁fruits
01
▁neutroph
▁monolayers
anuary
▁58
▁SEM
umbered
ondon
▁competi
▁varic
NM
-14
▁resembling
▁worsening
▁136
clerotic
10
▁lymphomas
vertebral
tensity
llate
oagulation
▁Cyt
odialysis
▁stroma
▁16-
▁biochemical
▁sca
▁multim
(2+)-
▁enal
tee
▁unaltered
▁dele
untary
▁reinforcement
▁enhancer
▁plastic
▁proteoglyc
▁visiting
▁10(6)
▁acne
▁employing
xime
proved
NH
▁17).
▁staining
▁birthweight
▁nasal
▁administer
▁(48
tizing
63
▁interference
ocrin
▁extracellular
▁excitatory
▁occasional
▁tricyclic
▁18%,
▁antagon
▁bilaterally
.1%
▁(45%)
▁atherosclerotic
▁tendencies
amicin
▁127
ofen
ELISA
▁uncom
▁subdural
oceptor
▁brains
afibrate
▁vulgaris
▁gonorrhea
imus
▁plaster
▁paralle
gative
astatic
▁(5%
▁Staphylococcus
▁extre
▁durations
▁(-)-
▁LVH
aturation
kines
▁triti
▁0.7%
ophila
opr
▁LC
▁nonfatal
▁disclosed
▁transduc
opi
▁titres
umerous
ifed
▁successive
ancies
▁284
helial
▁immunoassay
odal
▁outflow
▁horseradish
▁aromatic
▁Sertoli
▁(3.0
▁tetra
▁arteriosus
▁murine
▁Neuro
▁126
▁ensuring
▁(1%)
▁195
▁sinusitis
torchid
▁semin
▁follic
▁reacts
▁0.35
▁(34
lamyd
▁25
ompan
▁163
▁titers
▁exchan
▁persisting
▁(20
▁Subsequently
▁apprec
▁radiolab
▁EA
▁commerc
▁Notably
▁hemisphere
▁budesonide
▁pulses
▁strand
▁oligonucleotide
▁corresponded
▁grip
▁peroxidase
▁12%
▁apoB
▁nitroprusside
▁stratif
▁pharyngitis
.4
▁60.
▁3.7
100
▁neuronal
▁seizures
▁protease
tiary
▁attain
borne
ameth
▁ET
▁fibre
▁artic
▁29%
▁antimicrobial
▁170
▁125
▁endometrium
▁Acad
▁follicle
Ox
LU
entanil
▁prospectively
▁randomized
▁LN
▁manu
▁abortive
▁chromosomes
iruses
▁283
▁particulate
▁frac
50/
▁promoter
ollen
▁Relative
▁Ia
atified
aind
▁cation
▁RT
omatic
planchnic
▁leukemia
▁schem
▁Stro
▁esophagitis
▁retinopathy
urin
▁HRP
▁enhancing
▁attitu
▁thems
▁cytotoxic
▁deform
▁-12
Ti
▁subunit
▁denser
▁recessive
▁cistern
quir
gestation
wake
▁drinking
▁gastroenteritis
▁85
▁juice
▁tritiated
▁lifelong
omized
▁correspondence
▁8
▁archite
-1.7
caro
▁NMR
pread
aminergic
▁methodology
▁rota
april
ovine
fts
cutaneous
▁duct
veness
▁gynec
NV
▁nonex
▁miti
▁fractionation
odeoxy
▁weighed
▁490
▁polypeptide
▁evolved
▁degeneration
▁AK
limb
▁LT
▁phosphor
▁8-
▁mucos
thmia
gain
edocromil
▁5'
▁carc
sial
uprofen
▁dissemin
herence
iary
mg
idym
▁equilibr
threatening
▁wors
vasive
▁capsule
▁PSA
▁supernatants
hep
▁isoproterenol
6.
▁dibutyryl
▁expend
▁analytical
rous
▁subgroups
▁outs
uccin
▁pulse
gland
▁quantify
uled
▁6.4
▁(0.0
ASA
amide
sibility
OA
avirus
▁odds
▁lumen
▁SHR
▁displaced
needle
FN
pregn
▁keto
uridine
-3,
▁hematoma
▁addiction
▁Asi
ygous
▁homolog
▁intractable
▁zoster
▁diurnal
▁239
▁qualit
▁perin
8),
odynamic
2+,
▁receptor
▁diverged
▁(40%
▁Higher
alate
epithelial
▁specialized
▁glucocorticoids
▁labeling
▁lactate
▁67
▁multivariate
▁inflammatory
▁ascorb
▁unres
▁NADP
▁Lymph
idin
portun
opulation
ejun
affinity
▁esophag
▁lithium
trop
lude
▁encouraged
▁unm
▁breathing
luding
▁14.
▁predominantly
▁0.44
▁synthesis
earing
▁(17
▁perone
LV
▁devoid
▁spasm
▁133
▁activators
▁10(-8)
▁tympan
rolateral
▁clearance
▁gastro
▁immature
▁capsules
▁Cardiac
81
▁chorion
▁apolipoprotein
▁Plate
▁menopausal
▁229
▁25,
▁somatosensory
▁phospholipid
▁detectable
oplastic
▁anticoagulation
▁epithelia
▁overlapping
▁transmural
▁esters
▁enhance
▁72
ylamide
4%)
welling
inamide
▁endometr
▁EI
▁ciliary
▁GTP
▁struc
▁monos
aminophen
ocortic
▁drin
▁ribonucle
▁relevance
▁compensatory
embr
▁repressor
▁rehabilitation
▁Haem
▁embryos
trip
▁immobilized
▁(97
▁Topical
ximal
▁(84
▁pharmacologic
rosal
imaging
▁aor
otropin
peri
▁DT
▁abolished
▁lateral
▁chorio
▁macrophage
▁slowing
▁amlodipine
ithium
▁kerat
▁lapa
▁putative
▁indirectly
▁hyperb
rosine
▁blin
▁wearing
▁influencing
▁infertility
▁0.77
▁OKT
9;
tase
▁23,
▁haemoglobin
treatment
▁transverse
olarization
▁intolerance
▁Factors
▁thymocytes
▁discharges
▁typh
▁muc
▁seizure
▁Inte
helin
paren
▁shifted
▁aldosterone
▁sial
▁fasci
▁cataly
▁167
▁590
▁cytotoxicity
▁physiotherapy
obic
▁cognitive
.8%)
initi
italopram
▁3.4%
arynx
▁improves
▁phage
▁10(
ocaine
▁thresholds
▁reproducibility
▁adenine
▁transplant
phosphatase
▁interleukin
lipid
yste
]-
▁biliary
▁nucleic
usions
inic
RB
▁persis
▁withdrawal
▁depolarized
ophageal
▁(0.3
▁Pain
roxetine
▁contras
50,
▁73%
▁sustain
IgG
▁7.0
▁inapp
▁19.
associated
▁protoc
compared
▁274
wes
opharm
tryp
ported
-1),
▁TS
▁cochlear
▁anticonvulsants
▁warrant
apine
fos
itudinal
85
▁desm
rophob
▁constric
▁3-
▁variously
antial
▁HBs
▁simian
firmed
▁plasmin
erents
kets
▁determines
▁resour
▁hybridization
▁detergent
▁corticos
▁vege
▁inspiratory
omia
▁74
▁presum
namic
▁Surgery
▁weighing
▁accurately
▁outward
plas
omorphine
▁kidneys
▁40
Pen
▁anxiety
▁13.9
▁Maximal
ipients
▁Oral
▁heterogeneity
▁incontin
▁chains
ietic
trous
▁serologic
▁cramp
▁2.1%
▁strengthening
▁quinine
eak
▁inconsistent
▁histamine
▁(28
▁dramatically
▁laboratory
▁femur
administered
▁nasopharyngeal
▁silic
▁regurgitation
producing
erate
0.0
▁uric
▁convul
▁irradi
hepatic
▁radios
▁ingested
▁dressing
▁0.49
omat
▁23%
▁implications
▁AIDS
▁genotypes
▁0.36
▁prostatectomy
▁Impair
1.0
▁feasibility
▁colpos
centered
dihydro
▁embolus
▁streptoc
▁aimed
▁utilized
▁Tolerance
▁CSF
anic
▁occluded
heum
phosphate
▁Framingham
▁ecz
conventional
▁transiently
ANP
▁vein
▁Hodgkin
oplasia
▁182
▁inges
cytochrome
▁interacts
700
CABG
▁parac
frequency
urations
▁antidepressants
siological
▁precursor
osynthe
▁1.3
sis
cycline
orectal
▁GST
▁conclusions
ichloro
▁protracted
▁Benz
▁hemo
0.6
▁projections
Ps
▁MF
▁LAK
sian
oic
▁kidne
gulation
ositol
▁blockade
▁trache
▁analogue
oste
▁adenoid
▁superim
24)
8).
▁lovastatin
▁rectal
▁develops
▁5.7%
▁3).
▁56,
▁SIDS
▁285
▁0.93
▁elastase
▁52
tually
▁posth
▁proteases
purified
▁activated
▁(198
filament
▁autoantibodies
▁homogenate
▁hazard
▁comprehensive
▁Thirteen
atitis
oprote
omyel
▁1989,
4;
▁colonic
himb
▁retinal
-1.0
▁excised
emic
peptide
▁(33%
phyloc
thmias
▁capillaries
▁Gly
▁bloc
▁collic
▁endemic
▁scarring
▁psycho
▁copper
orsal
raconazole
▁barrier
▁ammonium
▁49%
▁haem
▁downstream
opa
▁atria
▁acute
▁Prevention
▁Phosph
▁Tn
▁glycoproteins
itriptyline
▁anatomical
▁VO
ventricular
titis
nithine
▁overlapped
surface
▁doxazosin
affected
plications
ensi
▁PRA
monella
omers
▁attributable
▁retinoids
▁electrolyte
▁covalent
▁Rates
▁subcutaneously
▁Barrett
isoxazole
▁beneficial
▁throm
▁diclofenac
▁calcitonin
▁(67%)
olated
▁fold
aldehyde
▁histidine
istal
▁solubilized
afloxacin
▁clon
BSA
▁consistency
oactive
-30
▁carbam
▁sulfonylurea
amino
▁membranes
▁PGF
ytoin
▁323
ycl
partate
bodies
▁carpal
predominant
▁171
▁haemodynamic
estrogen
▁erythematosus
▁194
Hb
▁68,
Rb
▁detecting
▁cris
▁ppm
lycerol
ardias
▁(41%)
▁transferase
phil
▁thyroid
▁Systolic
▁-9
▁attrib
▁translational
inase
▁tubercul
▁2-3
▁computerized
▁intraepithelial
▁resultant
▁validity
▁puls
▁discrep
▁brush
▁uncoup
▁0.21
mitted
▁uncommon
▁thromb
▁OC
▁ventricular
▁fertile
▁infrequent
▁etretin
charged
▁angioplasty
kinin
(2)
▁contraction
▁0.05)
▁Diabetes
hydrop
▁newborn
▁atyp
▁lipase
▁differing
olec
▁(99
(+)
▁shedding
54
tryptamine
▁hypokal
▁neuromuscular
▁abd
▁vasculature
ogl
▁saphenous
omeric
oblasts
usp
imetidine
▁inositol
edded
▁103
▁(10%),
▁menstr
19)
ochemically
entan
terminus
▁33-
▁underestimated
▁altering
▁48
lamin
▁Inhibition
▁cardiopulmonary
mmol
▁(49%)
▁guidelines
uality
70)
▁immunosuppres
otrexate
▁dermal
▁inhalation
▁0.45
▁subcl
▁weakness
/4
▁nominal
▁granulocyte
▁fluctuations
-100
▁onc
▁omega
opecia
50),
▁questionnai
▁diagnose
▁intervention
thase
emak
▁cycling
sulfamethoxazole
▁immunoprec
▁adducts
▁Platelet
urnal
membrane
▁regulations
▁bilayer
▁enkephalin
azolam
enching
▁differentiating
▁alcohol
▁granulomas
▁undergo
▁2.5
▁Ade
▁66%
▁weekly
▁doxycycline
loon
▁pall
▁vag
▁0.05%
▁nodules
42
▁eighth
▁Older
▁0.5-
kely
▁197
▁cartilage
▁exhaus
▁soybean
▁GH
▁Leuk
othane
tosis
trated
▁sequentially
ropha
acer
▁irr
▁0.016
36
▁1.9%
ordance
▁abdominal
▁iod
▁endoscop
▁ischem
▁(62
▁amoxicillin
▁indication
ygen
▁adrenal
3-2
▁collec
▁excreted
▁harb
▁poin
MV
▁CAP
▁Crohn
trial
▁plac
▁incub
▁minimally
▁patella
▁7.5%
1-1
▁myocytes
chlorothiazide
▁suppressive
trib
labeled
ipramine
▁baseline
DG
▁4.8
▁oxytocin
▁Fluc
onucle
▁dias
predic
▁AML
▁findings
▁cyt
▁contribut
Ba
▁16.1
9-
▁Prol
▁attained
▁solub
▁susceptible
▁habits
hyd
▁genes
▁mellitus
▁gases
▁Plas
▁mimicked
▁messen
tension
▁depress
▁apnea
terminal
orable
azep
HN
▁macrom
▁intram
onorgestrel
▁(500
▁ruling
▁pituitary
▁phenomenon
+)-
▁stren
ronectin
embry
▁baths
▁electrically
mentation
atell
Ra
▁dissec
esium
▁GABA
▁polyacrylamide
▁invasiveness
irds
ipheral
▁proteinuria
mokers
▁adjustments
▁Aden
▁foci
▁suspensions
▁phon
▁renovascular
ithin
▁ml
fasting
urons
▁myof
▁ORF
andard
▁mesangial
▁heterologous
▁dimers
▁Longer
▁ovaries
▁kD
▁adoles
▁0.10
▁Increased
▁indicators
▁pulp
partum
▁paradoxical
▁glut
lact
▁Mild
▁anis
▁76
rine
▁withdrew
▁sorb
▁activating
▁0.0001).
▁felodipine
▁accompanying
▁brom
▁Various
▁papill
▁Clin
glucosamine
eal
▁vulnerable
▁iden
▁cysts
4/
glut
▁129
junction
▁GAD
gmental
▁babies
▁hypertensive
osocial
lactams
lycemia
lood
▁50
▁fluids
▁multiparous
▁reliability
icep
▁reacting
▁(1),
ydig
omerular
▁stret
▁digestive
resid
▁metoprolol
istribution
▁MRF
▁newborns
responsiveness
▁95
▁physi
▁selec
olute
78
▁262
▁endoscopy
▁incomp
rozen
▁negatively
1),
5%.
▁compound
▁ongoing
▁ophthal
plic
▁Peak
ovascular
▁(85%)
hered
▁ech
▁defective
.1,
▁flunarizine
vant
echan
▁0.64
ervated
utyric
injected
▁proline
▁0.74
▁oocytes
ostasis
▁2.
Ts
▁gyn
▁Modified
▁sten
measured
▁Educ
romatosis
▁dextro
▁envelop
44
iatric
▁1,000
▁PB
▁(13
▁Radi
▁1.66
3%
▁Myc
▁10.8
ysm
▁remo
▁overestimate
onomic
▁(60%)
ocl
▁epidemic
▁determinants
▁colos
▁epilepsy
toxic
osts
acrylamide
pH
ymp
▁24%
▁surgeries
obacter
▁dialys
▁1-
▁immunological
lactam
▁29,
▁inters
.7.
▁ole
▁periphery
▁mating
▁puber
orrheic
▁epidermal
▁recognizes
▁HPV
▁(25
▁quantitatively
▁lis
▁1.13
▁AI
▁scans
▁pea
MG
71
aminated
mates
▁TM
▁benzoyl
▁(24%)
▁100-
ionyl
23.
▁uptake
▁influx
▁coenzyme
-4-
▁wheat
▁20%
uminal
▁atheros
▁hexa
▁soleus
odiazepine
▁lasted
▁adduct
pig
▁1.6
▁matur
▁peripher
Glu
▁targe
▁200-
▁depr
▁Kd
▁endogenous
▁1600
tensin
▁resembled
cephalic
▁mediates
▁veterans
▁perim
▁unex
▁strep
Cys
▁oncogene
▁cytology
▁7.2,
▁upright
▁80,
▁stom
▁(86%)
▁diame
oscopy
93
contrast
▁promoters
▁occurring
genic
ocrit
27
▁(31
▁digoxin
▁hydrophobic
rhy
▁immunohist
▁accounting
▁morphological
▁urodynamic
▁clamping
▁endotracheal
8/
itr
vivors
▁eicos
cyt
olgi
oric
ophyll
▁ingu
ampl
▁subend
▁56%
▁Lactobacillus
-90%
▁cholinergic
▁acinar
▁Entero
ocyst
▁5.2
olysis
▁fatty
▁EE
▁spikes
▁Steroid
Cs
encephalon
▁Thi
▁evaluating
▁behaviors
ashing
▁550
▁sequential
▁examined
▁0%
▁144
tribution
▁predisposition
EA
▁cytoplasmic
▁lowers
▁1.12
▁1%.
▁GnRH
▁vascul
▁polypeptides
▁freshly
▁WK
▁adrenaline
▁lesser
irectional
▁proliferative
▁4%
▁decreasing
▁metastases
yrid
▁survived
▁pelvic
colem
▁Sexual
▁reabsorption
▁deficit
▁intrauterine
lasts
▁osmotic
amate
▁hematologic
▁extremities
▁glycosylated
▁2000
othre
atoma
▁focusing
▁nigra
▁subjected
▁Prevalence
▁classifying
(3
▁mediated
angi
igaret
tite
▁anat
▁angiogram
athione
▁fluorescence
▁sequelae
xanthine
opyr
▁0.3%
rested
▁typhimurium
PAC
opril
▁endoscopic
▁14.5
▁juvenile
▁regen
.1%)
▁accessory
▁urography
cemic
▁(23
▁(0
.0)
enic
imbr
▁pravastatin
▁progression
productive
▁cultured
ulline
▁cellulose
▁antipsychotic
▁allogra
▁hematocrit
▁alternating
▁coronary
▁erythrocyte
oice
▁thiol
hyp
osmolar
olum
▁278
ration
▁tissues
▁Organization
▁insignificant
2.
▁cereb
▁RNA
▁blasts
▁25%
olution
▁hydrolysis
▁contributes
▁glomerul
8;
nitros
▁17
sched
avail
▁mIU
▁characteris
conver
▁steroidogenesis
▁diffuse
▁hybrid
▁ankle
▁metabolic
receptor
erop
▁Dys
▁tolerability
▁sensitized
▁amput
gluc
▁malformations
IFN
▁thymic
▁weaker
▁clinical
▁cyclase
▁0.27
▁cate
ruc
▁fluoro
meg
fed
tigmine
▁elas
opath
▁inactive
▁operon
vertent
-3.5
58
▁1.15
▁(4%)
▁Tx
-50
tingu
▁therapist
iphene
▁44
cessively
▁autoanti
▁MHC
▁95%.
▁adjusted
▁Identif
▁mimic
PB
▁EGTA
▁preterm
▁psychosocial
▁paradig
▁inhibitory
▁regulating
▁stimulated
▁drugs
acetate
▁Cutaneous
▁10(-10)
▁bab
▁segmental
uracy
uation
competitive
▁covalently
otherap
▁TA
▁dib
leural
▁subarachnoid
▁22.
▁axon
▁preoptic
▁lute
sistent
▁bip
▁airflow
4.1
BV
▁Sensitivity
vastatin
▁cyanide
▁mesang
▁killer
odermal
▁calorie
tise
-10)
reening
oustic
yroxine
sants
▁splic
▁isozyme
▁obstructions
▁penicillin
▁lens
▁Km
▁86%
atible
▁(95
▁HB
▁ulcer
▁atopic
phorbol
initiated
▁medication
▁radionucl
▁3.4
▁(250
shaped
▁(7
▁experts
-3.
fate
uestionnaire
uplex
▁Pn
▁vasodilation
inatal
▁shif
▁waveform
▁Dental
immuno
▁20,000
▁MAbs
▁Eco
▁rigid
▁unstimulated
▁fertilization
coated
ADA
▁allograft
tropin
▁unrel
▁bradycardia
▁Bacter
cretion
acies
▁7.8
▁ND
anserin
otherapeutic
▁redox
▁peric
▁symptomatic
tical
sant
▁fluxes
▁passive
▁19,
▁macromolecules
itals
▁myristate
uebec
tection
▁interim
▁Decreases
▁unreliable
molecular
ceptive
▁kb
▁surround
▁13
▁malabsorption
0,000
▁reductions
▁164
ivary
▁efficac
AO
▁sterol
vian
▁encour
▁concep
▁hypon
▁decub
olon
tocin
▁0.02)
▁lorazepam
▁alginate
restric
▁1500
▁rheumatic
▁practitioners
▁mell
▁gly
▁bowel
▁locus
ocytosis
plies
▁Glu
▁lifest
▁PGE
traction
▁abstin
▁provoke
rowing
triglycerid
▁monit
▁Removal
▁starch
odgkin
▁steroid
arthritis
entricular
▁spontaneously
trol
bronchial
▁moderately
▁ae
▁digestion
▁TP
▁fathers
▁181
opl
▁retic
▁mutated
▁hypothyroid
▁enzymes
arb
amines
▁uterine
▁antisera
▁tracheal
006
▁depletion
▁hypother
▁examining
▁25%.
▁44-
▁Adequate
▁instrumented
17
ocomp
:1)
▁synap
embrane
▁(140
▁choles
▁epilep
▁7.7
▁ana
pite
▁exud
▁LHRH
tempor
37
abilized
▁myo
▁aging
1-2
▁LMW
▁ulc
▁fossa
▁pyel
idone
ications
othreitol
▁cytosol
▁10-
▁Subjective
▁precur
vaccination
▁sequencing
oplasmic
▁tetrodotoxin
▁gingival
▁hereditary
▁reticul
▁myeloma
▁pI
▁inguinal
▁biosynthetic
▁ICAM
▁electrical
clamp
▁amenorrhea
uronic
mental
▁anesthetic
ministration
CDD
▁exhaustion
spectively
▁neoplasia
lytic
roth
▁PMA
▁noninvasive
▁gonadotroph
▁intake
etoprotein
▁autocrine
▁Gluc
3.
oxifen
▁metronidazole
▁apparatus
▁Accordingly
▁mannitol
▁retrospective
xyl
▁DBA
2,000
▁diaphragm
▁ischaemia
▁EGF
▁10
▁cough
▁deficits
▁spine
▁(70
▁cellular
scopy
▁catheter
tRNA
▁competence
▁researchers
▁caloric
▁premise
▁13.2
▁visc
▁(76
▁Comparison
versal
▁overview
▁0.01),
anking
▁HCO
▁beclomethasone
▁radiographs
rowth
▁immunostaining
ediatric
▁18-
incidence
▁34%
▁localized
▁glial
▁lep
▁85%
ophil
▁intran
▁7.2
▁schizophren
artum
gag
▁complaints
▁metic
▁differentiation
specificity
▁Severe
▁activator
▁mutants
4.
viruses
▁28
▁benzodiaz
▁exerted
dine
romyces
▁microbial
▁solely
▁hyperp
▁acad
▁nosocomial
atation
▁raphe
▁101
bearing
▁cure
▁0.01).
▁adver
ystolic
-17
▁indicative
luores
▁tetan
2(+)-
▁nonprotein
allikrein
▁varies
▁oxidase
▁toxic
▁interferon
oprim
rendipine
▁34
▁Clinic
▁substantially
▁lamin
ducing
▁erythropoietin
DV
plicated
4)
iciency
▁91
/2
5-
▁halved
▁cohorts
▁sciatic
▁prostagland
▁100%
▁hepatitis
pation
▁spacer
▁adhering
-13
onate
▁retard
-80
Leu
▁worsen
razosin
▁peaked
▁antic
▁concordance
hydryl
ylchol
ygdal
▁conclu
ympathetic
▁voiding
▁hybridized
▁trophob
▁defic
ulants
▁accessibility
idne
▁quantitative
▁aspart
rotal
nee
▁thromboses
luc
▁concentrations
2,
47
mittent
▁topically
-10(
resting
▁326
▁intubation
weighted
lobulin
▁hydrophob
▁Gyn
▁synthetase
minis
▁disrup
aspartate
26
▁Renal
▁etiology
▁irritation
tro
▁0.5,
igible
▁noncom
puts
edema
▁0.89
▁activates
▁resec
▁hGH
1)
himbine
MHC
7%)
▁rostral
ROS
olytic
▁mesenchymal
▁clom
▁amin
3;
ograms
▁conditioned
yronine
2.1
▁diagnosed
▁BP
reduced
▁PKC
▁tachy
▁vancomycin
▁20.5
▁lor
▁cortic
▁arterio
▁patches
▁macromolec
▁microtubules
▁Scatchard
bular
▁genitourinary
planch
▁dB
▁caution
▁ganglion
▁concomitant
▁deletion
▁50,000
▁Epidemiologic
▁0.42
▁diaz
ystokinin
▁drinks
▁methodologic
▁(10.
▁addic
establ
▁sensory
assays
violet
ometri
▁(0.2
expressed
Trp
▁promptly
▁Eighty
▁cesarean
hap
▁undetectable
▁suspicious
▁pyraz
▁PT
▁11.0
▁(5
1-4
ylcholine
▁branched
▁enzyme
idation
▁obstructive
▁(56
assi
ralfate
▁Serum
▁MMS
-0.5
ogenic
▁TRH
▁LR
truction
▁NaCl
95%
▁recruit
enem
▁Histologic
69
tumor
▁54%
▁3.9
inj
▁vitamin
struc
▁130
▁lipid
▁abnormalities
hexidine
▁99
▁0.2,
4,5)
estive
iplinary
iterranean
▁purine
▁pentoxifylline
▁Combinations
▁139
▁63%
threshold
▁urtic
▁unre
VH
olesterolemic
▁prophylactic
▁appra
4,5-
▁radioligand
▁psychiatric
87
▁leukaemia
▁2.6%
(2-
▁relieve
▁cervical
▁adenylate
rocyte
▁positives
▁BA
▁risks
(2+
▁0.28
▁intercourse
olac
promazine
▁infusions
▁resistant
▁CVD
▁Pneum
opeptidase
nate
▁excitation
▁Physicians
pA
▁fibroblast
▁pmol
ALT
teroidal
▁oss
▁immunobl
timulation
normally
▁wavelength
tives
▁inhibitors
isopropyl
▁Rb
▁196
▁cGy
ofil
olitis
▁flashes
oproterenol
▁PD
excluding
▁widespread
▁myelinated
uterine
▁emphasized
-3)
300
adecanoyl
subs
▁MAO
▁Scale
educed
▁diary
opathology
▁Cumulative
vements
▁Sulf
etirizine
thanolamine
▁arti
▁fallopian
oprec
▁Ure
▁incom
▁abr
▁symme
rocytes
entral
▁parasite
▁cholesterol
▁correspondingly
▁dementia
▁Improved
▁drainage
▁microbiologic
▁motoneurons
mide
▁crosso
▁erythroid
▁tuberculosis
▁2.9%
moderate
omiting
ditions
arly
injection
tations
etition
▁NG
▁affec
▁Lipid
dipine
NIH
ecre
▁tertiary
▁purification
▁encoun
hene
▁complexes
atching
Ace
▁scle
modified
rostagland
guing
▁rehabil
▁penetration
▁allyl
▁Twelve
▁Purkinje
ginine
▁scinti
▁1.4-
▁reversal
▁DF
▁colectomy
▁Braz
▁counterparts
oling
▁Sprague
osac
tabol
▁90%,
