▁immune
ologically
▁peroxidase
▁umbilical
▁erythrocytes
▁dimethyl
odgkin
LV
ogenic
oblasts
▁immunofluores
ophag
▁labelling
▁excitatory
acin
ulum
▁aneurys
uppression
heres
▁rostr
▁mediators
▁amino
▁deletions
lobulin
▁spleen
▁objec
ults
▁diaphragm
▁vaccination
▁6%
▁prospectively
▁alanine
ctive
▁alteration
rogenic
▁slic
sorption
▁surgery
▁83
▁ligation
▁consistently
april
▁aorta
▁prostagland
▁46
▁44
ighted
▁dissection
▁labeling
▁spectra
▁400
▁8%
tact
▁10%
trin
▁fluoride
▁5'-
▁inhibitors
▁adrenergic
▁molecules
asive
▁guanine
onium
▁clinical
▁platelet
▁4.5
▁subun
.1%
alact
▁basolateral
▁phospholipids
immun
▁noradrenaline
▁administered
▁4.0
▁glomer
▁apparatus
▁immunore
▁recurrence
veness
▁myocardial
NK
▁fibrosis
▁protoc
▁13-
▁transmitter
▁bradykinin
▁experim
tructural
▁utilized
ADP
▁contributes
▁polymerase
iloride
▁abolished
acetyl
2%)
▁3.0
▁atherosclerosis
▁conjugates
▁recr
▁recombin
▁seroton
romycin
▁anesthesia
tic
▁pyram
▁activated
tance
▁crystal
jug
tus
plantation
aced
ynaptic
▁4.4
▁lumb
arcoma
▁1.9
-16
▁chemically
▁glut
▁EGF
▁AI
▁attenuated
▁500
▁plexus
▁correlations
▁0.001).
▁lamina
eradish
▁myel
▁inhibit
timulation
tiazem
associated
▁evoked
▁protective
▁direc
▁thal
▁resting
▁monitored
▁41
▁tRNA
▁SDS
▁chromatin
▁leuk
▁RV
▁prevention
oglobulin
tics
orbol
▁Recent
▁hormonal
onography
▁follic
▁resemb
▁proteolytic
▁phospholipid
29
▁embry
ymptomatic
▁blot
thyroid
▁lysis
▁stimulates
EA
▁molecular
▁parame
▁porcine
.4%
tran
.3
▁divalent
▁subunit
▁vascular
▁5,
roscopic
adiol
▁refractory
▁(10(
▁arti
▁7%
▁Subjec
sies
▁oxide
titial
ensity
▁ane
menopausal
stranded
▁kD
▁filament
▁epitopes
ses
▁recombination
▁78
oxid
.4
adm
▁Americ
▁(3)
▁genetically
▁precursor
▁solub
tive
iable
ologous
▁potentials
▁urine
▁glycoproteins
utaneous
iciently
TPA
▁cytokine
osynthe
ocyt
-2.
▁hemo
48
ophageal
▁32
▁regulating
urys
uble
▁glycerol
tence
▁vaccin
▁homologous
▁cessation
thanol
▁vagal
▁affinities
▁antibiotic
▁immobilized
obl
▁pmol
▁hospitals
▁LDL
▁myc
▁inhalation
▁Evidence
▁angioplasty
helium
▁ect
▁benz
onuclear
88
virus
osterone
teine
enteric
▁0.9
)2
▁monol
▁-2
▁fibres
,000
onyl
otide
turally
▁foci
▁wash
▁perin
amous
opoietic
linking
▁complication
▁38
▁acet
▁granulocyte
▁10(-8)
oxic
yro
produc
▁prophylaxis
▁transcripts
patients
▁mesen
tization
▁autoanti
8.
▁peaks
▁analogues
▁30,
▁sphinc
▁1.3
▁chromosome
▁centers
75
-9
ocytes
▁survived
wes
0.0
▁pene
▁ratios
LH
ensitivity
▁assis
ipramine
▁experi
aemia
▁effector
iper
▁depression
infected
▁portions
omatous
▁excre
▁phagocytosis
lycemia
3+
▁4.3
embran
▁prosthe
ortic
▁cytokines
▁stimulatory
▁allogra
▁discrimination
▁macrophages
▁platelets
▁heme
▁molec
▁ultim
thrombin
phrag
▁proteinase
▁cyclic
HIV
▁strom
▁limb
▁mobility
▁volunteers
▁microtubules
▁carcin
▁Sout
▁inactive
▁shar
mol
▁endothelial
▁28
23
erating
▁activate
▁histology
sia
▁diets
▁innerv
▁preservation
eight
▁pretreated
▁percentages
▁arteries
▁postoperatively
66
▁0.6
▁90
oidal
▁cann
alian
chicine
▁inhib
timal
▁TG
▁duodenal
▁phosphorylation
▁cytoplasmic
amine
uppres
ingle
▁hep
oxy
▁ulc
▁myof
▁histidine
▁oxy
aldehyde
▁abdominal
▁basal
(2+
▁inflammatory
▁Bec
▁fibrin
▁EG
▁ovary
rection
ocortic
▁tumor
▁characterized
▁neuro
acet
▁incom
▁acidosis
▁survival
▁distal
▁prophyl
▁stain
▁irradi
▁anxiety
olipoprotein
geneic
▁(10
sor
▁Cyt
▁Inte
Rs
▁monocyte
▁ELISA
▁45
▁diffic
ilical
urgical
▁immobil
hea
▁sigma
▁nonc
teroids
▁isch
omal
▁57
▁clinically
iotics
▁perfusate
asone
▁decreas
▁protease
▁advan
atation
▁astrocy
▁contex
nthe
▁thymocytes
puts
▁TNF
▁compartments
keleton
▁Immun
▁nude
▁exceeded
drug
▁91
▁satur
▁10(-4)
▁alcoholic
rotic
tophan
respon
▁7.2
▁sial
▁pHi
▁adverse
ubation
▁proteolysis
▁unlabeled
▁cartil
glycerol
▁sedimentation
rogen
▁bilateral
32
▁transported
▁reversible
▁mixtures
macropha
.7
▁proximal
▁hig
seud
othane
▁crystall
▁facilitate
▁29
lated
arginine
▁cys
▁aor
▁severely
▁synthesized
ulates
amuscular
▁Significant
▁ethanol
▁tetr
▁tox
▁reac
ffinities
▁secretory
▁normalized
28
▁hypertensive
▁triglycer
oplastic
pinephrine
fused
estern
ionine
▁vaginal
▁IFN
▁Salmonella
▁antiserum
▁monkey
▁thyro
▁shunt
▁glucagon
▁toxicity
▁spermat
thma
▁biphasic
▁isolates
▁60%
Ala
immunoreactive
arrhy
▁monomer
▁hippocamp
▁prognostic
tidine
▁depletion
▁mann
▁frontal
▁(0.5
LISA
▁termination
dered
5'-
▁pigment
▁lesions
▁keratinocytes
▁analysed
▁graft
▁edema
anine
▁rheumatoid
▁180
60
▁92
▁tobacco
0%)
bic
▁belie
▁demonstrates
▁wound
▁Overall
▁lowering
▁sensory
ergency
▁pools
▁ulcer
ration
▁hemisp
▁docum
▁infused
▁controlling
▁30
▁cancers
▁microscop
2-
▁cardiopulmonary
▁plaques
tition
atest
-7
▁eti
bac
▁reticulum
▁ureth
loro
orrh
▁uterine
inic
▁inadequ
▁cation
▁hemat
esic
▁contralateral
phosphamide
▁frog
ocamp
45
amic
▁silic
▁bowel
▁cros
▁mamm
125
astom
Kd
▁60
▁parietal
▁organs
unctions
tetra
otomy
▁aspirin
▁analys
siologic
▁impair
▁disruption
▁densities
▁epiderm
▁undergoing
▁fibronectin
▁6,
▁alkyl
effec
▁2.7
▁ejection
amide
▁lymphocytes
▁placenta
venous
▁ascorb
ivation
▁electr
▁myeloid
▁cryp
▁cere
▁autonomic
iaz
▁22
▁linkage
ubiqu
▁CK
▁classified
▁viruses
lood
▁drinking
partate
▁influenz
inemia
▁neurob
ofluores
▁catab
rophob
mental
▁hybridization
oreactive
patient
▁diagnosed
oxane
▁interstitial
terone
▁substitu
osin
▁mutations
▁correlates
▁leuc
immuno
▁concer
invasive
grees
▁bacteria
▁20,
▁aneurysm
▁hydrox
ocin
▁favorable
▁inactivation
▁excit
▁isot
▁moiety
▁particulate
minal
▁homogene
arent
▁plex
▁feeding
▁5.5
▁regulation
-60
▁iod
▁anemia
▁admission
mia
ostic
▁achie
aline
phadex
▁childhood
▁ET
▁dilatation
BH
tryptamine
▁antiser
lycer
▁cruc
▁dopaminergic
▁dexamethasone
▁cholinergic
▁HB
ATPase
ariate
%),
▁hemorrhage
▁acids
▁(1
-2
pir
▁absorption
▁gradual
▁1.1
▁underst
vul
tead
▁reacted
▁mild
onin
▁inward
▁conclu
electric
▁hepar
▁Plas
renal
acrylamide
▁BP
▁immunohist
▁encoun
▁2.6
▁bloc
ocytosis
trib
▁reconstituted
▁puber
rosis
▁cirrh
▁allogeneic
▁autoradiography
▁lumbar
▁nicotine
▁1/2
▁examined
▁androgen
▁contractions
inated
▁0.05
▁quantitative
ovine
▁calves
dle
▁HDL
IFN
▁differentiate
▁phy
▁mortality
▁membrane
▁motone
itic
30
▁carboxy
1,
1).
▁implantation
▁transduction
uclear
immune
ocyte
▁0.00
8-
clerosis
▁congenital
zymes
▁quantified
hest
▁cG
▁homology
▁cartilage
▁(198
topril
▁75%
-10
▁concomitant
▁15,
▁newborn
eak
▁enzym
▁2.8
▁lymphoma
▁numb
▁lactation
▁36
▁affecting
▁VT
▁cohort
ontal
ministration
▁gonadotropin
▁ultra
▁restric
icine
0,000
▁RBC
trover
ompan
ositol
▁corpus
▁pathologic
tiveness
▁potentiated
▁depressed
▁anesthe
▁kine
▁arrhy
▁monoclonal
orbent
ethylene
yrid
▁analyses
▁initiation
MDA
rine
omical
▁receptor
olesterol
▁decreasing
▁morphological
▁dehydrogenase
▁shifted
▁collagenase
arterial
subunit
▁clus
▁25-
▁sero
▁GSH
▁79
▁0,
atinine
▁hypertrophy
▁NMR
▁impaired
▁rhy
ospitals
sively
plication
▁chan
▁complementary
orectal
▁48
-1.
▁superoxide
hydroxyp
▁hypog
▁pancreatitis
glut
0)
▁conges
▁2,
ranolol
matched
▁identi
▁synaptic
▁AMP
ocardial
▁supernat
▁ranged
ecal
▁dental
admill
21
▁1.7
▁melan
idium
tious
▁donor
3).
▁ole
▁requi
▁mitogenic
▁adjuvant
22
▁incorporation
▁elu
▁tas
trogen
sorb
▁ANP
▁transfected
▁spine
▁prognosis
▁ventricle
ocortical
▁actin
opa
ilized
▁healing
▁negatively
▁progression
oA
▁obstruction
uminal
▁10(
armac
-24
▁possi
thymidine
▁antibody
erative
fts
▁substitutions
▁supra
▁21
▁autopsy
▁PCR
tryp
ographs
▁27
▁2.4
apse
▁TC
▁inoc
▁dyst
organic
.8%
▁90%
▁18
erence
▁gon
▁ile
▁invasive
▁antigen
osts
▁sham
▁neurom
▁(15
iary
▁intraven
▁substance
▁extraction
▁plasmids
mediately
▁nervous
itant
▁glial
▁duplic
gative
▁0.15
▁myocardi
▁cis
▁injections
toph
▁1000
entif
▁supernatants
▁recipient
▁inhibits
▁astrocytes
▁Doppler
esity
▁auditory
▁pharmacokine
▁cortex
▁PF
▁2)
derly
▁artic
restric
mature
-20
▁99
▁placental
▁uterus
▁tau
4).
▁sugges
▁catalytic
▁150
amines
▁adults
▁tes
gene
▁lamin
▁cathe
2+]
▁71
cein
ilep
globulin
accharides
▁spectroscopy
▁6
urane
spective
▁chromatography
6)
incubation
▁eliminated
▁85%
dibular
▁postnatal
ociated
▁alveolar
-5
▁brainstem
▁interfere
▁phosphatase
atonin
▁Fc
▁peroxidation
positive
ocompatibility
oscop
oblastic
▁Cys
▁TA
▁membran
terologous
▁clon
▁10(-6)
▁electroly
▁enhancement
coh
▁chemot
oconstric
tial
hion
▁degeneration
▁suppres
/1
▁prol
▁HP
▁Afric
derived
▁phe
▁stained
▁questionnaire
▁(9
elves
▁PGF
ietic
▁phorbol
mg
▁modulate
regulation
toxic
▁sensitivity
brain
▁seas
▁risks
▁induces
▁7.0
polyacrylamide
▁frozen
▁Lym
▁bacter
▁35
▁pediatric
▁RF
Daw
▁tubular
▁8,
▁decarbox
▁aortic
▁cardi
enicillin
opolysaccharide
▁strand
▁pancreas
plas
▁difficul
9%
▁veins
eration
▁uncom
▁surfact
00
ochle
▁propranolol
▁hypothe
amycin
8)
▁quantif
▁vitro
loon
▁pig
▁8.
rocy
▁nal
100
▁oste
opres
▁dissociation
▁Rats
▁consensus
▁anat
usate
iant
▁digestion
▁accelerated
▁0.03
▁passive
▁dehyd
▁CM
▁selec
5,000
▁chlor
-7)
▁glutamine
adrenoceptor
2;
▁haem
fusion
▁62
▁chromat
▁SEM
▁26
lasts
▁PD
▁fatty
▁radiol
▁retention
▁Escherichia
▁replication
▁ana
idate
▁isoproterenol
▁corresponded
▁retard
▁isolation
▁optic
▁phenyl
Dawley
cells
▁NaCl
▁cortisol
▁neurones
unts
▁reper
rological
▁neutrophil
ilateral
2+-
▁unstable
▁DP
▁muc
▁displ
▁oligonucleotide
16
▁leukocytes
▁genetic
ophilic
3),
▁vasoconstric
transformed
▁ery
▁physicians
▁reflux
▁anaesthe
▁assayed
▁genome
▁thi
MG
▁16
▁dosing
otone
▁isomer
▁inters
▁theophylline
4-
ranged
itrate
▁lact
▁3.4
▁disorders
epithelial
▁spectroscop
▁prel
▁estrogen
▁72
▁inducing
▁microtub
trial
▁acetylcholine
▁practition
olarization
▁10(5)
plete
▁junctions
▁lymphocyte
▁emergency
▁remo
▁mitral
otyp
cence
tained
▁translocation
▁bacterial
▁presum
▁superficial
▁occurring
▁1.4
▁follicle
▁Additional
utyr
lycemic
arge
1/
▁biop
▁synerg
▁deterioration
▁diagnostic
▁heterogeneous
▁analyzed
ignific
▁reas
▁symptoms
▁proton
▁contral
▁epinephrine
aturation
▁omega
atment
▁bleeding
▁Purkinje
▁progen
▁symme
/6
▁rectal
▁lec
ching
▁intact
+/-
▁23
▁calcium
▁cardiovascular
▁indication
▁synthase
▁dodecyl
glutination
▁weekly
▁fibroblasts
essation
▁unchanged
▁tracheal
▁addi
▁establ
▁comprised
▁reticular
▁conditioning
▁fron
▁dietary
▁reductions
▁excision
▁sequential
▁quanti
▁atri
▁nodules
▁kDa
ocrit
▁tonic
roxim
▁mRNA
6,
Gly
▁preparation
▁allele
▁-0.
▁medullary
itary
requ
57
▁sulphate
illaries
▁LH
▁ionophore
▁ewes
▁thickness
▁muscarinic
hern
▁soy
▁construc
▁progressive
producing
▁Tn
▁pyr
.3%
▁mothers
flammatory
▁microsomal
▁endotoxin
▁gluc
▁PTH
▁substrate
24
▁4-
gic
▁screening
▁shifts
▁coag
▁prazosin
plied
▁brady
tized
▁accep
▁inhibitor
adren
▁mitochondrial
▁activating
▁phosph
kine
▁gp
tric
trating
▁pharmacokinetic
blind
▁implicated
▁surfactant
2+
▁corticos
▁nuclei
▁NADH
chloride
▁acyl
▁54
▁Eight
▁latent
plies
otox
▁TGF
ffin
osity
▁fluorescent
▁practic
▁behavioral
ocar
▁microsomes
▁LHRH
▁prono
▁glucocorticoid
terase
▁preliminary
▁surround
roup
9%)
44
▁subgroups
reactive
gans
selec
▁cryst
igaret
hist
▁3%
imide
ymme
vian
went
▁provid
▁pressures
oactive
▁specificity
▁calmodulin
tradiol
▁luminal
▁synap
▁Compared
▁demonstration
urine
▁14,
▁distin
vae
▁residue
▁sour
▁lowered
▁fasting
▁CGRP
▁adherence
5-
ogra
▁15-
▁pyramidal
▁pancre
▁hepatic
tisol
idol
▁degrad
▁Tyr
terolog
▁prednis
▁poten
▁residual
▁aspec
▁lysosomal
feren
▁extracts
▁AVP
▁(+/-
-1-
▁hypother
▁supple
▁IgA
▁malignancy
▁motif
▁transi
31
ereb
▁plasmid
phil
▁NADP
▁descending
▁thereafter
keto
eptide
▁chemotherapy
sistent
2318
aminob
▁amo
pH
truc
▁Fifty
▁colorectal
tions
rated
▁enzyme
▁septum
▁0.
BV
dominal
alanine
▁homogen
▁previ
▁mell
1%
▁hetero
.2
cholesterol
▁Sixty
▁chromosomal
isomer
▁trache
▁glomerul
7%)
▁12-
▁8-
▁isometric
▁locus
▁findings
itals
▁immunoreactive
▁islet
phenyl
terminal
tage
▁coated
phragm
▁vasopressin
▁cate
chloro
▁unrelated
olamine
▁tumors
▁replic
▁tric
▁infarction
▁CNS
plasia
▁tendency
▁yeast
ogenes
cyclic
▁Recently
phot
▁ionic
-18
inositol
▁nucleotides
toxin
▁ribosomal
idity
▁overl
▁intrinsic
▁drin
4+
▁forskolin
▁infected
▁lipoproteins
▁CEA
▁24-
▁neutroph
chemical
▁structural
ologic
▁homogenates
▁alcohol
▁Effec
vely
▁implications
▁bile
▁angi
ercul
hyd
▁EA
ifedipine
▁cereb
:1
-13
▁spon
▁ester
-5-
▁ganglion
18
▁strategies
15
oag
▁hydrolysis
▁circulating
▁epithelial
▁inversely
lastic
2).
▁perip
▁SHR
-14
hydr
▁disturbance
0.5
antigen
.2%
▁aerobic
iotensin
0-
ethyl
▁(16
aicin
▁responsive
▁repor
▁resorption
▁blockers
▁metabolite
▁Calc
▁stimulate
.6%
ropha
▁substanti
yste
▁Lys
▁regurgitation
▁membranes
▁pneumon
▁horiz
▁1.2
▁chronic
▁carbohyd
▁colonic
▁melanoma
▁leucine
(1
lycerol
▁corticosterone
obacter
▁characteris
ture
▁glycine
osomes
▁focal
▁2.5
▁preferen
▁utilization
▁immun
vascular
ondr
▁dye
▁comparative
▁2.
▁contrac
tocin
▁subcellular
pecific
monary
sych
▁congen
▁(24
▁neoplas
▁antagonized
ronectin
rele
▁reproductive
▁magnesium
▁smokers
▁fractions
bearing
aminergic
otropin
▁IgM
Nase
▁myocardium
▁40%
▁respec
orphin
▁ADP
tability
▁IgG
occus
8,
tituted
trated
▁Mg
▁inactiv
rolog
▁DS
ayers
ialysis
▁80
▁immunization
ascular
▁precursors
▁potenti
▁coli
▁inositol
▁putative
▁vascul
▁hapl
▁125
ximide
▁0.06
igible
ejun
▁transplants
ergy
▁(5
-6-
ifferenti
ameth
▁continuously
▁abundant
cine
▁inges
▁determinations
▁successive
▁dendrites
▁pleural
▁valve
resistant
▁12%
selective
bral
lec
▁chloro
▁drain
▁amn
▁recor
receptor
▁terminus
kground
▁endocrine
IgG
limb
▁Measure
▁shorten
ophren
atible
▁exhibits
▁morphine
▁thiol
depleted
othelial
▁phenotypic
ficial
▁retina
▁visc
▁sarc
▁respiratory
▁hipp
▁adenosine
▁chond
▁triglyceride
ateral
▁rup
▁carbox
95
▁dramatic
▁relapse
▁plasmin
taz
adex
▁resonance
nec
▁dischar
▁enhances
▁mucosa
▁subpop
▁25%
▁subtypes
▁lens
▁projec
tro
▁viability
▁induc
wenty
▁abnormality
▁electroph
▁aden
uginosa
chymal
11
▁micrograms
▁Leu
▁halothane
▁fluores
▁sucrose
▁deterior
echn
gthen
▁phosphatid
thal
brom
nai
▁cardiomyopathy
▁modulated
▁pyruvate
▁monolayers
▁iso
▁mechanisms
▁cognitive
▁microscopic
▁ATPase
odies
▁prolongation
▁skeletal
▁constric
▁quantitatively
▁neurop
▁epidermis
▁peritoneal
sion
opoly
▁cisplatin
-3
▁attemp
arose
▁aldosterone
▁elevation
icient
▁accumulation
▁diabetic
odil
▁progn
thase
▁1,25
oprol
▁mV
▁(0.1
acchar
▁deficiency
opamine
▁bip
▁clamp
kephal
Tc
loid
-19
geal
MV
▁grafts
ticular
7,
▁competitive
▁TSH
37
▁thir
kephalin
▁decline
▁LT
▁Golgi
▁20%
▁follicular
epine
▁receptors
▁derm
orpor
iliary
idase
▁affinity
ancies
▁ACh
leukin
▁(40
▁centr
▁synthesis
mitted
▁longitudinal
itone
▁2.2
▁breakdown
▁GM
▁arterial
physiological
▁judged
▁7.5
▁conserved
namic
▁thrombosis
▁HCO
▁GH
▁89
▁neurons
anthine
▁recipients
2,
▁cyan
▁cystic
▁dismutase
spectively
tioned
▁oxid
2+,
▁45%
omyel
olateral
▁axonal
stim
bacter
odiaz
▁HPLC
▁presumably
▁contractile
.8
traction
▁Biol
opath
dial
▁radiotherapy
orec
▁vasodil
uary
▁fluorescence
▁Cardi
cellulose
rosine
HB
riched
▁morphology
▁aggregates
absorption
▁cellular
▁treating
▁capsule
▁dimer
▁homogeneous
ellular
▁stimulation
otri
ellum
phyloc
▁phosphodies
▁regis
rever
▁enhancer
inergic
▁tumours
eled
inesterase
▁coupled
itin
▁splen
5.
▁islets
▁95%
▁conformational
tur
▁interrup
▁stric
▁1.8
▁comparisons
6).
aminop
atient
omethacin
▁immature
▁(0
lox
▁hepatocellular
▁diame
▁EMG
▁peripheral
▁neon
▁tubules
rocal
orubicin
▁cutaneous
methyl
▁chest
-2)
▁evid
▁scinti
▁epit
▁mAb
▁intracranial
astric
▁resistant
▁instr
ylline
ulose
▁catheters
▁turnover
1-
▁weakly
▁4.
phic
90
▁(197
▁catheterization
▁5-
unting
▁conduc
erated
tak
▁spontaneous
▁transcription
▁galact
▁identif
siveness
▁52
evoked
▁assessed
osom
▁arachidonic
▁lobe
▁Experiments
eptid
▁surgical
▁regulate
otting
▁xen
▁42
+-
irradi
▁lute
▁panc
▁adrenaline
▁onset
13
▁HTLV
▁subunits
▁mitochondria
▁pneumonia
rocytes
▁pacemak
▁implants
modulin
sis
exposed
▁fluids
▁fertil
hydro
▁kidne
▁RNA
▁scans
▁FSH
▁erythrocy
tumor
12
▁vitamin
tally
liters
▁killer
▁clinic
▁bronch
-8)
▁behavi
▁0.3
▁implanted
chym
▁deter
acrine
Leu
▁gestation
▁examination
aterally
ximum
▁pancreatic
tub
▁retic
▁profound
▁connec
▁symp
▁apolipoprotein
▁hepat
▁imaging
viral
▁biochemical
▁limiting
▁saturated
TNF
▁Incubation
▁targe
▁refrac
▁suppor
▁localized
▁laminin
ially
oplasty
▁stab
itamin
▁deposits
▁cleavage
▁regen
▁(14
otre
▁acco
▁4.6
▁embryos
▁neuron
▁subjected
34
▁excretion
▁proteins
▁incub
▁70
entric
▁discre
iatum
▁differen
▁dilution
▁excreted
▁correspon
treated
▁promo
▁fibre
▁preval
▁tissues
reast
▁transmembrane
▁cavity
▁spontaneously
▁ambulatory
trop
▁stren
subs
▁injuries
▁retur
38
eptidase
▁conditioned
▁frac
iminary
-3)
▁Cells
▁promoter
▁examinations
okine
▁elevated
▁ocular
ohyd
-3,
▁tissue
▁eryth
▁(1)
electro
▁6.0
▁reveal
▁myelin
ditions
▁striatum
▁NP
▁(12
26
▁0.05),
▁0.01),
adily
▁termed
otin
tracellular
anuary
▁acetate
▁urinary
▁menstr
▁amph
▁TPA
▁vag
▁noc
▁radicals
▁lungs
1%)
stolic
▁crude
ceptive
ogenesis
achol
▁hematopoietic
▁bone
▁spind
▁(30
trate
▁pathological
tivity
▁1988
owever
DH
-4
trition
▁mammary
▁quin
▁inflamm
▁GMP
tiz
tribution
▁hormones
otherapy
▁nucleus
ipitation
▁anaerobic
▁fibrinogen
▁adren
▁10,
▁irreversible
8+
▁airway
▁envelop
▁pituitary
ochem
activation
/100
ituitary
▁dissec
chlor
▁ventral
▁larvae
▁pregn
▁antigenic
encephal
▁contracep
▁precur
▁hydrogen
▁biopsy
anav
▁reversal
▁quantit
▁70%
ithelial
▁biosynthesis
86
▁CMV
▁deficits
▁yiel
▁terminals
▁exert
olute
oxygen
pig
▁epsilon
▁aggres
portun
▁3.7
onucle
▁potassium
▁comparable
▁ischemic
▁posi
▁repl
▁oxidation
IDDM
▁viral
lact
incip
ygdal
▁adduc
▁(18
▁predic
▁reser
▁MAb
▁Forty
▁reflects
▁declined
▁illness
▁expressing
▁mM
▁obstructive
▁regar
duced
▁chromosomes
▁systemic
▁concentrations
▁sequenced
ocys
▁enzymes
itre
▁averaged
▁dismut
▁recordings
▁sepsis
tensive
ochemical
▁chol
▁predis
▁recur
▁fever
▁ald
▁satis
ivered
▁predominant
▁cultures
▁0.4
▁vaccine
▁immunological
estis
tically
▁vesicle
PAGE
▁WK
▁excluded
cessive
▁dorsal
illar
▁thrombin
▁0.000
▁strips
▁meal
▁virul
▁normotensive
▁fibrob
▁congestive
▁indications
ochrome
0,
▁dramatically
aminase
ositi
▁throm
▁subjective
-[
▁Clinical
kers
▁glutamate
▁doses
linked
▁electrical
▁ammon
▁adenocarcinoma
▁medial
5)
▁cultured
ensory
rotid
▁circulation
▁bac
▁decarboxylase
▁expiratory
▁characterize
▁accumulated
▁RI
▁ANF
tenance
▁PMA
▁molecule
▁Vmax
acetic
▁optimum
eroxide
▁77
▁HA
▁rabbit
▁desensitization
▁0.25
▁irradiated
oplasm
▁graded
ylic
▁tubule
▁acceptor
▁amplified
▁sarcoma
▁isoform
rogenase
▁ovari
▁stromal
ximal
▁alkaline
adder
▁synthesize
seven
▁lutein
▁hydrophobic
▁adhesion
erents
▁fructose
ocial
ifugation
▁[14
▁transforming
▁effectiveness
lobin
keletal
▁myosin
▁interferon
▁adenocarcin
tetr
▁55
▁ganglia
diabetic
▁percutaneous
▁antigens
▁mum
obarbital
esthe
▁allergen
▁Initi
▁abnormal
otypic
rangement
oea
▁reactive
▁multic
▁hepatitis
ucle
tured
▁cyclosporine
otoxicity
crib
▁pathway
▁survivors
-17
▁4.1
planted
▁hemorrh
▁duct
▁gland
▁mitochondr
▁Inhibition
▁catecholamine
▁smoking
hetamine
scherichia
bloc
▁regimens
astolic
onomic
uoden
thmia
▁retrospective
▁poorly
▁choline
etween
▁anae
▁phosphate
▁elast
lyc
▁disturbances
▁mutagenesis
▁0.2
▁positively
▁adjusted
▁pregnant
▁regurg
pyr
ocaine
arly
0.
ocyan
▁3.9
▁persis
Glu
▁0.01
▁inhibiting
▁uptake
▁increas
avail
Phe
▁displacement
▁drugs
▁adipose
▁rati
▁proteoglycan
▁gonad
▁dex
▁brom
iol
icep
odg
EGF
▁urea
oproterenol
▁monke
cepti
▁disappearance
tral
▁mutation
urther
▁deficient
myc
▁arachid
▁messen
▁heterogene
▁chronically
▁3.2
▁subpopulations
▁EBV
▁evaluating
▁vacu
▁anesthetized
▁NAD
▁availability
▁monolayer
phosphor
▁discus
▁olig
PTH
▁Clin
tration
▁pathogenesis
tened
9,
▁withdrawal
romy
luores
istar
▁nM
▁antagon
▁sympathetic
▁nitro
▁polyclonal
▁phenomenon
▁excessive
lym
▁Tran
▁pall
omotor
phthal
icidal
▁influenza
▁intensive
cAMP
▁altered
tingu
▁synov
▁analogue
oscopy
▁Taken
tin
▁96
▁acqui
▁cDNA
▁BW
▁phenotype
▁retrograde
ofl
odium
▁ovulation
▁salivary
▁Staphylococcus
▁exerted
▁lipid
glutin
2/
▁facial
▁0.001
▁lith
teroid
▁accessory
▁acin
tectable
reased
urium
ocytic
amino
assay
▁intravenously
▁ischem
▁beneficial
▁BAL
atid
dose
▁ileum
▁equilibr
▁reag
▁intense
▁degen
▁2.9
▁mobilization
▁muscle
/10
▁1.
450
riton
molec
▁beats
▁100%
▁onc
▁61
▁(17
▁detec
▁defic
▁commerc
▁natri
RNA
ozo
ocular
▁hormone
▁intracellular
▁vivo
▁Hz
▁(4)
crip
▁asymptomatic
iability
▁steroid
▁histologically
▁biopsies
▁tryp
tile
▁caudal
ylamide
heximide
▁dilated
▁functionally
2%
▁pretreatment
-100
LDL
▁striatal
▁interf
▁gestational
▁VO
▁cataly
▁0.01).
▁micron
educ
ields
▁staining
▁perox
▁corne
thmatic
▁Radi
▁neoplastic
▁contraction
▁80%
▁detergent
▁zinc
oyl
oprec
▁macrophage
RP
▁infiltration
▁oxidative
▁produc
roscop
▁CCK
▁theore
/3
▁efflux
▁12,
▁HSV
▁antisera
▁fetal
▁alleles
.1
tron
▁parie
▁metastatic
▁2%
acetate
▁discon
▁medulla
acting
▁agonist
affinity
▁restor
▁0.1
▁donors
▁linearly
▁ineffective
▁indi
47
▁testosterone
ginine
▁sti
▁cAMP
▁transplanted
mitter
▁purification
▁coronary
1)
ilibr
▁respon
asic
▁Pretreatment
vents
rospinal
▁Hep
▁parasite
oxone
-25
▁conjunction
▁chel
▁kinetics
▁mutants
▁libr
natal
exis
▁elucidate
14
▁blast
▁cytometry
▁glomerular
▁extracellular
-12
ucine
▁0.8
.5%
▁unex
▁ipsilateral
▁cortic
▁7-
hep
onstric
▁hydrophob
▁perfused
▁monkeys
▁Hg
▁decreases
elec
transferase
▁metast
vices
helin
▁regulated
▁prolonged
▁0.05)
▁12
oxin
▁1.0
▁hamster
▁caffeine
▁15
▁glycoprotein
ogeneic
controlled
▁elastic
▁7.4
▁differentiation
▁reticul
▁nifedipine
▁helix
operatively
▁arrhythmias
▁10.
▁3.3
▁NMDA
platin
▁antic
opathy
glyc
2),
▁steroids
▁symptom
▁physiologic
▁cervical
▁adap
▁selective
▁barrier
peptide
amel
tox
tent
▁dysfunction
▁standardized
▁bic
▁papill
▁activator
▁197
▁recurrent
▁titers
▁assay
▁disper
rein
▁adenine
▁incubation
-11
▁infants
▁pathology
rhy
opl
▁cerebellum
▁pharmacological
ctomy
+)-
4)
3.
▁creatinine
▁aberr
▁detectable
angi
ept
▁meth
resist
galact
duc
▁lipase
▁mening
▁pulses
.9
tual
▁76
resting
▁fist
oretic
ograms
maximal
▁electrocardi
▁implic
▁strains
idym
diastolic
ffec
mentation
echan
▁leukemia
▁overe
▁indus
▁inoculation
tabl
-80
▁bovine
dies
rected
edded
▁arthritis
▁polypeptide
▁morphologic
idation
posure
▁3.5
▁3.1
▁electrode
osides
alc
▁reflex
▁0.01)
ithi
▁glyc
▁pate
▁nasal
▁femoral
▁lacking
duction
▁amylase
CAM
17
▁clearance
▁3.
▁suppression
▁cations
▁trigg
▁(11
tum
▁hamsters
▁oral
trical
trous
5%)
oic
▁mammalian
▁4.8
▁bp
greater
luent
▁illus
atients
▁angina
▁impairment
▁etiology
throm
luding
▁arth
▁carrier
49
oprotein
▁qualit
▁pulmonary
▁examin
▁horm
▁19
▁PDGF
▁paralle
▁relaxation
▁bilirubin
ducing
▁adenylate
▁centrifugation
cardi
▁mg
▁exhibited
▁abor
▁phospholipase
adian
▁controver
56
▁cephal
fib
2.
▁tubercul
▁erythrocyte
▁gradi
mega
▁perc
arbonate
▁97
olism
▁nicot
/2
▁accounted
▁bolus
▁0.7
-50
clonal
▁diabe
000
▁dele
▁predominantly
▁mice
tagland
▁1986
pinal
▁therapy
▁deple
▁cytotoxicity
-1
ygen
▁microns
median
▁coeff
romes
azole
olgi
▁adip
ovirus
▁involvement
1/2
▁dox
lux
receptors
▁reactions
flamm
altered
▁4%
onuclease
▁hippocampal
▁intestinal
▁injec
▁VP
▁acidic
▁lys
anking
▁trend
trac
quid
▁deduced
otype
anol
▁efficacy
▁cysteine
▁disulfide
▁adequate
▁110
▁responded
▁Treatment
▁differing
▁solubilized
▁LD
▁recons
▁calor
▁intravenous
▁kidney
▁tracer
clin
oceptor
-1).
▁49
dihydroxy
tors
gland
▁reductase
▁precipit
yrox
tracted
stimulating
▁dissociated
▁histological
▁mmHg
▁cytoch
▁5
8%)
▁carb
▁hydroxylase
▁kinetic
▁embryo
▁50
▁RIA
▁160
olytic
Cs
▁olfactory
8%
▁plasminogen
▁canine
▁5)
radi
▁Protein
▁nig
▁creatine
omycin
53
▁succin
▁tachycardia
▁instrum
▁radiolabeled
fluoro
▁isoelectric
27
etitive
trypsin
▁filaments
▁echocardi
▁therapeutic
athy
thyl
▁stere
monella
ogenous
▁ACTH
▁carriers
adequ
▁56
olated
▁phosphatidyl
▁hypertro
▁electrophoresis
ospor
▁CsA
▁somat
jected
idated
▁affects
▁localization
▁syngeneic
▁injected
▁lateral
ncy
lyce
▁blocker
▁kinases
▁hyperg
actin
ACh
▁analogs
▁sexes
phrine
▁glands
▁10(6)
▁pathways
▁regulatory
osal
▁1989
ureus
▁93
▁0.02).
▁enti
Hg
▁muscular
▁ions
otassium
▁radioactivity
▁defective
▁58
▁ips
▁serotonin
opic
▁beha
▁consecu
▁messenger
▁penetration
vation
▁35%
▁clonidine
phyl
ineal
etan
▁promoters
▁50%
▁carboxyl
▁knee
▁ure
▁uro
▁neph
hypertensive
▁ey
▁hypothyroid
▁81
▁motility
labeled
▁TT
▁pigs
▁VIP
▁ventilation
kinje
▁amiloride
ostatin
▁Km
▁conduction
carinic
▁plateau
▁healthy
5%
▁gastrin
approximately
robic
▁infusion
ropine
▁underwent
releasing
▁Plasma
▁shor
▁peroxide
hyde
▁emerg
genic
Glc
▁pyro
▁.0
▁luteal
ylation
apamil
oxygenase
sibly
▁6.5
▁morb
omonas
ipine
-1),
▁phi
▁cytos
taken
▁probes
▁FEV
▁2.0
renaline
ogens
▁smo
BG
▁norepinephrine
▁wee
fec
▁LC
oplas
▁metabolism
opressin
▁tiss
FGF
▁venti
.7%
dine
▁heterogeneity
▁contamin
▁rheum
mediated
ochondr
▁intervention
▁diges
▁connective
▁atrial
lysis
erent
▁intermittent
▁ligands
▁projections
▁lob
▁cats
▁1987
▁cardiac
▁breathing
▁CTL
opha
▁discharge
▁transient
▁virtu
▁metastasis
▁AIDS
▁rhythm
▁suppressed
▁laser
▁tension
lyl
▁[125
arrhythmic
lix
▁preceded
▁polyacrylamide
▁hypox
▁hydroxyl
▁Triton
atitis
ignificant
▁seiz
ordance
▁Exposure
▁PGE
micro
9)
tives
▁Evid
sized
▁74
▁vesic
▁diaz
▁NGF
▁inoculated
▁tomography
protein
▁outflow
▁progesterone
ochemically
▁balloon
erate
tec
aturated
veolar
▁attrib
▁immunobl
ocrine
ogenicity
▁Thirty
▁GnRH
acted
▁umb
▁resul
36
▁ultrasound
▁rele
▁BALB
▁immunodef
BP
▁preparations
atibility
▁macropha
▁pH
▁prostaglandin
▁.05)
▁51
▁lectin
▁TCR
roximately
▁screened
▁nursing
▁duoden
▁inhibition
ostasis
trus
▁hypot
▁experimentally
▁9
▁repetitive
▁pK
▁somatic
embrane
ociation
▁novo
tures
▁RNAs
▁granular
▁immunos
▁phenomena
ipr
▁kidneys
▁markedly
▁absorb
BM
▁Elec
▁infection
tice
▁mineral
▁severity
▁68
diabe
olip
olol
▁polypeptides
gluc
▁granule
▁sodium
idine
▁PV
▁intermedi
ronch
RH
▁fmol
treatment
osus
▁diseases
▁ori
-6
▁nitrogen
▁neutrophils
▁junction
▁suspension
tabol
▁7.
.5%)
▁soluble
▁psychiatric
▁37
▁limbs
oglyc
▁pharmac
▁85
▁obesity
orption
otoxin
▁chamb
ochemistry
2)
assi
▁scre
▁Thir
rents
ecyl
6-
ulant
▁astro
▁oocytes
ocor
coup
▁determining
50
▁ethyl
olone
uctose
▁msec
▁stimulus
entricular
99
▁electrophoretic
▁questionnai
▁epithelium
▁obese
tation
▁cycloheximide
▁satisfactory
oradi
▁95
otor
icients
emak
19
▁cows
ocon
▁tumour
▁ferritin
admium
▁depolarization
▁deaths
▁asthmatic
rox
jec
▁endothelium
accharide
▁exogenous
pite
ynthe
▁responsiveness
▁incorporated
10
ropyl
▁aureus
bladder
▁simultaneous
operox
▁metabolites
▁peptides
▁identifying
7)
▁gastric
iasis
rophic
ensi
▁IGF
▁cerv
onary
▁paren
tality
23187
▁granules
▁reduc
▁1%
▁intraper
▁ascending
+/
ubicin
tomy
athione
generation
▁discontinu
▁preferentially
lue
▁opi
▁endoplasmic
eric
▁(50
motic
rometry
4.
oneph
▁yr
bly
▁cranial
▁morbidity
▁chains
▁0.001),
▁thromb
▁reviewed
▁radioimmuno
▁epid
▁47
▁tube
queous
▁seizures
▁anion
.5
venty
apeutic
▁Addition
▁agonists
▁tyrosine
▁radioactive
titis
lastoma
▁phenotypes
▁HeLa
▁enzymatic
▁trials
▁Kd
kinin
▁perme
▁Comparison
▁196
▁24
thel
▁PT
lusion
▁3'
▁complications
▁fati
ophils
achid
aryngeal
opathic
responsive
icin
▁11
ectom
▁rejection
▁UV
▁10
▁compli
▁diarrhea
▁preoperative
plants
▁3)
▁metabol
▁TP
-5)
▁oxidized
▁Changes
ercise
forming
transfer
▁prostate
▁saliv
▁differe
▁implant
oplasmic
amination
▁reveals
▁peptide
▁phospholip
]-
▁13
▁angiography
uric
siology
▁manifestations
▁bicarbonate
▁microM
▁assays
▁tended
▁afferent
▁treatments
▁synthetic
▁copper
▁wk
oprote
▁undertaken
▁additive
▁presenting
sibility
▁histamine
▁Whereas
▁6-
agic
entan
▁depres
epam
▁maintaining
ipit
▁59
semb
▁carcinomas
optic
clerotic
▁Cd
▁innervation
▁immunity
hemical
▁compliance
▁Wistar
▁phag
▁elec
unced
▁metastases
▁utilizing
▁0.001)
testinal
500
▁reperfusion
▁selectively
▁immunoprec
▁CFU
iotic
opausal
▁cytosol
dition
▁deprivation
▁synthe
▁hydroxy
operoxidase
▁diminished
▁100-
▁rats
▁stomach
▁undergo
▁residues
-3-
odialysis
▁calf
▁lavage
affected
ellar
▁naloxone
▁functioning
▁underg
▁undetectable
▁patches
▁compounds
▁atheros
lymph
▁adi
▁Previous
ylcholine
▁interc
▁subjec
▁probe
▁insufficiency
centr
ycl
▁citrate
▁.00
▁septal
▁spermatozoa
sors
▁lam
▁entero
▁surge
▁trauma
▁degraded
▁typh
▁axons
ploy
▁2
▁microscopy
▁attenu
▁cytosolic
▁endometr
▁venous
enzyme
6%)
tional
adrenaline
▁1,
4,
▁fetuses
▁baseline
osome
▁BA
turb
▁transplant
▁triglycerides
FN
▁thym
▁Twenty
ensitive
▁30%
▁abnormalities
35
▁complic
▁glutathione
▁encodes
▁extrac
▁PE
▁inhibited
▁(19
omes
▁progressively
▁parathyroid
▁genes
▁PAF
▁mug
▁(2)
inally
▁squamous
▁muscles
▁enriched
▁Neither
▁20.
▁amin
▁tryptophan
▁variability
▁(0.
▁5'
herent
▁pronounced
▁acces
▁physici
aminidase
oxide
ventricular
RF
▁cardiomy
ocl
▁immunoprecipit
▁phospho
▁(8
(+)-
▁mitotic
umerous
▁kb
▁pregnancy
▁GA
▁lactate
▁Intra
oresis
▁MI
tural
▁65
▁pati
▁stom
▁secreted
▁exposure
▁4.2
▁0.05).
rophenyl
▁bronchial
feron
phosph
-2-
▁10(-7)
▁enhance
▁investigations
▁trypsin
▁0.5
▁artery
▁kappa
▁98
▁pyl
▁enlarge
▁sph
▁esters
ocomp
▁ouabain
▁electrodes
▁schiz
lys
tamine
▁splenic
▁cytotoxic
orts
▁mimic
▁mumol
▁nm
ensities
▁esophag
osamine
▁baro
▁pulse
▁antib
ifed
▁deficit
helial
▁papillary
▁occlusion
occi
3,
▁oligos
▁infections
▁Dop
ergic
▁determinants
▁subtype
ophys
rozen
▁potentiation
▁(0.0
▁epidemi
▁8
meth
▁catechol
▁maternal
tents
yel
▁arteri
▁diarr
usive
▁5.
azol
▁esophageal
▁ACE
olysis
▁collec
atories
▁stimuli
▁fold
▁PP
-450
▁postsynaptic
▁LTB
earing
▁lesser
▁2.3
▁chor
ergen
oclonal
▁LPS
▁benign
▁proliferation
CSF
▁transcrip
amus
▁myocytes
▁competi
5),
▁renin
▁axon
.6
▁hybrid
erad
tention
▁progres
▁5%
▁1/
▁susceptible
dotoxin
▁differs
ichia
▁86
▁moderately
▁monit
▁syndrome
henyl
▁regimen
▁NF
CDD
▁maturation
▁53
▁methionine
▁serum
▁wt
▁polymorph
Tyr
▁3.8
oride
▁interleukin
ometr
-9)
uvant
affec
ropriate
anded
▁splic
▁slices
▁disulf
▁mediating
▁histopath
▁64
▁operative
▁exis
▁corneal
▁ubiqu
4%)
retin
▁liposomes
▁streptoc
▁temperatures
▁fibrillation
▁Increased
▁EEG
kines
secre
▁monocytes
▁depleted
▁1-
mittent
▁hypothal
ications
▁10(-5)
▁apprec
▁199
▁CRF
clamp
aemic
▁nmol
▁anaesthesia
saccharide
▁adequ
▁asthma
▁metabolic
6%
bility
ulph
▁responding
reed
PSP
▁reactivity
icardi
▁lipoprotein
▁fibr
ANP
▁strain
▁suscepti
TG
▁Increas
▁supine
hydrop
▁demonstrating
ocellular
▁glucose
▁rabbits
▁immunized
terol
▁fractional
▁selen
▁hind
▁preventing
▁malignant
ycin
▁plas
▁diagnosis
▁natriuretic
effective
▁randomized
floxacin
▁ventil
▁ECG
▁selectivity
▁0.04
ovascular
▁infec
▁investigated
-1,
aints
thmic
▁4)
▁hepatocytes
▁concentrated
▁remission
8).
▁antitumor
▁IgE
▁eosin
xate
▁colony
▁synthetase
▁hypoxic
▁intrav
▁guinea
▁Sprague
▁brains
▁lethal
ardia
▁resection
▁molar
tussis
sulf
80
000.
▁physician
▁moderate
▁mature
▁Mn
▁gamma
▁3,
▁bonds
mobil
fed
▁envelope
20
ication
▁transfusion
▁cytotox
▁suppressor
respective
▁supplemented
▁angiotensin
▁determination
ypical
▁84
▁hypoxia
▁assessment
ygous
▁neurological
▁fatigue
▁augmented
▁histone
▁hypertension
otroph
▁NH
▁mellitus
▁detecting
stimulated
itonin
▁insertion
▁malign
▁cen
▁circadian
5).
rease
▁modest
shaped
▁cyst
▁ovarian
pendent
molecular
▁biosynthe
▁pacing
▁20-
▁lymphomas
gth
▁afferents
▁ventricular
▁dose
▁sensi
otoxic
▁describ
itr
ogl
▁systolic
▁63
tries
▁amplification
acil
enic
▁thromboxane
▁depr
▁embryonic
▁isolate
▁spinal
▁mononuclear
.0%
▁sulf
odal
-1)
ophy
▁virtually
4),
▁influx
▁prospective
ffeine
▁reproducible
▁spermatozo
▁oxidase
▁gels
▁macrom
▁effec
▁compe
▁88
▁lesion
▁4,
idne
▁dyn
▁(95%
tivation
▁lumen
oes
▁[3
methionine
▁vein
omers
▁hypothalamus
▁testicular
rief
▁mRNAs
▁fluctu
ymp
▁3'-
▁mmol
▁neonates
ATP
▁sequencing
rectomy
requency
▁participate
▁accurately
▁pregnancies
▁ml
▁influences
▁RT
▁PHA
▁7
▁polymer
NAc
▁Insulin
itro
rophy
▁intra
▁spont
▁substrates
ylchol
▁nerve
▁methyl
▁vesicles
▁cigaret
▁leukemic
▁CSF
nRH
oracic
▁mL
▁hypothalamic
kDa
irubin
▁adhe
▁mutagen
fected
▁drainage
▁transferrin
▁unde
▁intake
▁discrimin
▁binds
▁amyl
directed
▁unaffected
3)
erin
restricted
▁nonspecific
▁atropine
▁arginine
▁genomic
dimethyl
▁codon
▁catecholamines
▁viable
loxacin
density
▁NADPH
▁evidenced
ifferen
deple
▁clones
▁cocaine
▁VLDL
ocarcin
usp
▁labelled
▁intram
▁keratin
▁aromatic
▁uter
uresis
-4-
▁subc
atine
3%)
▁subcutaneous
illary
overed
leu
▁granulosa
risk
▁agon
aneously
usal
43
▁labeled
▁potency
ylated
▁absorbed
hyp
▁MHC
otropic
▁hemodynamic
▁pineal
▁cholesterol
▁(100
▁preven
▁dial
▁seizure
▁lyso
Gl
▁plasm
▁leukocyte
urea
▁phage
▁normo
▁ppm
hydroxy
▁saturation
▁spor
25
▁hydroly
osyl
occal
▁statistically
olved
▁plastic
▁+/-
esium
▁kinase
▁Experim
6.
▁BM
▁extre
▁carbachol
▁Twelve
▁ech
omat
oglobin
thmias
▁guan
▁kcal
lytic
▁Strep
▁caud
▁HPV
▁determinant
▁nec
-30
▁defec
▁diastolic
▁prolif
MN
▁incubated
▁incidence
-2,
ifferentiated
glutinin
▁irradiation
▁developmental
▁LV
yroid
▁symptomatic
iciency
▁specimens
▁catalase
amyl
▁endothelin
▁depolar
ulin
▁(20
oate
▁sampl
▁arom
▁pneum
versely
▁transcript
uretic
▁secretion
▁ingestion
▁organism
IGF
yridine
oluble
▁contractility
▁2-
▁NT
ogenetic
▁proteoglyc
aptic
▁aggregation
▁excitation
▁stenosis
Mg
▁microscope
▁chloride
▁sinus
▁cytoplasm
▁capillary
▁cerebral
azem
▁GABA
▁Hear
▁strepto
▁antagonist
▁captopril
▁sulfate
titu
▁67
▁PG
▁qualitative
▁isop
gely
▁(6
▁mediated
phasic
▁confined
▁cholec
tle
sions
chol
▁infusions
▁0
▁retinal
▁dys
▁atr
▁yielded
▁aqueous
▁HR
▁exchan
irub
dehyde
▁3-
sial
cephal
▁resec
+,
athe
atoid
phosphorylation
oderm
▁fibers
▁phosphor
adrenergic
minis
onine
acr
▁epilep
operative
erox
▁benzodiaz
▁granul
▁bladder
tiv
▁blockade
▁4
▁pelvic
▁assessing
▁fluc
eptides
▁thems
▁oxygen
▁initiated
tivities
▁solvent
▁ultras
3-
▁vertebr
▁peripher
1.
▁loci
duce
▁capillaries
urons
ostatic
▁microgram
▁brush
▁endoscop
sA
▁tachyc
▁atrophy
▁diet
▁thoracic
olecular
▁wean
.0
▁structurally
▁nucleotide
amate
illin
▁idiopathic
▁traum
▁lipids
▁differed
educed
▁Respon
▁glycos
▁exten
▁cerebellar
▁hypo
▁1.6
▁Tum
▁sustained
omized
athyroid
yroxine
▁elong
tase
▁usefulness
▁outward
antial
▁orally
▁microv
bumin
▁surviv
▁rhe
▁neuronal
▁coval
▁postin
sy
▁multiv
▁renal
inhib
enkephalin
siological
▁anastom
40
▁albumin
+.
partum
▁10-
epti
▁pertussis
▁mono
▁fixation
▁PI
▁relap
jun
▁prevalence
▁substantially
carb
▁outs
▁cloned
▁diabetes
entral
▁carotid
osine
rologic
▁sediment
▁substances
renol
ucl
▁surf
▁mitogen
opulmonary
▁epidermal
▁cumulative
▁livers
▁exce
▁conformation
▁198
▁jejun
▁ae
▁toxic
▁disorder
apeu
▁34
tension
▁cyclospor
▁thymus
▁MRI
▁oligonucle
tages
GH
▁inhal
▁induce
▁hyperp
abain
▁HC
▁measuring
deoxy
▁forsk
athetic
bular
▁transloc
▁phenylephrine
▁120
▁triti
▁athe
▁allergic
▁stimulating
▁5.0
▁hap
▁monophosphate
▁serine
▁ventric
sive
orepinephrine
induced
▁arter
openia
▁dopamine
▁tuberculosis
taining
▁31
▁fetus
ectin
▁ligand
pharose
gesterone
arbox
▁epitope
7).
▁scin
▁somatostatin
▁pep
oids
icardial
ropathy
▁proliferative
▁proce
-40
▁spike
▁inflammation
▁agar
▁tach
▁Patients
tical
▁endot
razosin
ilic
▁cef
otypes
▁heal
onate
7%
bodies
▁prevented
tory
▁HLA
▁cyclase
▁glycogen
tine
▁endometrial
▁modulation
plic
▁necrosis
▁compartment
▁chick
▁lysosomes
▁HL
▁33
iatric
▁opioid
▁glucocortic
▁gangl
▁40
▁ket
▁organisms
▁shortening
▁30-
sAg
▁hypotension
▁65%
▁concom
monstr
-4)
operated
▁heparin
▁600
▁indomethacin
▁premature
insulin
▁postoperative
▁intrac
ectomy
▁carbohydrate
▁Serum
▁MIC
▁Differen
▁autoimmune
hydroxylase
▁fiber
▁KCl
▁extensively
▁alterations
▁irrever
▁osmotic
▁colonies
▁dors
▁rIL
ucose
▁biological
▁predomin
▁6)
▁synapt
▁mutant
entical
tein
3%
itol
▁untreated
till
▁reflec
arb
▁acquisition
▁deposition
▁adoles
▁susceptibility
0%
anding
▁ischemia
▁(13
▁cGMP
▁spati
idin
▁adrenal
luded
ulatory
ressed
▁cirrhosis
phosphate
endri
▁EDTA
▁acetyl
▁elic
▁immunoglobulin
osomal
▁prolactin
anavalin
itus
▁interv
▁sperm
▁(25
olic
▁dendritic
angl
▁filtration
robial
▁gradients
-8
▁inhibitory
orac
▁infil
▁HIV
▁casein
▁130
▁atten
trol
tinguish
▁follicles
▁antibodies
▁nutrition
▁hemoglobin
▁nutritional
ophil
▁aspartate
▁diffuse
▁insulin
▁predictive
sectional
▁analgesia
activated
▁purified
▁respiration
▁placebo
▁dextran
▁Glu
▁intest
▁exhibit
▁acute
▁degradation
ylate
▁chicken
enal
7-
▁presynaptic
▁encephal
▁tolerance
pregn
imens
▁saline
▁15%
▁82
reactivity
▁stu
▁Tc
rague
rowth
▁7,
nine
▁autop
▁MAP
▁hepatoma
▁asymme
▁deoxy
▁consis
sess
▁3
▁plasma
▁14
▁accel
▁organic
otides
▁parental
▁differentiated
▁standardi
▁gastro
tially
▁verapamil
ygo
▁supernatant
ometh
▁DH
▁retin
zyme
▁hCG
▁cyt
▁fracture
▁marrow
▁1.5
▁dosage
adrenoceptors
5,
titution
▁17
pread
coun
▁100
▁Meas
▁statis
▁6.
opes
▁currents
endorphin
▁PKC
uron
▁1
trum
acylglycerol
mL
▁excl
▁alcoh
▁synergistic
(2+)-
▁dib
▁enhanced
▁300
▁reversed
▁apical
plastic
▁immunode
acyl
▁reconstruction
mented
▁immunosuppres
tility
4%
▁clonal
▁basement
▁potent
▁exclusively
▁swelling
▁shif
ophore
silon
osidase
eces
▁cytochrome
▁supplementation
▁plac
▁fibroblast
ectomized
▁idi
▁postulated
bacco
▁duplex
▁lambs
uscular
▁PB
▁MV
▁250
▁sulph
▁inactivated
▁hippocampus
▁physiological
▁aeruginosa
▁decreased
▁polyp
divid
▁wheat
▁66
▁TRH
▁Ia
▁micros
▁94
▁tolerated
▁200
▁ultrastructural
▁inotropic
▁cyto
▁fractures
▁sple
▁140
▁cigarette
▁abundance
-6)
▁exon
▁suspected
▁perfusion
▁leukotri
▁strep
▁aspir
versity
truction
▁HBV
▁69
▁Pseudomonas
▁adminis
hepatic
olus
oside
inephrine
▁laboratory
GF
▁hypers
phosphatase
70
tively
▁biliary
▁adducts
ylase
illus
▁antagonists
▁Inhib
ayed
mong
▁nerves
▁eluc
▁analges
▁regeneration
▁mediate
▁nons
teral
▁pump
▁constr
▁latency
▁thymidine
ymptom
39
▁ranging
▁sten
▁mucosal
ophylline
▁autologous
tative
deficient
kelet
▁medication
▁coagulation
▁dialysis
▁unilateral
▁synapses
ffinity
DNA
▁attributable
▁permeability
▁alkal
▁transplantation
▁thyroid
▁canc
▁paired
ritis
▁homoz
▁Staphyloc
▁histologic
ecan
▁elimination
▁heteroz
▁(7
▁39
▁lymphoid
ullary
ensitization
crimin
acement
tensin
▁amyloid
▁anomal
coated
▁catheter
▁intestine
▁rostral
▁PRL
2+.
lasses
+]
▁infarct
CoA
▁phosphorylated
asal
▁challen
FU
▁1:
▁stret
▁mast
containing
▁bab
▁intraperitoneal
kely
▁87
itoneal
▁scanning
▁herpes
▁eluted
tif
kinase
▁proportions
acts
▁enl
▁autoradi
▁compound
▁inh
.9%
ecu
▁20
idazole
▁complexes
▁stimul
▁hyperplasia
▁3.6
▁mesenteric
regulated
▁intermediates
ranial
▁elicited
▁exposures
adenosine
▁MT
illation
piratory
▁isoforms
▁recombinant
▁plaque
▁conclusions
▁-1
▁transcriptional
▁immunosorbent
▁Nine
▁lamb
▁intrap
▁collagen
thym
▁toxin
▁75
▁prostatic
zard
▁(2
▁correlated
▁pressor
tructive
▁GTP
▁hams
aryn
odynamic
▁cyclo
▁infectious
▁oxytocin
▁paras
acid
obarb
▁antibiotics
▁calcitonin
▁neonatal
unctional
▁(5-
▁offspring
piration
▁insuff
▁techniqu
▁infar
olution
otrexate
▁43
▁2.1
▁puls
▁reproduc
▁conductance
▁dete
ylephrine
olec
amethasone
▁adop
▁injur
sts
▁toge
hydrox
▁anticoag
oreceptor
▁liver
▁affec
ographically
▁struc
▁neurotrans
▁promin
▁testis
▁considerably
▁immuno
▁stimulated
toc
uvate
▁0.0
nitro
1),
tinu
rous
▁elderly
bred
▁spectro
benz
▁(3
▁reabsorption
atase
glucose
independent
emic
semin
aired
-15
▁1)
▁lidocaine
▁dihydro
intestinal
▁disrup
▁bypass
▁carcinoma
▁aging
▁Conversely
cyt
▁(4
▁muta
▁lymph
▁defects
ritin
▁anatomical
▁cortical
▁oes
ifug
labelled
▁radiolab
▁intub
sensitive
ocardi
mend
▁73
55
▁upstream
▁mim
NH
olipid
rates
▁facilit
assium
▁murine
▁PMN
growth
▁tooth
▁deletion
xia
▁0.02
▁transpor
avage
ropo
▁dendri
▁estradiol
▁Hb
▁endogenous
nucle
▁lysine
▁neoplasms
▁25
ulmonary
▁persisted
