▁arteries
ocarcinoma
plantation
rophob
▁somatic
▁prospective
▁injur
▁specimens
▁cuff
▁zinc
▁SCH
omotor
operatively
▁ablation
ypical
▁unde
▁chloroquine
▁judged
▁uncom
▁trophob
coun
inic
uted
▁neurologic
▁implicated
ochemical
oidal
▁awa
▁contral
▁pathway
lac
▁sexes
gth
▁creatine
▁ket
▁cohort
▁ile
phal
opro
▁extre
▁implant
osomal
▁lis
qui
adder
▁postmenopausal
▁placenta
▁prednisone
clinical
▁pathologic
ocul
erb
ostic
oxic
▁polymorph
▁ganglion
▁HPV
▁GFR
arean
estig
▁echocardi
▁nal
▁chemo
▁secretion
▁differen
▁fetus
Tc
▁fracture
bral
otent
oxif
▁necrosis
▁distal
▁disruption
▁preliminary
▁positively
Ts
▁lipid
▁immun
▁undergo
ophren
▁impaired
▁contributes
▁catheter
▁endoscopic
gative
atrial
▁Kup
▁displacement
▁excre
▁mann
ocyt
▁inflammation
sive
tak
▁abnormalities
▁ischemia
▁endothelin
NB
onc
ostatin
▁lar
▁leuk
regulation
▁eosin
ortic
eration
▁pall
▁MHC
induced
BV
▁perip
occi
▁injected
zard
▁comprehen
uterine
totic
▁inadequ
bac
▁homogeneous
▁athe
▁unilateral
ults
▁summ
▁diminished
▁PCO
▁sphincter
▁increas
versely
▁benz
▁rhy
oglyc
▁subf
▁mediates
▁tertiary
▁glut
▁simult
▁hospitalized
▁cortisol
▁ratios
▁perin
▁mortality
▁microvascular
encl
▁recor
▁adenocarcinoma
▁efficacy
▁acqui
tus
▁hepatic
▁glycoprotein
immune
▁ovarian
▁tumour
ilical
▁gallst
▁ambient
▁invasive
sies
▁demographic
▁hypertensive
▁MV
▁dysfunction
▁neutrophil
▁characterize
otomy
▁thi
▁juvenile
▁intensive
▁pharmacological
dominal
▁metastatic
tur
▁hCG
▁MRI
▁progn
▁rheumatoid
tinu
aturated
▁combin
▁acids
operative
▁scin
responders
▁contrib
▁adjustment
HM
oxia
▁cadaver
▁Tumor
vic
▁transient
▁ultrasonography
urgery
▁reagents
▁resected
utions
▁aorta
▁crest
invasive
▁inten
illary
▁Clinical
▁coh
▁tumor
estis
lasting
regulated
▁spon
▁proportional
cis
▁reductions
cents
ocardial
atients
▁resuscitation
▁angiography
ygen
▁curative
controlled
▁regulate
▁correlates
▁RA
NH
▁cardiomy
▁physiologic
▁tracer
▁saturated
▁TG
▁empir
▁repres
tin
▁subgroups
ergy
▁pressures
▁fatty
▁TB
▁reflux
ximal
itance
urine
rae
hemical
▁effic
lyc
▁distrib
▁cigaret
▁ACE
▁pyl
▁pylori
▁reas
▁heterogeneous
aneously
▁congenital
occal
▁retention
▁relapse
▁proliferation
tein
▁subjected
▁endemic
▁differentiated
▁deli
osal
▁herpes
▁cancers
▁perinatal
▁reproduc
▁valve
erate
▁underg
ometr
▁bir
▁fati
▁HCC
irc
▁fractures
oic
▁susceptibility
▁measurable
▁assessing
vice
hospital
tum
▁insertion
▁avail
▁biop
aemia
▁correlate
▁CMV
▁decreas
▁thir
tero
ociated
kage
othelial
▁sequentially
iary
▁reliably
acting
▁VE
atient
ophil
▁ketamine
nec
▁chloro
▁repro
▁moderately
▁satur
▁medial
ropriately
phen
ronchial
tig
▁OA
▁questionnaires
▁athle
▁opi
▁neutroph
ergency
stolic
fat
▁predictive
ameth
▁contamin
▁aneurysm
cardi
▁distin
mia
opathy
xone
▁identif
▁predictor
ventricular
▁isch
▁glu
▁ane
▁adhesive
▁elic
▁outpatient
▁ventric
▁severity
anding
▁neurop
▁pathology
▁collateral
▁discrimin
▁quantitative
▁mitral
osin
▁interv
▁physiological
TNF
▁bladder
▁homogeneity
alc
▁adjuvant
▁monitored
▁synovial
▁discus
▁hormone
atoid
▁correlations
▁predominantly
▁influenza
▁CK
▁ure
TG
▁alve
▁amin
yses
▁resol
vents
▁pH
▁cervix
ivation
▁PCR
▁differing
▁perc
idate
aluation
HB
▁thre
▁enti
asone
▁PV
▁challen
▁behavioural
▁glands
▁schiz
▁aureus
iol
▁cocaine
▁recom
spectively
▁concurrent
ectomy
oscop
rosis
▁discon
xia
▁excision
▁tubes
▁intrap
ignant
oplastic
▁intrav
cribed
ected
ineal
urrent
▁gyn
▁pneumon
▁segmental
▁pregnancies
mL
cence
▁Phen
xual
atical
▁headache
▁intram
crimin
▁melanoma
▁contralateral
▁APC
▁eosinophil
▁hypog
▁withdrawn
diol
▁lith
ivariate
▁Throm
ocytic
▁definite
lusion
▁HC
regn
uccess
▁PCP
▁LD
▁symptom
clin
▁carc
EG
▁elucidate
▁Biochem
treatment
▁myo
▁hypothe
▁inherent
▁pathological
▁cumulative
▁compartments
▁hep
▁bronchi
▁endometrial
▁Streptococcus
owel
▁glomerular
▁minimally
diagn
ilization
opamine
▁iso
▁phe
▁interventions
uncture
▁vitamin
hern
▁heterogeneity
trip
sych
duction
sensitive
KD
▁ration
▁unstable
omod
▁hemisphere
▁tric
▁excretion
▁concomitant
▁exacerb
elan
▁substantially
resting
▁dietary
▁platelet
▁haem
tis
▁kerat
▁practitioners
uscular
▁complications
▁utero
▁anatomy
▁estimating
▁glucose
▁ovari
natal
▁mucosal
▁strom
▁abnormal
▁transfusion
▁localized
oracic
▁metast
▁haemorrh
▁tidal
helin
▁PF
▁perfusion
quid
▁renal
▁chec
▁sclerosis
▁chond
▁advan
▁techniqu
▁aor
▁morphology
vely
▁nucleus
▁canc
taining
▁sulf
▁indicative
▁symptomatic
▁assays
▁obese
▁overex
▁remo
tration
▁physici
▁enlarged
▁deprivation
▁substitution
▁gradi
ropriate
▁attrib
Ca
▁IA
▁sci
▁onset
▁endothelial
ovascular
▁colonization
olism
▁respondents
▁LC
vul
▁specificity
▁mandibular
▁follicular
gment
▁swelling
omiting
▁mediated
▁calcification
lact
▁laboratories
gic
▁tumors
▁occl
▁anomalies
▁VO
▁ascertain
urther
▁hygi
radi
lood
IgM
▁pulmonary
▁NP
▁reperfusion
unctional
oxidation
otor
▁referral
▁cerebrovascular
▁sequel
▁membrane
osts
▁feasible
ophag
▁irradi
▁surgical
▁intermittent
▁foc
▁carcin
▁anatomic
▁Compared
omical
▁inflamm
▁beha
▁HS
acerb
▁pati
▁gland
genic
atectomy
idated
▁cephal
▁tas
▁tol
▁modality
idation
▁restenosis
reast
bility
rene
▁endoscopy
adily
▁inhibition
▁diffic
▁induction
atories
▁putative
▁socio
ilic
▁hazard
▁evaluating
▁chemotherapy
rehen
▁GI
pendent
seud
▁tissues
▁shorten
ocl
▁suppression
▁systematically
▁HL
ximum
scop
opi
▁ae
▁selective
▁differenti
▁heavi
▁emerg
venous
▁elevation
▁pS
▁metastasis
▁investigations
▁antic
▁accumulation
▁MH
onary
▁gastric
▁anat
mentation
▁intra
acted
▁inapp
▁bronch
▁IU
▁arterial
bladder
▁bipolar
mittent
▁reproducible
▁vomiting
▁Ig
eded
▁studi
▁saliv
▁deficits
▁transi
esity
cine
▁hepar
▁selectively
▁lumbar
▁thorac
▁malignant
▁multiv
embr
▁pancre
▁stimuli
▁recurrence
▁numb
▁stu
▁MM
din
romes
▁hemodialysis
rophy
versity
▁IgM
phic
roph
▁exposures
▁OT
▁serum
▁clinics
glyc
▁ulcer
▁transplantation
▁Bone
▁lipoprotein
▁diagnoses
▁HM
▁improves
tif
▁ventricular
▁alterations
▁predictors
▁fas
▁coronary
sities
atonin
▁hypers
▁synthe
▁resour
▁shor
▁hypox
rested
▁polyethylene
▁preterm
▁incidence
echn
toc
▁preparations
bly
▁Addition
erad
▁ethanol
▁latency
hyd
▁soybean
▁prognosis
▁cava
▁acute
▁definitive
▁genic
▁ADH
Hu
▁preoperatively
asive
activation
▁Significant
andard
▁radiographic
lep
▁agonist
▁differentiate
▁parap
▁parental
mide
▁neph
▁inver
▁ach
onium
viron
▁ventilation
eal
ycin
▁examin
erating
▁cathe
▁deficiency
duced
▁intravenous
▁Lys
▁reflecting
▁allergic
▁laparo
▁Neu
erance
▁retrospective
▁uncommon
ilized
▁manifestation
▁adop
▁intrauterine
▁urinary
▁hyperg
dition
▁diabetic
▁physicians
▁regimen
yroid
omal
oprote
▁compartment
taken
bacco
lys
▁comple
▁poin
▁prospectively
▁predicting
▁TK
▁nig
tent
erative
▁immunode
▁corneal
▁salivary
orax
▁uter
▁onc
chol
owever
oscopy
▁amyl
▁obesity
▁atherosclerosis
ologic
otrop
▁follic
▁shif
icin
▁ultim
▁mell
▁elimin
▁suture
▁hypo
▁haemorrhage
▁multivariate
▁provid
fron
▁neon
▁enrolled
▁olig
▁exce
▁comparative
▁macrophage
▁hypertension
▁chan
ococcal
▁deterioration
ensory
atab
▁influenz
alues
▁cerebral
▁microb
ocaine
oplasty
▁contex
ospor
hers
▁analyses
ulatory
iably
▁utilization
▁radiotherapy
anol
▁prol
itin
▁ventil
eces
cture
dle
heal
crib
▁thresholds
▁compart
etal
ustif
ministration
▁recurrent
ophilic
eak
Ig
essive
ullary
▁Doppler
▁cyclosporine
▁disapp
▁leakage
▁chemot
tained
▁Removal
▁cann
▁injections
onomic
oprotein
▁morb
▁hemorrh
onate
weighted
▁smo
▁bilateral
▁ultrasound
PV
▁neonatal
▁prevalence
▁edema
▁congen
▁compli
▁Intravenous
▁neo
▁unres
▁morbidity
▁autoimmune
▁mellitus
▁subtype
▁debr
▁pelvic
oride
▁streptococci
▁coex
urc
▁leukocyte
phrine
sus
ithm
▁satis
▁inflammatory
▁homogene
▁detectable
▁vaccination
astom
▁periodon
▁disappearance
urin
▁DF
▁polymorphism
▁atrophy
HF
atest
▁surgeon
ethyl
▁sti
lym
▁atrial
▁substituted
tions
▁oxy
▁NH
▁occupational
▁Phe
wk
▁undergoing
▁determinants
▁limb
▁demonstrating
▁employing
▁thickening
▁adverse
▁impair
▁newborns
lysis
dose
▁interc
▁allo
ochemistry
▁biopsy
▁questionnai
▁consequently
ept
▁Hb
▁cen
▁rehabilitation
tant
▁lipids
oratory
oxid
▁intraven
▁muc
ilateral
renal
rogenic
ymp
▁cholest
▁infusion
▁undetectable
▁immunological
▁lumb
▁cardiomyopathy
pir
▁evoked
▁postoperative
▁TC
▁femoral
fos
▁infants
▁RS
illus
▁esophageal
▁vena
lec
▁hemodynamics
lob
ocular
ograms
atment
▁epinephrine
▁metabol
▁usefulness
vail
▁reper
▁cutaneous
utaneous
▁aspiration
▁supple
EGF
▁overe
geal
▁sut
▁screened
▁opioid
anic
DNA
▁preoperative
▁spinal
▁quantit
vity
uran
▁heparin
▁unex
gmental
duce
aryngeal
▁regis
▁insulin
▁AMI
▁vascular
▁graf
▁carbohydrates
▁mL
orin
yro
mature
armac
stim
▁esophag
▁confound
▁dexamethasone
▁imaging
▁testicular
▁rectal
▁topical
▁stimulation
lective
▁fulf
▁glomer
▁insufficient
▁polym
DH
▁Treatment
entral
oag
vival
▁somatostatin
▁TA
onography
sion
▁recessive
ficial
▁prostatic
▁operative
▁tamoxifen
ontal
atine
anin
▁preservation
sess
▁assessments
▁tes
▁LN
▁regimens
▁premature
hea
▁reac
cysteine
▁anastomosis
▁pulp
▁manu
▁Tran
▁turnover
▁postnatal
rine
olated
▁cate
▁chol
▁gradients
▁intake
pine
▁LV
▁endometr
athe
▁gluc
▁hepatocytes
▁airway
▁artery
nai
odies
▁insufficiency
▁tibial
itamin
▁synthesis
▁alveolar
▁irradiated
ejun
▁Samples
▁anemia
▁proce
otropic
adequ
onyl
▁pneumonia
anyl
▁cochlear
rates
▁abnormality
▁agon
▁testis
▁theore
keletal
▁deficit
▁sensory
▁flexion
uvant
▁oxygenation
▁adenomas
▁histological
ffer
RH
▁anastom
moid
▁audi
erated
▁fibers
▁morphologic
▁nonc
agit
▁stenosis
uting
oplas
lix
▁parotid
▁grouped
▁persist
oplasmic
ectom
fusion
▁potency
thre
acr
opa
▁preventive
▁MG
blast
▁algor
▁complication
▁inversely
▁prevalent
omized
trol
▁postoperatively
▁uncomplicated
lymph
▁prolonged
▁urine
▁clus
▁stren
▁Serum
▁IIb
▁spi
▁depr
▁soy
enol
▁correlated
▁molec
gm
IU
▁cervical
▁peripheral
orectal
▁mutations
lip
▁indications
▁adherence
oradi
▁feasibility
▁prenatal
functional
▁impairment
▁ambulatory
▁glyc
▁toxicity
▁resusc
▁vaginal
▁oes
▁staging
odal
▁prostate
▁subgroup
▁infiltration
▁intrinsic
▁phy
cious
hep
▁carbohyd
▁regar
urate
lastic
▁atten
▁vitro
▁SG
▁deterior
ureus
monary
▁variability
cessive
▁colorectal
▁etiology
certain
▁Chan
antial
▁pla
MV
gely
ucle
agic
tries
▁Tum
▁uptake
▁exer
atell
lesion
CBF
urea
▁pneum
▁scintigraphy
▁micron
▁hemodynamic
▁cytology
▁ana
inemia
▁ASA
▁ECG
▁BP
rele
▁encoun
▁carotid
▁paradig
estion
▁arth
▁spati
▁inhibit
▁resection
ithin
▁anticoag
▁asthma
▁requi
▁bene
▁aort
heric
▁proteins
LV
▁VL
▁thromb
▁pyramidal
▁metabolism
▁drin
▁Afric
▁pyram
▁tran
▁RBC
ampl
iatric
▁chlor
veolar
ographically
▁antibiotic
athy
▁elimination
tering
▁phag
▁systemic
tectable
vascular
iasis
▁geniculate
leu
ergic
▁concom
▁markers
▁vaccines
▁predic
ancre
▁fixation
▁causal
ostomy
▁metastases
▁autosomal
gland
▁dilated
▁aerobic
▁confined
▁infections
▁synergistic
ocyte
itro
ctomy
▁evid
aline
▁melan
emia
positive
▁favourable
angl
ritis
▁discharge
sequent
▁antibodies
▁Asp
▁genotype
imin
olysis
▁criter
ighted
▁iliac
▁phenotype
▁unrelated
▁ventilatory
ociation
tic
▁Chronic
menopausal
▁hypot
derly
eric
▁ow
▁hypoxia
▁biom
▁spontaneous
idne
▁Phy
prising
▁IgG
▁microv
▁intraoperative
▁relap
▁sph
▁routinely
▁bypass
▁amp
opausal
▁preferen
▁catheters
bic
▁cyt
▁latent
▁deform
▁rati
▁drainage
▁linoleic
gia
razole
▁AMP
▁prophylactic
▁endoscop
uccessful
asic
▁tec
▁desm
▁pancreatic
▁ischem
▁surgically
sions
▁infil
feren
ints
▁favorable
▁cerv
▁receptor
sian
spective
▁thromboemb
atitis
entical
aryn
nutrition
▁experim
▁practic
otyp
▁atheros
▁follicle
▁cereb
▁LDL
▁previ
▁elu
acet
▁amput
▁undergone
▁adolescents
urys
▁HI
▁intrag
▁molecule
▁thyroid
▁modulate
▁restor
▁nasal
thma
▁bronchial
▁investigating
▁infarction
urgical
▁doses
▁overlapping
▁cyst
▁angi
▁vagal
▁connective
ogenous
▁ultras
▁Pretreatment
▁concentrations
▁therapies
vated
helial
▁therapeutic
▁neurological
▁oxide
▁synerg
▁sequential
▁verte
▁melatonin
associated
▁enl
▁pancreatitis
▁cardiovascular
▁GV
itic
▁carcinogens
▁COS
romed
jug
▁initiating
ariate
▁skeletal
▁sequelae
astric
▁tumours
▁CI
usp
▁myocardial
▁epidemic
iotic
▁hypoxic
Ki
vac
▁bowel
quit
▁intramuscular
▁physiology
▁inducer
▁hormonal
▁saline
aemic
rox
lux
▁cla
Pa
▁hepat
iosis
▁percutaneous
osom
▁erg
mend
estions
▁prel
▁randomized
▁femur
▁sten
▁prognostic
▁stroma
▁pate
▁migrated
▁scanning
MN
▁bloc
▁epileptic
▁assay
▁amyloid
▁exis
▁remission
▁peri
▁cirrhotic
intestinal
tation
▁differentiation
centr
▁behavioral
▁confir
▁resonance
▁facilitated
ochem
sia
▁nutritional
oplasm
▁malign
▁juven
jun
▁decreasing
▁responsiveness
AIDS
rents
▁histologic
▁acceleration
▁microm
▁sedation
sible
▁pineal
▁syndromes
physiologic
▁stimulate
▁Bec
▁extensor
▁nodules
▁substances
▁dissection
▁tomography
▁exogenous
▁cardiac
lated
omerular
▁discontinued
▁pharmac
▁stimul
▁supplementation
▁lesions
tec
tual
tel
mental
atif
igaret
▁exclusion
▁bac
ocar
▁MN
▁Hyp
▁shortened
▁pituitary
ithi
orrh
tors
immun
▁tolerated
▁decreased
▁organisms
entanyl
▁underst
▁nec
▁atropine
dia
entif
▁inhibitors
entan
▁develops
▁depressive
▁reagent
iciencies
▁buc
▁Surgical
▁hospitalization
▁indicators
▁reproducibility
adic
loid
BW
eared
▁inhibitory
▁SLE
ituitary
enic
▁enhancing
ulae
onad
luent
▁scans
▁labeling
▁examinations
▁Whereas
▁receptors
▁corne
▁evaluations
sial
▁parame
▁circumference
clo
tage
▁longitudinal
▁carcinoma
tial
▁abdominal
▁palli
ogra
▁thoracic
▁aden
▁progression
namic
▁statistically
▁establ
▁Taken
▁throm
▁mucosa
orac
ialysis
▁scre
DG
▁eluc
yel
monstr
tensive
dial
piration
▁trac
▁HLA
▁embryo
▁tiss
▁suggestive
▁locus
pH
▁Comparison
rectomy
▁occurrence
▁gangl
▁HSV
tical
▁axillary
▁assis
▁Intra
echan
▁microcirc
ecre
▁hepatitis
▁systolic
odialysis
ureth
▁traumatic
▁Multiple
▁fentanyl
quine
▁restric
acil
aventricular
▁laparotomy
reas
▁inadequate
▁venous
▁prophylaxis
tro
▁adenoma
▁valu
echanical
zation
▁estrogen
Ds
itant
▁CRP
▁silic
▁anomal
▁oste
▁differentially
▁Increased
athyroid
relations
▁reag
▁GVHD
▁bip
tion
▁hypothyroidism
▁comparisons
itus
jected
▁auditory
tyl
▁lesion
▁Swed
▁abd
▁aortic
▁Acute
▁lobe
▁vaccin
▁inh
ditions
facial
pation
▁porcine
▁tox
▁anatomical
▁normo
▁memb
▁implantation
▁prophyl
▁rhe
atid
▁traum
▁sacr
▁molar
▁dex
tead
▁somat
▁umb
thle
▁carriers
▁apex
iliac
Phe
itone
ronch
▁linole
trop
▁reduc
▁unclear
▁contaminated
▁metabolic
erin
rati
▁defic
▁plaque
roma
▁cystic
cus
▁superficial
ogens
▁ischemic
▁umbilical
ceptive
▁simultaneous
▁tib
▁adaptive
▁chloride
▁PB
▁elevated
icine
▁lymph
▁dosing
ration
tomy
PAP
▁septum
▁Cyt
arate
tens
▁cardi
▁embry
kely
▁mono
▁Patients
▁limbs
▁atmosp
▁familial
▁periodontal
IIIa
economic
▁arter
▁radiological
odon
mented
occus
▁inhibin
▁RP
tive
▁pathogenesis
▁synov
loro
▁monit
imens
▁adequ
▁ESR
iminary
▁fatigue
▁wee
▁graft
▁hemorrhagic
▁poten
▁maternal
alp
asal
responding
▁amines
▁heterogene
sue
▁enrol
▁instability
▁manifestations
▁multic
▁immature
ocytes
ture
▁muscul
alian
omies
▁thrombo
perfusion
▁variants
▁undertaken
ctive
Hb
▁complementary
▁phagocytic
vation
ayed
▁infar
▁biopsies
▁facilit
▁Continu
▁vein
ropine
▁psychiatric
▁chor
▁deficiencies
onin
▁implic
omat
▁adequately
▁seizures
▁gallbladder
▁chemotactic
▁validity
▁spikes
kele
odynamic
▁tris
▁kidney
▁demonstrates
▁wors
clerosis
▁acidosis
▁sepsis
ignific
risk
trib
filtration
▁arthritis
▁fetal
tact
▁clinically
▁adhe
▁sciatic
▁pediatric
▁Increas
▁TGF
▁thrombolysis
mTc
▁benign
▁Accordingly
▁alteration
▁sampl
