ypers
▁Evaluating
▁immig
▁interpersonal
▁widening
ieth
aracter
eases
02
▁unres
▁metastasis
verteb
▁relat
ctures
incip
erin
eading
▁zin
ilatory
▁melanomas
entions
▁epid
▁contextualized
lore
egist
▁traumatologists
▁percept
clusive
istur
▁Adhe
70-576
otherm
oepithelial
▁oesophagitis
alanced
Ea
19
▁hypers
endp
▁analyses
laque
▁underlie
spective
▁vagin
▁physicians
ectomies
▁impai
▁PVT
imization
▁interpers
pile
▁traumat
aparoscopy
▁resected
▁edaravone
amn
clovir
criminative
ediatricians
▁Discrepant
erational
tur
guided
gorithm
▁chal
incre
served
cad
▁LASIK
▁consanguineous
tun
▁hormonal
ulner
▁extensor
examic
omal
cyste
nical
sati
henot
dicted
laxis
nutrition
▁PVD
leable
Ko
▁OA
▁adjunct
oL
ccur
relations
ausation
ferab
2%
inq
yom
▁haemorrh
aths
▁IBS
udomy
hicle
▁migra
acol
▁Phy
verticulitis
utrition
▁offe
levated
herect
▁advisable
alv
terogene
cet
carcinog
ttes
▁insertion
astrinem
▁overe
angliomas
▁endoscopic
▁inp
▁rhe
69
unant
▁contaminated
ropsy
amins
entist
raff
dients
▁evacu
▁salivary
mixed
▁correcting
▁indiv
VAD
▁diverticulitis
ocat
▁retent
▁chole
rians
▁medication
osynovitis
▁slowed
ognize
ultant
▁overd
okinet
elilla
esul
▁workwe
▁porcine
▁Phe
▁GFRUPs
▁asserted
currence
paedic
lycop
▁intramedullary
▁alw
▁manusc
▁CDM
erti
andmark
▁urop
ipid
Fro
ACS
▁coaching
▁meal
▁subj
eclampsia
equate
▁metastases
▁cumulative
▁synov
stay
obic
lementary
▁manifestations
ulps
Ho
uctions
ailure
mie
osv
▁hospit
▁3-
▁hyperper
verc
▁culturally
▁chondroepiphys
irths
▁determining
▁pronounced
ursing
MN
cibility
eration
fus
▁suggestive
ovel
fficiently
omectomy
conserv
anif
ulates
IgM
▁inferi
ocarcinoma
chemia
▁decreas
▁scoliosis
▁aerob
DOQI
▁opi
▁fatty
ressed
uscripts
70-5
stect
lycoprotein
cholog
bate
▁iliac
ivocal
gments
▁atmospheric
entanyl
erior
▁retrospective
visit
omect
enb
▁sulfonyl
Vi
▁noting
etas
▁injected
▁somatostatin
GIN
▁neo
▁Ohi
▁concomitant
ertise
duce
▁pyram
▁fetus
gain
pate
plif
ptum
orat
▁neop
oying
CMV
▁packing
oist
ptimal
▁radiological
resents
rently
mur
▁Whil
creased
▁menop
prising
xed
▁ocul
ressing
▁carotid
ellate
▁alph
▁bronchial
nosis
layed
cute
diograp
creasing
unin
▁dexam
hether
▁PSNs
ansp
▁resear
onort
ostom
▁syner
versal
aparo
▁schizophrenia
dimer
essful
sych
caus
▁cues
▁glands
istop
▁underus
▁onse
▁treatm
▁hypoglycaemia
rous
emplated
▁scre
dver
egree
chon
icen
ployed
rength
▁guidelines
heigh
▁Postcon
riately
▁precl
icable
▁revealing
▁gallstones
ygen
soc
wk
eis
eas
ults
▁acupun
onin
erad
▁epidemic
▁iso
orac
vantaged
retreat
▁comprehens
conc
▁midd
phrolith
unp
▁haem
infarct
▁ine
▁PID
itudinal
▁exogenous
alities
uturing
▁infect
anen
linic
▁DG
Fent
▁indicative
ilting
ohy
fric
▁tricom
▁anticipating
▁bab
enop
fine
▁remission
▁lithotomy
luid
ielect
estations
unl
ducting
▁stratification
▁endarterectomy
evis
mortality
▁19
ocyte
▁Postcontr
pment
▁Paget
iH
▁pharmac
nif
Ti
quid
mme
▁estrogen
tolog
ypotension
hocardiographic
WB
▁Transg
ethyl
cohol
▁SGA
ihood
▁unelevated
inatal
▁HNP
ligibility
uant
sequent
utritional
▁trismus
edem
odific
irthweight
ICT
▁pyl
olence
arean
ivation
▁consol
▁pressures
▁CSA
▁localities
perat
▁debridement
hoc
outine
▁uncomplic
▁mapp
sy
sid
bolic
▁prophylax
▁enteral
▁akathisia
▁normokal
▁cann
inin
mage
▁PCP
ithi
▁apex
endom
▁genotyp
▁Transsp
▁fellows
▁nullip
▁RMMA
▁membrane
derlin
eop
ymp
▁complaints
bally
▁devel
▁antibi
▁Neuropsy
eroid
▁samp
ithiasis
vals
▁challenges
▁Bone
iatric
▁knowled
▁stomach
▁Ultrasound
▁challenging
teri
embolic
pirically
▁fibers
▁seve
06
▁controversial
▁preferable
onse
▁IMT
▁QO
ualiz
▁vagal
rections
leab
pared
▁enrolle
urgery
ourage
▁ovari
erfusion
▁excision
▁plurigravidae
osy
▁workl
▁expendit
fut
▁UNP
ngl
▁patellar
▁correlations
▁overex
▁fent
▁symptoms
velopment
▁resus
hools
andm
ammograp
10
holog
▁fiber
▁amyloidosis
accines
riends
▁subsp
▁Cush
threatening
idis
acclimati
▁ensured
▁IUD
agulate
Ov
▁conclusions
umon
ingful
▁Signific
etrop
▁32
mg
iciate
hest
isle
▁sequelae
erul
inab
▁recog
▁reactions
pog
▁NCCT
mful
▁appendectomy
▁genes
▁detriment
▁sustained
King
ilies
▁scoli
▁zinc
▁ile
▁FOSQ
entar
▁postoperative
edation
odulatory
acific
▁identifi
bort
lec
imized
ficulties
iectasis
eric
ulati
▁deat
▁aneurysm
▁HMO
reus
viate
crib
cision
▁referen
▁cortisol
ravating
ligh
▁Teamm
ucated
▁impairment
▁prud
rau
chol
▁musc
diform
ipat
▁maternal
atisfaction
▁cereb
ilic
ollicular
rebrov
nationally
astas
lerance
▁nec
▁endothelin
ewish
▁dyn
▁prognos
opam
ometr
omedic
▁clinician
atine
parinized
▁vancomycin
ittent
uremia
horts
▁insurance
idu
bab
ammatory
etastatic
▁siz
▁everyd
▁ergocalcifer
sific
vide
▁gradients
inment
fing
ipher
arav
▁buccal
▁minerals
▁Elic
amination
▁Comedic
vascular
▁9
▁surgical
▁homogeneity
▁irradi
curate
toplasm
opular
xid
▁assoc
ocele
rasound
mergency
▁impaired
isod
reation
Wit
▁debride
atalities
▁scol
inop
onary
▁NB
ipl
Ara
urologic
▁preservation
orar
SSA
ideration
roin
813544
97
▁femur
▁neurol
▁UG
▁Remot
nless
▁conservative
olic
▁hypo
▁psychological
arit
▁differentiate
inantly
oros
orotic
rointestinal
▁enab
▁nig
▁deciding
▁hypertension
▁cultures
▁undescend
▁progression
8%
ondroepiphys
▁symptom
obally
▁spontaneous
tebral
ystolic
▁remin
▁pharmacological
▁Transgastric
diol
igning
ecially
▁heroin
MRI
eris
anol
▁malignant
▁peron
21
utionary
bining
▁disability
enefits
▁multidisciplin
icone
▁arteries
▁LN
ontaneous
asal
▁unk
dral
estigate
GD
receiving
orosis
airment
complic
OIs
▁unm
Mos
▁preliminary
▁resection
adig
▁MRC
arliest
ochemical
imple
rated
▁understan
▁youn
▁biochemistry
▁scaled
ganization
tive
oradiation
▁biological
56
RUPs
hool
▁behavioural
tin
▁TB
osal
pated
▁interru
▁tumor
▁osteoporosis
aryn
olle
▁abolis
hological
▁doctors
icron
1256049
ectan
▁nonad
▁Alcohol
oural
▁technolog
▁concor
▁inad
▁glargine
jejun
▁Elder
▁manufacturers
▁abd
▁cleans
normalis
vercom
ormed
▁Failure
appropriate
oves
acet
itin
▁lob
70-57
resect
▁MHC
ricted
cif
athway
▁undergo
▁traum
ocytes
▁unreported
▁trism
rolog
▁recess
rophoblastic
▁inevitable
▁chloride
ceiving
▁procarcinogens
Most
RP
ukocy
aln
▁cigaret
thenopia
enr
Nort
▁19-9
agents
▁PRIS
▁pedestri
upon
ateness
inusoidal
▁pertrochanteric
▁amy
idemic
quiet
▁widespread
▁gad
espit
▁trials
alsy
aalia
▁Universities
Sin
xer
▁SPEC
lates
IU
▁mucocele
▁FOS
udin
DDI
nalyz
anical
assification
▁marri
ceptably
ptured
▁Discrep
0.5
forw
ogis
▁QT
hemist
▁VL
orsened
▁radiothe
ateral
▁determination
tering
WL
▁attending
antab
etorsion
olore
versity
▁prednisone
▁OSC
ailability
odies
paign
ractition
▁uteropl
▁histolog
▁matri
▁beneficiar
irway
urologist
henotype
▁pharmacokin
nge
▁Northeastern
reater
▁musculos
acterized
eom
70-
▁tropho
ceptable
continued
▁substages
▁merits
▁portions
eSH
▁Taiwanese
auses
ggested
▁risks
▁tox
ecur
ssific
▁Transrect
ophag
isq
ococ
utrient
▁antib
▁summative
ribut
▁unevent
ronch
▁Steady
▁norfentanyl
itively
atients
▁drops
▁reagents
umo
sis
thopaedic
imeg
▁dysmorphic
▁protective
ceal
▁employing
▁prevalence
tiology
urses
mework
utional
orthern
uccess
1046032.
▁unselected
forcement
celerations
etar
uliz
hologic
Dc
erif
▁Demonstr
ecim
▁nonortho
instit
eran
enteral
ailore
▁procar
urposes
izures
▁mann
▁preop
atell
tle
▁Dut
diagn
6%
igor
▁8
▁MGP
necessary
▁confound
copist
▁moisture
wu
erived
emov
essive
▁vaccines
oise
aminated
▁glu
▁Comparison
cedures
▁oxide
▁traff
▁Trendel
cinations
▁somatost
▁contam
▁haz
▁Teammates
ipsy
tylcysteine
iary
▁eosin
DQ
ppear
▁laxity
2/
▁usu
▁fluor
terg
centration
leviate
ilore
▁coac
tus
▁Continu
▁fixation
▁presum
Wes
uish
▁LCN
uptured
▁Excessive
optotic
▁multifol
angement
▁stab
tualized
▁pelv
omenology
uation
allenges
ugulot
ramidal
SPE
arental
▁prudent
stit
isure
iciar
ivate
▁cong
reement
▁peop
valuating
opatholog
ffs
aniz
rometastatic
▁corneal
▁mandib
agocytic
altre
manent
▁Detorsion
acores
▁intergener
omyop
▁citations
▁glut
aparot
▁AABR
▁uncontrolled
esected
▁constitutional
▁21-
AO
▁Streptococcus
▁APBI
misphe
ayed
ptin
orin
ansv
servations
▁evac
itati
ropine
▁countr
unctional
controlled
▁poisoning
▁Maln
▁arre
▁IMR
ucc
▁urine
▁Fent
igraphy
▁cere
ootp
sition
hea
yel
stak
dition
▁NmU
046032.
▁phon
▁stroma
▁oss
ectrum
▁puzzle
aution
enab
atios
agulation
stolic
▁thickness
▁UGI
▁endometrial
emoval
▁lacking
▁specialty
alancing
kness
▁Pretreatment
terygia
roplasty
urin
▁BS
longed
esting
▁ADHD
gular
dio
omain
attern
restim
uped
terations
uction
▁coch
Ce
imu
endectomy
eriments
▁LC
ervi
gely
▁underlin
▁transi
SCC
tomy
▁standardizing
eans
▁derange
entists
▁isch
eopl
▁characterized
▁mL
▁Elderly
▁tympan
▁adolescent
▁PCO
umbar
racer
▁unprotected
▁2001
urgically
▁acupoints
ugulotympanic
▁patella
sure
eaving
CRP
70
itially
▁consequent
▁enlarged
atoid
▁chol
▁statins
mide
stration
▁TDM
clamps
▁justification
▁mainstays
acture
ssification
etus
idance
▁surge
fuln
▁concentrations
aminers
isper
lead
▁publicly
▁ROIs
itamin
isodic
▁gradi
advantages
▁positively
terventions
▁distinguishing
QO
eserv
uality
oroc
enation
EOAE
▁surgically
phasizes
▁GF
ications
▁Thrombolysis
▁apop
ropia
▁ef
▁endemic
▁reevaluated
▁allevi
▁RAIR
CGP
▁EOA
▁pulmonary
▁caution
▁discriminative
Mot
▁BDD
pti
ects
opathy
estin
DW
▁enhancement
▁parap
moun
▁Overall
ferral
ercept
▁significan
forations
QI
▁advised
mody
▁liver
▁coincidence
▁attrib
lusion
illness
▁comprehensive
NSP
acclimatiz
osyn
OTA
ulmon
ectant
▁hemispherectomy
rapeut
▁PB
intestinal
urethral
agal
identical
cording
HM
ubes
opra
orati
inite
▁pathway
Low
▁safer
ergist
▁benzalkon
▁TKIs
tation
sC
sul
▁Consideration
UNA
ulatory
▁reduc
lys
▁prognostic
▁unstable
nur
risk
emorrh
▁UTI
▁Cue
53
urgical
RB
acis
▁Poststaped
▁explored
hours
unding
ourag
erating
▁milks
ergocal
nh
Cle
inist
gents
ediatric
▁haemorrhages
▁IHPS
0-1
▁CKD
▁uneventful
eation
endos
▁HNPCC
arli
▁rigor
reaten
▁satur
▁seaf
liminated
abetic
tter
hibit
▁examin
▁conclud
Vit
raigh
▁adenomas
clature
4)
▁AMI
sial
uloplastic
ferably
yout
▁hypersalivation
▁accurac
▁rehabilit
aparoscop
▁streng
evit
▁margins
▁decreasing
▁identifiers
iferol
anding
▁inflammation
Saharan
icl
sact
umet
ripts
tati
▁practition
▁mono
hag
▁cuff
lial
omenon
ynecological
▁chronic
akage
▁hyperg
ercial
yin
▁acquire
▁localized
ractic
▁precondition
▁cardiomyopathy
▁solely
ostering
▁soybean
andatory
ppl
▁GES
▁eosinophil
▁eversion
imed
diation
▁selective
terectomy
roversial
trop
radu
▁arip
▁causal
▁repa
limination
▁proctocolectomy
nerability
▁multifact
stap
osin
VR
▁oxy
0006
relate
urig
tual
▁MCS
ejun
▁tracers
▁survival
▁presenting
ficial
MPK
ahar
▁migh
▁HU
ficult
potomy
▁unexpl
▁triptans
erab
▁neoplasm
▁ischemic
▁570-57
alian
▁screw
▁episod
ollege
erosity
hereas
▁PVL
▁HM
▁infected
sions
romboly
▁exa
aptive
verages
▁autoimmun
inm
▁congenit
vei
ethnicity
▁deaths
▁transrectal
▁infrast
▁disorder
ditions
ocular
inol
lipp
▁injections
acerbations
▁myoepithelial
wit
▁misperception
owup
▁Florid
yses
heren
dol
lyc
dications
eet
Gad
ocked
idosis
▁amin
hocardi
rst
anexamic
atit
▁asthm
▁laparoscopy
▁peripheral
physician
▁OCD
▁exis
▁deserv
placement
▁SIs
erop
derut
rying
amage
-3
hologist
▁discr
▁femoroc
onserv
upational
oneal
otor
▁LU
▁adherence
▁Cm
▁Alloc
▁chann
▁intrarenal
▁21-2
▁21
omiting
teris
hiz
ropharyngeal
▁demonstrating
▁clinical
igrav
ainability
ofosves
omach
urred
▁predictor
conserving
ospor
▁describ
▁ree
▁gambling
▁10
ddition
▁treating
▁LEs
entific
kab
▁enrolled
increas
mispherect
▁desirable
pherect
▁attent
▁diluted
utations
ucos
hemot
plify
egistration
▁biomechanics
▁micrometastatic
▁NBCSP
▁SSC
▁acy
aref
▁peroneal
▁evid
SCE
onatal
sia
▁Safe
▁ina
oundation
arable
ancreas
plic
▁NHAN
sies
▁quil
▁oes
▁overlying
eal
▁substan
pH
suc
ilaparo
ricians
▁tumour
aediatric
CSL
▁examinations
terect
ximal
otro
HANE
▁APC
vit
ovial
gile
▁homogene
▁clinic
▁mobility
▁episodic
▁complaining
▁emphasizes
ctioning
gree
▁standardise
▁achie
onnel
Ket
atheters
ultiv
icipated
lected
rhotic
▁mainst
sts
▁resuscit
▁Pediatricians
▁lumbar
lerated
etast
odal
othelin
lammation
6.
▁elevation
ceptab
oadjuvant
▁delin
zure
▁epineph
quate
▁leisure
etab
iliz
ailing
▁betwe
ackup
▁abo
dicts
▁1.78%
thral
comfort
ormity
▁atm
isin
▁Poor
▁tris
lymph
uvant
mall
0-57
▁abdominal
onments
.7
▁Eff
estructive
arous
ucle
▁subtype
ehold
ertis
▁hydatidiform
plifying
aparoscopic
▁morphologic
ambling
algesia
Treg
hoice
elil
orab
▁acqui
▁gangren
aboratory
▁seizures
▁rCB
iolog
ficiency
gast
dicit
▁melan
yram
repared
thr
lightly
ventr
etho
ynovitis
rophil
▁Discre
onw
▁reductions
▁1.6%
▁immune
lk
▁assessment
▁diabet
helial
ostic
▁ventric
ithms
tection
entil
iferation
▁Kupffer
oepithe
lud
unan
▁laboratory
esn
redic
okin
▁lobe
▁detors
▁abn
perception
ulliparo
▁angiography
bility
bust
oprazole
duces
bj
▁hypermetrop
▁interc
dundancy
▁anxiety
cordant
casts
onstruction
bations
▁infar
▁swell
thma
omedullary
ivations
iably
▁ambulatory
HU
▁integ
kwe
ighly
▁upt
orot
leas
ecaus
▁reso
bect
ctomy
▁ceph
▁oncop
orefoot
contin
ividualized
oemb
▁Kasai
ctom
▁0
▁spont
monstrated
▁lipop
lycaemia
hemical
ineal
▁Lysos
ilure
▁HS
ademic
▁molar
▁presumably
erience
espec
phth
▁OT
iHC
▁bloc
▁Concom
▁Cytotechn
▁agon
▁identically
isph
▁preoperative
qually
6:
pation
ausative
▁RARC
▁managing
retrograde
▁SCHFs
uret
oretical
▁alo
mend
sence
▁underestimated
ccl
▁pragmatic
▁etanercept
rex
▁tril
imulate
▁depicted
▁precautionary
arative
ggesting
▁prognoses
▁interlaboratory
Lon
▁FTL
EBW
ropl
utrop
cidence
▁neuropsy
elvic
▁discernable
ternative
▁MV
ruroplasty
▁gadobenate
aviors
vising
iminished
opia
▁imagery
▁plurigrav
▁graft
safety
agic
vem
tinu
▁nursing
▁unex
echnologists
alue
tinence
▁autox
▁adver
mmary
upun
pple
▁genetic
▁undoubtedly
▁childhood
acilit
genital
viewers
▁(54
enefit
▁laparotomy
▁monofollicular
ithm
rophilic
▁hyperfiltration
▁SBA
romes
ivary
issed
isib
ynch
xual
evelop
otension
oim
isers
ppoint
enon
echn
▁Transgast
▁aort
▁infus
▁surveill
Dop
employ
▁cesare
▁follic
easure
ocardial
▁Sout
▁perceptions
ravid
xicity
▁renal
oprote
▁pH
▁hemisphere
▁dimens
▁congen
▁systematically
▁emotional
▁noncompar
▁ongoing
uded
ught
argets
uab
▁infiltr
▁deterior
▁Bec
cumulation
aed
Ot
▁stenosis
▁lipid
▁compressed
▁Improvement
▁Mucosal
▁endoscopists
vior
▁Contr
▁admis
▁oncologic
▁stom
▁leu
▁laparoscopic
▁footprint
hewing
essionals
atologists
▁AAS
cessive
▁unp
▁Revisions
liminary
adobenate
▁intrag
▁ergonomic
BV
otentially
9%
Sig
roponin
▁hyperperfusion
trast
▁selectively
▁LVH
otiv
opathological
▁masked
▁compliance
▁GCS
▁iatrogenic
onan
DH
▁Addition
reshol
oracic
▁MRCG
▁Fourn
trex
ptococ
cerning
ensured
yet
▁intram
porine
oyb
arger
cautionary
nq
▁2003
biolog
reness
▁researchers
rici
▁births
rave
edside
ultation
rolith
▁undergradu
sleeve
licly
anish
40
HF
Sel
▁antibodies
▁interm
▁plates
ociation
iasis
cidate
▁ARM
▁aSAH
▁NSR
▁Tests
raut
▁biat
stem
▁tert
resent
CU
inematics
▁hemodialysis
▁pathologists
▁warrant
▁inhe
▁parities
ortheastern
ineph
▁onset
bac
▁rated
▁SB
sic
linical
▁recur
xit
▁SLN
▁implicated
orative
thnic
▁inferen
ielective
ternational
reptococ
▁thes
▁4-
stitut
-67
igrap
isia
▁hazard
opor
▁influenza
uodenojejun
cti
ammation
gation
referent
OSQ
▁distinctly
▁HP
gions
SEP
onset
centr
ialist
▁subgroups
ration
▁silic
ferenc
▁ada
ulat
▁FDG
ularly
▁unaware
▁professionals
Dil
▁filing
acore
henomen
▁PCPs
evi
igarettes
rogression
08
▁hypoxia
stic
mands
ferential
Ur
▁esophagitis
▁lithiasis
erontol
anspl
quately
lter
viors
▁venture
▁myo
ressive
aluat
xity
ignific
icu
imul
ildho
amely
ymatic
uran
hose
▁synovitis
iminated
▁NTHi
▁urolog
emog
▁complic
▁contributes
▁diaphy
renal
entho
filtration
▁Swed
ellosis
adenectomy
veil
lamps
usce
▁Greater
▁tow
▁micronutri
▁evacuation
romed
linar
alid
▁identif
▁popl
utation
▁bacter
▁blac
▁systemic
▁radiotherapy
7%
geal
▁occlusal
hesive
courage
etor
commend
inations
acral
ationship
increased
▁infil
▁Neurom
estigating
▁advant
copl
hospital
oqu
cordance
▁cystic
▁uni
tact
ylcyst
▁funeral
lowering
▁broader
osts
▁proctoc
heo
hio
ardial
diov
kathis
▁parag
coprotein
▁shopping
▁distin
▁headac
asai
idered
▁valve
cernable
teries
erlin
▁hernia
ofol
▁deficit
▁paro
▁ascer
urement
▁fold
isor
osive
ourable
▁postm
49
▁reproduc
▁50%
▁prolifer
▁Africans
▁immunomod
▁abdom
▁chl
igment
rectal
urro
destructive
xill
▁suprap
encl
diolog
▁Parental
▁intermittent
▁chemok
izure
arted
▁rehabilitative
iating
▁heavi
▁modestly
▁dimeglum
clinical
▁undergra
▁impressing
dingly
ICEF
dices
lasty
oals
inants
amic
Burg
▁Alco
stant
pprop
▁prognosis
anin
▁polyet
rosp
99
▁intensive
▁immunis
economic
tage
▁adenocar
ostomia
ilitated
▁behin
▁timely
Tn
▁hemodynamics
▁rigorous
yop
▁imple
▁establishing
strated
Tre
inis
ortis
ultif
▁48
▁reveal
ssp
asoun
44
adication
rre
spir
▁morphology
ligoarthr
▁metabolisers
▁audiological
▁CHCS
▁normo
xcl
ptual
▁rati
▁inhibin
▁nonul
giene
GEF
udy
rement
derg
▁immunisation
▁cancers
ilical
idect
SBF
ploying
jun
▁longitudinal
▁divertic
▁thrombolysis
▁Musl
eel
retable
▁platelet
refe
▁minimally
olishes
ipant
tainment
ronutri
orsement
enom
▁ea
oceles
icative
Bis
▁expertise
ptom
estis
▁indicators
rols
▁Trend
roi
hered
▁effectiveness
▁IIb
irical
▁septop
Fu
plo
▁Furtherm
▁TK
RK
▁Poststap
CEF
ggestive
▁CMV
▁resour
▁SHSe
ilit
▁Chest
▁Emot
entif
▁neoadj
Fut
▁multidiscip
.8
▁cephal
versely
unom
▁WHO
▁Magnetic
erit
erately
rinem
▁ischem
mune
▁concussion
pare
antag
▁Excess
fflu
▁Aspiration
▁binge
ringing
▁Kup
▁inhospital
▁receptor
▁immunological
cited
ionit
vily
▁encourage
lenectomy
▁disting
olidation
▁Samples
sized
56049
▁underst
▁RSB
sons
▁adop
▁Doppl
▁warr
respon
tylcyste
isciplin
renes
▁Skewed
▁sciatic
▁Cushing
▁designing
xation
sical
▁inappropri
iag
▁responsiveness
ansure
▁uptake
lil
lut
-1,
edial
ightforward
upling
irment
▁cardiomy
rossing
05
covered
eneral
acteraem
▁cystoscopy
ilized
▁35
kages
▁endoc
▁pW
never
hesions
▁malign
rter
Ss
edtime
▁MSCC
▁sore
ygia
▁Increas
Ba
▁pathologies
elv
parisons
afe
ausal
phonate
mmative
OAD
▁fluoroquin
▁VODcasts
urysm
asses
agoc
▁biopsy
hyroidism
iltrative
rospective
▁findings
▁Tumour
unostomy
ortan
▁coex
oskele
▁providers
copat
itr
▁clinici
quen
▁MDE
ronchi
Mi
▁ClinicalT
idate
▁WMAs
▁altho
easibility
ternatively
▁relap
▁receiv
▁physically
teins
veloped
▁Benef
▁colorectal
erre
ulcer
mand
▁periodon
rk
▁alon
cretion
▁hypalgesia
▁unprotect
ploy
▁CHB
edica
igravid
▁wrist
▁wort
severe
ansplantation
▁empirically
▁overly
olumn
ansing
terl
▁stellate
▁sampl
ptu
▁calyce
cepted
▁lept
eIVIG
▁reforms
▁discom
▁excl
▁medial
▁chemoradi
▁polyethylene
▁RH
▁hypoxic
ulot
edat
▁preterm
▁mucoce
▁amines
▁heterogeneous
▁neit
lieve
▁frail
awkins
ciplin
riend
ensit
oniz
▁pedigree
▁judged
ilial
erature
igravidae
▁caref
▁anomia
Ef
▁NNSP
retreatment
▁herpes
oresist
raven
tology
▁discrimin
▁otorrhea
▁rais
▁seri
▁fentanyl
▁examined
iased
igate
ofosveset
▁Educ
HPS
▁interr
learly
▁Obes
ypo
ormo
MAs
▁vaccinations
xtern
igaret
▁570-576
▁therap
ducer
others
▁pT
▁intraren
▁macrophage
athyroidism
▁endoscop
eamm
▁femal
psis
ecolic
▁muco
oplast
herp
▁80-
xif
vantag
heum
▁interv
wareness
▁decisions
compress
sight
▁nomen
gility
▁skeletal
eved
ipants
roce
▁dysglycaemia
ilitative
▁taugh
alence
▁depr
urab
operatively
▁pathologic
opted
andat
allst
▁vegetable
▁miniTAPP
▁cT
▁undes
triment
▁hemispherect
abolic
uar
▁tuberos
adherence
atitis
icompartmental
parity
agang
▁poorest
▁oncosurgically
hinct
▁revi
lephone
enic
▁hemodynam
▁Implement
▁immunom
tries
losis
ocom
▁Aphasia
▁needle
▁emergency
▁implantable
▁mucosa
▁Continence
▁radiographical
derus
eic
iol
NAP
Kin
▁eno
▁glarg
▁pter
ectively
▁Muc
▁shortened
arl
Bod
▁HI
terc
ughout
oimmun
MeSH
phasis
uitary
aluations
ogens
igat
PV
umferen
ppressive
imens
▁brands
▁occlus
34
mentation
ucate
▁withst
legia
atig
▁precaution
13544
▁Comedication
▁ethan
hary
▁migraine
valen
▁decisive
asting
▁envir
▁alread
lantation
▁adhering
verely
▁implications
▁muscul
▁deformity
vate
▁decelerations
enot
▁pharm
oybean
leration
▁acidosis
▁activated
▁LASI
pects
▁nonort
▁impair
▁reev
▁mania
stress
ffering
▁TBI
▁ventilatory
icient
entf
▁practically
bC
lectual
▁IAD
alignment
isinusoidal
▁specimens
▁barriers
▁visually
irw
ailed
esig
ogi
adver
argeted
cei
▁vera
rhage
▁rationale
minist
RIGI
▁immigrants
▁physiology
hok
gnant
heter
ailored
▁tas
creases
▁eo
▁perone
fos
onol
vantages
▁indication
evel
ferr
▁slid
othesise
▁rur
nI
▁(54.2%)
dun
erw
bacco
▁Ophth
▁modulate
8%.
▁merit
rra
enign
▁arter
ewers
▁uncom
ractice
▁esoph
ocain
drome
▁suspicion
parat
ifol
irculation
endot
▁juvenile
▁vulnerability
▁indications
▁jugulotympanic
especially
▁DGE
MG
▁cadaver
▁PCOS
▁Phen
oyed
rul
hil
stectomy
▁indetermin
tam
▁perin
▁acetabular
utilized
acic
▁exenteration
ronchoscopy
imod
▁Ultr
ffer
opa
arities
▁thu
▁somatis
▁abnormal
▁laparoscop
esit
▁cholecystectomy
OQ
▁Neop
▁Slowing
abial
▁histop
▁Severe
idat
▁vagino
erally
atics
ostn
▁recurrence
▁Revis
▁retrans
▁smoking
▁pren
▁healing
andar
▁soy
oland
venile
▁delivering
vance
eterm
ivated
▁diap
▁agg
riate
inhe
chemic
Fo
lowship
▁colore
inematic
ibial
▁inta
orther
ediately
1-29
isciplinary
▁teet
▁hemodial
olm
ptal
▁appa
incter
▁carcinoma
overall
omechan
▁appropriat
juvant
onstru
ophrenia
yloid
osure
▁adjuvant
odul
linolen
▁Transsphen
atheteris
▁unn
aviour
coplastic
idiz
uropsy
ividualize
dert
▁Thre
gid
appear
▁propensity
▁feedb
edicine
erated
imates
couraged
256049
ipol
▁85
▁fluoroqu
▁aureus
endicitis
nective
rbanicity
reated
▁homog
▁intrauter
icom
▁hemodyn
▁Postst
▁dysarthria
▁irra
ritis
▁uremia
uncture
ultim
edl
▁somat
atect
iterature
nific
▁mechanis
arcinoma
esions
▁phagocy
70-576.
osinoph
andardiz
▁reflu
anip
▁abilities
liom
verwe
yra
munic
▁preval
elill
cetab
ubted
hedule
▁NN
▁otic
ggra
abular
afety
ancre
▁unin
▁scann
uated
igibility
▁LUS
▁recor
olescent
antial
▁saturated
▁subsidized
▁vena
eroma
ropriately
intest
adof
verd
nus
▁OPLL
▁SSCP
ostf
ltr
35
ralian
acts
omized
▁cyst
▁comparisons
onomic
centage
olume
uscl
ariab
entl
▁radiograph
▁pharmacok
▁dea
roo
▁hepar
▁7.
ibers
▁exacerb
▁socioeconomic
ctoc
▁dysg
hering
▁Ophthalmic
▁worsened
ppre
olism
idency
▁cervix
hysical
▁motivations
hysici
▁AI
ditioning
▁unknow
▁bedside
rins
▁Contin
▁NNAP
31
▁stimul
▁obese
tebrop
alues
▁urinary
▁gastric
▁etiology
uin
▁shopp
▁undesc
▁hygiene
elat
acting
nai
▁PRP
iths
ighe
ociations
rovement
EGF
▁tob
urgess
adaver
▁Postcontrast
▁ventilation
esoc
▁BP
▁recept
aem
oplacental
hild
antation
RD
ervations
urigrav
▁Tumor
ulfon
imulation
monstr
oscopy
▁infiltrative
▁parotid
henop
▁differentiation
ctural
veloping
▁jugul
▁avas
▁kerat
▁transfusion
▁attendance
esults
▁tenos
ineur
▁eyelids
dents
▁deliveries
▁pancreatic
▁thromboly
osom
idf
▁assur
iron
▁gadob
ioning
▁stel
ophil
eous
oel
▁undist
othermic
▁catheterisation
▁gait
▁scler
kag
▁preo
▁underl
▁advan
rific
ongit
erosis
eoples
ysos
▁suspic
neal
▁restar
otp
entify
lind
yloidosis
atost
▁APD
▁insulin
▁sebaceous
roduc
▁vaccin
stance
▁histological
ourc
versa
▁talus
xpression
etform
iparo
onance
▁viewing
▁inspection
ulm
▁pineal
evere
lyet
▁cephalom
adings
▁awareness
0-
acted
▁advancement
▁cohort
edication
odality
▁occl
remarkable
▁suture
▁disparity
hop
enm
▁NACT
ecting
comf
▁SCH
▁vacc
agre
▁deformities
coprote
opsy
amily
▁prox
▁sexes
omat
▁healthcare
▁urem
▁Potentially
▁assessing
Ele
▁ancestor
monstrating
archers
omyopia
otec
▁athle
▁LSG
idely
performed
enl
▁NH
pW
oxia
ecret
acclimatize
ceo
ffective
▁inappropriate
▁ambul
eraliz
Ib
▁workup
srael
omar
losed
pia
resting
ecl
lom
▁atheros
▁uncer
▁beverages
▁organisms
rhe
urno
xil
▁annulus
ivial
bulatory
▁adequate
▁inadequate
klists
▁wea
▁branc
procedural
▁biatr
▁concom
estor
iho
ouraged
▁lesion
usu
pograp
▁conservatively
RIGIN
uod
▁exent
▁2009
hlear
▁familial
leic
▁haemor
▁Experts
iciaries
sre
▁myomectomy
sian
stakes
ocyt
agnose
LV
ilk
▁techniqu
00069
▁examiners
stric
ologic
▁counteract
sS
▁systematic
▁implic
▁acro
▁barri
cule
icien
ounger
ulae
▁predictive
▁uncont
▁thyroidectomy
▁alve
▁ration
▁withs
WBC
ptan
▁Neverthe
▁HSV
▁controlling
▁anticipated
▁withdrawn
▁decoded
elon
gmatic
herapy
▁rotator
hospit
erf
syc
salv
xat
lid
ortion
rapy
prap
sody
enting
enile
▁Liquid
horten
alit
▁modif
▁plo
▁Resected
onor
oridation
getable
▁compli
▁Awa
▁medicines
uropat
ccording
vements
▁discor
pted
ncre
▁ima
ormation
▁infliximab
▁ADH
SAPO
▁effici
▁enforcement
offsp
athy
▁preloading
HCS
▁Surg
▁Thos
▁systemat
▁2012.
anaged
▁Vaccines
▁suspici
▁acceptably
iograp
aints
▁scl
▁Delayed
ontol
ept
▁utero
ycin
▁horm
oag
▁ischemia
▁subtly
▁sphincter
▁lesions
enous
▁intrinsic
▁nosocomial
institution
SAH
LB
gnosis
erations
aminations
ighted
▁secretion
hort
osurg
Ra
enmark
hec
FPG
▁Identifying
▁questioning
etect
erimental
heless
▁hepatocytes
▁etaner
▁inhibitors
lative
▁multid
▁skele
▁inducer
ffing
▁practitioners
▁FT
▁establ
strates
▁aging
ilobar
▁Effective
▁geri
evert
▁periodontal
uscit
▁inadver
oembolic
fering
▁oncolog
employment
▁physici
erpar
▁imaginable
▁dietary
▁surrog
xent
linicalT
welf
ecurrence
▁gyn
lite
ectas
arati
urce
arer
▁Patients
▁complication
udit
cessful
▁UT
vertebral
rapu
ionar
▁anticoagulate
omical
▁facial
illn
ukocyte
▁telephone
▁bladder
▁oxygenation
▁improves
cause
▁BVM
RM
GF
ipop
▁nonulcer
▁pig
▁micron
ormality
▁ei
ocial
xia
▁interver
▁endometr
ructure
nose
alvage
▁prostate
acists
▁paragangli
▁gallst
owing
erect
nre
▁intravenous
utr
▁waist
ropho
diothe
▁thromb
▁Neuromedin
▁identifying
▁laboratories
▁oxygen
▁uncomplicated
viour
antar
icompartment
▁statin
onul
▁miniTAP
▁unant
hically
genesis
▁tracer
▁vaginal
ctiv
rombo
ocolon
▁interl
urc
orad
▁resuscitation
▁palatability
ducible
entifying
▁coel
Bet
ociated
illary
5.
arterectomy
▁tethering
esm
iological
MeS
▁specim
▁adhere
▁likeli
ightfor
ologists
loride
1.
onch
ysre
perative
alies
TG
▁enabl
eut
ishe
▁congenital
▁algorith
inemia
acterist
oing
Cen
ranul
onolog
gether
▁RAI
▁achievement
erfic
▁cove
▁defici
▁antico
ercis
▁GFD
oche
omor
▁cure
▁congenitally
imely
▁encounte
▁rese
asiz
OADs
epip
▁LV
dden
▁Predict
▁undisturbed
▁hypermetropia
hage
▁beha
chocardi
gery
▁thrombo
unost
izop
erest
▁oligo
▁hazards
ustained
ileorectal
▁PMPM
▁forefoot
reating
kening
echnical
mographic
▁Vitamin
ipi
▁suprapubic
eated
zal
▁biops
amaic
▁editions
▁CABG
▁otherw
gorith
veal
anguineous
rural
▁malal
onsillectomy
▁endarte
ipulations
▁catheters
nicity
cifer
▁Routine
▁EDs
enosynovitis
▁diversity
▁incentives
cD
scler
xh
▁disab
▁lea
▁VAS
▁rotated
oar
ryo
onl
estab
iciency
ostat
▁hemis
oC
QT
icid
rectly
urol
uscri
Au
▁injuries
▁sorely
lated
▁ATT
dult
-0
CCT
whe
▁prelo
emonstr
▁Laparo
urp
▁tru
▁neurolog
▁LCNB
ncreas
urally
alidity
allb
atelet
ronous
roch
endit
erp
ancially
chond
hyd
▁disad
▁glomer
iatrogen
estigations
orts
▁overexpression
▁APT
UCA
15
▁antegrade
▁osteoporotic
rapist
retion
aemia
▁shigell
atrogen
▁implicate
▁toxic
flux
▁detectable
rud
▁acute
▁dysreg
▁calyceal
▁reformed
▁RAR
▁resten
acuation
athisia
▁trophob
▁1.7
▁uncomp
ecological
▁moist
Lan
eront
lems
banic
ormit
▁gallb
ortun
▁perception
▁microb
▁15
▁Neither
▁abl
▁adhesive
▁homogeneous
thritis
hey
▁neutroph
▁tissues
clampsia
▁controll
MMA
reted
04
▁careg
parations
▁perinatal
ionitis
yoc
▁cog
▁synchronous
▁pharmacy
▁surro
geing
eurysm
ousehold
fent
fficiency
omenol
esop
agree
delayed
GUCA
▁diminished
▁SPE
▁ane
chotic
gative
▁Atrop
iteo
▁50
▁Mothers
▁previ
▁subf
ADs
adigm
▁chorioamn
alanc
tical
treatment
▁multivari
▁corne
▁backs
▁Neuromed
aliz
▁mucos
▁pregnanc
▁discordant
oes
Mel
▁chloroquine
oride
▁HCM
▁habits
▁Removal
egar
▁pancre
▁canc
▁therapist
imult
▁Streptococ
eopu
▁colloid
ireflux
banicity
APC
iphys
amics
▁oncos
▁nul
▁gaps
ranc
▁predominantly
ixation
▁pregnan
hicular
dromes
▁foun
itoneum
xo
ancom
ibin
leus
onf
kne
orman
ivit
TAP
chil
liferation
imab
roac
ylcy
pirical
vented
ibed
arance
▁Clinical
▁NP
ivar
hylene
mpan
vical
▁AIs
gically
▁consan
.2%
stitutes
▁enucleation
▁Gadofosveset
dicitis
ffectiven
celeration
othelial
cisions
scopy
▁Increased
erate
ffected
▁scanning
▁chond
Sami
▁ket
rougho
kid
▁hypergast
ainst
▁bing
riat
ansm
▁pathogenesis
▁dysar
▁microm
▁rupt
aq
sCRP
ophilic
▁enuc
▁ey
tif
▁HC
5604
▁lithotripsy
IPE
ersh
▁consequently
▁metho
xcess
▁inadequ
ognition
▁Afric
▁caregi
glum
comit
obal
ysg
iciencies
ariable
▁Focus
zle
▁dental
▁sacrificing
ositive
ilitation
▁prostatectomy
ulized
▁Hawkins
igures
▁nosoc
urat
ulfill
itioners
▁choking
▁parks
▁aden
▁secular
▁rehabilitation
▁ClinicalTrials
livery
ostop
arried
bace
ethy
irmed
▁2,
veals
mptom
alemic
ggestion
▁multiparae
▁inver
▁adults
▁formulating
athogen
▁overlaps
▁indef
▁20
welfare
acial
▁dose
dop
12
▁PF
▁anatomy
orical
rophied
▁estimating
nutr
▁pne
thwe
eon
▁22).
▁heterogeneity
omark
ustments
▁carbohy
▁peripher
gmental
▁echocardi
▁surviv
▁alteration
ingl
▁facilitate
▁synch
oreover
▁psychot
▁cancell
igns
ORIGIN
emur
ocio
nitive
itary
▁tympanic
geons
agnosis
48
lopram
lipping
thalmic
▁readings
aedi
assif
Vag
emorrhages
ceptive
▁PEG
VH
amoxifen
▁Engl
anguine
▁subforms
ffects
▁infrastructure
0%
▁unanticipated
▁biolog
utc
▁tranex
▁accumulation
cic
coeli
edur
unol
▁11
▁dys
linary
▁hyperparathy
▁trauma
▁Heal
▁pylori
International
Cu
phol
cotland
offspring
▁herp
enect
ocate
▁Neurop
KA
▁preclude
seal
amaica
▁survived
▁periocular
echniqu
▁stratific
paris
▁consens
▁inev
kat
▁programm
▁peptic
▁physician
CTs
▁stillb
▁angi
inep
ibi
cellous
▁newb
▁workf
▁equivocal
ctional
imary
gli
▁ET
▁unpro
vels
ventf
▁feeding
coplast
hc
ticulitis
▁informal
▁discon
odenojejun
trib
erper
▁PSA
▁Conve
▁57
osoc
dect
iminis
either
hance
ervic
dation
▁Recurrence
diot
opos
▁fractures
cisive
compan
armacy
▁nasal
▁intragast
licular
retation
▁thromboembolic
ectly
olerated
curren
▁diagnostic
hods
icent
trexone
▁outperformed
▁carbohydrates
ammates
ipatory
rae
misphere
▁labialis
▁beli
companied
onad
9-9
1354
odules
▁benefic
▁nail
opositivity
▁tailored
onylurea
urden
fat
inj
retro
ditional
aim
ctive
▁eliciting
sist
ulin
atid
fron
4.2%
▁preb
▁alloimmun
inor
ustify
▁mech
▁lym
▁apoptotic
▁incent
BP
ortions
keli
Ger
otype
ipate
urers
oskeletal
oec
eriv
hout
iothe
▁transurethral
inting
alig
▁miniT
▁adolescents
morphic
LN
urea
finitely
eneity
trimental
67
▁diagnosed
▁chemotactic
▁heterogene
yment
▁landmark
▁financially
▁COS
▁7
opment
HAN
▁IFG
VHD
▁investigations
uptake
ulfonyl
▁sS
▁facilit
▁plann
vered
01
ioner
▁patell
▁anticoagulation
cum
dominal
rehension
physiolog
▁leptin
ivided
maging
onding
▁RT
▁paragangliomas
essment
ficulty
ithin
▁dexamethasone
▁dysm
▁babies
OA
▁usefulness
rops
enoma
othesis
▁confin
utcom
▁osteopor
▁theo
▁endothelial
▁spon
illus
aluation
▁widesp
▁Pedi
▁chondro
ostcon
▁defic
▁migraineurs
onstr
▁8.2%).
arat
▁eros
linqu
utri
▁availability
occus
▁framew
usl
▁enrollees
▁undergone
▁lumb
sels
shol
1-
▁emotions
▁rhythm
▁endar
mig
▁HMOs
▁Vaccin
gastric
ifical
▁progn
1-2
▁depressive
▁fatigue
birth
quieting
▁consistently
▁osteotomies
imarily
atched
parathy
fes
herence
▁Blockade
▁201
▁nonadherent
Kore
ofollicular
▁DFV
iotherapy
▁Cmin
rican
▁tamoxifen
upation
uln
clusal
sag
▁inhibition
▁malleable
▁newbor
▁remo
dati
▁optimizing
rur
▁menopausal
isual
▁alp
misartan
concussion
riptans
cardiographic
circulation
herent
inim
Mu
imeglumine
ophage
▁wee
iati
MIC
quine
544
omosis
▁mediation
▁bone
▁latency
laints
▁soyb
▁carc
ecular
stro
▁prefe
▁encour
▁1.
▁recurrent
▁variability
▁endoscopy
▁pathological
▁volumet
abies
hera
asur
urati
hesis
▁radiographic
odialysis
alivation
enzymatic
lcy
▁intra
▁ortho
operative
uscitation
▁loosening
▁ASA
▁aspiration
aedic
lecular
lymor
▁morbidity
odial
lycaem
ean
onsil
▁surveillance
▁embraced
rophob
▁QoL
ibing
hero
▁conclusive
▁cirrhotic
itse
▁noncited
▁BRAF
caution
▁reevaluation
ptans
▁antecolic
eropl
itam
perfusion
endic
dial
emorrhage
ucleation
▁sulfonylurea
asound
ulitis
oxic
Sahar
extual
▁Benefits
▁Lysosomotropic
orcine
elmisartan
iable
tected
▁intercostal
sive
peed
teady
▁evolving
cessing
▁mandatory
20
argine
astom
farers
olisers
▁Altho
▁apopt
▁femor
▁gastroph
▁adjustments
▁indicat
▁intake
stances
ocol
luc
▁unicom
▁autoC
▁compartment
78%.
▁topical
undibular
enate
ochem
▁refe
▁effectiv
athological
Ped
▁biochem
uat
unse
▁repositioning
habilit
were
▁carb
▁polyps
entati
ASI
▁prescrib
umine
erum
ischarge
▁prophy
ervice
onsider
Nm
▁PCL
▁Leptin
ysf
▁Pathologists
▁intrauterine
▁NPC
nol
urological
olectomy
uctural
omot
lood
mented
rao
odynamic
imiz
▁thos
▁IA
therm
duate
fication
▁AGEs
▁counsel
mist
ths
venth
▁GI
ipient
▁examination
0006978
▁failings
▁micronutrient
ctan
▁2020
misp
erestimated
▁concord
▁relied
imising
▁bilateral
▁FTLD
▁ulcer
lobe
ardless
▁biases
ssive
▁byp
▁excimer
▁overlapping
perts
▁subgro
▁distal
▁popliteo
nati
▁orthopaedic
sus
veill
▁HDM
▁bronchiectasis
▁calcified
▁enucle
▁balancing
misar
▁IMN
onis
salvage
▁palp
▁chall
▁dissatisfaction
▁injure
▁distinctions
▁cleansing
▁deter
igital
▁discopathy
▁reflux
▁circulation
edullary
inctly
lith
TK
▁chil
oxid
▁usefuln
usly
ipraz
rely
curately
elong
▁encouraged
odyn
sion
erform
andard
▁desi
▁ini
veries
eru
idectomy
ugul
▁prostatic
oratory
▁residency
ssoci
▁scint
ipated
▁myoc
▁AGE
isfact
▁pSS
▁unsuccessful
▁Pret
▁investigating
Wi
▁prelimin
eutic
▁predictors
▁correspon
ustif
ceptib
▁highe
dictab
iately
▁repai
▁Affect
elmis
plin
▁DSM
phrol
▁adequately
▁Improving
ultip
▁physiologic
▁psychi
iotic
adiation
▁consc
▁STI
icac
IIIa
▁superi
▁FV
fM
aventricular
ilaparoscopic
ISM
ecta
lary
ectom
leph
uneral
Aw
▁infections
1-3
oref
stim
▁follicle
▁RHR
educ
▁unst
eview
athologists
reast
orations
▁Taken
▁functioning
dac
endoc
▁HINT
▁fetal
acetylcyste
lre
lyps
▁palat
formin
ffl
▁Gad
aner
asten
graft
suppressive
ostomy
rint
▁PH
▁Trendelenb
▁alre
▁Exclus
▁HGUC
ocioeconomic
▁uteroplacental
ubt
▁microcirc
iewing
▁noncomparative
vaginal
▁airway
quently
▁QAL
▁pigmented
ullip
▁OPL
lact
cutaneous
▁fatality
roun
rection
dul
▁predic
▁promot
▁tech
▁ESR
▁pulmon
ervative
▁ovarian
▁compre
RH
hibition
ppro
▁nulliparous
eralization
▁ICM
▁RCT
▁chemo
9-
umfe
enet
ognitive
leo
orid
upo
▁esophageal
morph
erted
▁BD
▁hypothesise
▁prevalen
▁CCB
▁highlights
idering
▁hypertrop
olon
▁Preoperative
cystectomy
irrhotic
mising
▁hepatic
rotect
▁trough
Phe
▁neurological
asic
otymp
ightf
▁interacted
hyroid
emograp
astatic
▁pleomorphic
▁proctoco
▁intervertebral
medull
cessed
cline
uations
terver
enteration
▁intervention
rurop
luence
▁PV
erts
alliative
▁embryo
ounte
ameters
tors
▁DAR
didate
rophylactic
▁thyroid
▁Pathway
▁Healthy
▁carbo
lysis
ultural
ergon
puting
▁immun
▁infe
▁APTT
ducts
▁adjusted
▁eac
▁poorer
▁Compared
otional
emory
00069784
quiv
▁chlor
▁abdomen
▁Qo
menopausal
▁HPV
lel
▁coexist
ceiv
sation
alve
▁Liqu
▁juven
lorid
idity
xiety
▁cTnI
IVI
▁evoked
ptable
▁glyc
Ran
racture
▁AMP
▁antec
▁lipoprotein
▁provis
ergast
immune
▁MRCGP
▁aspir
hibin
omenclature
▁putative
▁disruption
imating
▁Prospective
▁adenoc
▁atropine
oneum
matic
▁asthenopia
▁Chemical
protective
strument
▁mandibular
naires
▁nodules
idual
GEs
▁shorten
Gast
BK
hC
▁pyramidal
motional
icenter
▁delusion
ircum
nternational
Vac
▁requi
▁vehic
▁CLBP
ltrasound
▁unre
▁illness
otyp
arriers
▁nonc
aluable
resses
▁autoCPAP
inant
25604
onate
NAI
▁Interventions
▁encounters
125604
ogeneity
▁pediatric
▁maintaining
secut
iography
▁caly
▁umbilical
osk
asised
lamm
▁rul
creat
udg
▁improvem
tly
▁retention
arently
▁profound
tach
estinal
otomies
agnetic
igell
ulop
ravation
owerful
henom
diom
Ts
▁WO
▁pterygia
otact
onsible
ongly
▁latent
▁viable
phic
▁resect
▁PT
▁clinc
thw
▁withd
▁Thromb
▁Cobb
▁erad
scl
▁benefici
▁unaw
▁minil
urse
▁reflecting
idement
▁swelling
phis
rially
▁Associations
▁Geriatr
ssure
houl
yroid
▁5
▁differen
glyc
eser
▁GERD
▁prophylactic
atholog
▁outpati
SPECT
▁glycop
▁lef
ronic
Sb
▁nal
enied
unolog
ogist
▁intrapartum
peratures
ranulas
lye
gm
tervent
leu
anom
▁muscles
▁diseas
▁PFS
Hence
vour
▁acetab
estigated
olum
wee
essening
▁oi
▁insul
▁woun
bCC
▁INF
▁endov
eresting
▁cumul
▁neopl
otomy
fered
▁caregivers
▁Normother
▁predomin
▁enrol
igra
iteria
ubject
▁opioid
oquin
ifel
asom
iref
energ
▁Accordingly
closporine
ccor
▁reveals
▁2.
Mul
▁deceler
PAP
ullary
▁akathis
▁colonization
raduate
hment
LU
▁HAM
▁aiming
ifo
▁steroidal
phrolithiasis
astat
ificative
piration
▁27
clusions
▁GVHD
ilut
icies
hysiolog
isodes
esult
▁gangl
76
▁ART
inence
▁VEGF
linicians
saturated
▁DSE
pici
orag
▁verif
▁repl
▁IPF
idation
▁ultim
hob
atostatin
mog
destru
▁Allocating
▁exac
pant
▁anticoag
chocardiographic
hronic
mental
▁likelihood
atings
adequ
tions
▁lifel
Eu
▁Auer
▁monitored
▁geared
ethering
▁Roux
▁transure
▁metoclopramide
ineral
chondral
75
oler
▁carriers
zole
umulative
estas
ece
▁sSS
▁seb
EBWL
ipra
▁undescended
activation
ympan
oglycaemia
nerable
▁unt
▁transient
Norm
▁Large
esocol
▁chemorad
eriatr
lights
atability
▁diabetes
▁synovial
▁presc
▁exh
▁Tran
▁Lysosomot
▁oncologically
itial
▁pharmacores
▁deem
aic
▁MG
fusion
larged
ileptic
▁pharmacoresist
▁phas
essari
▁erroneous
▁Educational
▁Oph
▁melanoma
idelin
graftment
3544
umul
ristian
▁affluent
▁Bioc
▁experi
▁fulf
▁shallow
▁clinics
▁carcinog
ignant
edar
tas
cest
ovative
egal
▁vein
▁carcin
taining
▁postfir
apsul
tic
otl
▁tonsil
▁ultrason
usive
ibit
arge
umatic
▁AEA
sues
▁disquiet
atiz
dund
cay
olve
vations
▁Fentanyl
▁postn
EOA
liciting
rotein
▁disru
esophagitis
▁heparin
HQ
holest
hers
▁intramus
inely
adofosveset
▁checklists
▁misper
utin
pho
▁Significant
▁monof
idl
rapart
Wn
oosening
▁makers
▁prenatal
ertion
▁34
▁tooth
vail
▁sclerosis
Tro
▁labial
▁exenter
veo
acerb
OQI
ecol
mical
enrol
rone
▁AMPK
▁auditory
colum
amag
▁cyt
▁dee
ardiz
▁postfiring
▁VO
iversities
cores
idities
urys
▁establis
▁estro
▁Certain
climati
▁NTH
igib
▁Nm
jority
▁rash
▁Chronic
▁infection
oneous
ansoprazole
▁misleading
icin
046
▁creatine
vial
partmental
ormally
rovascular
hro
▁Convey
anent
2,
▁venous
othel
▁lax
espre
hopaedic
▁failures
▁aneur
▁undiagn
veryd
mity
▁assay
▁cen
compressed
▁anast
sos
gati
demographic
gesia
▁alleviate
diz
EEP
verity
▁aS
▁schiz
asizes
Ol
bectomy
▁fluoroquinol
unar
▁1-
iscip
ialt
▁PTC
▁2
▁reag
almic
opamine
▁variab
▁severely
▁endometrially
▁CAM
regn
ework
erestim
▁subspecialty
atocy
▁aggravation
nct
.6
oncept
nowled
ilu
▁Awaren
▁endor
edg
herm
lucidate
trap
Dem
Bur
asty
elay
▁Concomitant
eS
▁benz
satis
▁Pag
▁cyclos
▁consultant
enol
Ka
ilab
▁validity
onography
▁hemod
cise
orly
▁circumferent
ilot
retrog
ediatrics
▁appre
eare
gement
elan
▁Fournier
tyl
▁Registration
brop
jur
yb
▁nonoperative
rective
▁blad
uscept
atenin
▁trend
▁migrated
▁adenoma
▁detorsion
noise
▁gluc
hesitis
eople
▁polymorphism
uide
onut
onents
lance
eriatric
leve
25
assified
ustm
▁patholog
▁SUP
▁aides
rapid
inders
dicated
032.
fundibular
uccessful
▁atten
▁2002
bch
nly
dle
▁eyel
▁leas
races
oresistant
iece
orioamn
ificity
▁perip
elids
rinsic
▁necro
▁plantar
▁Considering
Las
0-576
-9
▁tubes
APO
▁mortality
ablish
unab
▁repaired
▁contemplated
▁effectiven
farct
▁HCA
▁demonstrates
hogen
unre
inctions
uag
▁yi
▁IPE
▁spinal
▁excre
▁headache
▁IMRT
▁Gerontol
redict
asmic
rast
▁myomas
imegl
iples
▁invasive
iethnic
▁decod
▁allergic
tensive
▁beneficial
ounc
acteraemia
Whe
▁witho
operitone
onsiven
▁Finding
▁surveys
enosis
hysicians
ventric
2.
otech
▁uninjured
ediatr
ssures
ergastrinemia
urve
etim
idit
▁nurs
▁monit
▁abortion
ulting
itally
▁palpation
anteric
▁provid
3-
▁tuber
ilateral
▁regar
udom
hemor
▁physi
ffici
lapping
roughout
rested
gis
xamethasone
▁hemodynamic
ioc
henoidal
asily
▁MCP
rainage
▁aggravating
ethn
lateral
Ns
▁annul
▁Imaging
raphy
peri
▁RM
atest
uzzle
datidiform
▁mammography
erl
▁abuse
▁substituted
NM
ervices
ribed
ancies
anag
izoph
▁Larg
isit
roint
▁irritation
▁metabolis
thletes
▁preconditioning
rean
apedectomy
▁stren
gess
athyroid
▁terti
▁elu
itro
▁influences
lowup
occal
▁anas
plained
▁iatrogen
kad
munolog
referen
▁norther
▁deemed
ocl
gulation
▁obes
ampsia
▁PI
▁Nontr
tate
▁Stroke
gst
lowing
▁diab
▁hig
otympan
roup
sly
acological
antable
Burgess
▁gallbladder
▁perc
oncom
genit
▁everyday
arged
ppress
▁adju
▁atherosclerosis
▁uncovered
▁ong
0.
▁fMRI
46
edle
atigue
althy
▁admissible
atment
▁GM
ctual
edin
▁phenotype
▁racial
icrom
aphy
▁edarav
nw
▁hypersal
orax
▁QOL
igrants
commended
lw
▁Larger
▁burden
▁healthc
mation
▁modul
▁cleanser
sess
▁ventilating
couraging
Soc
▁unselect
▁sequel
associated
▁abus
▁sliding
▁participate
▁unemployment
omotrop
egration
000
▁insu
oic
▁anatomic
hotic
▁eyelid
olumes
abas
▁biomet
ificati
▁Closed
Mes
▁Denmark
▁monounsaturated
▁acut
omes
▁staging
ensity
heric
▁desmoid
▁MSC
▁callus
▁ETA
▁500
▁Serum
▁benign
6049
atist
ncl
umference
ivities
amine
xen
cussions
muscular
celes
▁pS
udged
rendelenb
▁PAS
▁abnorm
discharge
ragmatic
▁impacted
rth
ollic
erful
▁septum
▁Taiw
odest
▁exhibit
plated
▁PRK
▁comparis
▁channeled
ertions
DNA
▁strom
▁throm
▁colonoscop
▁disch
▁thic
(5
▁Laparoscop
Hum
ceptors
facture
▁disparities
▁interp
▁consultations
crew
kers
▁hsCRP
▁intense
▁FD
▁maint
hical
ejunostomy
ptures
dverse
▁musculoskeletal
▁simultaneous
onment
carcinogens
▁OSCE
▁glom
clop
ylori
porarily
▁througho
▁LVADs
▁Therap
inp
PSC
orefractive
▁shig
▁biatrial
ethasone
▁31
ouns
▁TAA
▁cathe
▁characterist
▁endp
▁contamin
▁insertions
▁hemisphe
▁discer
fractive
▁complications
▁Generalization
cce
twe
LF
cence
fid
▁injur
dose
veset
▁biomechan
▁carcinogens
▁princ
▁Cycloplegic
filtr
▁elig
▁ethanol
ountr
genic
rban
▁reactivation
▁GD
ctly
iltration
rivation
icacy
▁unse
ssors
astomosis
▁settle
▁directional
▁clinically
assific
essing
eriz
▁procedural
rient
▁fractured
▁biom
orre
functional
vival
onit
▁discop
▁unexplained
▁pediatrics
▁ove
ithd
rbanic
▁despit
▁utilization
▁overcom
ectab
asala
▁saliv
▁holmium
fy
Gas
yclovir
ocard
niz
ortant
▁precedes
ocusing
CSs
monst
▁osteop
oquine
▁surrogate
▁justified
igation
erested
▁ketamine
steop
angli
▁MPV
▁psyc
orests
▁sensorine
▁multif
epit
sop
▁RTS
▁lansoprazole
ycl
henever
▁sustainability
spection
▁microvascular
tead
▁undetectable
unus
ovit
dant
sif
ravenous
▁adolescence
▁atro
erat
ographically
▁expre
merg
atheterisation
ansl
▁Ong
▁workload
imated
▁THA
iminative
curac
ciferol
▁undi
usi
nce
iab
ecessary
bation
▁neoadjuvant
eac
pographic
iolence
▁sepsis
icat
▁torsion
▁adoles
undancy
rendel
0-5
▁instituting
hylaxis
▁promis
▁postf
▁Adverse
luor
nize
osu
orce
cend
▁genot
▁CIE
▁hypert
eIVI
antially
▁linoleic
▁Contrary
▁elevated
▁urin
▁22
▁myoe
▁arth
▁biomark
orns
vant
▁autoxidation
▁quantitative
▁Pregn
macy
leation
zation
enhanced
▁gly
neumon
fract
▁cardioembolic
orean
▁surp
▁myom
iderably
▁puz
omog
hie
▁discussions
uccal
cident
ansrect
▁pWAT
oxif
acrop
▁interventions
▁60
▁yout
lasting
▁Melill
leore
▁focusing
opulation
cim
specialty
▁ICS
omac
▁institut
alkon
▁inequ
▁strategies
▁Weight
▁parame
olones
▁tiss
icab
▁PPM
▁GE
choscopy
▁Trendelenburg
▁detachment
lectr
▁outcom
▁prevention
▁unco
▁therapeutic
▁eliminated
evitable
FH
utro
inact
ifty
19-9
▁intraoperative
idney
esophag
entative
arly
▁facilitated
▁transrect
▁thera
wanese
▁myopic
munod
▁midlife
egrade
orioamnionitis
▁outper
isiting
▁6
▁gast
iologic
scored
ggest
▁involvement
diated
▁genet
leis
easur
regulated
erost
▁unreport
▁poten
reciably
jured
▁Sami
▁septoplasty
▁identifies
oplastic
▁Optimized
▁feasible
▁errone
▁PCI
xameth
hite
siz
▁optimiz
▁bowel
▁measuring
▁cohorts
▁speculated
▁cerebrovascular
2813544
TU
▁pall
▁consangu
▁transureth
▁adhes
astroph
terogeneous
▁reposition
tet
andomized
easib
enzy
▁Intra
▁melat
lif
▁influenz
▁hepat
▁inflammatory
▁proteins
ardis
▁ALT
tent
AIDS
rogenic
▁GV
stays
ropriat
▁reh
▁hyperpar
▁answe
atomy
pite
▁sedentary
erize
GUC
reatened
enopausal
orsen
ipating
▁plaque
▁appreciably
▁shigellosis
▁undiagnosed
▁Whilst
ccessful
▁suicide
▁bacteraemia
ganis
umor
▁athe
tiolog
upoint
icant
▁10-
▁receptors
▁pate
gim
alat
▁uninj
▁unic
▁therapies
nj
econd
verif
inat
▁formative
verall
▁sickness
lesion
▁serop
ainment
BCS
ultane
cimer
tib
romet
icati
▁Older
atisfact
intigrap
▁GPs
▁ATTR
▁clerkship
TnI
onoperative
essm
ehol
ostal
▁morpholog
licle
esion
▁pharmacists
gion
▁bip
strating
▁anteg
agery
arb
▁REs
▁pubic
▁FAC
oquinolones
ipolar
urative
hopa
▁cate
Fen
amox
reop
▁concentrate
sat
sar
ribing
▁midfoot
▁stillbirth
onth
dancy
natal
oung
▁drin
orrhag
▁collateral
▁hygi
▁underline
tectant
pist
OI
▁thig
yro
acetylcysteine
wb
hology
inguish
omalies
▁ruptures
0%,
▁splenectomy
▁vitro
ositioning
▁bacteraemic
▁Pancreas
caem
ectiv
goc
blastic
parative
adac
▁disadvantages
▁abolishes
verty
ultures
▁AVR
▁EO
cinogens
▁prompts
▁assays
omod
▁uncon
olut
ropat
essels
endect
▁scans
aration
owever
▁intragastric
hei
hologies
oub
▁overla
▁epile
▁Physicians
stages
normality
▁FH
▁synergist
elfare
▁exch
erus
currently
easible
yte
echnically
ialysis
otropic
▁tissue
derst
erator
rans
ctical
▁substit
▁endorsement
▁semie
alan
eine
weden
▁immunode
linquent
osomal
receptive
▁cerebrov
osit
▁fracture
oos
▁5.
rele
olicies
▁sour
eron
urolog
sib
▁arthritis
onably
▁wi
▁cancellous
ntern
▁corrections
thre
oac
▁multiv
icathe
edig
jug
▁hyperm
▁necrosis
▁multifactorial
ssions
rements
VIG
Bed
verified
▁barrier
▁Continued
oq
married
▁transmis
iect
icits
loid
eces
idening
▁ultras
astomotic
.5
▁HIV
▁PAD
atality
onsum
raop
▁trilobar
▁kinematics
strate
ulties
▁acup
athw
lf
nk
igit
▁indeterm
cyst
▁hypertrophied
crease
alc
▁Vaginal
itely
▁MEP
▁immunomodul
▁aler
▁Masala
rof
emot
plantation
ussion
▁enhanc
▁adenom
ompar
▁laparo
▁Aspir
hial
▁PPP
ucation
▁complemented
GU
▁impacting
ranula
enthe
▁significative
henoid
anese
▁paravent
ostc
erim
atency
ractical
▁Mucos
▁aripip
▁pulpotomy
▁secon
erien
▁embra
ssion
fle
▁rectal
▁improving
▁resusc
udomyopia
▁cardiov
ture
enture
neled
▁ethnic
▁PE
▁phy
81354
venous
▁kinem
uic
▁inherent
▁Pregnancy
edect
verl
▁SNP
▁Cox
▁numb
umulation
lyp
▁PPPD
isr
▁streptococcal
orefract
ceptions
▁parasacral
osomot
argins
anser
Giv
oal
letal
▁ae
oron
▁somatisation
nop
ithot
uscular
glumine
vone
voc
detected
▁intrins
▁DT
orc
asu
▁appendicitis
ellit
▁simil
▁olig
lerations
amet
▁LNM
leom
astasis
CSP
rali
iniz
medullary
▁tymp
ully
000697
gorithms
▁regulate
▁Alternative
▁satis
ronted
▁xerostomia
▁hepatocy
▁Phenomenology
▁postoperatively
porari
▁subtra
Ia
edt
dictive
ansf
▁noncom
▁2016
TcD
diog
ctas
▁tis
▁longit
entional
▁nonwh
▁biomarker
▁DMOADs
▁analys
ationsh
▁tomography
ococcus
rary
essent
fere
satur
ecessari
gist
iD
ternation
heig
▁biometric
▁superficial
ervix
terr
▁practiced
entit
▁testicular
▁Commercial
terial
cational
▁educate
onous
nch
artum
otent
▁Trial
pS
iming
mpts
▁leuk
rectomy
itho
mitted
ropon
▁Provision
knee
▁AGA
▁individualized
arag
Mas
▁fragile
▁HL
gil
tein
urther
oscop
▁derangement
sigh
oog
▁nomenclature
▁Lys
stones
▁hypot
-1
▁Trauma
▁internationally
gnostic
ysm
responder
ologically
cts
▁algor
dren
4).
▁substantially
▁edem
borns
nz
unctioning
▁5-
▁amput
rinemia
▁mam
▁mechanisms
hemo
thor
▁oculoplastic
tane
▁tes
▁detr
scopic
aple
▁adolesc
astrop
ickly
giography
▁amyloid
ducibility
▁metoclopram
illectomy
nife
▁patel
trary
taken
▁Focusing
ubl
egis
ortho
orms
09
wered
▁anot
clin
▁EPSCC
eak
everthe
▁Patholog
ualize
pithe
▁Vag
stoscopy
ertensive
▁depen
clim
▁mamm
ansg
tinued
hemotherapy
compar
▁16
▁hospitalization
▁supple
ilable
▁eluc
▁QALE
tment
inom
▁characterize
fici
ewor
▁peoples
ustific
entag
reatments
acer
▁versa
tational
iology
▁relating
▁systolic
▁Trials
atella
appropri
▁undergraduate
aluate
▁synt
icalT
arri
▁axillary
▁targ
▁cytology
▁preter
▁MH
▁PCT
umour
idism
▁reagent
hied
genation
▁autosomal
eve
vom
▁melatonin
▁elic
anied
▁hypothyroidism
aryngeal
▁Prog
▁discomfort
lati
eratively
ufacture
comy
▁ventil
▁Awareness
▁femorocrural
arked
▁wom
▁Goog
▁reconstr
▁undisturb
▁calcification
▁evo
lum
▁thorac
onographic
▁sighted
▁Cycl
escent
enef
▁affecting
▁pelvis
▁disor
hep
itant
▁PD
▁clerks
▁interg
fely
SAP
rophage
▁Eliciting
▁leis
ocating
ricular
diomy
ses
▁cue
responders
roced
enges
arker
Dcast
ustment
▁promising
munom
ertiary
anss
usation
▁exter
rogra
▁19%
▁knife
▁LOS
iatrogenic
tak
KD
ially
▁suffici
▁CAB
ylure
effective
▁communications
cern
ladder
erobic
▁bioc
kely
gul
▁cholest
teration
olysis
ogies
phosphonate
▁Demonstration
▁Atropine
▁feat
atient
nv
▁circumferential
ceive
Ou
acist
enectomy
lectomy
▁unab
ustrates
▁rebound
ioid
▁complementary
▁contral
▁auditing
relevant
▁underli
pex
lopramide
▁diaphyseal
isibility
istolog
onger
omies
injured
▁sulf
▁malle
▁omit
▁Clin
nition
▁morb
▁GER
▁Histologic
identif
hologically
dif
hension
▁OC
uor
▁behaviors
▁predicting
▁fever
verest
▁hemody
▁comor
▁engraft
utinely
▁FHR
erms
▁chemotherapy
▁expenditures
▁intrap
▁lithotrip
▁doses
alges
▁inequalities
▁eit
uloskeletal
▁dysarthr
▁vascular
▁IAC
fess
▁Cytoplasm
▁Cyclopleg
▁glomerular
▁accurately
aemic
▁hep
actera
▁ploid
▁morbid
ochemistry
▁beneficiaries
▁HN
lve
usati
▁purp
itic
▁endothe
lapp
▁vitamins
igel
SQ
mT
▁polyethyl
tend
echni
cting
▁nigh
▁hypothe
KI
regs
clospor
raving
▁suturing
irthwe
▁ischial
pir
▁Remote
herw
esocolon
▁spine
▁untethering
▁needl
▁therape
phasised
uner
▁behavi
▁lith
▁axill
▁implant
vati
▁surgeon
ojejun
olicy
udinal
dicate
Du
Qo
▁antireflux
▁evaluating
copathy
▁ptery
▁LNs
ariability
edicare
▁Analyz
cents
▁undergoing
formity
luen
▁carbohyd
lectronic
▁pati
thop
linolenic
usp
ramide
chological
umop
▁benzalkonium
mentar
ecif
boun
▁prog
▁vitamin
▁assurance
▁pertro
aparotomy
▁prostat
onab
▁palliative
ondition
novative
▁anatom
otechnologists
▁ergon
angl
caten
81
artan
▁subch
irr
▁syndrome
raftment
phasia
▁drinking
aline
▁tumors
arae
▁capsulitis
▁HG
inical
oping
▁11,
isture
Foc
▁spa
▁scintigraphy
crep
ioration
ority
▁exposure
▁validated
FV
ulliparous
OAE
▁1.78%.
▁ETS
Ban
▁Medicaid
toler
lowships
ximum
vironments
▁bac
protect
▁demands
▁disqu
estri
gies
6032.
ventions
servation
moted
▁epiD
ercut
▁connective
▁outcomes
▁CLM
▁allerg
ovas
orectal
sities
▁whic
▁15%
▁CRT
▁infrastru
seud
fectly
▁poore
urv
▁membr
ucational
nion
Great
formit
▁multivariate
ancomy
▁SbCC
▁paradigm
ecial
tebroplasty
▁MDD
odef
▁Transrectal
omotor
▁warranted
▁alar
▁unde
▁bever
▁syndrom
waren
▁fulfill
▁anatomical
▁ACE
▁radiography
▁nephrol
imari
alkonium
▁scin
roduces
▁unremarkable
▁recessive
▁appendic
▁cognition
▁TD
▁enti
Tc
▁prosody
▁Stead
ggests
▁pneum
anula
dv
itures
PCC
▁suppressing
03
▁unmarried
imize
areg
jejunostomy
▁reas
ypical
▁proliferation
▁neurologic
▁percutaneous
rhag
igated
nter
▁RB
hain
lexion
luent
diographic
▁Transact
ormance
▁vancomy
isol
ugment
▁hemorrhag
▁circumference
▁outp
cination
▁atrial
cele
▁curative
▁excluded
enat
ultations
elid
▁nephrolithiasis
teric
enro
keletal
▁empl
oading
cta
▁itse
adoben
14
mTc
EO
▁poses
ACSL
2-
▁LVAD
▁racially
▁globally
▁UTUC
▁Improvements
hif
otens
gd
▁therapy
▁EMS
muniz
imeglum
ximab
▁SLE
cine
ompartment
hern
iated
▁pulp
ograms
umpt
BG
▁subg
usoid
ignal
ceptual
ormin
mU
▁mutations
ardl
rapeutic
▁Cus
hemic
bic
▁manipulations
ployment
▁Prediction
ammat
▁whit
▁strate
arers
enefic
terioration
▁craving
▁unilateral
hared
▁INR
ailab
▁40
rative
istin
▁chemoradiation
wis
rastru
nionitis
omec
istently
▁devising
UNAIDS
▁VLBW
▁accor
anting
eptin
3,
onv
ecro
▁predictability
▁detrimental
ariate
▁probab
▁Dil
▁differing
▁enhancing
▁unem
Pot
sise
NAIDS
ximately
▁appropriateness
Kup
ecess
▁meals
▁biopsies
positive
▁introduces
onsid
roep
erably
oradi
▁ventricular
▁contex
Hb
▁proce
▁embry
onat
▁contextual
▁comprehen
▁NT
ergency
▁prostates
▁Ketamine
ampl
exam
endothe
▁metabolic
▁inhib
Pati
orable
UNICEF
perv
▁vasomotor
udents
perating
ronutrient
▁aorta
ralat
ocar
▁placent
Cer
▁lino
tonsillectomy
▁healthy
TNF
entat
▁eclampsia
atc
ilicone
antit
inated
complicated
ustain
ulc
mates
athis
atific
endem
▁quantit
▁ure
astrointest
acclim
▁amputation
uniz
ervision
rapies
▁BMI
ipul
emoral
▁bronchoscopy
▁cerv
▁depression
▁HIE
lowed
▁alveolar
cT
orbidities
▁obesity
entage
▁adhesions
▁propert
▁ADC
icit
▁IgG
tst
ulti
otympanic
anul
vein
▁Medica
concept
acro
cedur
▁PVR
▁fellowship
▁discus
echan
▁randomized
ospitalization
ditionally
▁Pediatr
lations
arity
▁elucidate
ronut
Nor
ationally
▁adverse
▁malalignment
istologic
▁discord
flect
▁Obese
ameter
lion
▁surgery
itical
dictions
▁earli
▁eradication
ophren
▁frequen
▁eligibility
Fur
iformity
▁nomencl
▁EUS
▁naltrexone
▁indefinitely
▁ileorectal
▁seventh
athe
implantation
▁hCG
▁predicts
▁synerg
ograp
▁VCU
nable
kable
rove
▁milled
▁concurrently
▁Urbanicity
dib
ecific
▁IHC
ineural
▁Percutaneous
istal
utu
▁sphinct
cated
16
urnover
koc
onm
eeping
orari
echanis
▁turnover
erist
ortisol
gland
econdary
▁chec
▁targeted
▁guided
▁VCUG
rine
▁inclusive
oxidation
tether
▁clinch
roidism
▁pathophys
▁depress
reatment
onve
▁discern
ansi
▁umbil
▁epine
354
inati
▁molecule
uco
▁Keeping
uven
▁prebent
embr
lycaemic
▁fM
enj
hincter
gth
IDS
▁Neopuff
▁aimed
▁statistically
▁Estrogen
▁eosinophilic
ials
isone
ogra
egra
ercise
▁palsy
▁endem
roct
ormothermic
▁insult
Hig
imati
▁confounded
▁stil
▁Trendelen
dictors
▁financ
▁footpr
thc
inguishing
▁socio
▁drugs
inging
▁specif
letes
▁Normothermic
otom
phosphon
bse
erine
▁correlates
genes
ileore
renc
erkship
itone
ubtedly
▁placenta
erative
arent
PSCC
ercutaneous
strogen
copists
▁disadvantaged
ingin
▁contributory
ustified
▁hypertens
▁striated
▁urologist
▁enhanced
orest
▁CM
▁subjected
hron
esign
▁CIED
▁MI
▁endpoints
rapubic
ethas
hog
▁atmospher
edure
ersonal
anage
duc
▁abnormality
▁underg
ipation
relates
▁bipolar
orta
▁hydati
▁nort
celer
▁admiss
ynec
▁Melilla
omit
munization
omia
▁abnormalities
▁etan
tmental
henopia
▁drain
▁(54.2%
▁570-576.
▁continence
▁tobac
isive
▁HA
imensions
entary
▁Malnutrition
mati
eud
▁7%
▁Reviewer
essential
▁disadvant
▁inclined
estim
hare
hic
ediat
▁encoun
▁mediates
▁sedation
▁uniformity
ureus
onst
▁poverty
ituitary
▁PRISM
▁overl
ontriploid
Lim
▁temporarily
▁enthesitis
▁guidelin
▁gallbl
rawing
eigh
osphonate
▁multimodality
erob
▁tonsillectomy
kly
eritone
▁screening
ivariate
cold
cour
ogenous
ureth
erits
▁Ket
avour
▁VDD
odynam
immun
perfic
▁scho
▁susceptibility
▁multicatheter
swered
urine
▁gluten
▁desirab
▁otorr
pul
▁emph
cq
ORI
seudomyopia
▁appendect
▁linkages
anomas
altrex
▁warrants
olving
oplac
▁fluoridation
aid
eted
zl
▁Biochem
ylcysteine
▁feasibility
▁corresp
▁plur
▁resuscitator
▁cited
▁reviewers
▁phenomenon
cose
umat
equalities
▁oligoarthr
▁conside
ococci
asacral
weighted
armac
▁QTc
patic
▁ageing
onsiv
Tes
▁officiate
▁operative
▁ston
▁cannul
▁sulfonylure
▁peris
ifor
phrine
essages
▁stu
ustification
Ear
▁labeling
linici
▁pathol
▁atresia
▁chor
enzal
▁underest
▁Pati
▁RBC
itish
▁desm
▁nosocom
HN
reatening
Ly
allus
chanteric
▁progestin
▁enhance
entiv
ostm
munity
4.
▁unsuc
axity
▁theore
vating
cib
Ul
olumb
▁OTA
lpful
pical
stability
ortal
▁histopatholog
enzalk
▁MRI
▁thromboemb
immunization
▁DST
▁concordance
creatic
▁PP
erut
▁bruit
▁epileptic
sment
▁volumetric
▁cannulae
onar
▁vertebroplasty
pff
roving
hylax
imension
▁buc
▁harmful
metropic
valent
▁colonoscopy
▁reimplantation
ategic
▁Nort
▁molec
hoic
▁rhy
otential
Wo
arction
▁caregiver
pra
▁proposes
raightforward
▁therapeut
▁telmis
ifestation
▁abil
▁vaccine
essar
mop
▁Nebul
▁myop
▁TA
▁efficacy
.8%
▁0-1
tated
ansition
unm
orect
oad
▁regulation
▁displacement
copro
hoo
▁ICSs
essf
rro
uptures
ricans
actors
▁atr
▁strati
▁SSEP
▁uropathogen
▁seiz
▁lymphad
▁infusion
▁individualize
regulation
ortional
ertens
▁unrep
▁disr
Bon
dary
ekend
▁reevalu
armful
illic
▁Hip
▁dexameth
▁publ
▁WOI
ortance
rading
▁dime
sear
78%
▁onc
▁emphasised
▁detrim
icatheter
▁interlab
yper
▁neoad
▁excretion
▁testic
inqu
avent
▁mucosal
rauma
heal
ropriate
sitis
▁Slow
▁campa
neumop
▁exercis
▁theor
adily
lastic
omyopathy
▁preferences
ansact
acterize
▁hasten
00
eammates
▁physiological
aros
igher
laims
▁AE
kship
etting
▁positioning
ongst
asked
▁refraction
generational
▁metabolism
▁birthweight
duction
vasive
▁minimize
ibod
▁dentists
▁depic
▁anat
His
CUG
▁measurable
▁Gastrointest
▁Patient
▁Tibial
mptoms
▁TG
entral
▁Additional
▁DWI
lene
ifet
chers
isqu
essments
▁vasomot
▁regis
▁Cyt
dicting
drom
▁enu
ormonal
▁prevented
upl
fentanyl
edectomy
rastructure
urated
arrant
entive
▁2008
aplegia
▁asser
7.
okines
▁histologic
▁Wom
owu
▁mothers
▁awaren
ecul
xon
▁richer
ounse
erity
dicative
ultaneous
▁VC
xce
▁vulnerable
herap
raren
aginal
SBFT
▁psychos
▁causative
▁formul
▁nutr
▁postmen
ustrate
orse
pT
▁aloe
▁metastatic
hough
▁Regis
▁Phenomen
Trials
ergastrinem
▁childho
▁SCHF
raoperative
ggrav
kage
rophyl
inan
▁histopathology
ediate
alent
chizoph
entical
▁unemploy
▁coexistence
oagulate
ilization
▁anemia
▁fati
-5
▁modest
ontr
▁palli
▁metastas
enthol
▁disparate
▁NHANES
▁tenosynovitis
atab
ominal
▁decreased
ections
NPCC
NICEF
invasive
▁emerg
arious
▁inh
cale
Hal
uscitator
ctit
ochemist
opu
monstrates
gnancy
▁glycaemic
ilie
ufacturers
▁disl
aiw
ifican
lest
▁VD
▁tamox
▁experim
hysis
▁sti
anic
omencl
▁mucoceles
rental
tial
▁engraftment
esect
bly
tings
▁perfusion
▁discontinued
▁trophoblastic
olute
▁sensit
▁moles
▁intercost
mong
▁undetected
▁transf
▁causation
istical
▁delusional
illance
▁psychiatric
lees
▁doct
imally
▁hyperf
limin
parate
▁ECG
accl
▁thir
affing
oecon
▁micromet
▁pituitary
ralateral
▁strategic
▁cardiac
eliac
thn
▁elderly
acok
culation
emographic
▁EPDS
tens
iplin
▁Cytoplasmic
espite
▁counteracts
SCP
▁UL
Blade
irra
▁Wn
▁coe
sely
▁multidis
istrib
▁illicit
▁undertake
utant
▁genotypes
▁preventive
aired
▁enlarg
herosclerosis
▁follicular
idates
▁adhe
gone
▁Commer
▁tranexamic
▁modality
▁unrel
ortheas
totic
▁pine
▁inadvertent
siting
upffer
iosis
lep
reni
▁Bedtime
▁lunar
arkers
agreement
years
vering
TUC
edb
tments
eoporotic
▁Laparoscopic
2).
kathisia
phism
▁2-
▁midf
▁unli
▁shif
ansform
orit
▁saline
Kas
fidence
utory
▁sut
bidity
lecyst
▁restorative
ionary
dho
isoning
ropr
diagnosed
▁semielective
▁contempl
hyse
omf
▁hypog
anoma
nf
▁responsiven
etric
ciably
▁exacerbations
▁DBE
ogly
▁crest
▁milie
▁undo
uropsychological
olution
kath
oadj
vag
▁Colum
▁APB
▁VAP
▁chon
omos
abits
▁progest
vehic
gf
mf
▁pneumon
ibul
▁tear
▁elimination
icr
▁Parity
rendelenburg
▁poin
▁metabol
▁eos
acrophage
ometrial
▁SG
▁AAI
▁31-
gnan
▁hern
▁Tum
coun
ingf
▁atrophy
▁infr
▁rigidity
▁unresectable
itance
▁pancreatitis
▁hypertensive
▁endochondral
▁Wee
versus
cesses
▁Tes
▁dosing
▁ACL
entu
lecy
▁pseudomyopia
▁laborator
esity
▁Surgery
atm
▁inapp
facial
▁agonist
perficial
▁cultur
cedural
mab
▁pregn
▁subse
autionary
▁ganglion
enit
-6
imodality
xam
▁conducting
isable
patient
ffsp
arynge
01046032.
igmented
ificing
atoc
osur
▁concer
▁strept
▁occurren
etamine
▁paras
sity
tum
onent
▁sustaining
ropic
▁keratore
roepip
evaluation
etary
utane
fety
▁umb
78
erange
▁QTcD
▁Ongoing
▁cholestasis
cordingly
▁Impro
inative
terog
essag
▁revisiting
Ps
▁detach
▁mec
▁ascertainment
iparae
ibut
▁beating
toc
cog
oplasmic
▁warranting
▁deform
ructive
oscopists
ceptibility
▁multim
mative
▁Chaalia
▁telmisartan
unil
anticipated
▁Ambu
parin
▁enforce
erties
Dut
ailures
lixim
▁premium
ectr
sensitive
hig
uable
28
HB
ASIK
▁severity
olved
ensory
ecolog
nment
▁Doppler
▁thickening
utroph
linc
▁cutaneous
▁structural
clat
heu
tectable
▁cardioemb
PEC
▁impre
▁ultrasonography
ohol
erials
▁prophylaxis
▁breasts
oglyc
▁perfor
iculate
▁hesitate
▁newborns
▁relapse
▁Effort
lT
▁vag
wly
crural
postoperative
amined
Ta
vertic
BW
27
otactic
ewer
secon
ifes
▁supplement
namic
▁21-29
erious
kend
rounding
▁refute
▁prevalent
▁Analy
olumet
ariant
▁normok
nisone
▁favourable
ucleus
radition
oice
▁paraplegia
ocytic
▁anticipatory
▁psychotic
▁cigare
eoporosis
▁HGUCA
osures
▁investigated
▁lessening
11
▁schizoph
adofos
rope
▁respondents
ectable
oam
LBW
lifer
▁untether
▁amoun
atrics
heno
ultiple
▁aSA
▁inhibit
▁myoepit
▁spikes
▁100%
▁norf
▁raises
hors
▁hypal
▁favorable
ffecting
normalised
▁Excl
ouraging
fforts
arad
Sy
▁RAQ
▁moderately
arations
erh
▁confron
▁highl
▁Whereas
adhe
▁tript
▁vaccination
sult
Pag
urac
▁staffing
treat
gory
▁caro
unif
dicat
▁Foc
agnosed
▁provoking
biological
urom
oidosis
trip
arents
isks
▁tracing
▁subtraction
▁AAB
upd
dication
▁200
▁TC
nically
▁sequentially
▁fragility
agocy
▁cerebral
ithout
aluated
▁radiolog
▁needles
▁Northeas
▁surf
4-
▁chemor
anis
ificant
▁manifestation
▁misle
heas
iton
paration
▁opportunities
▁PEEP
loro
▁DS
TSP
valence
▁lithi
ideal
pati
hrom
eck
▁heavier
▁questionnaires
▁suscept
▁specialist
Cm
▁exo
▁concur
phad
▁MND
▁preser
vents
79
vul
▁cardio
mpro
▁atres
▁instability
▁integrating
▁cava
▁14
erable
▁esophage
▁syndromes
anization
duced
▁disorders
echanical
rogate
inted
enzalkon
uffici
▁Sonography
inh
cinoma
curred
▁physiotherapy
80
ospitalized
lym
irab
▁reco
illb
▁anomalies
▁preoperatively
kf
faction
▁mineral
▁endom
▁intraven
ablis
▁conceptual
acking
▁(5
esoph
▁aerobic
▁appropriaten
givers
▁insur
ostoperative
▁duod
atty
▁dilated
▁inpatient
ctition
itioning
radi
▁Implementation
ickness
conception
onoun
eled
▁Minimising
▁disqui
lectron
aract
▁oligoarthritis
hile
▁79
therw
▁counseling
rapub
ocally
orthe
helin
ivoc
▁Quality
lammatory
rept
▁technically
▁mitral
ofos
▁differentiated
▁Peop
stos
erability
usoidal
europ
Wom
advant
▁behavioral
emal
mittent
renia
▁phagocytic
seling
▁appl
heros
▁flexion
▁otor
▁exposures
▁utilisation
▁chest
▁regim
degree
▁respon
▁Fractures
cusses
bable
▁cocaine
iscre
etors
domen
▁13
▁Limiting
opram
▁uncover
inoph
▁4
▁thei
-2
irre
▁instr
enin
▁chloroqu
▁LEEP
eI
hylactic
▁campaigns
▁oste
ethered
▁withstanding
dentifying
▁inflixim
arrier
▁quilting
asib
oarthr
84
▁sten
cto
acr
CBF
recting
ilept
▁phag
ondro
▁endovascular
▁lotion
▁neutrophil
arkable
▁segmental
▁linole
itn
▁restric
▁uter
joy
emoroc
moting
ethnic
tig
.2%).
ospit
stituted
▁geniculate
hoking
iquid
imil
tro
trasound
▁avascular
▁Conveyance
▁RP
osphon
seve
oquinol
▁inflamm
▁haze
acteraemic
▁ergocal
ialy
▁depar
reptococci
▁referral
▁psychotropic
osomotropic
▁pathologically
▁GFR
ipment
▁SIB
▁shor
▁dysfunction
▁pathobiology
iates
rosclerosis
▁Innovative
▁Transv
▁Emergency
▁VA
▁wound
▁manag
rition
▁MSSA
▁99
itab
opaus
▁nurses
▁anastomosis
tant
▁inserts
ppropri
▁chemot
irically
ubj
▁erosive
▁Randomized
atidiform
▁2005
inized
uence
▁DFS
ergoc
▁sedent
verex
00069784).
sychological
▁Comparisons
marri
anches
ainab
▁oils
quil
ufficient
▁Transactive
umans
argely
▁questionn
▁Aph
FG
swe
omenolog
otions
▁LF
occi
erred
▁prospective
▁Improve
▁Incl
UPs
bent
▁wors
▁limbs
rati
▁variabl
lderly
ourni
▁delinquent
▁substances
lous
tific
▁unions
Bot
▁fatalities
▁hea
▁gynec
▁insufficiency
▁awa
▁Septal
aiting
ionn
ageal
▁Sonographic
rehen
cored
topl
▁constitutes
▁compartments
▁nutritional
▁inadvert
▁diagnost
othyroidism
▁Obesity
▁lipids
▁reproducibility
▁VE
acil
▁adequ
▁scanners
iant
▁dex
▁consensus
uropathogen
▁seafarers
▁decad
hythm
▁Heading
▁rCBF
HANES
ojejunostomy
▁thres
▁physis
▁coeli
STD
▁cesarean
anners
▁antire
▁predictab
▁Rasch
▁FS
ortunities
echanics
▁refra
entan
iple
scores
essary
▁groin
icare
xide
parities
onization
▁confined
▁seroma
▁confronted
▁bisphosphonate
Ga
ODcast
atheter
atical
iend
▁mg
eomet
▁correlated
estru
▁Elective
▁protectant
oplasty
▁eosinoph
▁Bene
▁athletes
ugho
▁Dop
unis
oore
85
ultrasound
orrh
hway
▁Troponin
▁Thera
▁weigh
dings
▁disks
▁reasonably
reoperative
ffort
teb
ineous
-9,
RAF
EA
rosis
▁capped
wth
crimination
espread
▁mild
▁pronoun
▁Paediatric
termine
equately
▁righ
▁trilob
levation
▁tuberosity
▁somatic
UF
Ev
▁pregnancies
▁documenting
igre
lely
PTV
igid
ellectual
eritoneum
epiphysial
versial
PB
▁continuing
certained
ipar
▁treatments
▁PAN
▁routinely
▁underused
▁matc
lymorph
Ku
alli
▁impacts
▁Leaving
▁accoun
Our
▁rea
▁tol
▁pylorus
▁Weekend
inil
iq
▁nationally
▁Treatment
▁clipping
▁Medicare
xist
gical
▁PCR
▁carr
ervical
.2
rials
odic
ionin
▁aripiprazole
▁oncosurg
urage
30
poral
omiz
▁standardis
▁ligh
▁ruptured
otherapy
▁16:
dress
▁LD
▁epi
olenic
owled
▁poorly
▁adenocarcinoma
▁Gadofos
raced
▁unc
rovers
▁dissection
▁pulps
drawn
hylact
▁subchondral
anyl
imiting
▁hemorrh
pendent
▁predom
▁IVF
ormother
licable
undib
▁leakage
eopor
orl
erial
▁patho
usal
ilures
tho
▁creat
agul
raineurs
IGI
▁prol
▁implantation
ODcasts
ultrason
mew
owl
▁progra
▁sensorineural
▁exclud
fice
5-
57
NH
mentary
▁IH
physiologic
hys
monary
▁oncoplastic
▁Cyclople
erals
▁anomal
PDS
formities
▁PET
veolar
▁prel
▁tethered
▁40%
2%).
oepit
iploid
ultr
mium
ecessarily
nigh
ualized
oner
alized
▁eating
mature
hopp
▁rC
esare
ssed
ogical
ligo
opis
▁coeliac
ript
umenting
heral
copic
laining
estive
erce
54.2%
osocial
atric
▁lithotr
utic
hages
agitis
entities
▁85%
▁pois
▁PHQ
▁IBD
phenoidal
▁perisinusoidal
andardis
▁atre
Eff
olect
ostatin
onable
▁subform
liomas
▁Sb
derly
ypog
▁procedur
orrhagic
changing
GI
choscop
▁32%
dos
itored
levi
eit
▁reproducible
baceous
▁DMO
pies
▁metab
ptib
▁Thes
heritance
▁Northe
▁naltrex
▁diabetic
adherent
▁extre
etam
▁institutional
▁asthen
▁sigh
idated
▁develops
▁ascertained
▁hypermetropic
enojejunostomy
ympanic
▁interverteb
▁cochlear
eased
gM
ildren
matched
▁muscle
utati
orphic
unod
▁specul
▁coc
▁usef
easures
▁normalized
inic
65
▁Clinicians
▁lans
ease
▁traumatic
▁plaqu
ORIGI
▁radiograp
▁PBB
atele
omedull
siv
houg
▁hemor
▁endoch
hth
rebral
▁irradiated
tonsil
▁asth
▁Biochemical
▁Headings
▁parit
▁ecl
oske
▁tho
pap
veys
sor
verag
ypot
▁mellitus
▁tobacco
atho
ithe
▁complain
itral
▁infiltration
bry
aturated
▁CIMT
velops
obility
▁differentially
avone
▁12
comitant
oprotein
oidal
▁tumours
▁tolerance
32
rapartum
ightly
rape
50
rovision
iners
▁Surgical
▁testis
roug
▁Acute
veri
▁undertaken
vation
onograms
▁precon
umf
roidectomy
sra
▁-0.5
▁nucleus
oplas
▁mandated
utan
▁regimens
▁muscl
TN
igure
▁tidal
cans
orking
bral
adob
▁incidence
incidence
MH
reptococcal
thal
▁histopat
lementation
▁ULT
lampsia
ournier
▁PMP
▁reminders
▁disappointing
cified
eph
eho
inog
cysteine
▁expectant
ventricular
▁Legal
▁disagreement
ocalc
▁surgeons
ilks
jour
▁gynecological
▁overwe
▁provocation
▁Cyclop
▁manu
ssor
▁suspicious
ovitis
▁chan
▁pathogen
icated
▁femoral
▁sonograms
▁psychosocial
isab
orine
▁propens
ptoc
sidized
▁teleph
feren
bladder
▁phar
▁AIS
lux
iltr
▁depiction
inage
vac
▁weekend
thopa
▁Findings
▁reperfusion
immunological
enefici
uding
estation
▁preferen
orator
▁experts
▁atmosp
▁initiating
ducational
▁Geri
▁symptomatic
▁lobectomy
ialty
▁genotype
▁occupational
▁infli
usional
ramid
ocused
verly
▁enj
evaluated
▁emissions
12.
gine
econ
uided
Af
▁pancreat
nul
hond
bulized
▁standardiz
▁minority
▁Cytot
▁physiolog
ubic
aig
▁DW
IH
hear
utine
▁questionnai
dical
chronous
dominantly
▁duodenojejun
ositivity
terminate
omotropic
▁lifelong
rals
atent
▁consang
BM
▁clus
hologists
▁Thei
▁simplifying
▁monouns
gho
Edu
verw
▁intergen
▁neph
ellows
imental
usual
▁cyclosporine
▁antibiotic
▁reper
▁GBS
effectiven
contrast
▁neonatal
orely
▁Dopamine
lucose
▁workweek
▁lymphadenectomy
evelopment
hemothe
▁Unm
entis
▁diffe
-0.5
▁followup
▁comparable
astric
aning
KIs
alization
ecti
▁forests
ressions
psia
▁polymorph
▁demographic
tained
▁ramus
▁pneumop
hanc
ptors
sents
igating
crimin
olice
regul
jected
oagulation
aceous
▁NCT
lymorphism
initive
▁Therapeutic
▁paradig
▁nonw
ampaign
apse
ceous
quential
obectomy
ectomy
ssing
veol
▁BMP
▁stopp
ifically
▁contralateral
eight
▁overestimated
▁thoracic
hysi
ultras
▁autoim
▁dysregulation
identific
yramidal
▁scout
▁approx
▁epinephrine
utp
Tregs
rogen
ipip
▁pregnant
eat
mL
▁ultrasound
ergistic
etable
lix
ibular
pture
WO
tolerated
▁SMI
▁avoiding
ergy
1,
chiz
▁substance
rands
▁Vac
atrogenic
▁neon
▁Emotional
▁ascertain
fet
uditing
Son
elvis
ministration
dictor
▁lis
▁Inclusion
▁cognitions
▁potency
▁stimulation
omains
onstration
ickening
▁Adherence
munological
atolog
▁serum
▁normokalemic
eum
atrial
fute
▁measur
Ds
clov
▁hC
▁bronchiect
8.
Dcasts
▁multifollicular
.2%)
▁Subject
onograp
roplast
stoscop
▁enthes
▁chorio
eo
ropharyn
spon
▁insuffici
lecystectomy
enojejun
rail
idem
iative
▁temperatures
quar
▁Throm
ineo
lure
▁anter
▁cance
onological
onyl
rents
ighl
▁deterioration
ocul
▁inhibitory
monly
atricians
▁triv
▁clarity
▁valence
▁Uni
umors
rations
vived
thria
▁Minim
▁dimeglumine
▁chewing
fant
missible
ialis
nolog
rising
oyment
EU
spectively
▁nurse
arrants
okinetics
▁phe
Sah
▁screened
hieve
coel
elev
responding
IVIG
▁increasingly
ammography
ectasis
resia
▁ablation
oeconomic
osity
imination
▁preparations
icine
▁perioc
enoc
ersal
▁asthma
▁prophyl
▁plac
ividuals
onoscop
catenin
▁consumpt
▁plurigravid
▁seropositivity
▁intramuscular
endently
▁inclin
ustralian
aras
inactivation
idesp
eech
orw
▁mediated
rants
▁ward
▁haemorrhage
▁technologies
cestor
▁incentiv
▁hypox
▁LS
▁UF
▁multic
▁HLA
opist
▁disa
ventive
veh
DG
markable
▁undetect
edical
▁exclusion
opat
▁GEM
thle
▁chorioam
▁myocardial
nation
stitutional
onu
ointing
rectional
▁nonorthopaedic
usions
teract
60
idized
oplasm
esophage
ingle
isphosphon
igations
▁percut
▁surger
▁consolidation
▁emis
▁reconstruction
▁smo
olated
▁overdose
arthritis
▁cruroplasty
▁arthr
▁subspec
arthr
▁psy
avily
youn
▁thresholds
istian
idne
umab
▁geriatric
opausal
604
atonin
▁corrective
▁dysre
Fra
▁prolonged
▁nonclinical
rophy
ventful
▁oesoph
cinog
▁Biased
bod
▁appropriately
▁SBK
▁intraut
trol
▁autos
erized
▁7.8%
anual
ilap
onog
opi
linol
▁overest
▁infarction
▁1
ondral
curs
▁immature
pens
▁metast
arate
▁Transvaginal
alp
inear
ormon
ravel
▁oe
▁afflu
MV
effectiveness
apsulitis
▁pylor
romb
clerosis
▁urol
▁deficits
▁adjustment
ilat
▁30
vated
▁Nebulized
inable
acrific
▁Transsphenoidal
kew
uctures
bial
entual
▁cholecyst
5%
liteo
▁discharge
enh
ticul
eec
estly
aparos
▁tet
▁ana
▁TKA
IUI
▁parental
▁isc
▁Hb
mutant
counte
▁reac
▁transpl
ritish
▁autoimmune
sici
uslim
QA
▁contribut
aist
▁knee
▁amyl
▁cigarettes
▁irr
Bec
▁BPs
▁adaptive
▁rotational
▁thrombectomy
stol
▁acids
mography
▁comparative
▁sev
▁glucose
▁pathop
ctur
usic
pital
▁persp
▁DN
▁fitness
junostomy
oreo
accin
intig
▁diagnose
▁synergistic
▁8.
pholog
32.
proced
▁ANN
▁acce
utur
advantaged
anulas
urtherm
Va
existence
▁HIN
▁2.5
derl
ibition
▁pneumoperitone
alT
▁mell
epiphys
ansre
ondents
▁approp
▁SWL
▁excis
▁advances
emic
▁diagnoses
▁acupuncture
▁carbohydr
▁inversely
estrians
olesc
roma
stimated
▁QA
▁classified
▁reduct
altrexone
rhages
misart
dient
▁enl
▁Tren
VL
aS
▁silicone
oubtedly
eneous
itioner
ferable
▁reproduction
gnost
induced
▁concomit
▁transplantation
ategies
odif
▁laser
ilating
▁nutrition
104
icide
▁Nontriploid
elae
▁reliably
▁comprehension
▁pept
▁VDDI
▁bisphosphon
▁PIPE
usative
munode
acental
versities
sit
▁Intravenous
▁monoun
▁proct
echnolog
▁occurring
▁postmenopausal
issu
otechn
▁promoting
ogic
onium
▁assessments
▁pedest
oleic
▁hormone
▁pressors
razole
econom
brov
▁coronal
ascular
rointest
hle
etics
yce
▁NNS
▁Delay
emper
pons
▁100
▁restor
oppl
▁heal
▁LAS
▁regimen
comycin
etected
satisfaction
iatic
iog
▁PRI
▁anem
ingd
ication
▁aris
oints
iphy
cate
▁dislocation
▁fract
▁Transs
isad
▁hypertroph
olely
sses
▁aortic
▁CK
▁exercised
▁synthesis
▁hepatitis
▁scintigrap
omatic
▁counse
resectable
▁preserv
oho
▁alerts
hysial
ercised
ferent
▁arterial
agangliomas
▁sustain
AQ
▁exog
▁contem
raig
▁esophag
ochond
tect
▁sensitivity
▁BV
▁challen
diag
omerular
ptor
▁alm
veral
▁ACLS
urf
SNs
ultid
asch
▁adher
erati
▁toot
▁CTV
dance
diac
arotid
▁cardiovascular
▁neutrophilic
iversal
ortic
▁illust
omech
idn
▁imagin
▁molecular
tator
▁pathob
▁HCMV
ertrop
▁multiethnic
rombectomy
odeficiency
▁determinants
oric
▁streptococci
▁Treatments
▁2007
nin
eig
▁perh
tration
▁gains
▁cervical
asone
▁atrop
DWI
egarding
onsib
▁Aphas
▁tether
endov
▁whi
urate
▁preferably
ective
▁tast
ilated
coeliac
▁grading
▁fostering
pun
▁unl
▁cognitive
▁myocard
▁imaging
actorial
eriat
elayed
▁balanced
▁dysf
etropic
abit
▁capp
▁bronchi
ysar
vative
eam
munis
▁ROP
agangli
▁vehicular
ptive
hyla
dicates
MPM
▁tolerated
▁equiv
ocu
inag
▁alcohol
iprazole
▁RS
▁adjun
rve
consuming
kade
▁resis
Cus
▁referrals
hemia
▁neurop
rC
estigation
eroidal
onged
astru
amoxif
▁medicin
▁LDL
mise
carcin
▁Infundibular
▁Systolic
mph
22
prepared
ANE
ipa
13
▁aure
hrol
chang
tec
ortality
▁Unmarried
▁synthe
▁AO
erks
▁circumferen
▁superv
▁hypermet
bidities
echanic
ynov
roach
▁pathology
▁verteb
dre
▁undistur
▁differenc
▁Operative
hap
erular
▁redundancy
▁encouraging
urag
chot
▁expend
concus
▁TEOAE
▁midl
alal
▁prospectively
▁150
ondroepip
rates
cised
▁infants
estasis
threat
HSe
▁8.2%
sue
abul
▁antibod
igm
Ras
▁xer
leeve
▁IHD
kocy
reatine
ylcyste
▁hesit
rimary
▁underut
imis
hocar
▁manuscripts
AH
eset
lemented
▁meaningful
appoint
▁pedi
▁anastomotic
isar
illust
▁decades
▁adol
▁Treat
▁phonological
lored
opul
raight
hly
▁pedestrians
▁UFC
eep
▁VMS
ientific
▁jugulot
oscopic
ftment
2)
▁STIR
roader
▁restarted
▁intrav
itus
ilitate
▁chemokines
▁fellowships
inciples
viewer
▁Improved
rment
▁decline
▁deserves
▁ergocalciferol
▁aor
erance
hone
etoc
▁spi
creas
▁morbidities
ansop
▁illustrates
▁intervent
▁evaluations
taneous
▁40%,
abilit
ghe
▁deficiencies
laqu
upff
▁NHANE
▁osteot
▁outpatient
iderable
▁Giv
9,
jects
gic
▁rele
entually
entric
vage
trolled
▁recipient
▁diseases
lur
osely
adder
▁metoc
refore
irrh
▁gland
ctal
▁TGF
▁unil
▁microv
atories
acolog
▁gadoben
enos
arot
umatoid
ifestations
metrop
▁artery
▁edema
▁prescribing
uage
lained
▁Fract
▁biop
zard
▁muc
ontal
▁undet
▁outs
ococcal
▁pneumonia
▁ultr
▁prosp
▁hemorrhagic
rawn
▁acad
▁DF
angren
allest
ockade
Fam
rehe
▁202
▁comorbidities
Hu
▁MiHC
illect
dher
eot
andated
erican
▁OSA
07
avior
▁MN
▁perforations
▁progressive
anex
utative
terv
vantage
▁aggrav
▁gout
▁PICT
CTV
roved
▁exacer
▁pref
Ki
igree
▁Dilation
edent
aliv
▁CPAP
▁resonance
ilob
▁discrimination
▁CLB
PECT
▁thigh
chanter
▁Optim
explained
TDP
opl
▁toxicity
▁blin
▁endos
▁overweight
arcin
cqu
termining
▁practic
wish
▁tibial
▁Computing
ingdom
lective
▁tertiary
rombolysis
bient
asive
mpt
▁emiss
▁1.6
eopuff
cines
▁unif
esu
▁RCTs
hyth
eity
▁oral
vio
▁affects
▁suppression
▁reache
sod
▁Premature
olv
giver
▁underutilized
▁reim
ionals
▁sph
riated
▁moderate
isag
▁diffic
▁interpretable
glycaemia
▁bypass
cific
▁kidney
trative
opm
xpl
▁menthol
ffectiv
▁multicenter
reported
ostst
terns
▁cTn
▁thi
▁tors
▁Hypotension
▁diagnos
▁chori
lows
ypal
xu
▁deficiency
▁Lynch
requ
▁75
aluating
ractures
foun
▁Ske
▁Strept
▁vomiting
▁lifet
▁Exclusive
▁pelvic
▁GDM
quests
gnos
rapar
▁problematic
▁morp
itiv
▁alterations
▁debr
▁IUI
▁footp
▁unelev
aneously
yance
mplement
▁otorrhe
▁nonwhite
▁femorocr
opramide
▁attentional
ulit
▁bronch
iliac
opraz
▁Analyzing
ervis
TTR
▁remis
▁pregnancy
enditures
▁irrit
asomot
▁appen
cture
reatm
▁HCC
gG
ergic
ptim
quic
ensitive
▁spati
▁Concomit
Fs
nec
cribing
▁ceas
▁lymph
▁Fourni
▁catheter
rendelen
▁prevalences
olat
▁consecut
agnos
BWL
▁chloro
1)
otland
▁microc
▁NPH
▁hs
▁sock
transplantation
erol
VT
thorax
tective
▁pertroch
roa
▁exce
reo
▁CIM
reat
ygi
▁rehab
▁paraventricular
▁indeterminate
phos
▁acyclovir
lecting
ochlear
▁uteroplac
sement
omotic
▁gangrene
▁lectures
ylor
rophary
orting
edul
menting
▁increas
▁PEE
leomorphic
▁uncommon
onist
hyl
▁insufficient
▁postnatal
hould
urren
wl
recept
ventional
▁diaphyse
rograde
erly
▁lithot
nee
▁edar
▁Wnt
▁streptococ
ultic
hysician
▁cardi
nalyzing
▁metform
igidity
zop
uterine
▁nerve
biology
▁Prophylactic
EOL
▁supervision
▁stimulate
▁leukocyte
▁79%
ormot
▁illic
▁appendectomies
2%)
cinom
hedul
iT
WAT
unities
upoints
▁WMA
▁definitive
atectomy
▁specificity
cessfully
cove
opic
iluted
hyro
▁rheumatoid
mograp
onop
cardi
urem
▁MBC
▁glycoprotein
arthria
ontrip
▁clinicians
xion
heumatoid
lc
▁discusses
olmium
▁anastom
ocaine
ellect
▁microbiological
edest
▁pn
▁diagnosis
▁sear
yse
▁displ
▁inpati
onylure
▁volum
▁drainage
▁considerably
kewed
▁provo
asac
icly
▁disquieting
orioam
ecre
ameth
cutive
▁supplementation
▁deprivation
andib
Hist
cification
▁heparinized
▁empirical
ractive
▁concus
▁LOC
vely
▁genic
ocalcifer
percept
inem
▁stimuli
sho
▁Mesocolon
sclerosis
tay
▁ratios
troke
▁epiDWI
etf
54
▁restenosis
▁disappearance
▁impa
▁NBCS
▁sequential
endan
acroph
HG
rors
mia
cter
oclopram
edull
utaneous
chial
▁bact
tedly
▁audit
oroqu
▁exogen
monstrate
▁topographic
enthes
erom
rover
▁DQ
osves
umbil
lept
▁Langu
ronchial
▁modulates
onos
▁consci
▁preclud
itator
▁3
itness
049
▁quic
ellitus
▁limb
ovascular
▁NSC
▁disrupt
istically
edition
▁assis
▁preparation
pful
ormone
reptococcus
rehens
tos
atisation
ovir
utility
▁xerost
osening
▁IgM
▁BM
▁hypothy
▁unrelated
sle
▁counteracting
reng
▁heigh
▁coronary
orsion
sele
ochondral
oiding
ancial
▁tric
▁movi
▁sensory
29
▁metformin
hieved
Wor
▁ossification
▁antic
rox
▁diet
ptake
uine
▁premature
xone
▁Progression
CPAP
▁hospitalized
ineurs
sting
stitution
▁locus
naly
uscript
ptab
terp
▁80
liximab
dnisone
moid
▁CRP
▁endomet
▁Masal
ilaparoscop
iminary
dhe
