▁nmol
▁79
CABG
▁unreliable
▁ethnicity
orpor
▁20%.
ritin
▁91%
39
ields
echan
ureus
ithi
▁trimester
▁categorized
▁extracts
▁(4%)
GH
16
▁sarc
▁17
▁yielded
84
ditions
▁tryp
▁156
sectional
▁Smoking
▁stimul
▁illnesses
▁probes
▁surveyed
▁Thyroid
▁fibrob
▁organs
havioral
onography
▁4-
yx
▁capsaicin
▁275
ingers
opecia
sied
▁indeterminate
▁cerebro
▁glycol
▁retur
▁excretion
CSF
▁(7%)
▁glomerular
esity
▁transfusion
▁3.6
▁aspec
ocomial
▁1,25
▁testicular
▁inducer
predic
ysm
▁Risk
▁manifestations
▁(10(
tyl
urnal
▁rup
▁viability
ussion
▁2.2
▁flunarizine
▁1.8
▁electrocardi
▁1.18
valvular
▁graded
▁glands
dil
▁myosin
▁24%,
obl
ymp
iatic
▁uninter
▁bene
▁Therapy
▁subsets
▁aggres
▁metabol
▁800
irubinemia
luores
arcin
▁hypercalciuria
▁1.33
ylate
gestation
▁1.17
▁toxicity
▁electrodes
▁195
▁recom
initi
▁5.6
▁threefold
▁corticos
▁ligand
▁perc
▁exclusion
tic
induced
▁5.0
▁potentiated
▁comparative
▁pathophysiology
▁untrained
▁congenital
icep
TCA
▁pathways
▁optimum
13.
▁conditioning
▁5.5%
▁overweight
▁abnormality
▁nasopharyngeal
emetic
▁-5
itonin
▁167
▁palp
▁surgically
athered
uble
▁(58%)
▁symptom
ipitation
▁retrospective
▁Absolute
utin
▁164
95
▁pharyng
▁abr
DH
▁nonm
▁0.01)
▁modality
▁confirmatory
.6,
▁lovastatin
irone
▁(500
▁deficiency
armac
▁PLP
tep
▁ack
▁menopause
urement
ystatin
ASA
ocyan
▁satisfactorily
-600
ullary
▁practic
▁summarized
▁99%
▁Chan
▁paral
▁reactivity
▁hygiene
▁cardiomy
▁gum
ficial
▁dyst
obacillus
▁9.0
▁181
▁irregularities
6)
▁interacted
apeu
▁gp
▁aspartate
▁renovascular
▁cytotox
▁bism
▁oxy
ietic
▁4.2
uminal
▁genitourinary
▁incision
producing
ranolol
▁NP
arrhy
idase
otonic
▁pollic
loid
▁inhibit
▁0.75
acet
▁Enalapril
increased
▁selec
▁4.4
cus
▁Afric
zard
▁Eleven
▁ovulation
▁recr
▁standardization
▁83%
▁(50%)
▁pooled
▁Ig
arial
ancomycin
▁kinase
▁coping
▁tibia
30,
ubicin
ulsive
▁chromosomes
▁maneu
oclonal
pran
genic
▁Hg
uretic
ocyt
-13
trum
▁vertebral
▁(16
rophob
thin
12
adic
▁21,
▁11.2
7).
▁compartment
▁pathological
.0)
specificity
▁antiarrhythmic
▁GMP
▁opioids
merc
cAMP
▁microsomal
▁vaccin
59
▁Vmax
oxine
▁spontaneously
▁interpretations
itone
▁topically
▁intran
▁(1.0
usate
▁radioactive
▁satur
▁striatum
viron
▁pathology
ofil
▁thromboembolism
▁cys
-80
▁cohort
ognition
▁bilateral
▁LMWH
▁pectin
▁nevi
acin
▁16.
▁histamine
omethacin
▁kb
▁resto
▁accessibility
▁HC
ogenous
▁Diabetes
▁pharmacologic
▁subjec
kinase
▁variability
▁carbonate
acetyl
nowled
▁Sensitivity
▁micron
▁6)
economic
▁gly
measured
▁speculation
oxone
▁endogenous
▁continuation
▁0.79
▁morb
esin
▁exhibited
▁conservatively
▁codeine
▁upstream
helium
▁airflow
galy
ocycline
▁haem
26
▁ulnar
40)
surgery
erver
▁progestin
letion
▁contraception
▁myc
either
▁myocardial
ylase
▁qualitatively
▁7.9
▁atropine
▁meningococcal
▁Previous
transformed
▁Screening
▁replication
.0,
50/
maximal
▁acquiring
▁tendencies
▁localized
▁1969
▁abbrevi
ffeine
91
tection
▁mann
incubation
▁discharged
tivation
RCA
farction
▁Increasing
effec
▁parasite
▁78%
▁suscepti
▁elective
▁triglyceride
cessive
▁responsive
▁100-
▁IFN
▁stimulate
▁distal
▁mRNAs
.7.
▁312
▁prednisone
▁Stro
4+
▁strom
▁herpes
▁decreases
▁274
▁hyperbil
▁metronidazole
▁neutrop
▁dimer
▁scalp
▁0.45
lec
asic
tracellular
▁1/
▁endoscopic
2;
▁lam
omn
▁sedative
▁pancreatic
▁2%
▁anesthetized
▁antecedent
▁syndromes
▁3.5
hemical
helin
astatic
▁pretreated
cyst
early
:1
▁propor
▁stimulated
▁behavioral
▁conditioned
-2
▁utilization
▁percentile
oporotic
ardia
▁detrusor
tensin
▁64
2+]
▁1988
▁polysaccharide
icardial
▁hypotonic
▁immunity
▁Infants
osomal
sors
▁6
gans
▁(2
ffinities
▁kinetics
arous
▁0.4
▁2.4
rotein
▁exert
▁envelop
▁equi
▁questionnaires
▁11,
gestational
▁endo
▁subtype
oprec
▁hamster
▁Escherichia
ostomy
2/
aneously
▁isot
▁chlorpromazine
▁acyl
▁hypot
▁46,
xiety
▁TMP
▁criter
▁choleste
92
▁phosphorylation
LH
▁stres
asone
▁glucagon
▁spas
▁dextro
▁endoscopically
oxetine
mur
ximum
▁TGF
rangement
quid
▁(39
7,000
▁nedocromil
lovir
▁pleural
▁refractory
thromb
▁antacids
enic
▁Topical
▁masked
▁490
esthe
▁4.0
LR
▁colonization
ACA
▁Recurrent
▁predicting
▁sial
▁scin
7]
▁valpro
arying
98
▁bacterial
▁Longer
glycoprotein
▁accid
▁7.8
▁PB
▁occupational
ocular
▁synaptic
entif
▁227
▁Melan
▁infarctions
trin
▁prednis
▁prol
▁discrimin
▁4.3
▁57
▁aureus
▁contractions
▁(2%)
pectively
50.
spar
▁5.6%
-6
78
▁precipit
urred
▁Factor
▁stepwise
▁stenosis
▁(79
partate
▁1.5
▁palpable
phyloc
gesic
▁1.4
osomes
modulin
▁secretion
phine
▁specificity
▁foci
▁potent
▁expectancy
▁impairment
9]
HIV
ithin
▁103
▁3.0
▁Ia
oten
icardi
▁nec
Ds
▁extracellular
▁orthoped
odil
deriv
urin
igarette
▁echocardi
tality
dL
placebo
▁euth
mL
▁(4.8
▁ligament
▁hypoxia
llate
otoxic
▁preliminary
▁hypercal
▁ANP
▁carbamazepine
▁mell
▁0.5).
▁transfected
▁32%,
▁additive
idation
0)
otide
▁nasopharynx
tices
ophyll
tetr
subunit
iatum
▁deviations
rosis
oagulation
▁42%
oretical
▁elastic
▁benzodiaz
▁suppres
▁95%,
▁43%
examin
▁strepto
▁abolished
▁micrograms
▁aspirin
ithium
▁tamoxifen
▁percentages
▁Oral
▁4.9
▁Multiple
oprost
▁luminal
▁ves
▁Delayed
▁swabs
▁SPF
median
▁relaxants
gulation
aminated
▁introduc
ralfate
kground
▁(80
▁carcinomas
▁85
▁lymph
▁10(
▁19.
11
2]
▁0.42
▁insignificant
▁stimulates
silon
▁pate
▁113
▁hemorrhages
▁85%,
tivity
▁solitary
▁alternating
▁4.5%
▁commerc
▁satis
▁derivatives
▁offspring
linic
▁ampicillin
▁attenu
6).
▁desensitization
aminase
(3
▁buc
▁dilution
▁precursor
▁vancomycin
imens
85
▁complication
▁ventral
▁vigorous
▁60.
opulmonary
▁0.03
24,
▁56,
▁precordial
▁hyperplasia
enec
ovine
▁anteced
lytic
▁mitochondria
▁Engl
ocl
▁expressing
▁prematurity
ductive
▁enrol
carb
▁Failure
▁prolonged
▁venous
▁plasminogen
▁tomography
hered
1-4
233
14)
▁nonsur
▁accumulated
3.
▁methimazole
▁89
ogra
▁pem
▁cavity
▁donors
▁ferrous
IgG
ylamide
HB
tib
acrylamide
▁endoscopy
DV
▁titr
-8.
▁systemic
▁exchan
73
▁pancre
▁0.04
▁rickets
▁penile
▁aggregation
ture
▁303
▁hered
▁uteri
resting
ospasm
▁3.3
resistant
▁stimulus
▁pyel
▁Copenhagen
▁lability
▁expon
4)
▁Suc
ystag
omycin
erating
▁allergens
chloro
umption
▁retardation
▁1.09
ittac
▁antagon
▁grouped
▁tes
▁favorably
▁monitored
rement
went
▁turnover
▁19
oreactive
▁surgical
titudes
▁74
▁herp
▁confined
▁weighing
PaO
▁arteri
cis
▁determinant
▁juven
▁1980
▁spirometry
97
▁comparisons
ulmonary
-2,
4%
ectomy
▁predominantly
▁androgen
▁innerv
▁80,
▁anticholinergic
▁3.2
▁Surve
otre
eric
▁mellitus
▁neutropenia
enal
chool
erb
▁1990
alian
▁Ps
▁Apgar
azone
orrheic
-800
▁0.81
▁enlarge
mittent
▁cann
ositol
▁kappa
▁12
▁cromoglycate
▁hepatomegaly
▁198
operoxidase
illar
▁tolerated
▁.0
▁autoantibodies
pirone
▁enroll
▁136
opoly
▁serotypes
urate
kephal
▁voluntary
▁refrac
olerance
▁0.56
oside
▁284
80)
▁-1
▁sheath
▁Extensive
▁thyroidectomy
▁splic
▁diabe
uin
▁350
otent
▁exceeded
▁HTLV
▁0.3
▁55
▁experimentally
-2).
▁indo
▁quantitatively
▁lith
▁femoral
▁ovary
▁emboli
▁Ace
▁83
▁Myocardial
▁(3%)
▁motility
▁(21
sive
potassium
▁229
▁nonsmoking
ometh
▁premature
▁ori
▁subunit
endazole
▁0.86
▁proce
▁rifampin
▁antagonist
▁supernat
▁monocytes
ocardial
roxic
▁0.11
olamine
▁monkeys
eeding
▁histologic
smoking
lyce
▁111
▁MHC
▁nocturnal
▁1.44
▁elevations
▁ionophore
▁Sixty
44,
oic
▁Concentrations
▁-0.6
▁marrow
▁molar
-17
▁anomal
tinent
▁avoidance
▁supple
concentration
▁resection
▁muscarinic
▁monit
amycin
▁compe
▁neonatal
-96
▁Injury
▁jaundice
▁overestimated
▁transmitted
▁washout
▁73%
▁uterus
▁bipolar
oxide
▁indefinite
▁134
istar
elan
opausal
▁Depression
▁aerobic
▁pneumonia
▁sedimentation
▁acids
▁73
▁plasm
▁defects
▁agon
▁thre
▁BMD
▁immunohist
tional
▁appendicitis
ifug
olec
creatinine
iotensin
inally
▁regurg
▁4.3%
▁conflicting
▁locus
mortality
olytic
▁kidne
urons
▁308
▁31,
sparing
▁characteris
▁theore
▁investigators
▁Fifty
▁malign
(2+)-
▁restenosis
Fs
▁Chlamyd
azoline
77
▁transduction
38
▁scientif
▁cessation
▁adhered
-19
▁fulminant
▁efficacy
▁23,
▁dipyridamole
▁maturation
▁similarity
atinine
▁argues
▁(86%)
▁underestimated
▁Hyper
tine
▁65%
▁electrolyte
▁tuber
+,
▁cremaster
olone
▁bac
lated
▁80%
▁3,
-70
opolysaccharide
atitis
2)
▁ischemia
▁prolactin
gesia
ylated
sodium
alic
▁alprazolam
▁xylitol
▁21.
rene
sively
opsy
▁Individuals
▁multim
▁(=
oglyc
▁diminished
leu
▁calcium
erance
motor
▁validated
lob
-8,
▁benzoyl
identified
ejun
▁physiologic
▁drainage
tropine
tene
-8)
▁GER
▁spectroscop
▁3.7%
▁migraine
▁alveolar
▁Ade
receptor
▁hypocal
▁injur
▁uni
otamine
▁formulations
▁assessments
▁27,
tosis
heres
calor
eptides
▁cortic
▁electrode
99
▁subpop
radi
8%
cyte
ipril
▁Initi
embran
▁poorer
illary
-2.
▁elimination
otypic
Pa
phenyl
▁18
ogenes
▁regained
predominant
.9%)
▁hypog
▁(46
▁nipple
atriptan
▁Ninety
▁solids
▁aqueous
immuno
▁TC
Nase
▁unchanged
▁0.1%
▁Diabetic
▁Meas
-36
mented
rosemide
▁stu
▁-3
▁critically
posure
▁adenocarcin
▁homoz
▁0.43
▁CHF
▁Eighty
▁allogeneic
aryng
4%)
.1
thi
▁evol
uppression
▁0.05)
LG
400
▁predominant
▁112
▁cysteine
▁spectroscopy
olateral
▁toxin
▁irritant
▁37.5
▁intrinsic
▁metastasis
▁catecholamines
▁lactate
▁hepatitis
dies
▁examin
▁schiz
▁sensory
▁cerv
▁4).
▁postural
oselective
tructural
mitter
▁phi
▁hepatotoxicity
emide
▁0.13
▁1.7%
▁MAb
▁benzo
▁irradiated
▁suppor
enem
▁Coronary
esium
ipar
▁116
▁relap
▁(24
▁connective
▁Combinations
▁sympathetic
▁actu
ludes
▁0.05%
▁LVH
tis
▁0.0
▁gon
vice
uclear
tious
▁140
▁chewing
▁routinely
▁3.
▁arthritis
tives
rometry
8,
/12
▁UTI
▁immun
▁jaund
partic
Ox
▁nontoxic
tiguous
▁dye
▁presentations
▁0.35
▁restric
▁electr
owever
▁lipase
▁pmol
▁74%
responders
▁Neph
▁cytoplasmic
15)
▁suggestive
▁unexpectedly
▁Adverse
ulph
▁8.2
lowering
▁mening
waves
▁750
▁acyclovir
specified
▁VO
▁9.9
▁catechol
▁elemental
▁lipoprotein
oil
▁adop
erican
nitro
▁fulfilled
▁lambs
▁dor
▁aerosol
▁acetaminophen
▁deposition
tice
▁psor
▁ELISA
anad
lobin
▁1.10
oxin
▁systematically
▁DBP
▁chorion
epsia
▁6.5%
▁centr
ayers
▁ultrason
testinal
▁metoclopramide
27
BV
▁constric
▁postin
▁diame
chid
▁pyram
▁amphetamine
▁88
▁paren
-60
gesterone
▁(43
▁adrenal
▁0.3%
▁(1.6
3.1
▁0.22
▁supr
▁arthroscopy
▁fluorescence
oxazole
▁HAM
▁39%
ophilic
▁deficient
▁fluctu
▁Routine
▁expiratory
▁inversely
▁1.35
hene
▁70-
quisition
▁simult
▁acupuncture
▁hypnotic
▁antioxid
▁suppression
1).
tual
▁increments
traum
▁polymorph
▁discriminate
▁gyn
▁rectal
▁cisapride
Ly
▁inoculation
▁oxide
▁(41%)
▁contradictory
▁Epidemi
.2
▁spontaneous
▁derange
▁hypoxic
▁dyspepsia
inamide
▁degrad
▁placenta
▁1.07
olesterolemia
▁contraceptive
▁spleens
cemia
pregn
drome
▁inh
hea
▁diverged
▁4.8%
achid
▁0.97
▁progesterone
▁prel
/8
phetamine
2+.
menopausal
▁125
▁2-
▁urodynamic
erate
uride
▁nominal
▁lowers
associated
ypass
▁messen
ochemical
▁averaged
▁41
▁lact
▁71%
▁decreasing
thase
▁peripheral
▁deform
▁membranes
▁diagnos
tigu
▁nutritional
▁Doppler
▁(9%)
72
oxif
10-
▁0.95
▁terfenadine
▁junction
▁LPS
5%).
▁smear
▁fractions
▁opioid
accharide
▁TCR
▁plas
▁amp
▁autologous
▁29%
tric
adrenoceptor
▁saphen
▁omega
▁derangement
avir
▁2000
82
lymph
▁ganglia
▁[14
▁Rout
▁instrum
ogenetic
initiated
▁neomycin
uling
▁(80%
▁anomalies
▁sexually
▁33-
▁phage
▁subcutaneous
osynthe
▁lidocaine
deoxy
ods
thrombotic
▁malignancies
-90%
▁modif
romatosis
51
▁vasopressin
thanol
6),
▁clomiphene
▁complications
ospitals
▁abdomen
▁ECG
omerular
oag
▁1.4-
inol
▁benign
▁Arter
retic
MW
▁Doses
▁10(-4)
▁urea
acute
tamine
▁angina
▁cephalosporins
▁ecz
apamil
teral
▁modeled
▁saphenous
▁stimulants
▁nonpregnant
otoxicity
▁peptide
▁stimulatory
▁stric
▁nifedipine
quired
▁insoluble
ensitization
ept
▁Depending
triglycerid
induc
▁Rates
▁DP
▁(0.6
▁gastroenteritis
ediatric
▁Estim
1-2
▁6.
HN
▁arti
▁amoxicillin
▁oxidized
RNA
asses
▁293
5/
▁concurrently
▁iat
▁soy
achnoid
▁rats
▁thyro
lax
▁2,
▁direc
▁+/-
▁hemisp
▁ech
▁erythromycin
▁(27
arbonate
parathyroid
▁CAP
▁121
▁prostate
▁Higher
▁Magnetic
▁0.60
ilin
▁(99
▁CU
▁Combination
omagn
▁2)
▁milder
imeth
▁82%
odies
▁-10
aminop
ipramine
duce
apular
▁hippocampus
▁278
ycline
luded
isomer
▁carcin
isolated
thick
▁carcinoma
▁sepsis
▁80%,
127
▁(17
▁Hear
adren
eded
▁anticoagulation
▁obesity
▁reductions
romal
49
oderm
farin
romycin
ovastatin
▁synthetase
omegaly
▁lumbosacral
30
tinguish
▁phleb
▁7.2
▁phospholipid
lep
bladder
▁IU
▁HPV
aginal
▁esophagitis
▁pelvic
▁allergy
ordial
▁0.01).
▁parental
ureth
▁granulomas
▁16%
acial
▁attenuated
adone
▁Comparison
▁bradycardia
▁1.15
standardized
1;
hers
dimethyl
▁urticaria
▁myel
▁yeast
▁recor
▁mucos
▁tric
▁Tiss
▁10%,
trical
▁obstructions
▁elec
▁islet
▁102
▁reactive
▁Assessment
▁1000
▁cate
▁allergic
▁atelectasis
▁ventricle
▁inspiratory
▁parity
▁estrogens
14.
organism
▁diarrhea
▁kidney
▁interventional
ropathy
▁analgesic
opril
▁15%.
▁bronchitis
▁1:
▁collec
▁51%
▁(60%
ofib
000.
▁sensitivities
▁leukocytes
POA
osclerotic
▁neph
▁encoun
▁exacerb
othal
▁Thin
▁clinician
▁4.5
▁Few
▁abundant
-3.0
ilus
olipoprotein
onam
▁suppressed
lox
/3
▁reviewing
▁subjected
▁unsuitable
idone
▁neuropsych
▁6.5
▁eluc
▁217
▁neurons
enia
▁40,
oste
▁cocaine
▁150
ordance
▁0.91
▁PGF
▁antagonized
▁reflux
▁proliferation
▁keratin
▁pHi
otor
troph
▁Thirteen
▁preserving
opre
▁evacuation
▁caries
vices
▁EMA
▁atten
▁uncomplicated
▁birthweight
▁multiparous
▁40%.
▁paradoxical
/9
▁(5.3
▁lisinopril
▁remin
▁0.89
▁derm
▁Elevated
▁1.11
▁0.87
▁tymp
ontal
▁renal
▁(30
▁chemotherapy
adox
amino
▁mAb
▁mediate
imodipine
▁drip
iparous
▁194
▁immature
▁potassium
pinephrine
▁0.36
▁aldosterone
▁epitopes
▁hypo
▁catecholamine
jected
udation
motic
45
athyroid
▁0.001).
▁vertigo
▁nonselective
MN
proved
▁incontin
▁antibiotic
▁BW
▁headache
▁insufficient
▁bolus
6;
▁81
Cs
▁endotracheal
▁injec
thoracic
ustained
▁nylon
▁adul
renal
▁serologic
avage
▁crude
Gly
porting
▁radionuclide
▁protracted
Ca
orrhea
▁fibrill
929
▁PTS
▁23
ulose
▁TNF
▁Patient
erum
▁900
ymmetric
unctional
▁somn
▁100
▁hormonal
▁20)
5),
continu
lobulin
▁Prel
▁inflamed
availability
▁gentamicin
pharyngeal
odds
▁transmembrane
▁organisms
uestion
▁reduc
▁endometr
▁0.5
-6.
▁6.7%
emory
cephalic
▁CNS
▁granular
▁indications
ipid
plate
▁preservation
▁ventilation
lyc
.1%
▁foc
▁anae
▁transcript
▁placental
itant
androgenic
▁symp
copic
otomy
▁potentiation
entia
▁islets
▁unusually
Pu
▁oxygenation
▁colorectal
▁25,
▁187
▁apparatus
▁assessed
▁TCA
▁mixtures
▁28.
▁simplex
▁lactulose
▁endocrin
titutes
▁peptides
▁differen
molecular
▁Prevalence
19.
tissue
▁Swed
▁outflow
retion
▁attainment
pation
amide
▁casein
▁neuronal
LDL
omers
anding
▁pefloxacin
▁8%,
▁undetermined
astric
ruc
IGF
estig
▁cis
▁increas
▁triam
lycer
▁lys
kinin
▁hyperlipid
-450
▁(1.9
▁pollicis
▁exudation
▁pressor
▁ACTH
epti
▁spon
opharynx
ureas
▁Trial
▁58%
▁186
▁melanoma
▁0.51
5'-
▁lysosomal
▁DSM
▁1)
▁innervation
algia
▁erythro
arbox
▁1.5%
▁progressed
hemo
▁14.5
queous
-4
▁bacteri
▁inhibits
.6%
ofluores
▁12.5
▁Efficacy
atical
aterally
▁exaggerated
▁iden
/100
▁carvedilol
▁13%
▁deleterious
▁titers
▁16.1
NK
anav
▁occurrence
▁hypers
▁hypertension
▁budesonide
▁1.01
▁47%
▁carbohyd
adjusted
▁mucosa
1]
▁alleviate
ethylene
tering
▁cyclic
▁transi
▁(25
Ta
▁abd
▁bisoprolol
▁antisecretory
▁averaging
▁49
▁188
▁Mast
ctive
▁TT
▁titrated
idazole
choles
osine
▁colic
▁glutathione
▁sugges
▁oint
▁lar
proven
▁colos
-2-
oconazole
▁concentrations
▁choles
▁1.26
omain
▁WHO
▁nonp
▁propionate
amid
-7)
▁arterial
▁Fewer
3-4
▁Acad
cence
▁fibre
▁1991
▁vitro
▁28%,
▁84
▁thromboxane
▁ulc
estrogen
▁thym
▁ascer
▁glycos
▁diarrh
▁4-5
%).
ospor
odal
▁rupture
▁specification
▁residues
▁(4.6
activated
▁hemodynamic
▁dietary
tro
enicillin
▁tracer
atid
ignificant
▁singlet
hypertensive
▁nebulizer
inoc
selective
▁7.6
▁successive
▁regimens
ameters
▁bp
▁erg
▁diuretic
▁MIC
vation
▁dosing
ofl
▁imipramine
▁subgroups
indolol
.0%
▁ADP
▁premenopausal
90
sus
42
iloride
▁1.19
ervative
▁medulla
econd
saccharide
inum
inergic
orphin
▁regeneration
▁minimally
inj
▁reproduc
keletal
▁insulin
▁undetected
▁EGF
▁efficacious
▁55%
▁Gonad
▁favoring
▁pigs
▁potenti
▁Seventy
▁triad
ameth
tocin
ypical
▁heterosexual
chloride
▁0.17
▁dissemin
▁whee
▁construc
▁bedtime
▁hematoma
▁3'-
▁3-
ilization
-7.
-65
▁PTH
▁glucose
estion
▁(1.4
▁datab
▁200
orrh
▁adip
▁colonic
▁homogeneity
acting
▁radiologists
▁Insulin
MV
.00
lood
▁endometri
▁discomfort
▁Subjec
▁Measure
adequ
▁hemorrh
▁infar
urgery
▁brady
▁pulses
▁yielding
▁0.88
pharose
▁MCV
▁observational
ilep
imus
uted
cephal
▁arteriosus
▁elic
▁Regarding
▁sputum
iclovir
▁-0.0
▁remission
ulants
▁striatal
mentation
▁dorsal
▁amenorrhea
▁hypon
ogenic
▁50%,
▁17,
▁myocardium
▁ventilator
▁desaturation
otropic
urrent
▁ligands
▁tran
uplex
▁somat
▁sonography
▁mite
▁occl
▁accelerated
yclo
endi
▁EE
▁antim
▁mortality
▁heparin
▁palsy
▁pacing
▁ceph
▁synov
-30
usually
entricular
▁(67
▁0.19
▁2.9%
10.
▁menses
EG
-1.2
▁plex
kelihood
▁antich
▁erythema
▁122
▁tubule
gely
.1,
▁nal
ithelial
2%)
gic
▁Bac
ylephrine
▁10(6)
diagn
▁recombination
▁emerg
-72
▁adjusting
sions
arrh
itic
virus
▁PDGF
▁anhydr
ylene
▁(2.5
oratory
14
osid
11.
0.6
▁coated
kine
▁5.2
▁acin
acetic
▁tracheal
vitamin
ecal
-20%
▁encodes
omatosis
TNF
▁displacement
66
▁mice
▁cotinine
ographies
▁permeability
certain
▁pneumon
▁endothelin
▁vitamin
thel
▁transformations
▁assayed
▁abl
ardized
▁pulmon
▁electromy
▁tol
thma
tact
ectin
▁HLA
▁microscopy
▁intravenous
▁24
▁heel
▁pharmacokinetic
▁albuminuria
▁puncture
▁2/
▁stimulating
▁converting
ensi
▁trache
glyc
planted
▁reflec
trated
/4
▁dischar
▁therapists
adin
▁swit
▁epidural
ovarian
▁uniquely
gthen
▁Wistar
truction
mined
▁positively
notic
bearing
▁maturity
▁optic
▁42
▁Incidence
▁decayed
▁fluor
▁infil
fal
olam
▁phospho
phosph
▁hepat
▁IgA
▁molec
astatin
18)
▁celiac
uginosa
adder
▁furosemide
erence
tified
▁(18
▁competi
▁28)
▁insuff
▁incub
▁ESR
▁undertaken
▁cortex
▁inser
otone
▁adenylate
▁subclinical
ycin
▁pneum
▁cultured
20
▁60-
vity
▁leukemia
rals
▁54%
xone
siology
▁acetic
▁interleukin
upuncture
▁4.7
▁nondis
ginine
▁allergen
46
tam
▁brainstem
▁mmHg
▁toge
reasing
▁anatomical
▁persisted
▁caud
regulation
▁propensity
▁Increas
▁inactivation
ohyd
▁apnea
▁progn
▁hep
-2.5
-1.5
▁splenomegaly
alact
▁Sodium
osyl
▁otitis
▁Combining
▁ruptured
▁IVC
▁microv
▁adolescence
▁reinfection
▁leukotriene
▁subdural
electric
▁295
▁ejection
▁esters
▁aor
▁cytokine
▁1989
iasis
▁3.8
▁chel
duction
▁adminis
▁21%
facturing
▁lupus
▁identically
▁4.
▁retin
▁autoantibody
▁quantitative
▁infertile
▁serogroup
▁ICU
▁preeclampsia
▁densities
orepinephrine
▁arous
thood
▁appra
▁(197
▁-0.4
acerb
▁5.1
▁2.7%
▁specimens
yroxine
▁glycoprotein
Ls
▁provid
▁empirically
▁contractile
▁glycemic
▁supplements
▁anesthetic
-0.
▁immunosorbent
▁5.8
▁45%
7)
▁postsynaptic
▁postprandial
▁adipos
▁Radi
lamydia
▁outpatients
▁PEG
▁psychiatric
▁dialysis
▁exploratory
▁pulsed
▁fluoride
▁biliary
▁Ure
▁cytosol
▁Cells
▁choline
▁adversely
ffe
▁sulbactam
wes
▁febrile
37
ergenic
edic
-4-
-11
hexidine
oppler
omical
5).
▁13.3
▁cylinder
▁RA
▁TPA
dehyde
50)
▁outbreaks
ipine
toxic
CAH
▁circumference
▁hydrogen
▁kinetic
▁Conventional
opo
▁hepatocytes
▁mutation
plenic
ositive
▁indomethacin
▁18.
ximide
▁antihist
▁hydrolys
firmed
▁pyrid
▁frontal
▁42,
tility
▁simplified
ffer
▁chorio
accharides
▁Epidemiological
conver
▁intestine
/6
▁[(
▁computerized
▁diets
bility
oxifen
▁chorionic
19
▁transcriptional
▁1.04
anthine
unctions
▁hospitalization
▁adenoid
▁phospholipase
▁nip
▁LR
onor
▁irrigation
18
▁4,
▁dosage
▁0.25
▁179
▁prostagland
▁Improved
ophilus
▁57%
▁manifested
achial
antial
▁Binding
▁Recommend
▁8.8
▁aberrant
▁alginate
▁asymmetric
▁vaccinated
arachnoid
spective
cells
▁ventil
▁Neu
▁Retrospective
timulation
itrate
▁ineffective
170
▁pharmacokine
itin
▁baro
▁retinopathy
odgkin
feeding
strain
▁Centers
▁ultrastructural
atrop
▁Nine
overall
▁anxiolytic
acterial
havi
▁76%
▁Increases
▁vasodil
partum
udin
▁exhaus
▁inactiv
ifugation
▁effec
▁relaxant
conduc
▁slices
▁0.05),
▁enrollment
uprofen
oplasty
▁ow
tionally
▁LH
tectable
0%).
▁unstable
▁coughing
▁alcoh
▁lipoproteins
▁referrals
mortem
gth
▁88%
exy
▁fatty
ylcholine
glucose
▁augmented
▁incid
fractions
▁artery
▁dex
▁15.8
▁ect
▁homology
rength
-4)
▁Neuro
▁supernatants
race
▁nodules
▁fric
hemolytic
centr
▁fibers
ographically
▁fixation
▁spleen
▁quantified
▁223
azem
ailure
▁platelet
▁pentoxifylline
aturated
atest
▁1.02
▁preferen
▁bronchial
occal
30)
▁0.63
utable
▁perone
restricted
gestin
fec
▁emo
▁recons
▁asthma
▁synthe
convul
▁heterozygous
ventricular
occus
ophil
BH
▁24)
▁apprec
oxyrib
▁withdrew
▁hypothetical
obarbital
▁diffic
reatine
okine
tages
▁arrhythmia
▁ae
▁encephal
▁([
▁5.4
▁superf
▁Effic
cessively
93
▁murine
▁ibuprofen
▁polymer
ithromycin
▁lymphomas
▁multic
etal
hydro
▁ultrasonography
▁epitope
▁hippocamp
▁solub
▁(12.5
tration
.7%
▁disturbing
▁controver
▁9.2
▁wk
icillin
▁hypothyroid
▁clind
8;
▁albuterol
▁secretory
▁Golgi
▁aneurys
▁grading
▁185
imaging
esting
onit
▁herni
▁299
▁suprac
▁metabolic
elves
▁HBsAg
▁confound
▁Cardi
9).
▁CsA
▁11.6
▁microorganism
▁Reduc
▁diagnosing
▁membrane
▁rabb
▁neurom
▁Adding
▁insufficiency
Ala
▁organism
▁labelling
▁microtubules
74
▁142
▁stripping
31,
kines
▁(75%
▁0.90
▁multivariate
▁differentiate
▁6-
▁BMI
▁0.016
▁problematic
▁prono
▁0,
▁18.3
▁psoriatic
▁respiratory
anat
▁grise
▁standardized
▁differe
0-
thickness
▁132
▁ana
ranean
▁reser
hyde
lication
▁presynaptic
▁199
▁cesarean
▁44-
▁Staphylococcus
siologic
▁reac
ignant
erop
▁62
▁cyto
ymptom
▁Significant
▁cation
ucle
herence
ximal
glutinin
izin
▁dete
acr
▁isoform
▁550
▁venti
▁40%
▁99
▁extracorporeal
significant
▁interfere
ipheral
robic
▁PF
▁methotrexate
▁heterogeneous
urea
-1,
▁61
ocamp
.8
▁spermatozo
▁benzodiazepine
▁terat
uled
odop
▁Stu
▁allyl
▁133
indol
▁pregnancies
▁horiz
▁273
titute
▁NK
AFP
▁morphology
▁mec
COP
▁causal
▁Caucasians
ecia
▁radiographic
odine
ffin
▁6%,
ithm
▁intermedi
▁bir
entan
▁serology
▁ile
mobil
▁Ventricular
▁gland
ogenesis
Dawley
▁caloric
▁fibrillation
▁monomer
ochemistry
▁correlations
▁110
▁isolates
▁alkaline
umbered
-66
plementation
odopa
▁individualized
▁bathing
▁poten
▁hypothalamic
oactive
▁(10.
▁gestation
atine
▁weakened
▁(0.4
▁untreated
▁autoimmune
utaneous
▁replic
uscular
ocarcinoma
heavy
▁eradication
▁abnormal
▁(5.8
20.
▁hydrochloride
▁pyr
83
▁carbam
enzyme
▁subfractions
▁neuroleptic
▁0.2%
▁hypop
▁GSH
▁309
▁retic
olus
otassium
▁precur
▁RS
sorb
▁elicited
▁discharge
▁biosynthe
sac
arate
▁quoti
▁75
ATP
▁preparations
-5
antibody
▁Examination
▁hydrolysis
reast
00-
heum
▁rotavirus
▁333
▁249
olarization
▁unex
▁Clinical
umbar
▁euthyroid
▁15,
▁transthoracic
/30
rofen
▁5%
▁polym
releasing
▁200-
▁157
▁NH
tisone
onide
emin
▁incidence
platin
▁pravastatin
▁correlating
▁alp
versely
▁29,
attern
oreal
▁tablets
▁Prevention
ubiqu
orbol
▁contralateral
▁1.9%
TSH
▁reconstituted
▁oxytocin
▁arrhythmic
▁(28
strual
▁eccentric
▁acet
ophageal
naud
▁exon
▁clot
labeled
▁HbA
leuk
▁influenzae
6%)
▁microsomes
orrhage
▁throm
particularly
▁lor
aind
▁amlodipine
genital
▁Hypertension
ophila
▁fluores
▁ethyl
▁postulated
Hep
uppres
▁lacked
▁6.4
▁disrup
▁antisera
diabetic
▁remo
▁eradicated
adrenergic
▁universally
▁psoriasis
▁Combined
▁sampled
▁substantially
teroid
▁activating
▁estrogen
roscopic
ditional
▁objec
3)
turally
▁hypothesize
▁deem
▁Calc
2),
▁endocrine
gestrel
▁referral
amate
▁responsiveness
▁uter
ritten
▁deterior
▁(38
-9
ociation
dihyd
▁affinity
atif
▁polycystic
▁-12
embry
▁medullary
rance
▁effic
▁abduc
▁staining
▁Exc
▁ascorbic
▁(77%)
▁Lymph
kinje
▁Secondary
clin
▁classify
imazole
▁14.8
arynx
▁inflammation
▁56
▁dopaminergic
▁hypoth
▁IgE
ertion
▁0.2
▁tendon
8.
▁mitochondrial
▁amo
ialysis
▁98%
▁seronegative
patients
derived
ococcal
▁20-
vival
▁ketoacidosis
eclamp
neumon
▁cyclical
roma
ispanic
▁dysp
96
nthe
▁airway
▁1.2,
moderate
-2.2
▁analges
▁whey
junction
▁epithelium
▁labeling
phosphate
▁TRH
odynamic
▁56%
▁(300
ometr
trus
▁0.69
▁12.0
▁2.0
MDA
▁neutralizing
prising
▁decreased
▁artifact
cellular
vertebral
aturation
ocytopenia
▁nonfatal
▁apical
▁sequential
▁acetate
▁fibr
▁infarct
▁captopril
▁danazol
versal
▁compart
▁sequenced
▁enzymatic
▁secrete
▁chor
▁(3),
▁LM
▁atopic
overed
▁confers
zation
geons
trition
▁kD
▁1-
▁transcripts
struc
enterolog
▁95%
▁237
tiz
▁prenatal
gment
▁37%
▁drinkers
▁(3
5%.
▁transforming
▁testosterone
▁prescrib
lamy
ygen
▁excreted
potential
▁genome
-125
erox
▁osm
▁PMA
tizing
▁mildly
aund
▁dors
▁correspondingly
inyl
5%),
▁hydroxyl
erally
▁plasmin
▁46
▁ecological
▁excision
▁decreas
800
65
▁Medicare
▁52
▁conclusive
▁reper
18,
▁transferrin
▁serological
tened
▁inhibition
PPP
▁methadone
▁reversed
▁Acet
▁ranitidine
▁pulmonary
▁1.5-
▁subc
▁173
▁phospholip
▁Mortality
nisolone
▁immunoreactive
▁laminin
▁antipsych
▁arrhy
▁bic
▁prednisolone
selec
ctomy
-1-
▁chamb
▁disappearance
▁linearly
▁EDTA
▁oxidative
▁ovari
▁arose
-3,
▁autonomic
▁0.57
▁invasive
▁cervical
▁10(-6)
linded
▁Cardiovascular
▁Duc
adal
▁ejac
▁115
▁dehyd
-18
▁NAD
▁superiority
ixime
▁gonorrh
▁98
▁(1000
insulin
▁tuberc
chol
9)
apsulated
uria
hydr
▁145
5-
▁metr
▁verbal
fate
▁granulocyte
2+,
▁accessory
%),
olgi
▁intracerebral
rox
▁slows
▁vesicle
▁stratification
▁endocervical
▁Tc
▁postnatally
openhagen
▁curric
amn
▁subf
▁subtypes
ifferen
onazole
▁MRSA
▁Gluc
▁Comparing
▁neurogenic
izine
tite
▁elu
▁chlor
▁PKC
▁streptococci
▁noncom
enteritis
▁261
000)
▁(16%)
▁blot
▁infec
enin
▁0.7%
▁chromosome
▁30.
ograms
▁ABR
▁dimethyl
nine
oxic
▁equivalents
▁315
▁ambulation
▁guinea
.9%
▁atenolol
▁19,
otriene
amphenicol
▁microgram
▁Leuk
▁rostral
▁prophylactic
aminophen
▁tenderness
▁Modified
hydropyridine
▁ganglion
0%)
▁clom
osom
coup
▁depletion
▁0.23
▁distorted
▁cysts
oprol
amel
▁adjustment
difference
▁proteolytic
▁66%
▁coh
▁proteins
(+)-
-50
25).
inflammatory
.4%
▁smokers
▁guan
▁statistic
▁endothelial
edle
▁posttreatment
▁monol
lastic
▁bile
▁1991.
ocrom
agic
onorgestrel
▁sacr
uality
▁197
▁factorial
▁calcitonin
▁tolerability
▁(47
▁220
▁80
▁clus
▁recombin
▁Dental
osin
etitive
▁Neurop
5%
tiveness
▁Thy
▁angiotensin
▁inotropic
▁amniotic
▁logistic
▁concom
▁bronchoscopy
▁physicians
▁antid
4;
▁0.8%
osal
kage
traction
▁10-
▁hyperactivity
▁testis
risk
dic
▁hydroxy
otting
▁diuretics
tus
▁empir
▁8,
pig
▁hysterectomy
osus
▁homogene
▁AVP
▁developmental
▁plotting
▁20,
▁hypertro
▁studi
▁preven
▁1985
mokers
▁sucralfate
1/2
sistent
▁PV
▁synthase
▁potency
▁cGMP
▁137
▁4.8
▁techniqu
▁cations
▁squamous
▁nitroglycerin
▁injections
▁substrate
▁diastolic
iuria
▁methodologies
conventional
▁irrig
▁Thirty
▁substanti
▁paralle
▁contracep
sulfamethoxazole
▁234
▁bip
▁Viral
▁pec
uoden
▁hormone
-5-
▁capsule
"-
▁esterase
onance
▁2.6
oxane
1%
0.8
ergy
roat
iotic
articular
-4.
▁26.5
0%.
89
▁acetyl
veolar
▁Experim
encephal
▁abscess
▁Rats
ondr
consuming
▁stool
ituit
▁beats
ecu
▁mL
▁renders
▁sinus
▁chloride
otin
▁Behavioral
▁Haemophilus
▁digestion
▁biopsy
▁Biopsies
roxyprogesterone
▁seropositive
▁13.9
▁induc
acid
terol
▁Nons
▁naloxone
▁condensed
▁Preliminary
epines
▁sph
▁Elec
▁0.18
▁placebo
▁exacerbate
▁Subsequent
▁kits
1:
▁adenine
+)-
▁(72
otides
▁0.001),
roxim
▁progressively
▁61%
▁excessively
mmol
▁241
▁Approximately
▁solit
▁practiced
▁sarcoma
▁Cumulative
myc
,000)
▁10,000
▁gases
▁adap
▁scars
▁consecu
tension
▁63
▁Nutrition
▁lesions
▁residual
▁(2.6
oblastic
usively
▁discon
respectively
▁secretagog
NAc
essation
▁embol
▁disulfide
tolerated
▁Increased
▁thems
▁polyethylene
iability
myocardial
acids
plastic
1-
▁gastrin
oglob
▁231
aldehyde
urium
▁10.2
tur
erge
▁underg
admill
▁conduction
▁splenectomy
▁cyclospor
▁allevi
▁430
▁67%
-88
idol
▁0.25%
ocaine
hydrox
▁follic
vular
▁fungus
▁Levels
▁fibrosis
Gi
▁tRNA
otine
ectomized
▁cortisone
▁conduc
▁nonsignificant
tronic
▁10,
▁ank
▁substrates
▁nodule
gression
▁270
▁FDA
xyl
▁anticoag
▁peaked
▁mcg
▁induces
▁discontinu
▁CFU
▁angiography
0),
▁(94
▁ramipril
▁omeprazole
ths
▁Hep
atoid
osol
▁CSF
pH
▁medically
▁aspiration
▁3.8%
▁Pregn
▁meperidine
▁calmodulin
oluble
▁Hyd
▁chronically
▁Newly
ronch
▁tetracycline
▁antis
▁unresponsive
▁leukotri
ystolic
gated
biased
trates
iazide
▁triazolam
▁ammon
▁gradients
▁attendant
▁elas
uitable
▁CAH
▁preferentially
54
qui
ologous
▁27%
▁myocardi
turb
▁lessened
mediately
▁concordance
-10
0.2
▁resear
▁13
▁54
▁erythrocytes
▁subcellular
▁pancreatitis
▁sedim
▁spati
till
timate
▁infectious
▁neurotrans
▁1.3
▁basal
apid
▁thyroiditis
xime
▁exposures
▁dib
carinic
▁fenoterol
▁methodology
▁disulf
▁(50%
500
▁(93
▁unclear
▁96%
▁antidepressants
raine
monary
▁proportions
▁lesion
▁ascorb
▁antibodies
▁mV
▁mutants
▁cerebrovascular
▁operative
600
▁200,
▁hyperb
▁247
▁overlapped
▁cG
antigen
tence
orbent
/2
odium
▁undergone
▁296
nai
opr
▁sclerotherapy
▁(54
▁menstrual
ignific
▁polymerase
▁improves
▁crossover
▁detects
▁9-
topril
tase
uron
▁blockade
oproterenol
▁streptococcal
oxygenase
▁77%
▁FEV
assium
▁disadvantage
▁scre
azol
▁chromatin
▁salbutamol
▁antidepressant
▁anticonvulsants
▁paternal
▁discom
▁endoplasmic
poor
rati
▁LMW
67
thirds
tential
▁rhe
5,000
▁triglycerides
16)
▁pharmacy
quam
▁requi
severe
▁menstr
▁trig
▁PHA
phic
assi
▁axon
▁25-
▁23%
vaccinated
guing
adders
▁bactere
▁chloro
▁recruited
alc
▁0.44
▁17-
▁8-12
▁glomer
oreceptor
▁sucrose
▁0.6%
ectomies
▁0.55
▁granuloma
osome
▁168
▁4000
umbers
▁(15
▁(84
renol
▁1.56
▁perfused
▁3)
yste
embrane
idespread
▁anes
erose
▁tau
▁regurgitation
phragm
titution
▁0.5-
Cy
cancer
▁TIA
▁CAD
onate
▁ADA
5%,
▁0.72
▁antipsychotic
▁CCK
▁databases
responsive
▁duodenal
▁Immun
▁rGH
▁discus
ischemic
▁atrial
▁1970
bacter
-0
▁(1:
▁investigations
▁inositol
▁necrosis
disc
▁Beta
omat
▁granul
▁69%
▁respir
▁scarring
scop
▁bumetanide
▁creatinine
▁apolipoprotein
▁(1
unced
▁appraisal
▁126
▁produc
spectively
▁amitriptyline
▁epit
▁outlet
▁excluding
▁negatives
▁oes
▁antithrombotic
itoneal
▁acute
▁Myc
▁chol
tative
lamin
tance
istal
▁ppm
▁Forty
▁cystic
▁200,000
haled
onyl
▁Assess
▁239
▁0.01
sufficient
sives
▁phon
▁Abnormal
▁acad
aminidase
▁adjustments
▁(50
▁balloon
63
▁nonsmokers
▁GH
▁PCR
▁discontinued
▁8
excluding
▁ald
▁poisoning
▁reticulum
ulant
▁97%
ipit
athe
▁succes
vant
▁ECGs
▁transient
▁Stress
▁400
osteroid
▁currents
vedilol
▁HER
▁cholinergic
▁48
terminal
▁ket
▁VIP
4]
▁filament
▁93
▁ane
cardi
▁adequately
▁5,
▁(3)
▁SMR
urther
.6
▁100,000
dia
▁autop
athic
▁cisplatin
▁adherence
coated
vated
▁adhering
▁(75
▁pene
▁obstetrical
iological
▁0.66
tive
▁progest
▁(45
positive
amethasone
rotic
▁deformities
▁qualitative
osocial
150
olip
▁anxio
alities
▁imaging
▁DF
chlor
▁malformations
needle
▁collagen
▁cholec
▁undergoing
▁streptococcus
▁socio
▁0.27
hap
resis
▁0.38
▁thrombocyt
oresis
▁paroxysmal
tinu
▁teratogenic
▁uv
onegative
▁triceps
urane
▁radiolabeled
▁infusions
▁homogenates
erebral
reas
61
▁persist
trol
amuscular
fected
tioned
▁2.8
benz
quamous
▁ipsilateral
00,
▁adjus
-40%
▁Feeding
▁(4.0
▁analysed
ellum
▁expec
▁electroph
▁cytokines
cysteine
▁thromboemb
▁citrate
▁(76
▁hemat
▁alleles
timum
yrid
▁fum
oprostol
ritish
▁dox
▁biop
▁orch
▁inflamm
▁polypeptides
▁(5%)
▁0.26
▁Subjective
▁GnRH
▁examining
▁presumed
▁promp
▁hipp
▁1.00
roscop
▁transpor
▁50
opause
etan
▁opi
▁25
▁musc
infected
▁schedules
▁bronchodil
▁30-
▁infertility
▁anaesthe
▁interf
▁agglutination
▁adolescent
▁disper
▁dexamethasone
▁Cooperative
▁luteal
▁saliv
▁(95%
-5.
▁hypertrophy
▁fec
2.1
osm
▁7%
itidine
tagland
glycer
▁gels
▁phos
▁cardiac
▁phenotype
opamine
0).
▁hyperg
ungal
.2%
▁Urine
▁sodium
enyl
ovascular
3]
▁unwanted
▁peroxidase
generation
acchar
▁carboxyl
▁psychomotor
▁12%,
(1
▁ligation
▁olfactory
lier
▁adiposity
▁40
opa
anate
▁doubled
rophenyl
▁Ear
▁prophyl
odone
00
▁11-
▁ischemic
▁clinicians
▁comple
▁15.
derly
amus
approximately
▁naproxen
opathic
oprim
▁poin
ynaptic
▁uric
▁amyl
▁aggregates
▁AMP
ostatin
ministration
TN
▁asymptomatic
▁440
ameter
rease
▁Barrett
tryp
valence
▁simvastatin
▁trich
▁homogeneous
▁sham
▁erythrocyte
▁descriptive
▁amph
▁300-
pirin
illi
assay
▁confir
▁penicillin
embers
▁fertile
▁colonoscopy
▁0.28
oracic
▁posed
sial
androgen
▁deox
▁persis
timal
▁sequelae
▁2.9
▁characterize
▁243
uracy
estive
▁Positive
▁niacin
eak
EI
▁ulcers
▁Extr
chym
▁(3.0
lactam
▁axonal
aicin
▁thrombin
15.
▁monoclonal
▁implants
yses
Leu
▁ultr
▁heavi
▁0.83
▁criterion
lactams
odialysis
anazol
▁contrac
▁dodecyl
▁quotient
▁motone
▁metabolites
▁91
▁substitution
yrib
5;
otransferase
▁hydroxylase
▁ankle
▁0.2-
▁calcified
athy
▁anion
tics
oblasts
tained
▁anomaly
▁Angiotensin
▁33
▁glut
▁Hyp
▁Subcutaneous
lives
globulin
▁deterioration
▁1966
▁hygi
dine
▁sequentially
gol
▁PMN
▁aerosolized
▁enamel
cine
▁cyclase
▁experim
▁(7
▁enhances
sych
astases
▁corticosteroids
welling
▁pathway
tically
▁unres
▁tic
oidal
▁fertility
▁1.0
▁revised
▁glycoproteins
▁evaluating
ocrit
viral
▁septal
▁mutations
▁radiologic
orbid
enoid
thmias
sA
▁LN
▁labelled
▁degen
▁thereafter
▁Inhibition
13
▁cutoff
▁enrolled
amphen
▁classifications
lac
olis
▁simultaneous
horm
▁plaque
alazine
▁autoradi
rague
ectable
linking
▁intranasal
▁augmentation
▁pancreas
▁eryth
▁juvenile
individual
▁Histologic
parative
▁prescribing
▁0.64
▁retention
▁(26
▁fibronectin
amicin
▁ovaries
▁pep
▁contex
▁ips
▁transaminase
▁(-0.
yroid
opha
▁ovarian
▁9%
stro
▁233
56
ocyst
▁ureth
▁(150
▁0.99
▁exten
lux
▁prescribed
ziness
erad
reactive
▁arrhythmias
traumatic
▁Chronic
▁(97
ensities
▁resolving
▁extrap
▁lec
80
▁12-
idne
▁phenylephrine
▁oligos
yridine
▁127
▁enzymes
▁asthmatic
▁CRP
tial
▁Findings
▁adequ
-3.
▁respec
ilol
▁minus
▁hetero
tumor
.0
1)
▁(5.0
tens
0.3
▁leukocytosis
▁11.0
▁hypotension
casein
lip
▁Dip
▁prevalences
▁32%
▁repor
▁1.13
▁efflux
▁abortive
clerosis
▁compli
pecially
▁47
uates
▁neuropathic
onuclear
ycardia
▁plateau
▁oligonucle
▁rigorous
▁100%.
▁circulatory
▁allo
cyt
▁vasoconstric
▁posi
▁1.25
▁Complications
▁superv
thmatic
▁reinforcement
▁cured
sorption
ints
botic
urine
esti
isol
▁extrac
vus
▁stimuli
omann
epin
▁ceftriaxone
▁parame
onset
deficient
0.0
▁heavier
▁damaging
(6
▁arth
▁gynecological
▁electrophoretic
▁embryo
ughter
▁Fc
rachial
temperature
tidine
uating
dent
itively
▁hir
comitant
▁immunocomp
▁glycosyl
ohns
▁fractional
▁1.6%
erents
▁SPL
▁mitogen
▁flexor
▁nif
rane
▁7,
▁KCl
▁uniformly
▁retrospectively
▁gonadotroph
68
▁traumatic
kele
▁(31
▁(32
▁positioning
▁mitogenic
▁blister
-2.0
▁mitochondr
▁12%
▁0.48
ituitary
▁radiolab
xia
▁hydrophobic
▁atherosclerotic
▁zoster
▁14,
clinical
opharm
tally
lyl
minal
fts
▁ACh
▁hapl
torchid
ecyl
▁38
determined
▁hypercalcemia
▁aneurysms
opramide
angiotensin
+/
▁malignancy
opro
▁preterm
▁Compared
aric
▁vegetable
xual
▁ventricular
▁EG
▁contaminated
▁tryptophan
oplas
-2)
▁microscop
▁tac
▁FSH
3).
produc
▁halves
▁intramuscular
loxacin
▁1.12
▁51
bumin
crip
▁duc
▁enteric
▁receptive
▁sensi
▁porcine
▁263
▁anticonvulsant
ochrom
▁reproductive
▁ouabain
▁9,
▁(9
▁progestogen
▁confounding
▁validity
classified
▁Twelve
▁irritable
ourinary
rocy
lasses
▁prostatic
▁iso
▁dias
osacral
▁lamb
▁mmol
oneph
▁panc
▁gonadotropin
25)
bral
▁anticoagulant
▁collagenase
▁competence
▁0.07
▁HPLC
▁119
▁28%
eliac
▁exercising
▁nonsurgical
▁RR
▁(0.5
▁(1%)
razolam
▁Leu
▁inhibitors
▁relieve
▁203
▁Prac
lasts
▁hap
roscopically
▁normalization
within
▁Investig
▁predisposition
▁conclu
▁6.6
stem
▁hepatic
▁ionic
▁kidneys
▁inducing
▁itraconazole
ducing
▁NADP
nosis
▁8.1
tory
isole
buterol
▁estradiol
▁dehydrogenase
▁90%.
▁felodipine
▁paradox
/90
▁newborns
▁implying
▁39
▁Geor
ocarcin
▁180
tebral
▁impair
ionine
▁maneuvers
▁Identif
▁Caps
cemic
▁Exercise
▁depolarization
▁118
osclerosis
▁Disease
▁postinjury
▁hepatocellular
▁splenic
▁CTL
eration
tiary
▁spinal
▁astrocytes
uterine
CDC
▁formulation
aminases
▁magnesium
▁tyrosine
▁corne
▁Hb
osamine
▁measurable
▁12.5%
▁drin
▁Survival
ferrin
▁endpoints
▁ascertain
▁blocker
▁32
rowing
▁dysfunction
▁Randomized
▁yearly
▁Scale
▁163
▁dosages
▁limb
echn
▁forsk
▁manipulation
osidase
▁hydrolysate
romes
▁descending
▁68
▁inflammatory
▁-0.5
▁identif
eryth
▁viral
toph
ibrate
▁92%
tig
eprazole
▁3).
▁postinjection
▁histologically
▁antioxidants
▁strains
▁(2),
IFN
▁diagnose
▁pediatric
▁allele
▁HB
1.1
ypro
▁pneumococcal
▁cartil
▁abdominal
▁reliably
▁(63
▁vomiting
ADA
glucosidase
▁cortisol
▁appropriately
6/
▁4.1
▁2.7
molar
coun
▁modulate
▁phospholipids
▁Comparative
luding
▁Kd
OA
kely
▁5-
▁bronchodilator
avoid
▁Benz
▁doubling
▁7.
64
orsal
ejection
▁outward
ecutive
▁cran
▁1.75
▁(0.9
▁sero
▁NaCl
▁unselected
▁glomerul
31
▁consis
▁obstruction
▁syncope
nRH
▁inappropriate
▁candidiasis
emia
▁0.65
razosin
iplin
▁modifying
▁(20
▁Intr
piratory
▁sple
gluc
:3
bly
▁antagonists
▁absorptiometry
ophys
perature
▁(89
glut
▁lobe
▁caffeine
▁thoracic
▁onc
▁70%.
▁econ
intensity
▁94
▁adrenergic
trast
▁cDNA
tially
▁nonex
▁cyst
0.00
▁conformational
▁10.5
▁shortening
sibility
those
-12
▁hematologic
.3.
ranial
▁1.9
iteal
▁alk
9;
▁lethal
▁corticosterone
meth
76
tensity
0%,
▁virul
repres
▁thrombotic
▁(89%)
▁158
atment
relaxation
▁fructose
▁76
hern
astom
▁120
▁Clinic
tise
erus
▁fluc
▁nucleus
▁1.2%
▁hyperch
▁15%
idating
▁insom
apeutic
ffinity
▁89%
chond
-45
▁cranial
urgical
▁metoprolol
▁immunoglobulin
▁dihyd
▁(4)
thymidine
jective
▁15-
▁summ
▁herb
▁recurrence
▁1.05
▁epidemiological
▁NN
▁Combin
assessed
▁9.
▁intracellular
athiop
operated
trac
▁123
▁epidemi
opathy
▁Evaluation
orh
responding
▁nosocomial
▁implanted
▁ultras
▁92
ulence
▁infants
▁morbid
▁viruses
▁MMS
▁carotid
▁neon
▁stren
geal
weekly
24
▁154
▁combin
namic
▁Severe
▁familial
cycline
iline
▁antec
▁4;
biotic
▁capillary
▁VV
▁angiogram
▁Bronch
▁tib
plas
▁(90%)
▁detecting
▁sebaceous
▁gonadotrop
rele
▁supervised
▁cytoplasm
▁0.9%
trop
▁(1)
▁longus
odular
▁0.
vents
▁ANF
leural
▁somatic
▁uncovered
ometrial
22,
▁latent
▁contral
▁0.6
▁0.10
roin
▁glial
▁uncommon
▁compounds
dens
▁adhesion
▁chlamydial
▁bromocriptine
▁Asi
▁cef
▁Epid
irubin
▁12,
▁surrog
▁1.06
teroids
oate
▁stratif
▁scl
ections
ergic
regn
▁Abnormalities
▁160
▁14.
-400
arthritis
▁initiating
▁oxid
muscle
▁cytology
2,000
▁follicles
▁fati
▁lymphocytes
▁intracranial
plast
▁oss
▁libr
▁longitudinal
earance
▁histology
▁worsened
▁(250
▁hydrophilic
▁kDa
odia
▁8.4
▁HBs
▁(20%
▁intraven
▁69
▁immunocompetent
▁absorp
▁preexisting
lyte
▁pituitary
▁platelets
▁malabsorption
bronchial
▁epidermal
▁trypsin
Tyr
▁beverages
▁dermal
▁280
▁clues
▁LV
▁0.78
▁fluids
▁psychotherapy
estim
wenty
▁deple
▁irradiation
▁Treatment
▁promin
▁7.7
▁0.05).
▁decarbox
▁homologous
andard
▁1600
iol
ticularly
▁0.84
stin
oung
oscop
▁warts
ocrine
ropha
▁voiding
oporosis
▁homocysteine
uvant
29
▁diagnoses
▁abscesses
▁progression
▁16%,
17,
retro
▁enteral
▁bronch
▁lymphocytosis
▁scanning
9.
-25
pain
ocated
▁(8
▁10(-5)
▁100,
▁HI
▁perip
▁soluble
ervations
asal
ortal
▁hexa
otroph
▁antigens
▁mononuclear
yzed
▁exacerbations
▁prophylaxis
tomy
▁0.80
-7
tipation
cortisone
▁diarr
▁mitotic
81
▁secreted
ophore
▁11%
sequent
▁implantation
3%
▁quinacrine
▁norfloxacin
▁urine
▁1.3-
▁Respiratory
▁8%
upus
flamm
▁268
▁hamsters
▁synapses
icul
NSAID
▁perce
▁vulgaris
▁151
atient
ichia
alsy
▁doxycycline
▁regimen
▁allergenic
▁277
▁smo
▁circulating
0%),
olig
▁(60%)
olated
adily
▁HS
▁AIDS
▁CABG
▁blu
▁follicular
ytes
▁13,
▁0.02
▁lis
irc
▁26
FEV
▁unfractionated
▁hypokal
FGF
▁(63%)
plen
▁glutamine
romy
▁phe
▁underst
▁detergent
▁(33
versity
.5.
robial
electro
▁0.15
▁heme
scher
▁genital
▁duoden
▁exudates
endorphin
▁appendix
▁epinephrine
siveness
▁hippocampal
94
coronary
▁fractures
▁lavage
ophylline
▁elevating
▁70
▁0.9
▁specialty
pli
▁peroxidation
iodine
▁musculoskeletal
▁intestinal
▁TS
inhib
▁covariates
▁ions
hep
34
28
portant
6,
administered
▁reductase
▁diabetic
▁thresholds
▁postpartum
▁fluoro
▁physici
▁isch
vaccination
▁crystall
▁(1/
▁transverse
▁dehydration
tec
▁inguinal
Gs
astine
▁thymocytes
▁0.7
▁prevalence
▁conjunctivitis
methyl
tir
▁surrogate
▁galact
▁mEq
▁(84%)
▁intensive
▁seroconverted
▁quanti
▁129
▁cigaret
▁intra
▁inten
▁fmol
▁unrecognized
crib
▁Milk
▁26%
▁phag
rectomy
6.
▁vivo
▁Diagnostic
▁diffus
azolam
onucle
▁proceeded
olesterolemic
▁microns
7/
▁standardi
▁SIDS
essional
▁anoxic
▁complexes
▁pneumoniae
oplasia
▁EB
▁uncontrolled
▁leucine
▁sulfon
ressing
▁substances
▁deliveries
▁adipocytes
▁124
plasia
micro
opian
▁proliferative
rocyte
12).
estions
▁8.0
mild
▁cuff
▁cirrhosis
plasty
bA
0,000
▁promoter
▁solubilized
ovirus
▁cholesterol
▁obese
pore
▁dendri
▁CVD
6%
average
▁morphological
CRP
peptide
▁embolism
▁44%
antibodies
idine
▁cytologic
▁exhaustion
▁fibrinogen
fied
▁coagulation
▁neutroph
▁39,
clic
NB
▁sulfonyl
▁psychosis
▁abnormally
▁0.30
atosis
▁sickness
▁90%,
-1
▁incomp
▁60
oxygen
▁esophagus
▁emergent
▁multin
70)
▁22%
diagnosis
itoring
▁severity
inase
▁seb
toxin
▁27%,
blinded
▁flora
▁serine
▁urinary
glycerol
▁saline
▁leakage
gm
▁PCO
▁radiol
▁graf
tensives
▁cardi
pecies
▁struc
treated
artum
▁olig
lue
infection
▁-0.
clo
april
thym
▁hazard
57
ulon
olysis
vail
▁lumen
▁Abdominal
▁abstin
:1)
▁vein
uric
nucle
amisole
▁duct
▁Significantly
thrombin
▁thymidine
dose
▁skeletal
▁2.6%
2318
▁plantar
▁144
menstrual
▁thromboembolic
▁inversion
▁immuno
lamyd
▁Antic
▁hirsutism
▁transloc
▁2
▁clamp
▁cycloheximide
▁(68%)
▁recurrent
deficiency
▁(15%)
idated
.5
itamin
▁Antim
▁polysomn
▁INH
▁22)
roph
▁pts
▁agonists
orbidity
▁amn
▁50-
▁0.40
ophag
▁therapeutic
▁immunoprec
▁symme
etoprotein
atology
▁Surgical
▁contiguous
▁nonc
iatric
carbohydrate
▁phosph
▁conjug
▁2.
Hb
oretically
/7
▁amino
▁33%,
phosphon
▁meningitis
▁196
ozo
cad
▁conductance
▁(6
▁3.9
▁ribs
▁attrib
trypsin
▁182
▁junctions
▁stained
▁insomnia
▁600
▁traction
▁sulfate
▁occlusive
1%)
▁neurolep
▁avail
▁weighted
▁normo
▁polymyxin
ineal
cious
▁0.41
ochemically
▁alb
roxy
▁hypothyroidism
▁18%
▁0.46
▁accel
▁shif
▁tertiary
▁67
thre
▁Symptom
actam
▁markedly
▁paroxys
ratic
▁Registry
▁infrared
▁eosin
▁105
▁promptly
-40
4.
▁counseling
▁Aspirin
hormonal
▁vaccination
reasts
▁regulating
ophren
centered
▁HSV
▁cic
▁5
▁interfer
▁catab
▁ethn
▁crom
dition
▁Fifteen
▁traum
▁nausea
▁gangl
din
▁81%
▁therapeu
lies
▁proton
baseline
▁msec
▁(22
tested
▁fetus
8%)
ortic
▁reperfusion
▁warfarin
▁inpatients
▁antiserum
cepti
Hg
▁blockers
▁246
900
▁ejaculation
2+
tensive
blood
▁rhinitis
rogenic
▁Breast
▁cyclo
▁glucocorticoids
▁Patients
natal
▁NSAIDs
hydroxy
▁injected
▁9.7
▁cardiomegaly
▁Atrial
▁intub
ixation
▁77
▁chl
▁plasmid
▁naf
90)
atell
▁micros
▁nonresponders
▁(4-
▁arachidonic
siological
acetate
▁0.33
▁ketoconazole
verages
▁spike
▁calf
1,
▁mitral
tical
▁assays
otrop
▁10%.
▁dysplasia
▁preschool
teric
▁tetrac
eptin
▁RAS
▁5'
▁lax
onine
hyd
▁corpus
vic
ipolar
71
▁276
▁Pneum
hospital
▁Diets
fluoro
▁Tran
▁contrib
SMR
▁(1.2
▁bloc
athioprine
idem
▁wee
▁25%
enan
▁hormones
▁hypothal
ologic
▁52%
▁dyspnea
moking
▁6.3
▁valproate
▁(23
▁(42
terin
▁117
▁6,
▁possi
▁epilepsy
FSH
▁3%
▁accep
▁polyp
▁immunized
▁quantit
▁demonstrating
▁allogra
▁exud
▁murmur
▁20.
▁2.3
▁189
pir
▁titration
▁irritation
▁bilirubin
▁(88%)
▁14%,
▁hypoglycemic
▁nonspecific
fib
▁1.45
▁births
stab
mia
▁297
▁superoxide
▁brevis
DNA
tization
▁269
▁microscopic
faction
▁hydrophob
trogen
▁Computed
irradi
▁72
▁nicot
▁torsion
▁hypogonadism
ocrin
▁reflex
ilateral
tate
▁reticulocyte
▁3.5,
▁endometrium
▁cytotoxicity
▁estimating
scherichia
▁calcification
▁parox
▁warr
fat
IgM
▁LC
ocysteine
▁93%
53
orin
▁disposable
▁adnex
lod
▁phosphorylated
▁bismuth
▁undere
▁0.52
osyn
phyl
▁bouts
▁AO
▁fibroblasts
1),
▁autoanti
absorption
▁thiazide
▁kine
▁inoc
sensitivity
▁(4
▁(1.5
▁regain
▁dips
▁(71%)
▁0.94
▁receptor
▁ingu
▁determinants
▁skinfold
▁nucleotides
▁Invent
▁imaged
tox
ocusing
▁regis
opressin
3,
▁NF
10),
▁trac
pine
▁electrom
▁susceptible
▁expres
odipine
▁cystitis
ilic
atches
▁blinded
▁dilatation
.3
▁retrograde
▁Streptococcus
0.4
tability
evoked
affinity
▁radicals
▁inhibiting
▁mutagen
▁5.7
omatic
▁glucosamine
sulf
plemented
6-
▁endoc
▁HL
▁bronchodilators
▁dextrose
omotor
▁5)
▁fluoroquin
▁0.29
aryl
▁susceptibility
▁(49
▁definite
▁iod
▁retinoids
▁polys
▁Improvement
▁moderately
▁antibody
▁amputation
▁thymus
corrected
orphine
▁amiloride
▁embryos
▁8-
▁predis
▁dermat
▁oxidase
▁sati
90,
incidence
▁AFP
obacter
▁86
urrence
▁metast
ovis
-20
angl
4/
odic
anavalin
▁ambulatory
▁212
▁lipid
▁ductus
▁lute
▁71
tral
▁nitro
▁hypox
▁68,
▁inadequ
▁bacteriuria
azole
troduction
60)
-1.3
tition
romised
▁analogs
▁detec
▁Interestingly
dominal
▁Holter
tation
▁atrophy
▁-0.3
eroxide
stress
▁forskolin
RH
▁rigor
▁-4
rever
▁prospective
▁3;
▁influx
▁maternal
▁veins
▁tubercle
bronch
trate
fraction
dural
chymal
▁1.36
▁lectin
galact
▁(10%
▁prodrug
▁distin
▁dairy
▁immunogenic
▁(70%
tant
▁lumbar
ovir
othane
▁benzodiazepines
stimulated
ohnson
NIDDM
▁chemot
▁pharmacological
▁adipose
▁tumour
▁(75%)
eared
▁gout
▁serotoninergic
▁deli
▁PMS
-100
▁hepar
tetra
▁antimic
▁immunobl
owel
▁IUD
▁BV
umerous
▁1500
vating
.5%
▁ambul
▁(70
▁Optimal
▁limbs
uretics
▁coronary
▁cholest
▁myocytes
ioid
amines
▁effusion
▁hypertensive
▁shortened
▁noninvasive
▁specificities
▁Whereas
▁questionnaire
▁rash
pendent
imethyl
oA
ACh
▁antidepress
▁misoprostol
▁OA
illus
▁TA
▁ranged
phen
▁50,000
rogenase
▁emesis
▁hazards
▁intrac
lycerol
▁inherent
TG
▁saturation
atural
▁intrap
▁8.3
▁contamin
▁supplementation
▁hemorrhage
▁72%
▁349
▁Statistical
effects
▁evaluates
▁metatar
▁tachyc
▁183
1.
▁encompass
itro
▁Experiments
▁psychosocial
▁perox
▁tuberculosis
▁echocardiogram
▁fracture
▁36
psych
▁neoplastic
▁SG
▁apne
▁embryonic
atoma
orectal
▁86%
▁practitioners
▁1.16
▁genit
ereb
▁enzyme
alp
▁excitation
▁synthesized
▁macropha
IgA
▁Gyn
▁dementia
▁(90%
iscal
rhea
▁PSA
▁fibrin
▁strand
▁Hispanic
pecific
▁granule
compared
▁supernatant
▁exis
▁CK
▁Subsequently
▁dehydrated
▁termination
▁unpredictable
▁cereal
cinolone
olesterol
idin
▁atypical
▁elevate
▁transplant
▁glutamate
▁flashes
▁postoperatively
▁elevated
uvate
▁Indo
▁blin
imin
▁37
▁MAP
▁preceding
60
reases
essel
▁withdrawn
▁0.70
▁20,000
gia
▁osteoporosis
▁apo
▁clindamycin
organic
0.9
ocytosis
▁plasmids
idate
5.
▁tubercul
clonal
blocker
▁rheum
▁instruc
▁depolar
▁assemb
▁sti
▁elicits
atally
▁ATPase
▁interstitial
▁rejection
7),
▁morphine
▁buspirone
▁glycine
ayed
gag
▁108
▁difficul
▁questionnai
▁atheros
feren
▁80-
▁regen
▁300
7%)
▁prolif
▁multis
8).
▁17.8
-[
▁tumor
ynthe
leukin
amethoxazole
700
lora
blind
cribed
▁85%
▁biopsies
eptide
▁Laser
mature
▁frac
neph
▁0.1
▁daytime
trib
▁Subjects
▁exer
inositol
▁perfusion
dip
esic
▁(28%)
actin
endri
▁mediating
phasic
odiazepine
▁Successful
▁rheumatoid
-35
▁follicle
terase
1/
-1.6
▁Maximum
▁[125
▁endothelium
▁deoxyrib
▁azithromycin
▁zinc
▁shor
▁focal
103
hepatitis
▁isolate
icine
rine
surgical
olum
rected
▁corticosteroid
▁electrolytes
-15
▁vesicles
fication
ompan
▁enti
▁hypogonad
contrast
▁alterations
ocellular
▁actin
▁rabbits
▁104
21)
parous
atible
▁lutein
▁0.001)
▁3.1
2+-
▁arginine
▁immunotherapy
▁chond
years
▁complementary
▁microorganisms
▁weakly
▁ruptures
▁alteration
▁cyt
aemia
▁resis
dle
▁interim
8)
erant
gus
7%
▁neurologic
▁occlusion
jury
iagn
▁judged
▁articular
▁255
▁RBC
lipid
osac
▁defective
▁Tolerance
OH
▁CRF
gland
oprolol
greater
▁sorb
▁lymphoma
00)
▁compares
/24
edocromil
15
ophils
tituted
entile
valine
ysts
teria
3/
▁systolic
▁verte
▁influenz
▁encephalopathy
▁lysine
▁crosso
▁ionized
▁diphen
▁60%
▁Highly
▁worsening
▁emphasized
32
▁accumulation
▁differing
tries
umably
▁mIU
phrag
▁adhesive
▁antigenic
▁serolog
▁selectively
▁SDS
vaginal
▁171
hig
▁ACI
▁dentures
acted
▁compositions
1);
teroidal
▁sutures
hydrop
▁adi
(2
▁statistically
specifically
▁55-
▁0.14
▁leu
▁immunore
-50%
▁transplantation
▁duplex
52
▁(56
▁cerebral
ardias
▁expulsion
affec
▁30%
▁Transient
▁establ
▁assis
ygous
▁immobil
▁stringent
▁alanine
Lac
feron
▁IBS
entral
▁thal
osterone
▁Lactobacillus
aldosterone
▁neuron
23187
▁109
1-1
▁Physicians
tub
▁17.
▁CI
roxen
▁leukocyte
▁uncl
otoxin
70
▁hairs
▁virtu
mostly
▁staging
ucas
▁dihydro
▁165
ocytes
smokers
ticular
▁chemically
eptic
▁relapses
▁7-
▁methodological
iciently
▁LDL
▁2.4%
200
ionate
▁persistently
nec
▁eczema
▁22
0.
▁hypothalamus
▁79%
▁intraper
▁predictor
SAID
▁nadir
orated
tisol
fused
▁106
▁fetal
▁mU
ystitis
▁RV
▁(36%)
▁neutrophil
▁degeneration
▁2.8%
arginine
operatively
agonist
/18
▁discontinuing
▁kinases
▁congestion
▁protec
▁concomitant
-1.1
▁GTP
▁mimic
▁50%
cholesterol
50).
▁incubation
▁10.8
▁docum
fiber
avail
▁tracts
]-
▁reliability
12.
▁Infection
ropriate
▁administered
▁acces
▁receptors
▁melanomas
▁scans
▁communic
▁rhabdomy
▁sperm
▁inconclusive
endix
▁fung
▁mammography
▁assessing
▁0.77
-1).
aptic
▁0.58
orubicin
▁steroids
▁concurrent
▁metabolism
322
omized
taz
▁oxym
▁130
▁Prospective
▁slowing
▁mononucle
▁clonidine
▁tec
▁hams
▁shorten
inemia
dor
▁lowering
respective
▁manu
▁competent
wk
ller
▁caro
elong
olism
▁nasal
2%
▁eradic
▁angioplasty
▁prognosis
death
-14
▁20%
▁synthesize
▁10
hicle
atation
▁subun
▁jejun
▁ingestion
▁hybridization
ocardi
convulsive
icin
▁nude
▁transcription
iphene
rogesterone
▁urtic
ucose
jac
▁purified
tia
▁endot
enters
▁entero
▁tendons
tif
▁Seventeen
▁specifying
▁-2
anol
ifed
▁ethanol
▁lymphadenopathy
▁50,
clamp
aceous
▁MM
converting
17
▁resol
atum
▁35-
▁clones
▁adjuvant
▁Adherence
IH
uris
atectomy
▁neoplas
ceptive
▁10(-8)
adine
esophageal
▁NMDA
▁creatine
▁leuc
▁NSAID
ivary
iminary
grees
▁tachycardia
oscopy
▁intermittent
▁bovine
▁azathioprine
bac
▁VP
▁Plas
▁(10
trophy
▁insertion
hetamine
▁oils
▁diffuse
exin
▁prosthe
▁radiography
▁concep
minis
ervical
LN
agonists
igl
▁(45%)
hydramine
▁recipients
▁biochemical
tiazem
▁headaches
▁250
terolog
adenoma
▁sensitiz
▁pyridoxine
▁7.4
oplasmic
7;
▁1.6-
▁14%
▁leuk
▁granules
tention
▁aggression
▁phorbol
ochem
8),
alene
▁benzyl
▁FD
▁sut
▁antenatal
▁Pretreatment
▁relapse
▁posth
▁sci
▁mediated
▁eti
2.2
▁acutely
▁chan
▁edema
▁13-
▁psittac
echanical
▁goiter
▁cerebellar
▁repro
▁tibial
▁PID
▁lipids
▁(1.3
86
▁3.7
▁codon
▁outpatient
eal
lym
▁incorporation
sants
ected
▁cryp
▁upd
▁uterine
▁vesic
▁hemoglobin
▁disturbance
agin
48
▁macrophages
▁perforation
▁96
▁etretin
▁valu
▁283
Ep
▁enal
tiv
▁enlargement
▁spor
▁62%
3+
HDL
▁fetuses
▁resonance
▁146
disciplinary
lycemic
▁conjunction
quit
▁predictors
visual
▁anatomic
3;
amol
▁2.3%
▁EI
occi
▁laparoscopy
▁aluminum
▁carbohydrate
▁ablation
roximately
▁Americ
▁epilep
3%)
▁ultim
▁evoked
prandial
▁halothane
olecular
▁0.54
▁dendritic
▁1200
▁neutrophils
▁disclosed
▁Caucasian
▁intravenously
sibly
orec
▁mM
▁LT
▁218
▁fossa
▁immunoblot
ellar
▁weighed
▁adverse
▁serum
BMI
▁(0
▁saturated
▁80.
▁histological
▁cereb
▁nebul
▁2.1%
▁merit
▁leukemic
▁Evidence
▁identifiable
▁(44
43
tent
▁stent
rophilic
▁functionally
onin
reased
.7
kDa
▁incompetence
apine
trophin
▁cohorts
▁nondiabetic
▁IB
▁adduc
▁OD
hort
▁NGF
▁nicotine
▁extraction
▁cyc
▁16
▁protoc
rocytes
▁analgesics
▁acne
▁antimicrobial
duced
hydration
▁hydrox
▁24,
glutin
▁elucidate
titial
ampl
▁0.49
-1.0
▁obstetr
▁sulfonylurea
▁unrestricted
deple
fatal
albumin
▁sonographic
luc
▁calves
▁spermat
▁exhibits
▁rebound
▁155
▁ventric
▁stripe
▁wean
fortable
▁detrimental
▁affec
▁SEM
pregnant
▁monke
▁fibroblast
▁unin
▁phosphodies
▁0.7,
▁emulsion
vastatin
▁Factors
enteric
oceptor
▁(100
▁acco
▁radioactivity
▁targeting
▁melan
eptidase
odon
pretation
▁-0.7
▁postmenopausal
▁anesthe
gian
▁overt
▁hemorrhagic
▁endoscop
▁commercially
activation
▁postnatal
▁carbonic
▁anhydrase
▁repetitive
▁orthostatic
58
tomized
▁immunosuppres
▁attributable
▁87%
▁anemic
adenosine
▁5'-
▁HDL
▁(15%
ostic
ygo
10)
▁matur
▁PAF
tide
▁graft
▁analyses
▁lacks
105
▁myelin
▁(400
▁20.5
▁135
▁34%
illin
▁loos
▁Decreases
▁reacted
▁adenocarcinoma
isters
▁reticul
▁vitamins
▁Cyt
▁pharmacists
▁immunogenicity
iary
▁pati
epine
▁phenyl
ventional
▁preoperative
▁theoretically
▁glucocorticoid
irds
▁intolerance
▁hypokalemia
asthmatic
ubs
▁infused
omyces
visc
verbal
▁inactivated
ositi
▁TI
▁indicators
▁reflecting
ighted
brom
▁fumarate
-8
▁Reduction
▁reiter
▁SHR
▁isoniazid
otyp
limb
educed
▁intest
▁thir
▁1.4%
Bs
adequate
▁disabling
ophen
▁endotoxin
amyl
meas
▁170
▁(14
formin
▁disseminated
-90
ults
▁superficial
▁percutaneous
onas
essive
▁defic
tured
▁3.5%
sies
▁recurrences
▁mutant
▁PGA
▁recurred
▁depres
▁thrombosis
▁2.5
lact
▁correlate
7-
▁fluoxetine
▁noradrenaline
tures
▁phosphatidyl
▁covari
▁ratios
etence
.3%
promoting
▁lep
▁285
▁sugars
▁(1).
▁prostaglandin
▁modalities
ellular
21.
▁breakthrough
▁Likewise
otypes
mum
▁obstructive
▁cosmetic
▁irrever
dibular
athione
▁Relative
ecre
▁-15
idis
▁occult
▁intercourse
acil
▁phle
-3-
▁implant
imination
▁phosphate
rologic
▁cephalosporin
physiological
▁[3
▁lumb
-22
odg
▁impaired
36
cyclic
▁44
▁pathologic
▁cellular
▁(5
▁invasiveness
▁guanine
edding
▁obser
125
tron
▁discontinuation
▁208
▁90%
▁postoperative
▁Oste
▁statis
Cer
▁persisting
▁suture
olates
teine
▁41%
tigo
▁30%.
ticle
anic
▁PPD
▁translocation
▁Lyme
▁hepatotoxic
▁propranolol
oyl
▁inhibited
▁RNA
▁selectivity
▁inhaled
nee
monella
▁breaths
▁plaques
tations
ystic
)2
ophysical
▁ketoacid
▁enl
▁159
aternal
tions
▁delaying
mend
icides
▁tumours
▁0.67
opathology
lodipine
▁chromosomal
▁Bec
▁coval
▁63%
▁unrel
▁5.5
▁Specificity
▁lamina
▁microb
odiaz
▁18,
▁Specifically
▁ointment
0%
▁variants
tense
▁eliminating
▁gemfibrozil
ported
▁Alz
▁regar
▁0.8
salt
1.0
odip
▁mesenteric
▁46%
▁proximal
▁bladder
ocytic
▁attain
21
iotics
achn
▁polyclonal
▁osmotic
▁divertic
valent
▁liposomes
ilized
2-
▁5000
▁(78%)
▁epidemiologic
erent
Ig
▁achieves
-81
▁elevation
truc
▁lithium
▁projec
23
▁0.12
▁thi
▁cen
fusion
posable
▁0.08
▁microtub
histamine
ochondr
adm
▁tolerate
▁PRL
:30
▁adenomas
44
▁nore
▁tricyclic
cents
▁25%.
▁thromb
enil
▁dendrites
▁conformation
▁20
▁ischem
ubation
▁activator
▁wheezing
▁trichloroacetic
▁Pseud
▁analgesia
▁affinities
injection
▁polyc
dial
▁CG
▁positives
▁couns
▁scrotal
thmic
▁acqui
+]
▁thiol
▁95%.
▁49%
▁varicella
▁demonstrates
▁nM
▁definitive
alanine
▁colpos
▁interpre
▁2.5%
▁33%
mega
▁Biopsy
▁prostatectomy
uncture
lycemia
▁resul
▁stratified
8+
▁6.2
▁detectable
▁mug
▁10.7
▁9.5
▁5.4%
▁mep
▁59%
vascular
▁0.71
▁epsilon
sia
-1)
▁-6
ytoin
▁uptake
▁34
ominant
▁Caucas
▁anastom
▁68%
▁benz
▁-0.8
▁serologically
▁TM
▁proportional
stranded
▁predictive
▁(8%)
-1.4
▁uncom
ALT
▁suicidal
▁revascular
▁diazepam
ocomp
▁cytosolic
▁spi
apride
aemic
▁unipolar
▁Lact
▁5%.
▁cruc
▁molecule
▁carc
▁rati
▁27
etus
oretic
▁5.3
▁3%.
▁0.98
▁cephal
▁neurop
▁aro
ocin
amilton
▁initiate
▁kcal
▁hypothe
angi
▁mumol
obenz
▁supplemented
▁glutamic
uctose
▁postmortem
▁hospitalized
phal
▁paired
exposed
▁(69%)
▁implicated
▁(67%)
zymes
▁promo
▁quinine
acrine
▁intake
▁glycogen
4-
▁Inhib
▁pH
▁sinusitis
-70%
▁deficit
LISA
phosphorylation
▁monkey
albuminuria
▁unilateral
ecretory
▁bowel
▁lymphocyte
▁0.06
CHD
▁helical
▁Hib
▁100%
▁1%
▁(69
reported
tero
ropine
▁numb
▁tonsillar
amilies
0.5
▁Progesterone
▁pea
▁elong
▁androgenic
elvic
▁fathers
▁intrauterine
ensitivity
plants
tents
▁19%
▁1987
▁suppressor
▁phosphatid
injury
▁1986
▁genotypes
▁intrav
▁neurones
itriptyline
▁48%
▁ison
▁regulate
semin
▁176
erable
cture
▁rhy
88
▁nonsteroidal
▁Addition
▁nm
▁noc
NH
▁Functional
opulation
tak
▁aided
▁192
LV
▁lactation
▁antitumor
▁mono
▁ipratropium
EMG
ocar
▁grafts
ealand
ritic
▁somatostatin
▁athe
immunoreactive
weighted
▁provoke
puts
▁Estimates
▁GAD
obronchial
▁DVT
▁strokes
▁15
achol
▁etiologies
uestionnaire
etween
▁CAL
▁perit
▁deletion
tively
▁splen
▁empiric
isoxazole
ducible
AO
▁18%,
▁radiotherapy
▁fla
▁filtration
▁medial
ergency
▁150-
▁confirms
▁osteopenia
▁lorazepam
▁14
▁anemia
omies
▁quinolones
abain
▁(5%
10
▁mRNA
▁Epidemiologic
▁(24%)
▁40%,
▁36%
▁Thir
abies
lys
▁unco
▁adren
▁centrifugation
imentation
▁fibres
▁infrequent
osts
adication
opam
▁enlarged
▁PEF
▁immunological
▁dus
/1000
aline
▁cardio
▁pylori
phor
gene
▁mobilization
▁CDC
▁gastro
,2
rophy
▁seroton
▁Pertussis
ocys
▁10.
▁gastric
▁physi
▁endarterectomy
▁40,000
▁newborn
onidine
▁corpuscular
▁pertussis
▁heterogeneity
▁17.1
ostatic
LTS
▁Replacement
▁pressures
▁IgG
anine
henyl
eclampsia
Tc
▁6%
anide
▁1,
▁lem
▁ach
▁4.6%
▁hypoglycemia
▁94%
▁incis
▁orally
▁evaluations
▁2.5,
▁differenti
▁EEG
▁Alzheimer
▁visualization
▁triglycer
▁facilit
▁treadmill
▁enalapril
coh
▁aorta
▁antif
▁neuropathy
tion
hydroxyp
▁0.05
▁normotensive
▁natriuretic
▁coordination
▁excretory
elec
▁digoxin
roth
▁7%,
▁152
▁arachid
▁resec
4,
acquired
▁isomer
▁synovial
tropin
▁8.
110
▁29
▁consul
▁necrotizing
Daw
adrenoceptors
stimulating
▁(4.3
▁impairs
reactivity
0.1
▁stimulation
protein
▁Outcome
▁Mild
▁fertil
▁inad
▁regression
LU
▁psycho
▁incom
▁heterogene
1.2
reduced
▁iatrogenic
▁cytos
plantation
▁1.1
phosphamide
▁devi
▁1.21
ethyl
▁45
▁endemic
▁coag
▁audi
▁lateral
▁hCG
uccess
▁66
▁gluten
▁proteinuria
azepam
▁biopsied
▁Phen
▁equivocal
▁muscular
sible
ochrome
▁infrequently
▁indi
urban
▁16,
rents
azep
▁colitis
▁bicarbonate
▁90
▁keto
▁algor
tein
imide
▁tet
300
▁sedation
charged
▁OC
▁cefaclor
▁depressive
▁perioperative
▁estrogenic
▁initiation
gative
tussis
▁tended
7,
▁nulliparous
▁1983
aryngeal
usp
-79
▁spectro
fine
▁erythrocy
▁menstruation
▁31%
mediated
▁degradation
▁ovulated
▁pathogenesis
▁Estrogen
▁ND
Ts
▁immunofluores
tabol
▁fluconazole
▁challen
▁ACE
▁nonf
▁(0.1
▁peritoneal
arental
▁monocyte
otom
▁11
47
rowth
000
▁DMP
▁osteoporotic
ymme
atibility
otropin
emak
14,
tabl
▁(5-
▁90.
ivered
ventilation
othi
▁0.21
▁esophageal
-10.
▁neonates
FU
▁cows
▁139
▁suppos
▁12.
▁HeLa
▁UT
▁enox
▁symptomatology
otox
iversity
▁psychopathology
zinc
▁dilat
rosine
▁immunos
(4
▁glyburide
▁thyroxine
▁spacer
▁shunt
oling
▁262
bran
aturia
▁induction
▁0.00
cutaneous
onephritis
enol
▁8.5
loon
athetic
▁glycosylated
▁40.
▁rehabilitation
aerobic
▁swelling
▁VAS
cys
▁vascular
▁parathyroid
▁cancers
▁43
▁prescriptions
▁6.1
▁(12
treatment
containing
▁methionine
ausea
anese
▁binds
▁gamma
ration
taining
▁EBV
▁desatur
▁retinal
▁Changing
▁onset
acti
▁Bacter
▁prolongs
3),
Hyp
othiaz
▁calor
▁(25%
Rs
ylline
pressing
phosphor
▁bypass
▁Inventory
▁arteries
▁bran
▁uro
▁0.5%
mol
oscopic
▁tas
▁bioavailability
▁CHD
tradiol
▁0.59
caro
.4
▁spind
▁restor
umping
▁metformin
▁resour
▁synthesis
▁Cd
▁doxazosin
▁hemo
phil
otrexate
▁underwent
▁10.4
▁modulation
▁induce
intestinal
▁inhal
atropium
▁dizziness
▁Stroke
▁suction
▁Transi
▁primiparous
▁labial
▁electrophoresis
▁87
▁48-
-1.
▁(92
▁differed
productive
▁ATP
ogeneic
▁hydrop
▁antic
▁(62%)
▁appendic
▁necro
▁albumin
▁natri
▁gonad
▁Haem
onary
divid
▁inters
pharmac
onuclease
▁(2)
lude
▁serotonin
▁diclofenac
etaz
adiol
▁lymphoid
▁carbachol
▁reversible
▁reversing
hion
▁immunodef
.9
▁luteinizing
-9)
25
▁NMR
▁hydroly
▁Testing
▁seizures
▁Chlamydia
▁cAMP
okinetic
▁cathe
▁sprin
resist
▁yr
ulitis
retin
▁characterizes
▁256
Cu
directed
▁0.47
independent
▁Sprague
▁vacu
▁grains
▁IgM
▁metered
▁340
▁diaz
amphetamine
▁menopausal
obac
▁enzym
79
▁47,
▁investigator
▁carpal
-6-
▁stools
▁-9
opi
cellent
▁succinyl
▁marginally
▁unil
adenomas
▁incompletely
▁cytoch
▁adolescents
▁schizophrenia
▁colonies
therapeutic
ulla
▁irradi
▁fatigue
▁(13
rological
▁alcoholic
▁disturbances
rosy
▁carbox
operative
▁levamisole
9%
tized
▁5.5,
▁fron
▁reti
erin
umented
▁adenosine
▁Candida
▁cytochrome
▁24%
▁172
▁166
▁progres
▁(0.0
▁286
▁markers
obarb
▁canc
▁Calcium
titu
roxicam
▁biphasic
▁progen
▁(82
▁Steroid
▁acidic
▁cortical
▁polypeptide
▁eighth
alb
(2+
▁moiety
IU
▁BCG
▁40-
▁waking
▁cleavage
▁retina
▁Lipid
▁0
▁tach
entified
▁unnecess
▁8.6
▁venography
▁abnormalities
▁clu
▁confirming
▁58
otherap
(5
rography
▁qualit
▁radiograph
▁transaminases
▁suppressive
▁trimethoprim
▁Fourteen
▁TP
WBC
▁previ
▁projections
▁metastases
pinal
▁subgroup
ylchol
▁hydrocortisone
orac
▁cerebellum
veness
hips
▁conserved
ylation
▁interv
etent
▁molecules
BMD
120
zyme
▁macrophage
carotene
▁cholinesterase
▁retard
▁deoxy
▁positional
▁anat
▁overestimate
allium
▁inward
▁sput
▁infusion
▁162
▁Nineteen
▁screened
gents
▁11.8
▁infarction
▁-7
tructive
growth
▁agonist
▁desm
▁readings
lop
▁inhalation
pyr
ophor
ventive
immune
▁nig
ometers
▁ery
▁21
▁70.
rates
ochromatosis
▁Mg
phrine
oxid
amole
▁phy
▁asymme
arrhythmic
▁margins
▁synerg
▁prognostic
▁bronchospasm
▁Ultras
▁(1),
▁MRI
osteroids
▁deviation
triglycer
▁analogues
▁Serum
▁antigen
▁oocytes
▁myopathy
▁metic
▁glucocortic
▁clon
▁Nit
▁reversal
▁43,
▁150,
▁exag
▁proteoglyc
▁antibiotics
▁interventions
▁obstetric
▁sediment
meg
▁4.6
▁internally
oplasm
tency
yclic
▁tiss
▁MH
▁ester
loride
3-
▁backgrounds
▁adver
▁incubated
▁fluorescent
renaline
▁9
Gy
rotid
-3
▁certainty
▁differentiation
▁sulf
▁dissec
tors
▁infancy
ergen
▁Tissue
35
▁IGF
dered
62
▁correlated
gressive
orenal
ogenicity
▁215
▁chec
▁differentiated
▁pretreatment
▁NADPH
▁equilibr
-6,
acyl
▁admissions
▁perinatal
▁genotype
-1000
▁3.4%
▁exogenous
▁TSH
tural
andida
▁0.09
butamol
▁inhaler
▁TDI
▁clinically
▁aden
▁(95
distal
▁131
▁valproic
▁intractable
140
▁quadrup
▁epiderm
▁2.1
0,
vul
▁Intra
▁(40%
tracted
oxyl
▁oste
▁erosion
▁perfor
Phe
▁0.24
▁effector
▁attemp
timulus
inesterase
▁influenza
▁(+/-
▁inhibitor
ifedipine
▁infections
lusion
▁constipation
▁193
throm
▁monotherapy
▁prospectively
▁colectomy
▁reas
▁0.20
olipid
▁cep
▁cellul
▁isoproterenol
▁polyacrylamide
▁malignant
▁chloramphenicol
▁xyl
igaret
'-
ROS
▁4
▁13.2
▁Sixteen
▁0.74
bodies
▁glycerol
▁singleton
▁muc
+)
▁miti
iterranean
formations
▁excre
tivities
▁smears
coag
▁efficac
onvul
▁65
▁rheumatic
▁acros
-5)
ymal
▁gluc
-52
▁inver
▁peri
Ace
▁inadequate
promazine
▁antiser
▁17.3
tism
leb
antoin
▁amput
▁(62
▁(198
▁mutagenesis
polyacrylamide
▁electroly
ococci
▁instrumented
▁steroid
oradi
▁DCA
tually
▁papillary
▁compartments
▁tubules
ociated
▁compressive
idney
▁implic
▁defec
kelet
22
▁53%
▁analogue
glycerin
▁targe
9%)
elic
sul
▁264
▁secretagogues
isal
▁ureter
▁catalytic
▁oximetry
▁autosomal
▁pellets
▁bony
▁semen
tribution
▁NADH
▁neoplasm
▁deduced
-6)
▁aerob
opathological
▁0.5,
seud
▁coli
Kd
▁206
▁capsules
▁0.62
ducts
▁fibros
▁irregular
anking
ropyl
▁absorpti
trial
▁axons
5]
▁cyan
idic
▁BP
▁satisfactory
▁augmenting
anin
▁gynec
▁Mn
▁microvascular
▁(11
▁60%.
ognitive
sian
▁Statistically
▁gonadotrophin
▁cutaneous
▁antifungal
100
)],
eptid
oglobulin
ronchial
-78
illation
▁114
▁strep
opres
/1
reness
▁spre
▁spasm
▁1986.
reening
▁surgeon
olac
▁assay
▁10%
▁excised
zine
affected
▁modestly
arean
▁arousal
PSP
▁predic
▁COPD
ncy
▁pyruvate
▁Raynaud
fetoprotein
ritical
▁spikes
olol
edema
▁practitioner
▁memb
propanol
▁exce
parathyroidism
openia
▁Finnish
ariate
ordination
▁topical
▁0.34
expressed
ucine
▁hematuria
▁transcrip
▁protease
▁terminus
▁Lys
fibrozil
itus
▁(40
tum
▁LHRH
▁Surgery
5,
▁recordings
▁embry
▁stromal
▁corneal
▁75-
4.1
▁7.5
fir
▁gonococcal
drug
▁LD
▁regulated
▁pyl
▁decarboxylase
▁228
bic
▁contraceptives
▁undergo
▁1.7
▁bacteremia
epithelial
▁putative
▁folate
▁38%
▁Adequate
▁64%
▁depr
▁5.
HF
▁glyc
▁nucleotide
▁cataly
▁221
vian
▁levodopa
▁interp
azepine
▁lipophilic
▁erythematosus
▁polymy
tte
▁bladders
-24
▁0.82
.8%
▁4)
lline
▁11.
▁esophag
▁17.7
▁5%,
▁preceded
razole
rhy
▁xen
▁49,
▁cyclosporine
▁lapa
venty
▁pall
▁chromatography
ughters
opar
▁Thi
▁90-
-100%
▁astro
itudinal
▁cla
ordin
▁selen
9,
spectrum
▁tympan
▁restraint
ercul
▁pigment
▁recombinant
▁vagin
▁favors
▁pim
▁Ib
▁thyroid
Ti
▁cloned
▁cyclooxygenase
yro
exercise
▁(19
▁metabolite
▁hyperp
▁accounted
WB
▁carriers
diagnosed
▁Consequently
▁localization
effectiveness
▁transplanted
utions
▁radiological
onad
▁tubes
riched
omonas
ifferentiated
55
▁classifying
olem
raconazole
▁500,
immun
▁pyraz
▁1960
▁brom
▁irreversible
eces
▁hypocalcemia
▁supra
▁muscul
bacco
▁101
▁atopy
Ba
▁afferent
ocyte
tran
trimester
▁(1.25
vivors
rof
-]
▁sulph
ronectin
▁papill
▁AGA
▁(25%)
osage
▁resuscitated
stolic
uresis
▁preventive
▁thrombus
▁97
▁Vitamin
▁Protein
▁unde
▁astrocy
invasive
sue
▁10(-7)
umulative
▁22%,
▁encompassing
▁angi
▁ciprofloxacin
▁1
▁30%,
▁rehabil
tin
▁650
▁0.76
taken
▁(85%)
tophan
▁intram
▁1.2-
▁surgeons
▁Fib
▁auditory
▁fecal
▁1.6
▁idiopathic
▁vaginal
▁thiaz
▁glycer
▁Biol
buride
▁mammary
oterol
▁yiel
▁genomic
▁methyl
▁amin
▁Injection
▁parat
▁multicenter
kets
▁7.1
25,
olitis
▁phosphor
▁dissociation
▁sten
▁30
ocortic
▁cirrh
▁psychophysical
▁fas
▁oxidation
otri
▁10.0
▁depleted
thyroid
opus
ylic
▁myeloid
▁84%
9),
▁(48
▁82
▁metastatic
▁attenuation
inic
▁clamping
▁(0.
diabe
VH
▁microM
irub
▁3.4
▁interc
▁clarify
▁cac
▁caudal
▁107
▁(72%)
▁1.24
▁favorable
▁ulcer
▁.00
▁negatively
50,
▁evid
▁linkage
▁subarachnoid
▁respiration
▁17%
asive
ocalization
acental
0/
-34
▁ure
orption
medicated
▁exceptionally
▁unaffected
▁selective
▁carp
▁28
▁twofold
▁optimally
▁205
▁3
ymptomatic
▁osteoarthritis
▁rhin
▁incomplete
▁endometrial
Tu
▁examinations
▁inoculated
floxacin
▁theophylline
▁1.03
▁(140
8]
▁13.
▁lyso
acycl
▁swab
PCR
adrenaline
ffec
▁ipr
tomies
-3)
▁3000
▁stimulant
1.5
▁etiology
▁6.9
ucl
▁neoplasia
rays
▁CIN
▁gestational
MH
▁potentials
▁inactive
▁344
atase
▁facet
iae
ventil
▁intraepithelial
▁95
▁0.61
stim
▁afferents
atients
▁randomization
brile
▁(76%)
▁BALB
▁cumulative
ressive
▁shedding
▁nitrogen
▁35%
▁curet
venous
▁homogen
▁hereditary
ocor
▁aortic
thmia
▁carbohydrates
▁arrhythm
▁comprised
▁piroxicam
▁(3.8
helial
▁adulthood
ogens
▁serotonergic
melan
▁0.75,
▁Systolic
▁unexplained
▁bup
▁chlorhexidine
▁anesthesia
▁1.08
ropath
▁70%
▁residue
▁lysis
▁Dys
▁4.2%
▁1964
▁loci
▁attenuating
▁awak
▁randomized
▁favored
▁gradi
10,
▁purification
/10
urys
▁prostatitis
▁ocular
aturity
omial
utyr
▁pell
.10
▁syphilis
▁75%
heximide
oxicillin
ATPase
▁75%,
kephalin
▁213
tening
titis
▁contraction
5)
▁subunits
▁canine
▁pla
▁0.50
ogl
▁asymp
▁fulmin
vac
▁DH
erative
▁nephropathy
▁cartilage
jun
inephrine
▁atyp
molec
▁Adh
▁mucosal
▁acetylcholine
nons
▁thrombo
▁(49%)
▁renin
8-
▁0.01),
▁1.2
▁histopath
▁7
▁persists
▁abor
ropo
ifferenti
▁(32%)
▁congestive
▁4.7%
▁infiltration
▁clearance
▁tubular
loro
▁rabbit
▁synap
▁1%.
chers
atonin
vely
tead
▁addic
▁Sulf
ulcer
▁indus
aminergic
▁cardiovascular
▁3.2%
▁exhibiting
▁durations
2.
▁nuclei
erving
▁78
▁physiology
▁Plasma
CoA
ectom
omal
▁biosynthesis
50
▁GABA
uran
ritis
▁encomp
▁distinguishing
▁reag
▁resistant
piration
unar
sant
yocardial
75
▁donor
▁cramp
ulatory
▁PEFR
▁59
astolic
▁GE
ermal
tist
0.7
ococcus
▁calorie
onstric
▁membran
▁128
▁resemb
▁560
rein
4),
▁incontinence
19)
▁mammalian
▁substitu
▁isop
▁sampl
▁80%.
▁Diagn
▁demonstrable
▁elimin
▁3'
yel
oligo
rotal
▁placent
▁Older
rozen
▁catheter
terone
40
450
lysis
vate
▁norepinephrine
establ
ongest
ternational
lyb
▁tremor
▁physiological
▁livers
▁lamin
abd
ophy
▁31
▁11.5
▁wors
▁muta
▁inhibitory
onatal
blockers
cretion
onomic
▁0.1,
33
roids
▁amplification
▁dermatitis
▁dele
▁BAL
▁excitatory
▁Intensive
PV
SDS
▁quin
onc
▁0.4%
jec
▁177
▁235
▁multiv
▁valve
▁subjective
▁0.93
▁epithelial
▁succin
/-
▁generalized
▁connec
7.
▁journals
oglobin
controlled
▁beha
▁perin
trover
41
▁filaments
hyp
yrox
benefit
Ni
,000
9-
quine
transferase
▁rostr
▁209
osition
▁usefulness
▁(31%)
uting
azin
▁precursors
▁53
▁gradual
operox
▁7.5%
▁147
▁therapies
▁coenzyme
130
ronate
▁caregi
thyl
▁ferritin
apanese
▁nonin
roscopy
▁triamcinolone
▁wards
▁alopecia
tage
▁Km
administration
▁hyperlipidemia
inopril
▁messenger
▁Enal
▁advan
▁radioimmuno
▁500
▁dopamine
▁hyperglycemia
▁(5.1
▁disapp
▁reproducible
labelled
▁clinics
95%
▁conges
▁Localization
▁700
▁3/
umetanide
lactating
etine
osides
5%)
▁0%,
▁(18%)
▁tetr
▁enriched
chlorothiazide
▁parac
▁tox
▁sorbitol
▁neurological
crimin
▁24-
▁cros
nish
▁addi
jug
examination
▁immunization
▁CMV
amet
▁unrelated
▁phosphatase
bloc
ipr
▁pharmac
acylglycerol
▁alcoholics
▁adhe
▁inges
▁latency
mental
gA
entical
▁peroxide
atified
▁hairy
▁thirds
▁35
Ra
▁abstinence
▁hyperthyroidism
▁sulfoxide
orotic
▁distrib
oskeletal
▁calculi
-23
▁.05)
▁extre
▁inconsistent
▁immunode
▁257
ometri
▁bradykinin
zoster
opoietic
tel
12-
oprote
▁symptomatic
estis
▁Veterans
sensitive
meter
▁wt
▁hyponatremia
▁4%
tilage
atrial
▁2%.
▁CN
ionic
sion
diastolic
oride
monstr
▁comprising
▁ofloxacin
▁congen
vaccin
threatening
▁salivary
▁biased
flammatory
▁20%,
atab
ilibr
▁2.5-
othyroid
/20
▁aids
daily
lastoma
153
▁correlates
▁latex
▁0.2,
▁cytotoxic
▁doses
omiting
Au
▁Bacterial
▁agar
heat
oconstric
indings
▁PGE
▁252
▁interferon
4).
▁tissues
-16
▁tumors
▁14-
▁identi
▁anaerobic
SBP
sess
▁constituted
xate
▁lifest
epam
opped
▁0%
2,
▁perme
▁repres
lamp
▁quantif
▁hyperthyroid
▁0.000
adian
▁transluminal
tingu
olones
▁terminals
▁65%,
bular
▁heteroz
tenti
▁fulf
▁socioeconomic
oprotein
▁angio
▁conception
▁extensor
▁discriminant
▁verapamil
toc
▁chromat
▁dissection
69
organisms
▁morbidity
iplinary
esia
aryn
▁ultrasound
▁1.
▁arter
▁microbi
87
▁fasting
molality
erated
brain
2).
exis
▁endos
▁aeruginosa
▁3.6%
▁protr
▁Hz
abdominal
ipro
