▁ischemia
▁dendrites
17
phrine
▁halothane
▁perox
25
▁Pseud
esti
RNA
▁insec
olytic
▁cholinergic
▁41
irradi
▁saturable
rength
olamine
▁electr
ancement
oagulation
▁Alternative
otoxic
▁phag
▁Biochemical
uccessful
▁exo
▁cartilage
cis
▁overweight
▁phage
vian
▁dismutase
.7
▁inhibited
▁immobil
▁mediates
▁gels
▁epiderm
▁(3
▁gonad
▁simultaneous
▁microc
▁forskolin
▁amy
▁pyruvate
▁aspiration
9,
▁luminal
▁12,
▁prognostic
▁discrimin
gression
trition
▁vertebr
▁5)
▁WHO
▁pulmonary
▁2.3
otrop
▁abolished
▁resear
▁bronchoscopy
unced
▁naltrexone
▁arrhy
▁consequently
▁diges
▁TCR
ointing
▁lavage
▁severity
▁differentiated
▁fibrillation
▁eliciting
▁unaffected
▁6
▁54
▁schizophren
▁disper
tracellular
rehen
▁transforming
ilep
▁phosph
▁triglyceride
▁dye
phal
hicle
adian
tradiol
▁directional
▁3.2
▁catheter
▁assis
uin
▁autopsy
▁impaired
▁specimens
▁4%
lym
trated
ophy
▁LT
ivered
▁VLDL
othel
▁MH
▁bronchi
▁exclusion
▁Forty
▁1.8
heres
grees
secre
▁thrombin
uvant
▁confir
vul
▁prednisone
▁transcription
▁cholest
▁thromboemb
▁aggravation
anking
tracted
▁electrocardi
▁PGI
▁perme
icul
▁kcal
▁selen
▁errone
▁myocardi
dered
▁oligo
▁displacement
▁IgG
▁elimination
▁proteolytic
erus
▁adolescence
▁vagin
▁correlated
▁ortho
▁endos
fos
▁TK
opus
▁capsaicin
▁relap
nine
▁94
ods
▁14,
▁ventricle
mitter
atial
▁characteris
▁Histologic
Ba
Ts
ths
▁neonatal
▁placebo
rotid
olenic
125
▁junction
tabl
otox
gans
comitant
sistent
▁histologically
▁ech
▁Tc
▁molecule
▁afferent
1-2
ostatin
▁asthmatic
▁canine
▁depr
▁FV
ctive
▁Experim
▁hypog
obarbital
erals
▁astrocy
minis
▁conduction
anish
▁68
iol
▁arteri
Ly
▁activator
▁proteolysis
pyr
▁CMV
Rs
▁Kd
▁atrophy
▁oxidase
odgkin
▁modulates
hap
estig
ntolamine
▁metabolism
▁shor
illation
▁puber
▁analogues
LU
estive
▁tes
opathy
▁homogeneity
▁assay
osidase
tinguishable
▁heparin
▁bypass
▁mRNAs
▁sham
▁arginine
▁scinti
▁SEM
▁filtration
cyt
eclampsia
▁ceased
▁attemp
ecyl
jec
rhy
▁melanomas
▁monophosphate
derly
▁strand
ineal
▁CAM
terologous
▁atten
97
▁investigations
▁cG
monella
5),
trip
▁clus
-2-
▁brom
-450
oxide
emory
ensities
ceptive
▁intestine
65
▁transient
iatum
▁Estrogen
▁oro
▁ADH
▁adenylate
▁Acute
▁subjected
▁uncomplicated
pH
▁uterus
tation
▁microscop
▁clinically
▁utilisation
ministration
▁cations
▁newborns
treated
▁PGE
▁nutritional
▁Atropine
▁irradi
ogenicity
▁overdose
▁4.0
▁isolates
▁46
formin
▁uremia
vae
▁hypother
anav
▁ligation
▁oxidized
▁recons
▁sclerosis
▁metastatic
▁progn
▁10(-6)
▁memb
▁carcin
▁sucrose
▁intracranial
▁peroxide
▁pneum
▁kinase
▁anastom
▁80
▁cla
▁benzodiaz
▁adhesions
▁rhy
thase
rocal
▁contracep
▁75%
-1)
▁metoclopramide
▁evaluating
▁plasm
▁cyclo
▁prostate
▁cortex
▁hapl
▁prospectively
▁Engl
▁prednis
▁apex
▁radiographic
▁unlabeled
▁150
▁RBC
▁transmembrane
▁initiation
abies
tium
▁implantable
▁Comparison
RH
▁prescrib
crip
▁valu
▁irrever
▁catheters
▁kappa
▁allevi
tam
▁cardiac
.1
▁fluor
athe
▁synovial
▁appreciably
stimulated
deoxy
▁EMS
▁localization
8%)
▁assays
atment
3%
▁reliably
ophylline
illic
urther
▁reflecting
functional
▁predictive
▁indetermin
▁acin
▁disturbance
▁supernat
tomy
▁liposomes
▁cardiomyopathy
▁radiography
5).
▁PB
infected
▁weakly
▁transi
▁degeneration
▁sequencing
▁oligonucle
▁polyp
achol
▁targe
▁fibronectin
sorb
zole
▁hydrox
-13
ithelial
rological
▁dosage
spective
enopus
lasses
iferation
▁hydroxylase
trib
▁ammonium
29
▁epitopes
hei
▁17
▁thems
▁allograft
▁gradients
▁(+/-
ocor
▁predictor
nowled
tent
tumor
▁89
▁CABG
▁conformational
attern
ediatric
▁phagocy
chloride
duction
▁VIP
aminergic
▁expenditures
-1
.5%)
▁efficacy
phosphamide
obacter
▁radiological
operative
▁MN
CRP
▁(19
▁hemorrhage
▁juven
▁stu
▁2.9
acental
omal
pation
▁cesarean
vic
urethral
▁isometric
tryptamine
-9
Ds
Au
tific
▁VO
▁hypertension
▁Lys
▁PHA
olecular
▁gallbladder
erents
▁endoscop
oretic
▁53
avage
oceptor
-30
▁hamsters
oA
IDDM
eptide
ollicular
▁corpus
astolic
▁upd
▁(18
▁cervix
operoxidase
urse
▁tracers
▁septum
rometry
▁omega
2-
/10
▁myo
▁evoked
▁inadequate
inic
chrom
▁conjugates
Ti
▁RB
▁alkyl
lec
▁pigs
▁amplification
▁(24
▁MRC
▁dele
▁confound
▁thrombolysis
-5
saccharide
▁promoters
-10
▁pathogen
▁hypers
ceptual
onuclear
▁kine
▁0.1
▁peroxidase
-2.
▁ery
▁7.5
▁corticos
▁vasodilator
8%
subs
▁81
KI
▁olfactory
tized
CSF
▁accep
certain
▁estimating
▁enzymatic
▁implants
enteric
▁expiratory
▁3.4
▁regeneration
▁validity
▁prenatal
adrenoceptor
-16
▁thorac
▁monomer
▁[3
releasing
▁mandibular
▁rostr
▁apop
▁horiz
▁UL
▁implicate
ylline
▁atropine
glumine
urrence
ameth
▁reperfusion
▁sinus
▁visually
▁isoforms
▁adenocarcinoma
▁adver
▁immunode
▁IgM
▁Blockade
iferative
12
kinson
▁methionine
▁facilit
severe
▁enl
▁vasodil
silon
▁HPV
phosphate
▁demonstration
lead
▁refrac
▁sial
▁atmospheric
▁thymus
EAE
alate
kele
▁disruption
▁autosomal
▁epilep
▁coeliac
▁CNS
olone
▁contractions
epine
▁fragile
arial
xual
5%)
▁exert
rapid
hers
▁pyro
▁chemotherapy
21
]-
▁lipase
▁interfere
▁susceptibility
▁nicotine
▁receptors
▁mellitus
▁moderately
veolar
▁hormone
▁inappropriate
▁interpre
knee
tension
▁1.5
▁26
▁dexamethasone
▁chemot
▁lipids
▁predicts
radi
▁incom
imin
thmia
▁ovary
▁65%
▁hyperplasia
opa
▁lowering
estim
▁proce
▁SDS
▁hypertensive
▁granulocyte
▁9
▁medulla
otactic
▁1.4
▁lept
▁cephal
▁leucine
tonic
▁hypoglycaemia
▁PAF
oleic
▁gait
▁PEEP
▁Chemical
fentanyl
▁8-
▁luteal
▁tyrosine
▁NF
31
▁adducts
▁11
aryn
esity
labelled
▁hypot
odynam
pinal
vity
oretical
ethyl
▁47
iloride
▁tau
-80
idney
stem
▁fati
▁alleles
0%)
▁follicle
▁establ
▁catecholamines
▁hospitalization
▁positively
etween
▁immunobl
.7%
▁98
▁hydrophobic
▁qualit
.9%
▁infusions
resses
▁enrolled
▁papillary
asive
▁Intravenous
kinje
▁atheros
▁bacteri
ithms
versal
▁intrac
Pa
▁episodic
ignant
osal
▁remin
▁12-
▁kerat
▁organs
phosphatase
▁spleen
onstric
▁triglycerides
▁supernatants
▁insuff
▁NMR
▁electroph
▁AVR
▁90%
onc
▁immuno
▁Fc
▁heteroz
endorphin
tox
tin
▁excitatory
▁phy
▁5'
molec
Cs
ucine
2;
▁occurrence
▁awa
▁genotypes
▁stric
▁prostates
▁ile
▁24
partum
edic
▁coexist
▁88
acetic
cribed
6).
▁deficiencies
lore
▁genome
openia
▁rup
▁carbox
▁stromal
▁envelop
inhib
▁coexistence
▁ambulatory
▁MEP
▁blockers
ocrit
▁deduced
▁3%
44
▁cataly
▁benz
▁prostatic
▁fetus
▁exhibited
▁neurotrans
▁blocker
▁CI
sych
▁anemia
▁amyloid
▁chloro
▁extracts
86
▁10-
▁fertil
▁1,
ithiasis
▁preconditioning
yrox
▁hepatocytes
azem
acted
▁respiration
▁fracture
IGF
4-
tead
▁erythropo
▁olig
▁cloned
▁Experiments
6,
▁1.7
glutination
usate
ovirus
olus
osition
▁linearly
▁influenza
▁multifactorial
▁androgen
▁adolescent
43
▁synchronous
▁mediators
ifug
peptide
▁hemis
chers
▁reconstituted
ectomized
▁Ig
OA
▁pharmacokine
roma
benz
▁regression
edded
acial
▁morphologic
▁recessive
ochondral
▁cytokine
pharose
▁strips
▁Comparisons
inemia
▁scans
▁prophylaxis
erating
▁developmental
Fs
▁cyclospor
▁confron
hospital
▁potassium
TG
▁pathways
-0
▁fractionation
▁corticosterone
▁aqueous
▁cardiomy
▁defective
adrenaline
acid
▁tert
alues
,000
▁preincubation
▁insertion
▁averaged
▁unevent
▁irreversible
erative
▁feasible
▁vesic
▁subsets
▁44
▁abl
▁pregnancies
tioned
▁unexpl
esthe
9%)
ifedipine
▁uncom
▁tetan
▁acces
lep
rae
▁underestimated
▁challen
▁tRNA
▁Vaccin
SAP
olipoprotein
▁0.001
▁3'
CAT
▁4)
▁births
▁phagocytic
▁adhe
▁adequ
icardial
▁Phen
▁dextran
drome
▁lumb
amet
uron
▁iod
▁compounds
▁evol
▁methyl
▁underwent
▁19
omedullary
▁throm
▁tec
2+
genital
▁interv
▁deletion
plemented
ubiqu
▁subpop
▁compart
oplas
aneously
▁reproducibility
▁coronary
▁abnormal
▁promin
▁apoptotic
chondral
overed
99
▁alveolar
tural
▁molec
adrenergic
NAc
▁trypsin
▁intravenously
▁inactivated
▁48
▁msec
ophag
▁Operative
ulatory
onset
▁cytotoxicity
▁accumulation
otomy
▁receptor
▁electroly
▁remission
▁sphinc
bacter
▁Accordingly
-6-
▁neurob
100
▁muta
▁deprivation
▁syngeneic
▁aromatic
uoden
▁anesthesia
▁decarbox
edullary
▁overex
oblasts
▁inhibition
▁migraine
▁cancers
▁inhibitors
▁reproductive
▁steroidal
renol
▁nifedipine
toxin
▁capsule
▁hemisphere
▁NAD
.9
▁integrating
▁vulnerability
▁histologic
▁spontaneous
▁glutathione
menopausal
▁dendritic
ulcer
▁unselected
▁.0
azol
▁commerc
▁epidermis
▁normotensive
5'-
▁1/2
▁lute
▁chromosomes
▁Medicaid
▁migrated
▁scoliosis
chicine
▁segmental
filtration
▁symp
▁clonidine
zymes
▁epithel
ocellular
tiveness
▁93
▁isoelectric
apeu
▁degrad
avail
utaneous
arginine
▁epidermal
▁inactiv
▁placent
▁chan
▁seroton
▁inoculated
feron
▁Greater
rologic
educed
deple
▁acids
graft
▁monitored
▁verapamil
▁Staphylococcus
▁traumatic
▁deficits
▁mann
orec
▁debridement
▁infused
▁abnormalities
▁8%
▁IGF
▁vascular
▁mammary
▁phenylephrine
▁anomalies
▁immature
▁(0
▁inges
▁subgroups
lapping
▁Tn
▁exce
▁Subjects
▁radioactivity
▁chori
tility
▁phenotype
▁chamb
LV
erent
▁monit
▁minus
▁77
▁42
▁increas
EGF
▁replication
▁polym
amino
▁undes
Tu
▁Calc
▁0.05
thle
urea
lax
IU
tate
induced
▁arter
▁mesenteric
blast
▁precursors
1-3
▁90
▁(54
▁pharmacological
▁occlusal
▁pyr
▁pneumonia
▁ultrasound
▁38
Gly
▁FEV
luding
▁resorption
▁1.0
▁0.5
▁fluorescent
▁septal
romycin
▁AE
ticular
▁neurologic
▁promoter
▁ATPase
6-
▁downstream
arterial
▁interp
▁exons
▁surrogate
veness
lective
atest
▁frac
▁caud
▁fibrosis
▁regulate
▁duc
ergen
▁angioplasty
planted
▁IUD
▁TC
▁cytos
▁lymphocytes
rolase
▁affinities
anthine
▁intermediates
▁menopausal
▁5
itre
7.
hep
▁transcriptional
orotic
icin
imens
floxacin
▁binds
▁mitotic
2(+)-
▁13
ensit
▁tubule
ensory
oride
▁coated
-24
▁3.5
▁transmitter
▁precipit
▁prescribing
carcin
▁antiserum
▁0.01)
orac
hemia
▁oxy
▁electrophoresis
▁globally
▁ions
orrh
▁PAS
▁manifestation
▁IU
▁metastasis
▁2-
▁counteract
▁bipolar
▁EEG
mature
▁cen
▁Rout
ifferenti
uginosa
▁pHi
tivities
kground
▁reticular
▁ruptured
▁undertaken
▁negatively
▁prophyl
▁hippocamp
▁abor
operox
astom
▁arthritis
▁epinephrine
alc
▁aortic
▁cumulative
30
▁procedural
▁aerob
ostatic
▁specificity
▁heme
▁pineal
▁Compared
endri
glutin
▁fibrin
▁colonic
▁normo
irc
▁bovine
▁62
duced
▁subf
▁acetabular
▁zinc
▁Pseudomonas
▁ETS
▁diaphragm
▁metast
▁exacerbations
▁libr
▁uterine
faction
topril
▁paraplegia
▁yiel
.1%
▁endoplasmic
estions
inositol
aicin
▁Plasma
3+
▁virtu
▁tib
▁PRP
▁penetration
phthal
ydig
▁arteries
undibular
▁chor
▁postulated
▁endot
otomies
keletal
▁aspec
utions
alp
▁cytoch
▁(1)
▁deterior
Gi
fib
olarization
▁kinases
▁persisted
▁chromosomal
▁viability
0,000
▁markedly
anese
▁warr
▁kidneys
▁immig
onium
▁electrode
ectin
▁ovari
isture
▁detectable
odialysis
economic
thanol
-5-
assium
▁obser
▁IBS
▁synergistic
raine
▁(0.0
▁develops
elec
▁genetically
▁proteins
▁hydroxy
urrent
▁psychiatric
FH
▁LD
acclim
chlor
▁[125
▁fluorescence
ameters
▁Adverse
▁addi
omyel
▁cancellous
tructive
▁struc
▁peptide
SAH
▁epitope
▁excitation
▁palliative
relations
▁transcrip
itrate
39
▁residency
▁hap
▁anastomosis
▁metabolites
pS
▁cyclase
atif
▁inh
▁Streptococcus
▁intram
▁lamina
trating
wes
▁parietal
sess
▁micros
▁crude
▁haemorrhage
▁intensive
▁pall
▁ventilatory
▁SCH
80
weighted
ranged
▁tonsil
▁prostatectomy
▁capillaries
▁propensity
ocompatibility
▁agonist
▁protocols
sA
▁cann
▁kidne
▁-0.
▁medial
▁micrograms
▁accounted
acr
▁phagocytosis
▁SBA
▁discomfort
▁triti
utin
hydroxylase
▁stimulated
▁(14
▁dendri
-2)
othane
otoxicity
alact
▁87
▁homology
▁preceding
▁cellular
antial
▁corrective
▁resto
▁NADH
KA
▁1/
▁adhesive
2/
▁incidence
TU
▁adolescents
olgi
▁Purkinje
▁physiological
▁ultr
alanine
▁epileptic
ystolic
▁Incubation
▁capillary
▁corresponded
▁metabolite
▁PEG
▁basolateral
▁phospholipid
aspartate
anding
spectively
▁4-
84
▁unsuccessful
carinic
olum
▁subpopulations
oten
ervations
resting
▁histone
abain
arers
oplastic
▁progestin
%),
▁Thir
▁biopsy
▁Inclusion
▁isch
tect
▁lactate
▁infusion
▁Cyt
ronectin
antigen
▁LVH
▁endocrine
▁contralateral
▁Phy
▁manifestations
oate
thmic
▁refractory
▁atri
▁synerg
taz
regulation
sible
▁detachment
▁questionnaire
▁Immun
▁biphasic
▁shig
arer
diabetic
-4)
truc
epti
▁Neu
▁innerv
depleted
▁diltiazem
▁testicular
▁Taken
▁recurrent
▁appendicitis
▁Measurements
ocyan
▁labelled
▁1:
▁paralle
tened
aterally
▁curative
rele
urred
ylcholine
▁hep
uminal
▁naloxone
▁(30
▁catheterization
▁recipients
▁Mn
lycemia
▁undetected
▁perforations
terolog
▁eradication
ucleation
.8
▁produc
▁HBV
▁chromosome
reness
▁attained
▁nomenclature
▁5.0
ofluores
▁10,
immunoreactive
▁pedig
mented
aminase
▁dimethyl
▁collateral
idement
▁poin
valent
responder
embrane
▁arrhythmias
tub
enicillin
protein
▁sympathetic
mig
.8%
▁cardiovascular
erox
elan
▁0.9
▁esophageal
▁196
-3)
fected
-11
▁Evidence
producing
mittent
▁dopamine
▁donor
▁cyt
▁fluoroquin
▁vivo
gents
tiz
▁oss
lesion
ogenic
viral
ocytes
ucle
▁substituted
▁MHC
tens
otom
▁51
ipar
▁Staphyloc
▁GV
▁continence
toph
▁cohort
▁NMDA
odies
▁erythrocytes
▁GBS
▁guan
▁tric
exis
sibility
icidal
farct
anuary
bral
▁LTB
athetic
▁statistically
34
▁Americ
▁indications
ometr
riton
▁RP
▁hydroxyl
▁labeling
▁carbohydrates
dial
▁2.0
▁neo
▁leukemia
▁fibrob
▁pharmacy
▁chronically
.0%
▁elongation
▁unco
▁adrenal
clo
▁carc
▁0.05),
▁supernatant
▁specimen
▁0.7
▁vomiting
▁pM
▁counseling
▁anatomical
olism
▁PCO
ylchol
acyl
erence
▁excimer
ocamp
▁allo
▁somatic
pendent
istar
bility
titial
▁divalent
▁suppres
ocardial
▁contributory
▁Previous
▁herp
▁rotated
▁membrane
▁Analy
▁receptive
▁pleomorphic
entricular
SCC
▁resemb
▁199
rogra
▁brady
/-
▁intub
▁morbid
itures
electric
platin
▁ingestion
FV
uctose
hemo
▁predis
-25
▁distin
▁quantitatively
▁perce
▁alkal
▁decreased
▁substitutions
▁exceeded
▁parental
▁43
▁endometrial
omized
yrate
ygo
▁graft
ocomp
▁MK
uptake
▁pylorus
▁panc
▁resec
thmias
robial
▁improves
vitamin
/1
▁acad
orectal
▁1988
▁nucleotide
▁hypothalamus
amn
yroid
▁pools
agit
▁readings
olesterol
▁bacterial
▁electrodes
▁ultrason
idespread
▁identically
▁oligos
loride
▁lyso
▁MRI
renaline
generation
▁reductions
phos
arental
▁unchanged
▁clarify
▁alleviate
7%)
▁unin
orrhagic
▁implant
▁.05)
+.
gnetic
▁superoxide
▁hemodynamics
▁concordance
labeled
robic
osom
▁subunits
▁gad
▁unil
▁selectively
▁IH
greater
▁20%
▁EDTA
▁lith
▁recombinant
6%)
▁maternal
▁induces
▁esters
▁adhere
▁Vac
▁reversible
▁yr
gesterone
ducing
▁blot
▁segreg
▁tubercul
▁4,
▁vasoconstric
produc
omat
▁complemented
▁drainage
▁abnormality
▁15,
▁pretreated
dehyde
oprec
ilic
oag
▁contraction
▁retention
▁ACE
▁microsomal
▁duoden
nitro
amide
illus
▁suture
▁islet
▁dilatation
7)
▁phenotypic
▁myof
▁cycloheximide
▁rabbit
onary
▁epithelium
85
▁stenosis
▁3-
▁compartments
▁epit
▁alp
tical
▁sarcoplasmic
▁linole
▁apparatus
▁smo
▁ald
toc
cture
udin
▁wee
rals
ogenes
▁perone
mL
vascular
▁axons
▁thyroid
▁limb
▁modality
astatic
▁stimulates
▁undisturbed
▁messen
▁Conversely
▁paradigm
amate
▁lectin
▁hemorrh
tance
▁elicited
▁lam
8+
▁AGA
▁25-
▁eosin
oic
▁95%
▁genomic
▁inver
▁endpoints
gesia
▁umbilical
inergic
▁intrag
▁HCMV
▁mammography
tured
▁vesti
▁overd
▁76
▁65
ococcus
▁hepatocellular
▁myeloid
▁enlarge
▁91
▁6.0
▁anaesthe
4+
▁histidine
75
▁synapt
▁vagal
▁GnRH
▁HG
▁cohorts
▁plantar
tum
▁axon
▁caffeine
cutaneous
▁uro
▁35
▁eluc
▁autoimmune
▁provid
ussion
aceous
▁conductance
24
▁melatonin
eptid
▁intramedullary
▁locus
▁disparate
▁130
ineural
▁hydrolysis
arbox
▁judged
ogens
opoietic
ifferentiated
ophys
▁substitu
heal
▁laparoscopy
48
▁Contrary
▁insufficiency
cessive
▁Mucosal
▁spon
▁fluctu
2.
tophan
nRH
erator
▁tamoxifen
▁glomerul
▁responsiveness
onography
▁(0.1
▁cytoplasmic
19
birth
▁NK
▁VS
▁synapses
▁grafts
▁osteoporotic
▁gradual
▁(4
▁immunity
▁3.9
▁distinctly
▁[35
▁anatomy
cad
aptic
▁vancomycin
unctional
▁decarboxylase
idation
▁nonspecific
▁cytotoxic
▁elucidate
▁concom
▁unic
rophilic
itonin
▁thiol
▁antagonized
▁preferen
▁ischaemia
▁reversed
illin
▁Hg
trial
▁GMP
▁sacr
▁ceph
49
+/
▁CFU
anserin
AIDS
▁0.01
▁macropha
▁inapp
gene
▁diets
▁19-9
urine
▁cortic
cine
rectal
▁AIDS
▁anastomotic
▁attenuated
fluoro
oscop
▁induce
▁silic
sectional
▁3
aminob
▁10(5)
▁IBD
▁leukotri
▁ischem
▁pelvic
▁transplantation
▁amygdal
evoked
▁motility
ffeine
▁pacemak
bic
clin
▁vitamins
RU
ronch
LF
▁Subjec
▁clinicians
ygen
▁immunocyt
▁bronchial
opha
▁sediment
olipid
dibular
rene
▁intraven
▁ventil
▁derm
▁fibroblasts
▁insertions
cored
▁Considering
▁surgeons
▁amplified
▁synov
▁genotype
erving
▁homologous
▁sulphate
ropriately
▁adenoma
▁leu
▁morphologically
▁unres
▁underst
▁referral
eal
yro
▁antic
▁0.15
▁colonies
iasis
cysteine
▁disappearance
▁rheum
tant
▁thromb
luent
oproterenol
▁EG
▁reactive
▁sphincter
▁physicians
▁DFS
omatic
▁ileum
fir
▁progesterone
▁atres
scop
▁10(-7)
keleton
▁-3
▁([
cein
ioid
▁milieu
▁vesicles
▁acute
gative
ociated
tocin
5,000
▁immunomod
amus
▁eti
▁differs
tructural
ipr
▁arterial
▁correcting
▁progen
▁dissec
▁testis
oglobulin
▁isomer
▁vaccines
▁tuber
methyl
▁CSF
▁400
tus
▁ageing
▁Pretreatment
▁suscepti
▁MG
10
▁aden
▁connective
▁50
▁phospholipids
▁progest
▁(12
1),
▁groin
▁glomerular
arrhythmic
▁80-
▁contamination
▁dete
▁110
linking
▁astro
▁mell
▁mice
essel
8)
itoneal
▁deposition
▁asymme
▁degraded
▁sedimentation
otassium
▁fibres
▁mononuclear
▁FS
geons
anine
-9)
▁metabolic
▁Cardi
▁5-
tingu
▁pla
▁residue
▁conjugate
itudinal
1/2
▁followup
otrexate
lyl
▁hCG
saturated
▁Larger
ocar
▁plas
▁19%
▁phosphodies
23187
▁definite
▁spre
▁polyclonal
▁messenger
▁noc
risk
▁thymidine
▁gluc
▁antero
ostic
hered
▁predictors
000.
▁aggres
Ki
umption
rangements
▁tris
▁prosthe
▁adop
▁albumin
terminal
▁stimulus
loid
▁limbs
▁cholera
agin
40
teine
mol
urc
▁Thromb
▁aberr
adequ
▁cervical
odynamic
▁physi
▁Continu
onol
▁atrium
▁repres
▁feasibility
epam
acetate
olip
▁brid
ilical
independent
▁complication
▁plasmin
500
▁gynecological
▁0.00
▁polypeptide
▁underlie
▁inhibin
▁thyro
▁immunological
▁creatine
▁angi
▁dialysis
▁similarity
adiol
▁virul
kely
▁cis
▁fragility
▁pressor
▁PV
▁caudal
▁2.7
ustained
oty
▁acetab
▁gon
▁problematic
▁[(
▁workload
▁(197
▁phe
▁Treatments
▁guinea
▁MAb
trimental
▁intrav
omers
▁recor
▁monocytes
▁usefulness
▁estrogen
ithm
▁unresectable
ylation
▁ramus
irrh
coated
▁idiopathic
subunit
stolic
genic
▁reac
▁transfusion
▁inhal
▁ANF
▁forsk
▁deviation
▁LF
3-
vating
▁phenotypes
▁201
▁34
▁myocardial
▁dilution
▁calcification
▁inactive
▁bedside
▁Phosph
▁comprehension
-7)
▁elicit
▁analyses
▁Ket
▁transplant
HG
▁cytokines
▁Wistar
▁immunoprec
▁strepto
▁ascertained
▁saline
oreactive
▁intermedi
osomal
▁potent
▁melan
▁synthetase
▁Respon
▁supple
▁Thy
-[
roph
perfusion
erad
IgG
▁repaired
arcin
▁adaptive
▁recess
▁alcoh
▁accumulate
▁ethyl
▁preliminary
ionine
LDL
▁undergoing
▁somat
▁difficul
▁synaptic
occal
▁ves
▁mesen
immuno
▁abd
▁potenti
sive
▁posi
tially
▁HC
▁currents
▁myc
▁acet
wenty
▁preceded
▁sequel
▁prolif
▁donors
▁protoc
osts
▁hypoth
ejun
▁streptococcal
▁lysosomes
▁residual
▁angina
nthe
▁reactivation
▁ventricular
▁pulses
▁pelvis
actin
rospinal
▁natriuretic
▁intrauterine
gluc
▁ips
sequent
▁lymph
▁reevaluated
jejun
▁interrup
▁4.1
ognitive
▁dosing
+,
▁Cox
altered
▁stillbirth
esia
dominal
▁angiotensin
▁adipose
IK
ATP
IFN
▁radiolab
▁protease
▁loci
▁immunoprecipit
▁analges
ocl
▁microbiological
essation
▁BPs
▁natri
ographically
▁mitral
2).
umulative
reactivity
▁10
▁amin
▁CGRP
▁geriatric
unar
tected
KD
▁gallstones
▁trough
▁hemorrhagic
cepti
▁immunofluores
▁Ia
▁laparoscopic
▁RS
tality
▁cysts
▁muc
▁individualized
▁ionic
▁medullary
▁transplants
▁mutations
ergic
▁stimulating
▁beverages
▁1985
▁mammals
▁neonates
.4
▁1986
▁definitive
loxacin
ontal
▁fibroblast
orative
▁influx
▁interc
ogra
▁cytology
▁bir
oinositi
▁residues
tron
versely
lastic
molecular
▁25%
▁underg
▁discon
▁2.4
▁PID
▁peptides
▁sedentary
ituitary
▁phosphatase
▁edema
thma
▁pressures
▁conceptual
otropic
▁HTLV
▁adequately
▁transcript
▁illus
tetra
▁lidocaine
▁preven
▁estradiol
▁systemic
▁hippocampus
▁70
▁decreasing
▁TG
▁surgical
▁hemo
continu
▁APD
▁Older
Cy
▁mutants
▁ECG
▁pH
MN
urally
opathological
sulf
▁GER
ymme
▁spor
▁probes
▁8.
▁auditory
uria
trodotoxin
▁95
▁discom
▁neutrophils
▁atresia
▁ulc
▁attrib
tures
▁PGF
▁viral
▁impairment
▁microM
orbent
▁ketamine
▁disulf
▁UF
▁defic
isol
ffer
▁platelets
rested
▁deformity
▁correlates
▁intermittent
kage
amuscular
▁sensorineural
▁alk
▁caregi
-3-
▁PKC
▁sulph
ochlear
cence
▁warranted
atab
6)
▁asthma
▁offspring
▁discusses
econd
-7
▁nonadherent
▁shortening
▁lymphoid
▁External
▁glucocortic
▁adrenaline
▁BD
apeutic
diabe
▁avail
▁athle
sAg
▁scanning
▁NH
▁initiating
▁LN
▁chromatin
▁typh
▁4.4
▁NADPH
▁GFR
▁Stimulation
opramide
▁deliveries
▁tissues
▁excision
rC
rine
▁microsomes
▁redund
▁agon
herence
lue
years
ureus
▁ablation
▁kinetic
▁microns
▁acyclovir
▁prevalent
▁LC
▁differentiate
yste
▁laparo
▁resistant
▁spermat
obl
▁elevated
▁athe
▁hydrogen
affec
▁neoplasm
▁maximally
▁econ
WBC
▁mRNA
▁Multiple
▁conjunction
oea
▁spectroscop
▁scintigraphy
hydrop
▁enzyme
ordance
toxic
illi
▁subtraction
▁retrospective
▁Therapeutic
▁carriers
▁-2
▁ambul
truction
▁pancre
▁overe
ulant
▁tubulin
▁myelin
ocyt
▁mediate
▁(6
hydroxy
atural
▁ureth
▁4.3
hydrox
▁lymphoma
resist
glum
▁foc
▁nodules
acin
tice
▁concurrently
regulated
▁85%
▁10(6)
81
▁ineffective
▁anomal
valence
▁ultim
venty
▁maturation
▁antagonists
▁Chest
erper
thyroid
▁bradykinin
itus
restricted
ococci
(5
ressing
▁resection
▁clearance
tiv
▁uncommon
▁extrac
phosphon
▁LH
▁onc
▁psychotic
▁patellar
▁120
▁(9
▁glutamate
▁cGMP
▁jejun
▁dissection
▁4.5
▁decisive
3),
osamine
▁deletions
▁ascites
chymal
▁guanine
▁toge
ocyte
ecal
▁40%
trypsin
▁selective
▁regurg
otoxin
▁60
▁heparinized
accharide
▁neurop
▁dissociated
▁haemorrh
▁buccal
▁utilization
▁stimuli
▁glu
▁neuronal
▁organism
▁EA
▁chec
▁ana
70
▁assayed
nee
ialysis
atase
ovascular
▁induction
▁EGF
▁solub
essential
eces
▁cochle
▁proximal
esium
patients
▁Roux
totic
lastoma
▁100
timal
▁strom
▁23
▁prolonged
▁neurom
▁terminals
▁dodecyl
▁chloride
▁techniqu
▁xen
hering
(2+)-
▁Treatment
glyc
cele
omonas
uretic
dies
▁Experiment
atinine
.4%
▁embryos
roscop
▁Removal
▁bran
roxim
▁SLE
gic
▁vitro
▁epidemic
omain
▁chemotactic
epithelial
▁precursor
▁deficient
▁1.1
▁potentiated
▁favourable
▁galactose
▁tumour
▁ouabain
admill
▁mitogen
▁sti
▁cystic
▁inactivation
sia
▁phenyl
▁resis
tious
▁canc
45
▁uptake
virus
▁glycaemic
▁bladder
MDA
ichia
▁disappointing
bearing
.2%)
▁HL
▁quantit
▁Clinical
-67
▁30%
▁0.4
▁LAK
otropin
▁reas
▁radicals
derived
▁cows
▁widening
▁casein
▁resol
▁reproducible
▁amph
natal
▁Concomitant
▁differe
54
tryp
▁merit
ellum
▁schizophrenia
ighted
▁polymorph
▁adren
▁Magnetic
▁71
▁periodon
▁incub
▁spontaneously
inephrine
ortal
▁aneurysm
oactive
▁ambient
▁infar
▁enucleation
▁filaments
bac
▁5.2
▁hazards
▁necro
ignific
▁latent
uran
▁crystall
▁1.6%
▁genic
urement
▁myocytes
LN
absorption
▁VD
▁lymphocyte
▁kinetics
▁monos
▁197
▁sple
▁postin
▁basal
▁differen
▁respiratory
▁keratinocytes
▁microscope
▁surrog
▁eluted
▁supine
throm
ochle
▁ACL
effec
ritish
tection
Ala
erine
▁quin
▁tuberculosis
employ
1)
▁fractional
▁phorbol
omical
▁chole
atonin
▁125
▁systolic
orubicin
▁immunisation
ophil
▁noncom
▁immunos
▁7-
▁cutaneous
▁dietary
▁10%
tives
immune
fron
plas
▁hydrophob
▁mutagenesis
▁neurons
lys
uccess
▁serine
minal
▁thyroidectomy
▁catheterisation
glut
inol
ylamide
▁(11
▁hemodynamic
atibility
ertion
▁correlations
▁palp
▁graded
ections
▁tach
fusion
▁annulus
▁covalently
▁invasive
▁unde
▁25
▁Golgi
▁NADP
▁routinely
nosis
enia
▁mA
ifugation
▁marrow
timulation
▁3,
'-
▁ipsilateral
etitive
ocusing
▁Adherence
▁Leu
echanical
activated
▁mmol
▁Lym
▁gp
▁familial
▁gestational
▁juvenile
▁subsp
.3%
▁AMI
phosph
▁inpatient
uted
modulin
4,
odon
phil
▁10(-8)
▁traum
▁insensitive
▁modestly
▁37
▁proportional
plasia
▁measurable
ostat
▁administered
▁ICS
retro
▁employing
▁differing
▁aspartate
▁55
tec
5%
▁eosinophilic
▁infec
▁Drosophila
icep
▁histological
▁esophagitis
ochemical
▁Differen
▁dysfunction
▁multic
xiety
▁infarction
▁79
tention
tig
▁clinics
▁rotational
16
▁immunosuppres
▁RNA
▁hazard
▁exerted
riched
▁deficiency
▁modulate
Tyr
othermic
▁noradrenaline
▁degradation
sorption
oung
idate
▁vaginal
▁hernia
▁hepatoma
mide
TPA
▁variants
▁cerebrovascular
alas
-50
+)-
▁detecting
▁adverse
▁viruses
▁mucosal
▁loosening
endan
osomes
elvic
tussis
tero
▁amo
▁alteration
▁4.
▁indeterminate
▁dorsal
▁GH
-12
▁lamb
▁exchan
▁antagon
▁excreted
8-
▁neurological
▁suggestive
▁laboratories
ocul
adder
▁markers
▁inhibit
▁aor
ofl
▁contral
urate
▁orthopaedic
▁rheumatoid
rectomy
urons
▁poten
▁rese
oxygenase
odil
▁antegrade
ophageal
▁satis
itally
▁rigorous
▁ocul
▁cleavage
0.0
▁dischar
▁ancestor
▁preferable
▁chol
▁investigating
▁oils
▁thrombosis
▁insufficient
rophenyl
▁immobilized
oracic
▁sciatic
▁poorer
stab
▁dimer
▁mediation
▁chloroquine
▁Nine
scherichia
▁colloid
▁histopathology
▁rash
▁40
▁antibiotic
▁lactation
lateral
6.
irrhotic
▁complications
▁synthe
leu
▁prostagland
▁ae
olysis
genesis
▁discordant
▁implic
▁perfusate
▁Addition
▁deem
8.
▁ventric
diastolic
▁potentiation
Glc
ylephrine
▁densities
▁saturated
▁ensured
hea
▁devi
▁melanoma
▁Alter
▁sustaining
opo
▁Mg
▁92
luores
▁follicles
reased
orax
▁mmHg
tak
▁perfor
▁0.3
▁HPLC
▁cessation
▁follicular
▁additive
▁elong
▁bicarbonate
▁TAA
tidine
▁ionophore
▁forearm
▁trigg
▁16
▁ASA
omycin
▁dox
▁indomethacin
▁Paget
atient
opam
Kd
MV
▁-0.5
▁doses
▁anesthe
▁monke
▁symme
▁sulfonyl
bular
▁bip
▁proteoglycan
▁Patients
▁soybean
ochondr
▁beats
▁ascer
57
▁lar
▁inten
▁allogeneic
▁diabetic
▁antiser
ipid
enzyme
▁advisable
IH
▁artery
▁clon
▁Electron
▁moles
estion
▁labelling
ducts
▁phenomena
▁rCBF
▁ventral
▁cisplatin
▁hippocampal
tituted
▁therapies
▁intrinsic
assi
Ia
▁substanti
▁bp
/2
elves
3%)
▁UTI
▁inser
▁52
▁debr
▁paren
▁tubules
0.5
FGF
▁excretion
exposed
▁retrograde
▁differed
▁bilateral
▁carcinomas
▁calcium
▁speculated
ffs
▁cryp
▁acidosis
▁1-
▁exhibits
embers
▁WK
▁polyps
▁avascular
neumon
umably
tine
-5)
motic
entan
▁seizures
romes
vation
rotic
▁percutaneous
▁substantially
▁asymptomatic
Ara
▁trache
tetr
▁(17
arcoma
▁orally
anyl
▁prolactin
▁transported
▁ferritin
▁4.8
▁intrarenal
▁headache
ereb
56
▁8
▁EBV
opolysaccharide
▁postsynaptic
▁tertiary
MH
▁regulating
▁palli
▁preterm
taken
ometrial
▁sut
▁rationale
▁substitution
-1),
▁propranolol
opausal
▁FSH
▁PTH
▁parame
ogenesis
etan
▁digestion
▁vein
▁preservation
positive
tically
▁Samples
adic
▁autoanti
▁11,
cious
▁gangrene
puts
▁cadaver
ymptom
ilization
▁discer
arrhy
▁warrants
▁axonal
▁Bac
tence
▁Inhibition
keto
▁topographic
▁constitute
▁monocyte
▁oxidative
sus
▁substrate
▁mitogenic
▁musculoskeletal
erican
▁3.6
▁conges
geneic
trop
▁tet
aemia
▁pathologically
▁circulating
▁hepatitis
irubin
nec
▁allogra
▁mitochondrial
▁amputation
iary
chond
▁hepat
▁tomography
▁mM
▁10(-5)
▁ART
▁aeruginosa
▁Muc
operated
osides
▁tox
▁immunoglobulin
▁lithotrip
▁biologically
▁diagnos
mediated
containing
▁nm
oplast
▁apo
▁cranial
▁NB
36
thymidine
▁Initi
▁monoclonal
▁ultrasonography
clinical
▁simult
adherent
onous
queous
rates
4),
▁PVR
BK
▁irradiated
▁novo
▁hyperther
pies
▁osteoporosis
ACS
▁prel
▁diffuse
▁implanted
ivariate
TB
agal
▁HI
▁Pt
▁agonists
copic
▁elastase
▁enhancer
▁ANP
dic
▁hipp
▁2,
▁resonance
▁prolongation
ulph
▁wt
▁demonstrating
stim
▁diarr
▁TP
organic
37
▁numb
roin
▁RV
▁physiologic
7).
▁cartil
▁glucocorticoid
-1-
▁infiltration
▁proposes
▁subunit
▁empir
leb
bly
▁similarities
▁mono
▁secreted
▁Rats
▁questionnaires
▁assurance
lysis
rogenic
▁airway
opulation
iversity
▁succin
ulla
79
▁EMG
▁implantation
▁strains
▁sodium
ostal
▁Emergency
▁affinity
▁neuromuscular
▁amn
▁phosphatid
▁autologous
▁cholec
▁pathologic
growth
ranial
▁ELISA
osine
▁recr
kade
▁persist
luded
flammatory
increased
▁20.
▁derange
▁0.02).
3,
▁deform
.2%).
▁myel
▁inhibitor
ropine
plate
▁fractures
▁gallst
tally
▁1)
trin
▁codon
▁DSM
▁reticulum
▁thi
▁nM
▁dehyd
▁reagents
▁slices
▁radiograph
▁6,
heum
▁behavioural
▁OT
▁compe
▁aldosterone
▁stratification
▁Thirty
▁20,
▁evid
▁contex
▁perc
▁systematically
omotor
▁amiloride
lasting
oglobin
hyp
lycemic
titis
▁colorectal
▁interacted
▁82
razosin
maximal
opi
ventricular
▁attentional
▁amyloidosis
▁supervision
orption
▁sequential
ochemistry
▁choline
ocaine
ostasis
▁Inte
obarb
▁distinguishing
▁phospho
▁dyst
atheter
▁docum
LISA
▁250
median
▁cholestasis
▁MBC
tual
▁diagnoses
▁captopril
▁AII
▁methylation
4)
▁cardiopulmonary
gment
toid
imination
osome
▁vesicle
glycerol
▁sci
onatal
▁arti
▁15-
▁histopath
▁yielded
titution
din
▁neoplastic
bred
▁unaware
▁phosphor
▁acetylcholine
▁biopsies
▁diastolic
▁RI
▁fentanyl
▁transfected
▁prazosin
▁physici
coup
▁smokers
oxin
clamp
brids
▁generalized
▁infections
▁depletion
ffec
▁hemat
▁inotropic
▁nicot
heximide
▁UT
olectomy
▁suppression
urgery
▁pathway
▁3.
▁chl
lood
▁61
▁Elec
ocarcinoma
▁3.3
versity
enol
meth
▁rupture
▁intravenous
trogen
utyr
▁incubation
▁isoform
▁practiced
diagn
selective
ventive
▁pituitary
omerular
▁22
▁incorporation
ditional
▁repeats
rangement
ditions
▁fatty
▁thoracic
▁possi
▁projec
ifed
▁intracellular
▁synthase
▁SGA
▁nec
▁1,25
monary
restric
▁preoperatively
HF
-8)
alities
ampl
▁6.5
▁Cushing
aldehyde
▁saturation
▁homogeneous
▁Systolic
ensitization
▁+/-
▁cortical
▁adenine
▁symptomatic
lyc
▁dentists
iflu
ithin
▁83
angli
▁muscarinic
myc
▁foci
▁subjec
▁scaled
opressin
▁latency
▁Phe
lier
▁follic
▁0.02
▁replic
▁intest
▁biliary
plastic
itance
ubicin
▁HCO
▁69
▁ovarian
▁tol
oratory
▁BALB
▁obstructive
▁uniformity
▁fructose
▁31
▁cigarettes
▁pancreatitis
▁TNF
ortic
▁Steady
▁disagreement
▁thrombo
▁pathologies
abin
▁peripheral
+]
▁microtub
ffinity
earance
▁prevalences
▁implicated
vices
bodies
electro
vents
resistant
lycerol
pir
▁spinal
regn
phth
▁endothelin
▁histology
▁sph
▁thromboembolic
▁gestation
implantation
▁mucosa
amyl
ondral
▁verteb
▁NaCl
▁7.2
▁differenti
▁heterogeneity
26
lycer
CMV
▁cyclosporine
iotics
▁adenocarcin
▁9-
▁1.9
thio
ficial
jective
▁enzymes
receptors
crib
▁adjunct
leukin
▁onset
▁laminin
▁exon
rophic
rane
▁mixtures
▁Escherichia
feren
▁menstr
▁scin
▁fetal
▁striatal
esthetized
▁proliferation
▁indicative
▁reposition
▁obstruction
▁recombination
▁descending
▁anae
▁postnatal
90
ariate
▁assemb
▁iatrogenic
trical
▁quantified
▁cleaved
ocardi
till
TN
▁glucose
ietic
cells
▁irrespective
▁30-
arotid
rone
2318
embr
tages
kinase
▁ligands
▁ischemic
FG
▁1.3
▁0,
▁uncovered
plants
▁preoperative
▁OA
olec
▁coincidence
▁atherosclerosis
oconstric
oneph
▁proton
NAP
▁shunt
▁astrocytes
oclonal
▁selectivity
▁operative
▁concurrent
▁opi
pregn
gulation
▁Contr
▁polymorphism
▁evaluations
▁hypotension
▁splic
▁ester
iological
tiazem
Ka
▁vena
vant
▁2%
▁6)
▁preclude
▁VC
▁terminus
▁elast
neal
affected
▁rigidity
drug
illary
ervical
ximum
▁conduc
▁0.05).
asal
▁hormones
(1
▁surfact
▁Regarding
▁congenital
▁circumference
ifferen
▁buc
▁7.
prising
▁rabb
▁inorganic
▁Bone
▁0.25
▁angiography
▁morbidity
▁(3)
sue
▁injected
▁outward
igaret
azole
▁theore
▁proliferative
▁depleted
▁Biochem
▁thereafter
2+,
▁frog
owever
orphic
oblastic
erum
hyde
▁projections
terol
rever
▁pretreatment
▁quanti
▁gland
▁depres
▁Swed
▁antigen
▁ALT
dle
▁lymphomas
▁retardation
▁lateral
▁plex
▁streptoc
transformed
trative
▁Alternatively
▁4.2
▁AVP
▁morphological
22
▁0.05)
▁malignant
▁anesthetized
▁LV
▁bene
76
oxia
▁yeast
fat
.5%
▁laparotomy
transferase
▁centr
onate
heric
amel
▁5,
lac
idated
▁autoradiography
ochemically
9-
▁oxidation
▁venti
tisol
eptides
aminidase
▁heterogeneous
adication
▁tibial
▁carotid
▁repro
CoA
▁nitrogen
▁supra
▁accel
▁elimin
▁pyramidal
▁HS
▁Kup
▁strep
▁newborn
▁disks
▁ribosomal
▁transcripts
evaluation
▁favorable
▁Severe
▁ane
mortality
▁resected
phrag
▁73
▁unilateral
▁DST
▁subc
▁disrup
▁adenomas
▁creatinine
▁Throm
▁secretory
▁gastro
controlled
▁chel
▁unclear
quit
▁endothelium
2,
▁galact
▁reactivity
▁conditioned
ivoc
▁surfactant
▁acidic
▁provocation
▁Glu
▁aerobic
itin
▁comparative
responsive
▁consolidation
-8
23
turally
CGP
▁mitochondria
▁immunohist
▁exponential
0)
▁causal
helial
▁indi
▁deoxy
▁mL
▁inducible
8,
ilibr
:1
▁12
▁cathe
-1).
▁purified
onucle
▁Strep
idne
▁pediatric
▁adminis
rogenase
eptidase
▁discrep
fec
amines
▁epididym
flamm
hig
-19
▁glycos
▁(95%
▁standardi
▁TB
▁benign
▁APC
hydro
▁balloon
▁rostral
▁200
▁fixation
▁79%
orbol
▁spermatozoa
opsy
▁mitochondr
▁blockade
▁moiety
▁Stroke
tic
▁cuff
▁paraventricular
▁accessory
▁staging
▁erroneous
(+)-
▁coex
oprol
▁glands
▁phospholip
▁substrates
▁tetr
▁BAL
ewish
▁cAMP
▁differentially
▁withdrawn
▁overlaps
▁(5
▁Increased
gments
▁Excess
ofol
▁glycogen
ardia
28
▁cerebrospinal
asone
▁focal
▁urine
▁myoepithelial
▁synap
urium
▁highl
▁hydroly
▁CRF
▁5.5
▁arachid
▁discontinu
tectable
▁Binding
atients
▁lact
ometh
▁intragastric
▁minimally
▁fas
▁Radi
▁baro
esting
legia
opres
▁kD
▁neurolog
ulose
▁granul
▁embry
▁hospitalized
entary
sial
▁fatalities
▁carbohyd
-6)
▁stained
▁anaerobic
▁rejection
▁attributable
▁needles
▁diminished
umerous
▁80%
▁livers
lop
▁polypeptides
▁hypothyroidism
▁75
▁SHR
▁restorative
▁apolipoprotein
▁lumen
▁NPC
▁recombin
phenyl
sibly
▁direc
▁regen
dents
dimethyl
yrid
nutrition
▁variability
ochrome
▁59
▁removes
▁OSA
▁spectroscopy
▁eyelid
▁validated
ozo
TSP
▁disparity
otides
▁aneurys
▁synthesis
ylated
▁neoplasms
▁Leydig
▁31-
iplin
▁reproduction
DG
60
▁TBI
▁catechol
tive
▁equivocal
▁AO
▁APTT
▁instability
▁tubes
▁mening
▁CEA
phic
rocy
▁controver
5.
▁footprint
▁epithelial
▁staining
▁resour
ducible
▁anticoag
arous
▁chorio
▁3.7
▁equilibr
▁cavity
▁fron
▁enteral
▁PCT
▁disulfide
▁perceptions
oxif
mur
▁demographic
▁66
bacco
▁atmosp
▁determinants
▁thre
▁oes
enhanced
kine
▁homoz
▁experimentally
▁inters
orpor
▁dislocation
▁(40
pine
acetyl
▁Meas
▁cytoplasm
▁amput
▁poisoning
ositive
tics
isqu
▁2.2
▁misleading
assay
▁stimulatory
▁hyperg
▁adi
reactive
▁depolar
rof
loro
▁97
▁neutrophilic
ration
▁titer
▁cholesterol
▁oxide
MIC
erate
otting
▁hetero
▁(-)-
DNA
▁urinary
▁HN
▁subjective
▁sebaceous
achid
scher
▁grouped
▁plasmid
▁multiv
hypertensive
▁pec
lox
▁0
▁micron
▁pancreas
cold
iably
▁lec
▁sca
▁resuscitation
urane
coun
▁8,
tively
▁persis
teral
▁colonoscopy
▁contrib
▁mutagen
▁glycoprotein
▁soy
▁analysed
▁differentiation
▁ewes
▁multicenter
▁polymerase
▁preferably
transplantation
ecan
▁pter
acylglycerol
taining
phasic
▁constric
▁bolus
.5
▁glut
onance
▁oligonucleotide
▁thickening
linic
▁lobe
operatively
NB
▁transiently
ophils
▁pylori
▁duodenal
▁assessments
▁purification
▁enhances
seal
ullary
▁skeletal
cardi
▁ow
▁mutation
rosophila
▁spi
▁perip
▁contractility
▁bac
conjug
▁Ear
▁citrate
▁cerebral
▁exogenous
lated
▁helix
omial
▁vaccination
terase
phosphor
▁homogenates
▁enriched
hemical
▁adhering
tors
▁duplic
erally
▁pacing
▁communic
▁6.
▁heavi
▁regimens
ochem
▁BW
▁tryptophan
2%)
quine
▁advancement
uvate
onad
▁(10(
▁96
▁glial
▁contaminated
lasts
▁Randomized
▁conjugated
▁qualitative
▁somatostatin
▁consultations
ustif
entanyl
(2+
▁tidal
▁proct
▁inoc
razole
▁modif
tions
▁clones
▁satur
ospitals
otide
▁confined
▁ect
epit
linolenic
▁chromatography
▁subun
acetylcysteine
enzymatic
arean
▁36
siveness
▁Alcohol
▁cytotox
▁progressively
▁neurones
qui
▁appendic
rowth
▁depic
▁omitted
▁hypo
utroph
▁centrifugation
▁evidenced
▁shorten
▁coval
▁preparations
▁aort
▁consecu
MRI
▁1.
▁tonic
▁(0.5
erations
Nase
▁isop
enal
isomer
▁larvae
▁constitutes
hort
▁subtype
▁emphasizes
acrylamide
angi
▁MCP
▁lysosomal
▁injec
▁inference
lymph
physiological
▁influenz
▁2
▁studi
ancre
▁musc
▁reser
apamil
ineph
38
▁consol
▁cyclic
▁cirrhotic
▁Whereas
▁Neurop
▁inward
▁CG
▁elevations
▁ACTH
▁erg
▁uninjured
▁intramuscular
▁organisms
tization
▁innervation
▁IIb
▁72
phon
uncture
▁gamma
ffinities
▁1.6
ecre
▁circumferen
roscopic
▁0.
▁fri
▁rats
▁Tran
zard
igel
▁elic
ypical
▁sugges
rease
▁cholecystectomy
emak
eration
▁gastric
▁bowel
methionine
▁minerals
Cu
lobin
▁PSA
verages
▁radioimmuno
otre
sities
▁acco
▁diame
▁pigmented
▁infarct
istal
tents
▁sequelae
▁fluores
▁intrap
▁herpes
pecific
▁1989
▁(22
ectomy
▁detergent
▁unprotected
▁parathyroid
ginine
ylic
inally
▁demonstrates
-4
▁leukemic
▁glomer
▁pneumon
stranded
▁Tumor
▁caro
▁theophylline
ogenetic
ocortic
▁inclin
▁postoperatively
▁ossification
▁0.001).
▁leuc
thyl
▁optimum
glucose
-60
▁thymocytes
tact
ayed
▁respec
▁entero
kinin
ture
cretion
tinu
▁BP
▁exacerb
▁clipping
▁preventive
▁enlarged
▁instrum
▁coagulation
▁tolerated
▁Hep
▁coag
ustment
▁morphology
▁nucleus
sies
▁extracellular
▁frontal
▁Insulin
▁aggregation
▁merits
▁sev
▁consequent
ethylene
7%
▁GVHD
▁58
▁30
▁IFN
88
monstr
thel
owel
▁sulf
▁ole
▁mobilization
▁cef
▁antec
▁0.000
Leu
▁ach
▁sero
-40
vice
▁pigment
anic
▁trig
ameter
oderm
▁endometr
▁PF
uality
nucle
.2%
▁hybridization
▁rRNA
▁pathogenesis
▁undetectable
▁adjustment
fal
▁referrals
▁Routine
▁previ
▁diabetics
deficient
ignificant
▁ganglia
idazole
▁Surgery
32
▁lambs
admium
arate
FU
▁infectious
▁exis
▁inhalation
itic
either
uterine
▁mumol
▁masked
▁unemploy
▁derivatives
▁adip
4%)
▁termed
▁18
▁1000
BW
▁causative
cents
HIV
▁arth
5,
▁desensitization
emia
opro
▁.00
▁pedigree
atation
▁1%
▁empirical
phosphatid
▁rectal
▁PCR
▁discharge
▁calves
atectomy
piration
ipine
▁catecholamine
▁30,
▁fibers
▁potency
▁satisfactory
iminary
▁disturbances
tory
▁phosphate
▁TT
▁calf
galact
▁CCK
omiting
aventricular
phyloc
▁concentrations
turb
18
embran
rosine
Cer
oidal
▁cirrhosis
▁proportions
▁competi
oplasty
▁depressive
▁inducing
▁successive
moid
▁Plas
▁lutein
selec
▁perin
-1,
▁ovulation
▁permeability
▁GE
▁4
quired
▁encodes
▁amp
▁apical
-2,
activation
▁Doppler
▁cues
odium
echn
▁3)
▁nosocomial
oglyc
▁ori
▁ejection
uridine
rophob
ervative
▁contrac
encl
utable
▁Protein
ostomy
▁attenu
▁pep
vated
▁promo
etal
onor
▁antibiotics
▁sepsis
GV
▁microscopic
itoneum
entral
vate
▁lamin
▁ultras
andard
▁Percutaneous
oplasmic
▁supplementation
.2
▁presynaptic
acchar
tensin
27
hepatic
ANP
▁perfusion
ynaptic
▁kDa
▁tachyc
uppres
1%)
▁identi
adren
▁susceptible
▁cyto
▁pulmon
▁Kupffer
ubted
▁therapeutic
tur
▁catalytic
GH
▁injections
▁advan
opamine
▁distal
▁6%
umbar
▁agar
▁iso
ovir
▁600
▁HAM
▁undergo
ATPase
▁comprised
▁swelling
▁lineage
ocular
identical
▁triglycer
▁quantif
▁biom
▁femur
▁ppm
eric
teroid
▁peroxidation
▁2)
▁progression
-15
odal
ureth
aturated
APC
▁induc
Phe
▁irradiation
opia
▁comparisons
stimulating
▁osmotic
▁placental
▁3.0
tib
▁GABA
ubation
itant
ritin
▁thir
▁interventions
inactivation
▁algor
ospor
fused
▁dopaminergic
ocortical
ulitis
ivary
dotoxin
▁encoun
-3
▁dors
sors
▁intercostal
▁(2
semin
▁filament
lytic
▁0.0
▁CRP
sul
ognition
▁acceptor
▁rebound
▁Exposure
xate
atories
essive
▁identifies
trate
▁elevation
▁stellate
itone
▁decreases
▁adduc
▁mediating
ogenous
▁conditioning
▁2.5
▁Salmonella
plantation
angl
gmental
▁bile
▁resul
1).
lux
omatous
▁illustrates
illaries
▁psychosocial
ximide
▁anticoagulation
adm
▁Tyr
▁expressing
tagland
▁renin
▁parasite
▁fatality
▁endogenous
▁parie
▁depolarization
mixed
▁titers
roso
olated
odg
athyroid
▁aorta
▁timely
trac
polyacrylamide
▁membran
oxid
▁adherence
▁DH
▁cochlear
immun
▁superficial
▁sigma
▁molar
▁Hyp
oscopic
▁Cys
5-
▁gynec
sensitive
thym
gia
▁vaccin
ece
gland
tase
entif
stro
▁schem
▁valve
▁leukocytes
▁homogene
▁15%
▁congen
-100
▁Twelve
▁neon
▁cytometry
▁49
ected
ilateral
▁neutroph
▁regar
▁symptom
yel
▁atrial
▁umb
▁DG
▁32%
▁ocular
licular
▁appropriately
idis
▁pK
▁intra
omies
▁sulfonylurea
▁tymp
▁99
0,
▁acetyl
▁DN
osus
▁retin
▁bic
▁hypertrophy
▁polyc
000
approximately
iciently
▁phospholipase
▁cardi
aline
▁NGF
▁allele
▁sequentially
▁interstitial
▁rehabilitation
aryotic
olol
▁overlapping
▁lysine
▁Triton
▁colonization
▁postmenopausal
▁lobectomy
▁sensi
▁dex
oside
carb
▁topical
▁untreated
▁calcitonin
▁AH
▁monolayer
agic
▁RNAs
▁immunosorbent
tamine
▁MIC
▁diabet
46
ositi
1%
associated
▁exten
▁Dopamine
▁21
▁aggregates
eliac
▁testosterone
teric
▁pT
idym
▁sampl
▁transloc
▁suppressing
▁ventilation
12.
rents
▁spectro
▁lesions
▁HLA
▁premature
▁FHR
▁Km
▁trac
ibi
▁upstream
▁hygi
20
▁33
NK
idium
▁adenosine
▁lis
▁spikes
ynthe
vely
▁Hz
▁congenitally
▁epi
▁recom
▁56
▁tended
otroph
▁Prospective
▁LPS
yses
astric
▁epidemi
▁discus
idine
▁humoral
▁0.06
▁antigenic
aryngeal
tional
▁connec
insulin
▁regis
▁diagnose
▁hams
mend
▁fmol
ocytosis
▁microm
▁64
▁MAP
▁lethal
▁(1
tinguish
▁pate
clerosis
▁motif
tebral
▁microcirc
▁0.001)
tial
▁emerg
▁Biol
▁concanavalin
ropathy
▁tympan
contrast
▁interpersonal
tis
▁1987
edle
▁derangement
tro
▁IB
hyd
▁socioeconomic
▁depar
▁structurally
pinephrine
▁enti
LB
▁nulliparous
▁plexus
▁heterogene
▁LDL
▁plaque
▁shortened
▁trophoblastic
▁relapse
▁reduc
▁coronal
athione
▁veins
▁HeLa
▁KCl
tral
▁10(
▁IgE
▁muscul
micro
▁hemodialysis
olis
ternational
▁lax
erated
▁optic
▁actu
▁inflamm
teroids
▁dehydrogenase
▁hypertro
yroxine
Hb
ociation
▁0.01).
▁histamine
▁electrophoretic
rocytes
-18
IgM
onit
▁hypox
▁chewing
ixation
enic
ucose
detected
▁intestinal
▁acceleration
▁7,
inj
▁coel
▁fetuses
▁potentials
▁inserts
ravid
graftment
2+-
invasive
ologous
▁suspensions
▁dilated
▁evacuation
▁vegetable
clic
▁ascertain
▁HB
-1.
ygous
▁dib
▁synthesize
▁biop
▁Medicare
▁acupuncture
95
▁neuron
trover
▁clonal
odial
eak
▁steroid
treatment
ograms
▁monounsaturated
retin
▁lys
esic
ints
uscular
▁insulin
▁prognosis
erin
▁0.03
oluble
▁solvent
▁autop
▁anat
▁Chronic
▁5'-
ogeneic
15
▁concomitant
▁MV
▁renal
▁100-
▁proteinase
PAP
▁undoubtedly
rins
▁Effective
1/
▁adherent
iliac
▁elu
▁RH
▁regurgitation
ocin
▁carbohydrate
▁accumulated
osocial
tage
coh
▁plaques
ivocal
parative
▁sensory
▁(8
stress
▁behavioral
roximately
liters
traction
▁paralleled
▁chemo
.3
▁74
▁preferentially
rein
▁eosinophil
erance
▁86
▁sarc
▁respondents
▁28
lact
▁inducer
physiologic
acrine
▁elastic
▁-1
ubtedly
ifol
▁(100
5)
▁mutant
▁reversal
▁malign
▁deformities
mia
▁secretion
▁84
▁pathology
▁regimen
▁BV
ucl
▁erythrocyte
▁compli
ensi
ulmonary
quisition
▁27
iae
Ig
limb
▁anion
▁tracer
macropha
7-
▁ethanol
14
blind
▁AMP
umulation
▁lipoprotein
▁endarterectomy
atical
atitis
▁ulcer
▁sperm
▁stimulation
▁complexes
▁margins
oscopy
▁ATP
▁socio
▁reag
uresis
mediately
▁cirrh
▁epsilon
▁etiology
-6
▁multivariate
▁extensor
▁IHD
2%
xone
kDa
▁outflow
▁Preoperative
▁progres
▁urea
▁homogen
fine
1-
atum
▁indicators
▁engraftment
helin
▁retic
▁myosin
Daw
▁subtypes
olones
▁39
▁audi
▁15
▁cate
▁phon
▁amylase
ococcal
▁vege
oxygen
PV
▁amyl
▁gradi
▁Measure
athy
▁embryonic
▁appropriateness
▁(25
▁effector
▁prophylactic
xia
posure
▁transduction
▁uncontrolled
▁ACh
▁biochemistry
▁5.
▁reflex
▁deterioration
▁mortality
affinity
▁202
▁criter
gth
VH
genes
▁synthesized
bloc
▁triv
▁chond
tran
▁7.4
reas
▁selec
▁outpatient
acet
▁granules
▁comprehen
▁lumbar
intestinal
zyme
tel
luc
terone
▁circadian
▁overlying
▁oxytocin
phila
▁6-
thmatic
cellulose
bladder
thrombin
▁infants
▁adhesion
race
▁compressed
anol
11
ellular
▁fibr
▁undergone
occus
noise
dine
aminated
▁repetitive
0%,
▁depolarizing
▁fibre
▁10(-4)
▁63
▁modulation
▁linoleic
▁fluids
idol
▁positioning
▁spike
ycin
▁volumetric
▁distrib
▁pulp
▁sickness
oxidation
▁characterize
lowering
▁physiology
▁gyn
▁tubular
reatine
▁nonc
oprotein
flux
iotic
▁OC
▁fractured
▁(10
cephal
EG
dition
▁3'-
▁monolayers
▁0.0001).
itamin
licate
lectomy
▁conjug
▁splenectomy
▁contamin
▁arachidonic
6%
acting
▁inoculation
▁hypothyroid
henyl
▁TGF
▁actin
ionic
▁FH
▁conservatively
inesterase
▁manipulations
dor
▁requi
fts
opoly
hydroxyp
▁alcoholic
▁mAb
alian
3.
adily
ropriate
rement
▁Ara
piratory
▁oste
ondr
cus
▁GI
▁lithotripsy
▁desm
▁regulated
▁pS
▁divertic
▁coli
▁peris
otone
▁glycine
▁transplanted
Hu
▁introduces
▁mug
▁metastases
▁immunization
▁alkaline
▁IA
▁femoral
ocytic
▁inad
itively
▁Physicians
▁congestive
▁cue
ocarcin
kephalin
▁suppor
itro
▁exercised
eared
idin
▁keratin
▁heroin
▁infil
▁malignancy
▁RM
2+]
otri
CDD
orphism
▁tiss
osyl
▁1.2
▁morphine
etus
▁1-2
accharides
▁transpor
onuclease
▁allergen
ellosis
▁cyst
▁hypoxic
IIIa
▁Sixty
▁thym
▁TPA
▁anaesthesia
▁70%
▁reductase
▁0.001),
HB
▁peri
▁reper
▁peptic
▁lep
OH
tolerated
thre
clonal
unctions
amphen
ymptomatic
aginal
oplasm
pecially
chemical
consuming
▁screened
▁accelerated
incidence
prep
▁0.01),
▁acqui
▁Significant
▁suppressed
▁motone
SPECT
otyp
▁specialty
▁60%
ceptibility
receptor
▁Cd
rophyl
▁7
otent
oxic
injured
▁prol
▁transferrin
▁prono
orepinephrine
onyl
▁ration
▁phosphorylation
▁morb
▁antibody
▁illustrate
ught
▁subcutaneous
siological
nai
▁RIA
phadex
ercul
2),
▁paradig
▁7%
▁complementary
▁stimul
ranolol
▁immunodef
▁granular
▁ure
opulmonary
Ta
utaneously
duce
venth
▁20-
▁Stu
globulin
phot
▁particulate
▁sulfate
▁TA
▁catab
▁vitamin
▁2.6
▁hyperp
rants
tein
usp
atible
▁assessing
▁excre
▁intervertebral
tabol
▁visc
▁uter
▁microtubules
tability
▁radiotherapy
oskeletal
▁pertussis
PTH
▁spati
▁inversely
omod
▁vacu
▁recurrence
▁Evid
104
ipolar
▁precedes
ylate
▁THA
▁sequenced
▁tumor
▁vasomotor
WB
▁localized
▁testes
▁Increas
▁5%
▁intraoperative
▁35%
▁inflammation
jun
responders
▁modulated
▁activating
guided
▁deficit
▁crest
▁restor
▁nasal
▁incubated
siologic
▁seb
directed
▁tryp
enkephalin
phragm
▁peritoneal
ithi
▁carboxy
▁catalyzed
▁glycerol
▁amines
tering
oxane
▁responsive
anavalin
▁macrophages
▁diabe
▁unrel
▁converting
▁macrom
ectomies
▁prostaglandins
iciencies
▁functionally
▁glucagon
▁unexplained
rophy
phe
▁splen
▁aspirin
.0
uanti
evaluated
▁(5-
▁reabsorption
BH
Hg
▁BMI
▁summ
▁pathologists
▁duplex
▁syndromes
crimin
▁Hear
lix
▁neutrophil
▁ganglion
▁shif
▁objec
▁67
▁diarrhea
▁MM
▁indus
▁Delayed
▁DP
▁conclusive
▁HCM
8).
▁intake
urin
▁mimic
▁GSH
▁palsy
▁cava
lobulin
RIF
0.
adex
▁interferon
▁retard
okine
asic
▁microv
▁ascending
▁deli
▁defec
▁nig
▁50%
▁callus
ipramine
▁microvascular
-14
loon
▁VP
▁membranes
acerb
hion
▁reticul
▁endoscopic
imide
brain
▁Cells
▁78
-3,
ergency
arbonate
▁proteoglyc
7,
went
▁ESR
▁0.6
▁cysteine
▁PDGF
▁blin
sian
▁diffic
phosphorylation
▁examin
▁unstable
▁(7
▁endothelial
ropyl
▁polymer
discharge
ompan
▁hypothal
▁cultured
▁trophob
atoid
▁carcinoma
▁metformin
▁putative
relevant
ults
▁nmol
encephal
▁GPs
▁expres
▁enhancing
▁neph
▁pathological
▁alterations
▁statis
▁monkey
▁antibodies
▁experim
▁fatigue
adenosine
▁RAR
▁hypothe
▁fractions
▁expon
▁calcified
▁standardized
TK
-9,
▁streptococci
LH
▁compartment
phen
urgical
pig
▁encephal
threatening
▁grading
▁LHRH
▁cannulae
clim
iatric
▁evolving
iotensin
▁rati
ailure
▁cocaine
▁paired
lecting
▁Trial
▁Tum
ophilic
▁torsion
▁collagenase
▁pene
quid
▁murine
▁antagonist
▁wean
ronchial
▁practitioners
▁CPAP
▁leakage
kines
▁phosphatidyl
ACh
▁iodine
oru
echan
ophore
versus
wk
69
ylase
▁21-
partate
▁ratios
▁tracheal
▁autoxidation
▁2.8
▁endoscopy
injected
▁comple
3)
%).
▁granule
▁reflux
▁contributes
▁solubilized
overall
▁HSV
iosis
▁perinatal
▁cyan
Tc
▁granulosa
▁Cytoplasmic
▁schiz
▁flexion
▁nude
▁hepatic
/100
kephal
ygdal
▁24-
▁prostaglandin
9)
▁striatum
estis
▁nitro
occi
▁hern
▁suppressor
trous
▁(50
romed
▁(2)
▁airways
amethasone
▁calmodulin
▁cros
osyn
▁pleural
trol
▁labial
ipit
tif
ectable
▁0-1
ropo
tration
▁glycoproteins
vac
▁heterologous
ctomy
ept
dimer
▁discontinued
▁overestimated
trum
▁57
▁(13
▁disapp
▁acyl
▁leuk
▁determinant
▁[14
▁ascorb
oventricular
▁vascul
▁phosphorylated
▁conclu
▁inadequ
▁RA
450
▁endoc
dent
illar
rague
▁determinations
0-
▁Serum
▁biosynthesis
▁Sprague
hetamine
▁unaltered
alsy
atid
▁radiolabeled
BV
▁TRH
▁rIL
rected
▁substances
▁embryo
▁superv
▁isoproterenol
▁abundant
▁ammon
dihydroxy
▁conserved
▁Improved
▁hormonal
▁exposures
tries
▁pyram
▁pharmacists
▁cerebellum
▁identif
▁extre
▁metastas
▁3.8
ressive
tric
▁versa
tensive
▁gastrin
iability
▁Effec
▁platelet
▁rhe
47
▁transurethral
▁toxicity
▁predominant
▁affec
osin
phyl
▁CsA
▁recordings
▁substantia
atine
mutant
HM
▁haem
viron
Dawley
▁norepinephrine
▁plur
▁pmol
▁diaz
sions
▁parotid
▁scl
otor
▁assessed
▁GTP
ayers
▁utero
▁lipid
centr
testinal
▁peroneal
amycin
ocys
▁junctions
hips
tyl
▁vasoactive
othelial
▁retur
ffe
▁cruc
bumin
oxone
▁PRL
chloro
hydr
▁defects
▁14
▁leukotriene
▁Bec
78
uric
▁hypothalamic
▁tumours
▁molecules
▁turnover
▁12%
ymp
acil
▁endemic
▁soluble
▁forebrain
oprote
▁striated
Ca
ophren
▁VL
▁ranged
▁polyacrylamide
▁resusc
▁plateau
▁100%
rotein
tivity
sively
▁chemically
oreceptor
67
▁dissociation
▁restenosis
▁placenta
osterone
▁deple
uclear
▁brainstem
▁gluten
chym
artum
▁uni
essional
geal
▁intraper
onine
▁calor
retion
▁hamster
▁prevalence
anad
▁Pregnancy
▁IgA
▁microgram
namic
▁seizure
00
▁SNP
▁mec
onin
▁combin
oradi
▁nuclei
▁pharmacokinetic
▁cigaret
▁retina
AO
vertebral
lication
▁CSA
▁hygiene
ocrine
▁chlor
+)
▁reagent
▁effic
mTc
icine
▁predominantly
aluation
enin
▁Findings
▁eyel
aminop
rati
▁linkage
▁HCC
▁detec
▁extensively
▁Improvement
▁practic
▁mucin
0%
▁repor
▁discern
PSP
▁10.
▁microscopy
▁injur
▁irritation
▁quantitative
▁biosynthe
▁ADP
▁hyperfiltration
▁unex
▁VAS
olateral
▁disadvantages
▁conformation
▁glutamine
odic
▁rabbits
lip
zation
ADP
▁immun
▁mucos
phosphonate
▁(15
oresis
idem
▁CTL
erb
protective
▁serotonin
ysm
▁multim
ropha
▁Surgical
▁cardio
▁scre
ncy
uppression
▁isot
urys
▁HDL
▁pati
▁0.2
▁dismut
dia
▁macrophage
ectom
▁sexes
Tn
rox
▁manu
▁180
▁lipoproteins
▁40%,
pT
▁PAN
▁fibrinogen
mentation
▁inherent
▁interf
otypic
trus
▁monol
▁preferential
▁construc
▁retinal
ogl
ivation
▁AGE
▁abdominal
HN
▁vasopressin
▁salivary
▁immunized
▁venous
-4-
▁bronch
▁hepar
▁precur
gthen
ipient
2+.
▁acetate
armac
vail
▁incomplete
▁cortisol
eroxide
ourable
▁inhibits
responding
jected
▁catalase
▁immunoreactive
▁hypertrophied
ilized
▁extraction
▁endarte
erable
▁mammalian
erop
▁irregular
▁CK
▁2.
▁immunoblotting
▁oxid
▁COS
respective
ritis
▁correlate
▁sedation
▁cytochrome
▁NN
NH
▁inflammatory
▁hemoglobin
▁pharmac
▁carbachol
▁NI
▁cereb
▁diluted
-20
▁adjustments
▁mV
▁occlusion
▁collagen
▁steroids
▁Inhib
▁propor
▁nal
helium
▁(4)
13
▁cerebellar
▁birthweight
cyst
▁uneventful
elong
clerotic
▁EO
▁coh
glutinin
▁necrosis
▁exer
▁2.1
opathic
dose
▁inhibiting
ecu
entists
▁Pregn
▁Failure
▁rigor
▁inositol
▁microb
▁cDNA
▁translocation
▁surgically
▁heavier
▁7.0
4%
▁stimulate
▁effec
ocele
▁parap
▁occupational
cholesterol
▁imaging
▁0.8
▁HM
▁geniculate
▁graf
jug
▁gangli
▁hypoxia
▁percentages
ulae
▁adap
mega
▁Hb
▁Fifty
▁cys
orin
▁detrimental
lusion
ositol
▁300
▁magnesium
▁cytosolic
53
▁corneal
▁erythrocy
▁lysis
▁overexpression
▁toxin
▁VE
▁thromboxane
9%
mental
▁Whilst
/3
▁aureus
eptin
ellar
▁cytosol
trast
gm
▁indis
▁gonadotropin
ipitation
reported
ovine
▁interleukin
▁PMA
▁fluoride
▁Tren
+/-
▁serum
ffin
▁(198
▁ubiqu
rozen
▁polyethylene
gely
siology
▁45%
▁reacted
▁HU
romy
ensitivity
▁collec
▁randomized
istrib
▁silicone
▁psychotropic
lyce
▁ultrastructural
ohyd
▁gly
▁echocardi
▁PCP
▁reflec
▁inheritance
arthritis
▁circumferential
ographs
▁PMN
▁Tumour
▁plasmids
▁mediated
▁lesion
▁linkages
▁chromat
▁(16
Glu
cyclic
▁fung
▁FD
2)
▁fasting
▁tachycardia
▁worsened
▁160
odiaz
▁seropositivity
-17
▁autonomic
▁abolishes
▁lymphadenectomy
▁empirically
▁axillary
▁intraperitoneal
▁predic
▁carboxyl
▁EF
omethacin
▁decreas
ventional
▁IVF
▁Ultrasound
▁enrol
▁neoplas
▁stroma
atell
▁Afric
▁Dil
▁consis
▁desirable
divid
▁apprec
incubation
oyl
▁adrenergic
▁0.04
▁analogue
▁sarcoma
▁hemisp
stages
▁clinician
▁immunore
ergy
ximal
▁9,
▁fluc
▁facilitated
▁cation
aturation
ileptic
▁leukocyte
icardi
tition
1.
chol
▁140
venous
▁cotrans
▁saliv
▁undo
rosclerosis
▁verte
▁occl
▁ligand
▁myocardium
4.
▁analogs
▁ruptures
april
▁monkeys
reast
eradish
iferol
TNF
▁esophag
arose
3).
CBF
▁stren
▁elec
titu
▁thal
▁bloc
▁oxygenation
▁LS
optic
▁eryth
▁predicting
▁spermatozo
)2
ologic
▁iliac
iatic
1,
vaginal
▁spind
▁squamous
▁muscular
▁corne
▁subgroup
▁tympanic
hesive
▁Vmax
▁drin
sion
.6
50
▁29
▁biochemical
▁tumors
▁plasminogen
▁Asp
immunization
▁isolate
kelet
Ra
renal
▁analgesia
diol
osynthe
diagnosed
▁HMO
lob
tion
▁85
▁autoradi
▁wk
▁32
▁PET
▁antitumor
▁3.1
▁Patient
▁antisera
▁postoperative
▁wors
morph
▁dihydro
▁surgeon
▁bilirubin
▁prospective
▁palpation
▁carcinogens
uble
tivation
entical
▁198
irub
▁500
▁contractile
35
tach
▁SG
ulfonyl
otin
anin
vival
trexone
rosis
▁obese
▁papill
▁splenic
atrial
aemic
▁reproduc
▁Intra
▁impair
▁islets
-2
▁termination
▁perfused
onomic
▁cerv
▁radiol
▁45
▁hematopoietic
otypes
55
▁thresholds
4).
tribution
▁amino
▁discriminative
▁Ras
▁unrelated
/6
▁nutr
Mg
▁abdomen
▁beha
infarct
▁NP
▁endotoxin
orphin
brom
adrenoceptors
▁oocytes
▁ket
▁efflux
▁radioactive
▁duct
cAMP
facial
ields
yridine
▁subcellular
.6%
asses
▁DF
▁(20
▁supplemented
▁periodontal
▁Chan
▁alanine
hern
tained
▁inhibitory
trates
idase
▁afferents
▁obesity
▁pyl
▁clamp
▁phi
66
▁kidney
DH
▁kb
▁pancreatic
▁(0.
▁20
▁glyc
▁metabol
mobil
▁deposits
▁opioid
▁gangl
▁alve
▁adjuvant
tative
▁TSH
▁anatomic
▁antigens
▁remo
▁13-
▁Recurrence
eded
▁gout
▁augmented
▁LOS
▁1
fication
▁enzym
▁4.6
▁tas
▁fulf
uting
▁restric
▁allergic
▁Vitamin
▁tran
▁degen
▁sten
ohy
effectiveness
▁porcine
seud
▁nucleotides
▁questionnai
▁parag
▁longitudinal
▁examinations
