feeding
▁reviewed
▁diagnosed
▁thromboembolism
cervical
▁otitis
▁effectiveness
▁cholesterol
▁tolerance
▁infectious
▁diagnostic
▁warfarin
▁childhood
▁classified
▁symptom
▁glucosamine
▁sensitivity
▁maternal
▁nasal
▁reductions
▁glucose
▁aspirin
▁prospective
▁pelvic
▁asymptomatic
▁physician
▁symptomatic
▁gastrointestinal
▁imaging
▁athletes
carcinoma
▁clinical
clinical
▁chest
compliance
▁melanoma
▁postmenopausal
▁carcinoma
▁prevalence
▁desmopressin
▁infection
tolerance
▁guidelines
▁concussion
lipoprotein
clinic
▁recommendations
▁premenstrual
▁likelihood
venous
▁inflammatory
▁osteoarthritis
▁herpes
▁smokers
▁recurrent
▁asthma
▁prophylaxis
▁insufficient
▁weekly
▁heterogeneity
▁dietary
smokers
▁diet
▁headache
▁vitamin
menstrual
▁diabetes
▁ambulatory
▁antidepressant
▁dysfunction
▁mothers
▁regurgitation
▁inhibitors
▁blinded
▁diagnosing
▁dose
lipid
▁investigated
▁incidence
therapy
▁indications
▁metformin
▁preterm
▁postpartum
▁ABP
▁psychological
▁mortality
▁severity
▁smoking
▁Compared
▁decreased
▁acetaminophen
▁reflux
▁sunscreen
▁circumcision
▁serum
▁bowel
▁trend
▁allergy
▁diabetic
▁emergency
▁hypertension
▁acute
▁plasma
▁overweight
▁nephropathy
▁disorder
▁Scale
▁cultures
nasal
▁corticosteroids
▁thrombosis
▁Overall
▁infections
▁antibiotics
▁screening
▁retrospective
▁therapy
▁assessment
▁respiratory
▁rupture
▁medications
▁randomized
▁regimens
▁lesions
deficiency
▁adolescents
▁enzyme
insulin
▁myocardial
▁antibiotic
▁adjusted
▁intake
▁treating
▁progression
▁disorders
▁feeding
▁deaths
▁contraceptives
▁hospitalization
▁survival
▁depression
▁prescribed
▁recurrence
▁angiotensin
▁referral
▁pregnancy
▁baseline
▁knee
▁tissue
▁tamoxifen
▁lesion
morbidity
▁odds
▁syndrome
▁morbidity
renal
▁illness
▁infarction
▁ultrasound
▁eligible
▁hepatitis
▁wound
▁coronary
▁exposure
▁pulmonary
▁prevention
▁sodium
▁topical
▁steroid
▁bipolar
▁Randomized
▁statin
▁weighted
▁intervention
urinary
▁symptoms
▁hypertensive
▁cohort
▁urinary
▁therapies
▁pertussis
▁examination
▁surgery
▁inhaled
▁outcomes
indications
psychological
▁clinics
thyroid
statin
▁chronic
▁bleeding
▁compliance
▁apnea
▁pneumonia
▁questionnaire
▁insulin
▁excision
▁hypothyroidism
▁antibodies
▁testicular
▁hazard
▁endoscopy
▁acne
vaginal
▁osteoporosis
▁fatigue
▁fracture
▁cardiac
▁bacterial
▁diseases
▁allergic
▁physicians
▁mild
▁prophylactic
▁artery
▁pneumococcal
▁ventricular
inflammatory
enzyme
▁deficiency
▁complications
▁constipation
▁vaccine
▁clindamycin
▁infants
▁transvaginal
▁anxiety
▁cesarean
▁contraceptive
▁vaginal
▁warts
▁treatments
▁mellitus
▁cream
▁intrauterine
▁calcium
▁sustained
▁venous
▁hormone
▁fractures
▁NSAIDs
▁thyroid
▁prolonged
▁predictive
▁mmHg
▁menstrual
▁antidepressants
▁insomnia
▁neonatal
▁cardiovascular
▁pregnancies
▁receptor
▁laboratory
▁Treatment
▁abnormal
▁pregnant
▁lipid
▁examined
▁ratios
▁trials
▁drugs
▁cervical
diabetic
▁cryotherapy
▁concentrations
▁vascular
▁Patients
▁obstructive
▁vaccination
▁mineral
▁muscle
▁diagnosis
▁adults
▁diarrhea
▁Clinical
▁elevated
▁resistant
antibodies
genital
symptom
cholesterol
▁vaginosis
vascular
▁onset
▁strategies
▁obesity
▁interventions
▁therapeutic
▁prenatal
▁cytology
▁erythromycin
▁systematic
▁biopsy
▁antihypertensive
▁oral
▁lipoprotein
▁ultrasonography
▁elderly
▁genital
sensitivity
▁abnormalities
▁moderate
▁adverse
▁bone
▁outpatient
▁endometrial
▁concise
▁throat
▁specificity
symptomatic
▁creatinine
steroid
▁spontaneous
▁migraine
▁surgical
▁renal
▁clinic
diagnosed
▁Controlled
▁lowering
▁regimen
▁injections
▁fetal
▁cough
▁peripheral
hypertensive
▁diastolic
▁supplementation
▁findings
▁liver
▁spine
▁medication
▁placebo
plasma
▁risks
▁tinea
