▁skeletal
▁confirming
ithi
plasty
▁coordination
▁keto
▁tiss
▁dermal
▁sensi
▁Americ
odop
TSH
otent
▁sedation
erating
▁avail
vian
hetamine
▁vigorous
▁acros
gus
▁metast
ulose
▁identifiable
▁glut
ronch
restricted
aric
▁foc
versity
ophilic
▁contiguous
▁nig
▁decreased
▁exer
▁lumbar
▁symptom
▁duc
tical
erable
lyb
kine
▁initiating
ffin
▁duodenal
▁tas
▁proximal
▁hypothyroidism
uretic
ulant
▁acutely
▁multis
▁PCR
▁glucocortic
▁parac
▁flora
▁surgeon
triglycer
▁differe
tivity
▁lesion
oglobin
▁substitution
▁diminished
▁pleural
rosemide
▁incom
qui
▁compares
▁cann
▁quin
▁intensive
▁concordance
▁nephropathy
titute
▁stimulation
hep
▁extensor
▁furosemide
▁distal
sors
▁cholest
ilization
gents
▁Nineteen
▁bicarbonate
▁Sensitivity
▁antic
▁modalities
▁Factor
▁osmotic
▁infertility
ocl
▁Prel
▁excision
▁ineffective
▁valve
▁stenosis
▁bir
aminop
▁Hb
opril
estion
▁Calc
rates
▁recr
lusion
▁advan
tiary
eptin
opam
▁fetuses
▁postoperatively
▁chloride
Ig
▁uniformly
▁contaminated
treated
▁scalp
tention
▁excretion
▁conditioning
▁beha
▁atyp
oconazole
ults
▁bowel
ochrome
itonin
brile
▁acetaminophen
LV
▁endocrine
bral
anat
aryng
▁plasminogen
▁exud
▁occupational
opathic
▁ank
▁abscesses
muscle
▁interleukin
▁subsets
ominant
Bs
▁Examination
▁mL
gated
▁intran
▁titers
▁ach
generation
▁dopamine
odium
▁mildly
urate
▁emphasized
▁inhibit
▁gynec
▁Comparison
hene
▁filtration
▁throm
▁competence
▁hepat
ariate
▁adrenal
▁cef
▁criter
uprofen
▁interventions
▁monotherapy
▁daytime
▁steroid
establ
▁blot
▁correlated
▁endoscopic
tion
▁lymphocytes
▁Lipid
LISA
oplasty
emia
dominal
▁prognostic
▁progres
▁deterior
▁ovaries
▁nonf
▁favorable
iline
enal
▁somatic
pran
▁hysterectomy
▁persisting
▁Caucas
assi
romycin
▁asymmetric
▁deterioration
▁cardiac
▁ESR
▁chorionic
▁retur
▁clinically
▁bronchitis
azolam
▁conception
▁Interestingly
thmia
▁dias
aline
▁analgesia
▁cancers
indolol
thrombotic
▁nonpregnant
psych
▁fluoride
▁NP
▁wee
▁obstetric
imin
▁devi
phen
▁graft
▁HB
odies
rowing
▁chronically
▁corticosteroid
▁deleterious
▁nasal
▁spikes
osomal
▁epidural
▁endoc
▁hereditary
▁pathology
▁TM
▁vomiting
oride
▁anticoagulant
▁adjus
blood
molec
within
▁microbi
▁twofold
▁gases
aternal
▁practic
ortal
atab
ration
▁neomycin
▁thir
▁abdominal
erge
threatening
▁Seventeen
▁hydrogen
▁Consequently
▁persisted
▁accid
▁impairment
zation
▁minus
▁trig
▁choles
din
▁supple
▁yielding
olamine
▁titration
orated
▁inconsistent
acycl
▁DBP
▁amphetamine
▁Tiss
▁spacer
coated
▁postnatal
▁dye
▁limb
▁azathioprine
▁scanning
▁anemia
oprost
▁corticosteroids
▁mono
▁glyc
▁concentrations
▁donors
▁auditory
▁restraint
tiv
▁potent
▁Subjec
▁biopsies
tinu
▁subcutaneous
▁clus
iotensin
rele
▁hormone
▁smears
▁ejac
lives
▁validity
▁optimum
▁MH
▁HL
▁dihydro
▁saphenous
hyd
▁decarboxylase
▁detectable
operatively
▁unusually
chid
▁offspring
NB
olones
blocker
inesterase
▁thre
▁Eleven
ported
enem
▁washout
letion
▁LM
▁Nine
illi
▁malignancy
ocar
▁scans
▁sedimentation
erebral
▁jaundice
ignific
▁cartilage
▁identif
▁intrauterine
▁CN
ostic
idin
▁retinoids
resist
olesterolemia
▁Relative
▁testicular
▁estrogen
tinguish
uin
▁cutaneous
▁Epid
▁resul
▁newborns
oxyl
▁underwent
▁predominant
nec
ingers
iatric
▁reflecting
▁migraine
▁placent
oprim
arate
▁cortisol
prandial
▁Ventricular
uting
▁kinase
ocytosis
▁yeast
▁TI
crib
▁ultrasonography
▁synthesize
trac
▁EG
▁resol
▁reversed
assium
▁resection
▁weighed
▁systematically
▁hep
▁benign
▁differen
▁prognosis
▁initiate
▁hydrocortisone
containing
▁sampl
▁cervical
▁Increases
▁contex
▁provid
etoprotein
▁TS
ophen
enicillin
reness
econd
▁Statistical
▁RS
▁bladder
▁CDC
amol
▁chec
▁Exercise
▁paral
▁assessments
plasia
▁Respiratory
▁hyperthyroid
otre
▁assay
notic
ritten
▁antibody
sively
olytic
irc
rologic
▁thems
▁scientif
otox
tained
trum
▁cohort
▁validated
▁endotracheal
▁cohorts
▁suppressed
▁chewing
motic
thyl
▁Alz
▁Clinic
▁fracture
▁doses
▁interferon
hydrop
▁asymptomatic
▁bronchodil
▁capsules
iasis
▁systemic
▁diaz
dered
▁fixation
▁simplex
adily
EMG
▁Sodium
cessive
▁lowers
▁ischemia
▁nosocomial
▁fibrillation
monary
reactivity
▁insoluble
lood
▁gentamicin
▁CIN
amphetamine
▁lipoprotein
atell
iteal
▁standardized
initi
▁Addition
▁atenolol
invasive
▁physiology
▁extrap
▁serological
itone
▁contracep
ylated
▁membran
▁verte
adjusted
rosis
▁hypercal
thmias
achn
▁secreted
tensity
tox
xual
ochrom
odil
▁Hyp
▁lipids
▁intraepithelial
▁weakly
▁Acet
ithm
etal
▁manifested
mediately
orbent
icine
▁uncom
▁exaggerated
▁vertebral
▁Treatment
▁substantially
trates
administration
duction
amus
▁incid
▁gonadotropin
▁adenomas
▁regimen
▁endoscopy
▁hypog
responders
obl
▁hepatocellular
ensitivity
adequ
ducing
esity
▁coh
▁cerebrovascular
▁fetal
▁evaluating
▁recurrences
▁epidemiological
▁blinded
leb
oracic
ystag
ocomial
ausea
▁arti
▁histopath
vac
ochem
▁genital
▁birthweight
▁transplant
▁hyperplasia
▁diastolic
lox
▁sti
alian
pecific
▁graf
terase
▁operative
▁indications
traum
▁inflammation
▁elevation
▁Higher
▁limbs
lysis
▁satis
▁systolic
produc
▁immunity
amphen
▁succes
▁concurrent
mL
▁reser
▁neoplasia
ficial
albumin
▁averaged
▁dementia
MH
▁heterogene
ealand
▁hyperlipid
▁kidne
▁plas
embry
tive
lamin
▁percutaneous
hers
▁repro
feren
▁inflamm
▁wk
abd
yses
SAID
▁carcinomas
ecre
▁Chronic
▁inadequate
▁mell
▁refractory
▁capsaicin
salt
tition
▁ductus
idne
achol
iol
ischemic
ranial
▁citrate
▁suppressive
otyp
▁premature
▁sulfoxide
▁autosomal
▁alcoholic
protein
ergic
▁quantit
▁revascular
▁mmol
▁cerebro
▁births
omatic
▁occl
adian
elic
▁tomography
eliac
▁benzyl
▁evaluations
ignant
▁Multiple
tensive
▁surgically
▁hyperch
oglobulin
azep
▁clinician
farction
ipit
▁Acad
▁lidocaine
▁swit
oretically
▁Leuk
ectom
toc
▁exposures
teroidal
▁appropriately
▁Systolic
▁covari
ysts
▁thyroxine
▁endometrial
drug
▁cuff
bearing
ureth
▁pyrid
▁implying
▁placenta
▁complication
▁thromboemb
otypes
▁neonates
adrenergic
▁dissection
▁chor
▁tibia
roscop
▁dosing
▁overweight
anine
▁IU
ruc
▁inges
portant
▁erythema
▁soluble
▁Urine
▁drin
▁morb
▁infarctions
▁controver
▁ison
▁summ
▁Complications
iotics
antibody
▁glycol
▁hypothe
▁streptococci
▁otitis
enec
plemented
▁infec
ophys
eared
▁saturated
▁AFP
▁postpartum
▁prostatic
▁unrelated
▁discontinuation
▁exce
▁polys
taining
▁angina
spective
eal
▁lact
▁nocturnal
▁tymp
▁glycemic
gluc
▁OA
dose
sied
▁markedly
ofl
▁chan
oung
▁stren
▁aneurysms
▁addic
▁theore
▁Ultras
▁lymph
ordial
▁mellitus
associated
▁intake
ophren
ogenicity
▁drainage
athioprine
▁microscopic
oprolol
▁hemat
▁isolates
▁effic
yro
▁sput
otrexate
micro
▁HSV
▁multin
▁DMP
geal
▁sugars
ipheral
▁albumin
▁peroxide
▁Functional
▁autoimmune
▁bypass
▁disturbances
abdominal
▁predic
▁precur
▁mann
ffeine
▁microb
▁sepsis
▁glutamic
▁detec
ovascular
▁endo
▁infancy
tency
▁loos
▁amputation
▁Injection
▁communic
▁HPV
▁Increased
▁functionally
▁immun
acid
▁subfractions
ocrine
▁melan
▁heterogeneity
tiguous
estions
▁critically
▁immunoblot
▁progression
ocin
▁Scale
retion
▁inten
ographically
idis
▁fung
anding
ocaine
Rs
▁Diagn
▁eccentric
▁assessed
amphenicol
▁decreasing
fetoprotein
zymes
entif
▁Combin
tron
▁fertility
lude
▁hygi
trop
butamol
▁hypoglycemia
▁extracorporeal
▁deoxyrib
▁rheumatic
▁embry
enic
teral
roscopic
ucle
ocellular
▁eradication
▁onset
ereb
▁voluntary
▁anticonvulsant
tiveness
▁weighted
▁Afric
▁diarrhea
blockers
▁bronchial
glycoprotein
▁cytochrome
uria
▁cryp
▁anhydrase
▁concomitant
inamide
apid
▁esters
respective
gesterone
▁MM
▁squamous
clin
▁gradual
arachnoid
attern
▁lumb
positive
▁oxygenation
vity
eptic
▁Mortality
▁prospective
▁hypot
onstric
▁potenti
▁glands
▁infectious
teroid
otri
illar
▁hir
▁practitioner
▁analgesic
▁thromb
scher
▁nodule
▁dairy
trol
tors
▁infarction
▁evol
▁lipid
▁retinal
▁aspiration
▁Thirty
▁antigen
▁atropine
siveness
▁ingestion
▁parox
atally
▁practitioners
▁tric
▁HLA
▁restric
genic
▁atrial
▁venti
▁Intr
urgical
ostatic
▁statistically
ighted
▁chemically
▁Assess
aryn
▁RA
▁objec
opause
▁questionnai
▁unil
▁schizophrenia
pH
disc
▁retrospective
▁aspirin
▁colorectal
anking
rosy
▁immunized
vice
▁latex
▁diffus
▁gluc
▁comprised
▁intermedi
merc
epine
ergy
ventil
scherichia
entified
▁contraceptive
▁fibr
▁transfusion
▁dors
tigo
▁ibuprofen
▁incub
▁affinities
alsy
oxygen
ophag
▁Patients
▁anatomic
▁intramuscular
▁lithium
▁irregular
agonist
▁induc
▁PV
▁calor
▁predictive
▁arth
▁atten
▁inappropriate
razole
▁abd
controlled
▁fluc
DNA
meas
▁accep
▁clinicians
▁responsiveness
▁intub
▁goiter
▁commerc
tified
erance
tance
▁anat
uric
imens
▁crom
smokers
▁characteris
▁sequelae
deficient
▁intra
▁bacteri
▁instruc
▁Symptom
▁previ
▁experim
▁spleens
acetic
▁tubercul
ionic
clic
▁efficac
quid
▁examining
▁identi
oretic
iagn
▁dissemin
onor
▁infar
ifedipine
ypro
▁multim
▁demonstrates
vival
trogen
cture
▁antis
▁hered
▁clinics
▁pancre
▁examinations
▁kinases
▁confir
▁fla
▁respiratory
▁encephal
▁undergone
▁manu
▁premenopausal
▁fulf
atif
tro
▁hypotonic
▁PEG
▁Gluc
▁adip
▁lep
▁hyperp
▁cumulative
▁effusion
olism
osterone
azepam
▁ppm
▁nifedipine
▁Survival
average
▁enhances
▁radiographic
▁contractions
▁cartil
opausal
▁durations
sequent
▁duplex
tiz
▁allergic
ept
▁pancreatitis
apsulated
elan
▁esophag
ximum
▁insulin
acute
▁Clinical
lux
ologic
tenti
▁arthritis
▁omega
▁acet
ocyst
▁ADA
▁Approximately
▁agglutination
asone
tively
veness
iminary
▁enlargement
▁hypothyroid
▁promin
▁unex
▁Pneum
▁contraceptives
▁retrospectively
luding
▁embolism
▁Hep
azol
▁normalization
atosis
▁adul
allium
▁diets
▁noninvasive
▁adulthood
lym
▁nicotine
▁substanti
acin
▁Hyd
converting
▁reliability
▁linearly
▁phenyl
▁nonsmokers
▁IgA
▁Staphylococcus
▁hypotension
weighted
▁cysts
▁serolog
▁treadmill
▁allergens
yrid
ancomycin
▁mice
idney
molecular
tioned
▁adjustment
▁referral
orh
idase
iplinary
▁contrib
▁articular
▁ventil
oluble
▁cate
gic
iotic
▁confirms
▁infants
▁assays
▁angi
onegative
▁physici
ergency
▁AO
osocial
oratory
▁positively
▁leakage
mature
sue
oscop
▁gestational
▁Arter
▁markers
▁calcium
▁differed
▁etiology
ospitals
cys
itus
▁metabolism
orac
▁helical
hips
▁predominantly
▁methadone
titis
ithromycin
posure
entia
llate
▁obstruction
▁malignant
aminophen
▁insufficiency
▁bip
pation
▁hydrox
▁antibodies
gative
▁incision
▁decreases
▁admissions
▁shorten
sia
▁shortened
▁ischemic
▁magnesium
▁perioperative
▁simplified
regulation
astric
arial
cents
tility
▁Rates
lyl
▁neuroleptic
individual
▁elimin
epithelial
ygen
▁thresholds
ods
▁edema
astatin
▁sten
▁newborn
▁chol
▁Hyper
▁transverse
▁amo
▁occult
▁hypercalcemia
ventilation
▁microscop
▁nondiabetic
▁Ninety
▁ablation
ilic
SDS
urnal
rocyte
▁examin
uretics
amycin
years
▁derm
▁Streptococcus
▁exclusion
ocysteine
ilateral
▁adenocarcinoma
idazole
▁glucocorticoids
▁placental
thood
▁stepwise
▁resistant
▁phenotype
▁ascertain
▁polysaccharide
▁aberrant
orec
▁mEq
▁testosterone
ffec
roph
▁EB
▁fractures
▁anesthesia
▁saphen
azepine
▁cereb
▁puncture
▁deform
▁duoden
▁Significantly
▁preventive
amid
▁rheumatoid
▁paroxysmal
▁alcoh
erad
encephal
▁myc
▁injur
▁adequ
amines
androgen
▁abdomen
▁neoplasm
▁therapeu
▁neutralizing
irds
ylic
▁opioid
median
trast
▁Exc
▁socio
▁rhy
▁inversion
immun
tric
cus
▁inversely
▁unnecess
▁antioxid
▁airway
▁salivary
strain
▁intest
▁orally
▁averaging
omies
▁penicillin
▁rotavirus
▁aspec
▁promp
▁acetic
mia
idate
▁consis
▁amph
perature
▁randomized
▁mortality
▁caries
dine
▁Measure
▁secretagogues
▁deox
▁pancreatic
▁struc
aturated
opr
sulf
▁quinine
▁preexisting
entral
▁favorably
flammatory
gthen
gestin
asses
▁capillary
tene
▁colonization
ocys
enol
▁Doppler
▁triglycerides
molar
▁sediment
▁zinc
▁favored
▁ae
▁ambulatory
▁chlorpromazine
▁cerv
onine
▁anomaly
▁erythromycin
▁invasive
traction
chol
releasing
ameter
▁pts
gressive
▁postmortem
ller
jun
▁glucose
▁Transient
anin
▁deli
▁dyspnea
▁unclear
▁triglycer
▁encompass
▁sorbitol
▁deoxy
▁strains
▁mobilization
▁grading
▁fasting
▁electr
▁measurable
▁Bacter
▁predis
▁suppres
idespread
▁subarachnoid
▁amput
rox
▁staging
ressing
arrh
▁stu
▁rupture
tension
▁Tissue
▁electroly
nisolone
▁bran
▁protr
▁Escherichia
▁tetrac
▁physiological
▁exhaus
▁reac
▁cholesterol
ivary
viral
▁EE
quisition
▁ventilation
▁gum
▁hypo
methyl
▁empir
otoxicity
▁aerosol
▁coenzyme
tur
Gs
ocomp
▁indicators
PV
▁diagnoses
▁poorer
onidine
▁Thirteen
ogenous
▁bipolar
osom
armac
▁sci
▁neutrophil
occal
▁Leu
▁infrared
seud
zard
▁bradycardia
▁chloramphenicol
▁aspartate
albuminuria
▁psor
▁compartment
ysm
▁Meas
vastatin
alp
topril
▁localized
▁synthesized
▁fecal
enia
rease
▁biopsy
uncture
opi
▁gon
erving
▁torsion
▁gels
esophageal
measured
essive
▁predictor
▁fatty
sistent
▁yielded
▁detecting
ervical
glycerin
dial
▁carcinoma
▁enal
trib
ints
▁HI
xime
adm
▁recurrent
opa
▁acces
▁histology
loxacin
▁specificity
▁luteinizing
▁Initi
utaneous
ressive
▁neuropathy
▁equivalents
▁ane
▁tach
▁FEV
▁intermittent
▁transaminase
ycin
▁adop
▁extre
▁manifestations
▁consecu
olol
HDL
oxic
▁membranes
▁glomerular
▁Neuro
pecies
▁pregnancies
▁musc
tituted
astolic
▁suture
▁interf
admill
▁shedding
▁amplification
▁successive
tens
▁Hg
▁computerized
▁induction
▁stimulant
bac
▁compositions
▁progn
yridine
▁tran
IgM
▁selective
▁acidic
▁headache
▁unexplained
▁rats
▁discriminate
▁acute
▁dextro
▁Increas
▁oss
hydroxyp
▁categorized
▁preceding
atitis
throm
tential
▁lesions
▁gestation
thre
▁ureter
organic
BH
tents
▁gonadotrophin
▁methionine
ionine
▁modif
▁hematologic
▁Reduc
▁oxy
cyt
▁hypers
▁scre
▁gastro
▁modifying
ylase
▁resonance
▁carc
kets
▁coli
▁antagonist
▁intracranial
▁investigations
▁metastases
▁relaxant
▁neph
▁blocker
enzyme
▁suggestive
amuscular
▁aureus
stimulating
▁pneum
oplasia
▁excised
▁attenuation
▁dehydration
tisol
▁insignificant
▁brom
▁atypical
tering
▁immunotherapy
▁ester
rocy
erative
april
▁prednis
▁elec
▁multic
ositi
▁arousal
mented
▁statis
▁hypertensive
▁buc
▁unchanged
blind
echn
▁vaccin
▁instrumented
hypertensive
▁perip
▁cessation
▁Surgical
▁exhibited
omethacin
▁iso
▁fluoro
▁discharged
▁attributable
▁Bac
▁diuretics
iloride
▁infarct
▁tolerated
▁anaerobic
▁decreas
▁coag
tensin
▁proton
rays
ucas
lob
▁neurologic
▁LD
urgery
menopausal
▁audi
▁summarized
andida
rhy
▁expres
▁subjective
mol
loid
▁eryth
tory
vul
▁arrhythmias
tran
▁Levels
▁bic
▁preterm
▁Infection
tivation
▁weighing
▁routinely
vic
▁hemorrhagic
▁malign
▁Angiotensin
▁polym
roma
▁reduc
xyl
▁Calcium
ortic
echanical
▁imaging
▁outpatient
▁synovial
organisms
lobin
▁endoscop
thma
promoting
▁efficacious
▁Transi
OH
yclic
mokers
▁PCO
ubs
ospor
▁spor
▁undergo
▁metastatic
wk
▁carriers
itamin
oscopy
▁Replacement
urin
▁bilirubin
▁reflux
▁dextrose
▁noc
avail
centr
▁fossa
yste
till
▁detrimental
▁antidepressant
yrib
▁alb
osal
▁stimul
ospasm
xate
▁incis
mentation
▁discon
▁seroton
▁sampled
▁hydrochloride
carotene
▁tol
▁biochemical
▁immunogenicity
▁fatigue
yclo
▁brainstem
▁ultim
concentration
▁spon
tensives
onyl
▁IgG
opo
▁anomalies
▁pec
▁endemic
▁demonstrating
▁CG
tual
ediatric
▁postmenopausal
▁aqueous
tia
▁ligation
▁reactivity
▁bromocriptine
▁susceptibility
▁fas
▁methotrexate
▁neurop
▁sulfate
aryngeal
▁cardi
▁epidemiologic
tivities
▁prescrib
omegaly
molality
▁melanomas
▁excre
piratory
omotor
▁NSAID
▁serum
▁euth
▁micros
reas
▁immunos
▁Evidence
parathyroidism
▁benzodiazepines
▁LMW
▁decarbox
▁seronegative
▁analogue
▁vitro
▁postural
▁Pregn
otonic
▁thrombo
administered
▁echocardi
▁Abnormal
▁saturation
▁formulation
ectin
iability
▁satur
▁perfor
acr
▁implants
oprotein
acental
▁augmentation
▁circulatory
▁extrac
idated
▁shor
▁incontin
uterine
arean
▁nutritional
▁emulsion
▁cyclo
apamil
fiber
▁tablets
▁agonist
▁hyperg
thyroid
▁injected
▁simult
▁mening
▁trac
vaccin
epti
inase
▁Disease
▁kidneys
▁cran
▁qualitatively
sibly
pine
etan
▁estrogens
▁vesicle
▁diabe
pecially
▁sorb
▁autoantibodies
iae
▁thrombocyt
otoxic
▁anticoag
▁obstructive
cribed
▁endogenous
otrop
estis
▁adolescent
adone
▁experimentally
▁epilepsy
uminal
▁antiarrhythmic
▁trich
▁administered
orrh
TG
sive
keletal
▁amiloride
▁suscepti
▁jaund
▁ruptured
▁normo
mittent
turb
istal
▁studi
izine
omiting
GH
▁thyroiditis
▁superf
▁perit
utable
▁transmitted
▁regulating
▁angioplasty
▁ionized
expressed
acil
▁pati
▁insufficient
▁tamoxifen
oconstric
▁retic
dent
▁oste
▁congen
▁airflow
▁saliv
▁Assessment
▁predictors
▁extracts
▁Fourteen
▁coronary
▁PSA
▁suction
thick
osamine
peptide
othal
HF
▁hypertrophy
▁econ
lamp
▁reflex
▁maternal
▁lute
▁crossover
▁adipocytes
traumatic
▁sputum
▁resis
▁ultrasound
▁pneumoniae
▁serotypes
clinical
tionally
▁cured
▁spre
▁ket
▁allele
▁esophagus
articular
▁soy
▁vascular
▁symp
imodipine
angl
▁substances
roscopically
▁symptomatic
ordin
▁solitary
idic
ethylene
tative
▁complications
▁arter
▁RR
plen
effec
▁enzymes
romes
kage
▁hypoxic
▁enrolled
▁SG
oneph
trover
▁carbohydrate
amethasone
▁Compared
▁enzyme
▁fluor
▁accounted
▁heavier
▁hydrop
▁definite
▁progesterone
ropathy
▁respec
asal
toxic
▁gastric
▁cla
Ds
▁metabolic
Hg
jected
plas
aturation
▁pathologic
▁cyt
▁rati
▁endometrium
ocortic
▁urine
▁polyc
orption
tant
▁menstrual
quine
▁leukocyte
▁lapa
ymptom
chlorothiazide
ensi
atient
▁sedim
sA
▁memb
▁enl
▁intracerebral
▁intrac
ughter
▁leuk
▁glycoprotein
aicin
patients
▁erg
▁pelvic
▁LT
▁regurgitation
▁femoral
pli
examin
▁dor
▁tubes
▁electrodes
▁uncommon
▁Swed
ovastatin
ticularly
▁enteral
▁microvascular
tosis
▁uptake
eclamp
inyl
▁pep
▁deposition
▁dysplasia
▁cesarean
▁posi
umerous
etine
gm
▁inhaled
▁incomp
▁pharmacokine
▁postin
▁ocular
▁formulations
▁discom
▁pneumon
ophageal
▁CHD
▁conductance
▁thereafter
▁underg
odipine
▁psoriasis
▁CHF
▁acetate
▁CAD
▁hypothalamic
acet
olysis
tis
viron
▁graded
illary
floxacin
ogl
▁correlate
itidine
▁ranitidine
sensitivity
▁sut
ociated
▁lis
▁caloric
tec
regn
cis
thmic
risk
▁underst
▁gyn
▁methodology
ayed
▁undere
OA
▁severity
orpor
▁causal
▁nitro
cellular
rography
▁inducer
▁renal
▁syncope
▁prolactin
▁muscul
▁CRP
Ts
▁lowering
atation
▁dosage
▁retinopathy
▁juven
BV
vant
thirds
ceptive
urther
▁dysfunction
idine
▁verapamil
▁erythrocyte
▁colitis
ecretory
▁regimens
▁remo
▁sulf
▁Oral
uled
▁cranial
ymptomatic
▁paren
▁antid
▁fum
▁multicenter
natal
▁inducing
▁febrile
▁hypox
▁dysp
omal
odds
enteric
▁pretreatment
thi
versely
▁calcitonin
pir
▁lymphadenopathy
▁Investig
▁luteal
DV
▁encomp
▁margins
▁tec
▁nebul
▁genotypes
▁calf
opro
oxazole
▁hemoglobin
othiaz
▁adherence
opramide
hydropyridine
affec
▁pertussis
economic
▁desm
▁responsive
▁indo
tening
▁digoxin
▁differentiate
eded
▁focal
▁excluding
▁histologic
▁smokers
olig
iatic
▁Serum
▁modality
▁ow
▁Thyroid
yel
▁arterial
LDL
▁Sixty
▁neutroph
▁schiz
▁atherosclerotic
▁marginally
bacco
▁bacterial
PCR
▁Positive
bodies
▁estimating
▁effec
conver
▁PMS
resistant
▁cultured
ritish
▁comprising
▁injec
▁propionate
acrine
nine
▁bacteremia
upus
▁dipyridamole
sion
▁familial
ometh
▁hyperb
xia
▁hazard
▁reticulocyte
▁tes
sodium
reduced
▁uncomplicated
▁rheum
▁CAP
▁Whereas
▁diffic
▁visualization
▁concurrently
▁cavity
jec
ichia
▁persis
▁TSH
▁abnormality
▁enteric
ternational
▁expressing
▁Histologic
tious
embran
▁immunoglobulin
▁absorp
▁Subjects
▁Insulin
ctive
▁ery
▁secrete
▁remission
▁morbidity
▁vein
▁differenti
▁Beta
lamy
bic
▁molecule
▁malformations
▁radiological
omerular
erate
coh
▁physi
ocarcinoma
▁repor
fusion
▁questionnaire
▁influenzae
▁hetero
omat
unctional
▁undergoing
▁Significant
▁Haemophilus
▁plateau
estrogen
mental
▁elastic
sies
▁thrombus
▁arteri
tum
▁conjunction
omial
certain
▁ejection
▁neon
▁sple
▁paired
uran
▁adequately
ovirus
▁usefulness
▁supr
arrhythmic
ipr
eptide
▁monitored
▁Fifty
acterial
▁ulc
▁vasoconstric
▁palp
▁neurolep
illin
▁peripheral
▁termination
tel
ontal
▁protec
▁electromy
openia
▁MRI
▁uncontrolled
pressing
▁plaques
erb
▁asthma
entricular
▁proportions
▁neurotrans
rein
▁multiv
▁carotid
▁electrolytes
insulin
▁coated
▁pathophysiology
▁prophyl
▁osteoporosis
▁heterozygous
▁supplementation
▁Myocardial
▁Maximum
▁unres
▁enrol
▁hypertension
NH
prising
determined
▁ventricular
▁acetyl
▁HS
▁alcoholics
ordance
ecu
cepti
fec
▁relapses
▁regression
▁exhibiting
▁dosages
▁ect
▁enamel
sess
lytic
▁inflamed
▁elicits
▁nonspecific
ampl
aceous
▁irrig
iazide
▁clot
▁prevalence
inflammatory
mend
▁assessing
▁casein
▁Concentrations
▁generalized
▁Sixteen
alc
lactam
tebral
retin
▁vaccinated
▁LR
lyce
osus
▁eliminating
▁subgroup
▁lacks
▁Thir
▁doubled
▁psychosocial
▁paroxys
▁ratios
▁Fifteen
▁carbam
lyc
plants
▁ascorbic
▁nodules
▁compartments
▁efficacy
▁lupus
ytoin
▁retention
▁recruited
▁lacked
▁opioids
▁granul
▁rhe
icep
▁peritoneal
gression
▁polyp
▁polyethylene
illus
osts
roscopy
cine
▁cytologic
▁transi
havi
▁lutein
▁stres
cysteine
odic
acting
▁incidence
▁circumference
owel
▁CI
tural
▁smear
▁TC
opathological
ventricular
angiotensin
▁pylori
▁enti
▁antidepressants
▁prednisone
▁melanoma
▁comple
hydrox
▁defects
▁malignancies
▁gonadotroph
arrhy
farin
▁pharmacologic
▁direc
usp
▁readings
▁differentiated
▁urea
pig
▁heavi
entile
spectively
rine
▁psychiatric
vely
ogens
promazine
terol
opathology
asic
▁interfer
▁contamin
aturia
▁tuber
▁frac
▁acids
▁conduc
▁ure
taz
▁avoidance
yroid
▁thyroid
▁cerebral
▁semen
▁ulcer
etent
▁persistently
▁anesthetic
fractions
stim
▁flexor
edema
availability
▁postprandial
▁bactere
▁discharge
▁vesicles
▁exhaustion
isol
Hb
▁steroids
▁regurg
▁enlarged
▁behavioral
inally
ymp
terin
mortem
▁inhal
▁hospitalization
ophysical
▁Holter
▁smo
▁glycosylated
▁veins
amole
▁medically
irub
sych
▁Coronary
▁microorganisms
▁insertion
▁choline
▁hemorrh
▁spi
▁dorsal
tically
olus
▁immunobl
▁converting
▁prophylactic
valence
▁challen
▁reversible
▁receptive
▁sero
▁ankle
▁traumatic
▁discontinued
▁verbal
resis
itrate
▁carcin
plementation
▁trimester
▁acad
▁abstin
▁resear
▁analyses
▁proteinuria
▁bloc
▁biphasic
▁radiography
▁LV
▁poisoning
esium
▁unstable
▁disclosed
▁discontinu
▁doubling
▁topical
▁clon
urea
▁ciprofloxacin
▁antimicrobial
amicin
▁ligament
onad
operative
▁uric
▁fibros
▁emerg
▁transluminal
▁Risk
▁intolerance
ycline
▁intrav
ected
▁tac
▁glycos
▁incomplete
duce
arynx
ococcus
▁inflammatory
cholesterol
▁unaffected
venty
▁qualit
tial
lip
pregn
▁occlusive
meth
▁parental
ithin
icillin
▁prophylaxis
▁definitive
▁confound
brom
▁competent
▁selec
▁leukotri
diabetic
achnoid
▁fati
▁menopause
▁antagon
▁prenatal
▁Subsequent
ucl
enil
▁GAD
▁poten
▁LN
olerance
immune
reatine
▁Prospective
essation
Pa
▁uterine
▁suppression
eak
mega
▁uterus
tally
athy
▁junction
rogenic
▁attemp
retic
odon
▁sequentially
osyl
▁tuberc
▁Subsequently
thromb
▁presumed
leu
▁exten
zyme
▁disseminated
▁blockers
▁construc
▁obesity
▁antibiotic
vices
▁Patient
eces
▁impaired
▁eti
▁cortic
▁anomal
▁algor
▁Alzheimer
▁LDL
venous
▁rehabil
FSH
▁Ear
apanese
▁coagulation
▁xyl
ociation
inic
ogenic
▁adolescents
plast
▁Myc
atural
▁peaked
▁genotype
▁probes
▁calcification
▁immunization
▁pituitary
tage
andard
▁omeprazole
▁Increasing
▁capsule
inemia
▁enlarge
intensity
onset
▁repres
▁infusion
induc
▁nicot
absorption
▁gland
onary
struc
▁hygiene
vular
oderm
ermal
istar
tronic
▁injections
▁deficiency
esin
▁agonists
infection
▁depressive
ronchial
oxide
▁propor
▁counseling
▁stool
▁salbutamol
abies
irubin
anad
ethyl
omized
leukin
▁Seventy
▁overt
▁physicians
▁recordings
▁lar
▁regulate
▁analges
▁tended
onvul
▁cen
▁preparations
▁pooled
▁defic
parathyroid
▁reinforcement
queous
▁surgeons
▁Surgery
▁folate
▁quantified
▁hydroly
timal
tations
reast
▁lavage
▁DF
▁Tran
▁valu
▁reliably
▁diarrh
▁grouped
IgA
▁plasm
▁allergy
▁antibiotics
▁histamine
opathy
▁perinatal
▁aerobic
robial
▁deliveries
atible
tomy
inj
titution
▁latency
ithelial
obenz
ecal
▁hyperactivity
▁contraction
inum
▁expiratory
ectomy
▁reductions
▁osm
epines
▁prescribed
glycer
dL
tics
▁immunosorbent
ocor
▁nonselective
igaret
▁wors
▁ICU
onin
ranolol
quit
▁protoc
FEV
▁gonad
arbonate
tissue
kelihood
▁vitamin
fraction
adders
rati
▁nitroglycerin
ovis
olated
▁caro
▁blin
▁Engl
▁aluminum
nai
▁estradiol
▁retin
tizing
▁angiotensin
▁isch
thoracic
▁benzodiazepine
▁BCG
ocyte
tured
▁evid
▁gonadotrop
▁bilateral
omatosis
lycer
opres
▁epidemi
vents
tine
▁inhibitor
ctomy
▁COPD
▁morphine
oag
▁elas
▁combin
ritin
▁secretagog
dition
aind
▁comparative
omycin
▁quanti
▁heparin
▁pate
▁homogeneity
▁improves
▁erythematosus
DH
▁influenz
tigu
▁cytology
acted
responding
▁possi
gment
▁ferritin
▁requi
▁IgM
aginal
rents
ongest
▁colos
arous
▁cyclosporine
▁deficit
▁captopril
▁lactation
▁tremor
corrected
▁accessibility
▁longitudinal
uble
▁leukotriene
okine
phosphon
ffer
gth
cious
avage
▁fluids
onit
icin
▁targeting
▁increments
fat
HB
greater
▁elevations
▁Combined
cortisone
▁hazards
aemic
otting
▁Bec
onazole
▁Evaluation
lep
terone
▁nonc
▁specificities
radi
▁Few
atectomy
▁activator
▁rhabdomy
uscular
▁cytoch
formations
ipine
▁exag
▁adren
owever
▁Atrial
▁elective
▁myocardial
▁abnormally
▁sham
▁enalapril
othi
▁progressed
▁inhibitory
▁parathyroid
▁diazepam
▁preven
▁attenu
▁thirds
▁nadir
▁socioeconomic
ureus
tif
anic
▁Severe
▁intestinal
▁Elevated
▁arose
coun
pain
atical
▁perin
acchar
treatment
ocyt
▁cyst
▁pellets
▁vaccination
▁inherent
trial
▁glomerul
▁abnormalities
oporosis
▁Ib
▁cephal
▁angiography
tropin
dia
romy
▁dehyd
▁inver
▁Haem
elves
onucle
▁vulgaris
▁compounds
ystic
▁proce
▁traum
ipolar
ostomy
tate
urys
ocardial
▁initiation
opus
pirone
itant
▁pharmac
▁prostaglandin
▁cyclospor
▁Candida
itro
▁minimally
▁abnormal
▁symptomatology
▁glucocorticoid
▁uv
▁hemo
▁correlates
▁acqui
ometri
▁radionuclide
▁interc
▁benz
rance
tero
luded
▁mU
Cs
▁carbohyd
▁autoantibody
▁manipulation
▁supra
▁tertiary
▁inadequ
▁maturity
inoc
▁comparisons
adren
ulla
▁monit
▁palsy
okinetic
▁pH
▁implicated
yzed
▁succin
ayers
▁ovarian
▁normotensive
▁vaginal
▁BMI
▁simultaneous
▁deviations
lac
▁subf
urrent
▁carbohydrates
▁hyperthyroidism
oprol
▁herpes
▁supplemented
▁receptor
▁transient
responsive
▁reproduc
hea
▁infrequent
▁splenic
▁deviation
▁hematoma
▁prospectively
tially
odine
▁produc
▁amn
daily
▁spasm
▁ND
▁cyclooxygenase
imeth
bumin
ocytes
▁adhesive
▁suppor
▁assis
▁ultr
▁clamping
▁gly
▁investigators
lycemia
EG
exposed
▁recom
uresis
sions
idone
▁dox
▁Eighty
▁persists
▁peri
sives
orectal
Ca
▁ascorb
cence
amide
renal
▁Twelve
erant
▁surgical
▁Ace
▁infections
▁hydrophilic
▁confounding
▁benzo
elec
odia
orin
ergen
▁tendon
raine
▁pulmonary
▁pretreated
▁arous
uted
tingu
▁nec
trical
loro
gia
otassium
▁intravenous
▁maneu
ferrin
amn
▁juvenile
atoid
▁canc
eric
▁hepatic
▁untreated
▁reproducible
leuk
▁restenosis
▁bathing
▁attrib
olam
ilin
▁diagnose
caro
▁serotonergic
vitamin
amel
feron
▁atrophy
▁elevate
▁creatine
sibility
▁elimination
▁perc
▁numb
▁affec
▁ranged
ograms
▁judged
▁bony
▁metoprolol
▁fibrosis
utions
induced
▁screened
ifferen
esti
early
▁distinguishing
kely
stin
▁quantitative
chlor
horm
▁chemotherapy
▁Ig
▁attain
▁lith
oscopic
▁hemorrhage
orrhea
galy
▁Lymph
▁moderately
▁clonidine
▁techniqu
atrial
▁influenza
trin
▁aden
tact
dle
▁hypothesize
▁hypoth
aryl
▁Reduction
▁hepatitis
iplin
▁defec
tures
▁discriminant
ucose
▁cys
▁induce
tral
tic
agic
▁chlor
▁antimic
▁IB
▁ofloxacin
▁Preliminary
▁DSM
▁precursors
olesterol
▁electrolyte
▁tumors
▁bronch
▁beats
gely
▁discomfort
▁resec
▁perox
▁pigment
▁lumen
▁obese
▁mucosa
ropath
▁conges
sant
▁arrhythmia
▁Specifically
▁impair
rowth
ffe
▁glomer
lamydia
▁retard
▁venous
▁amp
▁dermatitis
otroph
▁criterion
▁allevi
idation
▁progestin
▁actin
▁tox
▁fetus
oidal
▁sodium
▁questionnaires
▁ana
▁horiz
▁euthyroid
oreal
▁seropositive
▁withdrawn
wes
▁immunogenic
▁couns
▁adversely
antial
▁neutrop
ticular
▁depres
moking
selec
▁recor
▁hypertro
otropin
▁amin
▁biop
reased
▁colonic
▁hypothal
▁sonography
mur
ditions
▁subgroups
▁unfractionated
aturity
tisone
▁bolus
▁ampicillin
▁compli
▁occurrence
▁recipients
opamine
partic
injection
▁differing
▁exis
▁congestive
▁sequenced
eration
oyl
▁cystic
fal
▁intrap
▁pulses
LH
lier
athyroid
▁predicting
lated
trated
▁splen
vated
ture
ximal
▁carbonic
▁receptors
▁establ
yx
ophilus
▁syndromes
erence
▁vitamins
tions
lys
▁exceeded
▁dex
adication
▁thrombotic
▁transferrin
▁nausea
▁pressures
▁therapeutic
▁dermat
ocated
atients
▁paradox
▁agon
▁elic
▁creatinine
▁instrum
▁streptococcal
▁pediatric
▁panc
tation
▁alternating
▁oxytocin
crip
acerb
▁unresponsive
hydr
pregnant
jac
reactive
▁Factors
▁antidepress
tyl
▁androgen
▁basal
▁guinea
odal
▁antagonists
▁dilatation
▁diuretic
otor
orsal
▁therapies
onatal
predic
▁thi
arbox
▁HBsAg
▁duct
tracted
▁fractions
▁plasmin
▁pyr
▁compart
erated
accharide
echan
▁poin
▁idiopathic
ococcal
▁dietary
▁residual
▁sheath
atology
▁Thy
entical
▁sexually
▁kidney
▁menstr
▁Chlamydia
ituit
▁exacerb
lact
duced
▁reactive
chloride
▁neurogenic
▁spontaneous
▁outpatients
▁spinal
▁pla
▁renovascular
▁Hear
lipid
ifed
adic
▁abor
▁caffeine
▁muc
oic
xone
▁triglyceride
▁perfusion
▁tracts
▁rehabilitation
hydro
bility
▁uter
▁thrombosis
comitant
▁demonstrable
onc
ophy
vail
ritic
uccess
▁percentile
went
▁prolonged
▁islet
▁diabetic
teric
actin
aund
oxin
orphine
tin
sectional
▁clamp
▁Neu
▁esophageal
▁serologically
phal
ffinities
olec
tives
▁toxicity
▁stric
▁Lact
▁logistic
▁nonex
▁retardation
ignificant
ionate
▁apnea
▁proceeded
▁viral
▁tuberculosis
▁obser
▁ech
▁conflicting
▁allergen
oplasm
▁methyl
▁reas
▁discus
IU
▁hospitalized
▁quantif
erally
▁incontinence
▁dimethyl
hion
directed
tional
osclerosis
scop
▁indus
▁neutropenia
▁subjec
fib
ipramine
▁nitrogen
ipro
▁datab
oil
▁hyperglycemia
▁relapse
▁neonatal
▁pyel
eprazole
▁resour
yroxine
▁concep
▁slowing
▁phosphate
▁Estim
▁unilateral
▁propranolol
azole
▁postoperative
▁reflec
sus
odiaz
erin
▁amniotic
vation
▁dexamethasone
▁rebound
▁Phen
▁pharmacokinetic
▁artery
partate
▁encephalopathy
onephritis
agin
▁WHO
▁urinary
Cu
▁superficial
▁TP
▁endometri
phor
▁inh
▁prednisolone
▁perforation
▁illnesses
botic
yrox
uppression
oxif
▁emo
▁asthmatic
aminase
herence
▁adap
usate
▁pyl
▁reticul
▁parity
▁infusions
▁percentages
▁vancomycin
sible
▁congenital
▁bac
partum
▁OC
tection
▁potassium
tration
▁ulcers
▁balloon
▁LVH
feeding
▁histological
flamm
phosph
▁subc
itin
▁ECG
rofen
▁rhin
▁cholinesterase
▁abscess
▁serologic
▁toge
ventional
▁concom
onography
▁surveyed
▁radiologic
▁constituted
dor
▁lipophilic
▁pulsed
athiop
poor
olone
welling
onate
▁variability
▁rup
▁qualitative
▁gonorrh
▁preoperative
rometry
▁bup
▁reproductive
phic
▁Fib
oste
tice
▁uro
▁developmental
▁elevated
osition
▁renin
ocardi
▁atopic
▁ultras
▁intram
erent
bacter
tein
▁imipramine
tus
▁terat
▁intraven
▁cis
▁adjusting
phil
▁tibial
▁lateral
sian
▁warfarin
▁latent
▁ovulation
vascular
▁tetracycline
ameth
esic
▁schedules
eryth
▁PPD
▁HbA
▁viruses
rected
▁testis
▁hypocal
ardia
▁supplements
▁inhibitors
intestinal
▁adverse
hospital
▁rectal
▁inspiratory
▁cros
limb
▁crosso
▁HDL
ilep
urine
▁cardiovascular
effects
▁outflow
ypical
▁meningitis
▁inser
ochemical
piration
▁ELISA
timulation
▁prol
tig
▁relap
exercise
epam
▁MIC
▁stratif
▁paradoxical
▁anhydr
▁indi
▁adi
▁ascer
diagn
▁increas
lobulin
▁ori
loride
▁placebo
lec
▁bioavailability
▁transcription
ophil
▁persist
triglycerid
▁phosph
atum
▁PLP
teroids
▁immunocomp
▁mec
lies
▁stimulus
▁alanine
▁excretory
tussis
tent
ulatory
oxid
▁multivariate
cyclic
▁indomethacin
thmatic
▁esterase
hyp
▁subclinical
osin
cemia
bladder
ritis
▁commercially
▁cruc
▁neuropsych
oxifen
▁sugges
▁tumor
▁BMD
adder
▁grains
inergic
▁disturbance
▁pneumonia
▁tib
▁rhinitis
▁gradi
bly
▁threefold
▁recurrence
▁Likewise
anol
▁sensitivities
onomic
▁mitral
▁Forty
▁stratified
▁diagnosing
