▁arterial
▁epidemic
ensitive
▁interc
▁DG
▁proce
▁ventil
▁unde
entan
jun
▁palli
▁correlations
▁exercised
ressive
▁mutations
rone
▁physici
▁presum
▁distin
▁histological
ullary
ventional
opi
▁sclerosis
▁presenting
▁exce
▁diabetes
▁mothers
cence
▁reas
▁tymp
▁atm
placement
▁constitutes
rine
▁arth
▁diminished
andard
xone
▁clinical
▁unexpl
▁ulcer
▁platelet
▁cultures
▁curative
MIC
▁improving
iary
adequ
rogra
▁favorable
▁improves
▁throm
▁postmenopausal
▁follic
▁pter
ressed
patient
▁carb
▁eradication
▁HM
▁treating
▁trend
▁preliminary
▁Bec
▁inflamm
▁concentrations
trast
ologic
▁stren
▁regimens
keletal
itance
monary
▁identifies
ipient
▁accumulation
▁hepar
▁morb
itin
▁circulation
▁demonstrates
▁molar
otent
Phe
rated
▁accurately
▁pyram
ogenous
▁HLA
▁poorly
▁tobacco
▁pall
▁deterior
▁mellitus
▁adhesions
▁atr
▁exhibit
omiting
▁telephone
▁surveys
▁discus
ineal
▁awa
coun
▁intrag
▁rhe
oglyc
▁confined
▁receptor
itamin
▁remission
▁theore
▁lobe
▁bone
▁anastom
▁attending
▁symptomatic
urc
▁TB
▁Eff
▁fatty
▁variability
▁modif
▁GV
sess
amic
arent
▁TC
pation
▁abdomen
▁allergic
▁ventricular
anyl
olic
GI
▁schiz
opl
▁adequate
venth
utroph
▁GF
bility
▁biopsy
geal
▁encouraging
▁endometrial
▁assessment
▁screening
iosis
atid
▁alve
▁prevalence
▁aorta
▁mL
omerular
▁GVHD
▁toxic
mental
▁dental
▁HPV
▁utero
▁infection
sities
▁comparisons
▁endothelial
▁distal
▁questionnai
▁hyperg
▁sequelae
▁COS
▁chloroquine
▁recurrent
cessive
▁radiological
ocl
▁gangl
ration
▁pathogen
▁numb
orin
erations
▁adolescents
▁molecular
▁assessing
▁cortisol
▁Clinical
▁sensitivity
▁affects
▁staging
▁cervical
▁heavier
▁influences
▁pylori
▁harmful
▁BS
▁hepatitis
▁alcohol
▁mec
▁preferen
▁superficial
IgM
▁systematically
▁psychiatric
▁postnatal
▁clinically
▁abnormal
▁availability
lep
▁coex
▁ovari
▁polymorph
▁enhanced
omatic
▁awareness
▁readings
▁Increased
▁follicle
▁vaccination
erate
duce
▁cancers
tical
▁tas
▁correlates
▁concordance
▁workload
▁disorder
ostic
▁increas
▁cate
tomy
onin
▁excluded
▁perfor
itr
incip
odic
▁prognosis
▁diffic
yses
▁cochlear
▁physicians
itro
iminary
▁metastases
tum
▁geniculate
IIIa
▁ration
oplasty
▁neonatal
tectable
rested
▁rectal
▁mucosa
▁reproduction
▁ASA
thma
▁buc
atheter
▁TG
▁vitro
ught
FV
▁prognostic
monstr
▁defic
▁drugs
comitant
hern
▁identif
▁scanning
▁preservation
▁physiology
▁hospitalized
athyroid
▁mamm
▁eosin
▁poorer
rants
acer
▁contex
loid
taining
spectively
eces
▁migrated
▁sedentary
▁statistically
▁inadequate
▁survival
uvant
▁spontaneous
▁organisms
▁melatonin
▁somatostatin
▁synerg
▁targeted
▁oligo
atonin
▁drin
▁PH
▁cere
▁underg
▁irrit
▁pati
▁inpatient
▁prospectively
▁aortic
erin
nai
▁visually
▁extensor
illus
▁reagent
▁testicular
olated
oes
▁Cox
▁colorectal
▁bowel
▁GD
▁Tum
jected
▁prostate
ophren
tic
▁practitioners
▁diversity
▁AMI
▁transient
▁bac
erine
▁bacter
▁inappropriate
▁Severe
▁comparative
▁subtraction
▁neurological
▁coronal
▁pneumon
responding
treatment
▁potency
▁saturated
▁intrap
▁subgroups
▁seventh
rents
▁encoun
▁atresia
▁thickening
tebral
▁Impro
▁silic
▁crest
▁undergoing
occi
▁validated
▁etiology
rection
▁deficit
▁percutaneous
▁Phy
▁GFR
▁predomin
vation
▁tuber
▁gradi
▁underlie
▁kerat
▁explored
genic
ostat
▁Significant
tions
▁progressive
▁axillary
▁endoscopy
uccess
astric
ometr
▁transplantation
ivation
▁prevention
ctomy
valence
▁socioeconomic
▁preoperatively
▁ket
ronch
▁tumours
▁rehabilitation
reast
▁controversial
▁gait
▁resear
▁Chemical
▁urinary
▁pancreatic
▁catheters
requ
▁ovarian
▁tric
▁cardiomy
▁unex
alsy
lected
▁elevation
▁suppression
▁reactions
▁gyn
onary
▁reliably
▁atrophy
MH
lymph
helial
▁decreased
▁endoscopic
▁DS
▁unc
▁prophylactic
▁antibiotic
▁describ
▁HA
▁HIV
▁viable
▁complaints
▁neutrophil
intestinal
▁decreas
▁intravenous
▁Neither
ographically
inj
▁stom
mur
hers
▁sphincter
▁vascular
▁infants
operative
▁ultr
▁withdrawn
▁atten
▁characterized
gative
▁tracers
▁elderly
phrine
▁haemorrhage
threatening
oplas
▁Kup
▁syndromes
▁melan
▁controlling
othelial
tinu
▁reac
▁encour
odies
▁impaired
▁elic
▁prescrib
▁labeling
sial
▁Additional
▁tertiary
▁longitudinal
odialysis
▁provid
▁Tumor
▁childhood
epit
ece
tle
fat
▁promoting
▁synchronous
▁metastatic
▁Compared
ithin
▁hypoxia
▁progestin
▁ischem
▁eosinophil
▁paraventricular
▁GM
▁adop
▁graft
hemical
sive
▁epid
▁ascer
▁attrib
omotor
utaneous
▁tissue
atitis
renal
ressing
▁Phe
▁lesions
▁atheros
Ds
ymp
▁allevi
▁habits
▁IgM
▁causal
▁ana
tensive
iciencies
years
▁cerv
▁wrist
▁congenital
ureus
wk
acental
▁selective
▁supplementation
▁cholest
▁advan
sion
ureth
▁complementary
▁recipient
▁mineral
▁modulates
▁lymph
▁resis
diol
idated
orts
veolar
oracic
▁aort
▁phagocytic
amine
▁overlapping
osity
▁warranted
▁somat
otor
tual
EGF
omes
oxif
▁FV
cine
▁tooth
▁traum
dition
opathy
MG
pir
ariate
▁slowed
arean
idne
▁cava
adily
▁artery
▁Patients
lastic
▁advances
▁nosocomial
▁SB
▁pregn
▁leuk
acil
▁adjunct
mTc
▁PRP
▁juven
▁ane
▁elucidate
PB
▁exposures
ysm
amily
▁chec
▁pelvis
▁enlarged
▁trials
▁contribut
▁drainage
crib
▁agon
▁neurologic
tate
▁confound
▁intraoperative
▁validity
eptin
▁monitored
▁infil
▁RS
tact
gmental
▁enhance
▁intra
ovascular
▁inadequ
▁horm
rele
▁protective
▁macrophage
▁initiating
crimin
ulae
▁interv
▁solely
iotic
▁PCP
oplasm
eal
tation
▁creatine
▁swelling
▁geriatric
▁caro
▁ascertained
▁substances
feren
▁excre
▁reagents
erance
▁overexpression
▁considerably
mitted
opathological
▁randomized
uptake
▁malignant
▁locus
▁proteins
▁mandatory
▁VE
▁establishing
▁arter
bly
ectom
▁rati
▁PT
▁feasibility
▁consensus
▁reproduc
lectomy
▁muscle
▁Engl
ternational
ministration
▁Comparisons
▁pregnancy
icide
▁tibial
ervice
▁abnormality
▁pyl
▁irradiated
▁agonist
▁cyt
odynamic
▁emerg
▁TK
▁chlor
▁hypertensive
▁physiological
▁prophyl
▁strom
ditions
▁cystic
▁acqui
▁apop
acerb
namic
anding
ropine
▁polymorphism
totic
▁chan
▁quantit
ceptual
atell
nutrition
▁cuff
▁hypot
▁LD
▁consequent
▁packing
▁microm
PV
▁benz
▁Swed
▁RB
CMV
▁meal
birth
▁soybean
BW
Tn
▁bronch
ensity
▁biological
▁sph
AH
▁poisoning
▁Samples
mong
▁sciatic
▁reproducibility
▁rele
▁Phen
ologically
▁unrelated
▁vaccines
▁microc
▁RP
▁enhancing
omies
▁bloc
centr
▁concentrate
▁abortion
▁examinations
▁anemia
heal
▁collateral
▁amputation
▁surgeons
rectomy
▁resonance
▁socio
NH
▁infarction
▁evaluating
▁PCO
teric
▁mechanisms
▁strategies
▁dysfunction
▁poten
yel
ejun
onyl
▁hypothyroidism
MN
▁nec
taken
▁pressures
MV
▁heterogeneity
osal
ilical
▁HS
entral
▁pregnancies
onatal
▁nerve
icine
▁femoral
▁estimating
▁septum
▁overl
▁pharmac
▁bypass
otropic
bic
sian
▁limb
duction
hep
▁Concomitant
PAP
RH
istal
versity
▁neo
▁unre
▁diagnosed
genesis
▁sustained
▁financ
▁ratios
▁ventilation
▁deaths
ximum
oratory
▁CK
▁silicone
iatic
▁demands
▁multiv
stim
▁insurance
▁metabol
▁reduc
ocyte
▁arthritis
▁vancomycin
tage
▁sensory
ingle
▁bipolar
▁relap
▁guidelines
▁concomitant
▁biopsies
▁concom
▁systematic
▁ethanol
▁OT
tial
illary
▁lob
▁birthweight
plantation
omical
▁gaps
▁buccal
▁ventric
▁resuscitation
rox
GF
▁manipulations
▁tumour
▁analys
erad
▁nutrition
▁tol
erable
ycl
asive
▁tidal
invasive
tent
▁hemorrh
rosis
▁surgery
▁severity
▁enhancement
▁expend
entanyl
▁pronounced
isqu
▁apex
▁striated
▁disability
▁MG
▁pathway
ogra
▁endoscop
▁reflecting
vely
tering
▁hypertension
▁inapp
▁phe
▁investigated
▁vaccin
▁Dop
entical
iant
▁depression
▁inhibitory
▁wound
▁abilities
▁intercostal
lective
TNF
riend
▁VO
▁vitamin
erally
▁micron
▁Clin
itary
ociation
▁Bone
▁increasingly
inic
itus
▁alteration
▁atmosp
oxid
▁chloride
▁imaging
ffer
▁ile
▁comparable
ronchial
urea
▁promising
▁determination
otype
associated
hospital
▁infusion
▁adolescent
versus
ethyl
▁homogeneity
▁ultrasound
▁chemot
▁mediated
▁cirrhotic
▁mediates
▁morbidity
▁acids
▁interventions
WL
▁hypox
▁epinephrine
VL
ilized
▁abuse
▁corne
▁subtype
▁NH
▁hazards
ilic
▁deterioration
bacco
▁esophag
ritish
▁LVH
mide
atest
▁consol
▁plac
▁irr
ograp
▁unsuccessful
zation
▁drain
▁investigations
idity
▁laboratories
▁contamin
▁indicators
tection
▁pancre
▁hypothe
▁carc
▁rationale
ication
▁judged
iliac
stolic
▁displ
▁pelvic
licular
▁palliative
▁outs
▁corneal
roma
▁invasive
athe
▁sustain
tec
▁undes
alc
▁measurable
▁cues
▁incidence
▁nutritional
▁complic
▁unexplained
▁vaccine
▁Sout
▁iliac
▁nonc
▁Pregn
▁dissection
▁resusc
▁exposure
▁dexamethasone
▁evid
▁impair
ociated
ignific
seud
▁anatomic
▁resour
rogen
▁carcinoma
▁Muc
arity
functional
trop
▁pathological
▁metabolic
▁tissues
resting
▁benign
▁CSA
▁heterogeneous
▁inherent
▁ongoing
▁healthy
▁regimen
onomic
▁infar
▁atropine
tur
esity
atients
▁gallbladder
▁PP
sensitive
lyc
gents
▁prostatic
▁excretion
▁unres
ophag
▁vomiting
glyc
ocial
▁reconstruction
alues
ameth
sions
usive
▁unil
▁parap
▁esophageal
illance
▁neph
ceptive
ials
herent
▁differing
▁limbs
▁gluc
▁asthma
▁Hb
▁hig
▁differen
▁postoperative
▁athle
acet
atectomy
▁torsion
iated
▁physi
arous
▁ablation
▁depr
effective
▁drinking
eight
▁PCR
▁ward
hea
venous
▁examined
▁comprehensive
▁clinics
otomy
▁liver
▁exclusion
▁pituitary
mend
▁deliveries
▁IA
implantation
▁injuries
▁skeletal
▁atrial
sts
trexone
ustif
▁preventive
▁Contr
▁subf
▁thoracic
▁ECG
▁bab
Tc
lusion
▁preterm
▁genotypes
ameter
uscular
thal
▁intrinsic
▁correlated
▁peripheral
usions
▁focusing
ergy
amination
perfusion
▁compli
vail
▁WHO
▁medial
▁doses
▁neutroph
RB
BP
clin
▁molec
ulatory
▁insulin
opic
uterine
▁thigh
▁edema
▁DT
▁RAR
▁contral
oag
▁paradig
respon
iplin
iferation
▁rated
inated
▁surge
▁vulnerable
▁carriers
▁ambulatory
iciency
▁chol
▁ischemic
▁suicide
▁undergo
antial
▁adhesive
▁Intra
▁immature
▁latency
▁pneum
aginal
▁intervention
▁metast
▁resection
vascular
itic
▁diagnosis
Ki
tration
▁putative
▁implic
tein
▁onset
▁involvement
lys
▁assis
arate
▁NT
eliac
▁MV
▁enrolled
▁somatic
▁spont
▁TD
▁CRP
icient
▁positively
▁surviv
▁aging
aryn
▁decreasing
ercise
▁practic
▁discontinued
▁facilitated
▁regulation
▁enl
▁survived
▁adequ
▁normalized
identical
▁characterize
▁LF
▁sti
▁unstable
▁antibodies
olution
ocar
tak
▁correspon
▁repl
▁surgeon
▁anticoag
aryngeal
▁rhythm
trib
ascular
▁unm
▁alveolar
▁inflammation
▁obesity
▁hemorrhagic
▁extre
▁Increas
▁mandibular
▁stellate
▁detachment
▁Treatment
▁endarte
matched
▁athe
▁stimulation
▁enteral
▁fetus
▁insufficiency
▁melanomas
▁ACE
▁stenosis
▁parotid
▁respondents
▁segmental
immun
▁specimens
▁feeding
ignant
tro
▁placenta
echn
▁classified
▁HCC
▁bronchial
▁modality
elan
▁stu
▁differentially
▁suggestive
▁surf
▁oxy
▁establ
▁reveals
▁microv
▁periodon
▁illness
▁utilization
▁suspicion
▁perception
▁obese
asses
▁unilateral
oidal
▁definitive
▁meaningful
▁occlusal
▁ascertain
▁BMI
▁MN
▁periodontal
atched
apse
▁diluted
lated
▁techniqu
injured
▁affecting
▁hemodialysis
loro
▁Acute
oprote
▁inhibin
gland
▁clinic
Ts
entary
▁pig
▁detectable
▁Steady
▁reproducible
isol
▁medication
▁Intravenous
▁adhe
▁aspiration
immune
▁acad
atories
▁laboratory
icin
▁BM
KD
▁clus
▁rebound
▁gains
▁acidosis
tries
▁clinician
Hb
▁diabetic
HF
opamine
lym
▁leakage
aneously
▁reag
▁adhere
trative
▁weigh
DH
quid
▁nig
▁cathe
▁supple
▁concer
spective
▁oss
▁valve
▁anastomotic
▁indication
▁blin
▁suture
▁soy
▁angi
▁stimul
▁cocaine
▁topographic
▁enrol
▁undertaken
▁relating
ture
phic
▁cognitive
▁previ
ocytes
▁HI
▁vag
▁intermittent
▁bilateral
regulated
▁HN
▁monit
▁ae
▁malign
▁carbohydrates
▁PEG
▁analyses
▁serum
mittent
▁amyloid
▁participate
▁compartment
▁deficiencies
▁turnover
▁ocul
bral
dial
▁perfusion
rehen
▁differentiate
▁uncommon
vated
igaret
graft
emic
▁prel
▁mediation
▁immunode
▁underst
relations
▁distinctly
anic
▁differentiation
olysis
vents
olute
▁occl
▁cephal
▁aspir
pendent
ilization
radi
ceptions
induced
▁retrospective
▁intrauterine
estis
▁wee
▁biop
rolog
▁PV
▁sedation
▁employing
onium
▁pulmonary
▁vaginal
▁sequentially
▁hypog
aline
▁surveillance
▁colloid
▁therapy
▁endometr
▁seiz
▁LV
ycin
rae
▁physician
ochem
vac
arly
▁assessments
▁discern
▁repaired
occal
▁gland
▁heavi
▁metastasis
▁Thromb
▁glu
orax
ologists
▁presumably
▁Biochemical
quine
▁tamoxifen
▁demonstrating
GD
▁eliciting
▁streptococcal
▁preparations
▁anticipated
retion
▁modulate
▁counseling
▁screened
▁quantitative
ipolar
Ps
▁membrane
▁enti
ococcus
▁indications
ochemical
▁Kupffer
▁herpes
Mu
ploy
▁moderately
▁autoimmune
idate
educ
abies
sequent
acr
▁glyc
uran
▁necrosis
▁elevated
opramide
EA
▁lis
▁wors
▁behavi
▁tris
▁profound
▁anatomy
▁remo
▁Large
▁salivary
▁circumference
aceous
▁receptors
ectomy
onit
oric
▁dosing
▁debr
osomal
▁hemodynamic
▁likelihood
agic
▁FT
▁chemotactic
oic
▁beha
uin
▁revealing
▁fatigue
▁oxygenation
▁headache
oprotein
BM
▁experim
▁diet
mL
uated
▁suspic
onography
▁iso
▁injur
▁homogeneous
▁neoplasm
▁proliferation
▁RT
▁cadaver
HB
uccessful
▁seizures
▁ey
pH
▁vulnerability
▁chemotherapy
▁cutaneous
▁Removal
▁muc
▁substantially
▁pneumonia
▁Certain
positive
gm
▁radiographic
▁exacerb
▁implicated
▁challen
ritis
▁premature
lasting
dose
▁questionnaires
▁manifestations
ergency
▁cigaret
▁sour
ulates
▁insufficient
▁newborns
▁insertion
▁raises
▁LC
oradi
▁outpatient
▁gradients
▁hazard
▁vein
responders
LV
weighted
▁adherence
orac
▁gly
aluation
▁fibers
versely
▁mobility
▁thi
▁trophob
▁alterations
oplastic
▁develops
▁carcin
iable
▁fluor
▁surgical
ituitary
▁approx
▁recur
yroid
▁Pretreatment
▁cerebral
▁Whereas
▁professionals
▁neurop
▁thromb
▁hygi
▁prol
▁tow
enhanced
▁achie
nec
ecre
▁Biochem
amn
▁conclusions
attern
natal
tus
ivariate
▁femur
▁radiotherapy
▁assay
▁spikes
cardi
▁uter
thre
▁latent
chol
▁hepat
▁births
▁perip
▁stomach
▁consistently
piration
Hu
▁conservative
▁ruptured
ucle
▁pharm
▁inhibit
▁burden
▁reper
controlled
▁implications
▁venous
▁shor
▁insertions
▁compartments
▁substance
romed
▁RBC
rophob
▁lumbar
▁distinguishing
▁catheter
anin
▁hepatocytes
▁responsiveness
▁healing
urys
▁beating
▁complication
▁gastric
▁ESR
ancies
▁aureus
ancre
idation
▁endemic
▁facilitate
▁prophylaxis
▁Lys
▁haem
acts
▁cardiomyopathy
aturated
oung
ithi
ialysis
▁infections
urate
BK
▁Dopamine
▁deficits
omat
▁oxide
▁carbohyd
duc
economic
▁myocardial
ses
▁GI
oplasmic
mia
hyd
▁Cycl
▁substituted
▁behavioral
▁bip
rophy
xual
▁exogenous
▁cesarean
▁spati
▁palsy
vant
▁minimize
ostal
▁synergistic
▁ADH
▁eluc
entric
▁appreciably
▁LS
othel
▁lesion
cture
asal
▁carotid
▁aimed
▁poin
▁shortened
▁genotype
astom
▁canc
inemia
▁indicative
▁examination
▁satur
▁Chronic
▁impairment
▁disruption
enic
razole
alp
▁MRI
▁compliance
▁IgG
clusive
▁hygiene
▁perc
▁reactivation
▁recor
▁ethnic
▁anomal
▁dyn
▁Tes
▁Cushing
ocarcinoma
▁gallst
ophil
▁trough
▁cardiac
▁manifestation
▁BP
▁PF
iatric
▁cervix
▁lacking
ophilic
vival
▁perinatal
▁radiography
▁streptococci
▁inhib
▁heparin
▁hypoxic
▁instr
▁inhibition
▁embryo
▁muscles
▁Taken
▁cure
aints
▁APC
▁scre
▁spine
▁cigarettes
▁colonization
▁diagnose
▁amput
lux
DNA
rati
unctional
▁fixation
atical
▁DF
▁PI
▁stimuli
▁excision
oride
ventricular
▁musc
▁fracture
▁intrarenal
▁LN
oxia
▁muscul
▁elu
loride
▁transfusion
uded
yro
▁discon
ctive
▁chemo
▁PEEP
▁vena
▁restenosis
▁adjustment
echanical
▁portions
aid
▁nodules
ficial
▁behaviors
▁synthesis
▁systolic
▁tumor
▁comprehen
ilateral
▁tox
▁deform
▁scans
▁aor
▁bronchi
▁predictors
▁knee
▁ischemia
dominal
regulation
osin
▁AO
▁differentiated
▁beneficial
▁athletes
▁Serum
▁susceptibility
ulin
ximal
▁psychosocial
reatine
▁undergone
encl
▁uncomplicated
itant
▁nurses
▁therapies
▁SG
▁hypo
▁tracer
▁parental
▁oste
othermic
▁thrombolysis
▁tes
kers
▁symptoms
▁linoleic
▁immunomod
▁sut
▁doctors
▁rheumatoid
lact
▁coronary
▁recurrence
▁haemorrh
cysteine
usal
▁barriers
luent
odynam
essive
aired
▁needle
ontal
▁localized
oxidation
▁overe
▁instability
tyl
▁pathology
▁abnormalities
iol
atab
▁MH
itone
▁intake
▁implant
▁chor
▁SLE
▁sten
anol
▁therap
orable
▁syndrome
▁grading
▁causative
atment
▁outcomes
bladder
▁infiltration
angl
aventricular
▁activated
atoid
trimental
OA
▁demographic
▁adenomas
jug
VT
tead
▁preparation
▁pancreatitis
▁AE
▁Addition
▁disorders
▁excl
▁temperatures
sor
sies
▁hospitalization
erative
▁adaptive
▁predictor
moid
sized
▁restric
▁chori
reness
▁phag
▁referral
▁homogene
vul
▁familial
dle
▁caution
▁stimulate
▁babies
▁PE
▁glycoprotein
▁regis
▁intram
Ns
▁intrav
▁overweight
▁pathologic
▁Doppler
▁oes
▁pulp
urther
▁prevented
ofol
▁metabolism
▁stab
▁pyramidal
▁cholecystectomy
▁Streptococcus
▁complications
▁AMP
oscopic
omal
▁regar
physiologic
ropriate
▁IIb
ospor
ivary
tant
▁neon
▁echocardi
▁directional
▁cen
urin
HM
▁displacement
▁thorac
oscopy
▁undetectable
▁predicts
▁prevalent
TG
onset
oscop
idney
▁angiography
His
rous
▁Surgery
▁tumors
enh
▁toxicity
▁phenotype
legia
▁anxiety
orectal
▁postoperatively
▁LDL
▁melanoma
eration
KA
▁laser
herence
tin
▁subjected
▁HP
▁emergency
▁concurrently
zard
ocaine
▁lipoprotein
atine
▁anomalies
▁molecule
ithm
▁rotational
cents
▁thresholds
▁atres
tens
rogenic
▁sequel
▁SCH
▁chond
ervical
▁peripher
fos
ithiasis
▁amyl
▁precedes
▁psychological
▁tear
ications
alian
▁balanced
▁cerebrovascular
▁respon
▁tolerated
▁meals
▁synovial
▁plates
▁decline
derly
roup
▁facial
kage
▁retention
▁cardi
▁epi
▁opi
istically
▁thrombo
▁flexion
▁discrimination
▁requi
▁nurse
▁ketamine
▁rhy
eak
▁schizophrenia
▁justified
ocytic
▁specificity
thle
▁DSM
mg
▁ultras
inely
▁abd
▁HSV
▁satis
anish
olved
aemia
▁eating
▁parame
▁progn
▁favourable
▁diagnostic
▁shif
▁effectiveness
▁contributes
occus
▁opioid
▁endoc
▁reflux
▁microb
▁discrimin
▁inflammatory
▁inducer
▁challenges
▁osteoporosis
▁microcirc
▁arteries
▁chewing
▁pH
▁adjuvant
▁myo
▁predicting
Ia
▁practition
ygen
arb
▁ET
bac
▁lipids
▁insult
duced
▁chest
▁detrimental
▁synthe
▁multic
▁follicular
▁exis
▁elimination
▁adequately
▁migraine
armac
helin
kade
▁paras
▁inh
▁lith
rates
▁VA
▁intensive
▁TGF
▁hormone
opam
onad
▁glut
▁nal
osocial
▁margins
▁paradigm
ortic
▁reveal
Cu
urgical
▁examin
▁experi
▁fati
▁measuring
▁sepsis
▁circumferential
▁biom
▁prospective
▁linole
▁histologic
▁OC
▁secretion
econd
▁discharge
lec
▁reperfusion
▁morphologic
▁deformity
▁synov
adication
▁FH
▁trauma
▁gynec
▁fitness
gic
▁infected
iably
▁sulf
▁deter
▁inver
▁porcine
heric
▁OA
▁tomography
▁MI
▁deficiency
▁Cyt
▁practically
▁regulate
▁cumulative
▁antic
▁Patient
▁lithotrip
lateral
opia
acted
▁oral
▁uncontrolled
ropriately
▁thir
▁adverse
▁placent
ogens
▁symptom
▁routinely
graftment
▁restor
▁treatments
▁laparotomy
▁prednisone
▁MCP
iasis
activation
atrial
▁anastomosis
▁sampl
▁deprivation
▁dilated
ensory
▁depressive
▁hemodynamics
▁multicenter
▁Surgical
▁APD
ograms
CBF
▁sexes
uation
▁determinants
▁connective
gely
onate
matic
owever
▁desm
sue
▁suppressing
asting
▁decisions
▁influenza
▁uncom
▁assays
▁pate
▁minimally
▁uptake
▁prolonged
▁peptic
▁pregnant
▁pigmented
▁AI
▁cyst
▁Comparison
▁plaque
asic
▁lipid
▁simultaneous
▁leukocyte
▁thickness
sia
▁operative
lix
▁thyroid
▁endothelin
▁ganglion
echan
▁amines
▁barrier
▁usefulness
mig
toc
▁minority
▁PAS
▁isch
diagn
omized
▁vitamins
▁dose
▁dex
▁adoles
▁manu
▁implantation
▁normo
▁phy
▁olig
risk
ighted
▁functioning
▁perin
▁intramuscular
sy
ocyt
▁preoperative
romes
degree
▁mg
▁contaminated
ateral
▁widespread
▁testis
clinical
▁airway
▁inversely
ultural
▁discom
cele
ults
▁investigating
ostatin
▁scintigraphy
▁mortality
▁laparo
kely
▁morphology
orphic
▁multim
tif
▁adenoma
eric
▁overex
▁injections
urgery
▁facilit
▁hep
▁acquire
▁predominantly
regn
▁reductions
▁cyclosporine
opa
▁fulf
▁intense
▁fold
▁occurring
filtration
▁carcinogens
▁selectively
▁hepatic
ipher
▁TA
tors
atient
▁mono
▁predic
▁genetic
▁immun
▁ure
▁hormonal
ially
▁Prospective
▁atherosclerosis
▁auditory
operatively
▁palp
▁physically
hest
▁chloro
▁PB
▁urine
xia
▁glomerular
▁rigidity
▁hemisphere
▁Tran
▁tubes
▁spinal
erated
▁mell
▁consequently
clerosis
▁circumferen
▁influenz
entif
▁clinicians
▁phenomenon
▁multivariate
▁tiss
BG
▁diseases
▁shorten
▁structural
▁identifying
▁desirable
ampl
▁cann
▁Histologic
▁abdominal
▁smo
▁cardiovascular
adherent
▁cereb
▁microvascular
athy
▁sequential
ocular
gth
▁epileptic
plic
▁pharmacological
▁amin
ayed
olism
▁pediatric
fron
mentation
▁evaluations
▁chronic
▁traumatic
pite
▁immunological
ergic
▁versa
▁tracing
▁Throm
▁genes
▁diagnoses
▁irradi
▁hCG
otyp
▁efficacy
▁prenatal
idis
aning
▁adenocarcinoma
▁tolerance
▁modest
▁onc
tig
icated
trol
ocardial
▁occupational
ypical
▁cohort
lesion
▁aerobic
erating
arge
tained
▁CMV
▁dys
▁umbilical
▁Accordingly
▁immune
▁supplement
imens
▁failures
NM
▁maternal
▁preval
▁relapse
▁polyps
odal
otherapy
▁appropriately
eled
▁zinc
sych
▁predictive
▁embry
uncture
▁contralateral
▁MHC
▁scin
facial
phosphon
▁fractures
▁severely
tive
▁aden
▁anat
▁hypertrophied
▁mitral
omod
osom
▁recessive
▁decades
oxic
DG
▁ventilatory
▁feasible
▁mucosal
sus
aemic
prising
asone
▁Systolic
lysis
▁saliv
▁NP
▁eliminated
▁glands
IU
lood
ocul
mented
▁behavioural
▁smoking
▁NB
onor
acting
▁systemic
▁mild
▁HL
▁cohorts
ococcal
▁continuing
▁bladder
olones
▁saline
opausal
▁resected
leu
▁Afric
ochemistry
BV
▁nursing
▁DN
▁adults
▁aneurysm
▁spon
▁PSA
▁risks
▁determining
▁HC
▁polyethylene
trip
RP
transplantation
▁physiologic
oice
▁conducting
▁genic
▁Continu
adder
osts
▁fetal
▁estrogen
ostomy
▁progression
▁CM
▁pineal
▁fever
▁FS
▁dietary
▁ultim
▁surgically
▁pathogenesis
AIDS
▁glucose
▁disappearance
▁drops
▁topical
sis
▁algor
▁intraven
▁ultrasonography
▁renal
▁injected
▁mann
▁adjusted
ivocal
▁inhibitors
▁discomfort
ept
ediatric
▁BD
▁VL
▁therapeutic
▁autosomal
▁heterogene
▁antib
▁nucleus
▁oxygen
▁fiber
▁nasal
▁anatomical
menopausal
▁lumb
▁transi
▁emotional
▁spi
▁empirical
▁maintaining
▁cytology
▁PD
▁hypers
▁calcification
urine
enol
▁findings
▁moderate
▁pS
▁Overall
▁congen
▁stroma
▁thromboemb
▁Considering
▁glomer
▁PET
▁intragastric
▁vagal
fusion
embr
▁evoked
mature
▁umb
ortal
▁acute
orrh
▁kidney
▁fentanyl
▁gallstones
▁juvenile
usp
▁heal
