▁79
CABG
▁unreliable
▁ethnicity
orpor
▁20%.
ritin
▁91%
39
echan
ureus
ithi
▁trimester
▁categorized
▁extracts
▁(4%)
GH
16
▁17
▁yielded
84
ditions
▁156
sectional
▁Smoking
▁stimul
▁illnesses
▁probes
▁surveyed
▁Thyroid
havioral
onography
▁4-
yx
▁capsaicin
▁275
ingers
opecia
sied
▁indeterminate
▁cerebro
▁glycol
▁retur
▁excretion
▁(7%)
▁glomerular
esity
▁transfusion
▁3.6
▁aspec
ocomial
▁testicular
▁inducer
predic
ysm
▁Risk
▁manifestations
tyl
urnal
▁rup
ussion
▁2.2
▁flunarizine
▁1.8
▁1.18
valvular
▁graded
▁glands
dil
▁24%,
obl
ymp
iatic
▁uninter
▁Therapy
▁subsets
▁800
irubinemia
arcin
▁hypercalciuria
▁1.33
gestation
▁1.17
▁toxicity
▁electrodes
▁195
▁recom
initi
▁5.6
▁threefold
▁perc
▁exclusion
tic
induced
▁5.0
▁comparative
▁pathophysiology
▁untrained
▁congenital
icep
TCA
▁optimum
13.
▁conditioning
▁5.5%
▁overweight
▁abnormality
▁nasopharyngeal
emetic
▁-5
itonin
▁167
▁palp
▁surgically
athered
uble
▁(58%)
▁symptom
▁retrospective
▁Absolute
utin
▁164
95
▁pharyng
▁abr
DH
▁nonm
▁modality
▁confirmatory
.6,
▁lovastatin
irone
▁(500
▁deficiency
armac
▁PLP
tep
▁ack
▁menopause
urement
ystatin
ASA
▁satisfactorily
-600
▁practic
▁summarized
▁99%
▁paral
▁reactivity
▁hygiene
▁gum
ficial
obacillus
▁9.0
▁181
▁irregularities
6)
▁interacted
▁aspartate
▁renovascular
▁bism
▁oxy
▁4.2
uminal
▁genitourinary
▁incision
ranolol
▁NP
arrhy
idase
otonic
▁pollic
loid
▁inhibit
▁0.75
acet
▁Enalapril
increased
▁selec
▁4.4
cus
▁Afric
zard
▁Eleven
▁ovulation
▁recr
▁standardization
▁83%
▁(50%)
▁pooled
▁Ig
arial
ancomycin
▁kinase
▁coping
▁tibia
30,
ulsive
▁maneu
pran
genic
▁Hg
uretic
ocyt
-13
trum
▁vertebral
▁(16
thin
12
adic
▁21,
▁11.2
7).
▁compartment
.0)
specificity
▁antiarrhythmic
▁opioids
merc
▁vaccin
59
oxine
▁interpretations
itone
▁topically
▁intran
▁(1.0
usate
▁satur
viron
▁pathology
ofil
▁thromboembolism
▁cys
-80
▁cohort
ognition
▁bilateral
▁LMWH
▁pectin
▁nevi
acin
▁16.
▁histamine
omethacin
▁accessibility
ogenous
▁Diabetes
▁pharmacologic
▁subjec
▁variability
▁carbonate
nowled
▁Sensitivity
economic
▁gly
measured
▁speculation
▁endogenous
▁continuation
▁0.79
▁morb
esin
▁exhibited
▁conservatively
▁codeine
▁airflow
galy
ocycline
26
▁ulnar
40)
surgery
erver
▁progestin
letion
▁contraception
▁myc
either
▁myocardial
ylase
▁qualitatively
▁7.9
▁atropine
▁meningococcal
▁Screening
.0,
50/
▁acquiring
▁tendencies
▁localized
▁1969
▁abbrevi
ffeine
91
tection
▁mann
▁discharged
tivation
RCA
farction
▁Increasing
effec
▁78%
▁suscepti
▁elective
▁triglyceride
cessive
▁responsive
▁100-
▁distal
.7.
▁312
▁prednisone
▁Stro
▁herpes
▁decreases
▁274
▁hyperbil
▁metronidazole
▁neutrop
▁scalp
▁0.45
lec
asic
▁1/
▁endoscopic
2;
omn
▁sedative
▁pancreatic
▁2%
▁antecedent
▁syndromes
▁3.5
astatic
▁pretreated
cyst
early
:1
▁propor
▁behavioral
-2
▁percentile
oporotic
ardia
▁detrusor
tensin
▁64
▁polysaccharide
▁hypotonic
▁immunity
▁Infants
osomal
sors
▁6
▁(2
ffinities
arous
▁0.4
▁2.4
rotein
▁equi
▁questionnaires
▁11,
gestational
▁endo
▁Escherichia
ostomy
2/
▁chlorpromazine
▁hypot
▁46,
xiety
▁TMP
▁criter
▁choleste
92
LH
▁stres
asone
▁spas
▁dextro
▁endoscopically
oxetine
mur
ximum
quid
▁(39
7,000
▁nedocromil
lovir
▁pleural
▁refractory
thromb
▁antacids
enic
▁Topical
▁masked
▁490
▁4.0
LR
▁colonization
ACA
▁Recurrent
▁predicting
7]
▁valpro
arying
98
▁bacterial
▁Longer
glycoprotein
▁accid
▁7.8
▁occupational
entif
▁227
▁Melan
▁infarctions
trin
▁prednis
▁prol
▁4.3
▁57
▁aureus
▁contractions
▁(2%)
pectively
50.
spar
▁5.6%
-6
78
urred
▁Factor
▁stepwise
▁stenosis
▁(79
partate
▁1.5
▁palpable
gesic
▁1.4
phine
▁specificity
▁potent
▁expectancy
▁impairment
9]
ithin
▁103
▁3.0
oten
▁nec
Ds
▁orthoped
odil
deriv
urin
igarette
▁echocardi
dL
placebo
▁euth
mL
▁(4.8
▁ligament
llate
otoxic
▁hypercal
▁carbamazepine
▁mell
▁0.5).
▁32%,
idation
0)
▁nasopharynx
tices
ophyll
▁deviations
rosis
oagulation
▁42%
oretical
▁elastic
▁suppres
▁95%,
▁43%
examin
▁aspirin
ithium
▁tamoxifen
▁percentages
▁Oral
▁4.9
▁Multiple
oprost
▁ves
▁Delayed
▁swabs
▁SPF
median
▁relaxants
gulation
aminated
▁introduc
ralfate
▁(80
▁carcinomas
▁85
▁lymph
▁19.
11
2]
▁0.42
▁insignificant
▁pate
▁113
▁hemorrhages
▁85%,
tivity
▁solitary
▁alternating
▁4.5%
▁commerc
▁satis
▁offspring
linic
▁ampicillin
▁attenu
6).
aminase
(3
▁buc
▁vancomycin
imens
85
▁complication
▁vigorous
▁60.
▁0.03
24,
▁56,
▁precordial
▁hyperplasia
enec
▁anteced
lytic
▁Engl
ocl
▁expressing
▁prematurity
ductive
▁enrol
▁Failure
▁prolonged
▁venous
▁plasminogen
▁tomography
hered
1-4
233
14)
▁nonsur
3.
▁methimazole
▁89
▁pem
▁cavity
▁donors
▁ferrous
HB
tib
▁endoscopy
DV
▁titr
-8.
▁systemic
73
▁pancre
▁0.04
▁rickets
▁penile
ture
▁303
▁hered
▁uteri
ospasm
▁3.3
resistant
▁stimulus
▁pyel
▁Copenhagen
▁lability
4)
▁Suc
ystag
omycin
erating
▁allergens
umption
▁retardation
▁1.09
ittac
▁antagon
▁grouped
▁tes
▁favorably
▁monitored
rement
went
▁19
▁surgical
titudes
▁74
▁herp
▁weighing
PaO
▁arteri
cis
▁juven
▁1980
▁spirometry
97
▁comparisons
4%
ectomy
▁predominantly
▁androgen
▁80,
▁anticholinergic
▁3.2
▁Surve
otre
eric
▁mellitus
▁neutropenia
enal
chool
erb
▁1990
alian
▁Ps
▁Apgar
azone
orrheic
-800
▁0.81
▁enlarge
mittent
▁cann
▁12
▁cromoglycate
▁hepatomegaly
▁198
illar
▁tolerated
▁autoantibodies
pirone
▁enroll
▁136
▁serotypes
urate
▁voluntary
olerance
▁0.56
▁284
80)
▁-1
▁sheath
▁Extensive
▁thyroidectomy
▁diabe
uin
▁350
otent
▁exceeded
▁0.3
▁55
▁experimentally
-2).
▁indo
▁lith
▁femoral
▁emboli
▁Ace
▁83
▁Myocardial
▁(3%)
▁(21
sive
potassium
▁229
▁nonsmoking
ometh
▁premature
▁ori
endazole
▁0.86
▁proce
▁rifampin
▁antagonist
ocardial
roxic
▁0.11
olamine
eeding
▁histologic
smoking
lyce
▁111
▁nocturnal
▁1.44
▁elevations
▁Sixty
44,
oic
▁Concentrations
▁-0.6
-17
▁anomal
tinent
▁avoidance
▁supple
concentration
▁resection
▁monit
amycin
▁neonatal
-96
▁Injury
▁jaundice
▁overestimated
▁transmitted
▁washout
▁73%
▁uterus
▁bipolar
oxide
▁indefinite
▁134
istar
elan
opausal
▁Depression
▁aerobic
▁pneumonia
▁sedimentation
▁acids
▁73
▁plasm
▁defects
▁agon
▁thre
▁BMD
tional
▁appendicitis
olec
creatinine
iotensin
inally
▁regurg
▁4.3%
▁conflicting
mortality
olytic
▁kidne
▁308
▁31,
sparing
▁characteris
▁theore
▁investigators
▁Fifty
▁malign
▁restenosis
Fs
▁Chlamyd
azoline
77
38
▁scientif
▁cessation
▁adhered
-19
▁fulminant
▁efficacy
▁23,
▁dipyridamole
▁argues
▁(86%)
▁underestimated
▁Hyper
tine
▁65%
▁electrolyte
▁tuber
▁cremaster
olone
▁bac
lated
▁80%
▁3,
-70
atitis
2)
▁ischemia
▁prolactin
gesia
ylated
sodium
alic
▁alprazolam
▁xylitol
▁21.
sively
opsy
▁Individuals
▁multim
▁(=
▁diminished
leu
▁calcium
erance
motor
▁validated
lob
-8,
▁benzoyl
identified
▁drainage
tropine
tene
▁GER
▁3.7%
▁migraine
▁Ade
▁hypocal
▁injur
▁uni
otamine
▁formulations
▁assessments
▁27,
tosis
calor
▁cortic
99
radi
8%
cyte
ipril
▁Initi
embran
▁poorer
illary
-2.
▁elimination
Pa
▁18
▁regained
predominant
.9%)
▁hypog
▁(46
▁nipple
atriptan
▁Ninety
▁solids
▁aqueous
▁TC
▁unchanged
▁0.1%
▁Diabetic
▁Meas
-36
mented
rosemide
▁stu
▁-3
▁critically
posure
▁0.43
▁CHF
▁Eighty
aryng
4%)
.1
thi
▁evol
uppression
LG
400
▁predominant
▁112
▁irritant
▁37.5
▁hepatitis
▁examin
▁schiz
▁cerv
▁4).
▁postural
oselective
▁hepatotoxicity
emide
▁0.13
▁1.7%
▁benzo
▁suppor
enem
▁Coronary
esium
ipar
▁116
▁relap
▁(24
▁Combinations
ludes
▁0.05%
▁LVH
tis
▁0.0
▁gon
vice
tious
▁140
▁chewing
▁routinely
▁3.
▁arthritis
tives
rometry
8,
/12
▁UTI
▁immun
▁jaund
partic
Ox
▁nontoxic
tiguous
▁dye
▁presentations
▁0.35
▁restric
▁electr
owever
▁74%
responders
▁Neph
15)
▁suggestive
▁unexpectedly
▁Adverse
▁8.2
lowering
▁mening
waves
▁750
▁acyclovir
specified
▁9.9
▁elemental
▁lipoprotein
oil
▁adop
erican
▁fulfilled
▁dor
▁aerosol
▁acetaminophen
▁deposition
tice
▁psor
▁ELISA
anad
lobin
▁1.10
oxin
▁systematically
▁DBP
▁chorion
epsia
▁6.5%
ayers
▁ultrason
▁metoclopramide
27
BV
▁postin
chid
▁amphetamine
▁88
▁paren
-60
gesterone
▁(43
▁adrenal
▁0.3%
▁(1.6
3.1
▁0.22
▁supr
▁arthroscopy
oxazole
▁HAM
▁39%
ophilic
▁Routine
▁expiratory
▁inversely
▁1.35
hene
▁70-
quisition
▁simult
▁acupuncture
▁hypnotic
▁antioxid
▁suppression
1).
tual
▁increments
traum
▁discriminate
▁gyn
▁rectal
▁cisapride
Ly
▁(41%)
▁contradictory
▁Epidemi
.2
▁spontaneous
▁derange
▁hypoxic
▁dyspepsia
inamide
▁placenta
▁1.07
olesterolemia
▁contraceptive
▁spleens
cemia
pregn
drome
▁inh
hea
▁diverged
▁4.8%
▁0.97
▁progesterone
/8
phetamine
menopausal
▁125
▁2-
▁urodynamic
erate
uride
▁nominal
▁lowers
associated
ypass
ochemical
▁averaged
▁41
▁lact
▁71%
▁decreasing
▁peripheral
▁deform
▁membranes
▁diagnos
tigu
▁nutritional
▁Doppler
▁(9%)
72
oxif
10-
▁0.95
▁terfenadine
▁junction
5%).
▁smear
▁fractions
▁opioid
accharide
▁plas
▁amp
▁29%
tric
▁saphen
▁omega
▁derangement
avir
▁2000
82
▁Rout
▁instrum
initiated
▁neomycin
uling
▁(80%
▁anomalies
▁sexually
▁33-
▁subcutaneous
▁lidocaine
ods
thrombotic
▁malignancies
-90%
▁modif
romatosis
51
6),
▁clomiphene
▁complications
ospitals
▁abdomen
▁ECG
omerular
oag
▁1.4-
inol
▁benign
▁Arter
retic
MW
▁Doses
▁urea
acute
▁angina
▁cephalosporins
▁ecz
apamil
teral
▁modeled
▁saphenous
▁stimulants
▁nonpregnant
otoxicity
▁stric
▁nifedipine
quired
▁insoluble
ept
▁Depending
triglycerid
induc
▁Rates
▁(0.6
▁gastroenteritis
ediatric
▁Estim
1-2
▁6.
HN
▁arti
▁amoxicillin
asses
▁293
5/
▁concurrently
▁iat
▁soy
achnoid
▁rats
lax
▁2,
▁direc
▁ech
▁erythromycin
▁(27
arbonate
parathyroid
▁CAP
▁121
▁Higher
▁Magnetic
▁0.60
ilin
▁(99
▁CU
▁Combination
omagn
▁2)
▁milder
imeth
▁82%
odies
▁-10
aminop
ipramine
duce
apular
▁278
ycline
luded
▁carcin
isolated
thick
▁carcinoma
▁sepsis
▁80%,
127
▁(17
▁Hear
adren
eded
▁anticoagulation
▁obesity
▁reductions
romal
49
oderm
farin
romycin
ovastatin
omegaly
▁lumbosacral
30
tinguish
▁phleb
▁7.2
lep
bladder
▁IU
▁HPV
aginal
▁esophagitis
▁pelvic
▁allergy
ordial
▁0.01).
▁parental
ureth
▁granulomas
▁16%
acial
adone
▁Comparison
▁bradycardia
▁1.15
standardized
1;
hers
▁urticaria
▁yeast
▁recor
▁mucos
▁tric
▁Tiss
▁10%,
trical
▁obstructions
▁elec
▁islet
▁102
▁reactive
▁Assessment
▁1000
▁cate
▁allergic
▁atelectasis
▁inspiratory
▁parity
▁estrogens
14.
organism
▁diarrhea
▁kidney
▁interventional
ropathy
▁analgesic
opril
▁15%.
▁bronchitis
▁1:
▁51%
▁(60%
ofib
000.
▁sensitivities
POA
osclerotic
▁neph
▁exacerb
othal
▁Thin
▁clinician
▁4.5
▁Few
-3.0
ilus
onam
▁suppressed
lox
/3
▁reviewing
▁unsuitable
idone
▁neuropsych
▁6.5
▁217
enia
▁40,
oste
▁150
ordance
▁0.91
▁reflux
otor
troph
▁Thirteen
▁preserving
opre
▁evacuation
▁caries
vices
▁EMA
▁atten
▁uncomplicated
▁birthweight
▁multiparous
▁40%.
▁paradoxical
/9
▁(5.3
▁lisinopril
▁remin
▁0.89
▁derm
▁Elevated
▁1.11
▁0.87
▁tymp
ontal
▁renal
▁(30
▁chemotherapy
adox
imodipine
▁drip
iparous
▁194
▁potassium
▁0.36
▁hypo
jected
udation
motic
45
athyroid
▁vertigo
▁nonselective
proved
▁incontin
▁antibiotic
▁headache
▁insufficient
▁bolus
6;
▁81
Cs
▁endotracheal
▁injec
thoracic
ustained
▁nylon
▁adul
renal
▁serologic
avage
porting
▁radionuclide
▁protracted
Ca
orrhea
▁fibrill
929
▁PTS
▁23
ulose
▁Patient
erum
▁900
ymmetric
unctional
▁somn
▁100
▁20)
5),
continu
lobulin
▁Prel
▁inflamed
availability
▁gentamicin
pharyngeal
odds
uestion
▁reduc
▁0.5
-6.
▁6.7%
emory
cephalic
▁indications
ipid
▁ventilation
lyc
.1%
▁foc
▁placental
itant
androgenic
▁symp
copic
entia
▁unusually
Pu
▁oxygenation
▁colorectal
▁25,
▁187
▁assessed
▁TCA
▁28.
▁simplex
▁lactulose
▁endocrin
titutes
▁differen
molecular
▁Prevalence
19.
tissue
▁Swed
▁outflow
retion
▁attainment
pation
amide
▁casein
LDL
anding
▁pefloxacin
▁8%,
▁undetermined
astric
ruc
▁cis
▁increas
▁triam
lycer
▁hyperlipid
▁(1.9
▁pollicis
▁exudation
epti
▁spon
opharynx
ureas
▁Trial
▁58%
▁186
▁melanoma
▁0.51
▁DSM
▁1)
algia
▁erythro
arbox
▁1.5%
▁progressed
hemo
▁14.5
queous
-4
▁bacteri
.6%
▁12.5
▁Efficacy
atical
▁exaggerated
▁iden
/100
▁carvedilol
▁13%
▁deleterious
▁titers
▁16.1
▁occurrence
▁hypers
▁hypertension
▁budesonide
▁1.01
▁47%
▁carbohyd
adjusted
▁mucosa
1]
▁alleviate
ethylene
tering
▁transi
▁(25
Ta
▁abd
▁bisoprolol
▁antisecretory
▁averaging
▁49
▁188
▁Mast
ctive
▁titrated
idazole
choles
▁colic
▁sugges
▁oint
▁lar
proven
▁colos
oconazole
▁concentrations
▁choles
▁1.26
omain
▁WHO
▁nonp
▁propionate
amid
▁arterial
▁Fewer
3-4
▁Acad
cence
▁1991
▁vitro
▁28%,
▁84
▁ulc
estrogen
▁ascer
▁glycos
▁diarrh
▁4-5
%).
ospor
odal
▁rupture
▁specification
▁(4.6
▁dietary
tro
enicillin
ignificant
▁singlet
hypertensive
▁nebulizer
inoc
▁7.6
▁successive
▁regimens
ameters
▁erg
▁diuretic
▁MIC
vation
▁dosing
ofl
▁imipramine
▁subgroups
indolol
.0%
▁premenopausal
90
sus
42
iloride
▁1.19
ervative
econd
inum
inergic
▁minimally
inj
▁reproduc
keletal
▁insulin
▁undetected
▁efficacious
▁55%
▁Gonad
▁favoring
▁potenti
▁Seventy
▁triad
ameth
ypical
▁heterosexual
chloride
▁0.17
▁dissemin
▁whee
▁construc
▁bedtime
▁hematoma
▁3-
ilization
-7.
-65
▁glucose
estion
▁(1.4
▁datab
▁200
orrh
▁adip
▁colonic
▁homogeneity
acting
▁radiologists
▁Insulin
.00
lood
▁endometri
▁discomfort
▁Subjec
▁Measure
adequ
▁hemorrh
▁infar
urgery
▁pulses
▁yielding
▁0.88
▁MCV
▁observational
ilep
imus
uted
▁arteriosus
▁elic
▁Regarding
▁sputum
iclovir
▁-0.0
▁remission
ulants
mentation
▁dorsal
▁amenorrhea
▁hypon
ogenic
▁50%,
▁17,
▁ventilator
▁desaturation
urrent
▁tran
uplex
▁sonography
▁mite
▁occl
yclo
endi
▁EE
▁antim
▁mortality
▁heparin
▁palsy
▁ceph
usually
entricular
▁(67
▁0.19
▁2.9%
10.
▁menses
EG
-1.2
kelihood
▁antich
▁erythema
▁122
gely
.1,
ithelial
2%)
gic
▁Bac
diagn
▁emerg
-72
▁adjusting
sions
arrh
▁anhydr
ylene
▁(2.5
oratory
14
osid
11.
0.6
▁coated
kine
▁5.2
acetic
vitamin
ecal
-20%
omatosis
66
▁mice
▁cotinine
ographies
certain
▁pneumon
▁vitamin
▁transformations
▁abl
ardized
▁pulmon
▁electromy
▁tol
thma
tact
ectin
▁HLA
▁intravenous
▁24
▁heel
▁pharmacokinetic
▁albuminuria
▁puncture
▁2/
▁converting
ensi
▁reflec
trated
/4
▁therapists
adin
▁swit
▁epidural
ovarian
▁uniquely
gthen
mined
▁positively
notic
bearing
▁maturity
▁42
▁Incidence
▁decayed
▁fluor
fal
olam
phosph
▁hepat
▁IgA
astatin
18)
▁celiac
adder
▁furosemide
erence
tified
▁(18
▁28)
▁incub
▁ESR
▁inser
▁subclinical
ycin
▁pneum
▁cultured
20
▁60-
vity
rals
▁54%
xone
▁acetic
▁interleukin
upuncture
▁4.7
▁nondis
▁allergen
46
tam
▁brainstem
▁toge
reasing
▁persisted
regulation
▁propensity
▁Increas
▁apnea
▁progn
▁hep
-2.5
-1.5
▁splenomegaly
▁Sodium
osyl
▁otitis
▁Combining
▁ruptured
▁IVC
▁adolescence
▁reinfection
▁leukotriene
▁subdural
▁295
▁ejection
▁esters
▁1989
iasis
▁3.8
duction
▁21%
facturing
▁lupus
▁identically
▁4.
▁retin
▁autoantibody
▁quantitative
▁infertile
▁serogroup
▁ICU
▁preeclampsia
▁arous
thood
▁appra
▁-0.4
acerb
▁5.1
▁2.7%
yroxine
▁glycoprotein
Ls
▁provid
▁empirically
▁glycemic
▁supplements
▁anesthetic
-0.
▁immunosorbent
▁5.8
▁45%
7)
▁postprandial
▁adipos
lamydia
▁outpatients
▁PEG
▁psychiatric
▁exploratory
▁pulsed
▁fluoride
▁Ure
▁choline
▁adversely
ffe
▁sulbactam
wes
▁febrile
37
ergenic
edic
hexidine
oppler
5).
▁13.3
▁cylinder
▁RA
50)
▁outbreaks
ipine
toxic
CAH
▁circumference
▁hydrogen
▁Conventional
opo
plenic
ositive
▁indomethacin
▁18.
▁antihist
▁hydrolys
firmed
▁pyrid
▁42,
tility
▁simplified
ffer
▁chorio
▁Epidemiological
conver
/6
▁computerized
▁diets
bility
oxifen
▁chorionic
19
▁1.04
▁hospitalization
▁adenoid
▁nip
▁LR
onor
▁irrigation
18
▁dosage
▁0.25
▁179
▁Improved
ophilus
▁57%
▁manifested
achial
antial
▁Recommend
▁8.8
▁aberrant
▁alginate
▁asymmetric
▁vaccinated
arachnoid
spective
▁ventil
▁Neu
▁Retrospective
timulation
itrate
▁ineffective
170
▁pharmacokine
itin
▁retinopathy
feeding
strain
▁Centers
atrop
▁Nine
overall
▁anxiolytic
acterial
havi
▁76%
▁Increases
partum
udin
▁exhaus
▁effec
▁relaxant
conduc
▁enrollment
uprofen
oplasty
▁ow
tionally
0%).
▁unstable
▁coughing
▁alcoh
▁referrals
mortem
gth
▁88%
exy
▁fatty
▁incid
fractions
▁artery
▁dex
▁15.8
▁ect
rength
▁Neuro
race
▁nodules
▁fric
hemolytic
centr
ographically
▁fixation
▁quantified
▁223
ailure
▁pentoxifylline
aturated
▁1.02
▁bronchial
occal
30)
▁0.63
utable
▁perone
restricted
gestin
fec
▁emo
▁asthma
convul
▁heterozygous
ventricular
ophil
BH
▁24)
oxyrib
▁withdrew
▁hypothetical
▁diffic
reatine
okine
▁arrhythmia
▁ae
▁encephal
▁5.4
▁superf
▁Effic
cessively
93
▁ibuprofen
ithromycin
▁multic
etal
hydro
▁ultrasonography
▁(12.5
tration
.7%
▁disturbing
▁controver
▁9.2
▁wk
icillin
▁hypothyroid
▁clind
8;
▁albuterol
▁grading
▁185
imaging
esting
onit
▁herni
▁299
▁suprac
▁metabolic
elves
▁HBsAg
▁confound
9).
▁11.6
▁microorganism
▁Reduc
▁diagnosing
▁Adding
▁insufficiency
74
▁142
▁stripping
31,
▁(75%
▁0.90
▁multivariate
▁differentiate
▁6-
▁BMI
▁0.016
▁problematic
▁18.3
▁psoriatic
▁respiratory
anat
▁grise
▁standardized
▁differe
0-
thickness
▁132
▁ana
ranean
▁reser
lication
▁199
▁cesarean
▁44-
▁Staphylococcus
▁reac
ignant
erop
▁62
ymptom
▁Significant
ucle
herence
ximal
izin
acr
▁550
▁venti
▁40%
▁99
▁extracorporeal
significant
ipheral
▁methotrexate
urea
▁61
.8
▁benzodiazepine
▁terat
uled
odop
▁allyl
▁133
indol
▁pregnancies
▁horiz
▁273
titute
AFP
▁mec
COP
▁causal
▁Caucasians
ecia
▁radiographic
odine
ffin
▁6%,
ithm
▁intermedi
▁bir
▁serology
▁Ventricular
▁gland
▁caloric
▁fibrillation
▁110
▁isolates
umbered
-66
plementation
odopa
▁individualized
▁bathing
▁poten
▁hypothalamic
▁(10.
▁gestation
▁weakened
▁(0.4
▁untreated
▁autoimmune
utaneous
uscular
ocarcinoma
heavy
▁eradication
▁abnormal
▁(5.8
20.
▁hydrochloride
▁pyr
83
▁carbam
enzyme
▁subfractions
▁neuroleptic
▁0.2%
▁hypop
▁309
▁retic
olus
otassium
▁precur
▁RS
▁discharge
sac
arate
▁quoti
▁75
▁preparations
-5
antibody
▁Examination
reast
00-
heum
▁rotavirus
▁333
▁249
▁unex
▁Clinical
umbar
▁euthyroid
▁15,
▁transthoracic
/30
rofen
▁5%
▁polym
releasing
▁200-
▁157
tisone
onide
emin
▁incidence
▁pravastatin
▁correlating
▁alp
versely
▁29,
attern
oreal
▁tablets
▁Prevention
▁1.9%
TSH
▁oxytocin
▁arrhythmic
▁(28
strual
▁eccentric
▁acet
ophageal
naud
▁clot
▁HbA
leuk
▁influenzae
6%)
orrhage
▁throm
particularly
▁lor
aind
▁amlodipine
genital
▁Hypertension
ophila
Hep
▁lacked
▁6.4
diabetic
▁remo
▁eradicated
adrenergic
▁universally
▁psoriasis
▁Combined
▁sampled
▁substantially
teroid
▁estrogen
roscopic
ditional
▁objec
3)
▁hypothesize
▁deem
▁Calc
2),
▁endocrine
gestrel
▁referral
▁responsiveness
▁uter
ritten
▁deterior
▁(38
-9
ociation
dihyd
atif
▁polycystic
▁-12
embry
rance
▁effic
▁abduc
▁Exc
▁ascorbic
▁(77%)
▁Lymph
▁Secondary
clin
▁classify
imazole
▁14.8
arynx
▁inflammation
▁56
▁hypoth
ertion
▁0.2
▁tendon
8.
▁amo
▁98%
▁seronegative
patients
ococcal
▁20-
vival
▁ketoacidosis
eclamp
neumon
▁cyclical
roma
ispanic
▁dysp
96
▁airway
▁1.2,
moderate
-2.2
▁analges
▁whey
junction
▁56%
▁(300
▁0.69
▁12.0
▁2.0
▁neutralizing
prising
▁decreased
▁artifact
cellular
vertebral
aturation
ocytopenia
▁nonfatal
▁acetate
▁fibr
▁infarct
▁captopril
▁danazol
versal
▁compart
▁sequenced
▁secrete
▁chor
▁(3),
▁LM
▁atopic
▁confers
zation
geons
▁1-
struc
enterolog
▁95%
▁237
tiz
▁prenatal
gment
▁37%
▁drinkers
▁(3
5%.
▁testosterone
▁prescrib
lamy
ygen
potential
-125
▁osm
tizing
▁mildly
aund
▁dors
▁correspondingly
inyl
5%),
erally
▁plasmin
▁46
▁ecological
▁excision
▁decreas
800
65
▁Medicare
▁52
▁conclusive
18,
▁transferrin
▁serological
PPP
▁methadone
▁reversed
▁Acet
▁ranitidine
▁pulmonary
▁1.5-
▁subc
▁173
▁Mortality
nisolone
▁antipsych
▁bic
▁prednisolone
selec
ctomy
▁linearly
▁arose
▁0.57
▁invasive
▁cervical
linded
▁Cardiovascular
▁Duc
adal
▁ejac
▁115
▁dehyd
-18
▁superiority
ixime
▁gonorrh
▁98
▁(1000
insulin
▁tuberc
chol
9)
apsulated
uria
hydr
▁145
5-
▁metr
▁verbal
fate
%),
▁intracerebral
rox
▁slows
▁vesicle
▁stratification
▁endocervical
▁postnatally
openhagen
▁curric
amn
▁subf
ifferen
onazole
▁MRSA
▁Gluc
▁Comparing
▁neurogenic
izine
tite
▁chlor
▁streptococci
▁noncom
enteritis
▁261
000)
▁(16%)
▁blot
▁infec
enin
▁0.7%
▁30.
ograms
▁ABR
▁dimethyl
nine
oxic
▁equivalents
▁315
▁ambulation
▁guinea
.9%
▁atenolol
▁19,
otriene
amphenicol
▁Leuk
▁prophylactic
aminophen
▁tenderness
▁Modified
hydropyridine
0%)
▁clom
osom
▁0.23
▁distorted
▁cysts
oprol
amel
▁adjustment
difference
▁66%
▁coh
-50
25).
inflammatory
.4%
▁smokers
▁statistic
edle
▁posttreatment
▁1991.
ocrom
agic
onorgestrel
uality
▁197
▁factorial
▁calcitonin
▁tolerability
▁(47
▁220
▁80
▁clus
▁Dental
osin
▁Neurop
5%
tiveness
▁Thy
▁angiotensin
▁amniotic
▁logistic
▁concom
▁bronchoscopy
▁physicians
▁antid
4;
▁0.8%
osal
kage
traction
▁10-
▁hyperactivity
▁testis
risk
dic
otting
▁diuretics
tus
▁empir
pig
▁hysterectomy
osus
▁developmental
▁plotting
▁20,
▁hypertro
▁studi
▁preven
▁1985
mokers
▁sucralfate
sistent
▁PV
▁137
▁4.8
▁techniqu
▁squamous
▁nitroglycerin
▁injections
▁diastolic
iuria
▁methodologies
conventional
▁irrig
▁Thirty
▁substanti
▁contracep
sulfamethoxazole
▁234
▁bip
▁Viral
▁pec
▁hormone
▁capsule
"-
▁esterase
onance
▁2.6
1%
0.8
ergy
roat
iotic
articular
-4.
▁26.5
0%.
89
▁acetyl
encephal
▁abscess
consuming
▁stool
ituit
▁beats
ecu
▁mL
▁renders
▁chloride
▁Behavioral
▁Haemophilus
▁biopsy
▁Biopsies
roxyprogesterone
▁seropositive
▁13.9
▁induc
acid
terol
▁Nons
▁condensed
▁Preliminary
epines
▁0.18
▁placebo
▁exacerbate
▁Subsequent
▁kits
1:
▁(72
▁61%
▁excessively
mmol
▁241
▁Approximately
▁solit
▁practiced
▁Cumulative
,000)
▁10,000
▁gases
▁adap
▁scars
▁consecu
tension
▁63
▁Nutrition
▁lesions
▁residual
▁(2.6
usively
▁discon
respectively
▁secretagog
essation
▁embol
tolerated
▁Increased
▁thems
▁polyethylene
iability
myocardial
acids
1-
oglob
▁231
▁10.2
tur
erge
▁underg
admill
▁splenectomy
▁cyclospor
▁allevi
▁430
▁67%
-88
▁0.25%
ocaine
hydrox
vular
▁fungus
▁Levels
▁fibrosis
Gi
otine
▁cortisone
▁conduc
▁nonsignificant
tronic
▁10,
▁ank
▁nodule
gression
▁270
▁FDA
xyl
▁anticoag
▁peaked
▁mcg
▁discontinu
▁angiography
0),
▁(94
▁ramipril
▁omeprazole
ths
▁Hep
atoid
osol
pH
▁medically
▁aspiration
▁3.8%
▁Pregn
▁meperidine
oluble
▁Hyd
▁chronically
▁Newly
ronch
▁tetracycline
▁antis
▁unresponsive
▁leukotri
ystolic
gated
biased
trates
iazide
▁triazolam
▁attendant
▁elas
uitable
▁CAH
54
qui
▁27%
turb
▁lessened
mediately
▁concordance
-10
0.2
▁resear
▁13
▁54
▁pancreatitis
▁sedim
till
timate
▁infectious
▁neurotrans
▁1.3
▁basal
apid
▁thyroiditis
xime
▁exposures
▁fenoterol
▁methodology
▁(50%
500
▁(93
▁unclear
▁96%
▁antidepressants
raine
monary
▁proportions
▁lesion
▁ascorb
▁antibodies
▁cerebrovascular
▁operative
600
▁200,
▁hyperb
▁247
▁overlapped
orbent
/2
odium
▁undergone
▁296
nai
opr
▁sclerotherapy
▁(54
▁menstrual
ignific
▁improves
▁crossover
▁detects
▁9-
topril
▁streptococcal
▁77%
▁FEV
assium
▁disadvantage
▁scre
azol
▁salbutamol
▁antidepressant
▁anticonvulsants
▁paternal
▁discom
poor
rati
▁LMW
67
thirds
tential
▁rhe
▁triglycerides
16)
▁pharmacy
quam
▁requi
severe
▁menstr
▁trig
phic
assi
▁25-
▁23%
vaccinated
guing
adders
▁bactere
▁recruited
alc
▁0.44
▁17-
▁8-12
▁glomer
▁0.6%
ectomies
▁0.55
▁granuloma
▁168
▁4000
umbers
▁(15
▁(84
▁1.56
▁3)
yste
idespread
▁anes
erose
▁regurgitation
titution
▁0.5-
Cy
cancer
▁TIA
▁CAD
onate
▁ADA
5%,
▁0.72
▁antipsychotic
▁databases
responsive
▁duodenal
▁rGH
▁discus
ischemic
▁atrial
▁1970
bacter
-0
▁(1:
▁investigations
disc
▁Beta
omat
▁granul
▁69%
▁respir
▁scarring
scop
▁bumetanide
▁creatinine
▁(1
▁appraisal
▁126
▁produc
spectively
▁amitriptyline
▁outlet
▁excluding
▁negatives
▁antithrombotic
▁acute
▁Myc
▁chol
tative
lamin
tance
istal
▁ppm
▁Forty
▁cystic
▁200,000
haled
onyl
▁Assess
▁239
▁0.01
sufficient
sives
▁phon
▁Abnormal
▁acad
▁adjustments
▁(50
▁balloon
63
▁nonsmokers
▁PCR
▁discontinued
▁8
excluding
▁poisoning
ulant
▁97%
ipit
▁succes
vant
▁ECGs
▁transient
▁Stress
▁400
osteroid
vedilol
▁HER
▁48
▁ket
4]
▁93
▁ane
▁adequately
▁5,
▁(3)
▁SMR
urther
.6
▁100,000
dia
athic
▁adherence
coated
vated
▁adhering
▁(75
▁obstetrical
iological
▁0.66
tive
▁progest
▁(45
positive
amethasone
▁deformities
▁qualitative
osocial
150
▁anxio
alities
▁imaging
▁DF
chlor
▁malformations
needle
▁undergoing
▁streptococcus
▁socio
▁0.27
hap
resis
▁0.38
▁thrombocyt
▁paroxysmal
tinu
▁teratogenic
▁uv
onegative
▁triceps
▁infusions
erebral
reas
61
▁persist
trol
amuscular
tioned
▁2.8
quamous
00,
▁adjus
-40%
▁Feeding
▁(4.0
▁expec
cysteine
▁thromboemb
▁citrate
▁(76
▁hemat
timum
yrid
▁fum
oprostol
ritish
▁dox
▁biop
▁orch
▁inflamm
▁(5%)
▁0.26
▁Subjective
▁examining
▁presumed
▁promp
▁1.00
roscop
▁50
opause
etan
▁25
▁musc
▁schedules
▁bronchodil
▁30-
▁infertility
▁interf
▁agglutination
▁adolescent
▁dexamethasone
▁Cooperative
▁luteal
▁saliv
▁(95%
-5.
▁hypertrophy
▁fec
2.1
osm
▁7%
itidine
glycer
▁gels
▁phos
▁cardiac
▁phenotype
opamine
0).
▁hyperg
ungal
.2%
▁Urine
▁sodium
enyl
ovascular
3]
▁unwanted
generation
acchar
▁psychomotor
▁12%,
(1
▁ligation
lier
▁adiposity
▁40
opa
anate
▁doubled
▁Ear
▁prophyl
odone
00
▁11-
▁ischemic
▁clinicians
▁comple
▁15.
amus
▁naproxen
opathic
oprim
▁poin
▁uric
TN
▁asymptomatic
▁440
ameter
rease
▁Barrett
valence
▁simvastatin
▁trich
▁sham
▁erythrocyte
▁descriptive
▁amph
▁300-
pirin
illi
▁confir
▁penicillin
embers
▁fertile
▁colonoscopy
▁0.28
oracic
▁posed
androgen
▁deox
▁persis
timal
▁sequelae
▁2.9
▁243
uracy
estive
▁Positive
▁niacin
eak
EI
▁ulcers
▁Extr
▁(3.0
lactam
aicin
15.
▁implants
yses
▁ultr
▁heavi
▁0.83
▁criterion
lactams
anazol
▁quotient
▁91
▁substitution
yrib
5;
otransferase
▁ankle
▁0.2-
▁calcified
athy
tics
tained
▁anomaly
▁Angiotensin
▁33
▁glut
▁Hyp
▁Subcutaneous
lives
▁deterioration
▁1966
▁hygi
dine
▁sequentially
gol
▁aerosolized
▁enamel
cine
▁experim
▁(7
▁enhances
sych
astases
▁corticosteroids
welling
tically
▁unres
▁tic
oidal
▁fertility
▁1.0
▁revised
▁evaluating
viral
▁radiologic
orbid
enoid
thmias
sA
▁LN
▁thereafter
13
▁cutoff
▁enrolled
amphen
▁classifications
lac
olis
▁simultaneous
horm
alazine
ectable
▁intranasal
▁augmentation
▁eryth
▁juvenile
individual
▁Histologic
parative
▁prescribing
▁0.64
▁retention
▁(26
amicin
▁ovaries
▁pep
▁contex
▁transaminase
▁(-0.
yroid
▁ovarian
▁9%
stro
▁233
56
ocyst
▁(150
▁0.99
▁exten
lux
▁prescribed
ziness
erad
reactive
▁arrhythmias
traumatic
▁Chronic
▁(97
▁resolving
▁extrap
80
▁12-
idne
yridine
▁127
▁enzymes
▁asthmatic
▁CRP
tial
▁Findings
▁adequ
-3.
▁respec
ilol
▁minus
▁hetero
.0
1)
▁(5.0
tens
0.3
▁leukocytosis
▁11.0
▁hypotension
casein
lip
▁Dip
▁prevalences
▁32%
▁repor
▁1.13
▁abortive
▁compli
pecially
▁47
uates
▁neuropathic
ycardia
▁plateau
▁rigorous
▁100%.
▁circulatory
cyt
▁vasoconstric
▁posi
▁1.25
▁Complications
▁superv
thmatic
▁reinforcement
▁cured
ints
botic
urine
esti
isol
▁extrac
vus
omann
epin
▁ceftriaxone
onset
deficient
0.0
▁heavier
▁damaging
(6
▁arth
▁gynecological
ughter
rachial
temperature
uating
dent
itively
▁hir
comitant
▁immunocomp
▁glycosyl
ohns
▁1.6%
▁SPL
▁flexor
▁nif
rane
▁7,
▁uniformly
▁retrospectively
▁gonadotroph
68
▁traumatic
▁(31
▁(32
▁positioning
▁blister
-2.0
▁12%
▁0.48
xia
▁atherosclerotic
▁zoster
▁14,
clinical
opharm
tally
lyl
torchid
▁38
determined
▁hypercalcemia
▁aneurysms
opramide
angiotensin
▁malignancy
opro
▁preterm
▁Compared
aric
▁vegetable
xual
▁ventricular
▁EG
▁contaminated
-2)
▁microscop
▁tac
3).
produc
▁halves
▁intramuscular
loxacin
▁1.12
▁51
bumin
crip
▁duc
▁enteric
▁receptive
▁sensi
▁263
▁anticonvulsant
ochrom
▁reproductive
▁9,
▁(9
▁progestogen
▁confounding
▁validity
classified
▁Twelve
▁irritable
ourinary
rocy
▁prostatic
▁iso
▁dias
osacral
▁mmol
oneph
▁panc
▁gonadotropin
25)
bral
▁anticoagulant
▁competence
▁0.07
▁119
▁28%
eliac
▁exercising
▁nonsurgical
▁RR
▁(0.5
▁(1%)
razolam
▁Leu
▁inhibitors
▁relieve
▁203
▁Prac
roscopically
▁normalization
within
▁Investig
▁predisposition
▁6.6
stem
▁hepatic
▁kidneys
▁inducing
▁itraconazole
ducing
nosis
▁8.1
tory
isole
buterol
▁estradiol
▁90%.
▁felodipine
▁paradox
/90
▁newborns
▁implying
▁39
▁Geor
tebral
▁impair
ionine
▁maneuvers
▁Identif
▁Caps
cemic
▁Exercise
▁118
osclerosis
▁Disease
▁postinjury
▁hepatocellular
▁splenic
eration
tiary
▁spinal
uterine
CDC
▁formulation
aminases
▁magnesium
▁Hb
osamine
▁measurable
▁12.5%
▁drin
▁Survival
ferrin
▁endpoints
▁ascertain
▁blocker
▁32
rowing
▁dysfunction
▁Randomized
▁yearly
▁Scale
▁163
▁dosages
▁limb
echn
▁manipulation
▁hydrolysate
romes
▁68
▁inflammatory
▁-0.5
▁identif
eryth
▁viral
ibrate
▁92%
tig
eprazole
▁3).
▁postinjection
▁antioxidants
▁strains
▁(2),
▁diagnose
▁pediatric
▁allele
▁HB
1.1
ypro
▁pneumococcal
▁cartil
▁abdominal
▁reliably
▁(63
▁vomiting
ADA
glucosidase
▁cortisol
▁appropriately
6/
▁4.1
▁2.7
molar
coun
▁Comparative
luding
OA
kely
▁5-
▁bronchodilator
avoid
▁Benz
▁doubling
▁7.
64
orsal
ejection
ecutive
▁cran
▁1.75
▁(0.9
▁sero
▁unselected
▁glomerul
31
▁consis
▁obstruction
▁syncope
▁inappropriate
▁candidiasis
emia
▁0.65
iplin
▁modifying
▁(20
▁Intr
piratory
▁sple
gluc
:3
bly
▁antagonists
▁absorptiometry
ophys
perature
▁(89
▁caffeine
▁70%.
▁econ
intensity
▁94
trast
tially
▁nonex
▁cyst
0.00
▁10.5
sibility
those
-12
▁hematologic
.3.
ranial
▁1.9
iteal
9;
meth
76
tensity
0%,
repres
▁thrombotic
▁(89%)
▁158
relaxation
▁76
▁120
▁Clinic
tise
erus
▁fluc
▁1.2%
▁hyperch
▁15%
idating
▁insom
▁89%
chond
-45
▁cranial
urgical
▁metoprolol
▁immunoglobulin
▁dihyd
▁(4)
jective
▁15-
▁summ
▁herb
▁recurrence
▁1.05
▁epidemiological
▁NN
▁Combin
assessed
▁9.
athiop
trac
▁123
▁epidemi
opathy
▁Evaluation
orh
responding
▁nosocomial
▁ultras
▁92
ulence
▁infants
▁morbid
▁viruses
▁MMS
▁carotid
▁neon
▁stren
geal
weekly
24
▁154
▁combin
▁Severe
▁familial
cycline
iline
▁antec
▁4;
biotic
▁capillary
▁VV
▁angiogram
▁Bronch
▁tib
plas
▁(90%)
▁detecting
▁sebaceous
▁gonadotrop
rele
▁supervised
▁0.9%
trop
▁(1)
▁longus
odular
▁0.
vents
leural
▁somatic
▁uncovered
ometrial
22,
▁latent
▁0.6
▁0.10
roin
▁uncommon
▁compounds
dens
▁chlamydial
▁bromocriptine
▁Asi
▁cef
▁Epid
irubin
▁12,
▁surrog
▁1.06
teroids
▁stratif
▁scl
ections
ergic
regn
▁Abnormalities
▁160
▁14.
-400
arthritis
▁initiating
muscle
▁cytology
2,000
▁fati
▁lymphocytes
▁intracranial
plast
▁oss
▁longitudinal
earance
▁histology
▁worsened
▁(250
▁hydrophilic
odia
▁8.4
▁HBs
▁(20%
▁intraven
▁69
▁immunocompetent
▁absorp
▁preexisting
lyte
▁pituitary
▁malabsorption
bronchial
▁beverages
▁dermal
▁280
▁clues
▁LV
▁0.78
▁fluids
▁psychotherapy
estim
▁Treatment
▁promin
▁7.7
▁decarbox
andard
▁1600
iol
ticularly
▁0.84
stin
oung
oscop
▁warts
ocrine
▁voiding
oporosis
▁homocysteine
29
▁diagnoses
▁abscesses
▁progression
▁16%,
17,
retro
▁enteral
▁bronch
▁lymphocytosis
▁scanning
9.
-25
pain
ocated
▁(8
▁100,
▁HI
▁perip
▁soluble
ervations
asal
ortal
▁hexa
otroph
yzed
▁exacerbations
▁prophylaxis
tomy
▁0.80
-7
tipation
cortisone
81
▁secreted
▁11%
sequent
3%
▁quinacrine
▁norfloxacin
▁urine
▁1.3-
▁Respiratory
▁8%
upus
flamm
▁268
icul
NSAID
▁perce
▁vulgaris
▁151
atient
ichia
alsy
▁doxycycline
▁regimen
▁allergenic
▁277
▁smo
0%),
olig
▁(60%)
olated
adily
▁HS
▁CABG
▁blu
ytes
▁13,
▁0.02
▁lis
irc
▁26
FEV
▁unfractionated
▁hypokal
▁(63%)
plen
romy
▁underst
▁(33
versity
.5.
robial
▁0.15
scher
▁genital
▁duoden
▁exudates
▁appendix
siveness
94
coronary
▁fractures
▁lavage
▁elevating
▁70
▁0.9
▁specialty
pli
iodine
▁musculoskeletal
▁intestinal
▁TS
▁covariates
hep
34
28
portant
6,
administered
▁diabetic
▁thresholds
▁postpartum
▁fluoro
▁physici
▁isch
vaccination
▁(1/
▁transverse
▁dehydration
tec
▁inguinal
Gs
astine
▁0.7
▁prevalence
▁conjunctivitis
methyl
tir
▁surrogate
▁mEq
▁(84%)
▁intensive
▁seroconverted
▁quanti
▁129
▁intra
▁inten
▁unrecognized
crib
▁Milk
▁26%
6.
▁Diagnostic
▁diffus
azolam
onucle
▁proceeded
olesterolemic
7/
▁SIDS
essional
▁anoxic
▁pneumoniae
oplasia
▁EB
▁uncontrolled
▁sulfon
ressing
▁substances
▁deliveries
▁adipocytes
▁124
plasia
micro
opian
rocyte
12).
estions
▁8.0
mild
▁cuff
plasty
bA
0,000
ovirus
▁cholesterol
▁obese
pore
▁CVD
6%
average
CRP
peptide
▁embolism
▁44%
antibodies
idine
▁cytologic
▁exhaustion
fied
▁coagulation
▁neutroph
▁39,
clic
NB
▁sulfonyl
▁psychosis
▁abnormally
▁0.30
atosis
▁sickness
▁90%,
-1
▁incomp
▁60
oxygen
▁esophagus
▁emergent
▁multin
70)
▁22%
diagnosis
itoring
▁severity
inase
▁seb
▁27%,
blinded
▁flora
▁urinary
▁leakage
gm
▁PCO
▁graf
tensives
▁cardi
pecies
▁struc
treated
artum
infection
▁-0.
april
▁hazard
57
ulon
olysis
vail
▁lumen
▁Abdominal
▁abstin
:1)
▁vein
uric
amisole
▁duct
▁Significantly
dose
▁skeletal
▁2.6%
▁plantar
▁144
menstrual
▁thromboembolic
▁inversion
lamyd
▁Antic
▁hirsutism
▁2
▁clamp
▁(68%)
▁recurrent
deficiency
▁(15%)
idated
.5
itamin
▁Antim
▁polysomn
▁INH
▁22)
roph
▁pts
▁agonists
orbidity
▁amn
▁50-
▁0.40
ophag
▁therapeutic
etoprotein
atology
▁Surgical
▁contiguous
▁nonc
iatric
carbohydrate
▁phosph
▁2.
Hb
oretically
/7
▁33%,
phosphon
▁meningitis
▁196
cad
▁conductance
▁(6
▁3.9
▁ribs
▁attrib
▁182
▁insomnia
▁600
▁traction
▁sulfate
▁occlusive
1%)
▁neurolep
▁avail
▁weighted
▁normo
▁polymyxin
cious
▁0.41
▁alb
roxy
▁hypothyroidism
▁18%
▁0.46
▁tertiary
▁67
thre
▁Symptom
actam
▁markedly
▁paroxys
ratic
▁Registry
▁infrared
▁105
▁promptly
4.
▁counseling
▁Aspirin
hormonal
▁vaccination
reasts
▁regulating
ophren
centered
▁HSV
▁cic
▁5
▁interfer
▁ethn
▁crom
dition
▁Fifteen
▁traum
▁nausea
din
▁81%
▁therapeu
lies
▁proton
baseline
▁(22
tested
▁fetus
8%)
ortic
▁warfarin
▁inpatients
cepti
Hg
▁blockers
▁246
900
▁ejaculation
tensive
blood
▁rhinitis
rogenic
▁Breast
▁cyclo
▁glucocorticoids
▁Patients
natal
▁NSAIDs
▁injected
▁9.7
▁cardiomegaly
▁Atrial
▁intub
ixation
▁77
▁chl
▁naf
90)
atell
▁micros
▁nonresponders
▁(4-
▁0.33
▁ketoconazole
verages
▁calf
1,
▁mitral
tical
▁assays
otrop
▁10%.
▁dysplasia
▁preschool
teric
▁tetrac
eptin
▁RAS
▁lax
onine
hyd
vic
ipolar
71
▁276
▁Pneum
hospital
▁Diets
▁Tran
▁contrib
SMR
▁(1.2
▁bloc
athioprine
idem
▁wee
▁25%
enan
▁hypothal
ologic
▁52%
▁dyspnea
moking
▁6.3
▁valproate
▁(23
▁(42
terin
▁117
▁6,
▁possi
▁epilepsy
FSH
▁3%
▁accep
▁polyp
▁immunized
▁quantit
▁demonstrating
▁exud
▁murmur
▁20.
▁2.3
▁189
pir
▁titration
▁irritation
▁bilirubin
▁(88%)
▁14%,
▁hypoglycemic
▁nonspecific
fib
▁1.45
▁births
stab
mia
▁297
▁brevis
DNA
▁269
▁microscopic
faction
trogen
▁Computed
▁72
▁nicot
▁torsion
▁hypogonadism
ocrin
▁reflex
ilateral
tate
▁reticulocyte
▁3.5,
▁endometrium
▁estimating
scherichia
▁calcification
▁parox
▁warr
fat
IgM
ocysteine
▁93%
53
orin
▁disposable
▁adnex
lod
▁bismuth
▁undere
▁0.52
osyn
▁bouts
▁AO
1),
absorption
▁thiazide
sensitivity
▁(4
▁(1.5
▁regain
▁dips
▁(71%)
▁0.94
▁receptor
▁ingu
▁skinfold
▁Invent
▁imaged
tox
ocusing
3,
10),
▁trac
pine
▁electrom
▁expres
odipine
▁cystitis
ilic
atches
▁blinded
▁dilatation
.3
▁Streptococcus
0.4
▁5.7
omatic
▁glucosamine
sulf
plemented
6-
▁endoc
▁HL
▁bronchodilators
▁dextrose
omotor
▁5)
▁fluoroquin
▁0.29
aryl
▁susceptibility
▁(49
▁definite
▁retinoids
▁polys
▁Improvement
▁moderately
▁antibody
▁amputation
corrected
orphine
▁amiloride
▁8-
▁predis
▁dermat
▁sati
90,
incidence
▁AFP
▁86
urrence
▁metast
ovis
-20
angl
4/
odic
▁ambulatory
▁212
▁lipid
▁ductus
▁lute
▁71
tral
▁nitro
▁hypox
▁68,
▁inadequ
▁bacteriuria
azole
troduction
60)
-1.3
tition
romised
▁detec
▁Interestingly
dominal
▁Holter
tation
▁atrophy
▁-0.3
stress
▁rigor
▁-4
▁prospective
▁3;
▁maternal
▁veins
▁tubercle
bronch
fraction
dural
▁1.36
▁(10%
▁prodrug
▁dairy
▁immunogenic
▁(70%
tant
▁lumbar
ovir
▁benzodiazepines
ohnson
NIDDM
▁(75%)
eared
▁gout
▁serotoninergic
▁deli
▁PMS
-100
▁antimic
▁immunobl
owel
▁IUD
▁BV
umerous
▁1500
vating
.5%
▁ambul
▁(70
▁Optimal
▁limbs
uretics
▁coronary
▁cholest
ioid
amines
▁effusion
▁hypertensive
▁shortened
▁noninvasive
▁specificities
▁Whereas
▁questionnaire
▁rash
imethyl
▁antidepress
▁misoprostol
▁OA
illus
▁ranged
phen
▁50,000
▁emesis
▁hazards
▁intrac
▁inherent
TG
▁saturation
atural
▁intrap
▁8.3
▁contamin
▁supplementation
▁hemorrhage
▁72%
▁349
▁Statistical
effects
▁evaluates
▁metatar
▁183
1.
▁encompass
itro
▁psychosocial
▁perox
▁tuberculosis
▁echocardiogram
▁fracture
▁36
psych
▁SG
▁apne
atoma
orectal
▁86%
▁practitioners
▁1.16
▁genit
ereb
▁enzyme
alp
▁synthesized
IgA
▁Gyn
▁dementia
▁(90%
iscal
rhea
▁PSA
▁Hispanic
pecific
compared
▁exis
▁Subsequently
▁dehydrated
▁termination
▁unpredictable
▁cereal
cinolone
olesterol
idin
▁atypical
▁elevate
▁transplant
▁flashes
▁postoperatively
▁elevated
▁Indo
▁blin
imin
▁37
▁preceding
60
reases
▁withdrawn
▁0.70
▁20,000
gia
▁osteoporosis
▁clindamycin
organic
0.9
ocytosis
idate
5.
▁tubercul
blocker
▁rheum
▁instruc
▁sti
▁elicits
atally
7),
▁morphine
▁buspirone
ayed
gag
▁108
▁questionnai
feren
▁80-
▁300
7%)
▁multis
8).
▁17.8
▁tumor
leukin
amethoxazole
700
lora
blind
cribed
▁85%
▁biopsies
eptide
▁Laser
mature
▁frac
neph
▁0.1
▁daytime
trib
▁Subjects
▁exer
▁perfusion
dip
esic
▁(28%)
actin
odiazepine
▁Successful
▁rheumatoid
-35
terase
1/
-1.6
▁Maximum
▁deoxyrib
▁azithromycin
▁zinc
▁shor
▁focal
103
hepatitis
icine
rine
surgical
olum
rected
▁corticosteroid
▁electrolytes
-15
▁vesicles
fication
▁enti
▁hypogonad
contrast
ocellular
▁actin
▁104
21)
parous
atible
▁lutein
▁3.1
▁immunotherapy
years
▁microorganisms
▁weakly
▁ruptures
▁cyt
▁resis
dle
▁interim
8)
erant
gus
7%
▁neurologic
jury
iagn
▁judged
▁articular
▁255
lipid
osac
▁Tolerance
OH
oprolol
greater
▁sorb
00)
▁compares
/24
edocromil
15
tituted
entile
valine
ysts
teria
3/
▁systolic
▁verte
▁influenz
▁encephalopathy
▁crosso
▁ionized
▁diphen
▁60%
▁Highly
▁worsening
▁emphasized
32
▁differing
umably
▁mIU
▁adhesive
▁serolog
vaginal
▁171
hig
▁ACI
▁dentures
acted
▁compositions
1);
teroidal
▁sutures
hydrop
▁adi
(2
▁statistically
specifically
▁55-
▁0.14
▁leu
-50%
▁duplex
52
▁(56
▁cerebral
ardias
▁expulsion
affec
▁30%
▁Transient
▁establ
▁assis
▁stringent
▁alanine
Lac
feron
▁IBS
entral
osterone
▁Lactobacillus
aldosterone
▁109
1-1
▁Physicians
▁17.
▁CI
roxen
▁leukocyte
▁uncl
70
▁hairs
mostly
▁staging
ucas
▁dihydro
▁165
ocytes
smokers
ticular
▁chemically
eptic
▁relapses
▁7-
▁methodological
▁LDL
▁2.4%
200
ionate
▁persistently
nec
▁eczema
▁22
0.
▁79%
▁predictor
SAID
▁nadir
orated
tisol
▁106
▁fetal
▁mU
ystitis
▁(36%)
▁neutrophil
▁2.8%
operatively
agonist
/18
▁discontinuing
▁kinases
▁congestion
▁protec
▁concomitant
-1.1
▁50%
cholesterol
50).
▁10.8
fiber
avail
▁tracts
▁reliability
12.
▁Infection
▁administered
▁acces
▁receptors
▁melanomas
▁scans
▁communic
▁rhabdomy
▁inconclusive
endix
▁fung
▁mammography
▁assessing
▁0.77
-1).
▁0.58
▁steroids
▁concurrent
▁metabolism
322
omized
taz
▁oxym
▁130
▁Prospective
▁slowing
▁mononucle
▁clonidine
▁tec
▁shorten
inemia
dor
▁lowering
respective
▁manu
▁competent
wk
ller
▁caro
elong
olism
▁nasal
2%
▁eradic
▁angioplasty
▁prognosis
death
-14
▁20%
▁synthesize
▁10
hicle
atation
▁ingestion
ocardi
convulsive
icin
▁transcription
iphene
rogesterone
▁urtic
ucose
jac
tia
enters
▁tendons
tif
▁Seventeen
▁specifying
▁-2
anol
ifed
▁lymphadenopathy
▁50,
aceous
▁MM
converting
17
▁resol
atum
▁35-
▁Adherence
IH
uris
atectomy
ceptive
adine
esophageal
▁creatine
▁NSAID
ivary
iminary
oscopy
▁intermittent
▁azathioprine
bac
▁(10
trophy
▁insertion
hetamine
▁oils
exin
▁radiography
▁concep
ervical
LN
agonists
igl
▁(45%)
hydramine
▁recipients
▁biochemical
▁headaches
▁250
adenoma
▁sensitiz
▁pyridoxine
7;
▁1.6-
▁14%
▁leuk
tention
▁aggression
ochem
8),
alene
▁benzyl
▁FD
▁sut
▁antenatal
▁relapse
▁posth
▁sci
▁eti
2.2
▁acutely
▁chan
▁edema
▁13-
▁psittac
echanical
▁goiter
▁repro
▁tibial
▁PID
▁lipids
▁(1.3
86
▁3.7
▁outpatient
eal
lym
sants
ected
▁cryp
▁upd
▁uterine
▁hemoglobin
▁disturbance
agin
48
▁perforation
▁96
▁etretin
▁valu
▁283
Ep
▁enal
tiv
▁enlargement
▁spor
▁62%
HDL
▁fetuses
▁resonance
▁146
disciplinary
▁conjunction
quit
▁predictors
visual
▁anatomic
3;
amol
▁2.3%
▁EI
▁laparoscopy
▁aluminum
▁carbohydrate
▁ablation
▁Americ
3%)
▁ultim
prandial
▁0.54
▁1200
▁disclosed
▁Caucasian
sibly
orec
▁LT
▁218
▁fossa
▁immunoblot
▁weighed
▁adverse
▁serum
BMI
▁(0
▁saturated
▁80.
▁histological
▁cereb
▁nebul
▁2.1%
▁merit
▁Evidence
▁identifiable
▁(44
43
tent
▁stent
rophilic
▁functionally
onin
reased
.7
▁incompetence
apine
trophin
▁cohorts
▁nondiabetic
▁IB
▁OD
hort
▁nicotine
▁cyc
▁16
▁protoc
▁analgesics
▁acne
▁antimicrobial
duced
hydration
▁hydrox
▁24,
ampl
▁0.49
-1.0
▁obstetr
▁sulfonylurea
▁unrestricted
fatal
albumin
▁sonographic
luc
▁rebound
▁155
▁stripe
fortable
▁detrimental
▁affec
pregnant
▁unin
▁0.7,
▁emulsion
vastatin
▁Factors
enteric
▁(100
▁targeting
▁melan
odon
pretation
▁-0.7
▁postmenopausal
gian
▁overt
▁hemorrhagic
▁endoscop
▁commercially
▁postnatal
▁carbonic
▁anhydrase
▁orthostatic
58
tomized
▁attributable
▁87%
▁anemic
▁HDL
▁(15%
ostic
10)
▁matur
tide
▁graft
▁analyses
▁lacks
105
▁(400
▁20.5
▁135
▁34%
illin
▁loos
▁Decreases
▁adenocarcinoma
isters
▁reticul
▁vitamins
▁pharmacists
▁immunogenicity
▁pati
epine
▁phenyl
ventional
▁preoperative
▁theoretically
▁glucocorticoid
irds
▁intolerance
▁hypokalemia
asthmatic
ubs
omyces
visc
verbal
ositi
▁TI
▁indicators
▁reflecting
ighted
brom
▁fumarate
-8
▁Reduction
▁reiter
▁isoniazid
otyp
limb
▁intest
▁thir
▁1.4%
Bs
adequate
▁disabling
ophen
meas
▁170
▁(14
formin
▁disseminated
-90
ults
▁superficial
▁percutaneous
onas
essive
▁defic
tured
▁3.5%
sies
▁recurrences
▁PGA
▁recurred
▁depres
▁thrombosis
▁2.5
lact
▁correlate
7-
▁fluoxetine
tures
▁covari
▁ratios
etence
.3%
promoting
▁lep
▁285
▁sugars
▁(1).
▁prostaglandin
▁modalities
21.
▁breakthrough
▁Likewise
otypes
mum
▁obstructive
▁cosmetic
▁Relative
ecre
▁-15
idis
▁occult
▁intercourse
acil
▁phle
imination
▁phosphate
rologic
▁cephalosporin
▁lumb
-22
▁impaired
36
cyclic
▁44
▁pathologic
▁(5
▁invasiveness
edding
▁obser
tron
▁discontinuation
▁208
▁90%
▁postoperative
▁Oste
▁statis
Cer
▁persisting
▁suture
olates
▁41%
tigo
▁30%.
ticle
anic
▁PPD
▁Lyme
▁hepatotoxic
▁propranolol
oyl
▁inhaled
nee
▁breaths
▁plaques
tations
ystic
ophysical
▁ketoacid
▁enl
▁159
aternal
tions
▁delaying
mend
icides
▁0.67
opathology
lodipine
▁Bec
▁63%
▁unrel
▁5.5
▁Specificity
▁microb
odiaz
▁18,
▁Specifically
▁ointment
0%
tense
▁eliminating
▁gemfibrozil
ported
▁Alz
▁0.8
salt
1.0
odip
▁46%
▁proximal
▁bladder
▁attain
21
iotics
achn
▁osmotic
▁divertic
valent
2-
▁5000
▁(78%)
▁epidemiologic
erent
Ig
▁achieves
-81
▁elevation
▁lithium
23
▁0.12
▁thi
▁cen
fusion
posable
▁0.08
histamine
adm
▁tolerate
:30
▁adenomas
44
▁nore
▁tricyclic
cents
▁25%.
▁thromb
enil
▁20
▁activator
▁wheezing
▁trichloroacetic
▁analgesia
▁affinities
injection
▁polyc
dial
▁CG
▁positives
▁couns
▁scrotal
thmic
▁acqui
▁95%.
▁49%
▁varicella
▁demonstrates
▁definitive
▁colpos
▁2.5%
▁33%
mega
▁Biopsy
▁prostatectomy
uncture
lycemia
▁resul
▁stratified
▁6.2
▁detectable
▁10.7
▁9.5
▁5.4%
▁mep
▁59%
vascular
▁0.71
sia
-1)
▁-6
ytoin
▁uptake
▁34
ominant
▁Caucas
▁68%
▁benz
▁-0.8
▁serologically
▁TM
▁predictive
▁(8%)
-1.4
▁uncom
ALT
▁suicidal
▁revascular
▁diazepam
ocomp
▁spi
apride
aemic
▁unipolar
▁Lact
▁5%.
▁cruc
▁molecule
▁carc
▁rati
▁27
etus
oretic
▁5.3
▁3%.
▁0.98
▁cephal
▁neurop
▁aro
ocin
amilton
▁initiate
▁hypothe
obenz
▁supplemented
▁glutamic
▁postmortem
▁hospitalized
phal
▁paired
exposed
▁(69%)
▁implicated
▁(67%)
zymes
▁quinine
acrine
▁intake
4-
▁pH
▁sinusitis
-70%
▁deficit
LISA
albuminuria
▁unilateral
ecretory
▁bowel
▁0.06
CHD
▁helical
▁Hib
▁100%
▁1%
▁(69
reported
tero
▁numb
▁tonsillar
amilies
0.5
▁Progesterone
▁pea
▁androgenic
elvic
▁fathers
▁intrauterine
ensitivity
plants
tents
▁19%
▁1987
injury
▁1986
▁genotypes
▁intrav
itriptyline
▁48%
▁ison
▁regulate
▁176
erable
cture
▁rhy
88
▁nonsteroidal
▁Addition
▁noc
NH
▁Functional
opulation
▁aided
▁192
LV
▁lactation
▁mono
▁ipratropium
EMG
ocar
ealand
ritic
weighted
▁provoke
▁Estimates
▁GAD
obronchial
▁DVT
▁strokes
▁15
achol
▁etiologies
uestionnaire
▁CAL
▁perit
tively
▁splen
▁empiric
isoxazole
ducible
AO
▁18%,
▁fla
▁filtration
ergency
▁150-
▁confirms
▁osteopenia
▁lorazepam
▁14
▁anemia
omies
▁quinolones
▁(5%
10
▁Epidemiologic
▁(24%)
▁40%,
▁36%
▁Thir
abies
lys
▁unco
▁adren
imentation
▁infrequent
osts
adication
opam
▁enlarged
▁PEF
▁dus
/1000
aline
▁cardio
▁pylori
phor
▁mobilization
▁CDC
▁gastro
,2
▁seroton
▁Pertussis
ocys
▁10.
▁gastric
▁physi
▁endarterectomy
▁40,000
▁newborn
onidine
▁corpuscular
▁pertussis
▁heterogeneity
▁17.1
ostatic
LTS
▁Replacement
▁pressures
▁IgG
anine
eclampsia
▁6%
anide
▁1,
▁lem
▁ach
▁4.6%
▁hypoglycemia
▁94%
▁incis
▁orally
▁evaluations
▁2.5,
▁differenti
▁Alzheimer
▁visualization
▁triglycer
▁treadmill
▁enalapril
coh
▁antif
▁neuropathy
tion
hydroxyp
▁0.05
▁normotensive
▁coordination
▁excretory
elec
▁digoxin
roth
▁7%,
▁152
▁resec
4,
acquired
▁synovial
tropin
▁8.
110
▁29
▁consul
▁necrotizing
stimulating
▁(4.3
▁impairs
reactivity
0.1
▁stimulation
protein
▁Outcome
▁Mild
▁inad
▁regression
LU
▁psycho
▁incom
▁heterogene
1.2
reduced
▁iatrogenic
▁1.1
▁devi
▁1.21
ethyl
▁45
▁endemic
▁coag
▁audi
▁lateral
uccess
▁66
▁gluten
▁proteinuria
azepam
▁biopsied
▁Phen
▁equivocal
sible
ochrome
▁infrequently
▁indi
urban
▁16,
rents
azep
▁colitis
▁bicarbonate
▁90
▁keto
▁algor
tein
▁tet
300
▁sedation
charged
▁OC
▁cefaclor
▁depressive
▁perioperative
▁estrogenic
▁initiation
gative
tussis
▁tended
7,
▁nulliparous
▁1983
aryngeal
usp
-79
fine
▁menstruation
▁31%
▁ovulated
▁Estrogen
▁ND
Ts
▁fluconazole
▁challen
▁nonf
▁peritoneal
arental
otom
▁11
47
rowth
000
▁DMP
▁osteoporotic
otropin
14,
▁90.
ventilation
othi
▁0.21
▁esophageal
-10.
▁neonates
▁139
▁suppos
▁12.
▁UT
▁enox
▁symptomatology
otox
▁psychopathology
zinc
▁dilat
▁immunos
(4
▁glyburide
▁thyroxine
▁spacer
oling
▁262
bran
aturia
▁induction
▁0.00
cutaneous
onephritis
enol
▁8.5
▁glycosylated
▁40.
▁rehabilitation
aerobic
▁VAS
cys
▁vascular
▁parathyroid
▁cancers
▁43
▁prescriptions
▁6.1
▁(12
treatment
containing
▁methionine
ausea
anese
ration
taining
▁desatur
▁retinal
▁Changing
▁onset
acti
▁Bacter
▁prolongs
3),
Hyp
othiaz
▁calor
▁(25%
Rs
pressing
▁bypass
▁Inventory
▁bran
▁uro
▁0.5%
mol
oscopic
▁tas
▁bioavailability
▁CHD
▁0.59
caro
.4
umping
▁metformin
▁resour
▁doxazosin
▁hemo
phil
otrexate
▁underwent
▁10.4
▁induce
intestinal
▁inhal
atropium
▁dizziness
▁Stroke
▁suction
▁Transi
▁primiparous
▁labial
▁87
▁48-
-1.
▁(92
▁differed
productive
▁hydrop
▁antic
▁(62%)
▁appendic
▁necro
▁albumin
▁gonad
▁Haem
onary
pharmac
▁(2)
lude
▁diclofenac
etaz
▁reversible
▁reversing
hion
.9
▁luteinizing
25
▁hydroly
▁Testing
▁Chlamydia
okinetic
▁sprin
resist
ulitis
retin
▁characterizes
▁256
Cu
directed
▁0.47
▁grains
▁IgM
▁metered
▁340
▁diaz
amphetamine
▁menopausal
obac
79
▁47,
▁investigator
▁carpal
▁stools
▁-9
opi
cellent
▁succinyl
▁marginally
▁unil
adenomas
▁incompletely
▁cytoch
▁adolescents
▁schizophrenia
therapeutic
ulla
▁fatigue
▁alcoholic
▁disturbances
rosy
operative
▁levamisole
9%
▁5.5,
▁reti
erin
umented
▁Candida
▁cytochrome
▁24%
▁172
▁166
▁progres
▁(0.0
▁286
▁markers
▁canc
▁Calcium
roxicam
▁biphasic
▁(82
▁Steroid
▁acidic
▁eighth
alb
IU
▁BCG
▁40-
▁waking
▁Lipid
▁0
▁tach
entified
▁unnecess
▁8.6
▁venography
▁abnormalities
▁clu
▁confirming
▁58
otherap
(5
rography
▁qualit
▁radiograph
▁transaminases
▁suppressive
▁trimethoprim
▁Fourteen
▁TP
WBC
▁previ
▁metastases
▁subgroup
▁hydrocortisone
orac
veness
hips
etent
BMD
120
zyme
carotene
▁cholinesterase
▁retard
▁deoxy
▁positional
▁anat
▁overestimate
allium
▁sput
▁infusion
▁162
▁Nineteen
▁screened
gents
▁11.8
▁infarction
▁-7
▁agonist
▁desm
▁readings
lop
ophor
ventive
immune
▁nig
ometers
▁ery
▁21
▁70.
rates
ochromatosis
oxid
amole
arrhythmic
▁margins
▁prognostic
▁bronchospasm
▁Ultras
▁(1),
▁MRI
osteroids
▁deviation
triglycer
▁Serum
▁antigen
▁myopathy
▁metic
▁glucocortic
▁clon
▁Nit
▁43,
▁150,
▁exag
▁antibiotics
▁interventions
▁obstetric
▁sediment
meg
▁4.6
▁internally
oplasm
tency
yclic
▁tiss
▁MH
▁ester
loride
3-
▁backgrounds
▁adver
▁9
Gy
-3
▁certainty
▁sulf
tors
▁infancy
ergen
▁Tissue
35
dered
62
▁correlated
gressive
orenal
ogenicity
▁215
▁chec
▁differentiated
▁pretreatment
-6,
▁admissions
▁perinatal
▁genotype
-1000
▁3.4%
▁TSH
tural
andida
▁0.09
butamol
▁inhaler
▁TDI
▁clinically
▁aden
▁(95
distal
▁131
▁valproic
▁intractable
140
▁quadrup
▁2.1
0,
vul
▁(40%
tracted
oxyl
▁oste
▁erosion
▁perfor
▁0.24
▁attemp
timulus
inesterase
▁influenza
▁inhibitor
ifedipine
▁infections
lusion
▁constipation
▁193
throm
▁monotherapy
▁prospectively
▁colectomy
▁reas
▁0.20
▁cep
▁cellul
▁malignant
▁chloramphenicol
▁xyl
igaret
ROS
▁4
▁13.2
▁Sixteen
▁0.74
bodies
▁singleton
▁muc
▁miti
iterranean
formations
▁excre
tivities
▁smears
coag
▁efficac
onvul
▁65
▁rheumatic
▁acros
-5)
ymal
▁gluc
-52
▁inver
▁peri
Ace
▁inadequate
promazine
▁17.3
tism
leb
antoin
▁amput
▁(62
▁electroly
ococci
▁instrumented
▁steroid
▁DCA
tually
▁compartments
ociated
▁compressive
idney
▁defec
22
▁53%
▁analogue
glycerin
9%)
elic
sul
▁264
▁secretagogues
isal
▁ureter
▁oximetry
▁autosomal
▁pellets
▁bony
▁semen
▁neoplasm
▁aerob
opathological
▁0.5,
seud
▁coli
▁206
▁capsules
▁0.62
ducts
▁fibros
▁irregular
anking
▁absorpti
trial
5]
idic
▁augmenting
anin
▁gynec
▁microvascular
▁(11
▁60%.
ognitive
sian
▁Statistically
▁gonadotrophin
▁cutaneous
▁antifungal
100
)],
oglobulin
ronchial
-78
▁114
opres
/1
reness
▁spre
▁spasm
▁1986.
reening
▁surgeon
olac
▁assay
▁10%
▁excised
zine
▁modestly
arean
▁arousal
▁predic
▁COPD
▁Raynaud
fetoprotein
ritical
▁spikes
olol
edema
▁practitioner
▁memb
propanol
▁exce
parathyroidism
openia
▁Finnish
ariate
ordination
▁topical
▁0.34
expressed
▁hematuria
fibrozil
itus
▁(40
tum
▁Surgery
5,
▁recordings
▁embry
▁75-
4.1
▁7.5
fir
▁gonococcal
drug
▁LD
▁pyl
▁decarboxylase
▁228
bic
▁contraceptives
▁undergo
▁1.7
▁bacteremia
epithelial
▁folate
▁38%
▁Adequate
▁64%
▁5.
HF
▁glyc
▁221
vian
▁levodopa
▁interp
azepine
▁lipophilic
▁erythematosus
▁polymy
tte
▁bladders
-24
▁0.82
.8%
▁4)
lline
▁11.
▁esophag
▁17.7
▁5%,
razole
rhy
▁49,
▁cyclosporine
▁lapa
venty
ughters
opar
▁Thi
▁90-
-100%
itudinal
▁cla
ordin
9,
spectrum
▁tympan
▁restraint
▁pigment
▁vagin
▁favors
▁pim
▁Ib
▁thyroid
Ti
▁cyclooxygenase
yro
exercise
▁(19
▁hyperp
▁accounted
WB
▁carriers
diagnosed
▁Consequently
effectiveness
utions
▁radiological
onad
▁tubes
55
▁classifying
olem
raconazole
▁500,
immun
▁pyraz
▁1960
▁brom
eces
▁hypocalcemia
▁supra
▁muscul
bacco
▁101
▁atopy
Ba
ocyte
tran
trimester
▁(1.25
vivors
rof
-]
▁AGA
▁(25%)
osage
▁resuscitated
uresis
▁preventive
▁thrombus
▁97
▁Vitamin
invasive
sue
umulative
▁22%,
▁encompassing
▁angi
▁ciprofloxacin
▁1
▁30%,
▁rehabil
tin
▁650
▁0.76
▁(85%)
▁intram
▁1.2-
▁surgeons
▁Fib
▁auditory
▁fecal
▁1.6
▁idiopathic
▁vaginal
▁thiaz
▁glycer
buride
oterol
▁methyl
▁amin
▁Injection
▁parat
▁multicenter
kets
▁7.1
25,
olitis
▁sten
▁30
ocortic
▁psychophysical
▁fas
otri
▁10.0
thyroid
opus
ylic
▁84%
9),
▁(48
▁82
▁metastatic
▁attenuation
inic
▁clamping
▁(0.
VH
irub
▁3.4
▁interc
▁cac
▁107
▁(72%)
▁1.24
▁favorable
▁ulcer
50,
▁evid
▁subarachnoid
▁17%
ocalization
acental
0/
-34
▁ure
orption
medicated
▁exceptionally
▁unaffected
▁selective
▁carp
▁28
▁twofold
▁optimally
▁205
▁3
ymptomatic
▁osteoarthritis
▁rhin
▁incomplete
▁endometrial
Tu
▁examinations
floxacin
▁1.03
▁(140
8]
▁13.
acycl
▁swab
PCR
ffec
▁ipr
tomies
▁3000
▁stimulant
1.5
▁etiology
▁6.9
ucl
▁neoplasia
rays
▁CIN
▁gestational
MH
▁344
▁facet
iae
ventil
▁intraepithelial
▁95
▁0.61
stim
atients
▁randomization
brile
▁(76%)
▁cumulative
ressive
▁shedding
▁nitrogen
▁35%
▁curet
venous
▁hereditary
ocor
thmia
▁carbohydrates
▁arrhythm
▁comprised
▁piroxicam
▁(3.8
▁adulthood
ogens
▁serotonergic
melan
▁0.75,
▁Systolic
▁unexplained
▁bup
▁chlorhexidine
▁anesthesia
▁1.08
ropath
▁70%
▁Dys
▁4.2%
▁1964
▁attenuating
▁awak
▁randomized
▁favored
▁gradi
10,
/10
urys
▁prostatitis
▁ocular
aturity
omial
▁pell
.10
▁syphilis
▁75%
oxicillin
▁75%,
▁213
tening
titis
▁contraction
5)
▁pla
▁0.50
ogl
▁asymp
▁fulmin
vac
erative
▁nephropathy
▁cartilage
jun
▁atyp
molec
▁Adh
nons
▁thrombo
▁(49%)
▁renin
8-
▁1.2
▁histopath
▁7
▁persists
▁abor
▁(32%)
▁congestive
▁4.7%
loro
▁1%.
chers
vely
▁addic
▁Sulf
ulcer
▁indus
▁cardiovascular
▁3.2%
▁exhibiting
▁durations
2.
erving
▁78
▁physiology
ectom
omal
50
uran
ritis
▁encomp
▁distinguishing
▁resistant
piration
unar
sant
yocardial
75
▁cramp
ulatory
▁PEFR
▁59
astolic
▁GE
ermal
tist
0.7
ococcus
▁calorie
onstric
▁membran
▁128
▁560
rein
4),
▁incontinence
19)
▁sampl
▁80%.
▁Diagn
▁demonstrable
▁elimin
yel
oligo
rotal
▁placent
▁Older
terone
40
450
lysis
vate
establ
ongest
ternational
lyb
▁tremor
▁physiological
abd
ophy
▁31
▁11.5
▁wors
▁inhibitory
onatal
blockers
cretion
onomic
▁0.1,
33
roids
▁amplification
▁dermatitis
▁Intensive
PV
SDS
▁quin
onc
▁0.4%
jec
▁177
▁235
▁multiv
▁valve
▁subjective
▁0.93
▁succin
▁generalized
7.
▁journals
oglobin
controlled
▁beha
▁perin
trover
41
hyp
yrox
benefit
Ni
,000
9-
quine
▁209
osition
▁usefulness
▁(31%)
uting
azin
▁precursors
▁53
▁gradual
▁7.5%
▁147
▁therapies
▁coenzyme
130
ronate
▁caregi
thyl
▁ferritin
apanese
▁nonin
roscopy
▁triamcinolone
▁wards
▁alopecia
tage
administration
▁hyperlipidemia
inopril
▁Enal
▁advan
▁500
▁dopamine
▁hyperglycemia
▁(5.1
▁reproducible
▁clinics
95%
▁conges
▁Localization
▁700
▁3/
umetanide
lactating
etine
5%)
▁0%,
▁(18%)
chlorothiazide
▁parac
▁tox
▁sorbitol
▁24-
▁cros
nish
examination
▁immunization
amet
▁unrelated
ipr
▁pharmac
▁alcoholics
▁inges
▁latency
mental
gA
entical
▁peroxide
atified
▁hairy
▁thirds
▁35
Ra
▁abstinence
▁hyperthyroidism
▁sulfoxide
orotic
oskeletal
▁calculi
-23
▁extre
▁inconsistent
▁257
ometri
zoster
tel
12-
▁symptomatic
estis
▁Veterans
meter
▁hyponatremia
▁4%
tilage
atrial
▁2%.
▁CN
ionic
sion
oride
▁comprising
▁ofloxacin
▁congen
vaccin
threatening
▁salivary
▁biased
flammatory
▁20%,
atab
▁2.5-
othyroid
/20
▁aids
daily
153
▁correlates
▁latex
▁0.2,
▁doses
omiting
Au
▁Bacterial
heat
oconstric
indings
▁252
▁interferon
4).
-16
▁tumors
▁14-
▁identi
▁anaerobic
SBP
sess
▁constituted
xate
▁lifest
epam
opped
▁0%
2,
▁repres
lamp
▁quantif
▁hyperthyroid
adian
▁transluminal
tingu
olones
▁65%,
tenti
▁fulf
▁socioeconomic
oprotein
▁angio
▁conception
▁extensor
▁discriminant
▁verapamil
toc
▁dissection
69
organisms
▁morbidity
iplinary
esia
aryn
▁ultrasound
▁1.
▁arter
▁microbi
87
▁fasting
molality
erated
2).
▁endos
▁3.6%
▁protr
abdominal
ipro
