▁mild
▁controlling
▁deformity
▁onset
▁anticoagulation
▁alcohol
▁creatine
▁hormone
symptom
▁resonance
▁infants
▁deaths
▁Patients
▁expenditures
▁diagnosed
▁tomography
▁vaccine
▁infection
▁emotional
▁mutation
▁cholecystectomy
▁staging
▁glucose
▁symptomatic
▁palsy
▁awareness
▁reviewed
▁pressures
▁fractures
▁insurance
▁drugs
▁diagnosis
▁outcomes
▁receptor
▁PET
▁lateral
▁metformin
▁cervical
▁kidney
▁survival
▁ventilation
▁differentiated
▁schizophrenia
▁mothers
▁reflux
▁smoking
▁cohort
▁surgical
▁discharge
▁asthma
▁thyroid
▁assessment
perfusion
▁attending
▁rectal
▁GERD
▁investigated
▁pelvic
▁myomas
▁predictive
▁ultrasound
▁leukocyte
▁effectiveness
▁gland
▁maternal
▁prevention
▁enteral
▁feeding
▁diseases
▁insulin
▁mortality
▁venous
creatine
▁hemorrhage
▁Overall
▁radiographs
▁resection
▁interventions
▁clinical
▁Medicare
▁diabetes
▁urine
▁complications
▁neonatal
▁pulmonary
▁hCG
▁LOS
▁acupuncture
▁demographic
▁carcinoma
▁professionals
▁tube
▁medication
▁perceived
▁pregnancy
▁intensive
▁infections
▁sensitivity
adjusted
▁relapse
▁uptake
▁recurrence
▁aspiration
▁menopausal
▁physician
▁bleeding
▁examined
▁questionnaire
▁trend
▁rupture
▁ischemic
▁transfusion
▁rats
▁necrosis
▁renal
▁tertiary
▁stenosis
▁prescription
▁Cancer
▁inflammatory
▁knee
▁peripheral
▁clinic
▁exposure
▁nursing
▁insertion
▁patella
▁adenocarcinoma
▁offspring
▁mucosa
▁recurrent
▁benign
▁atrial
▁seizure
▁chest
▁ischemia
▁bone
▁spinal
▁tumor
▁moderate
▁fentanyl
▁illness
▁hypertensive
▁intravenous
▁mice
▁cardiac
▁findings
▁hospitalized
▁consensus
▁screening
▁demographics
▁injuries
▁initiation
▁Patient
▁odds
▁examinations
▁atrophy
▁plasma
▁oral
▁retrospective
▁muscle
▁laboratory
▁secretion
▁postoperative
▁gestation
▁pregnant
▁pyloric
▁genes
▁transplantation
▁influenza
symptomatic
▁admission
▁perfusion
▁carotid
▁fetal
▁ventricular
▁acute
▁morbidity
▁vitamin
vascular
▁tailored
▁spontaneous
▁medications
▁therapy
▁chemotherapy
▁intraoperative
▁gastrointestinal
▁logistic
▁saline
▁compliance
▁knees
▁metastasis
stenosis
▁healing
▁complication
▁graft
▁expectancy
rectal
▁admissions
▁trauma
▁elevated
▁migraine
morbidity
▁syndrome
▁coronary
▁pulse
▁aortic
▁bypass
▁therapeutic
▁deprivation
▁elective
▁Questionnaire
▁vaginal
▁ratios
▁radiotherapy
▁parotid
▁urinary
▁diagnostic
▁amputation
▁epinephrine
▁malignant
▁Treatment
▁bilateral
▁invasive
▁carriers
▁vascular
▁disorders
▁infusion
▁sectional
▁lesion
gastric
▁clinics
▁Median
▁myocardial
▁tumour
▁prostate
▁artery
▁adjustment
▁emergency
▁bronchiectasis
transplantation
▁metastases
▁disorder
▁prolonged
▁airway
thyroid
▁wound
▁fixation
▁multivariate
▁VAS
▁chronic
▁cardiovascular
▁ovarian
▁symptom
▁dose
▁contralateral
▁mmHg
▁facial
▁fracture
▁residency
▁abdominal
therapy
▁guidelines
▁anxiety
▁fatigue
▁ward
▁intervention
▁Retrospective
▁doctors
▁specificity
▁arterial
▁symptoms
▁appendicitis
▁preoperative
▁Doppler
▁gestational
▁aureus
▁elderly
▁classified
lateral
menopausal
▁incidence
▁Cox
▁decreased
▁angiography
▁psychotic
▁imaging
▁limb
▁examination
adequate
▁cTnI
▁hypertension
▁antibiotics
▁eating
▁lesions
▁isolates
▁serum
▁tibial
▁scans
▁metastatic
▁antibiotic
▁headache
▁questionnaires
▁axillary
▁concentrations
▁severity
▁liver
▁tumours
▁centers
▁eligible
▁gastric
▁ultrasonography
▁remission
▁placebo
▁tissue
▁adequate
▁specimens
▁mellitus
▁diabetic
▁aneurysm
carcinoma
▁baseline
differentiated
▁physicians
▁laboratories
▁practitioner
▁pancreas
▁parity
▁valve
▁needle
▁biochemical
▁prognostic
▁concordance
▁adjusted
▁laparoscopic
▁prospective
▁anatomic
▁Scale
▁inflammation
▁surgery
▁obesity
▁adults
▁hospitalization
▁ethnic
▁tumors
▁hospitals
▁systolic
▁lymph
▁reperfusion
▁Compared
▁socioeconomic
▁pelvis
▁prevalence
▁obese
▁providers
▁Clinical
▁cancers
▁vaccination
▁depression
▁screw
venous
▁bowel
▁longitudinal
▁gluten
▁respondents
▁dissection
▁diet
▁Statistical
genes
▁biopsy
