arrh
▁glucose
▁exten
▁Mice
▁experim
▁2
▁Elevated
▁cytochalasin
▁allogra
▁GV
▁LH
▁modulation
Ins
▁ketoconazole
▁preliminary
▁ribonucle
▁placenta
▁Myocardial
apo
hydro
▁carbamazepine
keto
▁8.8
▁diffuse
▁radiography
icep
yanodine
▁PBMC
▁stab
▁statistically
phosphates
▁awareness
▁discriminate
thel
KD
2-
▁perioperative
phyl
▁dial
▁contributes
▁intervention
▁reduc
inergic
▁visceral
▁immunocyt
▁ACE
▁balanced
(3
-12
▁prolif
▁diarrhea
▁glycosyl
▁cytoplasm
▁gangliosides
anded
▁7
teroidal
ifedipine
erating
roprus
parathyroid
▁3.
▁molecules
5%
98
▁morphometric
▁sporadic
▁77%
▁Alzheimer
geneic
terologous
▁cochle
▁Angiotensin
molecular
▁diagnosing
▁0.01,
tence
▁proteases
▁dilation
crystall
▁intravenously
▁(32
▁ferrous
▁successive
abin
▁11
▁resis
FGF
▁heterogene
▁breakdown
▁bactere
esthetized
-45
▁Hepatic
▁(400
tition
▁smo
▁20%.
▁shifted
▁catheter
▁asthma
▁fores
▁standardized
▁devoid
▁inhibitor
0).
▁Tran
ectin
acid
▁halothane
embran
▁uterine
▁deaths
▁TMP
ventilation
oag
▁intact
ifug
▁washing
▁clinical
▁attenu
▁synthetase
encephal
▁lactation
etine
▁prazosin
▁arthro
▁Animals
-(1
▁unmodified
▁Sensitivity
ropriately
/20
▁clamp
tase
▁phenylalanine
nitroso
atase
plication
▁estrous
-11
hyde
apeutic
iasis
sies
▁Twelve
▁bab
▁spermatozoa
▁angi
▁respiration
HLA
▁densities
▁5.7
▁autoantibody
▁74
▁bleeding
▁tas
▁accumulate
▁Gly
embr
▁carbox
▁FU
▁PRL
▁graft
tryp
2318
▁waveform
▁barb
hospital
▁diuretics
▁acrome
▁possi
-450
▁radiolabeled
-30
▁polymerization
fluo
▁28%
▁enl
obut
▁recombinant
ervical
▁discharges
His
hep
▁(197
amphenicol
▁titrated
atment
therapy
▁73%
▁hypoglycemia
▁catalysis
▁oligos
membrane
▁elucidated
▁stabilization
▁schist
▁gon
▁ineffective
▁serine
▁Apparent
rophob
▁lowers
itum
▁stoichiometry
feron
▁0.01
▁coronary
limiting
▁depolarized
(-)-
oprotein
▁mmHg
▁mammals
vival
NAc
▁LFA
▁ganglioside
%),
▁Ventricular
glutination
VIP
9),
dial
-10
▁(56
.1%)
erin
▁mucin
▁700
▁poorly
upus
▁interv
▁bronchitis
jun
▁kidneys
▁antim
▁smokers
hest
▁overe
ikary
▁hGH
▁adul
▁indo
aldehyde
filtration
eroxidase
etan
▁epsilon
▁nox
▁neurop
7),
sors
CDD
apanese
▁inhibitory
globin
▁yiel
ilization
▁168
dine
▁mycobacter
▁nitrate
▁superim
▁Chronic
▁trache
▁dividing
aicin
uminal
▁adren
Ds
idovudine
enzym
▁6.7
aryn
▁crystals
▁110
▁TRH
aned
-8-
opha
▁pulse
depr
ivary
roup
idol
organization
▁restor
▁acco
angerhans
▁enalapril
azep
▁supers
IU
▁screening
oxic
▁Organization
▁Cys
▁Samples
uprofen
▁fibr
▁1.3
▁phage
▁pneumon
IFN
▁slic
1/2
▁oesophageal
▁accumulated
0-
▁assessed
▁crucial
onad
-9)
▁thymus
jected
▁calcified
ocin
ethoxy
omatous
▁ileum
▁enrichment
▁glycosaminoglyc
▁4%
▁elbow
olesterole
ardized
▁RNase
▁oocyte
▁ulcer
0.9
enedi
▁symptom
▁valpro
▁Retrospective
▁Tryp
▁histones
▁supplemented
▁amounted
ardipine
0.3
▁lec
renaline
▁dyn
▁9.6
▁pathological
▁(92
▁parasites
▁0.01).
▁haemoglobin
▁mediating
olic
▁exhaus
-300
▁lae
▁lethal
▁17%
▁controlling
▁suppresses
▁colchicine
▁arb
▁bronchi
▁cmH
▁secreted
ocarb
ogens
▁Sequ
tral
▁LPS
▁differentiating
▁ultrastruc
▁mammary
▁soybean
▁ovaries
▁monocyte
▁hormone
▁interfere
nine
taz
▁substituted
▁38
coated
▁Sixteen
arity
rection
▁transplanted
nucleotide
tact
▁prolonged
cycl
▁hippocamp
▁antibiotic
▁Antibody
▁decreases
▁aggregates
▁ventricul
▁cornea
▁MCA
▁approx
eptides
▁blockade
▁mortality
▁Systolic
▁sialic
blockers
▁gangli
▁paren
urium
ication
▁gyr
▁rIL
▁aneurys
hern
▁inoculated
folate
osaminidase
oprote
▁endoscopy
▁aden
▁healthy
▁0.33
▁survive
▁comprise
▁gyrus
rocyte
▁CsA
▁90%.
rogen
▁penetration
▁diethyl
tention
▁intraoperative
gluc
▁21%
▁sedimentation
▁motility
▁hysterectomy
▁acquisition
▁denervated
▁stained
▁pathology
olism
oyl
▁predisposition
yrate
ostigmine
olus
robic
▁mec
rotal
▁4.5
embedded
▁microinjection
ygo
▁Purified
▁.000
▁Staphyloc
▁resorption
▁virions
inhibitory
▁muscle
atellite
▁parame
-13-
▁abdomen
▁elicited
rocy
▁lysates
▁spasm
▁113
▁immunity
▁secretagogues
▁synerg
▁9.1
▁ureteral
▁phenobarbital
▁injecting
▁PTCA
▁caro
iodo
▁randomised
▁Impro
▁(70
▁schiz
lymer
▁Phosph
▁lysed
▁premature
▁Intra
▁conditioning
atized
▁rumen
2(+)-
▁stimulatory
secre
▁predic
▁Measure
▁alcoholics
▁chromaffin
▁cyc
▁receptive
urosporine
▁oncogenes
ositol
vac
cein
▁CRP
68
toid
achn
tages
▁bFGF
▁Eighty
▁exploratory
▁nitroglycerin
▁86%
▁evac
bacco
▁yielded
▁opioid
junctional
99
ospecific
▁114
▁unbound
▁reinforcement
▁Phen
tors
cyt
▁functioning
dR
▁cytokeratin
▁exponentially
▁transitions
▁reagents
oproteins
▁eliminated
CAM
▁isoflurane
▁9.5
.2)
▁nebul
▁70%
nisolone
▁supr
▁RBC
▁conditioned
▁bolus
posing
▁flanking
▁paralleled
trogen
ovastatin
▁pA
tonic
▁dexamethasone
▁circumflex
▁infrequently
either
▁74%
▁alcoholic
▁oriented
-6-
▁aneurysm
ulin
gradely
▁109
-198
ighteen
▁catabolism
ACTH
▁Exc
▁personality
▁kidney
chase
▁fluorescence
▁varic
fts
▁theore
inase
iodothyronine
benzyl
Rs
▁responding
▁ACh
▁nodal
▁awake
▁allografts
ancies
▁strongest
▁197
▁VIP
▁sial
ignant
▁follicular
yzed
▁granule
irradi
▁Alz
olecular
79
oric
▁determines
acyl
sulph
▁cascade
▁positively
▁intolerance
▁anaerobic
▁1.
tolerance
ffer
▁saliv
▁immunologically
▁1989.
▁340
orded
▁contral
▁centres
▁0.4
reased
enriched
▁anesthetized
▁inducing
Daw
▁Adult
▁antithrombin
▁discrep
▁Consid
▁reliability
▁ethanol
▁overex
onine
prin
94
▁normalized
▁bumetanide
-6,
▁dilatation
loid
▁distress
▁ppm
oplasm
▁ACTH
bular
tilb
umerous
▁1
▁suscepti
lyce
▁exchanger
▁87
▁ovid
▁polymer
ancomycin
guanine
▁cerv
▁ket
▁RIA
fos
▁harves
▁inability
▁fluoro
ropo
roprusside
▁hypertensive
▁febrile
▁diarrhoea
▁134
tigo
▁7.1
-3-
▁neutralized
▁livers
▁(100
25)
BM
▁hypertrophy
▁aor
▁acini
▁libr
▁kHz
amic
▁Nine
▁subunit
▁immunobl
▁dihyd
▁rodents
▁deposited
▁fivefold
otypic
▁heated
▁synovial
▁prepro
▁gonadotrop
▁sciatic
▁harb
▁researchers
trib
▁PET
▁0.4%
▁Additional
▁1985
▁nadi
oinositi
▁unrelated
▁LMW
oxicillin
▁cephal
▁bacterium
▁excessive
adenosine
phil
▁decreasing
▁pylori
opi
▁cAMP
▁voluntary
85
clamp
▁67
▁kit
units
▁assembled
▁mAbs
▁thresholds
▁tamoxifen
▁visc
ocrine
DNA
▁fron
idine
▁Except
▁bronchodilator
▁interfer
minal
▁viability
takes
sus
▁vena
aminobutyric
00
▁achieving
ylcholinesterase
▁addi
▁tRNA
odium
▁Plas
responsive
▁10(5)
odds
▁Recent
ogenously
itary
▁mandibular
ymptom
ituit
▁cochlear
igenic
5;
▁Streptococcus
trated
400
▁RFLP
▁2-5
▁epidemiology
▁10(6)
thi
ulinemia
olesterolemic
▁Exercise
▁10%.
▁progesterone
▁Tris
▁pneumococcal
oneu
▁testicular
Kd
▁ORF
▁anterograde
▁glycoprotein
▁HbA
▁automated
▁marginally
2+]
othre
.5%
▁professionals
fec
obal
▁masked
amel
▁elong
-21
▁corticosteroids
ochemical
▁institu
▁stain
▁neocortex
PV
▁mast
▁coded
▁elevated
▁Accordingly
▁hamster
▁inactivated
▁reinfor
▁(33
▁cohort
▁inhibit
▁bronchoalveolar
▁retrie
ycline
▁beds
▁elevations
▁Abnormal
electric
▁dP
▁NaCl
▁consis
▁nitrite
▁96
bic
▁lymph
▁mediastinal
▁radioactivity
▁gland
▁thyroiditis
▁osm
▁unre
▁lamin
▁arrhythmia
▁RAS
osom
▁isoenzyme
▁blots
▁0.09
cysteine
▁8644
▁foetal
▁amyloid
▁201
▁82
▁8.0
▁infarctions
ovalent
▁projecting
tics
▁yeast
▁antigenic
▁probes
▁DT
▁decreas
orpor
▁wrist
▁plates
▁ventral
▁Platelet
▁abl
▁(0.6
▁identif
▁polyunsaturated
▁adenocarcin
agonist
▁bim
vices
ilum
▁Km
▁electrolyte
▁165
▁4.2
▁dispersed
▁profound
▁relaxed
▁88
▁infancy
▁astrocytes
▁cancers
▁mRNAs
▁Bam
▁(198
▁trigg
▁LS
▁adulthood
ejun
▁practic
ystectomy
idate
▁aneurysms
▁perone
▁aerob
▁promoter
▁1,2-
atched
▁involvement
▁transp
Ms
▁attitu
▁cytotoxicity
rostened
phrag
trous
▁hematuria
density
▁complementary
▁underst
achnoid
opausal
lives
▁hemo
▁subacute
IGF
▁titres
▁methacholine
gic
cardiac
-34
adily
-14
ximal
▁196
▁recombination
▁bilayers
▁dimers
▁injections
razole
▁muscarinic
▁contractility
▁emptying
ercul
▁potassium
▁colos
▁Kinetic
ocular
▁Rats
▁(300
▁arteri
-32
abec
plied
tioned
▁6.5
▁(1.4
yrin
▁AMI
▁enlar
▁folate
▁aldosterone
▁phleb
▁Eco
▁retinoic
roline
▁feasible
azolium
▁trophoblast
ygdal
assisted
▁BV
▁RPE
▁pati
oblastoma
onate
ionate
namic
▁analgesic
▁(37
cessive
-99
▁RNA
▁potency
▁contras
▁Higher
▁photon
▁TCDD
mL
▁tricuspid
▁coil
▁retrovirus
ectable
▁epididymal
▁metabolites
▁ascites
▁unusually
▁transduction
amet
▁mediate
▁methotrexate
▁spine
▁beneficial
▁physici
▁hydroxyp
▁1,25-(
▁Groups
proline
▁polys
▁psycho
▁reapp
▁leuc
▁conformations
▁neuraminidase
▁rhythms
▁muta
34
pregn
▁evaluating
teryl
onstric
▁developmental
▁1.5-
▁oss
olol
brile
▁accounted
himb
▁Measurements
competitive
eclampsia
tyrosine
▁programmed
▁cleavage
▁suppressed
▁antagonist
▁compensated
▁cholinesterase
0%),
12.
+]
▁pathogenic
-4.
myc
▁Doses
chloride
▁interc
▁uterus
▁analgesia
ietic
presenting
▁lute
▁follic
ilin
▁Mg
enec
▁stool
▁CHD
▁neuropsych
▁recurrence
▁angina
▁oxygen
oriented
▁differing
▁hindlimb
▁parental
▁viral
isopropyl
▁salic
▁prostaglandins
urgical
containing
562
crimin
erver
▁LT
▁herpes
▁77
▁79%
▁cyst
▁paired
▁acidosis
700
onidine
tructive
▁quantitation
ailure
▁immunogenic
daily
▁elevate
▁recycl
omat
▁unstable
▁ovalbumin
▁40%
▁comprehensive
▁longus
▁quantitative
usions
▁tryptophan
▁pharmacological
▁measurable
▁actively
▁morb
▁Immuno
ziness
ografts
▁microenviron
▁glycol
erent
19
mend
odontic
▁hepat
▁innervation
▁carcinogenic
PGE
umptive
▁bp
▁attenuated
amyl
▁induce
▁monophosphate
rinary
thymic
▁antif
tality
▁palmit
▁dystrophy
opoly
▁immunogenicity
▁moderately
apine
▁evid
▁phag
crib
▁steep
▁(1990)
hexyl
predic
▁stere
80
▁poli
jec
retion
esity
▁strand
▁transduc
▁0.17
maleimide
▁bombesin
turally
▁experi
tening
▁mell
▁saturation
▁satur
▁tomography
▁phe
▁superf
mitter
▁washed
▁paradigm
tee
▁25,
74
00,
▁muscular
essive
▁Cd
▁aort
2%
▁comprised
ituitary
▁peroxis
acholine
ethylmaleimide
▁21-
resting
▁graded
sts
chol
▁(10(-5)
▁homogene
▁molecule
prisingly
▁corticosteroid
▁activator
ophore
▁heating
▁9.3
▁potentials
▁prevalence
▁4.0
▁duodenum
▁microM
▁capsaicin
▁termed
IIb
▁triacylglycerol
▁estradiol
▁pyram
▁quantified
▁posture
tris
▁mamm
tory
▁Doppler
▁septum
▁1.2
insensitive
▁enrol
14)
/4
▁urgent
▁dehydrogenase
▁hemodynamic
▁inositol
athy
▁thrombolytic
▁seronegative
ominant
▁resonance
herol
▁adhe
-7
▁readings
▁lys
▁Kine
plying
▁APC
▁calculi
geal
▁medulla
▁BMD
arous
▁SOD
▁selen
▁definitive
▁76%
▁rhabdomy
▁Effects
tic
▁beef
▁hydrophobic
▁glycine
tiazem
dIns
▁210
ervo
▁diarrh
tility
▁Addition
▁fasting
▁sexes
roblasts
.1)
risk
avage
▁(8
▁postmenopausal
ecal
▁58%
▁enteric
trate
▁preferentially
enching
articular
-40
▁erythemat
▁diaz
▁spectroscop
oreductase
▁classified
ichia
▁phenylephrine
▁cytogenetic
electro
tisol
GMP
gus
▁phentolamine
-29
▁[32
▁helix
▁assessments
reening
ilts
▁ori
rase
▁myotubes
sizing
Hb
esicular
▁trich
▁alteration
▁glycosylated
▁intense
icient
▁solely
thrombotic
▁emergence
tif
rendipine
▁intake
▁unm
▁dendrites
▁neo
▁blinded
icated
▁exce
adine
▁comparisons
▁intramuscular
olerance
▁cataly
▁pineal
ollen
▁transported
▁oligonucle
▁behavioral
▁introducing
▁questionnaires
voltage
edema
▁infants
▁Urine
maximal
▁mechanically
▁fibronectin
-35
etween
▁calf
▁prosthesis
▁palate
▁accumulation
▁lysozyme
▁3-4
▁rearrangement
uated
3+
▁transducer
▁lambs
▁cytoplasmic
▁195
abies
▁determinants
▁GD
utaneous
aspartate
▁immunostaining
▁SMC
▁transitional
▁theta
ionine
▁deform
malignant
zot
▁ischaemic
zotocin
▁captopril
kets
▁(54
rescine
ostic
regulation
▁elic
▁TI
▁extensively
▁HSP
▁(50%)
▁contamin
▁incis
▁resemble
▁lasted
▁apex
▁libitum
utroph
uppres
▁OT
▁artery
▁substantia
▁(-)
cence
▁routinely
▁(5%)
▁anion
▁seizure
coupled
tives
▁resection
▁compares
seven
▁covalent
▁stimulates
▁cellulose
▁transfected
▁102
▁vulgaris
▁endotracheal
activities
▁0.15
▁fluc
myristate
▁grading
40
)],
▁cyanide
▁falciparum
▁homose
▁monensin
▁nifedipine
▁FS
▁(80
▁socio
▁atropine
osts
teroides
▁cavity
azosin
▁myrist
▁occupancy
▁ane
▁supine
-48
▁lamellar
▁noninvasive
▁quiescent
osum
▁cured
▁cyclosporine
▁reflux
▁excluded
▁depolar
▁infarc
▁EBV
▁electrical
oprost
▁TGF
▁prescribed
▁antibody
▁ultrastructure
▁saliva
▁acuity
uled
▁EGF
chym
▁phospholipid
▁chamb
▁caudate
▁intrag
▁transfusions
▁(0.2
▁diuretic
ylamide
▁fluores
▁neurolep
▁serologic
sives
▁135
heximide
▁encephalopathy
▁cyclooxygenase
individual
▁0.18
methoxy
ondon
▁diltiazem
▁39%
ulmonary
▁Partial
▁choroid
▁infertility
▁embolism
embry
▁BAL
cancer
titial
▁preferential
▁laryngeal
▁neurotrans
tivated
▁elastase
▁superimposed
▁newborns
▁pretreated
othelial
▁carbohydrate
iciency
▁deleterious
▁nuclei
thood
cardi
▁Incubation
▁infarct
▁unfractionated
▁diabetes
▁sensitivities
iliac
guan
▁pts
ethanol
▁alcohol
▁irradi
ospor
▁vomiting
▁unfav
▁socioeconomic
loro
rangement
▁cardi
▁2.5%
ximum
ilibrium
▁exacerb
▁MH
▁nicardipine
▁AII
▁schizophrenia
▁rabbit
▁60%
ogenetic
▁intrathe
▁magnesium
▁(1.6
▁instrumented
dibular
▁intercal
pituitary
▁granulomas
▁55
topril
▁+/-
▁Flu
▁101
nitro
▁interacting
▁transfect
▁medications
▁chromat
phoresis
▁stom
infected
▁newborn
▁glycer
▁TNF
▁outpatient
▁Cox
▁histochemistry
▁RB
▁revised
▁clonal
ralfate
osal
▁apoA
▁opson
▁restr
VL
▁augmentation
▁99
▁tachy
-2
▁affec
▁2-
▁reas
▁neutropenia
▁capsid
isqu
▁encodes
inely
▁stenoses
▁suspicion
▁iodide
▁jaund
▁dyes
▁blockers
▁sampl
▁pouch
▁Previously
▁succinate
▁cytomegalovirus
▁enriched
▁erythematosus
posure
▁ciprofloxacin
epti
▁inflamed
▁amide
1-
▁0.16
▁childhood
49
▁forskolin
▁Transient
▁8%
▁postprandial
oventricular
▁averaged
▁bromocriptine
▁PCO
okinase
▁acqui
▁bilayer
▁(10
▁aggres
uary
▁reser
▁resear
frontal
tual
atine
▁myotub
▁disorder
unts
▁emphysema
▁conclusions
porting
reactive
▁duct
▁calcification
▁congestive
▁infection
▁(49
▁bif
▁sclerosis
▁gastro
▁illnesses
myrist
▁modif
truction
▁sequencing
cyclic
ysto
▁cartilage
▁mutagenicity
▁8.3
▁revascular
▁pigs
▁ultim
▁biotin
IgE
▁RI
rogenic
esides
▁serotype
▁intracellular
▁regenerating
▁corneal
▁metast
▁deficient
▁antiv
gene
▁Pulmonary
▁brainstem
▁Obs
▁suction
▁promoters
▁proce
▁carc
▁RP
opathy
▁promptly
▁cGMP
▁0.025
▁carnitine
▁lipids
▁affects
colem
▁contiguous
▁microscope
vae
▁aimed
lective
oprim
▁subpopulations
▁59%
▁pathways
▁lymphoma
arbox
▁amputation
oplasia
▁chloroplast
▁venti
▁ischemic
ventricular
▁neurites
▁scalp
▁Preincubation
-5)
restingly
▁coping
clerosis
▁Comparisons
▁dietary
▁oestradiol
▁worms
▁inorganic
▁8)
obacterium
turnal
enkephalin
opsy
▁Glut
PMA
▁amput
▁therap
▁abscess
HF
▁consultation
thase
▁HBsAg
endorphin
▁concentrated
▁thymic
▁82%
▁formalin
▁arterioles
▁hyperpolarizing
▁preload
▁collecting
cellular
▁polyethylene
traum
androgen
▁15,
▁256
▁PAP
xanthine
airy
ynaptic
▁500
aints
▁cDNA
▁vulnerable
7.
Barr
▁intest
▁antich
▁gangl
kinin
▁concordance
▁biologically
▁monit
▁analgesics
havi
▁68%
turition
▁Calcium
▁TNP
▁Cancer
tamine
▁kilobases
▁diame
10
onephritis
▁suppression
▁appreciable
▁anticonvul
▁prosthe
▁rhin
-6.
▁NMDA
ffin
▁15-
ncy
VLDL
▁5,
odil
▁89
arate
▁molar
▁reconstituted
micrograms
▁(62
plicated
lep
▁Metabol
ogaster
▁impulses
venous
▁93%
▁7.5
▁46
▁(250
▁Langerhans
▁LDL
ocyanin
▁sarcoid
▁6),
▁iris
▁thromb
ergency
idated
▁intrinsic
▁CM
Glu
▁rectif
▁600
▁9.7
being
amino
Tc
▁deduced
▁mesen
▁tidal
triglycerid
athioprine
▁microscopy
▁TT
▁carbohydrates
▁coated
reast
▁filaments
itro
▁ischaemia
▁phospholipids
▁(38
poor
▁HTLV
ocyt
▁transiently
▁(0.5
▁(4-
aterals
tened
▁parasite
▁strokes
▁Estimates
▁substances
▁shedding
▁Evaluation
▁100,
▁adrenal
▁IgM
omod
▁mmol
▁Wistar
▁descrip
▁thi
▁PV
▁alkali
▁corticos
cemia
▁lavage
▁extracts
▁mucus
▁motifs
▁9)
▁glycolysis
▁kappa
▁HCC
13
▁cann
▁GMP
▁reliably
▁calorie
▁plaques
mature
▁resour
▁ligament
▁transection
63
▁unsaturated
▁foci
▁alterations
▁(1),
Leu
▁concomitantly
▁leth
Ra
▁Thyroid
ponential
▁rati
▁ips
▁FITC
▁8-
▁conto
▁transit
▁antiser
onor
▁salmon
▁prophylaxis
11
▁nif
▁nucleotides
▁calmodulin
▁10(
▁carcinogen
entral
ported
rolase
examin
otine
iaz
within
▁anoxic
▁defic
▁myo
▁basilar
coronary
3]
▁nicot
▁apolipoprotein
▁axial
▁leucocytes
otropic
▁plasminogen
▁myeloma
▁arteriovenous
▁cirrhosis
▁impairs
olesterol
▁enhancer
▁manifested
atous
0.4
▁pharmacokinetic
▁119
▁precipitation
▁lovastatin
▁stimul
lebrand
▁bronch
GABA
▁atrium
ascular
▁diacylglycerol
▁cis
▁inflow
▁PDGF
concentration
▁activators
▁canine
▁progression
▁evolved
▁diagnostic
gulation
versus
▁describ
-400
▁pyrophosphate
▁symptomatology
▁plasmid
▁relapse
▁Comparative
tile
▁causal
▁subcl
▁inoculation
▁cephalospor
▁0.99
▁24,
▁seminal
▁benzodiaz
▁microspheres
▁supplement
▁repl
osity
▁neuro
▁retardation
▁rated
▁hypotheses
▁postmortem
▁Tum
▁phasic
okinetic
▁Nineteen
▁depletion
▁worm
▁calories
mandibular
▁4.7
▁pregnancy
pharose
azolam
▁occl
ighted
▁fecal
▁1987
▁amplified
▁rhesus
▁diurnal
▁institutional
▁inguinal
▁autocrine
▁proliferative
▁supplemental
▁umb
▁Renal
▁tuber
3'-
quid
▁LDH
echn
▁islet
▁hemodialysis
▁reticulocyte
▁oxidative
itals
▁bacterio
usate
▁guinea
▁osmolality
Cer
arum
▁30
▁schedules
tia
▁fibrin
immunoreactive
choline
▁PT
▁considerations
▁inpatients
▁fibrob
▁fractionated
▁50,
▁differentiate
bral
ioid
▁3.3
▁glutamate
▁NaF
NM
▁dendri
▁DMP
▁algor
▁SDS
▁encoun
▁GRF
▁suppressor
oreactive
▁breathing
▁latent
▁differed
▁Crohn
Glc
▁cationic
roscopically
▁promp
▁contralateral
▁pene
hydroxys
ocytes
centr
▁uro
▁transcripts
▁60.
▁1979
▁methodological
▁HR
erican
threshold
ogra
▁5'-
▁IA
▁prerequ
orectal
▁Leu
(2+)-
ifferentiated
▁survival
▁cardiomy
▁depressed
▁MK
▁encompass
▁persis
hea
kDa
▁organic
▁centrifugation
▁3.9
ritish
-5-
amily
▁minority
ecre
ochondr
▁prospective
molar
▁histories
timulation
asone
▁63%
▁vicin
promazine
▁lymphomas
itonin
▁depr
▁myofibr
▁38%
retic
▁nerves
▁.05).
▁diminished
▁opioids
zard
-3)
▁salvage
▁recru
▁Diff
gesia
akary
▁amniotic
▁impairment
▁fasted
▁fibros
▁lobe
▁extensor
▁heterozygotes
▁celiac
▁amygdal
▁arrhy
▁systemic
▁synapses
▁raises
▁purified
▁Clinical
▁10%,
▁dosage
▁coli
tering
orrh
▁transmembrane
▁numb
rostaglandin
▁appreciably
▁proline
bred
mTc
Thr
.0%
▁motone
▁24-
▁antiviral
tine
▁Triton
zyme
▁PLA
phospholipid
▁precipitated
▁strips
▁adrenocortic
▁suicide
▁nylon
usp
▁MDR
▁mononucle
▁HF
(1
▁steroids
▁solute
-1-
amate
gents
▁dete
▁peric
▁unresponsive
▁spines
selec
▁Lym
▁cholera
osid
▁disruption
▁portions
▁recruited
urin
ensitized
▁uninfected
plasty
▁mutagenic
ongest
cortic
▁spinal
▁discrepancy
▁erythrocy
▁300
ancre
▁vagotomy
tivation
opropyl
▁thrombi
▁influx
000.
▁thyroxine
▁2-3
rometer
oblastic
ocortex
ginine
eptic
idym
▁133
▁biochemically
▁torsion
▁aminoglyc
▁severely
▁140
▁Infection
▁marrow
▁carcinogenesis
▁embolization
33
▁worsening
▁-5
▁nasopharyngeal
▁000
▁investigating
▁polyp
▁confounding
▁litter
▁maneu
▁abscesses
▁carcinoma
▁smear
▁intractable
tein
▁sputum
roxy
tebral
▁1:
▁deaminase
omyelitis
▁caution
▁epileptic
▁cutaneous
opathological
▁globulin
▁infectious
▁digestion
▁pathophy
▁([3
▁polypeptides
▁myocardium
catalyzed
perfused
planch
▁messen
▁0.9
terious
agonists
▁islets
▁cathe
▁utero
esium
PDE
▁percutaneous
▁caries
▁typh
▁catechol
▁monomer
ocon
effec
glyc
▁inactiv
▁vaccinia
usive
▁descriptive
▁9.2
▁syphilis
ipril
▁metabolite
roscopic
▁chloro
▁tubulin
▁hypothal
entricular
▁parac
▁ELISA
otonic
▁allogeneic
▁unchanged
ctomy
▁stimulated
▁laparotomy
▁eug
▁translocation
▁OV
▁carboxyl
▁yolk
▁nontoxic
phadex
muc
▁assay
osome
HCV
▁primates
criptional
phylaxis
▁distal
edded
▁Hodgkin
endri
▁confined
▁surviv
▁streptozotocin
versity
uculline
▁continuing
▁regurgitation
▁Tissue
hCG
▁capability
terol
ylate
▁cooperative
rati
▁antigens
anadate
▁implicated
▁pectoris
▁[35
▁tyros
▁RR
tenance
icardial
tails
▁dopaminergic
conjugated
▁ischemia
Hodgkin
▁perip
▁3'-
▁wors
▁nmol
▁lecithin
▁thromboembolic
7,000
epam
rophen
▁mothers
▁Simult
▁ovine
transferase
▁nm
▁acute
▁compartments
▁bacteria
▁Secondary
gesterone
▁bupivacaine
caro
▁ABP
▁(2.5
▁influencing
▁0.001).
▁hypertro
▁Peripheral
tigu
▁rehabilitation
oceptor
aryngeal
ranial
ogeneic
▁resting
▁transferase
▁bronchoscopy
▁10(3)
▁11,
▁2.6
▁ureth
▁supernat
▁preincubated
▁consequently
rotic
▁mathem
▁vesti
oplasty
sorption
▁mucous
▁-10
opa
▁Bone
-100
▁cytosolic
▁spro
tRNA
/5
idazole
-17
▁pancreas
thanol
▁bull
invasive
▁ophthal
▁apical
▁1.7
51
ayed
▁blas
▁microbial
▁dehyd
▁conducting
▁adsorbed
▁codons
plasma
▁challenges
▁vertebral
▁fluidity
elan
thma
testinal
▁Levels
▁hypothesize
▁births
▁iliac
▁rup
▁castration
▁47
▁resonances
▁sarcolem
▁genetic
tions
▁esophagitis
idin
▁(28
glutamyl
▁scans
▁Bacter
▁amine
rocytes
▁NSAID
▁monolayer
▁3-5
▁hemisphere
8;
▁dissociated
ifornia
▁phosphoinositi
▁cytology
▁inconsistent
inesterase
atical
45
22
▁arteries
▁macrom
▁retrospective
▁Consistent
▁hydroxyl
seud
▁modalities
▁heavier
▁syncy
▁estimating
▁mitogens
▁mongrel
oxygenase
▁protracted
-0.
pretreated
▁admission
reported
▁vaccin
▁(48
▁linoleic
▁buccal
▁spacer
osin
388
xone
ocul
romes
▁40,
plantable
▁mildly
▁dex
ometh
▁nephritis
▁immunosuppres
▁glyc
▁ureter
▁injected
sorb
iatum
▁irritation
▁4
▁Infusion
▁excl
▁lumbar
▁ovari
27
▁sulfate
▁tobacco
polar
▁intra
▁daltons
dialysis
ATPase
▁(39
5%)
▁phosphate
▁presum
▁recognizes
▁basolateral
effective
▁lor
▁protoc
ocrit
▁(95%
ausea
▁144
purified
▁enrolled
ses
▁(0.4
erad
▁pyruvate
▁molecular
▁receptor
roglobulin
▁AVP
▁subclinical
▁analyzed
rected
▁reoperation
lipid
omies
▁identifying
dC
▁allele
hydroxyd
▁transmitted
▁papillomavirus
▁heterologous
perfusion
4%)
▁hypertonic
▁6.0
ETE
-8,
▁transcript
oglyc
▁autoradiography
▁HC
▁100
39
▁IFN
uation
▁enteral
▁physi
▁pharm
▁estrus
▁proximity
▁discontinu
▁commiss
▁chains
adjusted
herent
rosophila
▁alkylating
illus
▁renin
▁papilloma
alian
▁swine
cholic
yses
▁unilateral
amycin
▁positivity
▁qualitative
.5
adiol
lact
acting
▁axon
andros
▁deuter
-23
erox
▁buc
▁20,
▁refr
obronchial
▁conjugation
piratory
+,
▁morphologic
emic
▁COPD
▁11.8
oice
▁postoperative
▁eliminating
itant
▁(60%)
▁principally
▁influenzae
▁intravenous
▁hypercal
otrophs
uronic
▁shel
▁soy
ocarcin
ivation
▁dimeric
▁190
adherent
0.6
▁eosin
▁fluxes
trop
▁casein
▁histologic
▁Pseudomonas
▁dys
▁suspected
▁surgeons
▁spherical
▁laboratory
▁apomorphine
▁Gluc
▁HeLa
▁flexion
▁vanadate
▁facilitated
▁biopsies
tradiol
weighted
orin
▁catalase
▁CAD
▁streptococcal
▁exhibit
▁18%
nitine
▁solubility
▁anticonvulsant
▁TB
▁adhesion
▁adenine
expressed
▁bovine
▁substanti
ocalcin
availability
amol
▁horseradish
▁focusing
▁obstructive
opathology
▁transgenic
▁compromised
▁hydroxylase
30
tical
▁neoplastic
▁Pb
aneously
▁notic
▁Neuro
▁contraceptive
▁cDNAs
▁debr
receptor
▁hydrogen
▁tended
▁recurrences
▁3).
iferative
▁poorer
▁doxorubicin
▁lapa
oxine
uded
▁asymme
▁hamsters
▁104
arginine
lysine
hist
▁harvested
▁ranged
▁lymphocyte
DHT
diol
enil
▁angiotensin
▁9%
ipr
iciently
▁Eff
▁immobilized
oides
▁adjusting
transferases
onomic
▁reconstruction
▁methanol
▁SHR
▁fixation
▁(1.2
450
HDL
▁periv
▁quies
▁accumbens
▁stimulate
▁intestinal
ellular
▁atr
duction
▁2000
▁denaturation
▁hypothermia
▁summarized
-120
▁irrespective
▁attained
▁115
otoxicity
▁35
opath
antoin
▁poten
▁proton
▁hens
▁lactate
▁transpos
▁0.43
flanking
4)
▁thrombotic
▁mononuclear
▁behavi
oactive
▁suppressing
fusion
phyrin
▁aryl
rocal
0.0
▁132
MH
▁deprived
ogeny
▁addic
▁enti
▁precur
filaments
▁(1.1
▁4)
▁sigmoid
▁atria
4'-
▁recurrent
▁phyto
enoic
▁16%
▁referral
▁122
▁titration
effects
▁overlapping
▁AChE
▁malignancies
▁Entero
▁naive
▁metronidazole
insulin
▁retroviral
▁tube
▁joints
▁consumed
omethyl
▁suggestive
▁Disease
▁LVH
▁Removal
omized
▁uncoup
▁16-
▁wean
▁corpora
directed
iatric
▁abolish
▁shifts
▁aspiration
▁damaging
▁chec
adecan
matched
mM
▁Factor
▁hydroxy
▁80%
▁leukaemia
adication
▁widespread
▁overnight
IDDM
oscop
▁ib
▁PMN
▁terminus
occlusion
ochrom
irubin
▁stepwise
.3%)
▁denatured
▁87%
▁0.20
▁aspirin
▁albic
▁favourable
▁carcinomas
▁ovariectomized
bisphosphate
▁fluorescein
▁adaptive
▁relaxing
▁58
encl
0%
▁elicits
▁phosphoryl
erable
▁implantation
emide
ANF
acchar
▁aggression
aemic
000,
azem
▁benzyl
▁dysp
▁neoplas
▁simulated
▁quisqu
▁pallid
▁DBA
▁plasmin
rophic
14,
▁phosphorus
▁metals
▁hypertension
glia
▁7.3
▁solubilization
▁vagus
▁depressive
aline
▁chorionic
pli
▁irradiated
▁192
atients
▁41
▁therapies
idium
▁SPECT
3/
gp
IAA
▁0.001)
▁phosphatase
Gl
▁nal
anic
▁HCl
▁ars
▁biop
▁potencies
▁modulates
▁microscopic
Bs
▁chemotactic
phosphon
inescence
▁vertebrate
permine
lobin
▁21,
entical
▁divergent
▁DL
omotion
illar
▁immunoblotting
yel
+/
▁Diabe
88
▁elucidate
▁amyl
▁dorsolateral
▁insulin
▁degen
▁CMV
lesion
ophen
ruc
▁diluted
▁Approximately
schemic
parag
imentin
▁treadmill
▁dithiothreitol
▁Clinic
▁17
transfer
erate
-1.1
▁anesthetic
▁epithelium
throm
▁154
120
▁attrib
astric
2%)
▁contracture
▁lupus
▁phrenic
▁peritoneal
▁therapeutic
▁degrad
▁microvilli
suppres
▁LAD
RP
▁hydrolase
▁hypoxia
▁deletions
▁117
▁1980
▁abnormal
▁citrate
▁enhance
▁somatosensory
4+
▁diphosphate
▁inactive
▁0.04
▁complexes
▁cleft
▁regulating
iliary
95
▁166
dered
▁dendritic
▁10(-9)
8)
▁shortened
▁splic
▁cys
▁undetectable
▁viscer
▁exocytosis
▁substance
▁Surgery
▁20
▁immunization
▁colorectal
acil
▁retrospectively
▁oncogene
aminergic
▁immunoassay
61
▁dichroism
▁cytolytic
▁muscul
▁hyperthermia
▁striatal
acts
tomycin
▁rhythm
▁wk
▁subf
▁disturbances
▁8.7
▁elec
▁optimum
▁phagocytic
▁ultimate
inducing
▁ventromedial
▁progn
▁direc
▁deple
▁yohimbine
▁oxidation
▁gallst
-0
ATP
oglut
moid
▁expectations
▁peaked
.1%
.3
yoto
▁myot
▁cataract
▁initiating
▁antimic
1%)
▁malabsorption
▁cen
▁symme
▁sarcomas
▁virtually
▁Americ
26
osyl
▁quantitated
▁41%
DH
methionine
▁microsomal
-3.
significant
▁substrate
▁30%.
▁radioimmuno
▁Chrom
▁DSM
eal
▁rheum
▁9.4
▁ongoing
▁cadmium
▁hybridomas
▁hepatotoxicity
▁(1.5
ygous
▁risks
▁Differences
▁Almost
otidase
▁tumour
▁outward
▁incontin
▁inges
▁DS
▁radioactive
olute
ociation
iceptive
▁findings
▁downstream
▁excretory
glycer
▁electrocardi
▁arteriography
6-
▁Kup
piration
early
▁exon
▁adrenoceptor
▁rebound
▁(75
4),
roscopy
▁infections
illary
partate
▁correspon
enzymes
▁dehydration
blocking
ieties
▁relieved
-43
orax
▁Plate
▁myeloperoxidase
▁111
abd
hydropyridine
▁inoculum
ococcus
▁palp
▁PGF
acylglycerol
kerat
▁Biochemistry
tens
▁reveals
fluores
▁10,
▁apnea
2+
▁cervical
cells
▁BN
▁lens
BK
olution
▁hypoxic
yroid
▁admissions
▁recons
▁conduction
▁acr
▁tracing
▁450
inic
▁substitutions
▁prophyl
▁hyal
ologous
▁axonal
buterol
economic
50,
▁auditory
rangements
▁competent
▁DNAs
▁supernatants
compart
▁permeabilized
9;
▁intermediates
▁MT
▁anaesthesia
▁attributable
idone
▁macropha
heres
▁bicarbonate
inated
▁mum
▁challen
ordance
▁galactose
▁saturating
ucl
▁dihydro
▁lith
▁infil
▁granul
ophilus
▁AI
/12
sensitivity
oride
▁reproducibility
2.
▁selectivity
aginal
operated
sibly
-2.0
hyd
▁PKC
pite
▁placement
▁trigeminal
▁rotavirus
▁Recombin
ncies
▁ovarian
▁margins
▁measuring
▁plasm
utyryl
▁avoidance
▁monos
▁Ringer
exposed
yro
ocaine
▁0.000
fluoro
▁duplex
▁Pretreatment
uptake
▁0.0001)
▁discom
uran
hexidine
▁concep
▁mumol
▁6.4
▁starvation
▁88%
▁Seventeen
72
▁damaged
aterally
turb
zation
▁multim
▁markedly
▁PMA
▁pyr
▁neuroleptic
timal
▁branched
ethylene
glial
▁abstin
▁pyrimidine
▁protons
▁vacuoles
tabol
▁adduc
▁maintaining
▁mutated
ygotes
▁medullary
trations
scherichia
▁[125
▁helical
oste
tle
▁coordination
▁survived
treated
▁epiderm
▁nigra
▁postsynaptic
▁pancreatitis
ylase
▁lisinopril
▁0,
▁Physical
▁liver
▁supportive
▁0.10
▁Caucasian
smokers
pirone
▁kinase
▁dihydropyridine
▁Registry
tomy
rolateral
▁stimulant
▁nons
▁prevented
▁glut
▁concer
▁postoperatively
▁27,
heal
▁posttreatment
ollagen
▁clustered
▁promising
IgA
tract
stole
▁(42
arrhy
ropriate
▁contracep
▁quanti
methylation
antagonist
yroxine
accharide
▁EB
rehen
nutrition
cnemius
▁cyclosporin
▁polymorphism
▁20%,
▁otitis
▁amiloride
rine
▁grain
▁ile
chicine
omotor
▁infusion
▁resul
▁RT
tyl
▁uncom
▁laparo
▁enlargement
▁cytoch
▁eicos
tubulin
▁hemoglobin
▁0.12
▁Hg
▁SBP
▁ventricular
omes
▁hepatocyte
▁(+/-
▁blasts
▁TCR
olipid
ceptive
▁histidine
▁regulatory
▁rhodopsin
▁intram
▁UV
▁outgrowth
▁Indi
▁BU
butamol
irub
▁histamine
▁decisions
▁emerged
▁knee
▁spectro
mitters
hans
▁natri
ialysis
▁Sixty
▁clom
▁catalytic
▁(93
asting
▁encour
.6
▁tymp
▁autonomic
▁correc
▁discon
▁induc
rein
▁31,
triglycer
0.7
▁naloxone
coup
▁tritium
▁fourfold
▁hydration
▁fracture
ocomp
▁20.
siveness
▁NP
▁180
▁45
▁69%
▁anesthetics
▁Recep
▁(69
uctose
▁efficacious
▁demonstrates
▁manifestation
▁HCV
▁proximal
▁nascent
tration
▁phorbol
▁streptoc
▁fetal
9,
herence
▁cytosine
ganese
35
▁spp
ostomy
▁olfactory
tituted
▁TK
2'-
▁Combin
oxyl
ariate
▁couns
proteins
ofl
▁produc
▁(14
▁retrogradely
▁0.3
▁macrophages
oretically
4%
▁0.13
▁regulate
▁infusions
luent
physe
▁exogenously
acental
vaccin
▁rupture
▁emulsion
▁extremities
▁assis
▁relapsed
cys
▁pressures
atid
▁glial
▁163
▁ions
▁MAP
tro
▁benzodiazepine
▁yielding
▁allergens
▁responders
▁prostheses
▁neoplasia
pig
▁immunode
PSP
ecu
▁thrombocyt
▁physiologic
▁71
▁60-
▁hypothalamus
▁dysfunction
▁reactive
▁techniqu
yste
▁visualized
thym
PAP
robial
▁bladders
tochem
▁mug
▁ect
tub
PAGE
cholesterol
occus
▁33
▁potent
unting
alkyl
titu
▁0.44
▁reproducible
fibr
▁peroxidase
▁divergence
traumatic
IIIa
urane
▁hep
SAID
iron
▁diagnoses
▁HLA
▁polyc
antigen
▁chewing
▁10(-8)
ipolar
LV
tructural
▁anesthesia
▁digestibility
▁fatigue
ipine
▁146
▁Preliminary
ometri
tically
athe
kelet
ocap
lym
▁0.05
▁spor
Gal
hentic
oproliferative
flamm
▁decreased
▁DHEA
▁selective
lasses
▁symmetrical
▁postpartum
▁puncture
▁kerat
▁Treatment
▁Exposure
▁needle
▁recombin
▁immunized
▁transi
▁10.8
▁exposure
5,
othiaz
▁0.2%
▁adenylyl
5%,
▁neuropathy
▁avian
▁imaging
▁overweight
▁spleens
▁hypophys
▁aerobic
bodies
▁14-
echan
▁0.05),
ecretory
▁psoriatic
yron
▁serogroup
overed
▁neuron
tent
▁tandem
bacter
▁(40
tectomy
-20%
onyl
TPA
▁granular
▁glomeruli
▁seropositive
▁interference
renic
+)-
▁eating
▁exclusively
ensitization
▁Therapy
▁ventilation
▁unde
eight
▁glucocorticoids
atases
toc
▁insufficiency
▁170
▁sulph
▁congenital
antial
▁Willebrand
chlorothiazide
▁Likewise
▁histologically
▁toge
▁sepsis
tropin
▁augmented
▁struc
tiguous
▁renovascular
incub
▁subc
▁0.02
▁Eighteen
▁CCl
▁intensive
linking
▁intraepithelial
▁urokinase
plete
erence
▁bromide
▁retard
▁Patient
▁33%
▁perivascular
▁immortal
▁10,000
opulation
▁0.46
▁underestim
▁menopausal
▁anatomic
odopa
▁phosphor
▁hypoglycemic
▁stimuli
▁aeti
▁oleate
▁Progesterone
▁wheat
▁PPD
▁clu
vaccinated
▁osteoporosis
romedial
RBC
▁excitability
12
▁cystic
yrosine
vul
▁gases
NK
▁frontal
▁persistence
anoid
▁isoelectric
moking
▁genome
▁atrial
▁[1
▁electroph
rague
iary
▁GABAA
▁7.8
▁Diagnostic
labeled
▁cyan
magglutinin
administered
▁germinal
hydr
▁3.4
lec
▁depolarization
▁hyperpolar
▁circumferen
▁HIV
titis
▁extrap
▁agarose
▁collateral
▁pyrid
▁unex
▁enamel
▁serologically
emius
5]
aemia
▁Acad
▁moderate
▁neutralization
otherapy
▁MAO
▁spleen
▁monomeric
▁intercourse
▁RS
▁isozymes
▁glaucoma
operoxidase
▁sinus
▁prel
rox
▁hypot
▁1989
▁categorized
3),
▁implanted
▁osteoc
▁chambers
/18
▁phosphatidyle
▁100,000
pregnant
▁monolayers
▁adhesive
▁Assessment
adren
▁normals
▁RL
▁classify
▁FGF
▁noradrenaline
▁vasodilation
▁89%
▁monoamine
▁fibroblasts
▁differen
ellum
▁reper
▁.00
▁nervous
▁VH
▁pooled
ulent
▁granulocyte
▁placental
mentation
69
▁restoration
▁Monoclonal
▁tetra
▁Consequently
▁-3
▁meals
25,
▁LTD
▁tach
▁perikary
▁possesses
▁priming
▁hybridized
▁inducers
eradish
▁bloc
▁100-
8),
▁[14
▁aneup
▁reproduc
6)
▁Hind
arbonate
▁Measurement
▁umbilical
▁spiral
▁37
▁msec
oidal
▁sensitization
▁Surgical
indole
FSH
-13
▁pretreatment
41
gated
▁6)
▁Mycobacterium
▁extre
▁persisting
acet
▁anxio
1.1
contrast
▁Isolated
▁sulfhydryl
▁ciliary
▁FFA
PMN
▁trophob
orated
▁negatively
▁leukemic
▁29
▁predictive
oreceptors
kD
chest
ensitive
▁edema
cellulose
-22
▁vitamins
▁preven
oate
▁neurologic
apse
years
▁grafting
▁acetylcholine
▁cardiople
▁remod
▁complementation
BW
▁uteri
▁triggering
▁0.07
▁reflects
▁0.78
pinal
▁(1988)
▁ADR
sensitive
▁bonding
▁organisms
▁intras
▁leprosy
induced
▁clamping
▁-4
▁oes
▁distor
▁34%
▁reactions
▁1,25(
▁enkephalin
apamil
▁irrig
▁viscosity
▁(10.
(3)
ergy
Ts
allikrein
HCl
planchnic
▁attain
oderm
▁considerably
▁RV
phrine
tigmine
▁neuropath
atening
oposide
PAC
.10
ilol
.3%
▁statis
▁CB
▁tendon
▁tibial
dihyd
▁vasoconstrictor
▁femur
▁erythropoietin
▁ech
▁pump
▁bursts
▁beads
▁efferent
▁transplantation
▁(10(-7)
▁prostate
phenylalanine
tally
ughter
▁enzymatically
▁coupled
▁babies
ystic
▁correspondence
▁inactivation
▁xanthine
oratory
▁HCO
▁Protein
▁4).
▁vap
keletal
▁14,
▁lipoxygenase
▁56%
▁feeding
atation
▁characterize
▁kPa
▁sut
physiological
▁VL
▁compe
▁azathioprine
▁electrophoretic
▁carbachol
▁Michaelis
▁preoperative
▁coeruleus
▁arterio
▁62%
▁73
thirds
▁hemisp
▁bundles
endocrine
bran
▁fibrinolytic
ameth
▁vesicular
▁107
▁transcriptional
pendence
▁groove
▁refined
dotoxin
▁caloric
▁cartil
grams
tiary
▁gyn
▁inducible
▁comprises
▁GTP
oxan
oic
▁fractional
▁homogeneity
inemia
53
▁norepinephrine
▁neutrophils
▁pK
▁disadvan
▁ure
▁70-
▁deter
▁bacterial
▁constitutes
▁fitness
▁tablets
▁nodules
▁embryo
dependently
▁articular
-72
▁LN
▁6).
▁rhythmic
ovol
NGF
▁indication
▁heteroz
▁NIDDM
▁intraocular
▁alcoh
▁supplementation
▁wavelength
▁measles
OA
▁metastatic
▁identifiable
▁imbal
▁0.1
▁detects
vitamin
▁parotid
▁persisted
▁possessing
▁SG
.9
▁neonates
▁healing
▁vibr
▁morbidity
prandial
ocompatibility
econd
▁triglycerides
▁(43
▁digestive
▁mAb
▁illumin
▁spindle
kephal
▁microf
glucosidase
▁cultured
olated
▁acoustic
▁immunodef
▁sero
▁4.3
▁irr
▁encouraging
oflurane
inopril
▁GnRH
erule
▁allelic
▁Swed
▁toxic
▁Haem
▁demonstration
▁baro
▁relapses
▁structured
vian
alsy
▁Patients
▁(26
▁repeats
▁mild
▁duplication
▁discomfort
ifed
aning
▁medial
BP
▁modeled
otid
osynthe
▁2,4-
▁VT
▁Lipid
rested
perature
▁inhalation
amine
▁entero
59
FU
▁cerebro
phor
▁modulate
anide
▁manufac
▁endothelial
aminophen
trast
▁forebrain
▁elast
▁apop
▁contamination
▁twofold
▁35%
▁Acute
▁Histological
otype
ophosphate
MHC
▁ald
borne
▁lobes
▁sphingomyel
▁vascular
▁nerve
▁tauro
▁radiotherapy
hypertensive
▁failures
epine
▁Muscle
▁ATPase
▁permissive
▁hapl
iper
▁broth
▁glycerol
-19
▁NADH
oalveolar
▁hydrocarbon
hydroxy
atidyle
▁gestational
ophren
▁basement
▁WR
▁perfusion
71
kinetic
-7)
▁sodium
iotics
▁RU
▁cats
▁soluble
mRNA
▁heme
tur
▁57
ysm
▁162
▁evoked
▁kb
▁endoscop
lycero
.6%)
unced
▁intracor
inducible
onitis
▁epitope
▁presynaptic
▁bicuculline
▁thymocyte
▁inters
▁90-
▁PDE
-70
macrophage
▁ubiquitin
▁Oc
▁aberr
▁Intravenous
▁diseased
▁(-)-
tures
▁haemat
▁cysts
▁31
omycin
jac
▁hipp
▁20,000
▁lacto
romycin
▁histology
▁euth
▁REM
▁CBA
▁internalized
▁marginal
▁angiographic
▁uncommon
▁esophag
NMDA
tokinase
▁physician
▁prostatic
▁gp
▁differentiated
▁relaxant
▁0.95
gely
▁loos
▁HMG
▁Tg
▁bup
▁prognostic
(+)
▁segregation
▁fibrosis
▁starch
▁protease
ologists
▁1.00
▁bicycle
▁abnormalities
ocl
▁endo
▁lymphoblastoid
▁81%
▁91
▁blot
▁isotype
▁prospectively
▁inhibiting
stin
lining
▁toxin
▁thrombosis
▁preparations
iparous
psin
pyruvate
▁NG
ogenes
▁piglets
lusion
▁hematologic
▁construc
fed
▁Pt
▁Thir
:1
▁aortic
▁stimulating
▁Certain
▁4,
olam
▁mercury
▁fibrous
▁consistently
▁194
thymidine
mide
uterine
▁abolished
▁instability
▁faecal
▁valve
▁Tx
▁pulp
▁2,3-
clinical
trus
▁undere
▁adolescent
tir
organic
▁epithel
▁3.0
▁cytologic
▁IGF
phine
▁adenoma
icin
▁analogue
dle
aturated
▁duplic
▁contribut
▁HB
▁compositions
▁astro
▁8,
▁lectins
bly
▁Bec
▁isotope
ministration
▁Examination
▁HSV
oustic
▁relaxation
cture
▁hemorrhage
anesthetized
▁goats
ichloro
▁Sout
accharides
▁shif
▁kary
▁elastin
▁MAb
trin
▁compli
▁inflammatory
65
▁unexpectedly
▁papill
azole
▁dosing
mg
▁ascorb
▁51
stim
▁acetone
unctional
▁resected
▁grades
▁AH
▁dental
▁4000
adrenergic
ilibr
▁PTH
▁DP
▁14
saccharide
▁0.34
▁caudal
▁189
▁clonidine
▁158
tively
lycemia
odine
▁oligodend
▁bony
incubation
▁microsp
ishman
▁segmental
▁deposition
Dawley
▁proportions
▁grains
▁TS
patients
▁(0.8
▁lymphoblastic
▁abnormally
▁108
immuno
▁fertilization
mortal
▁gains
▁angiography
▁preval
ocyte
▁evaluable
▁outlined
sor
▁Extensive
ylated
educ
▁electromy
-200
rospor
phied
▁0.0
ochemistry
agic
▁44%
▁psor
bromo
▁(25
thyroid
▁zymosan
disciplinary
42
2]
plast
▁acyl
▁endpoints
-6)
▁quenching
▁predomin
▁proteolysis
aminase
5-
▁Sprague
▁HRP
▁chest
▁allergy
▁pep
Gs
uclear
icidal
▁distric
activating
93
▁40,000
violet
opyr
▁hepatoma
riamycin
▁Prospective
8+
+.
-40%
▁unsuccessful
▁128
azoline
▁dynorphin
TCR
▁mice
otroph
▁hig
▁Pregn
▁posttrans
▁typhimurium
▁shrin
▁(2-
▁Depression
▁11-
omatosis
tants
▁hemolytic
phyloc
▁multic
7%)
▁postural
▁clinics
▁SLE
▁injec
▁EPO
▁narrowing
▁purity
▁contraceptives
▁Beta
aminoglyc
▁vancomycin
▁hydrochloride
▁climb
▁cuff
▁subun
▁tracheal
yridamole
filament
▁hemorrhagic
▁acros
-1)
▁thoracic
▁2.
▁SKF
▁adenocarcinomas
▁exud
▁heal
uantitative
▁54%
entanyl
▁villus
▁reinforce
▁139
▁gonadal
ller
▁FV
▁chicks
rometry
▁flora
cAMP
▁dairy
▁verapamil
▁17,
▁quin
vant
▁199
rae
▁disrup
▁epidural
▁regurg
▁canc
imination
▁replic
▁55%
▁correlates
phasic
3;
▁rigid
▁limb
acin
inyl
▁chicken
▁cytokines
▁endarterectomy
▁synthetic
▁carbam
▁polypeptide
▁arises
ASA
ducing
▁Subjects
azepine
▁Aden
▁utilizing
▁hypertensives
▁157
GH
▁mim
92
▁histone
▁rises
86
▁infiltrate
tec
loon
▁resum
▁conjugate
▁dyspnea
▁adenosine
triphosphate
roat
▁hind
aturia
WL
▁encephal
elic
ilic
▁AO
synaptic
igaret
▁organs
▁ovulation
1.
aceous
lue
atchard
▁degradation
▁transforming
▁lipid
▁cholecystokinin
▁1500
▁simultaneous
▁alveolar
9.
▁FSH
▁perception
2,
▁0.1%
▁ingestion
oxif
xyl
▁(1987)
▁hazard
▁lysine
tryptamine
▁OKT
▁impulse
▁endoscopic
▁0.65
oleucine
▁silic
▁jejunal
▁termini
mortem
imodipine
antibody
hydration
rief
▁Kupffer
trig
▁complexed
otre
▁habits
▁feces
▁infarction
▁7.
▁integrin
▁DBP
▁BK
▁CNS
ionyl
▁trunk
Hg
▁potentiation
▁3',5'-
apeptide
▁EDRF
▁Trp
▁SCLC
ACh
▁oscillations
▁0.5
▁FMLP
ylchol
chlo
▁albumin
reatine
nucle
▁3,
▁Epstein
▁adults
▁cris
vascular
▁limbic
▁amelior
lox
▁unselected
▁forsk
▁prosthetic
▁owing
/10
▁0.28
▁1).
▁retention
▁reagent
irradiated
tency
orts
▁antagonists
crist
▁microgra
limb
▁undergone
tative
imentation
▁ammonium
habil
▁compromise
▁(95
125
roin
▁stimulus
primed
▁airways
▁0.25
▁goat
ycin
')2
▁deficiency
▁kD
osyltransferase
▁tetrap
▁plexus
▁0.60
▁catecholamines
▁12,
▁strikingly
▁difficul
▁94%
▁sheath
▁endometr
▁probe
ductase
glucosamine
▁(3)
eruleus
▁currents
▁oligosaccharide
-3,
▁0.03
▁gelatin
vular
▁monocytes
▁subtype
▁conserved
▁imipramine
adrenaline
▁0.90
▁frac
▁coincident
▁Evidence
▁retinol
▁cytometric
▁hyperplastic
▁internalization
▁glandular
atization
▁recordings
twitch
▁autop
21
▁questioned
toph
▁quantitate
▁250
induc
▁symp
sities
Lys
▁Transi
▁junctional
▁Oral
▁infected
▁exis
▁awa
driven
▁glycos
naph
▁GA
▁demonstrating
resistance
-50
hydroxyp
▁cage
▁tetanus
physiologic
▁MgCl
iciencies
▁pHi
▁arachid
▁retinopathy
▁BSA
phosphamide
▁Hep
▁optic
etent
▁spati
ochem
▁erythema
▁BW
▁EcoRI
▁palpable
▁exaggerated
neu
▁IMP
ploy
▁facial
▁punct
▁hybrid
glucuronidase
▁irrigation
▁amplitudes
:3
▁dobutamine
▁excluding
ocyst
▁cyt
▁nonin
▁solub
▁birthweight
▁tetrodotoxin
▁Together
▁10.7
▁physiologically
▁succin
▁immunological
▁projections
▁unil
olved
obacter
▁incremental
▁exceeding
▁complaints
othel
▁26
▁agglutinin
▁likelihood
pA
olymer
▁transaminase
▁justif
▁kinetics
▁jejun
paired
avirus
alciparum
▁MgATP
▁insoluble
plasia
▁juice
▁predominant
albuminuria
ordant
uppression
▁concanavalin
▁Ia
▁intrauterine
▁65
▁aspartate
▁116
itance
dopa
atoid
optic
ochle
plas
imurium
▁arthritis
▁1/2
▁thallium
hyp
-5,
▁irreversible
totic
▁microcirc
▁Immunobl
▁20%
▁ectopic
▁facilitation
lude
▁(44
imetry
▁bowel
▁athletes
formations
▁GM
▁panc
▁maximally
▁hybrids
▁infective
▁polyaden
tetr
aventricular
▁helic
2,000
WK
.8
▁thromboxane
▁bacteriophage
eptid
▁spectrophot
▁follicles
▁isolation
ensitivity
▁tiss
▁atyp
▁BP
▁absorbance
-1+
oside
osarcoma
▁anticoagulant
▁123
gthen
ocardial
▁pancre
-2.
▁dias
▁exhaustion
▁electrostatic
entile
graft
▁protective
▁lep
▁nicotine
▁analys
ropyl
usal
▁proteolytic
▁1,25-
▁incom
▁152
resid
hydroxylation
▁cystein
▁concentrations
▁providers
▁pulsed
▁Cardi
anine
▁arous
▁threonine
▁0.01)
▁hyperglycemia
atories
butyrate
▁ducts
-4,
1210
MG
▁1987,
ortical
ergen
plications
ysts
▁larvae
butyl
ticle
▁30%,
▁agonists
▁positional
▁dilated
osan
salt
onography
58
osylated
▁flexor
▁fibroblast
enh
▁circumference
▁cerebellum
▁catecholamine
▁hepatocytes
▁estrogen
▁(23
▁anat
▁deficits
heric
▁EMG
neoplastic
▁horiz
▁paroxys
hydryl
▁morphological
▁lob
▁examining
tectable
▁sugges
23187
▁truncated
sess
tivities
▁13
▁Eight
▁asthmatic
▁Meas
▁transepithelial
▁cohorts
▁enlarged
rowth
▁WK
▁VP
▁employment
▁subcutaneously
▁oleic
▁nephrotoxicity
imeth
translational
▁tau
▁exhibited
irds
▁apoE
▁autosomal
▁projec
▁codon
▁deferen
sions
▁enzym
▁ventil
▁sple
▁(12
▁pore
otypes
▁drugs
fiber
▁14.5
▁electrochemical
▁hospitals
▁throm
▁elu
▁sequelae
▁13%
38
▁chel
ortal
▁sigma
▁compensatory
▁cotransport
letion
▁cardiovascular
▁Purkinje
▁eosinophils
otherapeutic
▁abilities
▁polymers
▁germin
▁thal
tole
▁ligation
uplex
teroid
▁elastic
tate
▁hydrophilic
▁anae
▁(199
▁deoxyrib
▁presumably
+-
▁parturition
tin
oscopy
▁efficacy
▁0.36
fate
icide
▁polarization
stro
▁Increased
athiop
astolic
▁ESR
optimal
▁prol
oplasma
▁8.9
81
▁4.8
▁derange
▁HP
▁afferent
▁mosa
▁dialysate
aptic
▁GABAergic
▁alumin
▁10(-10)
▁61
untary
▁36
▁CaM
▁fatty
oxetine
ogenesis
enhanced
▁Arterial
romethyl
▁neuropeptides
4,
▁Symptom
▁ocular
onin
encephalic
▁immunod
▁chlor
▁GAP
rowing
FN
▁intoxication
▁0.2
▁22
normally
onium
▁epithelia
▁archite
allium
▁overestim
▁Grade
▁Chlamydia
▁mutant
83
▁lacks
initi
myr
▁30,
▁pneumoniae
▁detecting
uresis
▁Ultras
▁excision
▁Increasing
▁circulation
▁blocker
▁simplex
▁influenz
▁confluent
▁demyel
arachnoid
▁Subjec
▁1:1
pyr
▁peptide
▁cryp
▁catheters
▁nephrectomy
▁GSH
olarization
roitin
▁57%
tensive
▁menstrual
▁rigorous
▁pressor
▁5%
▁vasoconstric
▁65%
▁(+)-
▁Phy
▁Fifty
▁syngeneic
lyc
glucuron
actam
mental
▁tetan
acyclin
PAT
▁antiarrhythmic
▁cough
osclerosis
umetanide
▁urinary
▁randomized
▁Adverse
▁jaw
.5%)
derly
▁employing
▁ouabain
albumin
-125
▁genomes
▁205
▁exert
adap
▁strep
synthe
▁arteriolar
▁exons
▁hams
▁2),
trol
uretic
ulline
▁prostacyclin
terin
inating
icine
▁incid
▁varicella
▁preventing
▁gag
▁Comparison
▁haem
▁therapy
aturity
benzo
anthine
▁refractory
thal
▁3%
tetrahydro
▁basal
▁differentiation
▁hepatectomy
▁senes
lysis
▁keratin
plemented
▁placebo
▁trends
▁188
▁(5
ceived
▁sati
▁deviations
▁myelinated
▁myelin
▁morphine
▁preterm
▁Phase
▁neonatal
rophy
▁LTB
incubated
▁crystal
▁thir
▁underg
▁haemodynamic
▁origins
.2%
▁neon
▁inversion
▁rele
▁(50
▁progenitor
▁vivo
eak
▁Tiss
▁dissociation
9).
feren
▁therapeu
6;
▁exclusion
▁0.9%
▁cros
helium
▁calves
▁Determin
▁slowed
(1,
notic
▁raphe
▁requi
▁anesthe
▁oestrogen
oxal
▁carb
▁Immunohist
mitted
▁uric
-4
▁hypox
▁midazolam
▁glutamic
iptine
▁glycoproteins
▁crest
▁dermis
▁persistently
▁mutagen
rinone
tinguish
▁gum
▁activated
rays
positive
▁behaviors
▁descriptions
5),
▁xen
▁synthesis
▁mosquit
operidol
▁shortening
▁(500
▁doctors
▁sharply
establ
▁cran
▁sham
yx
▁11.
▁sacc
creatinine
▁repolarization
▁cytochrome
▁thrombin
▁minimize
▁ascertain
▁synapt
otassium
▁stren
glutamate
▁immunoglobulins
▁tox
imetic
96
idic
▁parenteral
▁tumorigenic
▁Electro
ureus
▁(6
▁anomalies
▁screened
▁regulator
▁4-
3%)
▁erythrocyte
▁remodeling
enal
▁2%
▁foods
▁moieties
acycl
▁synthase
loidy
▁TD
▁spermidine
tak
▁backbone
▁aggressive
tetradecanoyl
▁14.
▁synergistic
▁gluc
▁labelling
phosphorylated
▁autoreg
▁overt
▁ewes
▁locus
pread
inositol
tries
▁valvular
▁10(-6)
▁4.
▁regen
roso
▁PP
▁healed
▁inhibits
averine
▁triglyceride
▁isot
▁Cells
▁weighed
▁accessory
▁chondroitin
▁cones
▁connec
▁pregnancies
▁defects
▁126
▁splanchnic
▁intral
▁isoenzymes
5%),
▁14%
▁distinguishing
▁pellets
▁subfractions
▁impair
uronal
organisms
▁1),
▁fura
sy
▁baroreceptor
osine
orh
▁controversial
nec
▁clearance
▁LC
▁induces
▁bactericidal
▁striatum
▁ascribed
▁rodent
▁discontinued
kilobase
▁descending
yrene
▁polyamine
▁EIA
▁responsive
▁rotational
▁18
▁1-4
▁packed
vated
▁appropriately
▁isomer
▁multicenter
▁centers
4,5-
imolar
▁expec
▁Chemical
▁antagonism
▁initiated
▁antidepress
rotoxin
ograft
▁transients
▁Enzyme
ept
opyran
▁(21
▁scaven
RIF
ece
▁spectrin
▁emerg
▁complication
▁outflow
20
▁hydrop
▁inverted
▁disappearance
▁1988
▁(75%)
Nase
▁erythroid
urons
▁interacts
▁Differen
▁Diagn
▁2'-
▁(0.0
yelinated
chymal
▁ADA
-16
▁metabolized
▁proteinase
▁emphasis
▁twitch
▁vitre
▁contraction
▁Statistical
▁explored
▁identi
▁.0
▁competitive
▁inhibition
arose
▁fertile
sodium
▁hydroxyproline
ubertal
▁nucleotide
▁procollagen
▁alkaline
▁mineral
▁drin
▁5
▁calcium
athyroid
luding
.0,
exis
▁subdivided
▁Reduc
rosis
▁prone
▁Growth
▁lifest
-1000
ocardi
CCK
ucine
▁reductions
▁topically
▁confers
▁Intracellular
anad
▁Throm
reducing
▁incub
▁peroxide
▁InsP
▁staging
▁NAD
phosphor
▁restenosis
▁extracorporeal
ventional
▁underwent
▁contracted
opeptides
▁unres
▁anemia
0,000
truc
▁agglutination
olamine
▁hazards
▁tolerant
otri
ilateral
▁neuroendocrine
▁antinoc
rological
▁progressed
2+/
▁predictor
▁immunologic
▁Antibodies
▁Relative
▁improving
▁crude
oblastoid
▁epilepsy
▁endemic
ucle
▁triflu
▁vertebrates
▁stoichi
▁nonlinear
▁serological
▁controver
▁cyto
▁12
PEG
▁sterol
odermal
▁BCG
tus
▁emergency
▁supplements
▁(19
▁sequentially
▁ammon
▁ammonia
nithine
▁anastom
▁phenotypic
▁49
▁DNase
▁.001)
▁dobut
▁kcal
▁0.02),
▁mutagenesis
▁corpus
▁residual
▁12.5
▁epicardial
▁duodenal
thyl
▁2.4
▁epinephrine
unctiv
responding
▁prevail
▁extrac
▁oedema
surface
▁accidents
operatively
0,
▁seasonal
lytic
▁transluminal
▁Continu
0)
▁ana
▁inducer
▁rostr
▁IGFBP
gans
▁respiratory
▁cranial
onit
▁Dise
▁withdrawn
oconjug
antibodies
▁lymphatic
genic
▁NGF
▁dissolved
residue
▁progenitors
▁CDDP
▁sterile
▁0.29
ubular
microglobulin
▁ether
ropine
▁[3
▁mitral
▁encomp
istal
▁0.05).
▁endocrine
▁syndromes
ocusing
▁aorta
▁inbred
▁ketamine
▁0.06
▁reporter
ithin
▁necrotic
▁pontine
odend
▁serially
▁fulmin
▁drops
lys
iesis
▁behavioural
▁lateral
▁1,000
▁chemotaxis
thromb
▁vagal
tailed
▁teratogenic
osoma
▁horm
siology
acute
▁creatinine
▁vesicle
▁Intr
▁recirc
sisted
gland
resis
▁decline
▁submandibular
licular
▁TC
thmatic
▁acetyl
▁photoperiod
ithi
▁lymphokine
▁rabbits
▁progeny
iotic
▁benzene
▁5.0
▁chromosome
▁cervix
ietin
▁sinusoidal
spective
▁transplants
▁somatic
▁acceptor
conjug
56
indings
GFR
andard
▁cerebrovascular
▁cocaine
helial
▁endometrium
▁PaCO
rostagland
ducts
▁diets
▁perfusate
▁isotonic
▁logistic
trients
▁cooper
▁vacu
▁CTL
▁neuropil
▁epidemiological
adrenoceptors
itriptyline
▁dams
▁PRA
▁computerized
▁mesenteric
otent
benz
▁pneumonia
▁scanning
omorphine
.1,
▁weighted
onset
▁trimester
▁tachycardia
oglobulin
▁regulation
tinguishable
▁immunoreactive
▁topo
▁haplotype
▁microbi
▁gingival
▁castrated
▁varies
▁zym
▁10(8)
▁rhe
▁42%
▁Kd
▁cortic
exc
▁Rb
acted
▁inferred
▁parity
adder
attern
▁CHO
▁medication
▁MG
▁mL
atching
▁dosages
▁histological
▁isch
▁fibrils
▁insignificant
▁0.55
▁lipase
▁barium
▁normotensive
▁wake
▁paral
onazole
enyl
▁quinidine
▁athe
3,000
3)
ithine
▁spots
.9%)
▁Inde
4).
▁inotropic
▁POMC
omiting
▁electrolytes
▁impedance
▁diet
ineal
▁headache
▁embry
ondr
▁macrophage
hydrox
cg
resistant
▁0.05)
▁virtu
▁MF
▁practitioners
▁disposal
rogra
IgM
▁fentanyl
▁5000
urnal
ongue
▁1,25
osamine
▁catab
epi
produc
▁mV
▁proliferate
rolog
HETE
arly
deprived
▁1000
▁inoc
▁decarbox
▁biom
▁platelet
▁solubilized
metabol
▁bladder
endothelial
isolated
▁indis
tene
▁Plasma
tocopherol
ytoin
▁aspec
▁methadone
▁objec
28
▁anxiolytic
acrylamide
▁putative
▁Morph
▁methylation
▁stably
▁tryp
fractions
23
▁excitatory
▁20-
▁thyroid
▁cooling
opamine
▁Fraction
▁clinically
▁mutation
▁cholec
HV
tructed
inhibition
▁vesic
▁0.47
▁selec
▁sour
▁intub
fluorouracil
potassium
▁qualit
▁mM
▁unid
differentiated
sibility
▁validated
acetic
otoxic
monophosphate
▁prednis
cotic
iodarone
▁bonds
sion
▁medically
▁intrav
▁monthly
▁nights
▁(46
▁centr
▁pathologic
▁covalently
▁PSA
▁promin
osylation
▁invariably
▁fluorescent
orable
▁quoti
2+-
diabetic
▁chemot
anav
▁240
▁27
ositi
ubiqu
▁carriers
SEM
▁traumatic
ereb
▁carboxylase
▁curative
▁phosph
▁duoden
▁29,
ugular
▁recombinants
▁incontinence
▁carrier
▁repression
▁inhib
▁mandatory
osus
▁mandi
▁labile
▁skeleton
▁eradication
4,000
ulae
kinesia
▁monkey
▁fossa
ecan
quinone
▁resembles
▁theoretically
DTPA
▁40%,
▁parietal
-1.
olysis
▁mood
ologically
▁estrogens
▁vulg
▁congen
tocin
▁constriction
alp
▁insensitive
tenosis
▁isomers
▁increments
▁Estim
▁illumination
▁causative
▁obesity
▁abnormality
▁laser
▁accid
▁BMT
▁fungal
▁genesis
▁0.0001),
▁conges
▁40
,000
▁throat
▁inhibited
ostr
anoids
▁accelerated
▁sequel
▁0.0001).
▁cation
▁2.8
▁344
▁(50%
nitrophenyl
▁necrosis
ulph
17
aminop
▁remn
omical
60
▁complic
▁3.1
▁neuronal
▁dehydro
▁periodontal
peak
▁0
▁insufficient
▁circadian
▁perikarya
▁micrograms
▁osteoarthritis
▁DD
▁6-
▁feline
▁tumor
MN
tensives
▁surgery
▁threefold
oretic
▁sorb
▁relevance
▁173
▁microU
▁ventricle
▁17-
▁abortion
▁exag
istribution
▁uv
▁rIFN
▁inherent
idase
▁subtilis
RF
▁intestine
▁affinity
welling
amn
▁mitochondr
▁-6
▁HBV
▁septal
▁Conversely
▁ascorbic
▁elevation
sistent
▁meal
AIDS
▁migrate
dT
▁IIb
▁microorganisms
▁nutrition
esophageal
▁surgically
▁carbonate
▁fulfilled
eryth
▁1.5
▁parap
▁undergoing
▁efficac
oprec
▁fimbr
▁1983
-8
▁dissected
▁evidenced
istically
▁examinations
▁7)
3).
▁(1
ficial
▁persists
.4
▁remo
ulose
peptide
▁chloroquine
▁irrever
▁tertiary
▁(45
yto
▁tablet
.00
▁onset
▁attemp
rofen
▁divalent
▁menopause
▁belie
▁reabsorption
▁cotrans
respective
▁phenyl
▁opiate
yrib
▁cG
▁provoked
▁diges
▁6.6
▁traum
▁0%
▁metabolism
-2)
▁preceded
CFU
▁treating
▁vag
▁nitric
▁nutritional
aminidase
:2
▁ternary
CAP
▁lytic
orepinephrine
▁interleukin
ELISA
▁tubule
▁localized
▁bronchial
hydroxyphenyl
▁CoA
puts
▁declines
▁oxidant
uvant
▁scre
▁perfor
amphetamine
▁750
romised
aund
▁epilep
▁reconstitution
▁hap
▁illus
uble
▁preexisting
▁visualization
omeric
▁oxytocin
▁Simultaneous
▁peritonitis
▁0.001,
▁pacing
agittal
umptions
▁noxious
▁aeruginosa
▁originating
phosphatase
planted
▁pharmacy
▁concurrently
▁projected
▁coincided
rozen
▁PGI
urther
▁transmitter
▁effluent
▁elderly
average
▁levodopa
phosphorylation
▁responder
Pt
▁bone
ashing
▁3)
▁dermal
▁0.005)
▁oste
▁90
.7%)
carbon
▁thickening
▁mU
▁questionnaire
▁hypoxanthine
▁dysplasia
▁hospitalized
tilled
▁ND
NH
ovine
▁CPR
▁endocarditis
EPO
▁16
-5
▁11.5
▁CFU
tural
yclo
atids
▁strom
▁gradients
▁calibr
teric
sulf
▁myc
▁EI
▁10(7)
▁reciprocal
▁CaCl
converting
.5,
200
▁Laboratory
tussis
▁antic
▁secretion
rever
▁(1989)
ration
aternal
▁galanin
▁humoral
▁peptides
▁sperm
▁18-
udine
▁6,
omonas
▁(41
▁(17
11,
▁declined
helical
▁seizures
▁taurine
▁trabecular
▁sedation
▁reveal
siologic
TNF
▁larval
▁PCA
exposure
▁stains
gth
▁94
▁limiting
toxic
hap
▁PaO
eprazole
▁reacts
▁leukemias
▁sca
▁increasingly
▁pulsatile
ofol
▁perinatal
▁regar
cemic
▁rt
▁Twenty
14
▁coex
▁drain
▁macroscopic
▁31%
▁discharged
lycemic
titude
▁chronotropic
ammonium
astatin
8%)
▁favored
▁shunt
▁undergoes
77
▁5-
atonin
▁9.9
▁ejection
rophenyl
orphin
4]
▁pathway
▁chromosomes
▁manipulation
▁surfactant
EPs
▁antibodies
cyst
stress
atest
▁ozone
▁facilitate
ameter
▁adenovirus
glycoprotein
▁recruit
▁dissec
(1,4,5)
▁illness
▁recipients
oxamine
▁elab
▁antibiotics
▁maternal
▁offspring
DV
anuary
▁adriamycin
▁hapten
grees
▁unc
llate
▁conflicting
▁sphincter
ecyl
▁mimicked
obutyl
adone
▁Brain
illance
gestin
orporeal
▁severity
▁analyses
▁fluoride
fron
▁diabetic
▁nuclease
▁negligible
▁0.75
▁86
ults
▁syndrome
▁hospitalization
▁esophageal
▁hematoma
▁fever
▁Thirteen
▁(84
▁schem
▁apoprotein
▁25%
assi
▁pituitary
▁cholest
uridine
▁arachidonate
▁PG
▁Saccharomyces
▁19-
▁concomitant
▁metall
▁acad
▁synaptic
▁laboratories
▁0.11
achid
othione
▁ionized
▁splenomegaly
▁paradig
▁cigarette
▁cardiopulmonary
▁Repe
▁electrophoresis
▁frog
▁bulb
atinine
▁elective
ronchial
▁avoiding
▁metastases
▁chori
▁saturated
▁streptokinase
▁CAPD
glut
▁acin
▁precipit
▁sucralfate
▁splice
▁Hyd
tinu
▁favorably
unar
▁steadily
duc
▁acetaminophen
▁originate
7;
▁lamb
eclamp
RNA
▁thiol
▁galact
ammon
oneph
▁corticotropin
ucas
armac
/3
▁achievement
▁plex
kelihood
▁mEq
serine
▁aggregation
heum
▁aromatase
▁66%
▁ICP
▁PEG
▁ultrastructural
tinent
bearing
▁105
anserin
▁acidic
atoxin
approximately
▁1989,
▁GLUT
ospinal
▁Optimal
▁dichro
natally
▁bypass
▁heterodim
▁1.25
dies
omers
▁modulated
▁DHT
olase
▁swelling
-(2-
▁thymidine
▁Engl
▁targeting
▁ventilator
▁immunoblot
▁depress
▁pate
▁upstream
▁solitary
▁Bmax
asal
antagon
estrogen
▁schizophren
▁lactose
▁eminence
▁ingu
▁thigh
▁deoxy
▁VO
▁assessing
atitis
▁basophils
100
▁ulceration
keratin
▁19,
▁initiate
▁renal
▁penicillin
reactivity
▁Subsequent
imetidine
▁practition
▁Basal
othal
0.8
▁congestion
▁32
pressing
▁fluctu
▁immunotherapy
▁midline
▁myoglobin
▁PLC
▁tracers
SHR
tional
▁hydroly
▁relating
portion
▁stric
lyb
▁sph
▁OC
▁androgens
▁submuc
altered
elec
▁hemag
▁sti
▁follicle
PGF
▁intracranial
▁53%
▁2,
▁heterozygous
▁labeling
▁hypothesized
turing
▁focal
▁jaundice
ulants
▁compete
▁cultures
GI
▁capsules
▁cytokine
▁validity
▁operative
PHA
▁Unlike
▁PI
▁pige
0.
ochrome
▁5.
▁demonstrable
▁amn
▁scin
▁kallikrein
▁nitro
omegalovirus
opoiesis
imidine
▁Functional
▁deterior
▁ey
ocytic
odal
retin
immunized
▁lacked
.8%)
▁liposomes
▁pulmon
▁magnocellular
affin
▁intrad
glucose
▁substrates
▁antioxid
▁68
erebral
▁arterial
▁stent
▁ae
62
▁insemin
▁Recombinant
tillation
cholate
▁subpopulation
BSA
galy
▁acyclovir
▁anore
▁Sepharose
▁relaxations
▁60,
trypsin
▁nephro
ystokinin
obarbital
-2).
terone
▁bip
CSF
▁regulated
▁(0.1
▁hepatic
▁natriuretic
isomerase
ropathy
▁100%.
ensi
vix
▁Tumor
adequ
iably
▁deox
▁myel
otone
romy
▁electrically
▁nitrous
▁ulc
itrate
tious
▁atherosclerotic
▁90%
ipramine
▁recruitment
▁pneum
▁spray
▁paroxysmal
epithelial
tidine
uncture
▁53
▁1986
▁Thy
▁drinking
▁fulf
ranolol
▁Inte
▁NI
▁microtubules
▁hippocampal
▁UDP
64
-10)
measured
▁Cul
determined
iteal
▁purification
epid
tensity
occal
▁caffeine
▁esterase
▁fractures
metic
▁mimic
▁0.001
▁isop
▁competence
portant
▁chromatographic
▁cesarean
▁femoral
RB
▁KD
lactam
carbox
functional
▁crosso
▁effusion
▁practitioner
▁(27
▁extracellular
kinje
▁900
▁interne
▁unexplained
omatic
▁chor
▁heterogeneity
▁0.38
▁constituents
▁incorporation
intestinal
▁cortex
acr
▁androstenedione
▁spermatozo
▁ambulatory
virus
▁chond
umulative
▁reductase
alues
▁propionate
▁docum
▁guanine
▁repetitive
ffeine
2/
▁retin
▁resembled
▁staphyloc
▁Risk
▁laminae
▁respondents
▁Respiratory
perme
▁pell
▁dioxide
▁obtaining
adrenal
alcip
▁mesang
▁pollen
▁subjective
▁trach
▁effectiveness
▁effec
▁7%
▁infec
▁emphyse
dose
▁intraperitoneal
▁preoperatively
Ls
▁purine
▁vein
▁viable
ischemic
tents
▁mitomycin
▁fibrinogen
▁antitumor
▁(0.9
tisone
▁NIH
▁defibr
▁1)
7)
oes
▁hyperactivity
▁glucosamine
▁CK
▁Candida
▁anticoagulation
▁titer
▁depression
▁orific
6),
▁antenatal
▁pigment
▁heifers
eptide
▁chromatin
▁9,
▁[2
▁pathogen
utyric
odic
▁cadaver
▁39
▁transplant
▁TCA
▁sclero
▁envelope
▁neoplasms
▁ICAM
▁1981
-75
▁haloperidol
▁19
▁cysteine
GD
▁cGy
Phe
utyr
issive
▁48%
▁papillary
▁postulated
▁thrombo
▁glomerul
oids
▁PD
▁cytos
▁accep
teroids
▁indirectly
performance
▁locomotion
▁aspir
thms
▁triti
ardiac
nai
▁granulosa
▁capillary
▁perforation
assays
▁collec
▁exceeded
leukin
atrial
▁atri
ovirus
▁91%
casein
▁mitogenic
▁superoxide
▁emin
▁prednisolone
▁ischem
▁Inhib
oea
▁lowering
▁maturity
▁gallbladder
▁7,
phage
rectomy
protein
▁regeneration
▁Tc
▁membran
▁gastric
erance
ications
▁instr
acetyl
reasing
yramine
▁brom
bac
▁immunoglobulin
RNP
▁immersion
oluble
opoietic
▁suspended
vitro
▁interventions
Pen
lactate
▁IgG
▁Oste
▁physically
▁ate
▁chl
restric
▁arising
▁106
▁Prol
3%
ercise
▁benz
▁gly
▁0.23
8,
tochemistry
▁radiographs
otides
▁71%
ylcholine
▁infused
▁elongation
▁determining
▁spon
▁DMSO
imol
▁dialys
▁multin
▁(20
▁antagonistic
▁adherence
▁calor
▁neutroph
▁relap
▁sampled
orphine
▁skull
▁colitis
▁corresponded
▁tetrac
▁repor
sAg
schem
▁rifamp
▁adap
(2-
▁stationary
▁uridine
▁abruptly
▁anaesthetized
▁Myc
▁2.5-
▁permits
▁meiotic
lymphocyte
▁rash
▁pig
itoring
▁Mn
ardia
-80
.7
ulitis
ofluores
▁centrally
▁hypogonad
mediated
▁homogenates
▁challenged
▁susceptibility
▁synchronous
▁MAbs
rates
▁malaria
▁fibres
▁sequenced
AH
▁inhibitors
1,
▁15%
▁5.5
▁formulations
ungal
▁chronically
▁exploration
▁respon
carotene
entric
▁staining
▁protamine
▁semiqu
▁mammalian
▁occasional
▁poin
tumor
▁delays
▁detergents
▁ribosomal
tance
▁stratif
▁immunos
▁52%
▁afterload
0%.
▁whereby
▁discriminant
▁benzo
▁9.0
▁67%
▁phospholipase
▁rota
cytes
▁afferents
▁branching
amid
▁WBC
ophil
iloride
▁physiology
▁thyrotropin
▁EGTA
▁sulf
▁10(-3)
▁adequ
▁dissolution
▁Eleven
pulse
spectively
ilized
▁vigorous
▁(10(
▁eryth
amuscular
udin
androsterone
▁1.8
▁buspirone
▁amiodarone
ioma
▁Evid
▁reservoir
/7
otting
EGF
glutin
▁biosynthetic
-201
posal
enic
enolpyruvate
ochondrial
opres
▁polycystic
amous
▁collaterals
▁cycloheximide
termined
▁RSV
angiotensin
sive
▁antid
asions
▁mitogen
omyosin
▁globular
▁metabol
▁septic
▁200
▁dye
▁establ
▁implic
ydig
ocks
▁ANG
▁ADH
▁utilize
▁metastasis
rologic
itin
▁tubes
▁dentin
▁fmol
▁paraffin
thio
▁tetracycline
▁serum
pyrene
▁thyroglobulin
▁relie
▁hypo
▁spectroscopy
▁tumours
terolog
▁counseling
▁obese
▁leukocytes
ocytochemistry
▁choles
▁multiv
▁reentr
▁avid
▁Increases
actin
▁nodule
▁volunteer
ograms
▁analogous
▁nondiabetic
▁confirming
▁HL
cutaneous
opic
▁iodine
▁nausea
▁apoB
▁freezing
▁latex
ectomized
▁hemorrh
nourished
▁previ
ypical
▁jugular
sepithelial
▁incidence
rosemide
▁granulocytes
▁11.0
activated
blocker
▁crystall
18,
▁adjustment
ophys
galact
▁stret
uron
▁vaccines
▁methodology
5,000
▁kDa
▁granules
▁6.8
89
romyces
▁3.5
LDL
▁incubated
unsaturated
iferous
▁mitochondrial
▁seas
tempor
hion
echanical
▁degraded
▁VLDL
▁Significant
▁histi
▁eradic
psych
birth
▁confound
substituted
globulin
▁8.5
▁96%
lycerol
derived
▁immunoprec
▁killer
openia
▁ibuprofen
▁psychomotor
▁adminis
▁mitotic
▁scinti
isite
▁lumb
▁Highly
▁qualitatively
unctions
▁alloster
ritin
▁75
▁6%
▁Tn
aluation
▁reversibly
ventil
▁bic
▁hyperther
okine
kade
▁muM
▁slopes
▁circulating
BT
amido
ospasm
arcoma
▁atten
▁insertions
▁decayed
rease
amus
SOD
▁bilateral
500
▁inhibin
viral
▁testis
▁mucos
iplinary
▁ductus
▁recurred
inol
▁intrap
tiv
phic
▁Vitamin
▁lungs
▁brush
▁SCC
odular
▁spontaneously
▁oxide
▁silica
▁CAT
▁esophagus
clusive
ofil
eminal
▁disrupted
▁contour
▁diagnosed
weed
opeptide
▁polymerase
▁lamina
ANP
▁haemorrhage
▁isoproterenol
▁elimination
▁noc
▁Histologic
▁intermittent
▁tol
▁50-
hetamine
▁inadequate
▁accounting
electron
▁1-3
▁lipolysis
▁hypotonic
▁lipoproteins
▁expresses
8.
▁recr
▁neurite
cepti
lastic
ostatin
▁5.4
tilis
▁thrombus
▁enzymes
▁periphery
glycerol
▁virion
▁nurses
▁blotting
▁insertion
mediately
▁hypotensive
▁retarded
ogenicity
tant
▁carboxy
▁noradrenergic
uric
producing
▁(16%)
ploid
▁displ
▁Retro
lux
ystag
▁originated
▁tendency
ediatric
▁urea
▁171
▁regis
▁Diabetes
diagn
▁reperfusion
dii
▁0.02)
▁colony
▁antis
hydrop
▁400
phosph
uin
▁muc
▁5.2
tized
Ala
▁donors
oxim
▁wedge
▁interacted
iflu
▁junctions
rought
▁accompanying
CHO
▁sphing
▁10-
▁onc
tabl
▁primers
▁stiff
▁specimens
ithm
ovulatory
idne
enicill
▁disulfide
▁adip
▁neuroblastoma
iol
▁leuk
crip
▁displaced
▁-0.
asic
▁depolarizations
reflex
▁shor
▁7.2
▁arachidonic
▁6
olec
▁.01)
ysin
▁pI
▁salbutamol
▁23%
▁transc
▁introns
▁stratification
▁Seventy
▁plantar
▁Tes
▁TG
▁abrup
▁plac
▁fertil
▁Concomitant
▁sorbitol
/100
▁systolic
araldehyde
orbol
▁TEA
▁doubled
▁irradiation
▁(18
▁instillation
▁thereafter
▁proteoglycans
▁Significantly
▁vasoactive
▁polyclonal
sorbed
ocarcinoma
▁stres
oA
▁70
sA
ture
▁pseudop
▁contractions
selective
▁epidermis
▁8.2
▁elution
▁cows
affec
▁polymorphisms
clonal
▁suspension
▁ole
▁occlusions
▁axons
ivacaine
▁influenza
ivariate
▁MHz
▁systematically
▁abd
▁immunocomp
▁dB
▁pertussis
▁outs
amination
igand
▁immunoprecipit
▁comprising
▁squamous
▁monotherapy
▁1986.
▁endometri
▁Surprisingly
▁Recovery
▁compensation
flammatory
tetric
iatic
▁excretion
▁chemically
▁MCF
▁myeloid
▁coenzyme
▁desm
perg
▁chow
▁51%
olipids
▁knees
▁sexually
▁Contr
▁1200
tizing
iazide
▁(0.3
▁ester
▁conservative
▁instrum
▁indomethacin
molec
-1.2
▁anomaly
-1
cortisone
▁PH
luores
ulum
ffinities
fine
▁attending
▁pepsin
▁sphinc
oclonal
▁increas
▁antec
67
toli
▁succes
oxane
otin
▁participate
rostenedione
▁volunteers
▁Krebs
esic
-7,
▁peripher
tability
▁alternating
▁CAP
▁corticosterone
generation
▁homozygous
▁baseline
▁attrac
▁thio
▁(15
▁adhered
vail
▁selectively
▁spike
-1;
▁centrifug
▁rats
▁antral
▁soma
ganglionic
▁Ala
▁TM
▁denti
▁logar
▁demands
▁metoprolol
▁7.9
aldosterone
▁gilts
▁occlusive
▁intracerebral
▁EA
▁boutons
lofen
ylephrine
▁convul
▁maxillary
uccin
TSH
▁DAG
aethylammonium
▁diastolic
ymptomatic
▁hyperox
▁interruption
stained
▁diagnose
▁97
▁5%,
opeptidase
▁bipolar
▁mening
plantation
▁extras
▁dodecyl
▁amines
▁rhinitis
▁nonex
▁30%
▁PAI
▁blin
▁phy
ceptible
▁calcitonin
▁electroly
▁cigaret
▁micros
minute
▁136
▁40.
[3
▁ipsilateral
cytochrome
57
▁sensitivity
▁fist
▁haemorrh
▁tape
aryng
otide
▁explants
tetra
GF
▁puber
▁dentate
▁synthesize
▁hippocampus
▁ultrasound
▁Salmonella
urea
orubicin
-27
clin
▁aberrations
▁9-
ivered
▁(16
▁ulnar
▁TA
▁hypercalcemia
▁gm
▁patches
▁cyclase
targe
-20
▁chemo
▁elicit
▁1.4
▁1990.
▁Subs
▁lesser
edding
testosterone
▁submaximal
▁cannula
▁nitroprusside
10,
▁cytoskeleton
▁pyl
arterial
queous
82
▁radicals
▁tissue
atinum
▁malnutrition
lamy
▁recognizing
athic
▁homologous
▁hir
▁Sertoli
▁45%
▁ml
▁paralle
▁folding
ostatic
▁mucosal
lastoma
▁thermodynamic
▁actinomycin
▁cobal
▁nephron
▁palmitate
▁(1,
▁vaccinated
anyl
urospor
▁swit
▁proliferating
ervated
▁antib
▁echocardi
▁outpatients
▁sput
▁malignancy
▁dementia
▁137
tial
▁colonies
▁fragmentation
▁secreting
uracil
▁viruses
▁recommendations
▁hygiene
▁ultras
▁practically
pation
reness
▁parie
▁develops
▁ferric
▁112
▁malformations
▁perox
000
▁50%
▁hydrolysis
▁dismutase
adminis
▁asparag
▁amygdala
blastine
▁0.52
▁endotoxin
▁asymmetry
deoxy
▁destro
▁Hz
▁reflexes
nary
▁wound
deple
olitis
▁lysosomes
▁potentiated
▁mediator
▁peroxidation
▁examination
▁4.6
▁locomotor
▁variability
urc
ylic
▁Respon
▁glucocorticoid
▁idiopathic
abdominal
▁(8%)
▁polymorph
clerotic
tran
▁Hypertension
▁pipette
▁Lact
▁trimethoprim
▁infrared
acrine
▁dialysis
▁unaffected
▁planar
opramide
▁adversely
galactosidase
▁secretory
▁indus
reed
▁adjusted
▁adoles
▁83
▁secretagog
▁PGE
trient
▁resin
▁forearm
▁formaldehyde
▁PRP
forming
▁Golgi
▁tris
ulators
▁macromolecules
▁asbestos
]-
:4
evoked
▁66
uestion
ocortical
▁axillary
▁rheumatic
▁ascending
▁Drosophila
▁retic
▁MRI
▁trials
▁clones
PB
bino
ayers
▁Experimental
intensity
▁susceptible
▁Cardiac
1-2
▁plas
▁Drug
RR
▁immunohist
hemat
lasts
conversion
▁verbal
▁serotonergic
atibility
▁fused
▁evaluations
▁transient
Gly
▁compounds
▁neutralizing
▁formulation
▁0.27
▁ET
▁suspensions
▁microm
arent
oxybenz
-10(
▁attenuation
matic
opr
▁organelles
▁vasculature
3,
▁connective
▁RNAs
▁270
iph
▁endonuclease
▁inversely
▁(1)
epines
▁NF
▁redox
▁Previous
▁redistribution
▁investigators
▁7.7
dipine
fractionated
assay
gnetic
▁47%
▁chick
▁terminals
prol
lated
ocamp
▁virulence
▁bioassay
▁nig
rated
▁ero
▁cumulative
▁restric
▁hypothermic
amphen
▁cisplatin
▁analyzing
leucine
asive
▁epit
▁alters
respon
▁seiz
1).
▁diffraction
▁chemotherapy
irradiation
▁10)
73
▁Positive
▁Lung
▁anoxia
disc
▁autoantibodies
▁curric
▁endothelium
otrypsin
▁parenchyma
97
GSH
lymph
▁HV
▁transloc
▁occluded
▁underestimated
▁assays
▁nonc
▁MIC
▁vitro
▁airway
▁determinations
▁pericardial
▁hybridization
▁desensitization
▁operon
▁traits
▁10(4)
PRL
▁pregnant
▁borderline
46
▁surfact
sian
thoracic
▁excitation
▁shear
portun
▁analytical
▁chromosomal
▁valves
ocellular
▁quail
▁flas
▁Calc
▁endocardi
▁3.2
▁amino
▁subcellular
▁discontinuation
▁presumed
dimethyl
Km
oxyp
▁18,
▁seroton
▁ventrolateral
▁CN
▁dyst
▁thalamic
DPAT
▁skinfold
onvul
▁monke
▁interneurons
▁degenerative
▁survivors
▁mellitus
▁occupational
▁accurately
▁12.
▁amplification
▁tetr
▁ruptured
▁Mild
titution
▁osmotic
ographs
▁plateau
▁hybridoma
▁veins
floxacin
▁smoking
▁cerebellar
hemoglobin
tituting
odeoxy
silon
▁panic
▁laparoscopy
▁0.5,
potential
ivac
▁(11
amines
▁3',
▁Large
▁oxygenation
obl
aceu
tained
▁bradycardia
ceptions
angi
▁208
phosphate
oconazole
▁tracts
▁Lymph
▁antagon
▁indi
▁42
▁inhaled
inum
▁proteoglyc
10.
▁diabe
▁primed
operox
admium
4.
▁parox
▁carbonic
▁mong
▁Overall
▁2.0
▁1970
stimulating
▁(76
-8)
▁disclosed
amethasone
▁esters
▁somat
▁precursors
▁altered
▁coeff
▁incubations
▁FN
rents
▁Serum
▁dilution
▁expressing
▁analges
ithelial
▁couples
▁unidentified
▁FT
▁endurance
▁hydroxylation
▁immun
▁clot
▁aldehyde
▁nephropathy
▁arter
▁nadir
▁confirmation
gran
▁BM
oung
rogenase
▁reacting
ervoir
imide
▁Apo
▁pS
▁anaemia
▁airflow
▁adrenaline
▁autopsy
▁baroreflex
2)
▁murine
▁lysate
▁DG
▁hygi
onatal
▁digoxin
olestero
▁actuarial
▁sulphate
ensory
▁junction
-70%
estern
▁50%.
▁hypercap
ograp
▁adi
ithromycin
lasting
▁hCG
▁tubules
dL
▁harmful
unately
▁(63
6%
xual
idation
▁1.6
▁85
▁155
(2)
▁occult
▁juvenile
▁synchronized
▁172
requ
entified
▁superficial
▁diseases
.2
▁inclusions
▁280
▁alkyl
▁cessation
▁phosphorylase
▁differe
▁blunted
15
▁paralysis
abilized
90
▁retur
▁cephalosporins
▁chemicals
-2,
▁embryos
trodotoxin
tured
▁prostagland
gmental
dihydro
▁anomalous
▁trypsin
4/
prising
▁AIDS
▁0.50
▁transferrin
▁GI
▁1990,
brom
▁ODC
tron
abbit
▁incomp
▁neutrophil
▁5)
▁structural
strand
▁correlated
yrox
▁pharmacologic
▁76
▁phenomenon
▁stratum
▁acces
▁streptococci
▁capillaries
▁progestin
▁caud
▁abundance
▁ploidy
▁infra
▁mediated
lood
imetric
onegative
▁phosphates
toxicity
▁rectal
olig
▁methylated
tested
quine
▁tumorigen
▁30.
semb
▁mitosis
erine
▁tes
motic
▁3
▁trachea
▁surround
▁Biochem
▁spectrometry
▁modality
8).
▁pmol
▁propria
tism
▁198
▁surgeon
▁hyperp
▁asial
thanolamine
▁PCR
▁pathogenesis
▁envelop
▁spikes
▁ferritin
▁ventric
▁examines
rophenol
▁contractile
▁79
▁gonadotrophin
▁48
▁GFR
▁Fourteen
subunit
▁IgE
▁transverse
▁LPL
independent
propyl
+/-
especially
▁incubating
▁atherosclerosis
icardium
▁(3-
▁(125
ocar
▁coagulation
acement
-18
▁inh
▁cytometry
▁tremor
▁2.2
▁nutrient
▁.1
alact
▁30-
▁prono
▁stresses
▁phospholip
▁OA
▁evolutionary
▁fetus
▁paradoxical
alate
▁48-
▁cloned
itoneally
▁5).
igible
▁ubiqu
cristine
▁IK
▁0.42
▁adenylate
▁acetic
▁diazepam
kely
▁CDC
▁overload
▁rods
tox
▁49%
▁hetero
henyl
▁vascul
▁ranging
▁-1
tracellular
▁233
▁uptake
▁thickness
translated
carb
teral
till
mia
ternational
phenyl
▁ultrasonography
▁confirms
acids
6,
▁antide
eled
▁1982
absorption
▁DEAE
▁multil
vertebral
▁spontaneous
arone
▁sequential
▁membrane
▁2)
▁endoplasmic
▁SCH
molality
plic
▁experiencing
▁maturation
ilical
aturation
▁160
▁excised
▁parathyroid
▁16,
parathyroidism
▁denat
▁resec
▁synthe
▁predicts
tronic
haem
▁protec
treatment
▁CIN
ophilic
▁fluo
-1),
▁conformation
ymethyl
-1.5
▁rehabil
▁colonic
educed
indolol
▁mammography
▁albicans
▁acinar
▁atm
dominal
84
▁(30
xia
plies
▁sulfur
orac
▁saphen
opl
50)
▁oxalate
EDTA
feeding
.6%
sequent
olipoprotein
▁Maximal
atab
▁dithi
ostasis
▁compound
ubicin
duced
▁brady
▁HPV
oxifen
▁cytotoxic
-60
▁resistant
himbine
▁NH
▁Cycl
▁heparan
▁(200
▁epididym
lected
▁gastritis
▁ophthalm
ontal
tiz
orsal
▁collagen
▁Scatchard
▁counterparts
▁improves
▁10.0
▁steers
▁triglycer
rosy
onuclease
▁somatostatin
▁labelled
▁targeted
▁sucrose
▁Perc
▁steroid
▁poisoning
300
▁Fc
▁ethylene
▁mitochondria
onide
▁Klebsiella
▁tric
aortic
physeal
-)-
▁34
▁pentobarbital
▁127
▁Natl
▁physicians
▁atheros
▁splen
▁DF
▁genes
andida
HPLC
▁residue
▁nosocomial
natal
▁constructs
▁Thirty
otomy
▁mediast
1/
▁membranous
macropha
▁Schwann
serum
▁lidocaine
leu
▁0.14
▁CCK
▁subtypes
oporosis
▁repertoire
upuncture
itre
▁methionine
▁detergent
admill
▁HI
▁nonsignificant
▁alleles
PLC
▁seques
▁hydroph
▁hyperplasia
▁1990
▁lam
▁kine
▁Tox
▁leakage
▁anastomoses
▁consensus
Cu
▁semin
▁percentages
▁BALB
▁tricyclic
were
▁consistency
calmodulin
▁guanidine
▁cholinergic
▁0.80
▁0.1,
▁hyste
TRH
▁neutrop
LPS
▁clinician
phorbol
▁necrop
▁Fluores
oreceptor
▁hyperlipid
▁fiber
enolone
ophysiological
▁permeability
affected
uspid
▁ductal
▁retinal
encephalon
iminary
renol
▁salts
rometric
ociated
▁SEM
▁chloride
gulatory
43
orrhea
▁multis
▁plasmids
uccessful
muscle
▁Hig
▁proliferation
▁durations
tenolol
▁Glc
▁cement
▁Lyt
otrexate
▁thrombolysis
▁3,4-
▁thymocytes
▁correlations
▁125
▁accessibility
▁GH
embryonic
kinson
▁myocytes
orporation
▁1-2
▁mating
24
▁dispersion
dehyde
▁periodon
▁rheumatoid
▁creatine
▁80,
-6
▁28,
▁hematopoietic
▁extremity
eration
urones
odipine
▁84
▁Effec
▁cutoff
eroxide
▁thym
-90
▁MN
▁carp
idis
▁perif
▁venom
▁criterion
dyle
▁Trial
▁breeding
alas
▁glucuron
▁LV
conver
▁grafts
enin
fected
▁histopath
▁collagenase
iliar
▁adduct
▁dipyridamole
▁pathogens
▁quantitatively
▁carotid
▁correlating
▁phosphorylated
phosphatid
▁splicing
▁neurotensin
▁5.3
▁cigarettes
(2+
oxygenation
▁28
▁bacter
▁glucocortic
▁reflex
7,
▁amphetamine
▁gastrin
▁trypan
▁implying
▁analysed
0.1
▁solvent
▁transmural
▁Bacillus
▁attenuate
oflav
▁ganglion
▁LHRH
▁ICa
iomas
▁acet
▁29%
▁diversity
▁standardi
▁MV
▁intracoronary
▁MPO
▁assessment
▁denervation
▁diameters
▁satis
▁emo
▁resultant
bile
▁outbreak
▁25-
semin
▁150
▁oxy
▁FE
▁1-
▁ligand
▁endothelin
▁23
sively
▁inflation
▁10
romic
▁postin
▁disability
▁reflecting
pran
▁Amino
bladder
▁suppres
▁Postoperative
▁contex
razosin
▁sarc
hemagglutinin
▁Dose
▁fructose
oxide
▁derm
▁particulate
▁nociceptive
▁GHRH
▁conjunction
leuk
resist
▁5),
▁leukocyte
HRP
▁32%
reduced
achol
▁bile
conditioned
threatening
▁responsiveness
ritis
▁murmur
▁interf
teine
▁geniculate
▁disturbance
▁consequent
▁puberty
▁80-
▁additionally
▁eligible
▁cyclic
▁rostral
▁permeation
mitoyl
roximately
▁autoradi
▁distension
▁nM
venty
▁lymphoid
▁lis
ocortic
▁chlo
etence
▁Asn
SDS
▁isozyme
▁stimulation
▁fluids
FEV
▁Forty
▁12)
▁neurom
▁gamma
opressin
otropy
▁ethyl
▁Peak
▁palm
facial
▁strands
▁deterioration
▁130
▁xyl
▁tachyc
monella
▁lysosomal
▁replicate
infection
▁vesicles
▁subunits
▁synthesized
▁80
ealand
▁omega
▁BMI
entary
blood
thle
▁inapp
▁ICU
1:
▁lenses
▁.001).
PAF
tomas
▁phenomena
▁193
▁0.48
▁gynec
▁supple
existing
gm
▁Experiments
▁cations
▁mRNA
▁Mortality
oblast
▁titers
▁wee
.0
aryl
▁pups
aid
ateral
▁conductance
▁Prel
▁myristate
mega
MSH
▁symptoms
▁cure
▁wt
polyacrylamide
-38
ignificant
▁characteris
▁2.5
▁remission
▁Maximum
keleton
▁acids
▁Gs
▁accordance
▁Compared
▁aerosol
▁mechanisms
▁ethnic
▁exogenous
▁mobility
▁malignant
ylline
ivocal
▁epidemic
atite
olesterolemia
75
▁unaltered
▁covari
growth
partum
▁defec
▁gradi
brids
▁ICI
▁positives
▁3.8
▁hypother
ralazine
▁loci
▁6.9
12-
▁competi
oxia
uity
▁(0.25
▁anaesthe
▁92
injected
▁monol
▁reversed
hers
▁erythrocytes
dihydroxy
▁62
▁deferens
▁(9
▁prolongation
▁regimens
▁crossover
▁6.3
▁84%
tization
▁glycogen
▁cocul
▁electr
▁atypical
▁6.
viruses
tation
ogenic
ellae
▁(2,
▁indicators
regn
izine
▁chol
jug
▁ascorbate
▁etoposide
systolic
▁minimally
▁antin
comitant
olone
ophores
▁serosal
▁weakly
▁eluc
▁uve
▁220
▁11.2
▁0.40
lactamase
lyl
▁43%
▁structurally
▁adipose
Ki
luded
acements
▁conformational
yrid
▁luteinizing
lymphocytes
▁hyperb
▁oocytes
▁posti
roscop
oblas
▁progressive
yridine
ifers
▁droplets
.9%
▁fibrillation
-1).
taining
▁64
▁121
▁achie
ipher
odop
leuc
110
▁vasodilatation
▁Complications
▁incompletely
/30
ticularly
▁electrodes
▁inhal
▁juven
divid
ochemically
25
▁commercially
▁neurones
odopsin
▁implant
▁(+)
▁weigh
▁hypoxemia
ressing
isomer
ococci
▁0.70
velength
▁rho
urys
▁microns
▁27%
ygen
chemical
▁lumin
stranded
▁influences
▁symptomatic
▁1960
▁Atrial
ordial
tiveness
0%).
▁Dop
▁aberrant
▁ery
oxy
▁normo
modified
▁euthyroid
▁spont
emak
▁Staphylococcus
trover
▁ornithine
▁mesenchyme
degree
▁reticulum
▁bradyc
phragm
methyl
▁neph
▁homogeneous
RH
diabe
▁lactic
RIA
9%)
▁amo
▁TPA
▁anionic
olip
▁laminin
▁wash
▁prevalent
abain
▁monkeys
▁granuloma
tential
itol
▁vitamin
▁PCP
▁grafted
▁alve
▁nonf
rospinal
ropath
▁allosteric
▁Actin
HCO
▁DNP
▁residues
eeding
▁latency
lamp
▁aluminum
-5'-
▁familial
veness
▁0.24
▁displacement
▁oligonucleotide
▁Synthe
▁crom
▁melanogaster
mobil
▁2',
iability
▁suppor
▁shorten
aind
enters
▁menstr
▁HPLC
▁pacemak
Cs
platin
▁PB
▁normalization
erents
▁depolarizing
▁pregn
▁oils
LH
▁phosphatidyl
▁Proc
▁instruc
renal
astom
▁autoanti
▁IgA
▁glioma
▁warfarin
▁stiffness
▁cholesterol
Fc
▁promotes
▁(79
mineral
▁unstimulated
sized
▁4-6
opar
▁24
▁reviewed
▁eccentric
opam
52
▁diarr
pendent
▁tear
▁permeable
▁mt
▁92%
▁2.3
▁methylene
▁glycosylation
erated
▁chromium
▁venous
eliac
kage
lycer
▁clus
urations
▁judged
▁splenic
▁1,
ctive
▁fati
▁utilized
▁ketanserin
▁microtub
▁abstinence
▁Taken
▁PLP
▁LR
▁chickens
GlcNAc
iprofloxacin
▁hyperg
MTV
▁interstitial
▁isoprenaline
▁(10(-6)
▁sonography
▁myometr
▁splenectomy
▁releasing
▁gentamicin
▁mutans
▁hyperch
fetoprotein
▁doses
▁lithium
▁decade
▁Combined
▁excre
▁perfused
esin
ocated
ocyan
▁adipocytes
pontaneous
▁fibre
▁CBF
▁sacrificed
ocriptine
ermal
▁LM
stant
EMG
chloro
▁HDL
▁CHF
▁hemodynamics
▁whee
uccess
76
▁velocities
▁1987.
drug
merc
▁TP
▁bioavailability
▁hormones
▁hydrox
▁mixtures
april
▁homeostasis
osidase
▁reproductive
▁(22
teria
gold
▁localize
▁rhy
▁Fib
▁subcutaneous
▁atrophy
▁AML
▁Cyt
▁equimolar
▁hypothalamic
▁Pharmac
▁chronic
▁transcriptase
▁MBP
▁insec
▁Induction
▁conjugated
▁progres
▁effector
assium
▁favorable
stimulated
▁advan
▁aids
-2-
oprolol
▁intakes
▁filtration
-67
olgi
▁linole
▁intracellularly
irectional
▁enhanced
▁CML
/2
ntolamine
▁penile
0.2
▁PAH
▁thiop
oglutarate
roxim
▁biliary
▁diabetics
icients
▁pools
▁131
▁1984
▁weaker
▁surveys
▁sensitized
▁autologous
thiazide
▁mann
▁epidermal
▁epithelial
MV
▁patency
▁DTH
▁HA
▁gels
▁3.7
▁concom
▁amph
▁hyperlipidemia
44
▁implants
▁radioligand
▁phenol
▁cited
▁emboli
▁consecu
itamin
▁replication
▁porcine
terase
esarean
liters
▁ejac
/9
▁ascer
▁10.4
▁strategies
riton
▁fum
▁examin
▁prothrombin
erally
▁mutations
▁blast
essation
▁cobalt
maximum
▁infiltrates
azone
emias
2).
tagland
▁binds
▁0.001),
▁deline
amicin
▁genital
depleted
macroglobulin
▁ratios
▁prenatal
▁angioplasty
▁chimeric
▁ankle
▁(4)
18
▁refrac
▁peptic
diastolic
(+)-
illin
▁repressor
▁MHC
▁7.6
▁proceeds
▁NADP
entanil
9-
▁strepto
PKC
▁enzymic
▁Systemic
▁inflamm
▁incorporated
ymp
▁kinases
ritic
occi
18)
▁anastomosis
▁nucleoside
▁visits
▁intraper
▁digested
▁BL
40)
▁resemb
▁preventive
tum
▁mesenchymal
▁Sequence
▁pulses
stimulation
gangl
▁Identif
▁diagnosis
▁rectum
▁metabolic
▁85%
isole
▁drainage
▁cirrhotic
▁1.0
▁10(-7)
▁suspic
thmic
▁carcass
▁gonadotroph
▁cytochromes
▁microscop
▁multivariate
▁enhancement
▁nurse
▁0.26
ensin
kinase
▁ionomycin
owever
opolysaccharide
▁terat
odg
▁37%
▁absorp
UV
▁siblings
▁145
▁lumen
▁tuberculosis
/8
▁luminal
▁quantif
sue
▁endometrial
48
▁pleural
▁13,
oxone
▁vibration
▁exagger
▁pim
2+.
operiod
taken
horm
▁PAF
▁antimicrobial
▁pyridoxal
tracheal
uvate
▁mesoderm
▁hypotension
▁endocytosis
▁brains
rences
▁thorac
▁oval
▁paradox
etoprotein
▁benign
55
▁goiter
uginosa
▁prognosis
▁attitudes
2(
erge
▁5'
▁164
trial
astatic
▁cava
pir
uretics
tified
▁ionophore
olet
▁fractions
▁lining
atosis
▁regulates
▁124
subs
terminus
▁malate
CRF
▁twin
umbens
▁topical
dural
▁tibia
▁Experim
▁microv
▁prophylactic
▁pathophysiology
▁pM
▁Sodium
itic
▁lineage
OHDA
▁preincubation
angl
pH
orbent
▁insuff
8-
▁prescrib
▁adop
▁homolog
▁ulcerative
▁hydrolyzed
▁adrenoceptors
ohyd
▁15
▁responded
▁freeze
▁heavi
partic
.4%
▁enzymatic
eptidase
▁diuresis
▁colonization
▁fibers
▁midbrain
▁nucleus
▁mediators
▁limbs
▁59
▁Subst
▁guidelines
▁transporter
ustif
▁Ace
▁myogenic
▁warran
supplemented
▁spi
▁PF
▁cortisone
▁10(-4)
▁transcrip
▁pH
▁glands
cad
▁78
▁Reduction
▁LAK
▁nec
▁200,
▁decades
oarth
▁Arter
▁biosynthesis
modulin
▁sutures
▁regimen
▁actin
ogl
atally
▁globin
adm
thmias
-25
▁retinoids
nitros
lebsiella
▁TcR
anin
▁350
▁biological
▁(150
Asp
oproterenol
hydroxydopamine
immune
▁sarcoma
▁potenti
▁psychological
▁Neither
osocial
▁dissection
jury
▁adverse
▁neuropeptide
▁cleaved
▁glutaraldehyde
▁allograft
▁mediates
▁NT
▁intraven
▁gating
▁103
regulated
apid
▁lactating
▁peptid
▁1.1
platelet
▁Average
ortic
▁diminution
▁Tyr
▁pelvic
oncogene
-1.0
obases
eptin
Trp
PCR
▁unlabeled
rosal
inflammatory
▁iodo
▁determination
titute
HIV
▁Sera
cyclo
tric
associated
▁parenchymal
inj
▁guanylate
▁modeling
pinephrine
riched
▁enhancing
▁distinctive
▁somata
▁Continuous
▁deliveries
exercise
▁toxins
▁intron
▁agon
▁cef
▁interrup
amagnetic
▁infrequent
▁radionucl
anavalin
oreg
▁critically
▁Biophys
▁altering
▁ellip
▁isoform
▁bac
pecific
oblasts
▁phospho
▁amitriptyline
0%)
▁ofloxacin
▁comparable
stolic
▁cloning
▁pector
ophy
▁(0
▁95%
omegaly
▁protr
▁respir
▁PN
ronectin
▁uremic
▁72
▁glutathione
▁Clin
icardi
▁dramatically
▁BA
sant
▁(36
.5.
▁brach
▁ultraviolet
▁metoclopramide
avail
onary
▁AFP
▁dissoci
▁genetically
▁homoz
▁200-
ocial
ocys
graphy
▁hormonal
▁8.4
amylase
odialysis
-(3-
▁Dietary
ergic
▁blacks
▁RF
▁afl
▁diffic
▁oxid
onucle
▁participating
▁gonorrh
▁recipient
▁dischar
▁hypers
▁tolu
▁(18%)
fentanil
kground
▁kainate
31
▁nonsmokers
▁microvessel
ingle
▁infectivity
▁159
▁amel
diss
▁lectin
▁subgroups
▁Inhibition
dUrd
rogesterone
▁98%
ylon
charomyces
▁26%
oxidation
▁Glyc
meas
trical
ipheral
wenty
▁urethral
▁biosynthe
▁sphe
▁remarkably
promoting
▁experimentally
▁discrimin
▁phyl
▁arth
▁plaque
▁EDTA
pain
responders
elves
▁tissues
▁120
▁paternal
LISA
▁0.45
▁preparation
trum
▁immobil
itability
▁bacteremia
▁reac
▁allevi
▁sugars
▁intox
▁sedim
▁establishing
oradi
▁dox
▁Various
xate
▁arginine
▁adolescents
iline
tember
600
▁acetate
▁proteinuria
▁MI
▁hepatitis
▁holo
▁fold
ylyl
mAb
▁Spontaneous
obenz
▁thermo
▁adjuvant
▁11)
▁incision
ocytosis
▁chondrocytes
esthe
▁shar
▁156
▁chan
▁lesioned
cine
NMR
▁cerevisiae
▁saphenous
iplin
▁epidemiologic
▁unexpl
▁freshly
▁desirable
▁wounds
▁compartment
▁affecting
hesus
ulsive
-4)
▁hypokal
▁zinc
▁ison
▁spermat
entif
▁hyperthyroidism
▁nicotinic
▁dimethyl
▁deficit
▁overl
▁preservation
▁bathing
▁adenocarcinoma
▁acutely
▁investigated
odies
olization
▁recor
▁Fetal
▁micron
▁93
CNS
▁microb
▁leaflet
▁specimen
siological
ophylline
▁cereb
87
lamin
secreting
▁untreated
tension
idity
▁simian
rhy
▁passive
sial
▁cycling
▁virul
▁homology
▁chimeras
▁Phe
▁metaphase
▁surf
▁constituent
5.
▁ank
▁1%
▁81
▁177
conduc
▁proteins
▁aromatic
▁SRIF
transplant
BH
osides
HIAA
▁PE
▁60
▁pellet
▁LD
1;
▁mannose
▁10(-1
4,5)
▁haplotypes
▁TF
ocine
ffec
▁tolerance
▁distinctly
diagnosed
▁withdrawal
ilep
orption
▁tubular
▁abundant
fat
▁intraluminal
▁pyramidal
patient
▁androgen
▁rRNA
toxin
▁9
ranged
▁22%
went
▁prepubertal
cephalus
▁Thereafter
ditions
▁keto
▁GFAP
▁Rates
▁dextrose
ferrin
.7%
gative
▁fluor
tryptophan
kine
▁mature
▁2).
mong
▁desaturation
▁lesion
▁fractionation
▁quantify
redoxin
▁ribosome
▁WGA
▁0.03).
4;
▁cerebral
entan
▁hepatocellular
▁PMS
▁cooperativity
▁Statis
opril
▁histochemical
▁isolates
▁-7
-36
▁sulfoxide
▁demographic
▁asbest
divided
▁photoreceptor
▁cate
▁NM
▁agglutin
▁(3
91
▁118
DG
▁cellular
iant
▁inward
▁depleted
▁subend
▁chlorpromazine
▁concentrate
-4-
▁reactivity
▁dermatitis
tially
ampl
▁phenotyp
▁10(-5)
immun
▁dermat
▁accel
▁resc
kers
illation
▁reserpine
▁(31
▁depres
▁Graves
▁uncontrolled
▁filament
▁neuromuscular
▁0.05,
chlor
▁proteoglycan
iotensin
▁EEG
▁jejunum
ticular
tococcus
enicillin
▁cerevis
▁intercellular
▁presenting
▁Severe
imid
▁permanently
ffinity
▁aneuploid
▁anaerob
ischem
▁(1.0
▁Initi
posterior
▁antero
▁tonic
osomes
▁labeled
▁Lys
▁Caucas
▁peripheral
▁positioned
▁spreading
▁expense
▁stools
▁phenytoin
▁athle
▁anticipated
▁ultr
▁Hear
inephrine
▁cortisol
ogenous
▁glutamine
▁eti
▁tow
▁translational
incip
▁7.0
▁Recently
▁perin
▁sows
▁(24
▁ECM
▁olig
▁PIP
oresis
mol
▁54
itus
▁signaling
chid
azepam
▁atenolol
▁manifestations
▁lympho
▁bacilli
omethacin
▁tolerated
▁abuse
▁clinic
▁hrs
▁Biol
▁dors
acked
▁heterogeneous
▁catar
▁ultrac
arge
▁lymphokines
▁retina
▁placent
▁ranitidine
▁arteriosus
▁subpop
▁bradykinin
iosis
▁testosterone
▁obli
relations
▁musc
▁parv
ymme
restricted
▁daytime
Mu
▁negl
▁AUC
SMC
▁vasodil
▁impaired
▁pars
▁extraction
aethyl
▁nitrendipine
6.
▁cytotox
▁transcribed
▁inadequ
▁pyro
▁recur
▁aging
HM
▁PU
▁premenopausal
istar
▁exerts
▁motif
flurane
▁predicting
▁(3.0
▁800
▁6.2
▁inappropriate
▁biochemical
requency
▁adducts
▁diaphragm
▁sarcoplasmic
▁platinum
▁necro
▁hypothyroidism
dil
▁cil
▁meaningful
▁(4
▁thromboemb
▁Epid
▁exerted
tivity
lix
▁chym
cryst
▁2-4
▁prednisone
gressive
▁98
▁kinin
ompan
CBF
▁lyso
▁hsp
ronch
acterial
▁extrav
▁ultrasonic
▁adherent
▁excit
▁neuros
▁Few
▁competitively
ectom
▁commerc
▁expend
▁Feeding
▁painful
▁gonad
▁hydrophob
ospitals
trac
▁cyclospor
▁AMP
)2
▁anions
fused
▁propranolol
8,000
▁VE
enopus
▁guanosine
▁roentgen
ophageal
ields
atient
▁antidepressants
▁novo
▁conduc
▁drinkers
▁tryptic
hydraz
▁buffers
▁malign
anol
▁prescription
anding
helix
▁hepar
idov
▁soleus
▁perceived
▁macromolecular
▁asymmetric
7%
▁trauma
Ci
▁percentile
▁paras
▁PW
▁fluctuations
ially
(1)
▁ethical
▁similarities
▁capsular
▁monovalent
▁extrinsic
▁ovary
labelled
dense
▁neomycin
▁migrating
tracted
rosine
▁balloon
▁stromal
▁allergic
36
opes
▁deletion
▁leucine
▁unequ
▁biology
▁transpor
▁Fifteen
▁Strep
▁lasting
MDA
▁phosphodies
▁69
▁glucagon
▁lact
oracic
atology
78
▁Parkinson
rography
othi
▁parenchym
coh
▁subdi
farction
sia
ocysteine
▁decarboxylase
▁Failure
plastic
▁scattering
rotid
▁72%
▁97%
tig
▁substitu
▁99%
▁lengthen
atible
▁0.8
▁PHA
▁isolate
ulses
▁uter
▁smears
▁1986,
▁0.56
tection
▁extravas
entia
▁contaminated
▁0.19
▁ward
6%)
▁50%,
▁contributing
▁quinine
▁linkage
▁patent
▁pharmac
▁conjugates
▁mobilization
▁anis
ching
32
▁2.1
▁endot
utaneously
▁LTC
▁paraventricular
▁invasive
▁puls
▁molec
ADP
/10(6)
▁barrier
osterone
▁subarachnoid
▁12%
▁clotting
lobulin
▁enzyme
▁complications
attered
▁muscles
▁46%
Tyr
▁secretin
▁capacities
monstr
itoneal
▁dextran
▁microliters
xime
▁0.
▁cardiac
bilities
▁organism
aced
▁aqueous
▁GABA
▁antigen
▁mono
adian
▁macromolec
▁intimal
▁synaptosomes
▁142
▁perme
▁chimer
▁GDP
▁(47
▁supernatant
▁cimetidine
▁virulent
▁glomerular
▁4.9
▁pediatric
vessel
fraction
▁(5)
▁preoptic
▁twins
eric
▁syncope
loride
▁subjec
▁Increas
▁phenotypes
▁Interestingly
▁methyl
▁questionnai
placement
▁(72
▁ultra
▁mucosa
terminal
illaries
▁tilt
▁exchan
▁yr
▁glauc
▁22,
Tx
▁oxidase
omal
▁Individual
.2%)
▁functionally
▁nonselective
0%,
strain
▁transfection
▁expiratory
olab
ipro
▁palli
▁8.
▁Comparing
lysin
▁thems
▁ligands
▁intensities
▁NADPH
▁hypothetical
▁polarity
▁adjustments
vive
▁Concentr
▁Survival
▁disorders
arb
-24
▁reacted
▁ablation
AVP
▁KCl
▁weekly
▁antiserum
▁ANF
▁(5-
othreitol
▁temperatures
▁0.5%
▁synapse
▁surge
▁homogen
BAL
▁occurring
▁cues
injection
meth
▁(99
▁cerebrospinal
alveolar
▁vaginal
▁Thr
▁1988.
▁8
▁radios
▁doubling
plants
▁antibacterial
▁uncomplicated
1%
▁SPL
▁Hb
▁exocrine
bumin
▁acidification
olateral
aryotic
▁differs
▁facilit
▁peaks
erebro
▁progressively
800
▁monitored
▁2.9
3-
▁infiltrating
▁44
oprol
▁microelectro
▁1,3-
▁corne
▁victims
▁ionic
RD
9%
sych
idney
▁feasibility
▁compliance
corrected
▁PFC
enem
▁Injection
▁reversible
▁distin
▁recessive
azol
pG
▁staurosporine
▁slices
▁coag
embrane
▁lysis
▁microp
▁condens
▁3000
▁splenocytes
▁sonic
▁discus
▁transcription
▁insurance
▁equilibr
romed
▁promo
▁interviewed
dition
▁antioxidant
▁meth
▁perc
▁genotypes
29
kines
▁secrete
PTH
▁nonpregnant
HB
▁pronounced
tage
▁pall
imens
▁anatomy
▁antipsych
▁etiology
atell
▁0.3%
▁activate
▁megakary
▁motoneurons
tenti
otrophic
opathic
▁psychosocial
/6
▁keratinocytes
▁EPSPs
inoc
▁pyel
2;
▁nutrients
▁breed
▁intravascular
▁myocardial
▁absorption
▁phi
▁Changes
▁constitutively
ureth
▁lymphadenopathy
5'-
▁benzodiazepines
▁specialized
othane
▁constric
etitive
▁determinant
▁EE
▁triphosphate
imbr
▁objectives
▁atopic
▁degran
▁diploid
▁sedative
botic
farin
ympathetic
▁Experiment
▁discre
BG
▁reasonably
▁consciousness
▁mesangial
▁quantification
shaped
▁neurogenic
▁activates
▁immature
▁washout
▁Replacement
▁scle
▁78%
ometrically
▁chromatography
etition
66
▁(1.9
▁fistula
▁thyro
▁polymorphic
▁Holter
▁dimer
olones
▁vertebr
uoden
▁vimentin
▁melanomas
▁lacking
▁WHO
▁35-
/1
otropin
▁modulating
▁indicative
▁61%
▁Scale
▁NB
▁0.01),
oxid
▁1.9
▁suture
▁exposures
uscular
oconstric
▁abrogated
▁tumors
phthal
1),
▁bronchodil
▁endoc
▁(2)
▁furosemide
▁steroidogenesis
▁prerequisite
▁resuscitation
amethyl
▁choline
▁immunosorbent
▁Leuk
uanti
▁Concentrations
tribution
ials
▁prostaglandin
▁5.9
▁ligated
ressed
▁contrac
▁expenditure
allik
▁surveyed
▁phosphorylation
▁cathepsin
▁intrathecal
▁nude
▁CSF
apatite
loxacin
▁amin
obase
ulatory
phila
▁1/
▁surviving
lamydia
glutinin
▁ketone
.8%
▁kidne
▁immobilization
▁scientif
glycine
▁protocols
▁enhances
▁ribosomes
▁halves
▁lymphocytes
aired
▁thyroidectomy
erative
plicity
▁carbohyd
▁crystalline
▁exhibiting
▁luteal
advan
▁0.21
▁receptors
▁glia
▁segreg
▁serolog
▁turnover
enteric
▁effectors
▁intran
▁analogues
▁topoisomerase
▁arti
▁occlusion
▁digesti
obarb
▁10.5
▁adrenocortical
GTP
osac
▁monoclonal
iable
▁telephone
47
▁0.7
937
▁apprec
ifferen
▁injur
uronium
tropine
ocytoma
▁degranulation
▁MoAb
phot
▁infrequ
▁(60
▁(0.
▁radiological
▁roset
▁localization
thre
▁adsorption
▁Dex
▁adequate
▁microvascular
micro
▁activating
▁CEA
▁resusc
robenz
▁stu
entgen
▁stratified
onucl
▁reticul
▁gradual
iruses
-3
▁adenomas
-1,
uodenal
fibrin
linked
▁deposits
▁psoriasis
▁satisfactory
▁migrated
▁tritiated
-9
administration
▁Escherichia
▁sten
ovascular
▁unfol
▁GAD
▁babo
MIC
▁suppressive
▁vaccine
estradiol
▁Afric
▁bones
▁comparative
inamide
-[3
▁BT
responsiveness
▁11%
cephal
/24
▁anomal
▁equivalents
▁neurological
▁burden
▁indications
▁heparin
▁4-5
▁vege
▁Median
▁Elec
ustained
▁leukotri
▁preferen
▁infiltration
▁Lp
▁genomic
▁glycemic
▁detectable
▁mesenchym
ozo
▁homogenate
ubilized
▁psi
▁immunofluores
▁ANP
▁predominance
vastatin
atectomy
▁cere
▁aeros
▁gonadotropin
▁clon
▁regained
▁messenger
urate
▁immuno
iliated
ucleated
▁subtle
▁lipoprotein
▁euk
▁0.22
▁50
aric
▁abrupt
▁(29
5)
▁outlet
▁conjunctiv
trically
Ps
osomal
trip
bility
▁pharmacokine
Rb
▁kd
▁progen
▁secretions
▁radiol
▁frozen
▁occipital
7).
vents
ucose
▁scintigraphy
GnRH
▁epidemi
nour
▁upright
trained
cents
▁administered
▁75%
▁pacemaker
5%).
▁specificities
▁constituted
▁morphology
▁depended
▁emphasize
wann
▁anhydr
ipit
minis
▁129
▁enlarge
▁slowing
transformed
▁psychiatric
▁satisfactorily
▁genotype
▁cirrh
▁myof
▁HM
IgG
▁(6)
▁guan
▁resembling
acerb
▁exhibits
▁erythropo
▁tooth
▁anhydrase
▁uniquely
▁isoforms
▁swim
▁advances
oxin
▁initiation
▁Subsequently
▁conclu
apsulated
▁coval
▁DH
▁isometric
▁spind
.4%)
▁endogenous
arrhythmic
▁supra
▁sickness
mercap
ucleotide
▁10.2
▁2.7
▁10.
tually
▁VA
anat
▁(13
ologic
oxo
▁agonist
▁idi
▁GST
▁Whereas
plen
ulant
brain
▁tolerability
trates
ressive
▁mannitol
▁gestation
▁catheterization
▁hematocrit
▁catalyzes
▁surgical
piper
ensity
▁tubercle
▁1.5%
▁(34
ifferenti
▁vicinity
asses
▁hyperthyroid
▁(82
▁spectra
▁cytoskeletal
▁polyacrylamide
▁83%
kling
▁AK
▁cruc
▁stimulator
▁(15%)
ectomy
ynthe
▁eukaryotic
0.5
▁saline
▁oral
olytic
▁thalamus
▁leukotriene
siella
▁synergistically
▁13-
▁biphasic
▁lipophilic
glycerin
mittent
▁vasopressin
anking
antigens
▁(7
oscopic
oxazole
▁95
athione
▁retrograde
itone
▁Activation
omere
▁restraint
▁2.5,
▁continuously
▁radioiod
▁Radi
▁agar
▁predominantly
mber
▁dramatic
▁phosphatid
▁Plasm
tagog
odiaz
radi
▁Pneum
▁beats
▁hered
▁characterized
dihydroxyvitamin
▁amylase
▁termination
▁discontinuous
otericin
6,000
▁predis
▁implications
37
▁parasympathetic
-65
▁donor
▁saturable
▁serotypes
▁Haemophilus
tocop
1)
isely
▁salivary
amide
▁36%
▁PBL
▁valine
duce
EA
otoxin
coun
▁intrac
▁colliculus
▁lymphaden
ocyanate
▁ration
▁opi
▁GF
▁5.6
▁irrit
ximide
▁surveillance
▁intermedi
ullary
▁microgram
▁capsule
▁carries
▁5.8
▁quantit
tensin
oplasmic
▁systematic
▁sustain
osensory
▁epid
▁injuries
tissue
▁weighing
▁meningitis
▁203
adrenoceptor
2+,
▁adrenergic
thmia
dividual
▁predictors
nthe
▁excreted
▁glomer
othyronine
▁MMC
▁synap
▁Leydig
▁constitutive
▁eryt
trating
▁enanti
▁0.00
▁ultracentr
4-
ubation
▁10(9)
HSV
▁19%
▁subjected
▁subclasses
▁cognitive
▁biopsy
▁promoting
▁primate
▁palsy
▁controversy
▁mosaic
▁mg
▁generations
enol
ellar
▁endocardial
deficient
▁escal
mur
▁Sephadex
mannose
▁athymic
ignific
▁neurons
▁arom
▁dismut
ographically
thrombin
▁Responses
▁collic
hemical
▁cytosol
90)
sectional
▁0.08
TGF
▁CRH
▁pelvis
ifugation
10)
▁9.
▁stenosis
▁alanine
▁arrhythmias
▁efflux
adecanoyl
▁Glu
ainide
▁nonresponders
▁clinicians
▁gluten
▁infar
▁enrich
▁nonspecific
▁undertaken
▁PMNs
▁thromboembolism
16
▁urine
SBP
▁stabilized
▁omeprazole
ylation
3.
ancreatic
sis
▁kain
odynamic
versely
Cys
▁COOH
▁IDDM
oplastic
-26
6).
alc
alasin
▁-2
ometr
▁househ
▁sickle
blind
▁.05)
▁intim
MLP
▁ampicillin
▁iod
rP
▁elas
rous
hene
oxygen
▁atmosp
achial
▁hypocal
Ba
▁degeneration
▁electrode
▁ingested
▁solvents
(-)
▁CRF
vember
orec
▁RII
▁outcomes
▁discharge
mented
▁rejection
tium
concentr
▁glu
▁ergometer
▁151
▁50,000
zymes
▁(2),
▁reass
▁deficiencies
▁innerv
▁nonsteroidal
▁filamentous
▁moiety
▁sagittal
CoA
odgkin
▁sustained
▁HS
▁eosinophil
▁iso
idespread
onuclear
▁3.6
roma
▁troponin
▁0.30
▁antidepressant
pendicular
▁12-
▁adjus
▁myocardi
ophag
▁7.4
▁nitrogen
▁theophylline
▁perturbation
▁stressed
▁vestibular
▁kinetic
▁Recom
▁nasal
▁Epidemi
▁ECG
▁bacteri
▁nursing
▁migraine
fem
▁Nuclear
▁artic
▁pancreatic
▁incubation
▁precursor
▁64%
iated
▁inflammation
▁phagocytosis
▁comprehen
▁FEV
▁reactivation
▁immune
▁ASA
▁inspiratory
icillin
▁TSH
▁radionuclide
12,
5).
▁dorsal
▁respec
▁reperto
▁Ninety
▁Factors
▁hypere
▁astrocy
▁innervated
▁Assess
bloc
proliferative
▁pulmonary
(2
▁anxiety
▁dissemin
ropha
▁latencies
▁defective
▁myosin
▁43
▁hypothe
enzyme
▁ventilated
Hu
▁biologic
▁52
otox
yronine
▁passages
rogenesis
▁56
▁stroma
▁reticular
▁glucone
▁phagocytes
▁endings
▁emphasized
▁ultrason
▁Glucose
▁disseminated
▁10%
ulates
interferon
▁outbreaks
▁EG
lethal
bruary
▁6.1
▁assayed
▁hyperins
▁TATA
▁octa
TG
▁substantially
▁lowered
▁tuberc
carinic
acer
amole
▁treatments
▁Carb
▁transposition
ycl
histamine
▁185
▁swimming
▁Membrane
struc
▁hydrocortisone
▁analogs
▁cistern
8]
▁40-
▁detrimental
-[
▁Amin
▁aggregated
▁averaging
▁felodipine
helin
RV
▁nodular
EAE
▁FcR
opause
pressure
▁radiologic
▁stomach
▁targe
▁ulcers
▁physiological
tations
receptors
▁circulatory
orough
athetic
▁5.1
ipitation
▁perit
▁prolactin
hydroxylase
▁strain
▁encompassing
ypro
otopic
arynx
▁Insulin
▁antioxidants
▁25
▁Findings
▁manu
▁diz
▁immunore
▁carcin
BV
veolar
▁abor
▁specificity
▁vaccination
wes
-15
▁abdominal
ilution
wk
▁reag
▁obstruction
▁hemat
mokers
▁fascic
activation
epiandrosterone
▁63
▁pKa
▁reversal
ocomial
▁CABG
▁mA
▁hypertrophic
▁7-
▁copper
▁gastrocnemius
▁MW
▁ances
▁weakness
▁tendons
▁trend
▁cofactor
▁dose
menopausal
2),
affinity
▁devised
▁antagonized
▁3-
▁serotonin
opulmonary
▁neurob
▁undergo
▁hypothyroid
▁availability
▁hereditary
▁investigations
▁cortical
▁melatonin
▁vincristine
moderate
▁tyrosine
anthrene
▁carbonyl
▁CGRP
▁23,
etidine
▁GVHD
▁olive
▁posi
ulous
▁.01).
▁lutein
▁cryst
▁intubation
▁Acet
▁apparatus
▁rearrangements
▁tubercul
▁NMR
▁dele
tophan
▁bilaterally
▁nocturnal
trone
▁tracer
▁platelets
▁positioning
apeu
▁GS
▁asymptomatic
▁affinities
▁dibutyryl
▁emotional
▁differentially
VT
▁untrained
-50%
▁choro
tide
▁0.35
vation
▁deprivation
vely
▁discrimination
▁detec
▁morphologically
valence
oil
▁flap
ocor
▁EPR
▁COS
▁MLC
▁(1.3
chers
▁antisera
▁neoplasm
▁dopamine
▁sensory
▁fetuses
▁1988,
monary
▁Coronary
▁answ
-28
isol
▁Urinary
▁BH
oreal
kephalin
rele
▁transformants
▁membranes
▁disulf
ococcal
▁3'
inone
▁microtubule
▁ganglia
▁nucleic
▁obstetric
▁chymotrypsin
omatis
▁bilirubin
▁interferon
▁polysaccharide
▁arousal
inally
frequency
▁phenotype
▁nephrotic
▁radiographic
▁24%
▁exudate
▁examined
54
▁semen
▁inver
ophysical
▁hairy
itr
▁anatomical
.6,
▁Vmax
▁alkal
controlled
▁tac
▁sympathetic
▁Stimulation
dU
tingu
traction
▁linearly
▁cyclo
▁ileal
▁transfusion
▁ADP
▁bronchoconstric
▁leukemia
▁embryonic
▁176
operative
greater
▁ventilatory
pended
50
▁eluted
▁utilization
▁strains
▁tension
▁(25%)
▁microsomes
yclic
hepatic
▁additive
▁vWF
ophils
▁ventricles
▁postnatal
▁chloramphenicol
▁hypog
▁erythromycin
▁provid
arean
▁orally
▁testes
tionally
▁0.005).
▁hemolysis
▁bleomycin
▁genic
▁presentations
▁beha
inhib
▁(2
fib
urine
eces
▁plastic
alanine
▁0.02).
▁propagation
▁odds
ethyl
otyp
9)
▁OH
philic
ficially
70
Sepharose
urgery
▁fertility
tosis
tice
acetate
▁oxidized
7-
▁allergen
▁thirds
▁cardiomyopathy
▁catalyzed
mercapto
▁condyl
nRH
▁imposed
▁8.6
.0)
sied
erant
▁departments
▁lymphocytic
▁20)
▁Immun
ensities
▁abrog
▁elongated
▁melanoma
▁potentiate
8%
trition
/10(
▁4.4
lational
▁dib
▁anticoag
▁condensed
▁gastr
aminob
▁Pain
labeling
otor
▁8.1
plasmin
▁absorbed
glycero
▁adequately
omerular
tive
▁21
earing
▁sediment
▁skeletal
▁sensi
estis
▁vasodilator
▁5-10
▁synov
sulfate
▁aureus
▁167
▁angl
▁enal
▁toxicity
adders
americ
ipital
▁147
▁absorb
▁longitudinal
10-
▁proteinases
▁orthostatic
▁modest
oplas
▁100%
iagn
▁carcinogens
▁(67
oglobin
▁tightly
▁suckling
ponin
▁weaning
releasing
▁tegmental
amethonium
▁lesions
median
▁disturbed
carboxy
.1
▁melan
▁trabec
▁usefulness
▁natriuresis
omegal
▁Different
▁constr
▁reflec
▁constitute
▁Meth
itidine
▁dextro
▁plasma
omyel
soluble
▁(35
▁cholesteryl
phs
adex
▁mutants
▁disper
▁autoimmune
PSPs
▁monomers
▁0.98
▁glycolytic
tead
▁0.6
Mg
▁4.1
▁radiolab
▁prevention
▁epitopes
▁metabolically
