▁skeletal
▁tiss
▁sensi
▁Americ
erating
▁avail
vian
hetamine
▁metast
ulose
▁glut
ronch
restricted
▁foc
versity
ophilic
▁nig
▁decreased
▁exer
▁lumbar
▁symptom
▁duc
tical
kine
ffin
▁duodenal
▁tas
▁proximal
uretic
ulant
▁PCR
▁glucocortic
▁differe
tivity
▁lesion
oglobin
▁substitution
▁diminished
▁pleural
▁incom
qui
▁cann
▁quin
▁intensive
▁stimulation
hep
▁distal
sors
▁bicarbonate
▁antic
▁osmotic
ocl
▁excision
▁ineffective
▁valve
▁stenosis
▁bir
aminop
▁Hb
estion
▁Calc
rates
▁recr
lusion
▁advan
▁fetuses
▁postoperatively
▁chloride
Ig
treated
tention
▁excretion
▁conditioning
▁beha
ults
▁bowel
ochrome
itonin
LV
▁endocrine
bral
▁plasminogen
opathic
▁interleukin
▁subsets
▁mL
▁titers
▁ach
generation
▁dopamine
odium
▁inhibit
▁Comparison
▁filtration
▁throm
▁hepat
ariate
▁adrenal
▁cef
▁criter
▁steroid
▁blot
▁correlated
▁lymphocytes
tion
LISA
oplasty
emia
dominal
▁prognostic
▁progres
▁deterior
▁favorable
enal
▁somatic
assi
romycin
▁deterioration
▁cardiac
▁retur
▁clinically
thmia
aline
▁analgesia
▁cancers
▁fluoride
▁NP
▁wee
imin
▁devi
phen
▁graft
▁HB
odies
▁chronically
▁nasal
osomal
▁pathology
oride
molec
▁practic
ration
▁thir
▁abdominal
▁hydrogen
▁persisted
▁impairment
▁minus
▁trig
din
▁supple
olamine
coated
▁postnatal
▁dye
▁limb
▁scanning
▁anemia
▁mono
▁glyc
▁concentrations
▁donors
▁auditory
tiv
▁potent
▁Subjec
▁biopsies
tinu
▁subcutaneous
▁clus
iotensin
rele
▁hormone
▁optimum
▁HL
▁dihydro
hyd
▁decarboxylase
▁detectable
operatively
▁offspring
NB
inesterase
▁thre
▁Nine
illi
▁malignancy
ocar
▁scans
▁sedimentation
ignific
▁cartilage
▁identif
ostic
idin
resist
▁testicular
▁estrogen
tinguish
▁cutaneous
▁resul
▁predominant
▁underwent
nec
iatric
▁cortisol
uting
▁kinase
ocytosis
▁yeast
crib
▁synthesize
trac
▁EG
▁reversed
assium
▁resection
▁hep
▁benign
▁differen
▁prognosis
containing
▁sampl
▁cervical
▁contex
▁provid
enicillin
▁bladder
plasia
otre
▁assay
▁antibody
sively
olytic
irc
rologic
▁thems
otox
tained
trum
▁cohort
▁suppressed
motic
thyl
▁fracture
▁doses
▁interferon
hydrop
▁asymptomatic
iasis
▁systemic
▁diaz
dered
▁fixation
adily
cessive
▁ischemia
▁fibrillation
monary
lood
▁lipoprotein
▁standardized
▁Addition
invasive
itone
▁contracep
ylated
▁membran
▁verte
rosis
thmias
▁secreted
tox
odil
▁Hyp
▁lipids
▁weakly
etal
mediately
orbent
icine
▁uncom
▁Treatment
▁substantially
duction
amus
▁gonadotropin
▁regimen
▁hypog
obl
▁hepatocellular
ensitivity
adequ
ducing
esity
▁coh
▁fetal
▁evaluating
leb
oracic
▁arti
▁histopath
ochem
▁transplant
▁hyperplasia
▁diastolic
lox
▁sti
alian
pecific
▁graf
terase
▁operative
▁indications
▁inflammation
▁elevation
▁limbs
lysis
▁satis
▁systolic
produc
▁immunity
▁concurrent
mL
▁reser
ficial
▁averaged
▁heterogene
▁kidne
▁plas
tive
▁percutaneous
feren
▁inflamm
▁wk
▁carcinomas
▁mell
▁refractory
tition
idne
achol
iol
ranial
▁citrate
otyp
▁premature
▁alcoholic
protein
ergic
▁quantit
▁mmol
adian
▁tomography
tensive
oglobulin
ipit
▁lidocaine
ectom
toc
▁exposures
▁endometrial
drug
bearing
▁placenta
▁complication
otypes
▁neonates
adrenergic
▁dissection
▁chor
roscop
▁dosing
anine
▁IU
▁inges
▁soluble
▁drin
▁morb
▁controver
▁summ
iotics
▁hypothe
▁infec
ophys
eared
▁saturated
▁prostatic
▁unrelated
▁exce
taining
▁angina
spective
▁lact
gluc
dose
▁markedly
ofl
▁chan
▁stren
▁theore
▁lymph
▁mellitus
associated
▁intake
ophren
ogenicity
▁drainage
▁microscopic
▁hemat
▁isolates
▁effic
yro
otrexate
micro
▁HSV
geal
▁albumin
▁peroxide
▁autoimmune
▁bypass
▁disturbances
▁predic
▁precur
▁mann
ffeine
▁sepsis
▁detec
ovascular
▁HPV
▁Increased
▁functionally
▁immun
acid
ocrine
▁melan
▁heterogeneity
estions
▁progression
ocin
▁inten
ographically
▁fung
anding
ocaine
Rs
▁assessed
▁decreasing
zymes
entif
tron
trop
▁embry
enic
teral
roscopic
ucle
ocellular
▁onset
ereb
tiveness
▁Afric
▁diarrhea
▁bronchial
▁cytochrome
uria
▁cryp
▁concomitant
▁esters
respective
gesterone
▁squamous
clin
▁gradual
▁lumb
positive
vity
▁prospective
▁hypot
onstric
▁potenti
▁glands
▁infectious
teroid
otri
illar
▁thromb
scher
trol
tors
▁infarction
▁lipid
▁retinal
▁Thirty
▁antigen
▁atropine
siveness
▁ingestion
▁tric
▁HLA
▁restric
genic
▁atrial
▁venti
urgical
ostatic
▁statistically
▁chemically
aryn
▁RA
▁objec
▁questionnai
pH
▁retrospective
▁aspirin
▁colorectal
anking
▁immunized
vice
▁gluc
▁comprised
▁intermedi
epine
ergy
scherichia
▁fibr
▁transfusion
▁dors
▁incub
▁affinities
oxygen
ophag
▁Patients
▁irregular
▁induc
▁PV
▁calor
▁predictive
▁arth
▁atten
controlled
▁fluc
DNA
▁accep
▁responsiveness
▁intub
▁commerc
tance
▁anat
uric
imens
▁characteris
deficient
▁intra
▁previ
▁experim
acetic
▁tubercul
ionic
clic
quid
▁identi
oretic
▁infar
ifedipine
▁demonstrates
trogen
▁pancre
▁examinations
▁kinases
▁confir
▁respiratory
▁encephal
tro
▁adip
▁hyperp
▁cumulative
olism
osterone
▁ppm
▁nifedipine
▁enhances
▁contractions
▁cartil
opausal
▁duplex
tiz
▁allergic
ept
▁pancreatitis
▁esophag
ximum
▁insulin
▁Clinical
lux
ologic
▁arthritis
▁omega
▁acet
tively
asone
veness
iminary
▁hypothyroid
▁promin
▁unex
luding
▁Hep
azol
▁diets
lym
▁nicotine
▁substanti
acin
▁linearly
▁phenyl
▁IgA
▁Staphylococcus
▁hypotension
yrid
▁mice
molecular
tioned
idase
▁contrib
▁ventil
oluble
▁cate
gic
iotic
▁infants
▁assays
▁angi
▁physici
ergency
▁positively
mature
oscop
▁gestational
▁markers
▁calcium
▁differed
▁etiology
ospitals
itus
▁metabolism
orac
▁predominantly
titis
posure
▁obstruction
▁malignant
▁insufficiency
▁bip
▁hydrox
▁antibodies
gative
▁decreases
▁shorten
sia
▁ischemic
▁magnesium
regulation
astric
arial
tility
lyl
▁elimin
epithelial
ygen
▁edema
▁sten
▁newborn
▁chol
▁amo
▁microscop
ilic
▁examin
amycin
ilateral
▁adenocarcinoma
idazole
▁placental
▁resistant
▁phenotype
orec
▁testosterone
ffec
roph
▁fractures
▁anesthesia
▁cereb
▁duoden
▁rheumatoid
▁alcoh
erad
encephal
▁myc
▁injur
▁adequ
amines
ylic
▁opioid
median
▁rhy
immun
tric
▁inversely
▁airway
▁salivary
▁intest
▁orally
▁aspec
mia
idate
▁consis
▁amph
▁randomized
▁mortality
dine
▁Measure
▁pancreatic
▁struc
aturated
sulf
entral
flammatory
▁capillary
ocys
▁Doppler
▁triglycerides
▁sediment
▁zinc
▁ae
▁ambulatory
▁cerv
onine
▁invasive
traction
chol
releasing
jun
▁glucose
▁deli
▁unclear
▁triglycer
▁deoxy
▁strains
▁mobilization
▁fasting
▁electr
▁suppres
rox
▁stu
tension
▁electroly
▁bran
▁Escherichia
▁physiological
▁reac
▁cholesterol
viral
quisition
▁ventilation
▁hypo
methyl
otoxicity
tur
ocomp
ogenous
osom
armac
▁sci
▁neutrophil
occal
▁Leu
seud
zard
▁aspartate
▁compartment
▁Meas
topril
▁localized
▁synthesized
enia
rease
▁biopsy
▁gon
▁gels
▁fatty
sistent
▁yielded
▁detecting
dial
▁carcinoma
trib
ints
adm
▁recurrent
opa
▁acces
▁histology
loxacin
▁specificity
▁Initi
utaneous
▁ane
▁tach
▁FEV
▁intermittent
▁adop
ycin
▁extre
▁manifestations
▁consecu
olol
oxic
▁membranes
▁glomerular
▁pregnancies
tituted
astolic
▁interf
▁amplification
▁Hg
▁induction
bac
▁progn
yridine
▁tran
▁selective
▁acidic
▁rats
▁acute
▁Increas
hydroxyp
▁preceding
atitis
throm
▁lesions
▁gestation
organic
BH
tents
▁methionine
ionine
▁oxy
cyt
▁hypers
▁scre
▁gastro
ylase
▁resonance
▁coli
▁antagonist
▁intracranial
▁investigations
▁metastases
▁neph
▁blocker
enzyme
amuscular
▁aureus
stimulating
▁pneum
tisol
▁brom
▁ester
rocy
erative
april
▁prednis
▁elec
▁multic
ositi
mented
▁statis
▁hypertensive
▁unchanged
blind
echn
▁vaccin
hypertensive
▁perip
▁cessation
▁exhibited
omethacin
▁iso
▁attributable
▁Bac
iloride
▁infarct
▁tolerated
▁anaerobic
▁decreas
▁coag
tensin
▁proton
lob
▁LD
menopausal
rhy
▁expres
▁subjective
mol
loid
▁eryth
tory
vul
▁arrhythmias
tran
▁bic
tivation
vic
▁malign
▁polym
▁reduc
ortic
▁imaging
lobin
▁endoscop
thma
OH
ospor
▁spor
▁undergo
▁metastatic
▁carriers
itamin
oscopy
▁bilirubin
▁reflux
▁noc
centr
yste
till
osal
▁stimul
xate
mentation
▁discon
▁seroton
▁biochemical
▁fatigue
▁brainstem
▁ultim
▁spon
onyl
▁IgG
opo
▁pec
▁demonstrating
▁CG
tual
▁aqueous
▁ligation
▁reactivity
▁fas
▁susceptibility
▁neurop
▁sulfate
aryngeal
▁cardi
tivities
▁excre
piratory
omotor
▁serum
▁micros
reas
▁immunos
▁Evidence
▁decarbox
▁analogue
▁vitro
▁echocardi
▁saturation
ectin
iability
▁satur
acr
▁implants
oprotein
▁extrac
idated
▁shor
▁nutritional
▁cyclo
apamil
▁agonist
▁hyperg
thyroid
▁injected
▁simult
▁mening
▁trac
epti
▁kidneys
sibly
pine
etan
▁vesicle
▁diabe
pecially
iae
otoxic
▁anticoag
▁obstructive
cribed
▁endogenous
otrop
estis
▁experimentally
uminal
▁administered
orrh
TG
sive
keletal
▁amiloride
▁suscepti
▁normo
mittent
turb
▁studi
GH
utable
▁regulating
▁angioplasty
acil
▁pati
oconstric
▁retic
▁oste
▁congen
▁saliv
▁extracts
▁coronary
osamine
peptide
▁hypertrophy
▁reflex
▁maternal
▁lute
▁ultrasound
▁spre
▁ket
▁allele
▁soy
▁vascular
▁symp
angl
▁substances
▁symptomatic
ethylene
tative
▁complications
▁arter
effec
▁enzymes
romes
▁hypoxic
oneph
trover
▁carbohydrate
amethasone
▁Compared
▁enzyme
▁accounted
▁definite
▁progesterone
ropathy
▁respec
asal
toxic
▁gastric
▁metabolic
Hg
jected
plas
aturation
▁pathologic
▁cyt
▁rati
ocortic
▁urine
orption
▁leukocyte
ymptom
ensi
atient
sA
▁memb
▁enl
▁intrac
▁leuk
▁glycoprotein
aicin
patients
▁erg
▁pelvic
▁LT
▁regurgitation
▁femoral
▁electrodes
▁uptake
▁pep
▁deposition
▁posi
umerous
▁pharmacokine
▁postin
▁ocular
▁pneumon
ophageal
▁conductance
▁thereafter
▁underg
▁acetate
▁hypothalamic
acet
olysis
tis
viron
▁graded
illary
floxacin
ogl
▁correlate
ociated
tec
thmic
risk
▁underst
ayed
▁severity
orpor
▁nitro
▁renal
▁prolactin
▁lowering
atation
▁dosage
BV
ceptive
urther
▁dysfunction
idine
▁verapamil
▁erythrocyte
▁regimens
▁remo
▁sulf
ymptomatic
▁paren
natal
▁inducing
▁hypox
omal
enteric
▁pretreatment
versely
▁calcitonin
pir
▁luteal
▁calf
opro
▁hemoglobin
▁adherence
affec
▁pertussis
▁responsive
▁differentiate
eded
▁focal
▁histologic
▁smokers
▁Serum
▁ow
yel
▁arterial
LDL
▁Sixty
▁neutroph
▁schiz
bacco
▁bacterial
bodies
▁effec
resistant
▁cultured
▁injec
acrine
nine
sion
ometh
xia
▁tes
▁rheum
▁Whereas
▁diffic
▁cavity
jec
ichia
▁persis
▁TSH
▁abnormality
▁expressing
tious
embran
▁immunoglobulin
▁Insulin
ctive
▁ery
▁remission
▁morbidity
▁vein
▁differenti
bic
▁molecule
erate
coh
▁repor
fusion
▁questionnaire
▁hetero
omat
unctional
▁undergoing
▁Significant
▁plateau
mental
▁elastic
sies
▁arteri
tum
▁conjunction
certain
▁ejection
▁neon
▁sple
▁paired
ovirus
▁usefulness
arrhythmic
ipr
eptide
▁monitored
▁Fifty
▁ulc
▁vasoconstric
illin
▁peripheral
▁termination
tel
ontal
openia
▁MRI
▁plaques
erb
▁asthma
entricular
▁proportions
▁neurotrans
rein
▁multiv
▁carotid
insulin
▁coated
▁prophyl
▁supplementation
▁hypertension
NH
▁ventricular
▁acetyl
ordance
ecu
cepti
fec
▁regression
▁ect
sess
lytic
▁nonspecific
▁prevalence
mend
▁assessing
▁casein
▁generalized
alc
retin
lyce
osus
▁subgroup
▁Thir
▁ratios
lyc
plants
▁nodules
▁compartments
▁efficacy
▁retention
▁granul
▁rhe
icep
▁peritoneal
▁polyp
illus
osts
cine
▁transi
▁lutein
acting
▁incidence
owel
▁CI
tural
▁TC
ventricular
▁enti
▁melanoma
▁comple
hydrox
▁defects
arrhy
▁direc
usp
▁differentiated
▁urea
pig
spectively
rine
▁psychiatric
vely
ogens
terol
asic
▁contamin
▁frac
▁acids
▁conduc
▁ure
taz
yroid
▁thyroid
▁cerebral
▁ulcer
stim
▁discharge
▁vesicles
▁steroids
▁regurg
▁behavioral
inally
ymp
▁inhal
▁smo
▁veins
irub
sych
▁insertion
▁choline
▁hemorrh
▁dorsal
tically
olus
▁immunobl
▁converting
▁challen
▁reversible
▁sero
itrate
▁carcin
▁analyses
▁bloc
▁biphasic
▁LV
esium
▁unstable
▁discontinu
▁clon
urea
operative
▁emerg
▁intrav
▁glycos
▁incomplete
duce
▁inflammatory
cholesterol
▁unaffected
venty
▁qualit
tial
lip
pregn
meth
▁parental
▁prophylaxis
brom
▁selec
▁leukotri
diabetic
▁fati
▁antagon
ucl
▁poten
immune
essation
▁uterine
▁suppression
eak
mega
▁uterus
tally
athy
▁junction
rogenic
▁attemp
odon
osyl
leu
▁exten
zyme
▁blockers
▁construc
▁obesity
▁antibiotic
vices
eces
▁impaired
▁eti
▁cortic
▁anomal
▁LDL
venous
▁coagulation
ociation
inic
ogenic
▁probes
▁immunization
▁pituitary
tage
▁capsule
inemia
▁enlarge
▁repres
▁infusion
▁nicot
absorption
▁gland
onary
oderm
istar
▁injections
▁deficiency
▁agonists
oxide
▁propor
irubin
ethyl
omized
leukin
▁physicians
▁recordings
▁lar
▁regulate
▁analges
▁tended
▁cen
▁preparations
▁defic
queous
▁quantified
▁hydroly
timal
reast
▁lavage
▁Tran
▁valu
▁plasm
▁antibiotics
▁histamine
opathy
robial
▁aerobic
atible
tomy
titution
▁latency
ithelial
ecal
▁contraction
▁expiratory
ectomy
▁reductions
tics
▁immunosorbent
ocor
igaret
onin
ranolol
▁protoc
▁gonad
arbonate
▁vitamin
olated
nai
▁estradiol
▁retin
▁angiotensin
▁isch
ocyte
tured
▁evid
▁bilateral
lycer
opres
▁epidemi
vents
tine
▁inhibitor
ctomy
▁morphine
oag
▁combin
ritin
dition
▁comparative
omycin
▁quanti
▁heparin
▁pate
DH
▁influenz
acted
▁possi
▁ferritin
▁requi
▁IgM
rents
▁deficit
▁captopril
▁lactation
▁longitudinal
uble
okine
gth
cious
avage
▁fluids
icin
HB
greater
aemic
otting
▁Bec
terone
▁nonc
radi
▁activator
uscular
▁cytoch
ipine
▁adren
owever
▁myocardial
▁sham
▁inhibitory
▁parathyroid
▁preven
▁attenu
ureus
tif
▁intestinal
coun
▁perin
acchar
treatment
ocyt
▁cyst
▁vaccination
trial
▁glomerul
▁abnormalities
▁cephal
▁angiography
dia
romy
▁dehyd
elves
onucle
▁compounds
▁proce
▁traum
urys
ocardial
▁initiation
opus
itant
▁pharmac
▁prostaglandin
▁cyclospor
itro
▁abnormal
▁glucocorticoid
▁hemo
▁correlates
▁acqui
▁interc
▁benz
tero
luded
Cs
▁carbohyd
▁supra
▁inadequ
▁comparisons
adren
ulla
▁monit
▁pH
▁implicated
▁succin
ayers
▁ovarian
▁normotensive
▁vaginal
▁simultaneous
urrent
oprol
▁herpes
▁supplemented
▁receptor
▁transient
responsive
▁reproduc
hea
▁splenic
▁deviation
▁prospectively
tially
▁produc
▁amn
bumin
ocytes
▁suppor
▁assis
lycemia
EG
exposed
▁recom
uresis
sions
▁dox
▁peri
orectal
Ca
▁ascorb
cence
amide
renal
▁Twelve
▁surgical
▁infections
elec
ergen
▁pulmonary
▁pretreated
uted
tingu
▁nec
trical
loro
gia
otassium
▁intravenous
atoid
▁canc
eric
▁hepatic
▁untreated
▁attrib
amel
feron
▁atrophy
▁creatine
sibility
▁elimination
▁perc
▁numb
▁affec
▁ranged
ograms
▁judged
▁fibrosis
utions
induced
▁screened
ifferen
esti
kely
▁quantitative
chlor
▁chemotherapy
▁Ig
▁lith
▁hemorrhage
▁moderately
▁clonidine
▁techniqu
▁influenza
trin
▁aden
tact
dle
▁hypoth
▁hepatitis
▁defec
tures
ucose
▁cys
▁induce
tral
tic
agic
▁chlor
▁precursors
olesterol
▁tumors
▁bronch
▁beats
gely
▁perox
▁resec
▁pigment
▁lumen
▁obese
▁mucosa
▁conges
▁impair
rowth
ffe
▁glomer
▁retard
▁venous
▁amp
otroph
idation
▁actin
▁tox
▁fetus
oidal
▁sodium
▁ana
▁horiz
wes
antial
ticular
▁depres
selec
▁recor
▁hypertro
otropin
▁amin
▁biop
reased
▁colonic
▁hypothal
ditions
▁subgroups
▁bolus
▁compli
▁occurrence
▁recipients
opamine
▁differing
▁exis
▁congestive
▁sequenced
eration
oyl
▁cystic
▁intrap
▁pulses
LH
lier
athyroid
lated
trated
▁splen
ture
ximal
▁receptors
▁establ
erence
tions
lys
▁exceeded
▁dex
▁transferrin
▁pressures
▁therapeutic
atients
▁agon
▁elic
▁creatinine
▁instrum
▁pediatric
▁panc
tation
▁oxytocin
crip
hydr
reactive
▁androgen
▁basal
▁guinea
odal
▁antagonists
▁dilatation
otor
▁thi
arbox
▁duct
tracted
▁fractions
▁plasmin
▁pyr
▁compart
erated
accharide
echan
▁idiopathic
▁dietary
▁residual
entical
▁kidney
▁menstr
lact
duced
▁reactive
chloride
▁spontaneous
▁spinal
▁pla
▁Hear
ifed
adic
▁abor
▁caffeine
▁muc
oic
▁triglyceride
▁perfusion
hydro
bility
▁uter
▁thrombosis
ophy
went
▁prolonged
▁islet
▁diabetic
actin
oxin
tin
sectional
▁clamp
▁Neu
▁esophageal
phal
ffinities
olec
tives
▁toxicity
▁stric
ignificant
▁viral
▁tuberculosis
▁obser
▁ech
▁allergen
oplasm
▁methyl
▁reas
▁discus
▁quantif
▁dimethyl
hion
directed
tional
scop
▁indus
▁subjec
fib
ipramine
▁nitrogen
▁relapse
▁neonatal
yroxine
▁phosphate
▁unilateral
▁propranolol
azole
▁postoperative
▁reflec
odiaz
erin
vation
▁dexamethasone
▁pharmacokinetic
▁artery
partate
▁urinary
▁superficial
▁TP
▁inh
yrox
uppression
▁asthmatic
aminase
▁adap
usate
▁pyl
▁reticul
▁infusions
sible
▁congenital
▁bac
▁potassium
tration
▁histological
▁balloon
phosph
flamm
▁subc
itin
▁ECG
▁toge
▁concom
onography
olone
onate
▁variability
▁rup
▁qualitative
▁preoperative
rometry
▁reproductive
phic
tice
▁uro
▁developmental
▁elevated
▁renin
ocardi
▁ultras
▁intram
erent
bacter
tein
tus
▁intraven
▁cis
phil
▁lateral
▁latent
▁ovulation
vascular
ameth
esic
▁viruses
rected
▁testis
ardia
▁inhibitors
intestinal
▁adverse
▁rectal
▁cros
limb
▁HDL
ilep
urine
▁cardiovascular
▁outflow
ypical
▁inser
ochemical
piration
▁ELISA
timulation
▁prol
▁relap
epam
▁MIC
▁indi
▁adi
▁increas
lobulin
▁ori
▁placebo
lec
▁transcription
ophil
▁phosph
atum
teroids
▁stimulus
▁alanine
tussis
tent
ulatory
oxid
cyclic
▁indomethacin
thmatic
hyp
osin
bladder
ritis
▁cruc
▁sugges
▁tumor
adder
inergic
▁pneumonia
▁tib
▁gradi
bly
▁recurrence
anol
onomic
▁mitral
▁Forty
