▁ultrasonography
birth
mented
mental
▁BV
atment
▁validated
onol
sies
▁spon
▁shor
oscopic
Hb
▁obese
ineal
rotein
▁uptake
▁Neurop
▁inadequate
▁practitioners
▁Adverse
epit
ocytes
ffer
▁quantit
▁inflamm
erated
▁sampl
▁patellar
onatal
namic
▁circumference
▁Treatments
carcin
ocaine
ocl
▁atropine
razole
▁mucosa
▁Asp
▁catheters
▁overlaps
itro
▁systemic
quit
▁insufficient
▁thir
▁morphologic
ronch
agin
▁psychotic
▁TBI
▁irradi
▁CI
▁suppression
▁overestimated
licular
▁Analy
▁HCC
▁nosocomial
isture
cad
▁amyl
ept
▁UT
bac
▁disruption
ailure
▁episodic
▁intake
▁gly
▁reliably
piration
attern
erad
orectal
▁bedside
▁hormone
▁predicting
▁intrauterine
relations
lac
▁chor
fine
leu
▁sedation
▁conclusive
▁psychosocial
essential
▁phenotype
▁endemic
asive
▁Kup
▁cla
▁insertion
ergy
ilic
▁renal
omial
▁cystic
erate
▁readings
▁prophylaxis
▁overexpression
▁behavioural
▁multivariate
vival
▁tympanic
ectomy
▁saline
armac
moid
tial
▁ablation
itoneum
stolic
▁fracture
▁contral
▁Considering
▁undetectable
HB
▁Contr
taken
▁hepar
▁stratification
▁uremia
▁streptococci
idement
▁mediation
▁summ
Tn
opam
▁counseling
▁myo
▁selectively
▁UTI
▁hemisphere
▁RB
▁blin
ods
▁physici
iciencies
▁endpoints
ocardial
nec
lymph
▁correlated
▁pter
▁anticoag
yses
▁Serum
▁fetal
▁Inclusion
ureus
▁hypox
ignant
▁iliac
▁sev
▁MBC
▁valve
▁infil
▁inducer
immun
▁Steady
▁urine
▁engraftment
esia
ults
rele
onc
▁prolonged
▁LDL
lux
▁carc
▁predic
▁pancre
▁remo
venth
BW
▁polyethylene
▁hep
▁nal
▁saliv
▁NH
▁fluor
▁swelling
▁transient
omal
▁depr
▁postnatal
▁neurological
mia
▁antibiotic
▁ambient
▁anatomic
▁injections
▁sphincter
▁Estrogen
▁embry
▁aerobic
▁reactivation
▁cesarean
▁intragastric
▁haemorrh
ivary
▁bip
acr
▁discus
onin
Cer
othel
▁venous
▁nonadherent
genesis
ognition
▁oro
noise
▁subgroups
erican
▁multiv
parative
▁cephal
▁poin
ogra
▁hepat
▁synov
▁evacuation
▁recor
▁eosin
omical
Cu
ximal
ergency
▁differentially
▁cyclosporine
ducts
veolar
FV
trip
alian
▁PCO
Ra
tries
▁tox
▁saturated
▁demographic
chers
ilateral
idis
ituitary
▁sph
▁perfusion
▁transplantation
▁glycoprotein
▁Paget
▁regimens
▁inhibitors
iasis
▁heterogeneity
▁cutaneous
utaneous
▁hypertensive
▁Physicians
▁superficial
▁fixation
▁athle
iferol
▁circumferen
▁disks
▁athe
loid
abies
ithms
ariate
▁abnormality
▁calcification
▁pressures
EG
iosis
tectable
▁excre
▁effic
▁statistically
TNF
▁inhibitory
▁benign
▁APD
rox
adily
▁naltrexone
lym
▁syndromes
mig
saturated
▁excision
sia
▁abd
aventricular
▁spi
▁mellitus
▁improves
▁overweight
▁Severe
▁genotype
▁seropositivity
▁dentists
▁OT
▁resol
▁contex
ths
ration
▁cancellous
▁synergistic
aturated
▁retention
rectomy
▁preterm
▁clus
renal
▁acupuncture
vic
▁evaluations
evaluated
▁measurable
ycin
ectomies
▁modulate
filtration
ulatory
▁tumors
▁hepatocytes
▁predictive
asal
▁prescrib
▁ultr
▁gallst
▁bronch
ivocal
▁schiz
embr
▁unexpl
▁pancreatitis
▁PET
▁NB
▁homogeneous
bral
▁diffic
gely
faction
▁eosinophil
▁Bec
tual
▁VO
▁ECG
▁labeling
▁hospitalization
▁Hyp
lax
ampl
ayed
omedullary
▁enrol
ureth
▁dislocation
athy
▁Ara
▁intrav
▁acqui
itally
entary
▁widening
▁restorative
▁Therapeutic
dominal
▁surgeons
reatine
▁femur
▁glomerular
▁ischemia
▁predominantly
▁tymp
▁connective
ficial
▁smo
▁comprehen
▁distinctly
▁genic
▁intrag
otent
odialysis
▁cerebrovascular
vertebral
▁preliminary
▁metabolism
▁assessments
ocul
▁heroin
▁noncom
▁amyloid
teric
rene
dimer
▁Patients
▁endoc
▁atrial
risk
▁chlor
lood
▁paraventricular
▁preoperative
▁memb
▁metformin
arer
ethyl
▁clinics
▁unevent
▁rati
▁adherence
▁preferen
▁Vitamin
uscular
olated
▁coh
▁IgM
▁consol
icin
▁localized
▁BMI
▁tec
▁artery
gm
▁discomfort
▁FH
Ka
ervative
cture
oradi
▁eradication
osal
cysteine
▁osteoporotic
MV
▁tert
▁desm
itin
ceptual
uted
▁pelvis
▁follic
▁interventions
▁highl
▁perceptions
▁vitro
orative
▁congenital
▁nodules
▁individualized
oprote
ecre
▁Intra
▁alp
atonin
▁vagal
▁infections
hei
▁substitution
▁morphology
enic
▁prognostic
yel
▁schizophrenia
tomy
▁Removal
tam
▁thorac
▁bilateral
▁compli
▁discern
▁GE
urrent
adder
▁microv
SCC
atural
▁evid
tach
jun
▁stenosis
aryngeal
Pa
tific
▁persist
▁sacr
erally
ometrial
▁traumatic
▁postmenopausal
ustif
▁periodon
▁lesions
aemic
▁Multiple
▁canc
▁ket
▁Throm
uality
bacco
▁adolescence
▁esophagitis
▁suppressing
▁errone
▁provocation
▁ration
▁LF
▁Mucosal
dic
▁impairment
▁LOS
▁rectal
adication
idne
▁ane
▁exis
▁substituted
▁prevalent
▁pharmacy
anic
▁precedes
versity
itively
phe
▁GFR
▁reduc
▁appendicitis
▁neurolog
▁perce
▁elimination
mittent
alues
tum
▁rash
ints
orotic
▁onset
eric
▁diagnoses
▁oxygenation
▁deficit
ameters
▁derange
▁sequel
▁Preoperative
▁histological
▁Chan
▁familial
tection
entanyl
MRI
increased
tic
▁neph
▁annulus
injured
lusion
▁diabetic
▁inten
genic
▁hygi
▁correlates
▁peptic
hig
TK
▁heterogeneous
▁intramuscular
▁occl
▁lar
▁stimuli
erance
▁contaminated
Ki
vascular
▁GI
▁sexes
▁Streptococcus
▁markers
▁loosening
▁carotid
▁proliferation
▁repro
inemia
▁physiological
▁Tran
▁injur
valence
▁elic
▁Prospective
geal
▁radiograph
mend
▁juven
ographically
▁mammography
▁merits
▁coeliac
etal
lysis
itance
▁arter
▁pulp
tical
▁chloro
crib
▁surgically
▁nig
▁Alternatively
pT
▁proportional
▁olig
▁rigor
unctional
ressing
▁rCBF
ostic
essive
▁buc
▁sedentary
activation
▁muscul
▁warr
▁IA
tation
▁thi
hering
TG
opsy
▁modality
▁Comparison
▁confron
diagn
▁reproduc
▁curative
▁ketamine
▁microb
▁restenosis
▁tubes
▁establ
▁sut
alc
urys
▁neoplasm
tected
opi
oplasty
LV
▁airway
▁endarte
elvic
omiting
▁cochlear
▁OA
ocar
tering
igaret
▁impair
▁metabol
▁PEG
▁contamin
opia
▁incidence
gents
▁GBS
▁intrarenal
▁TB
atif
PAP
▁retrospective
nutrition
invasive
▁endoscop
▁coex
uccessful
din
eded
encl
▁favourable
▁experim
▁segmental
▁pneumon
oxidation
▁specialty
weighted
▁graf
ithi
itus
▁mortality
▁favorable
▁distinguishing
▁leuk
uting
entan
▁aneurysm
cessive
▁preclude
▁needles
▁evolving
▁torsion
▁tric
▁anastomosis
DH
odal
omod
race
responders
▁glyc
▁splenectomy
▁iatrogenic
▁embryo
lead
▁cereb
▁catheter
KA
▁cholest
▁vascular
▁masked
▁concom
▁somatic
tage
▁supplementation
▁modestly
▁Pregn
▁inversely
olism
atient
▁cumulative
▁Greater
▁oxy
▁chemotactic
ioid
▁continence
ococci
ectable
ysm
▁Effective
ximum
▁carriers
▁BP
odynamic
roma
aryn
▁HI
oratory
▁reductions
economic
▁amyloidosis
estim
▁oss
rents
▁External
▁nutritional
resses
urse
ochem
ministration
▁acute
cious
▁HS
▁visually
▁turnover
▁elucidate
▁repaired
▁lumb
▁warranted
▁audi
gmental
ocytic
▁shortened
▁elu
▁HU
Hu
othelial
cents
threatening
▁limb
▁clinician
▁plur
▁carcin
▁ethanol
trib
gia
▁pathologically
taining
▁irritation
gth
▁HC
▁indetermin
▁epidemic
hern
tate
▁pleomorphic
facial
operative
▁unex
▁endoscopy
urgery
▁deem
▁radiography
ught
▁CRP
▁susceptibility
otropic
uin
▁fatality
▁advisable
aneously
▁eliciting
▁workload
▁VS
▁hygiene
MH
▁hypothyroidism
▁questionnaires
▁intrap
▁lipids
▁CAM
▁chemotherapy
▁occlusal
oagulation
▁hypot
▁LVH
▁esophageal
roin
▁atresia
▁pediatric
▁Percutaneous
▁autoimmune
ubted
▁oligo
▁disapp
acting
asses
vely
ewish
▁bloc
enin
▁prostatic
▁dexamethasone
▁unstable
lesion
ophil
▁pT
▁biochemistry
FH
quired
ctive
▁implantable
▁potency
▁abdominal
▁corne
▁VD
▁detectable
▁alve
▁compressed
▁exogenous
▁allevi
▁Dopamine
▁deform
▁ascertained
▁infarction
▁coronal
▁prospectively
▁polym
▁TK
▁identically
aline
Ca
TB
▁normo
tus
▁concentrations
omotor
▁reac
▁apex
▁enteral
▁secretion
▁transfusion
glum
▁dosing
▁ultras
tro
▁communic
pation
▁striated
▁carcinogens
▁vein
▁somatostatin
gment
ulae
▁testicular
tensive
▁scre
▁influenza
stress
▁feasible
▁adjunct
▁provid
▁melatonin
▁colonoscopy
▁underlie
▁bac
ovascular
ivoc
lyc
▁alveolar
glyc
▁prophylactic
▁anatomical
esity
▁modif
rane
▁prostatectomy
▁PVR
▁OC
▁radiotherapy
sequent
▁acidosis
oxia
▁palliative
▁ocul
▁discusses
▁infiltration
▁pineal
▁PCP
▁fulf
▁TGF
▁laparotomy
atitis
▁Neu
▁discordant
▁acceleration
▁concurrently
▁ventil
igel
CRP
ometr
▁aureus
▁Histologic
▁NP
▁Operative
▁mec
▁atmosp
▁necro
istal
▁confound
▁comparisons
▁arthritis
▁fas
lact
▁inpatient
ulitis
▁chloride
▁diminished
▁vena
ropriately
▁adhering
ygen
▁anatomy
▁HG
stro
▁aden
irrh
▁longitudinal
▁consultations
romed
▁adjuvant
▁techniqu
▁endothelin
▁physi
hap
▁IHD
▁dissection
▁neurop
▁encoun
▁palp
tors
▁phy
jejun
▁glomer
entical
▁manu
oplas
▁reag
▁decreas
pir
▁receptor
▁ESR
▁staging
▁unexplained
DG
▁undo
centr
▁IgG
aemia
▁IBD
▁prevalence
lastic
▁Alter
versely
▁pancreatic
▁excretion
ceptive
ronchial
HM
uccess
▁subtraction
tent
tin
atest
ected
▁leakage
▁inhibin
▁buccal
orphism
uncture
▁depic
urin
▁cirrhotic
▁hCG
▁follicle
ditions
▁Taken
▁molecule
tero
▁deterioration
▁cardi
▁lith
▁elimin
ancre
▁tomography
▁illustrates
▁mell
▁directional
urine
▁carbohyd
▁severity
▁sten
▁neutrophil
osocial
▁Samples
▁derangement
▁initiating
ofol
astric
ulfonyl
enzymatic
pH
rals
▁fati
▁proct
▁vasomotor
asone
▁deli
▁adverse
▁diagnos
▁laparoscopy
ithiasis
stim
lys
▁minimally
▁neo
elan
▁empirical
DNA
▁soy
physiologic
▁undes
▁abnormalities
opathological
▁regulate
▁remission
▁alteration
ophag
▁debr
▁PF
oscopy
▁demonstrates
▁enlarged
sess
▁alterations
▁opi
▁neon
▁APC
▁assis
▁pelvic
▁enucleation
▁determinants
bility
▁tibial
▁HCM
estig
▁validity
▁silicone
▁Kupffer
▁regis
ontal
▁palli
tant
▁fentanyl
▁periodontal
▁cervix
▁RBC
▁psychiatric
atients
▁VL
onad
▁compart
omerular
▁prel
erine
▁prophyl
▁dietary
imination
tead
▁AGE
▁warrants
▁IB
lec
▁ischemic
▁tolerated
ostal
▁tes
▁Alcohol
▁CABG
idate
▁unselected
fal
▁cathe
▁chewing
▁IVF
▁anastom
▁impaired
▁evol
adequ
estis
▁aortic
▁desirable
▁irradiated
▁hemis
▁vaccination
lateral
opulation
prising
▁perone
HF
▁paradig
▁ascertain
▁sensory
▁cholestasis
▁drainage
ergic
▁specificity
▁correcting
erper
ialysis
▁preparations
severe
▁membrane
▁exer
▁unclear
▁adhe
monary
▁Doppler
phosphonate
LN
erations
enhanced
▁deformities
sive
▁biom
kely
▁infants
▁acids
sus
▁develops
amn
▁salivary
associated
atial
▁intrinsic
▁rehabilitation
▁parame
▁inflammatory
▁locus
oic
anding
▁phagocytic
enol
▁poten
▁deficits
▁myoepithelial
adic
▁RP
▁ALT
pies
▁preventive
▁gad
▁uncom
▁vaccines
rophyl
trimental
perfusion
▁amin
tained
▁aort
▁conceptual
▁symptomatic
▁ruptured
▁Atropine
atine
atab
▁mL
▁newborns
▁radiological
omies
▁misleading
▁hormonal
▁glu
▁thickening
ullary
ithin
▁outpatient
phosphon
occal
▁aorta
LF
orac
tolerated
▁transi
▁estrogen
duce
▁numb
▁confir
▁glucose
▁reproduction
▁recurrent
▁ow
ostomy
oplasm
▁resonance
▁facilitated
▁ganglion
Gi
▁definitive
▁instability
▁WHO
▁biop
BK
vice
▁caregi
oskeletal
MIC
▁sequelae
▁bladder
▁deficiency
tak
▁rheumatoid
dition
▁previ
▁homogeneity
certain
▁necrosis
▁oxide
owever
▁ventilation
▁cardiac
▁perfor
▁quantitative
vation
lore
▁lobectomy
▁pati
▁MHC
phth
▁prol
urther
ventive
▁Dil
uran
▁tuber
▁rigorous
▁echocardi
▁screened
▁pulmonary
▁detrimental
OA
▁Blockade
▁comple
astom
▁tib
▁proteins
▁metastas
▁ach
ocular
▁chori
umulative
anin
▁vancomycin
▁pituitary
erin
▁variability
arean
osin
▁mutations
▁latency
▁creatine
▁AE
▁PCT
ucle
▁carbohydrates
▁polymorph
▁thromboembolic
▁adjustment
▁atherosclerosis
▁Pretreatment
ocarcinoma
▁juvenile
AO
cyst
sul
ternational
trast
▁pigmented
▁residency
acil
fos
▁CSA
▁complications
loro
▁angiography
▁disparity
dial
▁Concomitant
▁restric
▁surgeon
▁Compared
▁Bone
▁undergoing
▁labial
onor
▁ADH
▁lymphadenectomy
inol
▁grading
▁anticoagulation
▁complementary
drome
AIDS
▁appendic
ostatin
KD
ensory
cine
▁traum
onyl
cutaneous
▁sci
▁hypertension
sensitive
▁Phe
▁unde
ociation
▁platelet
▁uncontrolled
▁MH
▁simultaneous
▁UL
ologic
evaluation
cold
▁consolidation
idated
ogens
▁trophob
▁inappropriate
FG
▁parotid
▁moderately
▁tissues
▁undoubtedly
▁IH
▁heavi
Fs
keletal
▁Medicare
contrast
▁immunode
quine
▁Phy
▁bronchial
▁TA
▁diluted
▁immunological
▁spati
sue
▁topographic
▁ACE
▁Cyt
ileptic
▁pH
acial
▁amputation
▁phagocy
▁neutrophilic
▁Improvement
▁pall
▁DST
▁therapeutic
umably
▁acetab
▁thromboemb
▁questionnai
▁reproducibility
▁enl
▁gallbladder
▁poorer
▁ovari
ypical
▁coexist
gression
▁rigidity
▁correlate
▁trophoblastic
▁ceased
▁implicate
athyroid
operatively
▁satis
anol
▁verteb
ventional
▁endometrial
hemical
▁histologic
▁allo
urgical
tein
▁reagents
coun
▁extre
▁modulates
▁umbilical
induced
▁pla
▁assay
oten
▁margins
vant
otomy
fat
ture
▁MV
▁concordance
▁scans
idation
mixed
lated
▁pedig
yroid
zard
chol
Ds
spectively
atectomy
▁bir
▁gastric
ritish
▁arteries
▁specimens
▁pregnancies
duced
▁advan
▁CMV
▁predictor
▁increas
trol
▁algor
▁causative
▁supervision
▁BD
▁oste
duction
lix
▁anastomotic
heal
reness
▁ASA
▁mucos
▁ventricular
▁lithotrip
▁HM
qui
Tu
▁hypog
▁chorio
▁sulf
mTc
▁volumetric
▁CK
natal
▁cholecystectomy
▁adjustments
▁Medicaid
▁isch
▁gradi
erable
tion
▁repres
odynam
▁metoclopramide
▁thre
ighted
oglyc
genital
▁withdrawn
▁streptococcal
▁TC
▁resour
▁Tumor
▁ratios
▁porcine
▁topical
quid
erb
▁thresholds
▁neurologic
▁morb
▁wors
helial
▁rebound
agic
Ia
▁hemodynamic
rophy
▁Muc
erative
▁anomal
▁laboratories
▁epileptic
opro
▁gluc
lep
▁excimer
raine
▁skeletal
oru
umulation
▁Acute
trative
▁osteoporosis
▁pylori
seud
▁randomized
▁Hb
iol
▁oils
▁predicts
undibular
▁synthesis
clerosis
mature
▁parental
reported
▁prescribing
▁exo
toc
▁Increased
ections
▁Ig
▁heavier
xiety
▁pneum
▁hepatic
hesive
comitant
▁PCR
ejun
▁maternal
opathy
▁pate
▁cadaver
blast
▁resusc
istrib
▁pathological
▁valu
▁exercised
eak
ococcus
vents
▁fragility
▁comparative
▁perin
rophob
▁erg
▁preferable
▁bipolar
▁ageing
▁studi
otyp
▁overlapping
consuming
hyd
ipient
diol
aginal
▁rhe
otor
kele
▁cigarettes
acerb
mL
▁linoleic
eclampsia
rehen
atid
▁IIb
econd
olysis
▁worsened
▁placent
helin
▁deformity
▁angi
▁Increas
sions
▁hernia
▁ana
utin
agal
ollicular
▁Vac
▁unin
▁malign
▁polyps
▁grouped
▁PAN
orphic
▁tertiary
▁undergone
▁herpes
▁criter
▁pharmacological
▁musculoskeletal
▁cyst
▁adhesions
▁Delayed
derly
SPECT
▁cancers
gative
oracic
osts
▁behavioral
▁nasal
otom
▁overe
▁Systolic
ventricular
iatric
▁microcirc
▁fri
itant
oplasmic
ogenous
▁subgroup
▁proce
vity
▁bene
▁metastases
acet
▁corneal
▁pyram
inic
oscop
▁GV
▁NPC
▁concomitant
▁SG
▁hepatitis
▁undetected
aminated
▁pyl
▁multim
tebral
graftment
▁reperfusion
ochemical
arate
▁counteract
cele
▁Emergency
effectiveness
▁HL
▁manifestation
▁glut
rates
clo
▁inserts
oidal
▁cues
▁prevalences
▁Thromb
anish
trop
▁biopsy
retion
crimin
▁scanning
▁lobe
▁gout
▁ure
discharge
▁Surgical
▁bowel
▁heparin
icine
ervations
▁hemodynamics
otomies
▁nucleus
▁cardiomyopathy
aluation
▁removes
▁obesity
▁thyroidectomy
▁divertic
▁monit
▁immig
▁cue
▁trough
▁appreciably
▁cen
▁operative
▁regar
▁Continu
▁seb
roph
angl
▁intraven
▁insertions
ropriate
▁ICS
▁decreased
▁manipulations
asic
olenic
arcin
▁synovial
▁lesion
▁perinatal
osomal
ociated
▁pathologists
▁accumulation
▁clinically
▁invasive
ograms
sion
▁cann
▁imaging
▁acad
▁serum
▁suture
onset
Cy
Tc
bladder
tinu
tec
▁migraine
▁metast
ocusing
plantation
▁chole
▁stellate
▁pathologies
totic
athe
▁unsuccessful
▁exacerbations
▁multicenter
▁injected
▁cortisol
oung
▁adenoma
▁septum
▁HSV
▁pathogen
cardi
▁Cox
pendent
▁rhy
▁utilization
jective
▁physicians
▁recurrence
▁pyramidal
tact
PV
Ti
▁decreasing
▁bronchi
▁aerob
▁vaginal
onography
rectal
▁examinations
▁surrogate
▁intra
▁deficiencies
▁pS
▁Biochem
▁peripheral
▁tidal
odies
reas
▁relapse
▁DG
▁lax
▁Trial
▁suggestive
▁pharmacists
▁Addition
ochemistry
vac
▁parag
dor
zation
▁thrombolysis
▁moles
▁empir
sian
▁discontinued
urrence
ineph
entists
mentation
▁milieu
rants
acental
ibi
▁ossification
▁linole
hers
▁lymph
▁glands
▁receptors
▁antec
▁endarterectomy
cus
gland
oxif
rogra
▁chond
urethral
▁implic
▁hypothe
▁unilateral
▁unrelated
▁detachment
utions
herence
▁inherent
ostat
▁immature
▁investigations
▁Lys
monstr
▁scoliosis
▁FD
▁organisms
IIIa
▁resear
▁hyperg
hips
▁exclusion
▁genotypes
gesia
▁abnormal
retro
▁prenatal
▁appropriately
▁supple
eptin
▁colorectal
▁fatigue
idney
▁eosinophilic
eal
▁acyclovir
▁colloid
dents
▁cava
▁foc
RH
▁zinc
▁indicators
andard
▁metastasis
▁shif
orax
lowering
▁RM
▁chloroquine
edullary
▁disparate
▁congen
▁collateral
implantation
▁prospective
odic
▁stren
▁decisive
▁Chronic
▁radiographic
▁DN
▁doses
▁depar
▁theore
heum
atell
▁phe
▁fatty
▁physiology
▁ascer
▁pharmac
echan
▁EMS
▁mandibular
▁PAS
ocyte
▁dex
▁resection
▁asthma
▁induction
responding
lob
▁hazards
▁cohort
▁flexion
▁ulcer
ameter
ucleation
▁socioeconomic
ameth
▁intravenous
▁antibodies
vated
▁peroneal
▁illustrate
ediatric
▁differing
▁kerat
▁toxicity
bly
ignific
▁molar
▁HCMV
hemia
▁Chemical
▁Engl
▁PEEP
▁HN
▁respondents
▁geniculate
▁differenti
illic
▁TAA
▁PB
onate
▁restor
▁inflammation
▁undergo
oag
▁bronchoscopy
▁linkages
either
▁gradients
scop
neumon
▁LV
othermic
▁tracers
atrial
ilization
▁plaque
viron
▁MEP
▁positioning
▁discriminative
▁Patient
▁microc
▁attrib
▁contributes
▁overdose
▁laparo
opa
▁scintigraphy
▁follicular
▁carcinoma
▁cannulae
entif
▁RH
▁uncomplicated
▁epi
ocyt
intestinal
rone
immune
▁phag
▁aor
xia
▁estimating
▁hospitalized
▁vaccin
▁edema
▁cocaine
▁depressive
tration
versus
rogenic
▁kidney
▁distin
▁distrib
▁reas
iably
▁equivocal
▁birthweight
legia
erals
▁speculated
▁inver
farct
▁HLA
▁GER
isqu
▁underst
ositive
▁intermittent
▁RAR
▁implantation
dia
▁throm
▁Clinical
▁strom
▁combin
odial
▁atheros
▁melanomas
▁gangl
▁confined
▁cardiovascular
▁investigating
▁immun
▁mucosal
ulcer
opamine
▁melan
▁putative
▁adequ
continu
▁challen
▁perc
▁avascular
lasting
lip
▁migrated
▁satur
▁reproducible
heric
▁causal
nai
▁sequential
lectomy
echn
IgM
▁parap
▁inadequ
fron
▁constitutes
▁discon
▁compartment
▁transurethral
▁redund
▁judged
ubtedly
▁cardio
▁calcified
oplastic
▁neonatal
ellosis
▁elevated
▁hazard
▁ultrason
▁perip
▁socio
▁MRI
regulation
phrine
▁pneumonia
▁palpation
IH
xual
▁arth
▁progestin
▁substantially
▁positively
▁tran
▁resuscitation
▁adenocarcinoma
▁DF
▁GVHD
ivariate
antial
▁prednisone
arous
▁substances
bic
▁occupational
mide
▁infusion
osom
▁defic
▁enrolled
▁interv
▁deterior
onomic
▁thyroid
▁polymorphism
▁debridement
▁MG
▁CPAP
▁inh
▁selective
nee
▁graft
▁enti
▁haem
▁VE
▁atres
▁tet
▁shorten
▁synerg
ilized
tive
▁nec
▁adenomas
relevant
▁tiss
▁intram
▁DSM
urally
▁intensive
▁ovarian
ropine
rine
▁hypoglycaemia
▁headache
▁dilated
▁extensor
atoid
▁thromb
▁unrel
phen
etus
▁tonsil
▁distal
▁overd
▁umb
alp
▁ischem
▁stimul
▁macrophage
▁multic
▁SNP
▁homogene
▁molec
▁tracer
tig
▁monitored
ortal
urate
▁inhibit
▁benz
luc
occi
▁referral
▁resis
▁Tum
▁percutaneous
radi
▁cuff
hep
▁responsiveness
cribed
ifol
▁AMP
▁histopathology
uterine
onit
▁surgical
▁tumor
oxid
▁latent
▁seizures
▁atten
angli
vul
▁FS
▁SCH
tif
APC
rins
▁unresectable
▁OSA
▁MCP
▁interacted
▁reflux
▁fetus
▁gluten
▁underg
▁overlying
▁cervical
▁adhesive
▁uter
▁indeterminate
▁regimen
vating
▁auditory
▁gland
▁clinicians
▁endometr
▁facilit
▁sequentially
employ
▁inhibition
▁chan
seal
LU
jug
▁intervertebral
▁rotated
mur
cence
▁Regarding
▁propensity
▁iso
▁cardiomy
iary
▁complication
▁abl
udin
luent
imens
▁arterial
▁Intravenous
▁Rout
▁assessing
▁corrective
▁melanoma
orrhagic
▁thoracic
kage
▁etiology
Ly
▁hypertrophied
▁sti
▁utero
▁chl
▁sclerosis
reast
▁lis
▁scl
▁reagent
iatic
spective
▁microbiological
▁overex
▁limbs
isol
▁contralateral
▁versa
▁intraoperative
orrh
▁chemot
▁wee
oprotein
▁allergic
▁reflecting
estive
▁hemodialysis
▁differentiated
▁subtype
▁ultrasound
▁atmospheric
erop
itudinal
uvant
▁Accordingly
▁progn
atheter
▁adhere
tions
odon
▁circumferential
eared
thma
▁RS
iferation
▁metabolic
▁avail
regulated
▁occurrence
dose
dent
loride
▁pathology
▁TG
▁vitamin
▁therapies
edic
atical
▁endoscopic
▁verte
hospital
▁elevation
▁stimulation
▁hypoxic
▁immunomod
tel
▁subjected
▁adequately
otrop
▁followup
▁minerals
▁cate
▁emerg
ivation
oplast
▁amp
▁births
entral
inj
esting
▁disappearance
▁efficacy
▁influenz
▁multifactorial
▁concurrent
▁surrog
▁lithotripsy
onary
▁spontaneous
erving
▁malignant
▁amines
▁colonization
▁ventilatory
▁urinary
aceous
▁Whereas
▁heparinized
▁contrib
▁inapp
LB
erating
gulation
omat
▁LC
▁stillbirth
▁hypo
EGF
▁differen
omatic
▁hemorrhagic
itamin
sych
▁reper
▁RA
estions
yro
▁MN
▁ambulatory
▁unil
▁hypoxia
sible
acted
feren
edle
▁symptom
▁conservatively
stem
ritis
astatic
▁sepsis
vail
▁implant
graft
▁gait
▁ultim
▁PRP
oxic
▁Ras
romes
▁aspiration
▁myocardial
▁prostate
▁exacerb
▁coel
itone
▁unres
▁consequent
▁stroma
onium
transplantation
▁MM
ancement
omized
▁Cushing
▁coincidence
▁axillary
▁geriatric
▁HPV
ococcal
▁dysfunction
▁demonstrating
hemo
▁thrombo
▁sciatic
▁Significant
iminary
▁adolescent
▁cyt
▁Contrary
▁physiologic
CBF
▁tamoxifen
▁fibers
▁epinephrine
▁relap
▁awa
▁indications
▁spinal
▁uncommon
▁deprivation
▁Afric
▁adolescents
▁synchronous
▁mitral
▁chec
▁LN
▁Ear
oleic
▁infar
▁hemorrh
irc
▁feasibility
anyl
▁IU
▁Biochemical
▁tumour
erum
CMV
▁stu
estion
usp
▁MRC
▁Treatment
▁anomalies
▁discom
iotic
▁ACL
opausal
▁analyses
▁morbidity
▁Pregnancy
ctomy
clin
▁phon
▁subsp
resting
▁correlations
NH
▁leukocyte
Ig
tens
▁caro
ece
▁indicative
▁sickness
▁advancement
ertion
▁LS
▁insulin
▁lipoprotein
responder
▁eluc
alsy
▁diagnose
▁testis
▁AO
▁systolic
kade
▁gyn
▁tris
▁lumbar
WB
▁eyel
uptake
▁cytology
▁gallstones
▁AMI
eration
▁Findings
▁beha
▁insufficiency
▁omitted
iplin
▁VC
earance
▁pathologic
clinical
▁Comparisons
NB
▁lipid
▁endothelial
ymp
▁bypass
▁leu
▁interc
ophren
▁opioid
▁amput
▁haemorrhage
ectom
adherent
urc
▁vulnerability
▁exce
valent
fusion
gments
dle
▁atrophy
▁compartments
xone
positive
▁abdomen
▁pylorus
▁LD
orin
morph
atories
▁ile
functional
owel
echanical
▁discharge
tis
emia
▁intercostal
pine
ocele
▁anat
▁microm
ystolic
▁soybean
▁SLE
▁prognosis
MN
▁silic
ourable
▁peri
▁pathogenesis
ervical
rested
▁evaluating
ortic
▁palsy
▁Surgery
lapping
▁autosomal
oride
▁identif
▁recessive
vaginal
trexone
▁vitamins
eliac
▁menopausal
▁deliveries
▁muc
▁recom
opramide
▁agon
▁cohorts
▁premature
▁adaptive
▁scin
▁heterogene
ithm
▁Phen
Ba
▁mann
▁differentiation
▁routinely
tyl
▁manifestations
▁stimulate
venous
▁spikes
phic
▁requi
▁emphasizes
▁subf
imin
osition
wk
HN
▁antegrade
▁musc
▁trac
▁PSA
▁nonc
GV
▁mediates
diagnosed
thle
umbar
▁neutroph
▁assurance
▁laparoscopic
▁postoperative
formin
olones
▁underestimated
▁hypers
ophilic
▁Failure
▁cerv
regn
▁crest
fir
ilical
▁PV
▁metastatic
▁usefulness
tib
jected
▁esophag
▁gynec
immunization
▁pulmon
▁characterize
stab
▁apop
▁undertaken
Ta
▁micron
▁Chest
▁abolishes
rati
▁rationale
▁ventric
▁poisoning
▁progression
itic
▁plantar
illary
occus
▁agonist
years
▁examin
▁fragile
▁systematically
ustained
▁preoperatively
▁referrals
thre
iological
▁femoral
erator
amet
▁Ket
▁placenta
▁evoked
▁progest
eces
▁vegetable
unar
▁complemented
▁cerebral
sial
▁drin
▁assays
▁variants
clim
lective
▁implicated
▁psychotropic
▁coexistence
▁FV
▁onc
▁vomiting
▁coronary
rosis
▁postoperatively
Ts
rae
▁ae
ipolar
menopausal
▁displacement
▁chemo
iliac
hea
▁Swed
▁biopsies
▁tas
identical
ressive
▁antic
▁disadvantages
▁somat
▁mediated
▁COS
▁Magnetic
▁rotational
▁cigaret
ipid
▁tol
phal
sities
gic
▁exposures
utroph
▁paradigm
▁microvascular
guided
▁medial
▁employing
▁chol
ACS
IU
▁sulfonyl
BV
▁differentiate
▁anemia
▁tumours
controlled
▁practic
Phe
▁inheritance
treatment
ospor
▁definite
▁enhancing
agit
▁oes
tur
illus
▁discrimin
▁fractures
▁simult
▁identifies
▁synthe
▁consequently
▁pathway
urea
cis
▁predictors
urred
▁mono
▁resected
▁preservation
▁adop
