▁nmol
urosporine
▁79
▁unreliable
orpor
▁20%.
amental
ritin
▁rectif
▁91%
39
ields
sizing
phosphorylated
echan
ureus
▁endonuclease
ervoir
ithi
▁trimester
▁categorized
▁extracts
▁(4%)
GH
16
▁sarc
▁hyperplastic
▁17
▁yielded
84
ditions
▁tryp
▁156
sectional
▁bronchoconstric
▁topo
▁Smoking
▁stimul
▁illnesses
testosterone
▁probes
▁surveyed
▁Thyroid
▁fibrob
▁organs
havioral
onography
▁4-
yx
▁capsaicin
▁275
ingers
opecia
sied
▁indeterminate
▁cerebro
▁microm
▁suckling
▁glycol
▁retur
▁excretion
CSF
▁(7%)
▁glomerular
esity
▁transfusion
▁3.6
▁aspec
ocomial
blocking
▁1,25
▁testicular
▁(1988)
▁overe
trient
▁lectins
-7,
▁inducer
▁parenchyma
predic
ysm
▁Risk
▁oleic
▁manifestations
▁(10(
tyl
urnal
▁rup
▁viability
▁2.2
▁1.8
▁electrocardi
▁SOD
valvular
▁graded
▁glands
dil
▁salic
▁myosin
obl
ymp
iatic
▁bene
▁lysate
▁Therapy
▁subsets
▁aggres
▁metabol
▁800
aryotic
utyric
luores
arcin
ylate
▁kPa
gestation
▁endocarditis
▁toxicity
▁electrodes
▁195
▁recom
▁vagal
▁ultracentr
initi
▁NIH
▁5.6
▁threefold
▁corticos
▁ligand
▁Tox
▁perc
▁Pseudomonas
▁exclusion
tic
induced
▁KD
▁puberty
▁5.0
▁potentiated
▁comparative
▁pathophysiology
▁harvested
▁untrained
▁congenital
icep
▁aggregated
TCA
▁pathways
▁optimum
▁conditioning
▁overweight
▁abnormality
▁nasopharyngeal
emetic
▁territ
▁-5
itonin
▁167
▁capillaries
▁palp
▁surgically
athered
estradiol
uble
▁(58%)
▁symptom
▁manifestation
ipitation
▁retrospective
▁Absolute
utin
▁164
▁TATA
95
▁abr
DH
▁0.01)
▁athle
▁modality
.6,
▁symmetrical
▁lovastatin
tolerance
irone
▁(500
▁deficiency
▁investigating
armac
▁PLP
▁menopause
ASA
▁resonances
ocyan
ADP
▁satisfactorily
-600
▁hybridized
ullary
ensin
▁practic
▁paralysis
▁summarized
▁99%
▁Chan
guanine
▁paral
▁reactivity
▁hygiene
▁cardiomy
▁gum
ficial
▁ribonucle
▁dyst
entanil
▁9.0
▁181
6)
ilts
▁interacted
▁Accordingly
▁isoenzymes
apeu
▁gp
▁aspartate
▁renovascular
▁cytotox
▁bism
▁oxy
ietic
▁4.2
uminal
▁incision
producing
ranolol
▁NP
arrhy
idase
otonic
▁allografts
loid
▁titer
▁inhibit
▁0.75
acet
increased
▁selec
▁4.4
cus
▁Afric
▁unstimulated
ETE
▁PIP
▁ileum
▁6.0
zard
▁HBV
▁Eleven
▁ovulation
▁recr
▁standardization
▁83%
▁(50%)
HM
reflex
▁pooled
▁Ig
arial
-[3
ancomycin
▁signaling
lebrand
▁kinase
▁coping
osaminidase
▁tibia
▁contras
30,
ubicin
▁analyzing
ensory
DG
ulsive
▁chromosomes
▁diuresis
▁maneu
oclonal
pran
genic
▁Hg
uretic
ocyt
-13
▁soybean
trum
▁aneup
▁vertebral
▁(16
▁uridine
ocine
rophob
▁abrup
▁granulosa
12
▁sinusoidal
adic
▁21,
iodothyronine
▁11.2
7).
▁compartment
▁pathological
.0)
▁PaO
▁10)
specificity
▁antiarrhythmic
bisphosphate
▁GMP
▁opioids
merc
cAMP
▁microsomal
▁vaccin
59
▁Vmax
oxine
▁spontaneously
▁interpretations
itone
▁innervated
▁Exposure
▁topically
▁intran
▁seminal
▁(1.0
usate
▁radioactive
▁gilts
▁originate
▁satur
▁striatum
viron
▁SKF
▁oligodend
▁pathology
ofil
▁thromboembolism
▁cys
osarcoma
-80
▁cohort
▁responders
ognition
▁bilateral
▁sequel
▁pectin
occlusion
-26
igand
acin
▁16.
▁histamine
omethacin
▁Cys
▁pathophy
▁kb
▁resto
▁accessibility
▁HC
ogenous
▁Diabetes
▁pharmacologic
▁subjec
kinase
▁variability
▁institu
▁erythropo
▁carbonate
acetyl
▁explants
▁Sensitivity
▁micron
▁6)
glucosamine
economic
▁splanchnic
▁gly
monophosphate
measured
abin
oxone
▁endogenous
▁continuation
▁0.79
▁morb
esin
responsiveness
▁exhibited
▁conservatively
▁phyto
▁codeine
▁upstream
helium
▁serially
▁airflow
galy
▁haem
▁ventricul
uronium
▁intakes
26
▁ulnar
▁intracellularly
frontal
40)
planch
erver
▁progestin
letion
▁contraception
▁myc
either
000,
▁myocardial
ylase
▁qualitatively
▁7.9
▁atropine
▁Previous
transformed
▁Screening
▁replication
.0,
▁nephro
maximal
▁cytometric
▁localized
▁1969
ffeine
91
Gal
tection
▁Intracellular
▁recognizing
▁mann
incubation
▁discharged
tivation
▁cycling
farction
▁Increasing
▁vascul
effec
▁parasite
▁78%
▁suscepti
▁elective
▁triglyceride
cessive
▁responsive
▁gastr
▁100-
▁CaM
▁IFN
▁stimulate
▁distal
▁mRNAs
▁adenoma
▁fungal
▁prednisone
▁Stro
4+
▁staphyloc
▁strom
▁herpes
▁decreases
▁hyperbil
▁metronidazole
▁neutrop
▁dimer
▁scalp
▁0.45
lec
asic
tracellular
▁hybridomas
▁1/
▁endoscopic
2;
▁lam
▁GLUT
omn
▁sedative
▁pancreatic
teroides
▁pore
▁2%
▁anesthetized
iprofloxacin
▁syndromes
▁opiate
▁3.5
hemical
helin
▁2-3
imetic
astatic
▁Intravenous
▁pretreated
mide
cyst
early
:1
▁chromatographic
▁propor
▁laminae
pretreated
▁stimulated
▁behavioral
▁conditioned
-2
▁nicotinic
▁utilization
▁percentile
oporotic
ardia
oventricular
▁detrusor
tensin
▁64
2+]
▁1988
▁polysaccharide
icardial
▁hypotonic
▁immunity
▁Infants
osomal
▁CoA
▁immunostaining
sors
▁6
gans
▁(2
ffinities
emius
▁kinetics
arous
▁0.4
▁justif
▁2.4
rotein
▁exert
▁intercal
▁2,3-
▁envelop
▁questionnaires
▁11,
▁endo
▁subtype
oprec
▁solvent
assays
phs
▁depended
▁hamster
▁Escherichia
ostomy
2/
ischem
aneously
▁isot
▁chlorpromazine
▁intercellular
▁acyl
▁hypot
▁46,
xiety
▁TMP
▁criter
▁mesang
92
▁phosphorylation
LH
▁stres
ethanol
Hu
asone
▁glucagon
▁spas
▁resorption
▁dextro
▁endoscopically
atening
▁epithel
▁quantification
oxetine
mur
ximum
crist
▁vena
▁TGF
rangement
quid
▁(39
▁natriuresis
7,000
fos
lovir
globin
▁trigg
▁posti
▁pleural
▁refractory
thromb
▁Taken
enic
▁masked
▁Biochem
esthe
▁4.0
▁plexus
LR
▁COOH
▁(10(-5)
▁colonization
▁semin
▁Recurrent
▁insensitive
▁predicting
▁unfol
▁sial
▁warran
▁scin
ubertal
quinone
▁valpro
arying
▁RNase
98
▁bacterial
562
glycoprotein
▁erythropoietin
▁ascites
▁protocols
▁patency
alasin
▁accid
▁7.8
▁PB
▁nitrate
▁occupational
ocular
▁synaptic
entif
omotion
▁227
▁infarctions
isite
trin
▁prednis
▁prol
▁tetra
▁discrimin
▁4.3
▁57
▁aureus
▁contractions
ulae
▁(2%)
spar
▁pools
-6
78
▁precipit
urred
etidine
▁Factor
▁stepwise
▁stenosis
▁(79
partate
▁1.5
▁palpable
phyloc
▁atherosclerosis
▁1.4
osomes
modulin
▁secretion
phine
▁OKT
▁specificity
▁foci
▁potent
▁expectancy
▁impairment
▁streptozotocin
HIV
ithin
▁103
▁3.0
▁Ia
oten
▁FN
▁thrombolysis
icardi
▁nec
Ds
▁extracellular
▁orthoped
odil
deriv
urin
.4%)
▁echocardi
▁lining
tality
dL
placebo
▁euth
▁homeostasis
▁amiodarone
mL
▁(4.8
▁ligament
▁hypoxia
llate
ilum
otoxic
▁preliminary
▁instillation
▁hypercal
▁ANP
ystokinin
▁carbamazepine
physe
▁mell
receptors
▁transfected
▁attrac
▁additive
▁immunoglobulins
▁chondrocytes
idation
0)
otide
rolateral
tices
ophyll
tetr
subunit
iatum
▁deviations
rosis
oagulation
▁inflow
▁42%
▁elastic
▁benzodiaz
▁suppres
▁immobilized
▁43%
examin
▁strepto
▁abolished
▁micrograms
▁aspirin
ithium
▁downstream
▁tamoxifen
▁percentages
▁Oral
▁4.9
▁Multiple
itoneally
graphy
▁mediastinal
oprost
▁cytoskeletal
▁luminal
▁Delayed
▁swabs
▁HMG
▁SPF
▁fores
CDD
median
▁valvular
gulation
aminated
▁introduc
ralfate
kground
▁7.3
▁transcribed
▁rods
▁(80
oblastoma
▁carcinomas
▁85
tants
▁amine
▁fourfold
▁lymph
▁10(9)
male
▁10(
dU
▁19.
11
2]
▁macromolecules
▁0.42
▁insignificant
▁intermediates
▁stimulates
Ki
silon
▁pate
▁113
▁hemorrhages
▁derivatives
tivity
▁solitary
▁alternating
▁4.5%
▁commerc
▁puber
oxamine
▁satis
▁offspring
▁modulated
▁ampicillin
▁attenu
6).
▁desensitization
aminase
(3
▁buc
▁cofactor
▁dilution
▁antral
▁precursor
▁vancomycin
imens
carbox
adecan
85
▁complication
▁ventral
▁vigorous
▁60.
▁PBL
▁(60
▁0.02).
opulmonary
▁0.03
24,
▁56,
gmental
▁precordial
▁hyperplasia
▁eosinophils
enec
▁linoleic
ovine
▁anteced
lytic
▁mitochondria
▁Engl
ocl
▁expressing
▁prematurity
ductive
▁enrol
▁Evid
suppres
▁PLC
▁resected
carb
▁Failure
▁prolonged
▁venous
▁plasminogen
▁tomography
14)
▁nonsur
SOD
▁accumulated
obases
3.
ogra
▁infrequ
otrophic
▁psi
▁89
▁pem
▁cavity
▁donors
▁ferrous
IgG
ylamide
dotoxin
▁umbilical
HB
tib
acrylamide
▁endoscopy
DV
▁titr
▁exchan
▁systemic
73
▁pancre
▁0.04
▁ultrastructure
▁penile
▁aggregation
▁diploid
ture
▁hered
▁uteri
resting
ospasm
▁3.3
resistant
▁stimulus
▁pyel
▁lability
▁expon
4)
▁Suc
ystag
▁lysed
titude
omycin
erating
omegalovirus
ubular
▁allergens
chloro
▁retardation
▁amplitudes
himb
uanti
▁antagon
▁grouped
▁tes
▁favorably
▁monitored
went
▁turnover
▁19
oreactive
▁surgical
▁vagotomy
▁74
imurium
▁Effects
▁confined
▁weighing
▁endocardi
PaO
▁arteri
▁comprehen
cis
▁determinant
▁juven
▁1980
grams
▁spirometry
tetradecanoyl
97
▁comparisons
ulmonary
-2,
4%
ectomy
▁predominantly
▁androgen
▁innerv
▁80,
▁anticholinergic
▁3.2
▁Surve
otre
▁enrichment
eric
▁mellitus
▁neutropenia
enal
chool
▁starch
erb
▁1990
▁9)
▁zymosan
alian
▁Ps
mortal
▁Apgar
azone
▁0.81
▁enlarge
mittent
ositol
▁cann
▁kappa
ympathetic
▁12
▁stoichiometry
▁cromoglycate
▁hepatomegaly
▁198
-38
operoxidase
illar
▁tolerated
▁.0
▁autoantibodies
pirone
▁enroll
▁136
filament
opoly
▁serotypes
▁30,
▁Perc
urate
othyronine
kephal
▁voluntary
▁refrac
olerance
▁preoperatively
▁0.56
oside
▁jejunal
▁-1
▁sheath
▁Extensive
▁thyroidectomy
▁splic
▁diabe
trous
alcip
uin
▁350
otent
enoic
▁exceeded
▁HTLV
▁0.3
▁55
▁experimentally
-2).
▁indo
▁quantitatively
▁rotational
rospinal
ipital
▁lith
▁femoral
▁ovary
dii
▁helix
▁emboli
▁Ace
▁83
▁Myocardial
▁(3%)
▁motility
▁alkal
▁Cardiac
▁(21
▁aeti
sive
potassium
▁229
▁rectum
▁triphosphate
ometh
▁premature
▁ori
▁subunit
endazole
▁0.86
▁myristate
▁grafting
oea
▁proce
▁rifampin
▁antagonist
▁supernat
loidy
▁monocytes
yoto
ocardial
roxic
▁0.11
olamine
▁monkeys
▁aldehyde
eeding
▁histologic
▁latencies
▁overload
lyce
▁phosphorylase
▁111
▁hypercap
▁MHC
▁diaphragm
▁nocturnal
▁elevations
▁ionophore
▁Sixty
44,
oic
▁Concentrations
▁-0.6
▁marrow
▁molar
-17
▁anomal
tinent
▁avoidance
▁supple
▁aneurysm
concentration
▁resection
▁muscarinic
▁BK
▁monit
amycin
▁compe
lysine
▁neonatal
-96
▁Injury
▁RU
▁jaundice
▁overestimated
▁transmitted
▁washout
▁colliculus
▁73%
▁uterus
▁deline
▁bipolar
oxide
▁indefinite
▁134
istar
elan
opausal
▁Depression
▁aerobic
▁pneumonia
▁sedimentation
▁acids
▁73
tenosis
terminus
▁plasm
▁defects
▁agon
▁thre
▁BMD
▁immunohist
tional
▁appendicitis
ifug
olec
creatinine
▁heterodim
▁hyperpolar
iotensin
inally
oblastoid
▁regurg
▁Platelet
ncies
▁conflicting
▁locus
▁cava
olytic
▁kidne
▁Gly
▁MCF
urons
▁308
uronic
▁31,
sparing
▁Strep
▁characteris
▁theore
▁investigators
▁Fifty
▁malign
(2+)-
▁restenosis
Fs
azoline
77
▁transduction
38
▁scientif
roitin
▁cessation
▁adhered
-19
▁fulminant
▁efficacy
▁23,
▁dipyridamole
▁relevance
▁maturation
▁similarity
atinine
▁argues
▁(86%)
▁underestimated
▁Hyper
tine
▁65%
▁electrolyte
▁histidine
encephalic
▁subend
▁fasted
▁tuber
+,
▁intrad
trig
olone
▁bac
lated
▁80%
▁3,
-70
▁transp
opolysaccharide
atitis
2)
▁ischemia
▁illumin
▁prolactin
gesia
ylated
▁dibutyryl
▁migrating
sodium
alic
opeptide
▁quinidine
▁21.
rene
sively
hydraz
opsy
▁junctional
▁1,25-
▁Individuals
▁multim
▁(=
▁pector
oglyc
▁diminished
leu
▁Biophys
▁calcium
erance
motor
▁validated
ometrically
lob
-8,
▁collateral
ejun
▁physiologic
▁drainage
tropine
tene
-8)
▁GER
▁spectroscop
▁migraine
▁alveolar
▁Ade
receptor
▁hypocal
▁injur
▁electrode
heres
▁formulations
▁assessments
▁27,
tosis
calor
eptides
▁cortic
▁concomitantly
99
▁subpop
radi
8%
cyte
ipril
▁Initi
embran
▁poorer
▁Cul
illary
-2.
▁elimination
otypic
Pa
phenyl
▁19-
-21
▁10(-10)
apeptide
▁hGH
▁18
ogenes
▁regained
▁pM
▁parasites
▁notic
.9%)
▁hypog
▁(46
▁nipple
tilb
uodenal
▁anaesthesia
▁Ninety
▁solids
▁aqueous
immuno
adap
▁TC
tetric
Nase
▁unchanged
▁parap
▁0.1%
ophysiological
▁Diabetic
▁Meas
-36
▁hepatocyte
mented
rosemide
▁stu
▁-3
▁critically
posure
▁adenocarcin
▁homoz
▁0.43
▁CHF
▁Eighty
▁allogeneic
aryng
▁efferent
heal
4%)
.1
thi
▁evol
uppression
▁0.05)
▁DNase
400
▁predominant
▁112
sulph
▁cysteine
▁spectroscopy
olateral
▁nutrient
▁toxin
▁irritant
▁intrinsic
▁metastasis
▁catecholamines
▁Eco
▁lactate
▁hepatitis
dies
▁examin
▁schiz
▁sensory
▁sacc
▁cerv
▁nitrous
▁4).
▁specimen
▁postural
iably
oselective
tructural
mitter
▁phi
▁hepatotoxicity
emide
▁0.13
▁1.7%
▁MAb
▁SRIF
▁benzo
ACTH
▁irradiated
▁facilitation
▁suppor
enem
▁Coronary
esium
▁illus
KD
▁116
▁relap
▁(24
▁connective
▁sympathetic
▁actu
ludes
▁0.05%
▁LVH
tis
▁0.0
▁gon
vice
▁anterograde
uclear
tetrahydro
tious
▁140
▁chewing
▁routinely
▁3.
▁arthritis
tives
rometry
8,
/12
▁UTI
▁immun
▁jaund
partic
Ox
▁apex
▁1987.
▁nontoxic
tiguous
▁dye
▁presentations
▁0.35
▁restric
▁electr
▁cornea
owever
▁lipase
VIP
▁pmol
▁74%
responders
▁ophthal
▁cytoplasmic
▁suggestive
▁unexpectedly
▁Adverse
ulph
▁8.2
▁Recombin
lowering
▁mening
injected
▁proliferating
▁VO
▁750
▁acyclovir
▁9.9
▁catechol
▁joints
▁elemental
-)-
▁nitroprusside
▁regulates
▁lipoprotein
oil
ugular
▁adop
erican
nitro
-(2-
▁fulfilled
▁lambs
oxo
▁dor
hydroxyphenyl
▁aerosol
▁acetaminophen
▁deposition
tice
▁psor
▁ELISA
anad
lobin
oxin
▁vesti
▁systematically
▁DBP
▁chorion
▁androstenedione
epsia
▁centr
▁sca
▁Biochemistry
ayers
▁ultrason
▁1989,
▁prostaglandins
kinetic
testinal
▁reversibly
▁metoclopramide
27
BV
▁constric
▁postin
▁diame
chid
▁pyram
▁amphetamine
▁88
▁paren
obutyl
anadate
▁repertoire
-60
oposide
gesterone
▁(43
▁adrenal
▁0.3%
▁(1.6
▁0.22
▁supr
▁myot
▁(1,
▁fluorescence
oxazole
▁39%
ophilic
▁deficient
▁fluctu
▁expiratory
▁inversely
hene
▁70-
quisition
▁simult
▁lipoxygenase
▁acupuncture
▁hypnotic
▁antioxid
▁lysates
▁suppression
1).
tual
▁increments
▁frog
traum
▁polymorph
▁incremental
▁GS
▁discriminate
▁gyn
▁rectal
▁tumorigen
Ly
▁inoculation
▁oxide
▁(41%)
▁contradictory
▁Epidemi
.2
▁spontaneous
▁derange
▁hypoxic
▁(+)-
inamide
▁degrad
▁placenta
olesterolemia
oxim
▁contraceptive
▁spleens
cemia
pregn
drome
▁inh
hea
▁diverged
atite
▁1,000
achid
▁0.97
▁dithi
▁progesterone
▁prel
totic
/8
▁possesses
▁starvation
2+.
menopausal
▁125
▁2-
erate
▁nominal
entgen
▁lowers
▁superim
▁polarity
associated
ypass
▁messen
ochemical
▁averaged
▁41
-27
▁lact
▁71%
▁decreasing
▁axial
▁hypoxanthine
▁mediators
thase
▁peripheral
▁deform
▁membranes
▁diagnos
tigu
▁nutritional
▁Doppler
▁(9%)
72
oxif
10-
▁0.95
▁terfenadine
▁junction
haem
▁RIA
▁LPS
▁PGI
5%).
▁smear
▁fractions
▁opioid
accharide
▁TCR
▁plas
▁amp
PMN
▁autologous
▁29%
tric
▁deuter
adrenoceptor
▁saphen
▁1-2
3'-
▁omega
▁transferase
▁derangement
▁GABAergic
avir
▁2000
▁phosphoryl
82
lymph
▁ganglia
▁[14
▁Rout
activating
▁instrum
▁electrically
ogenetic
initiated
▁DTH
▁neomycin
uling
▁anomalies
rophenol
▁blasts
▁sexually
▁33-
▁phage
▁subcutaneous
osynthe
▁lidocaine
deoxy
ods
thrombotic
▁malignancies
-90%
▁modif
51
arcoma
▁vasopressin
thanol
6),
▁clomiphene
▁complications
ospitals
▁Stimulation
▁progeny
▁abdomen
▁ECG
omerular
oag
inol
▁indirectly
▁benign
▁Arter
retic
pendence
alkyl
MW
▁Doses
▁comprise
▁10(-4)
▁urea
▁resuscitation
acute
▁narrowing
tamine
▁angina
▁cephalosporins
▁ecz
apamil
teral
▁modeled
▁ultrac
▁saphenous
▁stimulants
▁nonpregnant
otoxicity
▁peptide
opeptidase
▁stimulatory
▁stric
▁nifedipine
▁circumflex
quired
▁insoluble
ensitization
ept
▁Depending
triglycerid
induc
▁Rates
▁DP
▁(0.6
irradiation
▁isomers
▁gastroenteritis
ediatric
▁Estim
1-2
▁6.
HN
▁arti
▁amoxicillin
▁oxidized
RNA
▁Plate
asses
▁293
▁spp
▁concurrently
▁iat
▁soy
▁sigma
▁Pharmac
achnoid
▁rats
▁thyro
lax
▁2,
▁direc
▁+/-
▁hemisp
▁ech
▁erythromycin
▁(27
▁proteases
arbonate
parathyroid
▁reagents
▁CAP
▁121
▁prostate
▁Higher
▁lymphoblastic
▁Magnetic
▁21-
▁0.60
▁GVHD
▁LPL
umbens
▁nitric
▁cerebrospinal
ilin
▁(99
synthe
vix
▁Combination
▁SCC
▁vanadate
▁2)
▁milder
imeth
▁cytometry
▁82%
odies
▁hydrocarbon
▁-10
aminop
ipramine
duce
▁hippocampus
▁Michaelis
▁flas
ycline
luded
isomer
functional
▁carcin
isolated
▁Peripheral
thick
▁chromaffin
▁carcinoma
▁sepsis
▁80%,
127
▁(17
▁Hear
adren
eded
▁anticoagulation
▁obesity
▁reductions
romal
49
oderm
phyrin
farin
romycin
ovastatin
▁synthetase
omegaly
▁lumbosacral
30
▁cobalt
tinguish
▁phleb
▁7.2
▁phospholipid
lep
bladder
▁IU
▁HPV
aginal
▁esophagitis
▁pelvic
▁palate
▁allergy
ordial
▁unid
▁0.01).
BAL
▁parental
glycine
ureth
▁actinomycin
▁granulomas
▁16%
acial
▁autoradiography
▁attenuated
adone
▁Comparison
▁bradycardia
▁1.15
▁cGy
1;
hers
dimethyl
▁urticaria
▁myel
▁yeast
▁Electron
▁recor
▁mucos
▁tric
▁Tiss
▁10%,
trical
▁effluent
▁elec
▁islet
▁.001).
▁102
▁Entero
▁feces
▁reactive
▁elab
▁Assessment
▁1000
▁cate
▁allergic
▁Arterial
▁ventricle
▁inspiratory
affin
▁parity
▁1989.
▁estrogens
▁afl
organism
▁diarrhea
▁kidney
ropathy
▁indexes
▁analgesic
opril
▁15%.
▁bronchitis
▁1:
▁collec
▁segreg
▁51%
ofib
000.
▁leukocytes
▁sensitivities
voltage
POA
osclerotic
▁virulence
▁neph
▁encoun
▁exacerb
othal
▁clinician
▁4.5
▁Few
▁formaldehyde
▁abundant
-3.0
ilus
olipoprotein
▁lesioned
onam
▁suppressed
lox
/3
▁subjected
▁owing
▁unsuitable
idone
▁neuropsych
▁6.5
▁vincristine
▁eluc
▁mannose
▁217
▁neurons
enia
▁40,
oste
▁cocaine
▁glycolytic
▁150
ordance
▁0.91
▁PGF
▁antagonized
▁reabsorption
▁ventilated
SEM
▁reflux
▁proliferation
conjug
▁keratin
▁pHi
otor
troph
▁Thirteen
▁preserving
opre
▁evacuation
▁caries
vices
▁EMA
▁atten
▁EF
▁cocul
▁uncomplicated
▁birthweight
▁40%.
/9
▁paradoxical
▁neuros
iferative
▁lisinopril
▁mosa
▁0.89
▁derm
▁germinal
▁Elevated
▁1.11
▁0.87
▁tymp
ontal
▁renal
▁(30
▁chemotherapy
amino
▁mAb
▁mediate
▁Crohn
▁AII
imodipine
▁drip
iparous
▁194
▁immature
▁potassium
pinephrine
▁0.36
▁aldosterone
▁primed
▁epitopes
▁hypo
▁glycosylation
▁catecholamine
riton
jected
udation
▁alve
entanyl
motic
45
athyroid
conditioned
▁epidermis
▁0.001).
lymphocyte
▁nonselective
MN
▁methylation
▁phasic
▁incontin
▁antibiotic
ecan
▁BW
▁ventrolateral
▁headache
▁isoprenaline
▁insufficient
▁bolus
6;
▁81
Cs
▁endotracheal
▁oocyte
▁injec
PGE
thoracic
ustained
▁nylon
-75
▁adul
lational
renal
▁serologic
▁Lyt
avage
▁crude
Gly
▁defibr
porting
▁utero
omyelitis
▁radionuclide
▁protracted
Ca
orrhea
soluble
▁isotope
929
▁23
ulose
▁TNF
▁Patient
▁0.0001)
erum
▁900
▁hyperins
unctional
▁100
▁hormonal
ysto
▁20)
/10(
5),
continu
lobulin
▁Prel
▁inflamed
Trp
availability
▁gentamicin
pharyngeal
odds
▁monolayers
▁transmembrane
▁organisms
uestion
▁reduc
▁deficits
▁endometr
▁0.5
-6.
▁granular
cephalic
▁CNS
▁indications
ipid
plate
▁preservation
▁ventilation
lyc
.1%
▁foc
▁anae
▁transcript
▁placental
▁dialys
itant
.6%)
▁symp
▁cil
▁amines
otomy
▁potentiation
▁IK
diol
entia
▁islets
▁dilated
▁unusually
▁alkylating
▁ORF
ishman
ucleotide
▁oxygenation
▁colorectal
▁25,
▁bradyc
▁187
▁apparatus
▁assessed
▁chemotactic
▁DG
▁TCA
▁mixtures
▁exerts
▁simplex
▁endocrin
titutes
▁peptides
▁differen
molecular
▁Prevalence
tissue
▁Swed
▁outflow
retion
▁resultant
▁attainment
pation
amide
▁casein
▁neuronal
LDL
▁gm
omers
▁choroid
anding
▁8%,
▁whereby
▁undetermined
astric
ruc
IGF
estig
▁cis
▁increas
▁triam
lycer
▁lys
kinin
▁hyperlipid
-450
resistance
▁(1.9
▁pressor
▁typhimurium
TGF
▁ACTH
▁permits
▁enkephalin
')2
epti
▁spon
opharynx
ureas
iodarone
▁Trial
▁58%
amido
iliac
▁186
▁melanoma
▁0.51
5'-
.5%)
▁lysosomal
▁analytical
▁salmon
▁(200
▁DSM
▁1)
▁innervation
algia
▁DEAE
▁antero
▁vege
arbox
▁1.5%
▁isoflurane
▁awa
▁progressed
hemo
▁14.5
rometer
queous
ammon
▁constructs
-4
▁bacteri
▁HRP
▁inhibits
.6%
ofluores
tyrosine
▁12.5
atical
aterally
toli
▁exaggerated
ocortical
tochem
▁effectors
▁iden
/100
▁midbrain
▁carvedilol
▁13%
▁deleterious
dIns
▁titers
NK
anav
▁occurrence
▁hypers
▁hypertension
▁47%
▁carbohyd
▁castration
▁MgATP
adjusted
▁mucosa
tivated
1]
ethylene
tering
▁cyclic
▁transi
▁absorbance
▁(25
▁autopsy
Ta
▁abd
▁simian
▁averaging
▁peritonitis
▁49
▁188
▁Mast
ctive
perfusion
▁TT
▁calibr
▁titrated
idazole
choles
▁testes
osine
▁colic
▁glutathione
▁sugges
ovalent
urospor
▁lar
proven
▁colos
-2-
▁theta
▁ketanserin
oconazole
▁concentrations
▁choles
▁WHO
▁nonp
▁resusc
▁propionate
▁interne
amid
▁gelatin
-7)
2(+)-
▁arterial
▁capsid
▁Acad
cence
▁fibre
▁cimetidine
▁1991
▁vitro
▁84
▁thromboxane
▁prosthesis
▁IDDM
▁mycobacter
▁bronchi
▁ulc
estrogen
▁thym
▁ascer
▁glycos
▁diarrh
▁4-5
%).
▁estrous
▁EPR
ospor
odal
▁ICa
▁rupture
▁glauc
▁residues
activated
▁hemodynamic
▁dietary
tro
enicillin
▁quantitation
▁tracer
atid
▁anatomy
ignificant
▁singlet
imetidine
hypertensive
▁somata
inoc
selective
▁7.6
▁successive
▁regimens
ameters
▁bp
▁hapten
▁Continu
▁erg
▁diuretic
▁MIC
▁cardiomyopathy
vation
▁dosing
▁saturable
ofl
▁imipramine
▁subgroups
indolol
.0%
▁ADP
▁Ala
imetry
otid
▁premenopausal
90
sus
42
iloride
▁tetan
▁Median
▁colchicine
ervative
▁NR
▁medulla
econd
saccharide
inum
▁contracted
▁diurnal
inergic
orphin
▁regeneration
▁minimally
inj
▁reproduc
keletal
▁insulin
▁undetected
▁MN
HPLC
▁EGF
▁MBP
▁efficacious
▁phenol
abbit
▁55%
▁outgrowth
▁Gonad
▁favoring
▁pigs
▁potenti
▁Seventy
▁triad
ameth
tocin
▁Prol
ypical
▁heterosexual
chloride
▁0.17
▁dissemin
▁whee
▁construc
▁hematoma
▁3'-
▁3-
▁ole
ilization
-7.
-65
▁antagonistic
▁PTH
▁glucose
estion
▁Fischer
▁(1.4
▁datab
▁200
orrh
.8%)
▁cyanide
redoxin
▁adip
▁colonic
▁homogeneity
acting
MV
▁Insulin
▁Sertoli
.00
lood
▁endometri
▁discomfort
▁Subjec
▁Measure
▁haemoglobin
adequ
▁hemorrh
▁infar
▁exons
urgery
▁brady
▁pulses
▁yielding
▁0.88
pharose
▁MCV
▁observational
ilep
imus
uted
cephal
▁inhibin
▁acinar
▁arteriosus
▁elic
▁Regarding
▁denti
▁sputum
iclovir
paired
▁-0.0
▁remission
ulants
▁striatal
▁hypother
mentation
▁dorsal
trone
himbine
▁amenorrhea
▁hypon
▁CBF
+/-
ogenic
▁50%,
▁17,
▁myocardium
▁ventilator
▁desaturation
otropic
▁transpos
▁[32
urrent
▁ligands
▁resembling
▁tran
uplex
▁somat
▁sonography
▁neurotensin
▁circadian
liters
▁mite
▁dissected
▁occl
▁accelerated
yclo
endi
▁EE
▁antim
▁mortality
▁heparin
▁palsy
okinase
▁pacing
▁facilitated
▁demographic
▁thyrotropin
▁synov
-30
usually
entricular
▁(67
▁0.19
10.
EG
-1.2
▁plex
kelihood
▁antich
▁erythema
▁122
▁antide
▁tubule
gely
▁Epstein
▁chymotrypsin
.1,
▁nal
clerotic
ithelial
2%)
gic
▁Bac
ylephrine
▁jugular
▁10(6)
▁oncogene
▁Pt
diagn
▁alkyl
▁exocrine
herol
▁recombination
▁breeding
▁emerg
-72
▁adjusting
▁gingival
sions
arrh
itic
virus
▁PDGF
chicine
▁digested
geneic
▁anhydr
ylene
▁borderline
▁(2.5
oratory
14
osid
▁chimeric
11.
0.6
▁oriented
▁coated
kine
▁isometric
▁5.2
▁genomes
▁acin
glycero
acetic
▁tracheal
vitamin
ecal
viruses
▁recruitment
-20%
▁encodes
omatosis
TNF
▁displacement
66
▁bFGF
▁mice
ographies
▁permeability
certain
▁pneumon
▁endothelin
▁vitamin
thel
▁[1
▁transformations
▁assayed
▁abl
ardized
▁pulmon
▁electromy
▁tol
thma
tact
ectin
▁HLA
▁microscopy
▁intravenous
▁24
▁carboxy
▁pharmacokinetic
▁reperto
▁albuminuria
▁cochle
▁amygdal
▁puncture
▁2/
▁stimulating
hydryl
▁converting
ensi
▁neoplasms
▁trache
glyc
planted
▁reflec
trated
/4
▁dischar
adin
▁fractionation
▁swit
▁epidural
ovarian
▁uniquely
gthen
▁Wistar
truction
-(1
▁positively
notic
bearing
▁maturity
▁optic
▁progenitor
▁42
▁Incidence
▁decayed
▁fluor
▁infil
imetric
fal
olam
▁phospho
phosph
▁hepat
▁IgA
▁molec
astatin
ANF
filaments
18)
▁celiac
uginosa
adder
▁furosemide
▁arb
erence
tified
▁(18
▁competi
oalveolar
▁AUC
▁insuff
▁peroxis
▁incub
Glu
▁submaximal
▁ESR
▁undertaken
▁cortex
▁inser
otone
▁employing
▁adenylate
▁subclinical
▁lactose
▁ducts
▁cytoskeleton
ycin
▁pneum
▁cultured
20
▁60-
vity
▁leukemia
▁[35
rals
▁SLE
▁54%
xone
siology
▁Plasm
▁bactericidal
▁acetic
▁interleukin
upuncture
▁4.7
▁chemo
ginine
roprus
▁allergen
lofen
46
tam
▁brainstem
▁mmHg
▁toge
stained
reasing
▁anatomical
▁persisted
▁caud
regulation
▁propensity
▁Increas
ichloro
▁inactivation
ohyd
▁apnea
▁progn
▁syncy
▁hep
-2.5
-1.5
▁splenomegaly
alact
▁Sodium
osyl
▁otitis
▁ruptured
myristate
▁IVC
▁enlar
▁microv
▁1988.
▁adolescence
▁reinfection
▁leukotriene
▁Glut
▁subdural
electric
▁295
▁ejection
▁esters
▁(5)
▁aor
▁cytokine
▁1989
iasis
▁3.8
▁syngeneic
▁chel
▁accumulate
duction
▁adminis
▁21%
facturing
▁lupus
▁identically
▁parietal
▁4.
▁retin
▁autoantibody
▁quantitative
▁infertile
▁serogroup
▁ICU
▁preeclampsia
▁densities
▁weaker
▁isotonic
▁falciparum
orepinephrine
▁arous
thood
chrom
▁appra
▁(197
acerb
▁5.1
▁2.7%
▁specimens
▁scintigraphy
yroxine
akary
▁glycoprotein
Ls
▁provid
▁resin
▁Tumor
▁contractile
▁glycemic
▁submuc
▁supplements
▁Infusion
▁anesthetic
-0.
▁immunosorbent
▁brid
▁Activation
▁5.8
▁45%
▁1,25(
7)
▁pepsin
▁postsynaptic
▁postprandial
▁Radi
▁emin
lamydia
▁outpatients
▁paradigm
▁PEG
▁psychiatric
▁dialysis
▁sows
▁exploratory
▁pulsed
▁fluoride
▁biliary
▁Ure
▁cytosol
▁Cells
▁impulse
perfused
▁choline
▁adversely
ffe
portion
▁rRNA
wes
▁febrile
37
ergenic
edic
-4-
▁pectoris
▁seques
-11
hexidine
oppler
omical
5).
▁faecal
▁13.3
▁cylinder
▁RA
▁TPA
brids
dehyde
50)
▁outbreaks
▁proteinase
ipine
toxic
▁sympath
▁circumference
▁hydrogen
▁kinetic
▁Conventional
opo
▁fractionated
▁hepatocytes
2(
terious
emias
▁mutation
plenic
ositive
▁indomethacin
▁18.
ximide
▁hydrolys
▁pyrid
▁frontal
▁42,
tility
▁simplified
ffer
▁chorio
accharides
conver
▁intestine
▁[(
/6
▁redistribution
▁pathogens
▁splice
▁erythemat
tonic
lysin
ochondrial
▁computerized
▁diets
bility
oxifen
▁chorionic
▁coordin
19
▁transcriptional
anthine
unctions
▁hospitalization
▁adenoid
▁phospholipase
▁nip
▁LR
onor
▁irrigation
18
▁4,
▁0.16
HCl
▁acoustic
odermal
▁dosage
▁0.25
omorphine
▁179
▁prostagland
ophilus
▁57%
▁manifested
▁ciliary
achial
antial
▁Binding
▁8.8
GTP
▁aberrant
▁asymmetric
▁endings
▁vaccinated
arachnoid
embedded
spective
▁apoB
cells
▁pacemaker
▁ventil
▁Neu
▁Retrospective
timulation
itrate
ivacaine
▁ineffective
▁pharmacokine
itin
▁baro
▁retinopathy
odgkin
▁epididym
feeding
strain
▁Centers
▁ultrastructural
atrop
▁Nine
▁mediast
▁anxiolytic
acterial
havi
▁preincubated
▁76%
▁Increases
▁vasodil
partum
udin
▁eosinophil
▁exhaus
▁inactiv
ifugation
▁effec
▁relaxant
conduc
▁slices
▁Bmax
▁0.05),
▁enrollment
uprofen
oplasty
▁ow
tionally
▁activates
enopus
▁LH
tectable
▁IIb
adrenal
0%).
▁unstable
▁acidosis
▁alcoh
▁lipoproteins
▁referrals
mortem
▁glomeruli
gth
▁88%
▁househ
▁fatty
ylcholine
glucose
▁augmented
▁incid
fractions
▁posture
▁artery
▁naive
▁dex
▁15.8
▁ect
▁homology
-4)
▁Neuro
▁supernatants
▁parenchym
iesis
race
▁nodules
▁fric
centr
▁fibers
▁polymerization
ographically
▁pyramidal
▁fixation
▁spleen
▁quantified
▁223
azem
lymer
ailure
▁enzymatically
▁platelet
aturated
atest
▁waveform
▁1.02
▁preferen
▁bronchial
occal
30)
dihydro
▁0.63
▁hyperthermia
▁hematopoietic
utable
▁perone
▁Histological
restricted
▁EA
▁commiss
gestin
fec
▁emo
▁recons
▁asthma
▁Sepharose
▁synthe
convul
▁heterozygous
ventricular
occus
▁truncated
ophil
BH
▁24)
▁apprec
oxyrib
▁hypothetical
obarbital
arone
▁diffic
reatine
okine
hexyl
tages
▁arrhythmia
aventricular
▁ae
▁circumst
▁amel
▁encephal
▁IGFBP
▁([
▁5.4
▁superf
amethyl
▁Effic
93
▁murine
▁ibuprofen
▁polymer
ithromycin
▁digestive
▁lymphomas
▁multic
etal
hydro
▁ultrasonography
uridine
prol
▁epitope
▁hippocamp
-10(
▁pellet
▁solub
▁(12.5
tration
.7%
▁controver
▁Leydig
▁9.2
▁wk
icillin
▁hypothyroid
▁clind
8;
▁secretory
▁Golgi
▁aneurys
▁grading
▁185
olization
esting
onit
▁intracor
▁herni
▁suprac
▁metabolic
elves
▁HBsAg
▁lymphocytic
▁elastin
▁confound
▁Cardi
9).
▁CsA
▁11.6
.5,
▁Reduc
▁phosphates
▁diagnosing
▁forebrain
▁membrane
▁rabb
▁neurom
▁insufficiency
Ala
▁organism
▁labelling
▁microtubules
74
▁142
▁Natl
▁motif
kines
▁0.90
▁multivariate
atoxin
▁differentiate
▁6-
▁BMI
▁0.016
▁ammonia
▁prono
▁0,
▁periv
▁psoriatic
▁respiratory
▁principally
anat
▁grise
▁standardized
▁differe
0-
thickness
▁132
▁ana
▁recessive
▁reser
hyde
▁presynaptic
▁199
▁cesarean
▁Staphylococcus
siologic
▁reac
ignant
erop
▁62
▁cyto
▁phenylalanine
▁analogous
▁ovid
ymptom
▁nucleoside
▁Significant
▁cation
▁Renal
ucle
herence
ximal
▁angiographic
glutinin
izin
PAC
▁dete
mercap
acr
▁isoform
▁550
▁venti
VLDL
▁40%
▁99
▁extracorporeal
significant
▁interfere
▁mucous
ipheral
robic
▁PF
▁attitu
▁methotrexate
▁heterogeneous
urea
▁preincubation
-1,
▁61
ocamp
.8
▁spermatozo
▁benzodiazepine
▁terat
uled
odop
▁Stu
▁castrated
▁133
▁Phy
indol
▁pregnancies
▁horiz
titute
▁NK
AFP
▁morphology
▁mec
▁causal
▁intraperitoneal
▁interrup
▁Caucasians
ecia
▁radiographic
odine
ffin
▁6%,
ithm
▁intermedi
▁bir
entan
▁serology
▁stenoses
▁gyr
▁ile
▁expenditure
mobil
▁Ventricular
▁gland
ogenesis
Dawley
▁neuroblastoma
▁lumin
▁caloric
▁hydroph
▁homolog
▁fibrillation
▁monomer
ochemistry
▁correlations
▁110
▁methacholine
▁resemble
▁isolates
▁alkaline
-66
plementation
PGF
odopa
▁individualized
▁bathing
▁poten
▁phagocytosis
▁hypothalamic
oactive
▁(10.
aterals
▁gestation
atine
▁(0.4
▁untreated
▁TK
▁autoimmune
utaneous
▁CEA
▁replic
PSPs
▁repeats
uscular
▁albic
nucleotide
ocarcinoma
rinary
CAT
▁eradication
magglutinin
▁hydration
▁abnormal
oglut
oxidation
▁Phosph
PMA
▁hydrochloride
▁pyr
teryl
83
▁carbam
enzyme
▁subfractions
▁neuroleptic
▁0.2%
▁succinate
▁hypop
▁GSH
▁haloperidol
▁retic
olus
▁tubulin
otassium
▁precur
▁RS
sorb
▁elicited
▁discharge
ELISA
▁biosynthe
▁CRH
arate
▁quoti
▁bacterio
▁75
ATP
▁preparations
carboxy
-5
antibody
▁eminence
▁sacrificed
▁Examination
▁hydrolysis
reast
00-
heum
▁rotavirus
olarization
▁249
▁unex
▁Clinical
umbar
▁euthyroid
▁15,
▁transthoracic
/30
rofen
adecanoyl
ografts
▁5%
▁polym
▁blunted
catal
releasing
▁200-
▁myelinated
▁157
▁VH
▁NH
tisone
onide
emin
▁incidence
▁Throm
▁extremity
platin
▁correlating
▁logar
▁alp
▁actuarial
versely
▁29,
aminobutyric
attern
oreal
▁tablets
▁Prevention
ubiqu
orbol
▁contralateral
▁1.9%
TSH
▁reconstituted
▁UDP
▁oxytocin
▁arrhythmic
▁excitability
▁(28
rocal
strual
▁eccentric
▁acet
ophageal
naud
▁exon
▁eukaryotic
▁clot
labeled
▁HbA
leuk
▁influenzae
6%)
▁microsomes
myr
▁throm
particularly
kD
▁lor
aind
▁amlodipine
genital
▁Hypertension
ophila
▁fluores
▁deposited
▁FK
▁ethyl
▁postulated
uppres
▁degran
▁lacked
▁6.4
▁disrup
▁antisera
▁intrathe
diabetic
▁remo
▁eradicated
adrenergic
▁psoriasis
▁Combined
▁sampled
▁PET
▁substantially
▁organelles
teroid
▁penetration
▁activating
thanolamine
▁estrogen
roscopic
uculline
▁objec
3)
turally
▁hypothesize
▁deem
▁Calc
▁Simult
2),
▁endocrine
gestrel
▁referral
▁translational
amate
▁responsiveness
▁uter
ritten
▁deterior
▁(38
-9
ociation
▁cardiople
dihyd
▁affinity
atif
▁polycystic
▁-12
cytochrome
embry
▁medullary
averine
rance
abec
▁effic
▁abduc
▁staining
▁Exc
▁ascorbic
▁(77%)
▁Lymph
▁ingested
▁promoters
kinje
▁salvage
▁Secondary
clin
▁classify
imazole
▁Morph
▁14.8
arynx
▁interneurons
▁inflammation
▁56
▁dopaminergic
▁hypoth
▁IgE
ertion
▁0.2
▁tendon
8.
▁mitochondrial
▁amo
ialysis
▁98%
▁seronegative
patients
derived
ococcal
▁20-
tigmine
HIAA
vival
osoma
incubated
eclamp
neumon
▁1,2-
▁cyclical
roma
▁ileal
ispanic
agit
▁dysp
96
nthe
▁propagation
▁airway
▁1.2,
moderate
▁flanking
▁analges
▁whey
junction
▁epithelium
▁labeling
iruses
▁ADR
phosphate
▁TRH
odynamic
▁perikary
▁56%
▁(300
ometr
trus
▁0.69
▁12.0
▁2.0
▁nephrectomy
MDA
▁neutralizing
onium
prising
▁decreased
▁artifact
▁Consistent
cellular
vertebral
aturation
▁viscer
ocytopenia
▁nonfatal
▁quantify
▁apical
▁sequential
▁lactic
▁histi
▁acetate
▁microliters
▁fibr
▁laparotomy
▁infarct
▁soma
▁captopril
▁depolarizing
▁compart
▁CAT
▁sequenced
insensitive
▁enzymatic
▁secrete
▁chor
▁(3),
▁LM
rometric
▁atopic
overed
▁confers
zation
myrist
trition
▁kD
▁1-
▁tritiated
▁transcripts
struc
▁95%
▁237
tiz
▁discrepancy
▁prenatal
gment
▁37%
▁thalamus
▁drinkers
▁(3
5%.
▁transforming
▁testosterone
▁RI
▁2).
▁prescrib
ocyanin
lamy
eminal
ygen
▁excreted
potential
▁endocardial
▁genome
-125
▁GHRH
▁neurites
erox
▁osm
▁PMA
tizing
▁mildly
▁enrich
aund
idym
abilized
▁dors
▁correspondingly
▁Bacillus
▁inapp
inyl
5%),
▁hydroxyl
erally
▁plasmin
▁46
▁ecological
▁excision
▁virulent
▁regenerating
▁decreas
800
▁cervix
65
▁conjugation
▁Medicare
▁thorac
▁.01)
▁52
▁conclusive
▁reper
18,
▁transferrin
▁serological
anoid
tened
▁microsp
▁ulcerative
▁inhibition
PPP
▁methadone
▁reversed
▁diethyl
▁consequently
polar
▁Acet
▁ranitidine
▁pulmonary
▁1.5-
▁laparo
▁subc
▁173
▁phospholip
▁Mortality
nisolone
▁immunoreactive
▁laminin
▁occupancy
▁antipsych
▁arrhy
▁RP
▁pentobarbital
▁bic
ofol
▁prednisolone
▁guanylate
▁glu
▁xanthine
▁nodal
▁histone
▁harves
selec
ctomy
-1-
▁chamb
▁disappearance
▁linearly
▁EDTA
▁aryl
▁oxidative
▁ovari
▁arose
-3,
▁cistern
▁autonomic
▁0.57
▁invasive
▁cervical
▁10(-6)
▁Purkinje
▁myof
▁Cardiovascular
▁Duc
▁myeloma
▁terminated
▁ejac
▁115
▁dehyd
-18
▁NAD
▁superiority
▁gonorrh
▁98
▁(1000
insulin
▁tuberc
▁HCC
▁competitively
chol
9)
apsulated
uria
▁operon
hydr
bred
butyl
lymphocytes
▁145
5-
▁(10(-6)
▁adrenaline
allik
▁verbal
fate
▁granulocyte
2+,
▁accessory
%),
▁acini
▁streptokinase
olgi
▁intracerebral
rox
rostenedione
▁vesicle
▁stratification
igenic
ogeny
epi
▁Tc
▁6.8
▁postnatally
▁curric
amn
▁subf
▁subtypes
ifferen
onazole
▁MRSA
▁Gluc
▁Comparing
▁neurogenic
izine
tite
▁elu
▁ventricles
▁chlor
▁PKC
▁streptococci
▁noncom
enteritis
obase
▁cholecystokinin
▁(16%)
▁blot
▁infec
enin
▁0.7%
▁chromosome
▁30.
ograms
▁lympho
▁deposits
▁ABR
▁dimethyl
nine
oxic
▁equivalents
▁elution
ifers
yridamole
▁315
▁ANG
▁guinea
.9%
▁originating
▁mutans
▁atenolol
▁19,
otriene
amphenicol
▁microgram
▁Leuk
▁antiviral
▁rostral
▁vasoactive
▁autocrine
▁prophylactic
▁autoreg
lesion
aminophen
▁tenderness
▁neurob
hydropyridine
▁PCP
▁ganglion
0%)
▁clom
▁arachidonate
osom
coup
colem
▁hens
▁depletion
▁0.23
▁distorted
▁cysts
▁Kup
prin
oprol
amel
▁biosynthetic
▁adjustment
difference
▁5.9
▁proteolytic
▁66%
▁coh
▁proteins
-200
lective
(+)-
-50
▁Measurements
translated
▁TB
inflammatory
.4%
▁smokers
▁hypothermia
▁guan
▁endothelial
▁hypotensive
edle
▁posttreatment
▁monol
-198
antagon
lastic
▁bile
▁1991.
ocrom
▁fluorescein
▁10(7)
▁neuropeptide
agic
▁backbone
▁sacr
uality
adherent
▁197
▁factorial
▁bilayer
▁calcitonin
▁modulating
▁inbred
▁tolerability
▁(47
▁220
▁80
▁clus
▁recombin
muc
▁Dental
osin
etitive
CRF
▁Neurop
▁EPSPs
5%
tiveness
▁Thy
▁angiotensin
▁inotropic
▁amniotic
▁logistic
▁concom
▁bronchoscopy
▁physicians
▁antid
4;
▁0.8%
osal
▁hybridoma
helix
kage
traction
▁10-
▁hyperactivity
▁testis
risk
oplasma
dic
▁hydroxy
otting
▁Possible
▁diuretics
tus
▁empir
▁8,
pig
▁hysterectomy
osus
▁homogene
▁AVP
▁developmental
▁ICP
▁20,
▁hypertro
▁studi
▁preven
▁1985
▁vestibular
mokers
▁sucralfate
1/2
sistent
▁lysosomes
▁PAI
▁PV
▁synthase
▁endurance
▁extrinsic
▁potency
▁cGMP
▁137
▁RII
▁4.8
▁techniqu
▁cations
▁squamous
▁nitroglycerin
▁injections
▁substrate
▁diastolic
iuria
▁spindle
▁irrig
glutination
▁Thirty
▁substanti
▁Purified
inducible
▁paralle
▁grafted
▁contracep
▁bip
▁Viral
▁pec
▁heparan
uoden
▁hormone
sAg
-5-
▁capsule
"-
▁esterase
▁2.6
nithine
▁secretions
oxane
▁hyal
1%
0.8
toid
ergy
roat
▁pallid
iotic
articular
▁3',5'-
rinone
-4.
▁lineage
0%.
89
▁acetyl
veolar
▁Experim
encephal
▁abscess
▁Rats
ondr
macropha
▁haemat
dipine
▁hybrids
consuming
▁stool
ituit
▁16-
▁beats
ecu
▁mL
▁renders
▁6.7
▁sinus
▁chloride
otin
▁Behavioral
▁Haemophilus
▁digestion
▁biopsy
roxyprogesterone
▁hemodynamics
▁seropositive
▁13.9
▁induc
acid
terol
▁Nons
▁naloxone
▁condensed
▁Preliminary
epines
▁tachy
▁sph
▁MAO
▁Elec
▁0.18
▁placebo
▁neuroendocrine
▁projecting
▁Subsequent
▁hemisphere
▁kits
1:
▁potentiate
▁adenine
+)-
▁(72
▁preferential
otides
▁0.001),
roxim
▁fertilization
▁progressively
▁sarcolem
▁61%
▁lipolysis
mmol
▁241
▁Approximately
▁solit
▁sarcoma
▁(10(-7)
▁Cumulative
myc
▁10,000
▁gases
▁ornithine
NGF
▁adap
▁scars
▁consecu
tension
▁apomorphine
▁63
▁apoA
sepithelial
▁Nutrition
▁lesions
▁residual
HCV
▁(2.6
oblastic
▁haplotypes
usively
▁discon
▁secretagog
NAc
essation
▁embol
▁disulfide
alues
tolerated
▁Increased
▁atrium
▁thems
▁polyethylene
iability
▁ewes
gnetic
acids
plastic
▁covalent
1-
▁gastrin
▁231
aldehyde
urium
▁10.2
▁periphery
tur
erge
ocytoma
▁underg
admill
▁conduction
▁splenectomy
▁cyclospor
▁allevi
▁67%
enzymes
▁discharges
tectomy
-88
▁larvae
(2)
idol
▁0.25%
ocaine
hydrox
▁follic
vular
▁endocytosis
▁fungus
▁Levels
▁fibrosis
Gi
▁Antibodies
▁tRNA
otine
▁3-4
ectomized
▁cortisone
▁conduc
▁nonsignificant
tronic
▁substantia
▁10,
▁ank
▁basilar
▁substrates
agas
▁nodule
gression
▁270
xyl
▁anticoag
▁peaked
▁mcg
▁induces
▁discontinu
▁CFU
▁angiography
0),
▁(94
Cys
▁ramipril
▁omeprazole
ths
▁Hep
atoid
▁ether
osol
▁CSF
pH
▁intrag
▁medically
▁aspiration
▁Pregn
▁meperidine
▁calmodulin
oluble
▁Hyd
▁chronically
ronch
▁tetracycline
▁antis
▁adherent
▁unresponsive
▁leukotri
cotic
ystolic
▁adsorbed
gated
▁unsaturated
trates
iazide
▁triazolam
▁ammon
▁gradients
▁elas
uitable
rophic
▁CAH
▁preferentially
54
qui
ologous
▁27%
▁myocardi
turb
mediately
▁concordance
-10
0.2
▁resear
▁13
▁54
▁VL
▁erythrocytes
▁subcellular
▁pancreatitis
▁sedim
▁antinoc
▁spati
till
timate
▁infectious
▁neurotrans
▁1.3
▁basal
▁dithiothreitol
apid
▁thyroiditis
xime
▁exposures
▁dib
▁0.02)
vive
carinic
▁fenoterol
▁methodology
▁2),
▁disulf
▁(50%
ilical
500
▁(93
▁unclear
tails
▁goats
dihydroxyvitamin
▁96%
▁antidepressants
raine
monary
▁proportions
▁lesion
▁ascorb
▁Tris
▁antibodies
▁mV
ductase
▁mutants
▁cerebrovascular
▁operative
600
▁200,
▁hyperb
phorbol
▁overlapped
▁cG
antigen
tence
orbent
/2
odium
▁poli
thle
▁undergone
roline
nai
opr
▁sclerotherapy
▁(54
▁menstrual
ignific
▁polymerase
▁improves
▁crossover
▁detects
▁stroma
▁scaven
▁9-
topril
tase
uron
▁blockade
▁amplified
▁negligible
oproterenol
▁streptococcal
oxygenase
▁77%
▁aberrations
▁FEV
assium
▁dichroism
▁prothrombin
romyces
▁disadvantage
▁scre
azol
▁chromatin
▁salbutamol
▁antidepressant
omatous
▁protons
▁paternal
▁discom
▁thio
▁transmitter
acyclin
▁Tx
▁endoplasmic
poor
rati
▁phosphatidyle
rogra
opoiesis
▁LMW
67
thirds
tential
▁Asp
▁rhe
5,000
▁triglycerides
▁epicardial
▁pharmacy
▁requi
severe
▁menstr
NMR
ydig
▁trig
▁PHA
phic
assi
▁axon
▁25-
▁23%
vaccinated
adders
▁bactere
▁chloro
▁recruited
alc
▁infarc
▁0.44
▁17-
▁0.001
▁glomer
▁AML
glutamyl
oreceptor
▁HF
▁sucrose
▁0.6%
ectomies
▁Antibody
▁0.55
▁granuloma
osome
▁168
▁degraded
▁4000
umbers
▁(15
aminoglyc
▁(84
renol
▁perfused
IDDM
▁3)
yste
▁unsuccessful
▁examines
embrane
idespread
▁tau
phragm
▁regurgitation
▁Previously
LPS
titution
Cy
cancer
▁CAD
rolase
gangl
▁oscillations
onate
▁ADA
▁extrav
▁polyamine
5%,
urc
▁0.72
▁antipsychotic
▁CCK
▁HM
responsive
orporeal
▁duodenal
▁Immun
▁discus
ischemic
▁atrial
▁1970
bacter
-0
▁(1:
▁transmural
▁investigations
epid
▁inositol
▁LDH
▁necrosis
disc
▁Beta
omat
▁granul
▁69%
▁respir
▁scarring
scop
▁bumetanide
▁creatinine
▁apolipoprotein
▁pouch
▁(1
Ci
unced
▁contractility
▁126
▁substitutions
▁produc
spectively
▁amitriptyline
▁proliferate
▁hypophys
irectional
▁permissive
▁epit
AIDS
▁outlet
▁elast
▁excluding
tempor
▁oes
▁antithrombotic
▁stoichi
itoneal
-29
▁acute
AVP
▁Myc
▁chol
tative
▁subpopulations
lamin
▁adenovirus
tance
istal
▁ppm
▁Forty
▁cystic
▁200,000
haled
onyl
▁Assess
▁Inde
▁239
▁0.01
sives
▁phon
▁Abnormal
▁hypertonic
▁acad
aminidase
▁denaturation
ANP
issive
▁transfusions
▁adjustments
▁(50
▁balloon
63
▁nonsmokers
▁progenitors
▁GH
▁serotype
▁PCR
▁discontinued
▁infra
▁8
▁nephritis
▁ald
▁metabolically
▁poisoning
▁reticulum
ulant
▁97%
ipit
athe
▁succes
vant
▁ECGs
▁transient
▁Stress
▁400
osteroid
▁currents
vedilol
▁peptic
▁cholinergic
▁48
▁taurine
ostr
+.
terminal
GMP
▁ket
▁VIP
4]
▁filament
▁93
▁ane
cardi
▁adequately
▁5,
▁(3)
urther
▁Hepatic
.6
▁100,000
▁eluted
olab
dia
▁autop
athic
▁cisplatin
membrane
onitis
▁adherence
coated
vated
▁duodenum
▁adhering
▁(75
▁cleaved
▁pene
-300
PRL
iological
▁0.66
tive
▁progest
▁(45
positive
amethasone
rotic
▁deformities
▁qualitative
osocial
▁exceeding
olip
▁anxio
▁imaging
▁rhesus
▁mathem
▁allosteric
▁DF
chlor
▁conto
▁malformations
▁collagen
▁cholec
▁undergoing
▁socio
▁0.27
hap
resis
▁0.38
▁serosal
▁thrombocyt
oresis
▁paroxysmal
tinu
▁teratogenic
▁quenching
▁uv
-32
▁(37
onegative
▁triceps
urane
▁radiolabeled
▁infusions
▁homogenates
erebral
reas
61
▁unequ
hesus
▁persist
trol
▁(35
amuscular
fected
▁vasoconstrictor
tioned
▁2.8
benz
▁ipsilateral
▁60,
▁proteolysis
00,
▁glucone
▁adjus
-40%
▁Feeding
▁(4.0
▁analysed
ellum
▁Lp
▁expec
ivation
▁electroph
▁cytokines
▁lenses
cysteine
▁haemodynamic
▁thromboemb
▁citrate
▁(76
▁hemat
uantitative
▁alleles
yrid
▁fum
ocap
oprostol
▁eicos
ritish
▁dox
▁biop
ivariate
▁polypeptides
▁inflamm
▁cones
▁(5%)
▁0.26
▁deferen
▁GnRH
▁tetrodotoxin
▁examining
rences
-10)
▁presumed
▁promp
▁hipp
arose
▁kilobases
▁1.00
roscop
▁transpor
▁strips
ylcholinesterase
▁50
opause
etan
▁opi
▁25
▁musc
infected
▁schedules
▁bronchodil
▁30-
illaries
▁infertility
▁anaesthe
▁vasodilation
▁interf
▁bilayers
▁agglutination
▁adolescent
▁transported
▁disper
▁dexamethasone
ygdal
▁luteal
▁saliv
▁(95%
-5.
▁hypertrophy
▁feasibility
▁Lung
▁fec
phosphatase
tagland
▁7%
itidine
glycer
▁gels
▁cardiac
▁phenotype
opamine
0).
▁hyperg
gradely
ungal
.2%
▁somatosensory
enicill
▁Urine
▁sodium
enyl
hepatic
▁transduc
▁parturition
ovascular
3]
▁peroxidase
generation
acchar
▁carboxyl
▁psychomotor
▁12%,
(1
▁monolayer
▁ligation
▁epithelia
▁olfactory
▁tonic
tris
lier
rophenyl
▁40
opa
anate
▁doubled
▁Ear
▁prophyl
▁precipitated
▁behavioural
▁(1989)
▁carcass
00
▁11-
▁ischemic
▁clinicians
▁comple
▁15.
derly
amus
approximately
▁naproxen
▁splenocytes
opathic
oprim
▁10(-9)
yrosine
▁poin
ynaptic
▁uric
▁amyl
▁aggregates
▁Glc
▁AMP
ostatin
ministration
▁antioxidant
▁Basal
ivac
▁asymptomatic
▁440
▁thymic
ameter
rease
▁Barrett
tryp
▁arising
▁ferric
valence
▁trich
▁reproducibility
▁homogeneous
▁sham
▁erythrocyte
▁descriptive
▁amph
▁transplants
▁inability
▁300-
pirin
illi
assay
▁confir
▁penicillin
▁fertile
▁colonoscopy
▁0.28
oracic
sial
androgen
▁deox
▁persis
▁hsp
timal
▁sequelae
▁2.9
▁characterize
▁243
uracy
rangements
▁photoreceptor
estive
▁Positive
▁niacin
▁anis
eak
▁CCl
EI
▁ulcers
fentanil
▁Extr
chym
▁1-3
▁Asn
uccin
▁radiographs
▁(3.0
lactam
▁axonal
aicin
▁thrombin
▁monoclonal
▁implants
yses
▁phosphoinositi
Leu
▁ultr
▁heavi
kling
▁0.83
▁biom
anoids
▁cotrans
▁criterion
odialysis
▁aromatic
ocytochemistry
alveolar
▁contrac
▁dodecyl
▁quotient
▁motone
▁metabolites
▁Rb
▁91
▁Mice
nary
▁morphometric
▁DBA
tagog
▁substitution
yrib
5;
otransferase
rotoxin
▁hydroxylase
▁ankle
▁0.2-
▁calcified
uracil
athy
▁anion
tics
4,5)
oblasts
tained
▁anomaly
cyclo
▁suspensions
▁Angiotensin
▁33
▁glut
▁Hyp
▁Subcutaneous
lives
globulin
performance
▁deterioration
▁1966
▁hygi
dine
▁sequentially
gol
▁PMN
▁aerosolized
▁mimicked
▁1982
▁enamel
cine
▁cyclase
▁experim
phage
▁(7
▁enhances
sych
PAT
▁duplic
▁SBP
▁corticosteroids
welling
▁intox
▁pathway
tically
▁unres
▁tic
oidal
▁fertility
▁1.0
▁revised
▁lysozyme
▁glycoproteins
▁PCA
▁prerequ
tomycin
▁evaluating
ocrit
viral
▁(0.2
▁adriamycin
▁0.05,
▁septal
▁mutations
/10(6)
▁radiologic
orbid
regulated
sA
thmias
▁LN
▁labelled
(-)-
▁predicts
▁degen
▁thereafter
▁Inhibition
ietin
embr
13
▁jejunum
▁BSA
pended
▁cutoff
▁caudate
▁enrolled
amphen
▁classifications
lac
▁simultaneous
horm
fluo
▁plaque
▁autoradi
rague
ographs
ectable
linking
▁reserpine
▁repolarization
▁sulphate
▁intranasal
▁isozymes
▁augmentation
▁pancreas
heric
▁eryth
▁juvenile
individual
▁Histologic
parative
amethonium
▁prescribing
▁0.64
▁corresponded
ovol
ocortex
-1),
▁retention
▁(26
▁fibronectin
▁paraffin
amicin
▁ovaries
▁pep
▁contex
▁ips
▁transaminase
yroid
opha
▁ovarian
▁9%
stro
▁233
56
ocyst
▁ureth
▁(150
▁0.99
▁exten
lux
▁prescribed
ziness
erad
reactive
▁vicinity
▁arrhythmias
traumatic
phot
▁Chronic
▁(97
▁gonadal
ensities
▁acceptor
indole
▁resolving
▁extrap
▁conformations
▁lec
80
tailed
▁reinfor
▁12-
idne
▁phenylephrine
▁oligos
yridine
▁127
▁Depart
▁denatured
▁enzymes
▁asthmatic
▁CRP
tial
▁thalamic
▁Findings
▁adequ
obut
-3.
▁respec
▁RPE
ilol
▁minus
▁hetero
▁structurally
tumor
.0
1)
▁spectrometry
secreting
▁(5.0
▁sulfhydryl
▁estrus
tens
0.3
▁arteriolar
▁pups
▁leukocytosis
▁Repe
▁11.0
▁hypotension
▁intron
▁GV
casein
lip
▁Dip
▁prevalences
▁pacemak
▁32%
▁repor
▁deletions
olase
facial
▁1.13
▁efflux
clerosis
▁compli
▁cytomegalovirus
▁transepithelial
pecially
▁47
uates
onuclear
velength
▁intimal
▁pyrimidine
tryptamine
▁correc
▁plateau
▁oligonucle
▁rigorous
▁100%.
▁circulatory
▁allo
cyt
kilobase
▁vasoconstric
▁posi
▁1.25
▁Complications
▁Sequence
thmatic
▁reinforcement
▁cured
sorption
ints
botic
urine
esti
▁droplets
isol
▁methanol
▁extrac
vus
▁stimuli
omann
▁ceftriaxone
▁parame
onset
deficient
▁surfact
ainide
0.0
▁heavier
▁damaging
(6
▁arth
▁ribosomal
▁electrophoretic
▁embryo
▁etoposide
ughter
▁Fc
luent
.1%)
rachial
temperature
tidine
dent
itively
▁Groups
kade
▁hir
comitant
anserin
▁immunocomp
▁glycosyl
ohns
odend
▁fractional
▁1.6%
erents
▁SPL
▁mitogen
dT
▁flexor
yrate
▁consequent
▁nif
rane
▁collaterals
▁7,
▁KCl
▁uniformly
▁retrospectively
▁gonadotroph
68
▁traumatic
kele
▁(31
▁(32
▁spectrophot
▁positioning
▁mitogenic
-2.0
▁mitochondr
▁condens
▁12%
▁0.48
▁mutated
ituitary
▁triggering
▁radiolab
xia
trating
▁hydrophobic
▁atherosclerotic
▁zoster
▁14,
clinical
lyl
tally
minal
fts
▁ACh
▁hapl
▁denervated
torchid
ecyl
▁cytochromes
▁38
determined
▁hypercalcemia
ostigmine
▁aneurysms
opramide
angiotensin
helical
▁bulb
+/
▁malignancy
opro
▁preterm
▁Compared
dependently
aric
▁vegetable
xual
tokinase
▁ventricular
▁EG
▁contaminated
▁tryptophan
oplas
-2)
▁cerevisiae
▁microscop
▁tac
▁retrie
▁plots
▁FSH
▁barb
CCK
3).
produc
▁halves
▁intramuscular
loxacin
▁1.12
▁51
bumin
crip
▁duc
▁enteric
▁receptive
▁sensi
▁porcine
▁anticonvulsant
ochrom
▁reproductive
▁ouabain
plasma
▁9,
▁(9
▁confounding
▁validity
▁stabilization
▁pyro
▁Twelve
rocy
lasses
▁prostatic
▁Electro
▁iso
▁dias
osacral
▁lamb
▁mmol
▁Acute
oneph
▁panc
▁carcinogenesis
▁devoid
▁gonadotropin
▁pericardial
25)
▁microvilli
▁VE
bral
▁anticoagulant
▁collagenase
▁competence
▁0.07
▁HPLC
▁119
tenolol
▁28%
eliac
▁pyrophosphate
▁exercising
▁RR
▁(0.5
▁degenerative
razolam
dyle
endocrine
▁Leu
▁chimer
▁inhibitors
▁relieve
▁203
▁Prac
lasts
▁hap
anesthetized
▁acuity
rostened
oblas
roscopically
▁normalization
within
▁Investig
▁predisposition
▁Drosophila
▁conclu
▁6.6
stem
▁haplotype
▁hepatic
▁Indi
DPAT
▁ionic
▁kidneys
▁inducing
ducing
▁NADP
▁8.1
tory
nitros
▁asbestos
isole
buterol
▁estradiol
▁dehydrogenase
▁90%.
▁labile
▁felodipine
▁paradox
▁intoxication
▁newborns
▁implying
Lys
▁39
▁supine
▁permeation
ocarcin
▁180
tebral
▁impair
▁transiently
pont
ionine
▁polyunsaturated
▁maneuvers
▁chondroitin
▁Identif
peak
▁Exercise
cemic
▁depolarization
▁118
▁BH
osclerosis
▁Disease
atized
▁hepatocellular
▁splenic
takes
▁CTL
▁locomotor
cnemius
eration
▁recognizes
▁VLDL
tiary
▁spinal
▁astrocytes
uterine
▁Conversely
▁segmental
▁formulation
aminases
ocul
▁magnesium
▁tyrosine
▁corne
▁Hb
osamine
▁immunoblotting
▁measurable
▁12.5%
▁drin
▁Survival
ferrin
▁endpoints
▁ascertain
▁blocker
▁surfactant
obacterium
▁32
rowing
▁dysfunction
▁yearly
▁hypere
▁Scale
▁163
▁dosages
▁limb
echn
▁forsk
▁manipulation
osidase
▁retarded
romes
▁descending
▁68
subs
▁inflammatory
▁-0.5
▁identif
eryth
▁viral
toph
▁steroidogenesis
ibrate
▁92%
tig
eprazole
▁3).
▁postinjection
▁histologically
▁anticonvul
▁Tg
▁causative
▁antioxidants
▁strains
▁(2),
IFN
▁alters
▁diagnose
▁pediatric
▁allele
▁ration
▁HB
1.1
ypro
▁reflexes
sulfate
▁pneumococcal
▁cartil
▁abdominal
▁reliably
▁(63
▁vomiting
▁diabetics
glucosidase
▁cortisol
▁appropriately
6/
▁4.1
▁2.7
molar
▁Experiment
coun
▁modulate
imol
▁oestradiol
▁phospholipids
▁Comparative
luding
▁Kd
OA
kely
▁5-
▁bronchodilator
▁parenchymal
▁Benz
▁doubling
▁7.
▁resembles
64
orsal
ejection
▁outward
▁1.75
▁cran
▁(0.9
▁sero
▁NaCl
▁folding
▁unselected
▁glomerul
31
▁consis
▁bioassay
▁obstruction
▁syncope
nRH
▁inappropriate
▁candidiasis
emia
▁viscosity
▁0.65
razosin
▁novo
iplin
idium
▁modifying
▁(20
▁Intr
competitive
piratory
▁sple
gluc
:3
ganglionic
bly
▁Differences
▁FMLP
▁Oc
hydroxylase
▁(34
▁antagonists
▁absorptiometry
ophys
perature
▁(89
glut
▁lobe
▁caffeine
▁thoracic
▁onc
▁70%.
▁econ
intensity
▁94
▁adrenergic
▁amyloid
▁indis
trast
▁cDNA
tially
▁haemorrh
▁nonex
▁Phe
▁cyst
0.00
▁conformational
▁exponential
▁palli
▁10.5
▁shortening
carbon
sibility
▁Parkinson
alciparum
▁barium
-12
▁hematologic
.3.
ranial
▁1.9
iteal
▁alk
▁8)
9;
alas
▁lethal
HRP
IAA
▁metals
▁corticosterone
araldehyde
meth
76
tensity
0%,
▁flexion
▁virul
▁Effec
repres
imentin
▁thrombotic
▁hydrolase
▁158
▁methylene
atment
relaxation
▁fructose
▁76
hern
iliated
astom
schemic
▁120
▁Clinic
tise
▁fluc
▁nucleus
▁1.2%
▁hyperch
▁15%
▁extensively
idating
▁insom
apeutic
ffinity
▁89%
▁repressor
-45
▁cranial
urgical
tococcus
▁uninfected
▁metoprolol
▁rearrangements
▁immunoglobulin
▁dihyd
▁IA
▁(4)
thymidine
▁covalently
▁papilloma
jective
▁15-
▁extremities
▁summ
▁disposition
▁recurrence
▁1.05
▁epidemiological
▁concanavalin
▁Combin
assessed
▁9.
▁divalent
▁attained
▁unfav
▁intracellular
athiop
operated
trac
▁123
▁0.01,
▁epidemi
opathy
▁Evaluation
orh
▁cellulose
responding
▁nosocomial
▁implanted
▁ultras
▁seizure
▁92
ulence
▁infants
▁twitch
-13-
▁viruses
▁MMS
▁carotid
▁neon
▁stren
geal
weekly
24
▁154
▁combin
namic
▁10(-3)
▁Severe
▁familial
cycline
iline
▁antec
▁4;
biotic
▁capillary
ancre
▁VV
▁angiogram
▁Bronch
▁disruption
PTH
utyryl
▁tib
plas
▁(90%)
▁detecting
▁counterparts
▁gonadotrop
rele
▁oncogenes
galactosidase
agittal
▁Glyc
▁cytoplasm
▁0.9%
trop
▁(1)
▁branched
▁longus
odular
▁0.
▁AK
vents
▁insec
▁ANF
bromo
leural
▁somatic
ometrial
▁Synthe
22,
▁latent
▁contral
▁0.6
▁peptid
▁0.10
roin
▁nuclease
▁atria
▁glial
▁uncommon
▁compounds
dens
▁denat
▁adhesion
▁cleft
▁chlamydial
▁bromocriptine
▁cef
charomyces
▁Epid
irubin
▁12,
▁surrog
▁1.06
teroids
▁10(3)
▁localize
▁catalase
BSA
oate
▁stratif
▁scl
othelial
▁convul
ections
ergic
regn
▁Abnormalities
▁160
▁14.
▁mucin
▁ADH
-400
▁microbial
▁initiating
▁oxid
muscle
phila
▁roentgen
▁cytology
2,000
▁follicles
▁fati
▁kallikrein
propyl
▁lymphocytes
▁intracranial
utaneously
plast
▁slopes
▁oss
▁libr
▁longitudinal
▁phosphorus
earance
NMDA
▁histology
▁worsened
▁GRF
▁(250
▁hydrophilic
▁kDa
odia
▁8.4
▁hindlimb
▁CML
▁HBs
▁(20%
▁intraven
▁69
▁immunocompetent
▁absorp
▁preexisting
▁immunologically
-5,
▁pituitary
▁platelets
▁malabsorption
▁visceral
▁epidermal
▁trypsin
glial
fluores
Tyr
▁dermal
▁280
▁clues
▁0.78
▁LV
▁altering
▁fluids
▁OH
▁demyel
▁psychotherapy
estim
wenty
▁deple
▁contamination
▁gallbladder
▁irradiation
tinguishable
ethylmaleimide
▁Treatment
▁Removal
▁promin
▁7.7
▁0.05).
▁decarbox
▁homologous
▁oval
andard
▁1600
iol
▁rhythmic
▁reactivation
ticularly
▁0.84
stin
oung
oscop
▁warts
▁diluted
ocrine
ropha
imolar
▁antiv
▁voiding
oporosis
▁vertebrate
▁homocysteine
uvant
BW
▁malnutrition
▁bromide
29
▁diagnoses
▁abscesses
▁progression
▁microspheres
17,
retro
▁enteral
▁bronch
pain
▁scanning
9.
▁constitutive
-25
ocated
▁(8
▁10(-5)
▁100,
▁HI
▁perip
EAE
OHDA
▁soluble
ervations
asal
▁Subs
ortal
▁hexa
otroph
▁antigens
ervated
▁mononuclear
yzed
▁exacerbations
▁prophylaxis
tomy
▁0.80
-7
tipation
▁geniculate
cortisone
▁mediator
▁diarr
▁pS
▁mitotic
81
▁conjugate
▁typh
▁secreted
ophore
▁11%
sequent
▁implantation
3%
▁quinacrine
phthal
▁ductal
▁monomers
▁feasible
▁coincided
▁cooperative
▁norfloxacin
▁urine
▁Respiratory
▁8%
upus
flamm
▁268
▁hamsters
▁synapses
▁thallium
odopsin
▁perce
▁vulgaris
▁subcl
▁151
atient
ichia
alsy
leucine
rested
▁doxycycline
▁MV
olet
▁regimen
▁smo
▁circulating
▁stabilized
0%),
olig
▁(60%)
olated
adily
▁HS
▁AIDS
▁CABG
▁valves
▁follicular
▁adduct
ytes
▁13,
▁0.02
▁lis
▁disrupted
irc
▁26
FEV
▁hydrolyzed
▁unfractionated
▁hypokal
FGF
▁(63%)
blast
plen
▁glutamine
romy
▁phe
▁catheterization
▁(-)-
▁Animals
▁underst
▁cholesteryl
edded
▁detergent
▁(33
versity
.5.
bilities
robial
electro
HV
▁0.15
▁heme
scher
▁genital
▁duoden
endorphin
▁epinephrine
▁differentiating
▁constitutes
▁debr
-8-
siveness
▁hippocampal
94
coronary
▁mesangial
▁fractures
▁lavage
ophylline
▁elevating
▁70
guan
▁0.9
▁posttrans
▁daltons
▁1),
▁specialty
pli
▁peroxidation
▁musculoskeletal
▁intestinal
▁TS
inhib
▁covariates
▁ions
hep
restric
34
28
portant
6,
administered
▁reductase
▁reagent
▁diabetic
▁thresholds
▁postpartum
▁fluoro
▁physici
▁isch
vaccination
▁crystall
pressure
▁(1/
▁transverse
▁dehydration
▁radionucl
tec
▁inguinal
Gs
▁polymorphic
▁dissoci
oreg
▁thymocytes
▁0.7
▁prevalence
.7%)
antigens
▁([3
methyl
tir
▁surrogate
▁galact
▁mEq
opeptides
▁intensive
▁cigaret
▁quanti
▁129
▁intra
▁inten
▁fmol
ocyanate
▁Growth
▁nonlinear
▁unrecognized
crib
▁Milk
▁albicans
dR
▁26%
▁immunod
▁phag
▁disturbed
rectomy
6.
▁vivo
▁Diagnostic
▁Simultaneous
▁diffus
azolam
onucle
▁proceeded
olesterolemic
▁stiffness
▁microns
▁standardi
▁SIDS
▁anoxic
▁complexes
▁pneumoniae
▁Lym
romed
oplasia
▁PBMC
▁EB
▁uncontrolled
▁leucine
▁.05).
ressing
osum
▁substances
▁deliveries
▁adipocytes
▁124
▁oligosaccharide
plasia
micro
opian
▁Willebrand
▁proliferative
rocyte
omethyl
▁fibrinolytic
estions
▁8.0
▁lytic
▁programmed
unsaturated
depleted
▁cuff
▁tetanus
▁cirrhosis
secre
anuary
plasty
0,000
▁promoter
rehen
▁solubilized
ovirus
▁cholesterol
▁muM
▁obese
pore
▁dendri
▁CVD
▁displaced
6%
average
▁morphological
ustif
CRP
▁potencies
peptide
▁embolism
▁44%
antibodies
▁roset
idine
▁cytologic
▁exhaustion
omod
▁intraoperative
▁fibrinogen
riamycin
▁coagulation
▁neutroph
▁39,
clic
NB
▁galactose
▁sulfonyl
▁psychosis
▁basolateral
▁abnormally
▁0.30
▁1987,
atosis
▁sickness
▁90%,
-1
therapy
▁incomp
▁60
oxygen
▁esophagus
▁multin
70)
▁internalized
▁glioma
▁22%
diagnosis
itoring
▁severity
inase
▁seb
toxin
▁trabec
▁serine
▁flora
▁instability
▁urinary
glycerol
▁saline
▁leakage
▁dimers
gm
▁PCO
▁retinol
▁radiol
▁graf
tensives
▁cardi
pecies
▁struc
▁internalization
▁radioligand
treated
dopa
▁olig
▁quies
lue
infection
▁-0.
clo
april
thym
▁hematocrit
▁hazard
57
resid
▁vesicular
▁reconstitution
olysis
vail
▁1).
▁lumen
▁abstin
:1)
▁chronotropic
▁leth
▁multil
▁vein
▁mA
uric
ocompatibility
nucle
amisole
▁duct
▁Significantly
thrombin
▁thymidine
dose
▁skeletal
▁2.6%
2318
▁plantar
▁144
▁thromboembolic
▁inversion
▁immuno
▁deficiencies
▁transloc
▁2
▁clamp
▁activators
▁cycloheximide
▁iodide
▁(68%)
▁recurrent
deficiency
▁pineal
▁.01).
▁(15%)
idated
.5
itamin
▁(0.3
▁INH
▁22)
roph
▁pts
▁agonists
▁Metabol
orbidity
▁retinoic
▁amn
▁50-
▁0.40
▁noradrenergic
ophag
▁therapeutic
▁immunoprec
admium
▁symme
etoprotein
atology
etition
▁denervation
▁Surgical
▁subtilis
▁contiguous
GFR
▁nonc
iatric
carbohydrate
▁phosph
▁conjug
▁2.
Hb
oretically
▁impedance
/7
▁amino
▁chlo
phosphon
▁meningitis
▁196
ozo
cad
▁conductance
▁(6
▁3.9
▁Respon
▁attrib
trypsin
▁182
▁triacylglycerol
▁junctions
▁stained
▁600
▁traction
▁sulfate
▁occlusive
1%)
▁neurolep
▁avail
▁weighted
▁normo
▁2-4
▁polymyxin
▁transporter
▁mesen
▁oligonucleotide
unctiv
ineal
cious
▁0.41
ochemically
iflu
▁vacuoles
▁alb
roxy
▁hypothyroidism
▁18%
▁0.46
▁accel
▁shif
▁tertiary
▁67
▁sexes
thre
▁Symptom
actam
▁markedly
▁paroxys
▁Registry
▁infrared
▁eosin
▁105
▁promptly
-40
4.
▁counseling
hormonal
▁vaccination
▁regulating
ophren
▁ubiqu
▁centrally
▁LTC
▁aminoglyc
▁HSV
neoplastic
▁cic
▁3',
▁5
▁interfer
▁catab
▁ethn
▁crom
▁constitutively
yronine
dition
▁Fifteen
▁traum
▁Graves
▁nausea
▁anastomosis
▁gangl
din
▁81%
▁therapeu
lies
▁proton
baseline
▁vicin
▁msec
▁(22
▁Glu
tested
▁fetus
8%)
ortic
▁reperfusion
xanthine
▁warfarin
▁inpatients
▁Tryp
▁antiserum
▁SCH
▁pulsatile
cepti
Hg
▁blockers
▁transfection
900
▁paradig
▁diltiazem
2+
tensive
erule
blood
ulators
▁rhinitis
▁8644
▁phenobarbital
rogenic
keratin
▁Breast
▁cyclo
▁glucocorticoids
▁Patients
natal
▁NSAIDs
hydroxy
▁injected
▁9.7
▁Atrial
▁intub
▁77
▁chl
▁plasmid
▁naf
90)
atell
▁micros
▁nonresponders
▁(4-
▁hypertensives
▁arachidonic
HSV
siological
acetate
▁tryptic
▁0.33
▁ketoconazole
▁spike
▁calf
1,
▁globin
▁mitral
tical
▁assays
otrop
▁10%.
▁dysplasia
▁preschool
teric
▁tetrac
▁accumbens
eptin
▁RAS
▁5'
▁lax
onine
▁HCO
iceptive
hyd
nutrition
pyrene
▁corpus
▁TG
vic
▁FFA
ipolar
▁haemorrhage
71
▁intraocular
rostaglandin
▁Pneum
hospital
fluoro
▁Tran
▁contrib
SMR
▁(1.2
▁bloc
▁motoneurons
mRNA
athioprine
▁wee
▁25%
▁hormones
▁hypothal
ologic
▁52%
▁dyspnea
moking
▁6.3
▁(23
▁(42
terin
ighteen
▁117
▁6,
▁possi
▁epilepsy
FSH
▁3%
▁accep
▁50%.
▁cochlear
▁polyp
▁immunized
▁quantit
▁mammals
▁demonstrating
▁allogra
▁exud
▁murmur
▁20.
▁2.3
▁189
pir
▁titration
▁irritation
CBF
▁bilirubin
▁000
GABA
▁(88%)
▁megakary
▁14%,
▁holo
▁hypoglycemic
▁nonspecific
fib
mitters
▁births
▁urokinase
stab
mia
▁(36
▁superoxide
▁acceleration
DNA
tization
faction
▁microscopic
▁hydrophob
trogen
▁Computed
irradi
onucl
▁elastase
▁72
▁wavelength
▁nicot
▁torsion
▁Glucose
tate
▁reflex
ilateral
▁FF
cein
▁reticulocyte
toxicity
▁endometrium
▁kary
▁cytotoxicity
▁estimating
scherichia
▁calcification
▁parox
▁warr
fat
IgM
▁sarcoplasmic
▁rhythms
▁LC
serum
ocysteine
▁93%
53
orin
▁simulated
▁phosphorylated
▁axillary
▁bismuth
▁undere
▁emphasize
▁0.52
thio
phyl
▁glandular
▁bouts
▁AO
▁fibroblasts
1),
▁autoanti
absorption
▁Cs
▁amelior
▁thiazide
▁kine
▁inoc
sensitivity
GlcNAc
enriched
▁(4
▁(1.5
▁determinants
▁0.94
▁(71%)
▁Obs
▁receptor
▁ingu
▁salts
▁skinfold
▁nucleotides
▁Invent
▁imaged
tox
ocusing
▁regis
opressin
▁Hodgkin
3,
▁NF
▁streptoc
▁GFR
isomerase
▁trac
▁fragmentation
pine
▁electrom
▁susceptible
▁expres
odipine
▁distinctly
▁cystitis
ilic
atches
▁blinded
▁dilatation
.3
▁retrograde
Rb
▁Streptococcus
0.4
tability
▁adsorption
evoked
affinity
▁radicals
▁visualized
▁inhibiting
▁synapt
▁DMSO
▁mutagen
▁5.7
▁EGTA
omatic
▁glucosamine
sulf
plemented
6-
▁endoc
▁HL
(2-
▁dextrose
omotor
▁5)
oproteins
lix
▁0.29
aryl
▁susceptibility
▁(49
▁definite
▁iod
▁fused
filtration
▁retinoids
▁discrep
▁polys
▁Improvement
▁moderately
▁antibody
▁amputation
tructed
▁thymus
corrected
orphine
▁amiloride
▁embryos
▁8-
▁predis
nitine
▁dermat
▁oxidase
▁sati
▁preoptic
▁branching
▁AFP
obacter
▁86
urrence
▁monomeric
▁metast
ovis
-20
angl
4/
odic
anavalin
▁ambulatory
▁212
▁lipid
▁ductus
▁lute
▁diges
▁71
tral
▁nitro
▁mercury
▁hypox
▁procollagen
▁inadequ
▁bacteriuria
.2%)
▁MAbs
azole
uspid
troduction
60)
tition
romised
▁analogs
▁ascribed
tilled
▁detec
▁Interestingly
dominal
▁Holter
tation
▁atrophy
eroxide
▁forskolin
stress
RH
▁rigor
▁precipitation
▁-4
rever
aspartate
▁prospective
▁3;
▁influx
▁ectopic
▁maternal
▁veins
▁tubercle
trate
fraction
dural
chymal
▁(2-
serine
▁lectin
galact
▁airways
▁(10%
▁prodrug
▁distin
▁dairy
▁immunogenic
tant
▁lumbar
othane
▁benzodiazepines
stimulated
▁Immuno
NIDDM
▁chemot
▁pharmacological
▁adipose
▁tumour
▁(75%)
(3)
eared
▁gout
▁serotoninergic
▁deli
▁PMS
hemoglobin
-100
▁hepar
tetra
▁antimic
▁immunobl
owel
▁BV
umerous
▁1500
orax
▁PW
vating
.5%
▁Concentr
HETE
▁Triton
▁influencing
▁solubility
▁(70
▁Optimal
▁limbs
uretics
▁coronary
▁cholest
▁myocytes
ioid
amines
oxal
▁effusion
▁NM
▁hypertensive
▁shortened
triphosphate
▁noninvasive
▁specificities
▁Whereas
▁TCDD
▁questionnaire
▁rash
pendent
imethyl
oA
ACh
strand
▁antidepress
▁OA
▁TA
illus
▁ranged
phen
▁50,000
rogenase
▁positivity
▁emesis
▁hazards
▁alloster
▁intrac
▁CDDP
lycerol
▁inherent
TG
▁saturation
atural
▁intrap
▁8.3
▁contamin
▁supplementation
IIIa
omeric
▁nutrients
▁lobes
▁hemorrhage
▁72%
▁Statistical
effects
▁evaluates
▁tachyc
▁183
▁cerevis
1.
▁encompass
itro
▁Eighteen
▁Experiments
▁thickening
▁psychosocial
▁perox
▁tuberculosis
▁echocardiogram
▁fracture
▁36
psych
▁neoplastic
▁infiltrating
phosphatid
▁measles
▁SG
▁apne
▁embryonic
▁descrip
▁HSP
▁ultraviolet
orectal
▁86%
▁NIDDM
▁practitioners
▁1.16
▁primates
▁genit
ereb
▁enzyme
alp
▁excitation
▁synthesized
▁macropha
IgA
▁adenocarcinomas
▁fluidity
▁chickens
▁Gyn
▁dementia
iscal
▁PSA
▁fibrin
▁strand
pecific
▁granule
▁sphincter
compared
▁supernatant
▁exis
▁CK
▁Subsequently
▁dehydrated
▁termination
▁archite
▁unpredictable
cinolone
olesterol
physiologic
idin
▁atypical
▁elevate
▁transplant
GnRH
▁glutamate
▁flashes
▁postoperatively
▁elevated
uvate
▁blin
▁toxins
imin
▁37
▁MAP
▁kd
▁preceding
60
reases
▁ODC
essel
▁digesti
▁withdrawn
▁0.70
▁20,000
gia
▁osteoporosis
▁apo
▁clindamycin
▁irrespective
organic
0.9
ocytosis
▁plasmids
idate
▁transection
5.
▁tubercul
clonal
▁develops
blocker
▁rheum
▁instruc
▁depolar
▁assemb
▁Recom
▁sti
▁bleomycin
▁sterile
▁elicits
▁NI
▁primers
atally
▁ATPase
▁interstitial
▁rejection
violet
7),
▁morphine
▁buspirone
▁glycine
ayed
gag
▁108
▁difficul
▁BMT
▁questionnai
▁atheros
feren
▁80-
▁regen
▁AMI
▁300
▁LTB
7%)
▁prolif
▁multis
8).
-[
▁tumor
roso
ynthe
leukin
amethoxazole
700
lora
blind
cribed
tochemistry
▁85%
fron
▁biopsies
eptide
▁Laser
mature
▁frac
neph
▁0.1
▁daytime
trib
▁Subjects
▁exer
inositol
▁0.025
▁perfusion
dip
esic
▁(28%)
andros
actin
endri
▁mediating
phasic
odiazepine
▁Successful
▁rheumatoid
otopic
▁responder
-35
▁follicle
▁homogenate
terase
1/
flurane
▁[125
▁Maximum
▁endothelium
▁chicks
▁deoxyrib
▁moieties
▁zinc
▁shor
▁focal
▁weaning
103
▁isolate
icine
rine
surgical
▁genic
▁thermo
rected
▁corticosteroid
-48
▁electrolytes
-15
▁vesicles
▁EMG
ompan
▁enti
▁hypogonad
contrast
▁alterations
▁subcutaneously
▁steers
ocellular
▁actin
▁rabbits
▁104
21)
▁trabecular
parous
▁gastrocnemius
atible
▁lutein
▁0.001)
▁3.1
osylation
2+-
▁arginine
▁immunotherapy
▁chond
▁immunologic
years
▁complementary
▁microorganisms
▁epididymal
▁weakly
▁alteration
▁cyt
aemia
▁rises
▁resis
dle
8)
erant
gus
7%
▁neurologic
▁hypothesized
▁occlusion
jury
▁Staphyloc
iagn
▁judged
▁articular
▁18-
▁255
▁RBC
lipid
osac
▁guanosine
▁defective
▁Tolerance
OH
▁epileptic
▁CRF
gland
oprolol
▁pA
▁respondents
greater
▁sorb
▁lymphoma
▁compares
edocromil
/24
15
ophils
iodo
tituted
entile
phylaxis
chemical
othre
valine
ysts
teria
3/
encephalon
▁systolic
▁verte
▁influenz
▁encephalopathy
▁lysine
▁crosso
▁ionized
aortic
▁diphen
▁60%
▁Highly
▁worsening
▁emphasized
▁cytolytic
32
▁accumulation
▁differing
tries
umably
▁mIU
phrag
▁adhesive
residue
▁antigenic
▁serolog
▁arterio
ithine
▁selectively
▁SDS
▁ribosomes
vaginal
▁171
hig
▁1981
▁dentures
acted
▁compositions
▁immunoassay
hCG
MHC
1);
teroidal
▁sutures
▁fistula
hydrop
▁adi
▁Kine
(2
▁statistically
▁55-
▁intravascular
▁0.14
▁leu
▁immunore
▁immunoprecipit
-50%
▁transplantation
▁duplex
52
▁(56
▁cerebral
ardias
▁201
tember
affec
▁30%
▁Transient
▁establ
▁assis
ygous
▁immobil
cade
▁stringent
▁alanine
operidol
demic
feron
entral
▁thal
osterone
▁Lactobacillus
aldosterone
▁neuron
▁biologic
▁pK
23187
▁109
1-1
▁Physicians
tub
▁17.
▁CI
roxen
▁leukocyte
▁hairs
otoxin
70
▁virtu
▁staging
▁anaesthetized
ucas
▁underestim
▁EcoRI
▁dihydro
▁165
ocytes
smokers
ticular
icidal
▁chemically
eptic
▁relapses
▁7-
▁methodological
▁MG
iciently
▁necrotic
2+/
▁LDL
tocop
▁2.4%
▁clonal
200
ionate
▁persistently
nec
▁eczema
▁22
0.
▁hypothalamus
▁spermatozoa
▁79%
▁heifers
rophen
▁intraper
▁isozyme
▁predictor
SAID
▁nadir
orated
tisol
fused
▁106
▁fetal
▁mU
ystitis
▁RV
▁(36%)
▁neutrophil
▁degeneration
▁dismutase
▁2.8%
arginine
▁emptying
▁fibrils
atching
erebro
operatively
agonist
/18
▁vWF
▁kinases
▁prolongation
▁primate
▁congestion
▁protec
▁concomitant
-1.1
▁GTP
▁mimic
▁Bone
▁50%
cholesterol
▁ventilatory
▁incubation
▁monoamine
▁diacylglycerol
▁10.8
▁mesenchymal
▁docum
▁venom
fiber
avail
▁diseased
▁tracts
]-
▁reliability
▁ASA
12.
▁Infection
ropriate
▁administered
aminob
▁acces
▁receptors
▁melanomas
▁scans
▁communic
▁ara
▁rhabdomy
▁sperm
▁inconclusive
endix
▁fung
▁mammography
▁assessing
▁0.77
benzo
PAF
-1).
▁conjugates
aptic
▁radios
▁0.58
orubicin
▁steroids
▁concurrent
▁spherical
▁electrostatic
▁metabolism
▁Kinetic
322
omized
▁ketone
taz
▁oxym
▁Measurement
catalyzed
▁mAbs
▁130
▁Prospective
▁slowing
▁mononucle
maximum
▁clonidine
▁tec
▁hams
▁shorten
inemia
dor
▁lowering
respective
▁manu
▁competent
wk
ller
▁sclero
▁caro
olism
▁nasal
2%
▁eradic
▁angioplasty
▁prognosis
atation
-14
▁20%
▁synthesize
▁kain
▁10
▁subun
▁jejun
▁ingestion
▁hybridization
▁mannitol
ocardi
▁myo
icin
▁nude
▁transcription
iphene
rogesterone
▁urtic
ucose
jac
▁purified
tia
▁endot
enters
▁septic
▁entero
▁tendons
tif
▁Seventeen
▁specifying
▁-2
anol
ifed
▁ethanol
▁lymphadenopathy
▁perikarya
▁50,
clamp
aceous
▁asbest
▁MM
converting
17
▁resol
▁fluo
atum
optic
▁35-
▁clones
▁adjuvant
▁dilation
IH
▁infectivity
uris
atectomy
▁redox
primed
▁neoplas
▁hemolytic
ceptive
▁10(-8)
▁asymmetry
adine
esophageal
▁NMDA
▁creatine
▁leuc
▁NSAID
ivary
(+)
folate
iminary
grees
▁tachycardia
oblast
oscopy
▁intermittent
▁bovine
olipids
▁azathioprine
▁sequencing
bac
▁VP
▁Plas
▁(10
▁insertion
hetamine
▁ICI
▁Kupffer
▁oils
▁diffuse
exin
▁prosthe
▁neo
▁radiography
▁humoral
▁concep
otherapeutic
minis
ervical
▁ambient
▁pars
turnal
LN
agonists
igl
▁(45%)
hydramine
▁recipients
▁biochemical
tiazem
▁headaches
▁250
terolog
▁sensitiz
▁threonine
▁pyridoxine
▁7.4
oplasmic
7;
▁1.6-
incub
▁14%
▁leuk
▁mediates
ophores
▁cDNAs
▁granules
tention
▁aggression
▁phorbol
ochem
▁lymphaden
8),
▁relaxations
▁benzyl
▁FD
▁ultrasonic
▁sut
▁antenatal
▁agglutinin
▁Pretreatment
▁relapse
▁posth
▁sci
▁dentate
▁mediated
▁eti
2.2
▁acutely
▁particulate
▁chan
▁edema
▁13-
echanical
4,5-
▁goiter
▁cerebellar
▁repro
▁tibial
▁lipids
▁(1.3
86
▁MoAb
▁3.7
▁codon
▁forearm
▁outpatient
eal
▁sensitized
lym
▁microelectro
▁incorporation
▁.1
▁Meth
sants
ected
▁cryp
▁uterine
▁vesic
▁hemoglobin
Glc
▁disturbance
agin
48
maleimide
▁macrophages
▁genetically
▁perforation
▁96
▁valu
▁AH
▁antithrombin
Ep
▁enal
tiv
▁enlargement
▁spor
▁62%
3+
HDL
▁fetuses
▁resonance
▁146
disciplinary
lycemic
▁conjunction
ulline
quit
▁predictors
▁anatomic
▁membranous
3;
amol
▁2.3%
▁EI
occi
▁lactating
▁laparoscopy
▁aluminum
▁carbohydrate
▁ablation
roximately
▁Americ
▁epilep
3%)
▁ultim
▁evoked
prandial
▁femur
▁halothane
olecular
▁0.54
▁dendritic
▁1200
▁neutrophils
▁disclosed
▁Caucasian
▁intravenously
sibly
orec
▁mM
▁LT
▁218
▁fossa
▁immunoblot
ellar
▁weighed
▁adverse
▁serum
BMI
▁(0
▁saturated
▁80.
▁histological
▁cereb
▁nebul
▁intral
▁PaCO
▁2.1%
▁gyrus
▁leukemic
moid
Hodgkin
▁Evidence
▁identifiable
▁carnitine
▁(44
43
tent
▁euk
▁histones
▁stent
▁functionally
onin
reased
.7
kDa
▁strands
▁incompetence
apine
▁nondiabetic
▁cohorts
▁IB
▁adduc
▁OD
▁NGF
▁nicotine
▁extraction
▁cyc
▁16
▁protoc
rocytes
▁analgesics
▁acne
▁antimicrobial
duced
hydration
▁hydrox
▁24,
glutin
▁MCA
▁0.0001).
▁elucidate
▁parie
titial
ampl
▁0.49
▁ICAM
-1.0
▁obstetr
▁pathogenic
deple
fatal
albumin
▁sonographic
luc
▁calves
▁spermat
▁exhibits
▁catheters
▁rebound
▁155
▁ventric
▁7)
▁sciatic
▁beads
▁wean
▁detrimental
▁affec
▁PRA
▁SEM
pregnant
▁monke
▁fibroblast
▁unin
▁phosphodies
▁0.7,
▁emulsion
▁hyste
▁formalin
vastatin
oflav
vae
▁Factors
▁confluent
enteric
oceptor
▁(100
▁acco
▁radioactivity
▁distric
▁lacto
▁targeting
▁melan
eptidase
odon
▁-0.7
▁postmenopausal
▁anesthe
▁overt
▁hemorrhagic
▁endoscop
▁commercially
activation
trodotoxin
▁postnatal
▁carbonic
▁anhydrase
▁myometr
▁Gs
▁repetitive
▁orthostatic
▁bombesin
58
▁immunosuppres
▁maximally
▁attributable
▁87%
▁anemic
adenosine
▁5'-
▁HDL
▁doxorubicin
ostic
▁microcirc
▁atmosp
ygo
wann
▁flap
▁1:1
10)
▁matur
▁PAF
GSH
tide
▁graft
▁analyses
▁lacks
105
▁myelin
▁(400
▁reacted
▁135
▁extras
▁34%
illin
▁loos
▁adenocarcinoma
isters
▁reticul
▁vitamins
▁kerat
squ
▁Cyt
▁pharmacists
▁immunogenicity
iary
▁pati
epine
▁phenyl
SHR
▁(-)
ventional
▁preoperative
▁theoretically
▁glucocorticoid
irds
▁intolerance
▁hypokalemia
▁linole
ubs
▁infused
omyces
▁elongation
visc
▁inactivated
▁sphinc
▁Various
ositi
▁TI
▁indicators
▁10(5)
systolic
butyrate
▁reflecting
ighted
brom
▁fumarate
-8
▁reservoir
▁Reduction
▁SHR
▁isoniazid
otyp
limb
educed
▁intest
▁thir
▁1.4%
Bs
ophen
▁endotoxin
amyl
meas
▁170
▁(14
▁Differen
formin
▁disseminated
-90
▁parenteral
▁compensatory
ults
▁superficial
▁percutaneous
onas
schem
essive
▁defic
tured
▁3.5%
▁lymphokine
▁parotid
▁chemotaxis
sies
▁recurrences
▁mutant
▁PGA
▁recurred
▁depres
▁thrombosis
▁2.5
lact
▁correlate
7-
▁fluoxetine
▁periodontal
▁glutaraldehyde
▁noradrenaline
tures
▁PLA
▁phosphatidyl
▁covari
▁ratios
etence
▁larval
.3%
promoting
▁lep
cristine
▁OT
▁sugars
pyruvate
▁(1).
▁prostaglandin
▁modalities
ellular
▁Likewise
otypes
mum
▁obstructive
▁cosmetic
▁irrever
dibular
athione
▁Relative
ecre
▁-15
idis
oreceptors
urk
▁occult
▁intercourse
acil
-3-
▁implant
-4,
imination
▁phosphate
rologic
▁crest
▁cephalosporin
physiological
▁[3
▁lumb
-22
▁0.005).
odg
▁DNAs
▁impaired
iosis
36
cyclic
ranged
▁triti
▁44
▁solubilization
▁pathologic
▁cellular
isopropyl
▁(5
▁atri
▁guanine
edding
▁obser
125
▁blots
thymic
tron
▁discontinuation
▁208
▁90%
▁postoperative
▁Oste
▁pulp
▁statis
Cer
▁persisting
▁suture
teine
▁41%
tigo
▁30%.
ticle
anic
▁(29
▁PPD
▁ketamine
▁translocation
▁Lyme
▁hepatotoxic
tilis
▁propranolol
oyl
▁inhibited
▁RNA
▁selectivity
▁inhaled
nee
monella
▁breaths
▁plaques
tations
ystic
▁Consid
anyl
)2
ophysical
▁enl
▁isotype
▁159
aternal
conjugated
▁arteriovenous
tions
▁delaying
mend
▁neuraminidase
icides
▁visc
ymethyl
▁tumours
arum
▁0.67
opathology
▁acidification
lodipine
▁chromosomal
▁babo
▁Bec
▁coval
odeoxy
▁FGF
▁63%
▁unrel
▁5.5
▁Specificity
▁lamina
▁microb
odiaz
▁18,
▁Specifically
▁substituted
▁bilaterally
0%
▁vasodilator
conversion
▁variants
tillation
▁ars
▁codons
tense
▁eliminating
ported
▁Alz
▁regar
▁0.8
salt
▁mesenteric
▁osteoc
▁46%
▁proximal
▁bladder
inducing
pituitary
ocytic
▁attain
▁Maximal
21
iotics
achn
▁polyclonal
▁osmotic
▁divertic
▁tricuspid
valent
▁MF
▁liposomes
tium
iciencies
ilized
2-
▁5000
▁(78%)
hemagglutinin
▁epidemiologic
erent
▁perfusate
Ig
▁elevation
truc
▁amylase
▁lithium
▁projec
23
▁0.12
▁thi
ulinemia
Barr
▁cen
fusion
posable
▁melatonin
▁0.08
▁microtub
histamine
ochondr
adm
▁tolerate
▁PRL
▁adenomas
-1;
44
▁nore
▁tricyclic
cents
▁25%.
▁ovine
▁cathepsin
▁thromb
enil
▁dendrites
▁conformation
▁20
▁ischem
▁obli
ubation
▁evolutionary
▁determinations
▁activator
▁wheezing
▁trichloroacetic
▁Pseud
▁analgesia
▁trophob
▁affinities
injection
▁polyc
dial
▁CG
▁constitute
▁positives
▁couns
thmic
▁thiol
▁acqui
+]
▁occluded
▁ascending
▁glycosaminoglyc
▁quiescent
uccessful
▁49%
▁varicella
▁demonstrates
▁nM
▁definitive
metabol
▁catalysis
▁cloning
alanine
▁colpos
mTc
▁dB
▁selenium
▁interpre
▁2.5%
▁33%
mega
▁prostatectomy
sorbed
uncture
lycemia
▁resul
▁spines
▁stratified
8+
▁chambers
▁6.2
▁detectable
▁mug
olesterole
▁10.7
▁9.5
▁anions
▁mep
▁glucuron
▁catabolism
▁59%
vascular
▁0.71
▁epsilon
sia
-1)
▁-6
rospor
▁amygdala
▁octa
ytoin
▁uptake
▁Samples
glutamate
▁ascorbate
▁34
ominant
▁Caucas
▁anastom
▁trypan
▁68%
▁eryt
▁benz
▁-0.8
▁serologically
▁TM
atous
▁dissolved
▁proportional
stranded
lactamase
▁predictive
▁(8%)
untary
▁saliva
restingly
▁uncom
ALT
▁[2
▁relapsed
▁REM
▁suicidal
▁revascular
▁diazepam
ocomp
▁cytosolic
▁1984
Km
▁invari
▁soleus
atchard
▁spi
apride
aemic
▁unipolar
▁Lact
▁silica
▁5%.
▁cruc
EPO
▁molecule
▁phyl
▁carc
▁cobal
▁rati
▁27
etus
oretic
▁5.3
▁0.98
▁Scatchard
▁transitional
▁cephal
▁neurop
▁aro
ocin
amilton
▁initiate
▁kcal
alate
▁hypothe
angi
▁mumol
obenz
▁supplemented
osan
▁glutamic
▁paralleled
▁catalyzes
uctose
▁postmortem
▁hospitalized
phal
▁raphe
MLP
▁paired
imidine
exposed
▁implicated
▁(67%)
zymes
▁promo
▁quinine
▁uremic
acrine
▁intake
▁glycogen
▁intensities
▁hepatoma
4-
▁Inhib
▁pH
▁sinusitis
▁phenomena
-70%
▁deficit
LISA
phosphorylation
perme
rescine
▁umb
▁prostheses
▁monkey
albuminuria
▁unilateral
methoxy
▁ganglioside
ecretory
▁bowel
▁lymphocyte
▁0.06
CHD
▁helical
▁Hib
▁100%
▁1%
▁(69
ostasis
reported
tero
ropine
▁numb
▁tonsillar
amilies
0.5
▁Progesterone
▁PAP
▁pea
▁elong
▁androgenic
elvic
▁fathers
EGF
▁intrauterine
▁titres
ensitivity
plants
tents
yron
▁normals
TPA
▁19%
▁1987
▁suppressor
▁phosphatid
▁1986
▁genotypes
▁intrav
▁neurones
eradish
itriptyline
▁48%
▁ison
cortic
▁bupivacaine
▁necrop
▁regulate
semin
▁176
erable
cture
▁rhy
88
▁nonsteroidal
▁Addition
▁nm
▁noc
NH
▁Functional
opulation
tak
▁hyperther
cholic
▁192
crystall
LV
▁lactation
▁antitumor
▁mono
▁proline
▁ipratropium
EMG
▁fluxes
ocar
▁rIL
▁grafts
ealand
ritic
▁vertebr
macrophage
▁piglets
permine
▁somatostatin
▁evidenced
▁athe
immunoreactive
weighted
▁provoke
puts
▁Estimates
▁GAD
obronchial
▁DVT
▁strokes
asions
▁15
achol
▁etiologies
uestionnaire
etween
▁cholera
▁CAL
▁SMC
▁perit
▁deletion
embryonic
tively
▁PTCA
▁splen
AO
▁radiotherapy
▁fla
(1,
▁filtration
▁medial
ergency
▁indicative
▁150-
▁confirms
▁lorazepam
▁14
▁anemia
omies
▁hrs
▁quinolones
abain
▁Carb
▁(5%
10
▁mRNA
▁(24%)
▁palmit
▁40%,
▁36%
▁Thir
abies
lys
▁adren
▁10(-1
▁centrifugation
▁osmolality
imentation
yrene
▁fibres
▁infrequent
osts
adication
▁keratinocytes
▁neutralization
opam
▁phagocytic
▁enlarged
▁metabolized
▁PEF
▁immunological
ocriptine
▁dus
/1000
aline
▁cardio
▁pylori
phor
gene
▁mobilization
▁CDC
▁CGRP
▁gastro
rophy
▁histochemical
▁aort
▁seroton
ocys
▁10.
▁gastric
pontaneous
▁physi
▁dams
yramine
▁endarterectomy
▁40,000
▁newborn
onidine
▁choro
▁pertussis
▁heterogeneity
apo
ostatic
LTS
esarean
▁Replacement
▁pressures
▁IgG
anine
henyl
▁sulfur
eclampsia
Tc
▁6%
anide
▁1,
▁ach
▁hypoglycemia
▁DHT
▁94%
nitroso
▁incis
▁sarcoid
▁orally
▁cadmium
▁evaluations
▁2.5,
▁differenti
▁apoprotein
▁EEG
▁CBA
▁androgens
▁uncoup
▁Alzheimer
▁visualization
▁triglycer
PKC
lasting
▁facilit
adex
▁treadmill
naph
▁enalapril
▁granulocytes
▁COS
opyr
coh
▁aorta
▁antif
▁neuropathy
▁blotting
tion
▁avian
hydroxyp
▁ploidy
▁0.05
▁normotensive
▁natriuretic
▁coordination
▁excretory
elec
▁digoxin
▁ischaemia
▁7%,
▁152
▁unidentified
▁arachid
▁resec
4,
acquired
▁isomer
▁synovial
tropin
▁proteoglycans
▁8.
110
▁29
▁consul
▁necrotizing
Daw
adrenoceptors
stimulating
oxia
parag
▁impairs
reactivity
0.1
▁fentanyl
▁stimulation
protein
▁Mild
▁crystals
▁fertil
▁similarities
▁regression
▁sterol
LU
▁1988,
▁psycho
▁incom
▁heterogene
reduced
▁iatrogenic
▁cytos
▁conjugated
yto
▁dissociated
plantation
▁1.1
phosphamide
▁antagonism
▁phenotyp
▁devi
ethyl
▁45
▁endemic
▁coag
▁audi
▁lateral
▁insemin
▁hCG
uccess
▁66
▁gluten
▁proteinuria
azepam
▁biopsied
▁Phen
▁equivocal
▁muscular
sible
ochrome
▁infrequently
▁indi
urban
atidyle
▁16,
rents
azep
▁colitis
▁bicarbonate
bile
▁90
▁keto
▁algor
▁sphing
▁hypotheses
▁acr
tein
▁rodents
imide
▁tet
300
▁nephron
▁appreciable
▁sedation
ensitized
▁catar
▁vitre
charged
piper
posterior
▁OC
▁cefaclor
▁depressive
▁perioperative
▁estrogenic
▁initiation
gative
tussis
▁tended
7,
▁1983
aryngeal
/5
usp
substituted
-79
▁spectro
fine
▁unaltered
▁erythrocy
itance
▁31%
mediated
▁degradation
normally
▁pathogenesis
▁Estrogen
▁ubiquitin
▁ND
Ts
▁immunofluores
tabol
▁fluconazole
▁challen
▁ACE
▁midline
▁nonf
▁(0.1
▁peritoneal
▁monocyte
otom
exchange
▁11
47
trically
rowth
000
▁DMP
keto
▁dextran
▁osteoporotic
ymme
▁bronchoalveolar
atibility
aluation
▁LFA
▁differs
otropin
emak
▁PMNs
▁declines
14,
tabl
▁(5-
▁90.
ivered
ventilation
othi
▁0.21
▁macromolec
▁esophageal
-10.
▁neonates
stimulation
inone
FU
▁mutagenic
▁cows
▁139
▁chloroquine
▁12.
zotocin
▁HeLa
▁UT
rosal
▁symptomatology
otox
iversity
▁ultrastruc
rosine
▁immunos
(4
▁thyroxine
▁spacer
▁shunt
bran
aturia
▁HCl
▁predominance
▁induction
ropriately
▁0.00
cutaneous
onephritis
enol
▁8.5
ulses
loon
fibr
▁myofibr
athetic
▁glycosylated
▁40.
▁rehabilitation
aerobic
▁swelling
psin
cys
▁vascular
▁parathyroid
▁cancers
▁43
▁prescriptions
▁6.1
▁(12
treatment
containing
▁overex
▁methionine
▁proximity
1210
ausea
▁binds
▁nigra
▁gamma
ration
taining
▁EBV
▁desatur
▁retinal
▁onset
▁cataract
▁Bacter
▁prolongs
3),
Hyp
▁seasonal
othiaz
▁depolarized
▁calor
▁tidal
Rs
▁isoforms
▁adducts
ogenously
▁intubation
▁RNAs
ylline
pressing
phosphor
▁immunocyt
▁dismut
▁bypass
▁Inventory
▁GABAA
▁arteries
▁bran
▁uro
▁vaccines
▁0.5%
mol
oscopic
▁tas
▁constriction
▁bioavailability
▁CHD
tradiol
▁0.59
caro
.4
▁carcinogenic
▁splicing
▁spind
▁restor
▁biology
▁diarrhoea
umping
romic
▁cirrhotic
▁tyros
▁metformin
▁resour
▁synthesis
▁Cd
▁quantitated
▁doxazosin
▁hemo
phil
otrexate
▁underwent
▁10.4
▁modulation
▁induce
intestinal
▁10(4)
▁inhal
▁interacting
▁Responses
atropium
▁velocities
▁dizziness
▁suction
▁Transi
▁labial
▁electrophoresis
▁87
▁secretin
▁elongated
renic
▁48-
-1.
▁(92
▁differed
▁ATP
▁transgenic
ogeneic
▁varic
▁vimentin
ponin
▁hydrop
▁antic
▁(62%)
▁appendic
▁necro
▁Schwann
▁Amin
Thr
▁albumin
▁natri
▁thyroglobulin
▁gonad
▁Haem
onary
▁deprived
divid
▁inters
pharmac
onuclease
▁(2)
lude
▁serotonin
ovulatory
▁diclofenac
etaz
adiol
▁lymphoid
▁carbachol
▁reversible
▁reversing
hion
▁nodular
▁immunodef
.9
▁luteinizing
-9)
25
▁biotin
▁tris
▁NMR
▁hydroly
▁seizures
▁sialic
▁190
▁Chlamydia
▁cAMP
okinetic
▁reacts
▁cathe
resist
▁yr
▁incubations
trients
ulitis
retin
▁characterizes
▁256
Cu
ospecific
directed
▁0.47
independent
▁Sprague
roglobulin
▁vacu
▁grains
▁IgM
▁340
▁diaz
amphetamine
▁menopausal
obac
▁agarose
▁enzym
▁trachea
79
▁47,
▁investigator
▁homozygous
▁carpal
-6-
▁stools
▁sonic
opi
cellent
▁neuromuscular
▁Dose
▁marginally
▁unil
osyltransferase
▁incompletely
▁cytoch
▁adolescents
▁schizophrenia
▁colonies
therapeutic
ulla
▁irradi
▁fatigue
termined
▁horseradish
▁(13
rological
▁alcoholic
▁disturbances
▁Pb
imbr
rosy
▁carbox
operative
tized
9%
▁Isolated
▁fron
▁reti
erin
umented
▁adenosine
▁lymphatic
▁Candida
▁mitosis
▁cytochrome
▁24%
▁172
▁Incubation
▁166
▁progres
▁purine
turition
▁(0.0
▁reticular
▁zym
cholate
▁markers
obarb
▁canc
omegal
▁Calcium
titu
▁mandibular
roxicam
▁biphasic
▁cytokeratin
▁progen
▁(82
▁Steroid
▁acidic
▁cortical
▁polypeptide
itum
▁integrin
▁eighth
alb
▁coex
(2+
▁moiety
IU
▁BCG
▁microf
▁40-
▁waking
▁cleavage
▁retina
osensory
▁Lipid
▁0
▁tach
entified
▁unnecess
▁8.6
▁iliac
▁venography
▁carbonyl
▁abnormalities
▁clu
▁confirming
▁fascic
▁58
▁Salmonella
(5
rography
▁qualit
▁radiograph
▁suppressive
▁trimethoprim
▁Fourteen
▁metastases
▁TP
▁iodine
▁previ
▁projections
▁gangli
▁constituents
pinal
▁subgroup
ylchol
▁hydrocortisone
orac
▁cerebellum
veness
hips
▁conserved
ylation
▁interv
etent
▁molecules
dense
120
zyme
▁macrophage
carotene
▁adenylyl
▁cholinesterase
▁retard
▁deoxy
▁positional
▁anat
allium
▁scle
▁inward
▁sput
▁carcinogen
▁infusion
▁162
▁Nineteen
▁Aden
▁screened
EPs
gents
kinson
▁11.8
▁infarction
▁-7
tructive
growth
▁agonist
▁desm
▁readings
▁inhalation
pyr
ventive
immune
▁nig
ometers
▁ery
▁21
▁70.
rates
▁favourable
▁Mg
phrine
▁blas
oxid
amole
▁phy
▁asymme
arrhythmic
acholine
uronal
▁margins
▁ionomycin
▁synerg
▁prognostic
RIF
▁Ultras
▁(1),
▁MRI
▁stratum
osteroids
▁deviation
triglycer
▁analogues
▁Serum
keleton
▁trigeminal
▁antigen
▁oocytes
▁myopathy
▁evaluable
▁glucocortic
▁clon
▁subdi
▁CHO
▁Nit
▁reversal
▁43,
Mg
▁150,
▁exag
▁proteoglyc
▁antibiotics
▁interventions
▁obstetric
▁bacteriophage
▁sediment
▁4.6
▁internally
oplasm
rae
tency
▁macrom
▁fimbr
imid
yclic
▁tiss
▁MH
▁ester
loride
▁physiologically
3-
▁backgrounds
▁incubated
▁fluorescent
renaline
▁9
Gy
rotid
-3
▁Tum
▁certainty
▁differentiation
▁phenotypes
▁sulf
▁dissec
tors
▁infancy
ergen
▁Tissue
▁priming
sero
35
▁IGF
dered
62
▁correlated
gressive
ogenicity
▁persistence
▁DD
▁undergoes
▁215
▁chec
▁differentiated
▁proteoglycan
▁stimulator
▁pretreatment
▁NADPH
▁myotub
▁equilibr
-6,
acyl
pril
▁admissions
▁perinatal
▁genotype
-1000
altered
▁exogenous
▁erythroid
▁TSH
tural
andida
▁0.09
butamol
▁TDI
▁131
▁clinically
▁aden
▁(95
distal
▁intractable
140
oplastic
▁WK
▁quadrup
▁epiderm
▁2.1
0,
.3%)
vul
▁Intra
tracted
▁harb
oxyl
▁oste
▁erosion
▁perfor
Phe
▁0.24
▁eug
▁effector
▁attemp
timulus
inesterase
▁influenza
▁(+/-
▁inhibitor
ifedipine
▁infections
▁vaccinia
lusion
▁constipation
▁193
throm
▁monotherapy
▁prospectively
▁colectomy
▁reas
▁0.20
olipid
▁cep
▁cellul
▁isoproterenol
▁polyacrylamide
▁malignant
▁chloramphenicol
▁xyl
igaret
'-
allikrein
▁4
▁13.2
▁PDE
▁Sixteen
▁0.74
bodies
▁glycerol
▁Statis
▁singleton
▁muc
+)
▁miti
formations
▁excre
tivities
▁isoenzyme
▁smears
coag
▁gastritis
▁Pulmonary
▁monos
▁efficac
onvul
▁65
▁rheumatic
▁acros
opropyl
-5)
-52
▁gluc
▁stationary
▁inver
▁peri
▁inadequate
promazine
▁antiser
tism
leb
antoin
▁reciprocal
▁elucidated
▁amput
limiting
▁(62
▁(198
ervo
▁aromatase
▁cardiopulmonary
▁adrenoceptor
▁mutagenesis
polyacrylamide
▁electroly
ococci
phosphates
▁instrumented
plates
▁steroid
▁HCV
oradi
▁prosthetic
▁DCA
tually
▁papillary
▁compartments
▁Preincubation
▁Chrom
▁tubules
ociated
▁pI
ochle
▁compressive
idney
▁implic
▁defec
kelet
22
▁53%
▁analogue
glycerin
▁targe
9%)
elic
sul
▁264
▁secretagogues
isal
▁ureter
▁catalytic
▁oximetry
▁autosomal
▁pellets
▁bony
▁semen
tribution
ollagen
divided
▁NADH
▁neoplasm
▁deduced
-6)
▁aerob
opathological
▁0.5,
▁bundles
seud
▁coli
Kd
▁206
▁capsules
▁0.62
▁schist
ducts
▁fibros
▁irregular
anking
ropyl
coupled
▁absorpti
trial
▁axons
5]
▁cyan
▁NG
▁Dex
idic
▁platinum
▁BP
▁satisfactory
▁capacities
▁augmenting
anin
▁laryngeal
▁dP
▁gynec
▁Mn
▁microvascular
▁(11
▁60%.
sian
▁Statistically
▁gonadotrophin
▁cutaneous
▁antifungal
100
)],
eptid
▁enhancer
▁subdivided
▁bif
oglobulin
ronchial
-78
▁broth
illation
▁114
▁strep
▁Tn
opres
▁Inte
/1
reness
▁spre
▁freezing
▁spasm
▁1986.
reening
▁glycolysis
▁surgeon
▁assay
▁10%
▁Sephadex
▁excised
zine
▁catalyzed
affected
▁modestly
arean
▁arousal
▁undetectable
▁dihydropyridine
PSP
▁predic
▁COPD
ncy
▁parasympathetic
▁pyruvate
▁Raynaud
▁adaptive
▁AChE
fetoprotein
▁microscope
▁spikes
olol
edema
▁practitioner
▁MLC
▁memb
▁considerations
propanol
▁exce
parathyroidism
openia
▁Finnish
ariate
▁topical
▁0.34
expressed
ucine
▁isoelectric
▁Experimental
cellulose
▁hematuria
▁transcrip
▁protease
▁terminus
▁Lys
▁prevalent
itus
▁(40
tum
▁LHRH
▁Surgery
5,
▁periodon
▁recordings
▁embry
▁stromal
▁corneal
▁75-
4.1
▁adrenocortical
▁7.5
fir
▁gonococcal
drug
▁LD
▁scinti
▁regulated
▁pyl
▁decarboxylase
▁228
bic
ygotes
▁contraceptives
▁undergo
▁1.7
▁bacteremia
epithelial
▁putative
▁folate
▁38%
▁abrog
▁mating
▁cadaver
▁64%
▁depr
▁5.
▁rota
HF
▁glyc
▁nucleotide
▁cataly
▁221
vian
phadex
▁levodopa
azepine
▁Proc
arterial
▁lipophilic
▁septum
▁erythematosus
tte
▁bladders
-24
▁0.82
.8%
▁clotting
▁4)
▁11.
▁esophag
▁5%,
▁preceded
razole
rhy
emble
▁xen
▁49,
▁cyclosporine
▁enhancing
▁lapa
venty
▁pall
▁chromatography
opar
▁Tyr
▁subclass
▁locomotion
▁90-
-100%
▁astro
▁oestrogen
irradiated
itudinal
▁rumen
▁cla
ordin
CHO
▁selen
9,
spectrum
▁restraint
ercul
▁pigment
▁recombinant
junctional
▁favors
▁pim
▁Ib
▁thyroid
Ti
▁cloned
▁cyclooxygenase
atories
▁remn
DTPA
▁deferens
yro
exercise
▁hydroxyp
▁(19
▁metabolite
▁dioxide
▁hyperp
▁accounted
WB
▁carriers
diagnosed
▁cascade
▁Consequently
▁localization
effectiveness
▁transplanted
utions
▁prazosin
relations
▁radiological
▁synaptosomes
eruleus
onad
▁prostacyclin
▁dehydro
▁tubes
▁peric
riched
omonas
ifferentiated
55
trip
▁Immunohist
▁complementation
immun
▁regulator
▁1960
ficially
▁brom
▁irreversible
eces
▁hypocalcemia
omyel
▁supra
▁muscul
bacco
▁101
▁introns
Ba
▁afferent
cryst
ocyte
tran
apatite
trimester
▁elicit
vivors
ronectin
-]
▁sulph
▁papill
▁brach
▁(25%)
osage
▁ECM
▁resuscitated
stolic
uresis
PAP
prisingly
zot
▁preventive
▁thrombi
▁thrombus
▁97
▁Vitamin
ikary
romedial
▁Protein
▁unde
▁astrocy
▁Ringer
invasive
sue
▁10(-7)
▁libitum
choline
▁sensitization
umulative
CFU
▁encompassing
▁angi
▁ciprofloxacin
▁1
▁30%,
▁rehabil
tin
▁650
▁0.76
▁parv
taken
▁(85%)
▁remod
tophan
▁intram
▁termed
▁malaria
▁surgeons
▁Fib
▁auditory
▁fecal
▁1.6
▁idiopathic
▁vaginal
urones
▁glycer
▁promotes
▁Biol
osylated
benzyl
▁biologically
▁segregation
buride
▁mammary
oterol
▁yiel
▁arteriography
▁1,25-(
▁genomic
▁methyl
▁amin
▁collic
▁Injection
▁parat
▁multicenter
kets
▁7.1
25,
olitis
▁phosphor
▁dissociation
▁sten
▁30
ocortic
▁cirrh
▁globulin
▁twins
▁psychophysical
▁fas
▁oxidation
otri
▁10.0
ionyl
▁depleted
thyroid
opus
ylic
▁myeloid
▁84%
▁hemodialysis
ragment
9),
▁(48
▁leukaemia
▁82
▁metastatic
▁attenuation
inic
▁clamping
-5'-
▁(0.
▁cytogenetic
▁EIA
diabe
▁microM
irub
▁3.4
▁interc
enching
▁clarify
▁caudal
▁107
▁favorable
▁ulcer
▁.00
▁negatively
50,
▁Urinary
▁evid
▁freshly
▁linkage
▁gallst
▁subarachnoid
▁respiration
▁17%
asive
ocalization
acental
0/
-34
▁ure
orption
iptine
medicated
▁exceptionally
olestero
▁unaffected
▁selective
▁aberr
▁reacting
▁carp
-28
▁28
▁twofold
▁optimally
▁205
▁3
ymptomatic
▁carcinogens
▁osteoarthritis
▁rhin
▁incomplete
▁endometrial
Tu
▁examinations
▁inoculated
▁polymorphism
floxacin
▁theophylline
▁1.03
8]
▁13.
chlo
▁lyso
▁dispersion
acycl
▁gangliosides
PCR
adrenaline
ffec
▁ipr
-3)
▁3000
▁stimulant
ylyl
▁etiology
▁6.9
ucl
▁neoplasia
rays
▁CIN
▁gestational
MH
▁potentials
▁inactive
▁344
atase
supplemented
▁amide
iae
ventil
▁differentially
▁intraepithelial
▁95
▁0.61
▁cytochalasin
▁LAK
stim
▁afferents
esthetized
atients
▁randomization
brile
▁BALB
▁cumulative
ressive
▁shedding
▁nitrogen
▁35%
esides
▁thrombolytic
venous
▁homogen
▁hereditary
rosophila
ocor
▁aortic
thmia
▁carbohydrates
▁arrhythm
▁comprised
▁piroxicam
▁(3.8
tomas
helial
▁mitogens
▁adulthood
ogens
▁serotonergic
melan
▁phenotypic
▁Systolic
▁unexplained
▁bup
▁chlorhexidine
▁mucus
▁anesthesia
▁1.08
glucuron
ropath
▁70%
▁dispersed
▁residue
▁lysis
▁Dys
▁saturating
▁loci
▁attenuating
▁awak
▁randomized
▁remarkably
▁maxillary
▁favored
▁gradi
10,
▁purification
/10
▁inducible
urys
inescence
▁ocular
▁arterioles
aturity
omial
utyr
▁pell
.10
▁syphilis
▁hypertrophic
▁75%
▁neurite
▁insertions
heximide
oxicillin
ATPase
▁75%,
kephalin
thms
▁MK
▁213
tening
titis
▁cyclosporin
▁exchanger
▁contraction
5)
▁subunits
▁centres
▁canine
▁pla
▁fibrous
▁dichro
▁0.50
ogl
▁asymp
▁silic
▁overlapping
▁fulmin
vac
▁DH
erative
▁nephropathy
▁cartilage
jun
inephrine
▁atyp
molec
▁mucosal
▁acetylcholine
▁inverted
nons
operiod
▁GI
▁thrombo
▁deprivation
▁renin
8-
▁0.01),
▁1-4
▁resembled
▁Monoclonal
▁1.2
▁histopath
▁7
▁persists
▁abor
ropo
ifferenti
▁(32%)
▁congestive
▁infiltration
▁clearance
▁tubular
loro
▁rabbit
▁synap
chers
atonin
vely
tead
▁addic
▁Sulf
ulcer
▁indus
aminergic
▁240
electron
▁cardiovascular
▁exhibiting
▁durations
2.
▁nuclei
erving
▁78
▁cationic
▁physiology
▁Plasma
▁distor
CoA
ectom
omal
▁biosynthesis
▁MMC
50
▁GABA
uran
ritis
▁encomp
▁distinguishing
▁unlabeled
lycero
▁reag
▁resistant
piration
unar
sant
yocardial
75
▁donor
▁ammonium
ulatory
planchnic
ntolamine
▁59
astolic
methionine
▁GE
ermal
0.7
▁baroreceptor
ococcus
▁calorie
▁swine
rendipine
onstric
▁antin
▁membran
▁128
▁resemb
rein
pA
4),
▁incontinence
▁mammalian
dividual
▁substitu
▁isop
▁sampl
▁80%.
▁Diagn
▁demonstrable
▁elimin
▁3'
gran
yel
oligo
rotal
dC
▁placent
▁schizophren
rozen
▁catheter
terone
▁microtubule
40
450
lysis
▁subpopulation
▁contributes
▁norepinephrine
[3
establ
▁virions
ongest
ternational
lyb
▁tremor
▁physiological
▁livers
purified
▁lamin
abd
ophy
▁31
▁11.5
▁wors
▁muta
▁myrist
▁inhibitory
onatal
blockers
onomic
▁0.1,
encl
33
▁amplification
▁dermatitis
▁dele
▁BAL
▁excitatory
PV
SDS
▁quin
onc
▁0.4%
jec
▁177
▁235
▁phentolamine
▁multiv
▁valve
▁subjective
▁ovariectomized
▁0.93
▁epithelial
▁succin
/-
▁sclerosis
▁generalized
▁laboratories
▁connec
7.
▁repression
oglobin
controlled
▁beha
▁yolk
▁dentin
▁perin
Sepharose
trover
41
▁Trp
itre
▁filaments
▁interacts
hyp
yrox
▁polymorphisms
▁TEA
Ni
,000
9-
quine
transferase
▁rostr
omere
▁209
▁exerted
osition
MSH
▁heterologous
▁usefulness
▁morphologically
▁(31%)
uting
azin
▁precursors
▁53
▁gradual
operox
▁7.5%
▁147
▁therapies
▁coenzyme
130
ronate
▁caregi
thyl
atellite
▁homose
▁ferritin
apanese
▁wedge
▁nonin
roscopy
▁wards
trations
▁alopecia
tage
▁Km
administration
▁hyperlipidemia
inopril
▁messenger
▁advan
▁radioimmuno
▁7.0
▁500
sities
▁dopamine
▁hyperglycemia
▁disapp
▁reproducible
labelled
▁WGA
▁clinics
▁epidemic
▁conges
▁enanti
▁700
▁3/
umetanide
etine
▁diameters
osides
5%)
▁0%,
ongue
▁(18%)
▁tetr
▁enriched
▁nucleic
otrypsin
chlorothiazide
▁parac
enkephalin
▁tox
▁sorbitol
▁neurological
crimin
▁24-
▁cros
▁0.005)
nish
▁addi
jug
neu
▁immunization
▁CMV
amet
▁unrelated
▁phosphatase
bloc
ophosphate
ioma
ipr
▁pharmac
acylglycerol
▁alcoholics
▁1/2
▁adhe
▁8.7
▁.000
▁inges
▁PN
▁latency
mental
gA
entical
▁peroxide
▁hairy
▁thirds
▁35
Ra
▁abstinence
▁hyperthyroidism
▁sulfoxide
orotic
▁nox
▁curative
▁distrib
oskeletal
▁calculi
▁Saccharomyces
-23
▁polyaden
▁.05)
▁extre
▁LTD
▁monophosphate
▁synergistic
▁inconsistent
▁immunode
ometri
▁bradykinin
▁aeros
opoietic
tel
▁tandem
12-
ammonium
oprote
▁sphe
▁symptomatic
oflurane
▁equimolar
estis
▁Veterans
sensitive
meter
▁wt
terologous
▁oxalate
▁hyponatremia
▁4%
atrial
▁CN
ionic
sion
oxan
proliferative
diastolic
tRNA
▁topoisomerase
oride
monstr
▁rearrangement
▁comprising
▁ofloxacin
▁congen
vaccin
threatening
▁salivary
rostagland
▁biased
flammatory
▁Flu
▁20%,
atab
ilibr
▁2.5-
/20
aggreg
▁aids
daily
▁APC
lastoma
▁correlates
▁schem
▁vibration
▁latex
▁ischaemic
▁10(8)
▁0.2,
▁Cox
▁avid
▁cytotoxic
▁anionic
▁doses
omiting
▁Bacterial
▁agar
heat
oconstric
indings
▁PGE
▁252
▁interferon
HCO
▁GDP
4).
▁tissues
-16
▁Krebs
Fc
▁tumors
▁14-
▁identi
▁anaerobic
SBP
sess
▁constituted
xate
▁lifest
epam
▁allograft
▁DHEA
▁yohimbine
othreitol
▁0%
▁shear
▁lengthen
2,
phenylalanine
▁perme
▁bursts
▁repres
▁perivascular
lamp
▁quantif
▁hyperthyroid
▁0.000
adian
▁transluminal
tingu
olones
roprusside
hans
▁terminals
bular
▁heteroz
dihydroxy
▁morphologic
tenti
▁fulf
▁socioeconomic
▁inorganic
▁migrated
oprotein
▁angio
▁conception
▁vasculature
oinositi
▁originated
▁extensor
▁discriminant
▁verapamil
toc
▁demonstration
▁chym
▁chromat
▁dissection
▁rodent
69
organisms
▁morbidity
iplinary
esia
▁contour
aryn
▁ultrasound
▁1.
▁arter
▁microbi
87
▁fasting
molality
erated
brain
2).
exis
▁aeruginosa
▁3.6%
▁protr
▁Hz
abdominal
▁GST
ipro
hydroxyd
