matic
▁rati
▁tissue
achn
▁occupational
oag
▁deter
▁concer
apid
adrenergic
▁DS
▁nig
▁obstructive
trol
▁diabe
▁interc
▁interf
▁lidocaine
▁endometrial
▁lipids
▁CHF
echan
▁synovial
▁regulate
thyl
urther
▁posi
▁volunteers
ocomp
▁incis
loid
▁objec
▁organic
▁endoscopic
▁qualitatively
▁unilateral
▁dexamethasone
▁reproductive
▁depression
▁dosage
tact
▁inadequate
▁accounted
▁conclusions
▁multivariate
▁postoperatively
▁satis
▁disorder
▁persisted
▁admission
leu
▁rele
oyl
▁vaccine
▁duodenal
▁characteris
▁ratios
▁fluoro
▁HLA
gluc
▁undere
rolog
andard
▁plaques
▁contamin
▁physician
ocardial
azole
▁predictor
▁chol
crip
▁lowering
toc
▁meningitis
tiz
▁buc
orec
▁systematically
osomal
ophys
▁MIC
▁randomized
olution
▁structural
▁shorten
▁neurologic
went
▁sten
▁residual
▁wk
lated
▁carbohydrates
Cs
▁marginal
tur
▁assessments
▁epilepsy
ronchial
▁subjec
▁Americ
▁puls
cture
▁socio
▁declined
▁antibodies
▁ane
▁sple
viral
keletal
rometry
▁recordings
▁oral
▁clinical
inflammatory
▁lipoprotein
sus
▁fluoride
▁kidne
▁infectious
▁cough
luding
▁aimed
▁pulse
onad
▁cryp
▁bacterial
▁accid
▁describ
otoxicity
▁consumed
▁carotid
▁affecting
▁hemat
▁ligation
▁visits
▁gestation
ancies
▁fluids
▁expiratory
▁lasting
▁prenatal
▁atrophy
▁TM
▁conges
▁distress
▁adrenal
▁stimul
muscle
average
▁edema
assi
▁cortic
▁cephal
▁postoperative
reactivity
oxy
▁temperatures
▁trunk
▁graft
pregnant
▁neoplasia
▁anomalies
▁cystic
▁carc
ranial
tering
formations
▁airway
quine
▁clon
▁Subjects
ocyt
trib
▁Serum
▁interventions
seud
▁hypothyroid
▁suppressive
opa
▁undergone
▁lavage
▁immunization
▁instruc
▁sequenced
rele
▁brush
▁lumb
▁retur
▁recr
intestinal
queous
▁indi
ochem
▁bilateral
otype
topril
aminase
encephal
▁poorly
▁vaccinated
ymptom
amid
▁inhibitors
▁feeding
▁balanced
iable
▁quanti
▁corticosteroid
▁hered
▁molecule
fat
emic
▁likelihood
onvul
taining
▁pancreatitis
▁dys
▁precursors
▁presenting
▁gels
▁restric
resistant
ipramine
NH
▁hazard
▁corticosteroids
andida
▁dorsal
▁pyl
ocl
▁BM
▁stom
▁cavity
terin
bladder
▁tas
infection
▁nitro
▁perfusion
▁surveillance
▁excl
▁Subsequently
▁acros
▁progression
frequency
▁diuretics
▁HA
▁femoral
▁lesser
▁drain
▁intravenous
odil
▁postmenopausal
menopausal
▁sensi
ergen
RR
▁carcinomas
osal
▁synthetic
▁extrac
▁angi
▁swit
▁Phen
osus
▁ulc
▁retinopathy
▁TS
uscular
RP
▁epidemi
onazole
illary
sA
atoid
▁blocker
iazide
acetic
▁antigen
▁mice
yclic
itamin
▁treating
▁serolog
arrhy
▁toxic
ses
▁induce
▁knee
▁Prel
otox
▁cartil
▁cardiovascular
▁anesthetic
uretics
▁nifedipine
tically
▁Ultras
▁phosphate
▁suture
▁diagnostic
▁lipid
▁herpes
▁direc
▁dissemin
▁quantitative
siveness
orectal
tituted
respon
▁omega
odop
orbent
▁isch
▁unrelated
▁surge
▁frac
▁acids
▁intrauterine
▁prognostic
▁medication
▁gluc
▁fluc
▁Ace
▁abd
▁obese
▁immun
amide
▁angina
oride
ocytosis
▁leakage
itone
selec
▁responsiveness
eak
▁hydrocortisone
roscopy
yrib
▁thereafter
▁coag
iasis
▁exten
▁inflammation
monary
▁myc
▁postnatal
▁HP
omiting
▁DF
▁Lymph
thi
usate
▁intest
▁Overall
▁dox
sian
▁exhibited
▁Myocardial
tivity
sibly
▁arter
▁differing
▁reliably
▁acetate
yridine
▁hemorrh
▁focusing
▁congenital
▁hypothal
▁ester
▁substanti
tivities
▁Preliminary
▁aden
▁asymmetric
▁mEq
▁intrap
▁melan
▁outpatient
fusion
▁commercially
adily
▁allergic
▁tibial
nine
▁decarboxylase
▁preval
ylated
▁hemorrhage
tyl
▁examined
▁exposure
▁artery
▁premature
bility
induced
▁abuse
▁micros
▁pulsed
▁theore
umerous
itidine
rease
▁fractions
turb
▁bladder
TSH
ventil
▁endometrium
▁physiology
▁receptors
▁valve
▁mening
ture
▁confirms
ensitivity
ofl
olec
▁concentrated
▁hospitalization
▁survival
▁smoking
▁pts
▁liver
echn
tisone
ithelial
▁glomer
▁emotional
▁chorionic
▁computerized
accharide
ipheral
▁inhibit
zymes
illus
▁pancreatic
tional
FSH
▁mortality
▁extensor
▁adjustment
lyc
▁phenyl
▁cultured
olus
▁comprised
▁examining
▁CB
▁nonspecific
yroid
genic
ospitals
▁angiography
▁serotypes
ignific
▁unc
ducing
▁kit
idation
oxyl
tic
▁shortened
iciency
▁relaxation
▁experim
ingle
irds
itol
▁fibr
▁conditioning
icide
induc
▁hemorrhagic
▁calcitonin
▁transient
▁inhibitor
thma
▁plasminogen
▁gonad
otroph
▁glucose
▁complications
▁immunotherapy
odal
▁pregnancies
▁wors
idone
sulf
▁differentiate
idate
matched
▁verapamil
tioned
▁aluminum
regn
▁carbohydrate
▁exploration
▁investigated
rocyte
▁hypog
produc
▁subarachnoid
▁heal
▁favorable
▁hematologic
▁atenolol
▁dysplasia
▁proce
▁fibrillation
irubin
iability
▁homogeneity
▁gradi
▁trimester
mega
iagn
▁leukotriene
▁stratified
▁examinations
tropin
▁tightly
acts
▁steroid
▁voluntary
▁poten
▁intervention
erad
▁glands
▁menstr
▁unm
ipine
▁tach
▁capsule
osyl
▁inflamm
▁responsive
tory
▁EG
▁Significant
vival
▁suspected
▁excre
▁Thy
▁PI
eight
▁insufficiency
▁sexually
▁viral
▁strategies
▁brom
▁chloramphenicol
▁ery
cholesterol
▁conductance
eptide
▁occl
▁threefold
▁esterase
▁illness
aryngeal
▁averaging
▁infection
▁estrogen
▁demonstrating
▁neurop
▁benz
ximal
▁continuing
▁tamoxifen
abdominal
▁hyperglycemia
risk
▁biochemical
hea
vul
▁Surgical
▁diversity
invasive
ypical
icep
▁acqui
prising
▁regimen
▁immunosorbent
▁arterial
responding
▁Comparison
▁Twenty
eal
▁stepwise
etan
▁malignancies
tox
ticular
▁syndrome
▁stimulation
tive
▁statis
▁consecu
▁gonadotropin
▁Sixteen
▁endocrine
protein
▁gases
▁fasting
▁pleural
ulum
tious
▁NP
▁intermedi
ospor
▁juice
▁ulcers
▁wound
▁percutaneous
▁rotavirus
▁stren
▁Leu
▁thresholds
▁transit
▁Seventy
▁glycos
amethasone
▁normotensive
▁triglycer
▁instrum
▁Injection
▁hyperplasia
▁horm
ithin
acterial
opausal
▁manu
▁successive
▁duplex
▁alanine
▁screened
▁fertility
▁metastatic
▁sedimentation
iminary
ocys
▁incision
ameth
opath
ropathy
▁thir
▁postin
hyp
dine
ophilus
▁aspartate
▁placental
eryth
feeding
▁positively
▁automated
▁cyt
▁thems
▁recurrences
▁retinal
onography
▁variability
▁cultures
▁lupus
otrexate
ytoin
▁bronchial
▁Reduc
ication
▁insulin
iloride
▁canc
▁VA
▁progesterone
▁HI
▁HBsAg
▁prevalence
▁hig
▁ori
rected
▁explored
▁ciprofloxacin
▁intestinal
▁estrogens
fem
▁lateral
▁agglutination
tention
▁averaged
molecular
▁impairment
sue
onyl
erence
▁muscle
▁physiological
▁GA
uminal
▁stric
▁excretion
amole
oxifen
eric
amphenicol
▁testis
mL
▁choline
▁TP
▁diminished
▁ambulatory
ontal
osamine
▁leukocyte
▁RR
IU
economic
roma
▁genotype
▁adul
▁reactivity
▁microscopic
▁idi
ortic
▁IgG
▁enalapril
▁rigid
cessive
atitis
idic
▁cran
olone
▁bacter
▁ocular
▁tooth
▁lis
▁scans
▁serotonergic
▁hyperthyroidism
▁epidemiological
▁bolus
▁morbidity
▁tension
▁subf
▁disseminated
▁reflecting
▁luteinizing
▁saturation
acted
▁etiology
▁reticul
▁decade
arly
▁antib
▁opioid
tural
lobulin
▁excluded
▁reser
ochrom
▁widespread
▁blot
eces
▁capsaicin
▁pertussis
▁uterine
▁twofold
▁respec
▁mell
▁wash
plication
▁dosing
▁consensus
▁cuff
erate
tured
entric
aminophen
▁crosso
▁choles
▁Dop
CAM
hydr
treated
ovirus
lact
chol
▁retin
▁glutamic
exc
▁distal
▁angioplasty
lux
▁Initi
▁dental
xime
linked
▁resul
▁endogenous
GD
▁pooled
▁dye
opl
yroxine
▁extrap
▁apnea
▁Staphylococcus
▁complic
▁dose
▁sour
▁creatine
trated
▁perinatal
tiv
▁ket
ologically
lym
▁normalized
jec
othal
xone
▁lep
▁concom
ergency
▁Sixty
▁Subjec
▁digoxin
▁comparative
otent
▁depressive
glycerin
▁circulatory
▁asthmatic
▁phenomenon
▁prolactin
▁basal
▁strain
▁initiating
▁Approximately
▁retention
acchar
▁bowel
▁critically
arean
▁produc
▁evaluations
lusion
▁squamous
trac
▁needle
ycin
▁enrol
▁markedly
idity
▁crossover
vely
hetamine
▁discharged
methyl
tents
▁preparations
▁IgA
hypertensive
▁testicular
ications
tec
▁mucosa
▁lowered
▁pharmacokinetic
iotic
▁utilizing
▁glycol
▁deleterious
▁histology
▁concentrations
cents
fed
▁Concentrations
▁rectal
plas
▁abrupt
▁superficial
▁infarct
▁hetero
▁maternal
▁lactation
▁scanning
ilic
▁glut
▁aerobic
vents
▁differentiated
mittent
▁recur
▁colonization
▁labeled
▁defic
▁controlling
▁cutaneous
▁accep
openia
xia
deficient
▁congestive
uran
▁prospectively
kine
▁sustained
indolol
ranolol
sy
▁citrate
ophil
▁BCG
▁aggressive
▁infar
erebral
▁supra
oprol
drug
▁caries
tee
▁neurolep
▁nodules
▁bloc
oscop
▁prevention
▁disclosed
▁CAD
ocon
▁detectable
modified
▁arth
tral
▁pretreatment
▁osmotic
▁electrical
▁eryth
▁coated
▁AFP
▁Twelve
sibility
▁benzo
acr
▁responded
▁fecal
▁Seventeen
▁drugs
▁genital
▁triglycerides
▁suggestive
▁lapa
entricular
adjusted
nec
▁aspiration
butamol
▁investigations
tinguish
▁cys
ocyte
▁hepatic
ichia
▁presumed
▁diets
▁biological
▁experi
lives
▁ineffective
tation
▁underg
▁incidence
acin
▁benign
▁plasmin
▁mmol
▁Interestingly
▁moderate
ectomy
otre
▁atypical
▁manifestations
arrh
▁sepsis
▁adverse
peptide
irub
▁hydrop
▁histamine
▁pulmonary
▁enhanced
ereb
▁immunized
▁chloride
▁intram
▁perit
▁tetrac
roscopic
ayed
▁polysaccharide
yro
▁answ
▁coagulation
▁constituted
directed
▁resting
iotensin
esium
▁secreted
▁precur
▁multic
▁esophagus
▁antagonists
onucle
▁enhances
▁preventing
mend
▁resonance
▁CAP
▁Measure
▁stenosis
▁DMP
traum
▁thromboemb
apamil
▁schiz
▁indication
▁uncomplicated
▁tiss
▁deoxyrib
▁severity
▁thrombo
▁MI
erge
▁antibiotic
▁tobacco
hemat
teral
▁pharmacologic
eration
▁correlated
▁vitro
oxif
mol
ithi
▁stu
▁conjunction
▁Levels
elec
▁Tran
▁congen
▁exclusively
▁chlor
urations
itant
▁nausea
oretic
ctive
▁bicarbonate
▁transcription
▁satur
▁determining
▁PT
▁Clin
▁tuberculosis
▁gyn
▁disturbances
cyt
▁exis
▁juvenile
▁plasma
rox
acting
▁cerebral
▁monitored
▁imaging
opi
▁Subsequent
▁investigators
▁discontinuation
tizing
▁untreated
azolam
esity
▁yeast
▁bacteri
▁usefulness
reactive
▁phenotype
letion
hyd
omized
acrine
▁beha
mia
▁stratif
leukin
▁underst
▁nitroglycerin
▁mL
thirds
▁ranging
▁surgery
▁synthesized
orption
tency
▁Swed
▁demonstrable
DNA
odiaz
▁exud
▁donors
▁reversed
tice
▁pneumon
oplasty
▁hemo
pain
▁filtration
▁elective
▁ankle
▁captopril
▁modality
▁radiological
▁neon
▁assays
▁consis
▁microbi
▁salbutamol
plete
▁antidepress
▁metastases
luded
▁antic
▁mild
atab
▁instr
▁acet
▁inhibitory
plemented
aryn
▁receptive
▁contaminated
otherapy
▁routinely
▁outflow
▁ultras
▁ventilation
▁perc
tro
ffer
▁psychiatric
spective
▁inadequ
▁glucocortic
aturation
▁abnormality
▁mast
▁chronically
▁resc
▁exceeded
▁embolism
▁pregnancy
▁Meas
responders
▁baseline
yrid
▁hypertrophy
▁limb
pecific
▁coenzyme
organisms
▁mobilization
▁pig
organic
orts
▁tomography
mental
romy
ecu
▁ey
▁contraction
▁traumatic
▁tox
dL
SAID
inated
mature
▁outbreak
▁discontinued
▁Eleven
zard
piratory
ulatory
tissue
▁phosph
lox
▁subc
achol
aired
▁spi
onephritis
▁clinically
▁bypass
adequ
▁reproduc
hospital
▁obstruction
▁heparin
thre
▁compliance
▁aspirin
▁analyzed
vular
lipid
▁erythromycin
stimulating
▁contracep
▁xyl
▁Haem
▁uncommon
▁questionnaires
▁aging
▁schedules
▁presumably
vac
▁paren
avail
▁inver
▁quantit
olism
▁onset
pran
▁athletes
leuk
▁latent
galy
▁spleens
▁FT
azol
▁activator
lys
ucose
diabetic
ateral
aternal
▁manifested
▁attending
kage
▁skeletal
▁furosemide
▁ae
PV
oscopy
▁endo
▁reas
▁kinase
▁Hb
▁interleukin
feren
▁selec
▁hypothe
tene
ophy
▁cancers
▁irr
ffinities
▁admissions
▁lumen
icin
▁vein
▁Eighty
cortisone
▁dermal
▁propranolol
▁statistically
▁patches
▁encomp
▁uter
ept
▁triglyceride
▁saturated
▁noninvasive
lytic
▁Fib
coh
▁bacteria
xual
tility
▁defec
▁solely
▁Ninety
icated
▁specificity
▁longitudinal
▁TI
▁rats
▁balloon
rine
oxygen
▁inflammatory
thmic
▁hemoglobin
oxide
▁enlarged
▁dermat
▁arthritis
▁deviations
enh
▁dietary
▁vaccination
oidal
▁psychological
▁titers
▁transplant
▁impaired
tiveness
▁tric
aminop
▁adi
▁spont
▁arteri
teroids
▁Likewise
▁hypoglycemia
▁nerve
▁membranes
▁determination
amphen
▁chan
▁sheath
▁insignificant
▁sti
▁stain
▁underwent
itary
idine
pation
▁antis
usp
sych
▁toge
urea
seven
▁numb
omerular
▁helical
▁Acad
▁renal
▁hepatitis
lysis
▁Evidence
limb
▁diazepam
tance
▁eti
▁injected
atrial
▁copper
▁hydrochloride
▁advan
▁enl
▁LDL
onin
▁nutritional
epam
▁comprising
▁glomerular
ycline
▁interferon
▁resec
zyme
▁calf
entral
▁ejection
tin
▁poin
▁sugars
▁Tes
atation
▁reviewed
atible
opamine
▁childhood
▁pump
odies
▁infected
▁contributing
▁peaked
▁uptake
chloride
ffeine
▁colonic
▁decreased
▁mineral
▁arrhythmia
trial
▁meth
ching
▁assay
etent
tivation
▁mitral
tension
▁alumin
▁TC
▁provid
▁chor
▁esophag
▁leuk
vail
▁idiopathic
▁detec
▁amphetamine
▁assessed
▁virtually
▁Fifty
▁streptococci
▁myocardial
▁trials
vitamin
▁injuries
▁hereditary
▁decisions
▁repor
▁uric
▁placebo
trogen
razole
urnal
placement
▁histologic
TG
ylase
▁altered
▁nicotine
▁aerosol
phosph
ergic
▁implying
onary
▁ultim
▁coronary
▁potassium
▁allele
ureus
▁testosterone
▁Compared
opathy
amphetamine
▁PV
▁dysfunction
rocy
▁measurable
mitted
▁actin
▁calcification
▁sequentially
▁implants
▁uncom
▁suspension
▁antimic
▁glycoprotein
▁Sodium
▁efficac
clinical
▁surgically
▁metoprolol
▁PE
amily
uterine
▁refractory
▁magnesium
▁ventil
▁enti
▁preparation
ucl
▁exhibiting
dose
sion
▁remo
weighted
▁effectiveness
horm
▁comparisons
▁DT
gm
dial
actin
trop
ectin
existing
▁nonc
▁confirming
▁simultaneous
controlled
▁complaints
▁revascular
▁surgeon
▁sedation
▁venous
▁EB
amel
meas
▁abor
▁examination
▁auditory
versity
▁reass
tein
▁granul
▁androgen
▁preoperative
habil
generation
▁effec
micro
▁cholest
▁injur
tine
wes
▁ech
lycemia
▁recommendations
iaz
ially
▁administered
rein
ceptions
▁yielded
pite
▁Addition
▁perception
ogenic
▁dilatation
mented
▁efficacy
olig
▁measuring
▁prescribed
▁potenti
amicin
trates
▁sput
▁antid
Ds
▁intramuscular
▁peripheral
ascular
elic
sequent
▁risks
▁tracts
osterone
▁viruses
partate
▁limiting
▁quantified
▁pharmac
iline
▁relie
▁calcium
ophen
▁HDL
▁intrav
▁questionnaire
▁affects
terase
▁predis
▁amiloride
renal
usive
orough
▁cerv
gthen
▁proportions
ughter
ogl
ositi
pir
▁diagnoses
▁continuously
▁reveals
▁protoc
▁ranged
amuscular
▁genetic
ercise
▁microvascular
▁reveal
▁prophylaxis
▁Chronic
▁mann
▁tendon
▁PCR
gestin
otting
▁analges
▁rheum
ostatic
▁subjective
▁tetracycline
▁polyc
entif
lec
▁bathing
forming
ecal
ogens
▁cortisol
▁deficiency
tig
▁lutein
▁diabetic
▁algor
▁membran
▁agonists
jected
gth
▁thrombosis
▁diaz
▁discharge
ionine
▁infants
▁lacking
▁linearly
▁reductions
immun
▁HL
▁deterior
▁amn
▁Consequently
bic
▁multiv
▁mg
▁enlargement
ovascular
fib
blind
▁doubling
▁paired
▁cholesterol
omegaly
early
uncture
geal
adren
▁nutrition
ucas
▁symptomatic
vation
▁regurg
▁adherence
▁diagnosis
▁diagnosed
▁validity
▁embry
▁inherent
▁cerebro
▁CHD
▁persis
▁abdominal
idated
▁suppressed
▁ischemic
▁terat
enic
oreal
▁glucocorticoids
▁alternating
▁glomerul
LV
tron
tens
acute
▁weigh
▁dopamine
▁tolerated
uretic
▁reflects
▁seropositive
▁staging
▁relap
▁amput
▁tolerance
▁ongoing
▁infusion
plied
▁muscul
▁transmitted
▁anxiety
▁ppm
▁pressures
▁Examination
▁diffic
▁cis
▁resistant
▁psor
▁dramatic
▁quantif
▁diastolic
▁bioavailability
▁absorption
▁recipients
idase
▁Forty
▁esophageal
▁retrospectively
thyroid
cyclic
▁ablation
opathic
ordance
▁compli
▁transi
▁subgroups
▁influenzae
roscop
▁bilirubin
▁hyperg
▁ascorb
▁subcutaneous
▁oxygenation
▁analogue
▁Thir
▁enzyme
▁Oral
tenance
▁maintaining
dominal
ocor
sive
▁judged
▁rehabil
▁urea
▁autoantibodies
tening
iol
atell
▁outcomes
ifed
ionate
itrate
▁preven
▁duct
▁contraceptive
amus
▁arrhythmias
oids
▁asymptomatic
▁electr
▁chronic
albumin
▁nondiabetic
▁hepat
▁systematic
▁tol
agic
▁antagon
▁Insulin
bumin
ilization
▁exclusion
ampl
▁alcohol
▁contex
▁concomitant
▁acute
▁hospitalized
▁hydrox
▁adjusted
▁aberrant
▁plasm
▁steroids
▁adolescents
ignant
sies
▁pregnant
▁disability
▁vaginal
promoting
▁metabolic
▁deform
▁selective
▁ovaries
▁perceived
odipine
otoxic
▁parental
ensitive
▁accurately
▁conduc
▁ovulation
▁pH
▁hydrogen
▁Increas
▁colorectal
▁cere
otri
▁hypers
▁PP
natal
▁habits
▁sero
▁elderly
▁histological
tics
▁unaffected
▁PD
▁therapies
yzed
▁antagonist
apanese
▁cognitive
▁hypotension
▁prognosis
omies
▁characterized
ochrome
▁indicators
▁immunoblot
▁surf
▁emphasized
meth
▁considerably
▁syndromes
iph
▁elic
▁heterozygous
itonin
▁anatomic
owever
▁affinities
rents
containing
▁spine
▁recurrence
▁islet
▁adequately
ocellular
▁tube
▁cohort
▁vesicles
▁undergoing
▁immunoglobulin
▁regulation
▁desm
▁urinary
▁abnormalities
▁cooling
oprolol
▁practition
▁overl
▁dias
▁vitamin
▁prednisolone
▁identi
▁deaths
terol
arbox
▁neonates
erance
titute
IgM
▁exce
▁soluble
hist
imens
vices
aid
▁kidney
allium
▁retardation
▁cyclosporine
▁regimens
asal
▁commerc
xate
▁Afric
▁spinal
oprost
alc
▁sediment
▁LT
▁severely
▁hydrophilic
veness
▁cysts
▁gonadotrophin
▁infections
▁autoimmune
▁chemicals
▁nasal
▁newborn
▁casein
▁analgesia
▁plac
▁traum
▁predicting
▁adap
ecre
▁sputum
ocrine
▁cyst
▁hormone
▁prophyl
▁supplement
▁indications
brom
▁involvement
▁spontaneous
▁capsules
▁pathophysiology
▁menstrual
ensi
▁vomiting
▁glyc
BP
rated
▁postpartum
amol
▁cros
▁methotrexate
▁Streptococcus
inyl
uble
adm
▁polyp
▁regulating
▁luteal
▁eliminated
▁achie
▁dihydro
▁perip
▁excised
robial
vian
utaneous
ophilic
▁practitioners
enteric
urgery
enzyme
▁lumbar
thmia
▁prednisone
thmatic
prandial
▁bronch
▁unstable
▁establishing
▁hygi
▁acquisition
▁discon
april
▁yielding
initi
▁agonist
▁overt
antial
▁rehabilitation
▁immune
▁summarized
▁attenuation
oxid
▁progressed
ressed
▁lymphocytes
pressing
▁acetic
▁increments
▁recor
HDL
▁intra
▁Phase
▁metabolism
arge
▁oste
▁Survival
▁elevations
▁hypot
▁anemia
elves
itus
amous
▁placenta
minute
arachnoid
anding
▁reactions
▁initiate
▁smears
lobin
▁ischemia
insulin
tial
▁infusions
▁stab
gely
▁latency
▁exhaus
idne
▁cytoch
yste
uded
▁rhy
▁reflex
▁veins
inesterase
▁receptor
iant
▁discontinu
▁transfusion
▁PCO
plants
▁injections
▁decreases
▁predictive
▁localized
agonist
BH
▁systemic
admill
lude
uccess
▁wee
▁absorb
▁transverse
▁alcoh
flamm
▁overnight
▁metast
▁perox
▁hypertensive
▁intact
▁peritoneal
▁treatments
▁quin
▁thi
cys
▁challen
▁supplementation
erent
oustic
rofen
hydrox
plicated
▁emo
igible
▁pregn
omal
▁pelvic
ignificant
▁pyrid
▁sham
upus
▁neutralizing
▁cyclooxygenase
▁scre
▁promin
▁ovarian
illar
▁nursing
sives
▁bab
▁simplex
▁meals
▁Unlike
▁conservative
mortem
▁antimicrobial
▁systolic
▁ib
▁respiratory
▁familial
▁topical
▁cate
hydroxyp
▁predominantly
pig
▁seroton
ceptive
▁progn
▁heterogeneity
▁depressed
osts
▁probes
▁anomal
▁duoden
ardia
▁pancre
icient
▁initiation
urin
▁criterion
▁exacerb
greater
associated
cepti
▁thromb
effects
▁progressive
▁logistic
amine
ocar
educ
opr
LDL
epine
VT
▁decline
tration
▁dex
▁gestational
arb
▁adhesive
▁symptom
▁substances
▁methodology
▁adenomas
▁fever
▁contractions
▁laboratory
▁ulcer
tions
tif
opic
▁supplemented
▁insoluble
▁Intr
▁orally
▁radionuclide
▁cure
omes
▁attenu
oporosis
▁excision
▁Treatment
tially
▁electrodes
▁classified
▁techniqu
▁repl
ighted
▁oxygen
ilateral
blockers
▁Epid
▁ECG
▁wounds
▁presum
▁tumor
▁Tiss
▁bic
onate
▁freeze
▁gradual
kely
▁fulf
▁retic
▁compartment
▁iso
▁prol
▁anaerobic
▁acces
▁Neither
▁ICU
▁paral
▁inversely
▁resection
▁effusion
▁RS
▁IgM
ometh
olytic
▁Arter
▁malignant
loro
partic
▁causal
▁ingestion
▁amplification
▁therapy
▁cardiac
▁elastic
tric
▁neph
▁headache
▁ultrasound
▁lasted
▁Fifteen
phic
▁aspec
tives
▁folate
earing
titis
▁noc
sant
▁LD
▁perin
osity
▁surveys
avage
ffin
astric
treatment
▁Recent
▁prednis
▁enteric
▁insufficient
istar
▁pigment
acid
▁crucial
▁diabetes
trical
▁heavi
▁doses
▁radiographic
▁gentamicin
molality
uresis
venous
▁strains
adder
▁tertiary
▁pneum
▁Maximum
▁exposures
titution
▁disorders
▁fetal
▁Calcium
▁pituitary
▁deposition
▁rupture
▁recruited
eled
▁elimination
▁pretreated
rays
retin
ults
ospasm
aric
tures
▁Tissue
ximum
▁lact
▁cytology
▁epidural
▁atten
olesterol
▁predic
▁spon
astolic
▁derm
▁Factor
▁Scale
▁findings
iatric
esic
▁tended
▁nervous
epti
▁atropine
▁preterm
▁lith
▁decreasing
▁amph
▁regurgitation
amic
▁somatic
▁adipocytes
amination
terone
▁hypo
▁lacks
shaped
▁protr
▁glucocorticoid
▁coordination
▁ascertain
aicin
▁scientif
cine
romycin
▁failures
▁Doppler
armac
▁wheat
▁vag
tracted
▁salivary
▁Candida
▁proteinuria
▁irrit
▁concentrate
requ
▁saphenous
▁assessing
positive
oracic
coun
ulin
otor
▁aneurysms
▁percentages
gesterone
▁estradiol
median
ygen
ophageal
▁hospitals
▁cranial
▁vertebral
▁abnormally
▁inducer
tations
anine
thmias
▁definitive
▁Whereas
▁oxy
▁centers
tors
▁angiotensin
▁weakly
▁medications
density
▁Patients
▁gon
▁coli
▁Nine
▁ELISA
▁inh
▁excessive
▁couns
ostic
ariate
ocial
hydrop
▁articular
▁antiarrhythmic
inergic
▁biopsies
▁suppression
▁carb
idin
urate
▁cerebrovascular
▁malformations
▁cytochrome
▁expressing
▁endoscop
▁fracture
oxic
▁lesions
▁specialized
orrh
resist
yrox
▁biphasic
mong
▁suscepti
▁requi
▁fiber
▁polys
molec
olamine
▁healing
tosis
lycer
▁endemic
▁drin
▁oxytocin
▁deox
▁washout
plasia
▁durations
▁alcoholic
inely
embry
▁SG
athyroid
▁Increased
▁clinics
atients
ococcal
▁incorporated
▁pediatric
▁endoscopy
othi
▁Bec
▁comparable
▁nitrogen
floxacin
▁stimulus
odium
▁postprandial
▁aureus
kelihood
▁cyclo
▁intensive
▁laser
reast
▁guidelines
▁peroxide
blood
▁struc
▁ultrasonography
▁restenosis
▁surgical
▁malignancy
▁methyl
▁gastric
▁analgesic
▁inducing
▁treadmill
▁infarction
dition
▁optimum
apse
acet
sess
▁avoidance
▁graded
▁beats
releasing
▁amin
▁electrolyte
▁morb
▁practic
▁establ
otypes
oprotein
idazole
▁suppres
▁microorganisms
▁respon
▁examin
▁cartilage
coated
patients
▁tablets
▁incub
effective
▁inhib
essive
▁antibiotics
▁differe
▁decreas
▁cigarette
▁horiz
tant
immune
▁diarrhea
urgical
▁sampl
▁limbs
▁sampled
▁disturbance
▁dementia
orac
▁discriminate
▁trend
ithm
▁Cancer
▁fati
▁protective
▁compartments
atical
▁Thirty
ronch
▁asthma
azepam
tinu
▁tubes
ditions
▁anesthesia
▁rhin
ported
oconstric
▁dysp
cysteine
injection
antibody
▁HPV
▁resour
ifedipine
orh
LISA
▁reactive
▁malign
mokers
itro
▁adoles
rowth
oste
esin
▁HS
▁transc
ociation
▁lesion
▁rhythm
▁acidic
▁cardi
ischemic
▁vaccin
▁sulf
▁cef
▁diet
reased
onegative
assium
till
estis
amines
nai
traction
▁chemotherapy
▁Diagn
▁encour
▁lacked
osom
▁attributable
▁analys
▁hypertension
amycin
▁physici
▁nocturnal
▁behavi
▁thickness
ucle
epithelial
▁absorp
▁drainage
▁dehyd
▁dipyridamole
▁compounds
▁inhal
tively
▁hypoxic
kets
atient
▁bone
▁uterus
ipit
ophag
anol
▁blockers
asone
▁awake
▁ward
▁maturity
▁extracts
▁Combin
oglobulin
ocyst
▁survived
ominant
oxin
▁pneumonia
▁brainstem
toxic
ritis
trum
lactam
aline
▁occurring
▁Thirteen
▁saphen
▁elec
▁DBP
rologic
▁tes
ulose
▁moderately
▁erythrocyte
ogenicity
▁Escherichia
otyp
▁clus
▁identif
ritin
sistent
▁polyethylene
▁melanoma
▁indomethacin
pregn
▁retrospective
▁analyses
▁extre
▁probe
cemia
▁capillary
taz
▁incid
▁hypothyroidism
▁HSV
▁prostatic
▁ventricular
▁experimentally
▁reac
▁elevation
▁focal
▁consistently
▁correlates
▁reversible
tle
ethyl
▁glycosylated
▁weakness
teroid
▁penicillin
tile
edema
mg
▁withdrawn
▁hypothalamic
versely
▁pneumoniae
ocaine
▁fibrosis
▁referral
▁thyroxine
glycer
▁solitary
onomic
acerb
tally
▁fetus
▁Recently
tative
▁evid
▁toxicity
▁PH
▁HB
▁babies
tential
▁enlarge
▁progres
oglobin
▁assis
▁screening
▁pep
▁adenocarcinoma
trained
▁lymph
embran
otropin
▁dosages
▁recurrent
▁modalities
dle
▁neonatal
▁hypercal
▁morphine
▁evaluating
▁concep
tingu
olved
▁pharm
▁remission
▁ascorbic
piration
rous
plies
partum
▁comprehensive
ipro
▁serum
olic
▁soy
athy
▁emerg
▁ampicillin
▁atrial
▁attemp
▁ferritin
sis
▁healthy
ologic
▁fatty
▁creatinine
▁smokers
ifferen
▁clamp
yses
tition
▁immunos
▁intrac
▁neuropathy
▁discus
▁muc
uled
▁Alz
enicillin
▁pronounced
▁electroly
▁withdrawal
▁obesity
▁rhe
▁pathologic
▁bip
▁functionally
establ
▁sut
▁developmental
sions
▁doubled
LH
▁thrombus
▁Additional
▁epidemiologic
▁defects
tomy
▁mU
▁nicot
▁smo
▁normalization
▁sequelae
▁fixation
lyl
▁carriers
▁adop
▁chest
▁functioning
throm
▁insertion
▁VT
▁secrete
▁immunity
▁unchanged
▁trauma
▁renin
▁isolates
▁throm
▁immunobl
▁Eight
jun
tensin
▁termination
▁biop
hep
▁constr
icillin
▁relapse
inally
olated
ensity
regulation
sors
▁intense
responsive
crib
tus
▁Increasing
▁synthesize
omotor
▁paradox
▁elevated
▁adults
▁plas
▁nurses
▁ranitidine
▁accounting
▁caffeine
▁prophylactic
▁susceptibility
▁perioperative
▁aspir
rosemide
▁kinases
tussis
▁preventive
▁MRI
opril
duc
▁inges
roup
▁succin
ergy
▁antibody
▁artic
▁LV
imeth
▁euth
▁deoxy
▁abscess
▁HIV
▁spikes
▁influenza
▁cruc
▁qualit
▁gland
▁varies
bodies
sectional
hion
PCR
arynx
▁initiated
▁anticoagulant
yclo
▁prospective
rogenic
olol
▁pyr
▁sensitivity
▁bup
lood
ausea
operative
▁suicide
centr
▁histopath
▁vascular
▁colitis
▁bleeding
▁cessation
▁juven
▁confound
entia
▁attitudes
iotics
▁semen
trin
▁transferrin
elan
anin
tensive
▁modest
▁supple
▁incom
▁emergency
occal
▁neutrophil
astatin
inemia
▁albumin
▁proton
▁chemically
▁assessment
▁Higher
bacter
▁spor
▁pathology
tained
▁acutely
ipr
▁approx
eprazole
▁deterioration
▁clonidine
aturity
▁indus
cence
▁augmentation
▁benzodiazepine
ostomy
▁ESR
▁intermittent
atectomy
erating
▁identifying
hydro
▁splen
ycl
ethylene
ration
▁inhaled
▁vesicle
▁sulfate
duction
▁thyroid
BT
ogenous
tensives
▁manipulation
duce
▁elas
▁neutrop
ureth
▁epid
duced
▁zinc
▁behaviors
▁bactere
▁operative
fraction
▁diseases
tiary
bearing
▁uro
▁adip
▁stool
▁Hyd
▁monit
▁potent
orated
tual
inic
▁arti
▁junction
▁panc
▁bac
ymp
bral
▁improves
radi
▁HR
▁lute
▁sensitivities
▁rheumatoid
▁TSH
▁standardized
▁suppor
▁atherosclerotic
▁atopic
▁hepatocellular
▁diuretic
▁osm
▁invasive
▁carcinoma
oluble
▁reproducible
uric
▁trends
▁pylori
▁estimating
olysis
▁mellitus
▁intake
▁increas
▁predictors
▁grades
illin
onstric
▁nec
tent
angiotensin
▁intran
▁Hg
▁abnormal
feron
▁hep
▁enzymes
▁dissection
▁Myc
zation
▁euthyroid
▁enamel
▁kidneys
ocated
ulant
okine
▁circumference
▁dimethyl
▁guinea
ylic
▁pulses
▁nephropathy
wk
▁prevented
ffec
▁reduc
exposed
▁lithium
timal
sia
▁proximal
▁newborns
illance
▁bipolar
▁minimally
rogen
▁tumors
▁reliability
▁dors
arent
▁adren
▁mothers
▁shor
odine
▁Fourteen
▁abortion
▁pati
▁diarrh
▁slowed
▁hypox
ceived
▁nons
▁symptoms
chlor
▁fetuses
▁LM
▁meal
▁sodium
▁prolonged
rief
▁Hear
▁physicians
▁bradycardia
▁placement
▁Coronary
ocin
▁gastro
kers
▁cumulative
▁odds
▁implicated
▁detecting
▁carcin
▁anat
▁therapeutic
▁cereb
omycin
▁clinic
olute
vascular
bacco
▁enrolled
▁CRP
rosis
gative
▁ligament
▁specificities
▁weekly
▁improving
otassium
▁agon
▁Calc
▁methionine
stim
▁titration
▁reflec
loxacin
▁formulation
bac
romes
▁cured
▁Peak
▁clot
▁fractures
mentation
merc
▁inspiratory
▁Clinical
▁Alzheimer
conver
▁amniotic
▁stomach
▁extracorporeal
▁neuro
▁ure
▁autosomal
aturated
▁demonstrates
omethacin
anad
lep
igaret
ochemical
▁stres
▁complication
DH
▁impair
▁differed
▁adequate
▁substantially
tigo
ocytes
▁breathing
▁esters
▁depres
ologists
▁intracranial
oic
▁undergo
▁behavioral
arate
▁facial
▁mamm
urine
opres
▁therap
▁possi
tisol
estern
▁offspring
▁fatigue
▁plateau
▁hyperch
▁unex
▁aqueous
▁parathyroid
▁cervical
hers
tical
arbonate
▁reflux
angl
▁FEV
▁injec
▁deficit
▁sugges
▁foods
▁enal
▁splenic
effec
oneph
▁implications
▁normo
▁incontin
ermal
oric
▁prostaglandin
▁differen
▁urine
▁beneficial
▁biopsy
▁affec
ongest
orpor
▁supr
