▁splenectomy
lec
ustif
tebral
▁chemotherapy
▁preferences
▁VA
LV
ximal
▁MH
ropriately
▁thi
EGF
▁trauma
▁severely
▁pulp
activation
▁adequately
▁gait
▁explored
▁septum
rous
▁pancreatic
athy
rectomy
vival
▁allevi
▁blin
owever
urine
▁diagnoses
aemic
.8%
cardi
eliac
▁techniqu
▁solely
onit
▁decreasing
▁rehabilitation
▁toxic
▁portions
▁Phen
▁10-
▁antic
▁immune
▁asthma
NM
▁reperfusion
trib
oes
▁1.
▁verteb
▁hyperg
▁differentially
▁PT
▁promising
Ns
▁harmful
▁nal
ece
oglyc
itro
▁laparotomy
NH
tial
oradi
▁OT
anyl
2.
HF
▁40
▁hemodialysis
▁colonization
▁resis
▁inver
▁Tran
▁follicular
▁examined
orac
▁deficit
▁Cox
▁pronounced
▁gains
▁dosing
▁pathologic
pendent
▁collateral
eces
27
▁behaviors
▁randomized
entary
lastic
▁undertaken
trip
▁progression
▁osteoporosis
▁carotid
▁2
isqu
▁lob
▁GVHD
▁shif
tomy
sych
▁physici
▁Considering
▁prospective
AH
▁platelet
▁suicide
▁microm
▁justified
▁buc
▁inherent
▁synergistic
▁fentanyl
ycin
▁urinary
▁injur
▁cigaret
▁irrit
▁juvenile
▁diagnostic
▁complemented
▁diluted
▁recipient
▁vulnerability
▁vaginal
▁PI
dominal
ocl
▁NP
ocular
▁resonance
▁reflux
uncture
▁parap
rants
▁heparin
▁metabolism
▁perfusion
▁infar
▁fulf
▁ethanol
zation
pir
ectable
ariate
▁mec
aired
BP
▁unc
sus
otor
▁ruptured
oxidation
▁supple
▁pT
Phe
▁PEEP
▁genotypes
mur
ventricular
▁suture
▁tracers
urethral
urther
▁FT
WL
▁exogenous
osity
years
▁atten
▁PAS
▁prol
▁supplement
▁follic
vertebral
▁deficiency
▁pregnancy
▁drugs
odies
cine
▁coeliac
▁eosinophil
▁uncomplicated
▁linoleic
▁knee
▁biom
uated
▁bilateral
tection
nai
▁seventh
▁2-
▁discomfort
▁systolic
SCC
▁screening
▁ascertained
▁athletes
▁TG
adder
▁reductions
▁unil
▁TK
▁emergency
▁OC
▁40%,
ofol
▁paraventricular
▁saturated
▁mammography
adily
▁resour
▁enhance
▁modulate
▁dex
▁unex
▁15
enh
▁treating
▁attending
▁prenatal
▁inspection
▁maintaining
▁diagnosed
▁coex
▁carb
▁conducting
▁staging
▁versa
▁gallstones
▁depression
mide
▁promoting
▁prevented
hep
ilateral
▁endarterectomy
aints
uded
seal
▁vitro
dial
atched
▁unsuccessful
trast
▁correlated
▁distinctly
uin
ypical
▁eating
▁shor
▁hepat
▁meals
▁pathway
plantation
▁lith
▁Intravenous
▁assay
▁injections
▁Phe
▁7%
rae
▁symptomatic
0.
▁atmosp
ept
onatal
▁elevated
▁intervention
▁hCG
▁hemodynamics
mittent
olated
▁relapse
▁biopsies
34
induced
▁infusion
▁sensitivity
iable
ucle
coun
▁angi
usions
rogen
▁HL
▁somat
▁endometr
▁0
▁connective
▁HLA
▁auditory
▁anomalies
usp
aventricular
▁ambulatory
▁anastom
▁laparoscopy
▁tubes
40
trol
▁SLE
7%
icine
attern
mitted
80
▁coel
stolic
▁encouraging
▁enrol
urate
xone
atical
▁intramuscular
▁oxygen
▁rash
▁prevalence
▁phagocytic
▁stu
stro
▁hypothe
▁chloride
tering
rophy
orax
▁lesions
erally
ochemical
ploy
4)
BM
▁proliferation
▁201
onin
▁deterior
▁oligo
▁Clinical
▁survived
▁perone
ostatin
▁ultrasonography
▁adults
▁conceptual
▁adjustment
▁valve
rogenic
eric
▁definitive
omatic
▁bloc
▁complication
oidal
▁DSM
▁tertiary
▁intrarenal
▁coronary
▁tissue
▁psychosocial
▁adjusted
▁unde
▁feeding
▁poorly
itic
▁reagents
ceptual
tle
▁decline
othelial
rated
▁suppression
▁arter
▁illness
▁gyn
▁systemic
urgical
▁Vitamin
▁putative
▁enlarged
▁nail
▁diagnose
▁cues
entical
97
▁anatomic
elan
▁postoperative
▁surgery
▁percutaneous
▁artery
▁determination
atment
▁(54
▁phag
erin
▁discern
▁adaptive
▁bronchi
aturated
▁desirable
▁DG
▁screened
19
▁sickness
▁limbs
▁syndromes
▁ane
gesia
operatively
apse
rested
▁inapp
RD
▁vagal
ctive
▁chan
rogra
▁intermittent
▁challenges
▁heavi
▁ALT
▁topographic
eight
ially
▁Additional
atient
▁pyl
lact
cessive
▁compliance
0%
▁multic
tensive
▁catheters
2)
▁hormonal
ulin
umulative
▁calcified
ithiasis
▁neurologic
▁histologic
▁utero
▁excretion
nutrition
10
relations
▁NPC
▁Patients
▁transi
ensitive
▁tobacco
▁neonatal
▁RB
▁neoplasm
▁gastric
ministration
▁clus
▁vag
▁restric
▁oss
versely
▁infection
unctional
geal
▁concom
▁fetal
lectomy
ivation
▁unexpl
▁proce
herence
▁mortality
occi
▁rele
▁unm
emic
ipient
inic
▁Intra
▁synov
▁correlations
oratory
▁ablation
ochemistry
▁prevention
licular
vascular
tif
MH
▁risks
▁extre
▁emphasizes
▁distinguishing
-2
▁revealing
6.
▁inhibin
uscular
▁experi
75
▁slowed
ocele
▁abdominal
▁sedation
urys
ameth
▁continuing
▁undergone
DNA
▁Biochemical
▁aimed
▁intravenous
▁Trial
amn
oxid
▁tris
ogra
TG
athyroid
ocardial
quine
▁deficiencies
▁vitamins
▁serum
11
▁PET
▁transplantation
illus
▁abnormal
mL
▁trials
14
▁consistently
▁reveal
▁clinician
▁32
▁ure
▁Ket
cele
▁cerebrovascular
▁differentiated
vation
Ds
LF
▁initiating
▁tolerated
▁16
▁NT
lead
▁behavi
▁vaccin
▁hypers
iol
▁carriers
▁pineal
▁poisoning
▁GFR
hospital
resting
heal
▁sensory
urgery
▁postmenopausal
degree
ullary
onium
▁wee
▁regulate
▁microv
▁thromb
▁striated
▁LV
RP
▁subtype
birth
▁analys
▁cumulative
▁parotid
▁challen
▁adjustments
▁pharmacy
▁homogene
▁contex
▁laser
▁resuscitation
0-
utroph
incip
▁warranted
▁nursing
tical
Tn
taken
ygen
▁oste
ceptions
▁esophag
▁acidosis
▁recor
▁influenz
▁precedes
▁systematic
roma
▁15%
▁organisms
oric
▁experim
▁regar
ejun
▁pharmac
entric
▁Accordingly
vail
▁kerat
ologic
ritish
▁PCR
▁SG
echanical
-9
hern
▁decisions
▁rhe
▁cen
-0
▁previ
▁gluten
▁99
retion
▁carbohydrates
▁cardiac
▁advan
tum
feren
VT
odal
▁bab
▁occl
▁saline
▁mamm
▁potency
▁chemot
▁adjunct
▁multifactorial
▁underst
uccess
▁inappropriate
▁dyn
▁flexion
▁mild
▁leuk
▁excre
tific
alian
ventional
▁HCMV
▁indicators
centr
▁follicle
▁benz
▁assessment
Tc
sies
▁operative
arge
ometr
ocytic
▁overlapping
lective
▁presenting
responders
▁reag
▁endpoints
▁limb
stress
▁PEG
loro
▁naltrexone
▁receptor
▁cystic
orin
▁consol
▁impaired
▁glycoprotein
▁increas
▁evac
alc
heric
▁overl
weighted
▁comparisons
▁perc
▁provocation
roin
▁acute
OA
▁feasible
▁provid
▁monitored
ctomy
.6
chers
▁intense
▁selectively
▁fracture
mented
abies
▁labeling
▁8.
▁pate
▁inhibition
▁hep
▁clinical
▁inadequ
▁atrophy
▁1.6
▁Patient
glyc
effective
acr
arb
▁ESR
gulation
▁fiber
▁psychiatric
▁necro
-67
amic
angl
HM
▁cancers
▁ovari
▁juven
▁Increas
▁identifying
▁ultr
9,
▁doctors
▁liver
▁melatonin
arate
▁pregnancies
67
▁bladder
▁clinics
▁pregn
▁tiss
carcin
▁disruption
legia
▁numb
▁traum
▁lobe
▁14
▁Swed
▁reproducibility
▁influenza
duction
acental
▁eosin
▁implicate
oplas
▁cuff
▁abnormality
▁advances
▁hormone
▁CMV
▁sustained
▁1.7
▁metoclopramide
osom
▁bronchoscopy
▁nonadherent
stant
▁endothelin
ffer
vul
alues
erative
▁hazard
▁IIb
▁poin
economic
▁gluc
▁hemisphere
astom
▁deficits
positive
▁identif
▁arthritis
53
▁pathogen
▁inflammation
▁adenoma
▁Continu
20
quid
▁enl
▁morbidity
▁diabetes
GF
bic
▁insulin
▁indications
▁22
▁spikes
ogenous
▁algor
▁predominantly
▁exercised
ialysis
ocyte
56
▁undergo
▁hypertrophied
▁disappearance
▁100
▁overe
▁9
oplasmic
▁pathological
▁placenta
▁etiology
▁Comparison
2,
▁sclerosis
▁metastas
▁vitamin
▁assessments
mg
▁preoperatively
ication
▁ADH
▁stimuli
▁predictive
▁fibers
either
▁substance
▁reveals
ostic
eled
▁pathologically
▁intraoperative
▁infected
opathy
matic
▁decades
▁wors
▁Taken
ternational
▁enrolled
▁3-
anding
▁cereb
▁fatigue
trative
▁complaints
▁irritation
olved
tage
▁questionnaires
▁neph
▁infiltration
▁invasive
tained
▁susceptibility
▁haemorrhage
▁VL
ospor
▁routinely
lateral
▁ovarian
genic
▁manifestation
eptin
3-
uptake
▁alcohol
▁reproduction
▁plates
▁substances
▁morphologic
adequ
seud
▁prospectively
4-
Ka
▁vomiting
35
opi
pH
mig
▁intra
ials
▁silic
icient
odialysis
otherapy
▁femur
cad
sequent
valence
▁Atropine
imens
▁tymp
bacco
▁diabetic
▁concentrate
▁pneum
▁polyps
▁physically
60
▁tow
▁autosomal
IIIa
▁disorder
▁adenomas
▁infarction
▁WHO
▁respon
▁questionnai
▁surviv
▁evaluations
▁positioning
clinical
46
astatic
▁acids
▁kidney
▁medial
▁torsion
▁fever
▁surge
▁heal
▁pleomorphic
▁streptococci
▁melanomas
▁19%
▁atherosclerosis
▁tracer
ipher
▁Phy
▁soybean
▁tumors
▁carbohyd
78
ercise
opa
▁financ
rehen
epit
▁chloro
▁colorectal
sts
▁shorten
Ia
▁intrinsic
omod
iciencies
▁acquire
▁withdrawn
▁phenomenon
▁7
▁amyloidosis
▁cue
lym
▁fixation
omical
▁peripheral
▁therapeutic
vated
▁abd
▁neutrophil
CBF
▁DF
▁turnover
ameter
arly
olenic
onset
▁nurse
risk
heum
▁pS
▁cohort
▁dietary
▁rectal
▁achievement
▁Significant
▁BP
▁esophageal
associated
▁prednisone
▁masked
▁adenocarcinoma
▁practic
▁atm
▁reasonably
▁thyroidectomy
▁CSA
ACS
oracic
▁chl
▁RT
▁hepatocytes
▁prognostic
itary
rine
helin
85
▁dys
▁amyloid
othel
▁coronal
▁specimens
▁oxy
▁lumb
▁spont
▁differing
ostomy
▁relating
▁cesarean
▁PSA
▁Histologic
▁testis
▁DT
▁hypertension
ococci
idis
▁morphology
57
▁concer
tus
ceptive
ascular
▁meaningful
mature
oplasm
▁preservation
▁conservative
15
especially
ollicular
▁schizophrenia
omes
▁tumour
▁regimen
▁oes
▁inpatient
▁functioning
rosis
▁metabolic
▁chor
obal
immun
ultural
▁horm
▁remission
odynamic
7.
▁hernia
▁examination
hest
▁abnormalities
derly
▁judged
opl
▁incidence
▁distal
▁anticoag
▁urine
▁secretion
enic
▁providers
gents
tration
▁achie
VR
ococcal
invasive
aneously
▁RBC
▁controlling
PB
ortic
ses
28
▁heterogeneous
IU
ulitis
▁crest
urea
asive
▁Pretreatment
ergy
gland
▁palp
cysteine
▁insertions
▁radiotherapy
▁abl
▁sequel
oic
iron
▁pulmonary
▁tibial
25
cutaneous
▁elimination
oxif
▁8
▁usefulness
-1,
omies
▁exce
▁interventions
matched
▁ganglion
▁validity
▁mandibular
▁immunomod
-5
▁atres
▁linkages
▁comprehensive
▁hepar
erations
▁pig
sions
tead
▁hygiene
mend
▁discus
▁classified
orts
▁allergic
chol
▁Addition
ograp
phic
thma
stim
▁surgeons
▁episodic
istically
▁normalized
▁deaths
orphic
▁fluor
▁pall
▁carcinoma
▁irradiated
ivary
▁adherence
▁discon
itr
▁nurses
aning
▁75
▁neon
▁surgically
fos
bly
MV
▁congenital
osin
▁reliably
romes
▁perinatal
▁causal
▁tol
▁HN
▁synchronous
▁abilities
▁clinically
▁behavioral
▁ascertain
000
▁presum
usal
ithms
▁ana
▁Afric
ronchial
▁canc
▁DN
razole
▁deprivation
▁drain
▁intrav
▁contribut
▁cava
▁stimul
▁chewing
▁adhesions
▁opioid
▁200
rents
oscop
2-
▁retrospective
▁doses
▁ration
MIC
▁cadaver
ectom
igaret
osal
▁insertion
▁MG
▁progressive
▁Hb
▁implant
lusion
▁investigated
▁unre
2%
ivoc
▁complementary
▁Compared
▁Surgical
▁Lys
▁plaque
▁stratification
▁instability
▁ulcer
▁reduc
▁exclusion
ococcus
implantation
▁microb
▁thrombo
▁mucosal
regulation
entif
gments
▁hospitalization
were
yroid
ture
sized
▁intrag
▁SNP
▁measurable
▁hypo
▁rigorous
▁ocul
▁substituted
uation
CMV
▁HI
▁adhesive
▁reas
▁ongoing
orectal
fron
istal
▁metabol
▁confined
▁neutroph
▁sequential
▁comparable
▁recur
rophob
teric
▁Whereas
13
crimin
▁LF
▁correspon
▁responsiveness
▁mechanisms
▁histological
▁nerve
▁broader
occus
▁migrated
▁LVH
▁prophyl
▁sequentially
wk
▁healing
eration
▁analyses
▁heterogeneity
▁variability
▁ventilatory
iciency
▁detectable
lated
▁unres
▁prevalent
prising
79
▁PCP
▁60
tected
▁muscle
▁haemorrh
lux
ailure
▁50%
▁pharmacological
uccessful
▁efficacy
inated
ophren
urc
▁Dil
▁excl
▁intragastric
sy
BG
▁pancreatitis
▁differentiate
▁childhood
piration
▁suppressing
▁APD
ardless
▁fitness
orative
▁interacted
▁hig
▁appreciably
▁drops
▁directional
▁Chemical
tual
▁iliac
▁carc
requ
▁tuber
▁pelvic
▁detachment
▁tracing
▁Surgery
tur
▁anticoagulation
▁placent
▁catheter
▁glyc
▁unselected
▁instr
▁unstable
namic
▁maternal
▁preparations
▁HA
acts
▁scintigraphy
adherent
▁radiography
▁preferable
▁subjected
trimental
erine
▁thickness
clin
▁chec
oprotein
▁thromboemb
▁predicting
▁ECG
▁PB
gmental
▁hemorrhagic
ancre
MN
▁synthe
▁swelling
ophilic
ducts
▁LC
▁meal
▁AMI
▁cyclosporine
erance
▁discrimination
lyc
▁discrimin
nec
▁infect
▁curative
▁57
▁awareness
▁protective
ignific
▁stomach
monstr
▁VD
opathological
▁GD
▁cocaine
▁inhib
illary
▁improves
▁disorders
▁FV
transplantation
FV
▁eradication
▁aor
▁saliv
mentation
▁hemorrh
▁modulates
▁inversely
▁practitioners
enol
▁AE
▁likelihood
▁acad
▁paradig
sities
▁inh
▁utilization
▁hypog
▁prel
▁onset
▁gangl
▁epidemic
ustained
ograms
▁intercostal
tic
HB
▁mucosa
phosphon
▁progestin
anol
▁occurring
0%,
▁trough
tak
▁emerg
▁caution
iated
▁genotype
▁peripher
▁COS
natal
▁beha
▁demographic
▁parental
▁rationale
ensory
rone
▁assays
▁pati
▁minority
▁athe
▁preferen
▁inhibitors
astric
▁Pregn
▁Neither
▁palsy
▁migraine
▁hospitalized
ocusing
▁birthweight
▁APC
▁RP
▁vaccines
▁reactivation
vac
▁empirical
▁physi
ophil
atients
▁Vac
antial
▁preterm
▁nec
ycl
thle
▁physiological
▁complic
▁sequelae
22
▁cortisol
fine
▁chlor
▁regulation
▁technically
▁longitudinal
▁complications
▁sph
▁multivariate
▁cited
itone
▁FH
functional
▁clinicians
▁supplementation
▁acqui
▁vaccine
▁deter
▁metastases
eal
▁anatomical
aginal
▁indicative
tro
5.
icated
Ba
▁mucos
▁Muc
▁subtraction
▁alteration
▁circumferential
▁PD
▁airway
▁48
▁overlying
oscopy
▁premature
▁interv
▁therap
▁Acute
▁epileptic
▁nig
▁aneurysm
▁thir
kade
▁IA
▁mineral
reness
▁plantar
▁ageing
▁neurop
▁dexamethasone
echan
▁postoperatively
PAP
▁circumferen
▁fatty
▁pyram
▁heavier
▁proteins
▁structural
▁familial
lep
▁balanced
▁ultrason
▁compartment
▁psychological
▁salivary
▁Eff
▁inflamm
▁facial
▁Cushing
AIDS
▁sexes
▁barriers
▁TD
ontal
intestinal
▁CRP
▁laboratories
▁Large
▁palli
▁obese
▁immun
▁employing
MG
ressed
osomal
▁pressures
▁rated
ucleation
▁11,
▁somatic
▁inhibitory
▁controversial
▁soy
adication
olones
▁implicated
inely
▁HG
tate
▁scans
▁physiology
▁lesion
▁agonist
▁VE
▁concordance
sor
▁uptake
▁DS
▁mellitus
▁measuring
oprote
amination
ographically
2%)
84
▁exacerb
▁synovial
ervice
▁weigh
▁spati
▁Thromb
▁Comparisons
omiting
mental
▁aspir
▁Streptococcus
GD
▁Bone
▁mono
asal
4).
8.
dle
▁haem
▁considerably
ophag
▁awa
▁parame
▁Overall
oplastic
respon
▁spontaneous
▁oxygenation
▁ventil
▁readings
▁biological
▁IVF
ocial
▁hazards
ocul
▁stroma
▁displacement
▁gallbladder
▁thrombolysis
bral
ithin
RH
acting
atell
▁dentists
▁Clin
oplasty
imination
▁zinc
▁thoracic
▁glomer
otent
itance
▁selective
▁ultras
▁disadvantages
ximum
▁quantit
regn
amet
▁synerg
dose
▁avoiding
osts
phosphonate
▁membrane
▁headache
▁clinic
▁substantially
▁79
ignant
▁affecting
▁lis
▁pelvis
atheter
▁ket
idne
odic
▁chest
yses
▁assis
▁carcin
alsy
▁constitutes
▁bip
▁resection
reported
▁BV
▁21
unar
olic
helial
▁alve
otomy
▁affects
▁reproducible
▁infections
▁births
▁Chronic
▁atropine
▁RS
▁thorac
▁antec
vant
▁obesity
▁HSV
▁congen
▁GI
tyl
▁aerob
▁demonstrates
▁dilated
ocarcinoma
▁characterized
▁hepatic
▁endemic
onyl
gely
trexone
▁manu
▁2.5
amine
▁sustain
▁progn
▁2,
cyst
ritis
▁involvement
▁necrosis
erated
▁laboratory
▁simultaneous
onol
▁vena
gic
rolog
▁agon
opramide
▁recessive
▁encoun
▁decreased
▁4-
▁glands
perfusion
▁drin
sive
▁hypot
DH
omat
▁hepatitis
▁chemotactic
▁examinations
▁LDL
▁desm
▁AI
▁nucleus
▁cate
inemia
▁31
ancies
sess
▁overexpression
▁cyt
▁implantation
▁favorable
▁ultrasound
responding
▁burden
▁Findings
▁modif
▁perin
▁traumatic
▁differentiation
▁NH
rection
▁Engl
▁researchers
icide
▁facilitate
opulation
▁prolonged
▁pregnant
▁adequ
arean
iferol
▁nasal
.2%
dimer
▁injuries
▁BD
▁athle
▁undes
▁melan
▁predomin
31
EA
▁sten
BK
▁11
▁isch
▁satis
1.
▁corne
▁molecule
▁molecular
uterine
▁cerebral
▁feasibility
▁occlusal
▁nonc
atab
.2
▁minimize
ovascular
▁2.
jug
erable
▁creatine
threatening
▁cohorts
▁rhy
▁deform
▁BMI
ologists
▁gynec
GI
▁enhanced
▁excluded
▁100%
▁surveillance
▁aging
arous
▁Sout
▁mandatory
▁encour
▁adjuvant
▁insult
▁stellate
▁workload
▁gland
▁renal
▁ischemia
▁oral
▁Severe
▁preoperative
▁cervical
76
▁followup
▁visually
▁therapy
▁medication
KD
81
▁socio
luent
utaneous
▁effectiveness
▁trend
atories
▁buccal
▁therapies
▁oils
▁HPV
▁glu
▁disability
▁dose
▁dissection
RB
▁preval
▁determinants
▁accumulation
▁multiv
▁pediatric
▁referral
▁cardiomyopathy
onad
leu
▁enhancement
▁findings
▁intrap
▁babies
iosis
idated
▁pter
▁newborns
▁targeted
2).
▁manifestations
▁debr
▁apex
iably
▁adolescent
▁myocardial
▁periodontal
5%
▁tamoxifen
iatric
▁cerv
ostat
▁requi
▁suggestive
gth
hap
farct
▁mg
▁preparation
xia
▁confound
▁emotional
inol
atrial
▁tear
tive
▁reper
FH
▁temporarily
aluation
venous
▁aort
▁Biochem
ivariate
5-
▁amyl
▁rebound
▁anastomotic
ressive
▁Treatment
MRI
tries
atine
▁thickening
▁surgical
▁7.
essive
▁amines
▁anticipated
Mu
▁guided
▁bipolar
▁axillary
▁schiz
▁intrauterine
▁pylori
▁umbilical
iliac
▁5-
▁Kup
▁13
▁lithotrip
▁hemodynamic
▁inducer
veolar
▁estimating
▁chronic
▁screw
iatic
▁angiography
▁approx
▁nutrition
▁mitral
▁CK
ught
▁Samples
▁mobility
aline
iferation
ituitary
▁establ
▁mell
▁geriatric
tact
cture
.2%)
▁insufficiency
▁focusing
menopausal
▁tric
▁tooth
▁hypoglycaemia
▁muscul
▁79%
▁PRP
hyd
▁sulf
▁fold
▁recurrence
lix
ulatory
▁consequent
▁PP
▁locus
atest
▁1-
uvant
tation
▁fractures
mia
▁metastasis
0.5
ervical
aceous
▁19
▁monit
entan
ioid
▁cure
cents
▁immature
▁consensus
▁RAR
▁Serum
VL
▁GM
▁32%
▁microvascular
▁chori
TK
▁polyethylene
▁deformity
▁HCC
▁85%
Ps
▁50
▁lipids
.7
▁seizures
▁Dop
ortal
▁malignant
Hb
▁moderate
▁endarte
▁hypertensive
▁anemia
▁genetic
anic
▁34
▁glomerular
▁RH
tein
clusive
▁periodon
amily
ropriate
▁paradigm
▁prostatic
▁LN
▁eliminated
bac
olute
PV
▁SCH
▁sciatic
lys
▁nutritional
▁ratios
▁lymph
▁stenosis
▁intensive
▁adolescents
▁intraven
yel
thal
▁pituitary
3,
▁comparative
▁HP
▁concomitant
▁pigmented
illic
9%
acted
trop
99
▁sampl
▁beneficial
▁prophylactic
▁estrogen
▁reagent
▁immunode
▁demonstrating
▁ey
50
▁phe
opamine
▁Kupffer
ureth
▁amputation
▁tumours
▁peptic
▁cirrhotic
▁atr
▁5
▁overex
▁epi
▁smoking
▁pathology
▁cutaneous
oice
venth
monary
▁Increased
ficial
ethyl
olysis
atectomy
▁determining
▁bowel
▁colloid
16
cence
▁scre
▁biop
graftment
econd
▁underg
ediatric
versus
▁molec
atitis
1)
▁edema
▁ward
▁profound
▁eosinophilic
opsy
▁syndrome
▁reconstruction
ayed
▁gly
▁ET
mTc
taining
-6
▁conclusions
▁dysfunction
contrast
armac
acer
▁cognitive
enhanced
▁adhe
ipolar
onography
▁quantitative
▁predic
▁compressed
▁graft
▁TB
▁deterioration
▁endoscop
▁Bec
▁micron
▁exhibit
rates
inj
▁20
▁eliciting
30
▁attrib
▁physician
iasis
▁embry
▁localized
vents
lesion
ressing
▁5.
▁cholestasis
▁speculated
▁depress
▁plac
▁apop
▁Failure
00
▁unrelated
▁abolishes
▁depr
Hu
embr
idation
▁Tes
▁accurately
▁respondents
▁anxiety
▁testicular
▁facilitated
rox
▁150
▁Steady
▁barrier
▁cholecystectomy
▁satur
enin
▁extensor
radi
▁skeletal
▁antib
▁consequently
KA
▁glucose
▁benign
▁discharge
omerular
oscopic
placement
▁VO
70
onate
▁phy
▁adhere
▁AO
▁theore
▁somatostatin
▁wound
▁ae
▁drainage
His
▁onc
▁underestimated
relevant
▁contamin
▁radiographic
▁1
▁spinal
▁availability
▁herpes
12.
▁occupational
▁insufficient
▁streptococcal
▁multim
▁statistically
▁diseases
eclampsia
▁palliative
tinu
jun
▁prostate
pite
▁guidelines
4.
▁comprehen
▁strom
▁appropriately
▁pathogenesis
reast
▁Impro
orable
▁identifies
oxia
▁radiological
▁muscles
▁imaging
▁topical
▁BS
▁echocardi
▁elevation
▁derange
▁Certain
▁scanning
estis
genesis
ochem
omotor
▁antibodies
ampl
▁morb
▁tumor
▁opi
▁atheros
iotic
▁rCBF
▁repaired
ropine
▁tissues
ilization
▁impair
clerosis
herent
controlled
oag
tig
▁activated
reatine
▁lipid
1-2
itant
▁rheumatoid
▁preventive
itamin
▁pyramidal
8%
▁spine
▁microc
▁rati
mong
▁survival
▁predicts
▁trophob
bility
▁Contrary
▁anastomosis
iary
▁ethnic
▁mann
ivocal
lysis
otype
▁evaluating
-1
▁needle
hers
▁fetus
▁concurrently
ureus
▁epinephrine
erad
▁sphincter
riend
oxic
▁vancomycin
entanyl
▁vasomotor
▁Contr
otyp
idney
▁phenotype
▁ascer
▁pH
▁40%
renal
encl
▁heterogene
iplin
▁AMP
Ts
▁influences
▁adverse
▁lumbar
graft
opic
▁contaminated
▁ultim
▁OA
ergic
▁antibiotic
▁uncom
▁implic
1-
▁endometrial
▁adoles
▁disrupt
▁institutional
▁subf
onary
▁latent
odynam
▁depressive
BW
▁concentrations
9-
▁behavioural
▁ventilation
osocial
▁indication
▁excision
▁describ
▁implications
▁positively
iant
▁contralateral
▁regis
▁coexistence
▁amin
fusion
▁genes
▁caro
▁perip
▁endoscopy
▁alterations
ronch
▁correlates
▁symptom
▁chemo
▁alveolar
▁increasingly
▁normo
▁ischemic
lasting
48
▁resected
▁tolerance
ensity
▁irradi
6%
▁autoimmune
ateral
▁intake
erate
ulates
▁musc
ymp
▁grading
▁viable
lymph
▁temperatures
Ki
iminary
▁TA
69
ectomy
▁bronchial
▁thresholds
▁rigidity
ilical
-9,
▁anatomy
moid
▁bac
asting
▁500
sue
tec
▁prognosis
atonin
▁participate
▁polymorph
▁corneal
▁thigh
.5
▁superficial
▁carcinogens
▁physiologic
▁reac
kers
uran
▁HIV
ocar
▁gradi
▁retention
▁segmental
ditions
Cu
▁MV
▁BM
▁subgroups
▁irr
▁macrophage
▁oxide
▁TBI
udin
▁biopsy
.8
▁ketamine
yro
diagn
▁genic
roup
▁cultures
aemia
▁physicians
▁GF
▁umb
▁cardiovascular
▁contributes
▁evid
▁surveys
▁perception
asone
▁Throm
▁restor
erican
ilic
▁Cyt
▁unexplained
▁discom
ecre
tectable
▁Dopamine
▁reflecting
olution
65
duced
▁menopausal
▁smo
ysm
▁cathe
▁Prospective
▁myo
▁latency
▁exposure
▁histopathology
▁shallow
▁scin
49
▁laparo
toc
▁fati
▁VC
▁pneumon
▁manipulations
treatment
keletal
▁cervix
▁glut
▁establishing
▁relap
eak
▁pulmon
▁outs
▁telephone
lected
▁microcirc
▁Removal
enzymatic
▁atrial
▁6
BV
▁cholest
echn
▁enteral
▁predictor
plic
ration
▁FS
opausal
▁resusc
▁Adverse
▁tes
onor
ithi
▁presumably
▁amput
▁strategies
▁cann
▁bronch
▁regimens
▁toxicity
TNF
▁pharm
idity
▁elic
tant
sensitive
Ra
▁diffic
▁intram
oride
▁PV
ulae
▁chloroquine
entral
▁differen
▁seiz
▁throm
▁cardiomy
▁eluc
-3
anish
▁MN
IgM
▁diversity
▁melanoma
▁prophylaxis
▁homogeneity
hea
▁molar
▁develops
▁SB
▁85
▁abuse
▁CM
zard
operative
▁overweight
29
▁cere
▁Preoperative
▁HS
ighted
pation
▁specificity
▁3
▁inhibit
ogens
kage
▁ventricular
ults
▁multicenter
▁detrimental
12
▁calcification
▁deliveries
▁discontinued
▁Concomitant
arent
athe
▁facilit
sion
▁aerobic
▁symptoms
▁habits
omized
olism
54
▁investigations
▁exposures
▁muc
facial
▁prescrib
▁enhancing
▁reactions
aid
esity
▁modality
▁modest
totic
▁IgM
▁embryo
▁80
▁anat
▁NB
▁metastatic
ocyt
▁PE
▁nodules
▁MRI
▁mothers
▁pneumonia
ergency
▁professionals
ilized
▁ASA
illance
▁raises
aryn
tens
▁epid
▁undetectable
▁shortened
itoneum
gative
▁arth
▁Systolic
crib
loid
atid
▁adequate
▁anomal
opia
▁elu
jected
▁uter
▁arterial
onomic
▁severity
▁CAM
▁spon
▁poorer
mixed
asses
opam
usive
▁remo
▁gaps
▁porcine
▁Tumor
tent
▁femoral
ocaine
ingle
▁displ
▁Doppler
▁moderately
▁favourable
andard
▁poten
▁compartments
▁abdomen
▁stren
rele
▁immunological
▁adop
▁LD
▁contral
▁silicone
▁resear
▁consolidation
▁postnatal
▁cephal
▁underlie
romed
▁leukocyte
▁chond
▁packing
▁circulation
▁ACE
xual
alp
itin
▁HC
▁infants
icin
filtration
▁treatments
thre
DG
versity
▁systematically
▁elderly
sial
▁cytology
aryngeal
vely
▁transient
▁vulnerable
sia
injured
▁sedentary
▁aden
▁microbiological
▁outcomes
▁neurological
▁hypothyroidism
▁elucidate
▁sut
▁tomography
sis
▁interc
agic
Cer
▁mediated
▁mediates
▁ischem
▁receptors
▁recurrent
▁widespread
ostal
▁transfusion
▁HM
▁stab
▁repl
▁Cycl
▁ile
▁TC
▁tidal
diagnosed
tions
otropic
▁injected
▁iso
▁enti
▁mL
44
itus
▁80-
▁cochlear
ocytes
▁aortic
▁disparity
▁venous
▁practically
▁gallst
phrine
bladder
▁compli
▁rhythm
▁metast
▁uncontrolled
▁validated
▁sti
▁distin
▁stom
idate
▁malign
▁CABG
▁geniculate
▁rotational
▁diminished
▁impairment
acerb
▁ventric
ologically
arity
urin
▁wrist
2/
▁evoked
▁defic
▁decreas
ociation
▁MEP
▁MCP
▁preliminary
sian
acet
▁sepsis
▁counseling
▁endoc
▁(5
▁dislocation
physiologic
▁cigarettes
▁vascular
▁arteries
occal
▁olig
tin
▁spi
acil
umulation
▁inflammatory
duc
▁homogeneous
▁bypass
▁healthy
▁PH
▁aorta
▁dental
▁outpatient
▁chol
▁undergoing
▁nosocomial
fat
▁exis
▁cyst
21
educ
▁mediation
regulated
▁circumference
▁improving
▁hypoxic
oung
▁investigating
▁socioeconomic
▁tox
▁expend
▁drinking
▁surgeon
▁unilateral
▁thyroid
patient
▁35
▁failures
▁acyclovir
rati
▁lacking
diol
▁diet
▁perfor
▁hypoxia
▁inserts
▁suspicion
▁lipoprotein
orrh
▁10
▁vaccination
▁inadequate
anin
gm
▁immig
▁MI
spectively
atoid
▁hypox
isol
▁causative
▁characterize
▁stimulate
▁diagnosis
ications
▁assessing
▁endoscopic
▁minimally
dition
asic
▁polymorphism
ociated
▁endothelial
spective
▁practition
kely
▁TGF
▁insurance
▁27
▁gradients
32
▁bacter
▁atresia
▁esophagitis
othermic
▁thromboembolic
▁vein
▁suspic
identical
loride
▁surf
▁linole
▁beating
ineal
▁LS
▁pancre
▁sour
▁restenosis
duce
immune
▁leakage
▁4
▁bone
▁uncommon
▁30
▁neo
▁cardi
▁aureus
omal
lood
ithm
▁mutations
▁cancell
▁aspiration
▁margins
▁reproduc
▁12
▁IgG
▁paras
tors
▁GV
1,
▁Tum
▁engraftment
▁synthesis
▁lithotripsy
▁predictors
▁infil
▁PCO
hemical
▁examin
▁tas
erating
▁21-
▁stimulation
▁hygi
▁demands
▁abortion
▁PF
comitant
▁MHC
