▁arterial
ensitive
▁interc
▁proce
▁ventil
▁unde
entan
jun
▁correlations
▁mutations
▁physici
▁presum
▁distin
▁histological
ullary
▁presenting
▁exce
▁diabetes
▁mothers
cence
▁reas
rine
▁arth
▁diminished
▁clinical
▁ulcer
▁platelet
▁cultures
iary
adequ
▁favorable
▁throm
▁follic
ressed
patient
▁carb
▁treating
▁trend
▁preliminary
▁Bec
▁inflamm
▁concentrations
ologic
▁stren
▁regimens
keletal
monary
▁accumulation
▁hepar
▁morb
itin
▁circulation
▁demonstrates
▁molar
Phe
rated
▁accurately
▁pyram
ogenous
▁HLA
▁poorly
▁tobacco
▁pall
▁deterior
▁mellitus
▁atr
▁exhibit
▁discus
ineal
coun
▁rhe
oglyc
▁confined
▁receptor
itamin
▁remission
▁theore
▁lobe
▁bone
▁anastom
▁symptomatic
▁fatty
▁variability
▁GV
sess
amic
arent
▁TC
▁allergic
▁ventricular
olic
▁schiz
opl
▁adequate
bility
▁biopsy
geal
▁endometrial
▁assessment
▁screening
atid
▁prevalence
▁aorta
▁mL
▁toxic
mental
▁dental
▁HPV
▁infection
▁comparisons
▁endothelial
▁distal
▁questionnai
▁hyperg
▁recurrent
cessive
ocl
▁gangl
ration
▁numb
▁molecular
▁assessing
▁cortisol
▁Clinical
▁sensitivity
▁affects
▁cervical
▁influences
▁hepatitis
▁alcohol
▁preferen
▁superficial
▁psychiatric
▁postnatal
▁clinically
▁abnormal
▁availability
▁ovari
▁polymorph
▁enhanced
▁Increased
▁follicle
▁vaccination
erate
duce
▁cancers
tical
▁tas
▁correlates
▁disorder
ostic
▁increas
▁cate
tomy
onin
▁excluded
itr
incip
▁prognosis
▁diffic
▁physicians
itro
iminary
▁metastases
tum
oplasty
▁neonatal
tectable
▁rectal
▁mucosa
thma
▁TG
▁vitro
▁prognostic
monstr
▁defic
▁drugs
hern
▁identif
▁scanning
▁preservation
athyroid
▁mamm
▁eosin
▁contex
loid
taining
spectively
eces
▁statistically
▁survival
uvant
▁spontaneous
▁organisms
▁melatonin
▁somatostatin
▁synerg
atonin
▁drin
▁cere
▁underg
▁pati
▁prospectively
▁aortic
erin
nai
illus
▁testicular
olated
oes
▁colorectal
▁bowel
▁Tum
jected
▁prostate
ophren
tic
▁transient
▁bac
▁bacter
▁comparative
▁neurological
▁pneumon
treatment
▁potency
▁saturated
▁intrap
▁subgroups
rents
▁encoun
▁silic
▁undergoing
occi
▁etiology
rection
▁deficit
▁percutaneous
▁predomin
vation
▁gradi
genic
▁Significant
tions
▁progressive
astric
ometr
▁transplantation
ivation
▁prevention
ctomy
▁ket
ronch
▁tumours
reast
▁urinary
▁pancreatic
▁catheters
requ
▁ovarian
▁tric
▁cardiomy
▁unex
▁elevation
▁suppression
▁reactions
onary
▁atrophy
lymph
helial
▁decreased
▁DS
▁antibiotic
▁describ
▁HA
▁HIV
▁viable
▁neutrophil
intestinal
▁decreas
▁intravenous
▁Neither
ographically
▁stom
▁vascular
▁infants
operative
▁atten
▁characterized
gative
▁elderly
phrine
oplas
▁melan
▁controlling
othelial
tinu
▁reac
odies
▁impaired
▁elic
▁labeling
sial
▁longitudinal
odialysis
▁provid
▁childhood
tle
▁metastatic
▁Compared
▁hypoxia
▁ischem
▁GM
▁adop
▁graft
hemical
sive
▁epid
▁attrib
omotor
utaneous
▁tissue
atitis
renal
▁lesions
▁atheros
ymp
▁IgM
▁ana
tensive
▁cerv
▁congenital
ureus
▁selective
▁supplementation
▁advan
sion
▁complementary
▁recipient
▁mineral
▁lymph
idated
orts
veolar
oracic
amine
osity
▁somat
otor
tual
EGF
omes
cine
▁tooth
▁traum
dition
opathy
MG
pir
ariate
idne
adily
▁artery
▁Patients
lastic
▁pregn
▁leuk
acil
▁ane
▁elucidate
▁exposures
▁trials
▁drainage
crib
▁agon
▁monitored
▁infil
tact
▁enhance
▁intra
ovascular
▁inadequ
▁horm
rele
▁protective
▁macrophage
crimin
▁interv
iotic
oplasm
tation
▁creatine
▁swelling
▁substances
feren
▁excre
▁reagents
▁considerably
mitted
▁randomized
▁malignant
▁locus
▁proteins
▁arter
bly
ectom
▁rati
▁PT
▁consensus
▁reproduc
▁muscle
ministration
▁pregnancy
▁abnormality
▁pyl
▁irradiated
▁agonist
▁cyt
odynamic
▁emerg
▁chlor
▁hypertensive
▁physiological
▁prophyl
▁strom
ditions
▁cystic
▁acqui
namic
anding
ropine
▁chan
▁quantit
▁hypot
▁LD
▁benz
▁meal
▁bronch
ensity
▁biological
▁sph
mong
▁rele
ologically
▁unrelated
▁RP
▁bloc
centr
▁examinations
▁anemia
heal
▁collateral
rectomy
▁resonance
NH
▁infarction
▁evaluating
▁mechanisms
▁strategies
▁dysfunction
▁poten
yel
ejun
onyl
MN
▁nec
taken
▁pressures
MV
▁heterogeneity
osal
ilical
entral
▁pregnancies
▁nerve
icine
▁femoral
▁septum
▁overl
▁pharmac
▁bypass
otropic
bic
▁limb
duction
hep
RH
versity
▁diagnosed
▁sustained
▁ratios
▁ventilation
▁deaths
ximum
▁CK
▁multiv
stim
▁metabol
▁reduc
ocyte
▁arthritis
tage
▁sensory
ingle
▁relap
▁concomitant
▁biopsies
▁concom
▁ethanol
tial
illary
▁lob
plantation
omical
▁ventric
rox
GF
▁tumour
▁analys
erad
▁nutrition
ycl
asive
invasive
tent
▁hemorrh
rosis
▁surgery
▁severity
▁enhancement
▁pronounced
▁pathway
ogra
▁endoscop
vely
▁hypertension
▁phe
▁investigated
▁vaccin
▁Dop
entical
iant
▁depression
▁inhibitory
▁wound
TNF
▁VO
▁vitamin
▁micron
▁Clin
itary
ociation
inic
itus
▁alteration
oxid
▁chloride
▁imaging
▁ile
▁comparable
urea
▁determination
otype
associated
▁infusion
ethyl
▁ultrasound
▁chemot
▁mediated
▁morbidity
▁acids
▁hypox
▁epinephrine
ilized
▁corne
▁subtype
▁NH
ilic
▁deterioration
bacco
▁esophag
atest
▁plac
▁drain
▁investigations
idity
▁contamin
▁pancre
▁hypothe
ication
▁judged
stolic
▁displ
▁pelvic
▁outs
▁corneal
▁invasive
athe
tec
alc
▁incidence
▁nutritional
▁complic
▁vaccine
▁Sout
▁nonc
▁dissection
▁exposure
▁dexamethasone
▁evid
▁impair
ociated
ignific
seud
rogen
▁carcinoma
trop
▁pathological
▁metabolic
▁tissues
resting
▁benign
▁heterogeneous
▁healthy
▁regimen
onomic
▁infar
▁atropine
tur
esity
atients
▁PP
sensitive
lyc
▁prostatic
▁excretion
ophag
glyc
ocial
▁reconstruction
ameth
sions
usive
▁esophageal
▁neph
ceptive
herent
▁differing
▁limbs
▁gluc
▁asthma
▁Hb
▁hig
▁differen
▁postoperative
acet
▁depr
effective
▁drinking
eight
▁PCR
hea
venous
▁examined
otomy
▁liver
mend
▁pituitary
▁injuries
▁skeletal
▁atrial
sts
▁thoracic
▁ECG
▁bab
Tc
lusion
uscular
thal
▁intrinsic
▁correlated
▁peripheral
ergy
amination
▁compli
▁medial
▁doses
▁neutroph
BP
clin
▁molec
ulatory
▁insulin
opic
▁edema
▁contral
oag
respon
inated
▁surge
▁carriers
▁ambulatory
iciency
▁chol
▁ischemic
▁undergo
antial
▁Intra
▁immature
▁latency
▁pneum
▁intervention
▁metast
▁resection
vascular
itic
▁diagnosis
tration
▁putative
▁implic
tein
▁onset
▁involvement
lys
▁assis
▁NT
▁MV
▁somatic
▁spont
icient
▁positively
▁surviv
▁aging
aryn
▁decreasing
ercise
▁practic
▁regulation
▁enl
▁survived
▁adequ
▁normalized
▁characterize
▁sti
▁unstable
▁antibodies
olution
ocar
tak
▁correspon
▁repl
▁anticoag
aryngeal
▁rhythm
trib
ascular
▁alveolar
▁inflammation
▁obesity
▁extre
▁Increas
▁Treatment
matched
▁athe
▁stimulation
▁fetus
▁insufficiency
▁ACE
▁stenosis
immun
▁specimens
▁feeding
tro
▁placenta
echn
▁classified
▁bronchial
▁stu
▁surf
▁oxy
▁establ
▁reveals
▁microv
▁illness
▁utilization
▁obese
▁unilateral
oidal
▁periodontal
apse
lated
▁techniqu
▁affecting
loro
▁Acute
oprote
gland
▁clinic
▁pig
▁detectable
▁medication
▁adhe
immune
atories
▁laboratory
icin
▁BM
▁clus
▁acidosis
tries
▁diabetic
opamine
lym
aneously
▁reag
DH
quid
▁nig
▁cathe
▁supple
▁concer
spective
▁valve
▁indication
▁soy
▁angi
▁stimul
▁cocaine
▁undertaken
ture
phic
▁cognitive
▁previ
ocytes
▁vag
▁intermittent
▁bilateral
regulated
▁monit
▁ae
▁malign
▁analyses
▁serum
mittent
▁amyloid
▁participate
▁compartment
▁turnover
bral
dial
▁perfusion
▁differentiate
igaret
emic
▁prel
▁immunode
▁underst
▁differentiation
olysis
vents
olute
▁cephal
▁aspir
pendent
radi
induced
▁retrospective
estis
▁wee
▁biop
rolog
▁PV
onium
▁pulmonary
▁vaginal
▁hypog
aline
▁therapy
▁endometr
▁seiz
▁LV
ycin
▁physician
ochem
arly
occal
▁gland
▁metastasis
▁presumably
▁demonstrating
▁preparations
▁modulate
▁screened
▁quantitative
▁membrane
▁enti
▁indications
ochemical
▁herpes
ploy
▁moderately
▁autoimmune
idate
educ
acr
▁glyc
▁necrosis
▁elevated
EA
▁behavi
▁profound
▁remo
▁salivary
▁receptors
ectomy
▁dosing
osomal
▁hemodynamic
agic
▁chemotactic
oic
▁beha
▁fatigue
oprotein
BM
▁experim
▁diet
mL
onography
▁iso
▁injur
▁homogeneous
▁proliferation
▁RT
HB
▁seizures
▁ey
pH
▁chemotherapy
▁cutaneous
▁muc
▁substantially
▁pneumonia
positive
▁implicated
▁challen
ritis
▁premature
▁manifestations
dose
ergency
▁cigaret
▁sour
ulates
▁insertion
▁LC
oradi
▁gradients
▁vein
LV
▁adherence
orac
▁fibers
versely
▁mobility
▁thi
▁alterations
oplastic
▁carcin
iable
▁surgical
ituitary
▁recur
yroid
▁Pretreatment
▁cerebral
▁Whereas
▁neurop
▁thromb
▁prol
▁achie
nec
▁conclusions
natal
tus
▁radiotherapy
▁assay
cardi
▁uter
▁latent
chol
▁hepat
▁perip
▁stomach
▁consistently
piration
ucle
▁inhibit
▁reper
controlled
▁implications
▁venous
▁shor
▁compartments
▁substance
▁RBC
rophob
▁lumbar
▁catheter
▁hepatocytes
▁responsiveness
▁healing
urys
▁complication
▁gastric
ancies
▁aureus
idation
▁facilitate
▁prophylaxis
▁Lys
▁haem
acts
▁cardiomyopathy
aturated
ialysis
▁infections
▁deficits
omat
▁oxide
▁carbohyd
duc
▁myocardial
ses
oplasmic
mia
hyd
▁substituted
▁behavioral
▁bip
rophy
▁exogenous
▁spati
▁synergistic
▁eluc
entric
▁lesion
asal
▁carotid
astom
▁canc
inemia
▁examination
▁satur
▁impairment
▁disruption
enic
▁MRI
▁compliance
▁IgG
▁perc
▁recor
▁anomal
▁dyn
ophil
▁cardiac
▁BP
▁PF
iatric
▁lacking
ophilic
▁inhib
▁heparin
▁hypoxic
▁instr
▁inhibition
▁embryo
▁muscles
▁Taken
aints
▁scre
▁spine
lux
DNA
unctional
▁fixation
▁PI
▁stimuli
▁excision
oride
ventricular
▁fracture
▁elu
▁transfusion
yro
▁discon
ctive
▁portions
▁nodules
ficial
▁synthesis
▁systolic
▁tumor
ilateral
▁tox
▁scans
▁aor
▁knee
▁ischemia
dominal
regulation
osin
▁differentiated
▁beneficial
▁Serum
▁susceptibility
ulin
ximal
itant
▁hypo
▁tracer
▁parental
▁oste
▁tes
kers
▁symptoms
▁rheumatoid
lact
▁coronary
▁recurrence
usal
luent
aired
ontal
▁localized
▁overe
▁pathology
▁abnormalities
iol
itone
▁intake
▁implant
▁chor
▁sten
anol
▁syndrome
atment
bladder
▁infiltration
angl
▁activated
atoid
jug
tead
▁preparation
▁pancreatitis
▁Addition
▁disorders
▁excl
▁temperatures
sor
sies
erative
sized
▁restric
▁phag
▁homogene
vul
dle
▁stimulate
▁PE
▁glycoprotein
▁regis
▁intram
▁intrav
▁pathologic
▁Doppler
▁oes
urther
▁prevented
▁metabolism
▁stab
▁pyramidal
▁complications
▁AMP
omal
▁regar
ropriate
ospor
▁neon
▁echocardi
▁cen
▁displacement
oscopy
▁undetectable
TG
oscop
▁angiography
rous
▁tumors
▁toxicity
▁phenotype
▁anxiety
orectal
▁postoperatively
▁LDL
▁melanoma
eration
▁laser
tin
▁subjected
▁HP
▁emergency
zard
ocaine
▁lipoprotein
atine
▁molecule
rogenic
▁chond
▁peripher
▁amyl
ications
alian
▁respon
▁tolerated
▁decline
derly
roup
▁facial
▁retention
▁cardi
▁opi
▁discrimination
▁requi
▁rhy
eak
ocytic
▁specificity
mg
▁ultras
▁HSV
▁satis
olved
aemia
▁parame
▁progn
▁diagnostic
▁shif
▁effectiveness
▁contributes
occus
▁opioid
▁reflux
▁discrimin
▁inflammatory
▁arteries
▁pH
▁adjuvant
▁practition
ygen
arb
▁ET
bac
▁lipids
duced
▁chest
▁synthe
▁multic
▁follicular
▁exis
▁elimination
armac
helin
▁paras
▁inh
▁lith
rates
▁intensive
▁TGF
▁hormone
▁glut
▁nal
ortic
▁reveal
urgical
▁examin
▁experi
▁fati
▁measuring
▁sepsis
▁prospective
▁histologic
▁secretion
▁discharge
lec
▁reperfusion
▁morphologic
▁synov
▁trauma
gic
▁infected
iably
▁sulf
▁deter
▁porcine
▁tomography
▁MI
▁deficiency
▁Cyt
▁regulate
▁cumulative
▁antic
acted
▁oral
▁thir
▁adverse
ogens
▁symptom
▁restor
▁treatments
iasis
activation
▁sampl
▁deprivation
▁dilated
ensory
ograms
▁sexes
▁determinants
▁connective
gely
onate
owever
▁influenza
▁uncom
▁assays
▁pate
▁uptake
▁prolonged
▁pregnant
▁AI
▁cyst
▁Comparison
▁plaque
asic
▁lipid
▁simultaneous
▁leukocyte
▁thickness
sia
▁operative
lix
▁thyroid
▁endothelin
▁ganglion
echan
▁barrier
▁usefulness
toc
▁isch
omized
▁dose
▁dex
▁adoles
▁implantation
▁normo
▁phy
▁olig
risk
▁functioning
▁perin
sy
ocyt
▁preoperative
romes
▁mg
ateral
▁testis
▁airway
▁inversely
ults
ostatin
▁mortality
kely
▁morphology
tif
eric
▁injections
▁facilit
▁hep
▁predominantly
▁reductions
opa
▁intense
▁fold
▁occurring
▁selectively
▁hepatic
▁TA
tors
atient
▁mono
▁predic
▁genetic
▁immun
▁ure
▁hormonal
ially
▁atherosclerosis
▁auditory
operatively
hest
▁chloro
▁PB
▁urine
xia
▁glomerular
▁Tran
▁spinal
erated
▁mell
clerosis
▁influenz
entif
▁phenomenon
▁tiss
BG
▁diseases
▁shorten
▁structural
▁cann
▁abdominal
▁smo
▁cardiovascular
▁cereb
athy
▁sequential
ocular
gth
plic
▁pharmacological
▁amin
ayed
olism
▁pediatric
mentation
▁chronic
pite
▁immunological
ergic
▁genes
▁irradi
▁hCG
otyp
▁efficacy
▁adenocarcinoma
▁tolerance
▁modest
▁onc
trol
ocardial
ypical
▁cohort
▁aerobic
erating
arge
tained
▁CMV
▁dys
▁umbilical
▁immune
imens
▁maternal
▁preval
▁relapse
odal
otherapy
eled
▁zinc
sych
▁predictive
▁embry
▁contralateral
▁MHC
▁scin
▁fractures
▁severely
tive
▁aden
▁anat
▁mitral
osom
oxic
▁mucosal
aemic
asone
lysis
▁saliv
▁NP
▁eliminated
▁glands
lood
mented
▁smoking
acting
▁systemic
▁mild
▁HL
▁bladder
▁saline
opausal
leu
▁Afric
ochemistry
BV
▁nursing
▁adults
▁aneurysm
▁spon
▁risks
▁determining
▁HC
RP
▁physiologic
adder
osts
▁fetal
▁estrogen
▁progression
▁CM
▁pineal
▁fever
▁dietary
▁ultim
▁pathogenesis
▁glucose
▁disappearance
sis
▁intraven
▁renal
▁injected
▁mann
▁adjusted
▁inhibitors
ept
▁therapeutic
▁heterogene
▁antib
▁nucleus
▁oxygen
▁fiber
▁nasal
▁anatomical
menopausal
▁lumb
▁transi
▁maintaining
▁PD
▁hypers
urine
▁findings
▁moderate
▁Overall
▁congen
▁glomer
▁vagal
fusion
▁evoked
mature
▁umb
▁acute
orrh
▁kidney
usp
▁heal
