titution
▁selective
▁280
▁65
▁provid
keletal
▁mucosal
▁luteinizing
▁reliably
idine
aemia
▁reag
adenosine
▁4.7
ayers
▁kine
▁biological
▁molar
operatively
▁prednisolone
entified
▁68%
atid
Nase
▁suicide
▁doubling
▁diz
idney
erally
ameter
▁unfractionated
▁preferentially
▁metastasis
▁postprandial
ococcal
▁Fifty
▁deter
▁paired
▁adenomas
▁euthyroid
RNA
▁GSH
RD
▁schiz
otent
▁excre
lastic
79
kephalin
▁relie
▁irrever
natal
▁malignancy
fetoprotein
tence
▁exten
▁nicot
oung
▁Bec
▁sediment
▁grafts
lamydia
▁thereafter
▁weighted
erad
▁thromboemb
▁lymph
IU
▁regurg
▁developmental
▁thymidine
▁persistently
▁laparoscopy
▁dyn
odies
epines
▁1200
▁aggressive
diagnosed
moking
asone
▁incid
▁Prospective
▁ultras
olones
pran
▁94%
▁hyperplasia
▁preven
▁vasoconstric
▁contributing
essation
ometh
▁kinase
▁thrombo
1.
ximum
450
▁Hear
▁nm
▁arachidonic
▁estrogens
▁RF
obl
▁0.00
tained
clinical
amole
▁arterial
▁tumors
▁electroph
▁1
itoneal
ymptom
induc
▁kinetics
▁hippocamp
▁0.9%
▁acquisition
onography
▁derm
▁absorp
orbent
▁challenges
tious
▁functionally
▁specificity
gm
▁phospholip
▁probe
▁synthesized
▁Cd
loride
icillin
fine
5%,
▁panic
▁superf
tak
▁endothelium
▁therapies
▁inhal
nucle
25
roscopically
▁cere
▁7.6
▁increas
▁0.65
iated
alact
9),
amuscular
-4.
▁surveyed
▁VP
▁pathological
95
▁diuretic
▁chor
▁(47
▁50,
▁propranolol
▁TCR
41
▁aneurys
meth
ohyd
▁shorten
▁assessing
▁nonspecific
▁exce
olesterol
5;
▁latex
▁Tes
▁Acet
▁phospholipase
odic
▁cranial
▁Estimates
▁nebul
erating
sA
bloc
▁lutein
▁insurance
inoc
61
▁hormone
▁leukocytes
▁1.00
▁dehydration
▁HIV
▁detrimental
▁parathyroid
tors
▁interc
tized
▁arousal
▁WHO
venous
entif
▁18%
▁99%
▁hormonal
▁amphetamine
▁psychomotor
▁93%
▁tyrosine
▁diabetic
▁residue
▁crossover
▁conjunction
▁(15%)
▁edema
▁genital
▁promin
▁(10
▁exhibiting
2]
▁ey
▁NP
▁altered
▁immun
nthe
onine
▁ACh
7%
amet
▁differed
▁infection
▁diversity
▁fulf
usive
inely
▁2.3
▁determining
▁monomer
▁precursors
▁tumours
cemia
thma
▁collagen
bacco
▁intra
itidine
▁transmitted
▁homogeneity
IgM
▁investigators
▁allergens
▁inhibition
▁demonstrable
▁pim
▁analges
▁descending
▁10.2
▁Hz
acycl
▁skeletal
ionine
vaccin
▁pathologic
onide
▁routinely
▁Exercise
▁lacked
▁cleavage
▁anesthetized
▁acetylcholine
▁antipsych
▁sensitivities
enteric
ulmonary
▁strategies
tance
▁statistically
▁zinc
▁gangl
opha
▁excluded
minal
▁vascular
▁restric
timal
▁hep
Cu
▁infected
▁bacteremia
200
▁69%
▁0.9
▁Cycl
▁wound
▁maternal
▁perit
▁5,
▁normotensive
ocar
lamp
▁5%,
-20%
▁beats
▁thromboembolic
▁mutagen
▁awareness
00,
▁elicits
organic
arbox
▁57
▁psoriasis
reactivity
itoring
▁availability
odular
▁virtually
▁discre
▁disper
roat
ogenous
icardi
romised
▁correspon
▁0.05).
▁accel
▁aerobic
▁9,
14
▁saturation
▁direc
▁interv
tract
▁12,
apeutic
▁rup
▁relaxation
encephal
osamine
2%
▁qualitative
▁Physical
▁atrial
itus
▁abnormally
▁lactation
▁caudal
epam
tracted
incip
▁inadequ
▁veins
▁tension
tention
ologic
opes
▁25-
▁bleeding
▁46%
▁MIC
-6.
▁lipoproteins
▁paradox
94
odium
000.
▁BMI
▁COPD
galy
onit
▁fracture
▁Caucas
▁aberrant
oreal
tact
tured
▁medial
▁fibroblasts
▁counseling
▁focal
athyroid
.9
▁nausea
ectom
exercise
▁biosynthe
ially
idity
arbonate
▁differe
acids
sives
▁66
▁serolog
▁alanine
▁tolerated
▁5.
▁117
▁wean
▁contiguous
▁reactions
olus
/7
ominant
ept
▁smo
indolol
athetic
▁positively
tivities
▁freeze
▁intub
tisol
oscop
▁rebound
seven
▁9.9
▁lymphocyte
▁bioavailability
▁virtu
ifornia
ypro
▁Prel
▁Intr
cysteine
fused
econd
▁electromy
▁233
▁physicians
▁favorable
onin
▁blockers
itin
tussis
86
▁injec
uccess
▁8.8
▁molecular
odine
▁oligos
▁Abnormal
▁retrospectively
▁carbohydrate
anthine
▁jaund
jac
ulin
▁serine
70
tic
rox
icated
▁biphasic
▁visualization
silon
▁contraceptives
▁prostatic
▁stu
exc
▁unrelated
adone
▁tetrac
ailure
▁thoracic
oprost
▁relapses
▁harmful
▁amitriptyline
coh
12
▁congestion
▁contex
-1
▁tape
opause
▁58%
65
▁titration
subunit
Rs
hypertensive
asic
▁defec
PEG
▁disappearance
▁polymer
teine
orough
▁outlet
▁hairy
▁alcoholic
achnoid
ylon
▁40-
▁accid
▁Transi
▁Initi
▁symptomatology
erebral
▁surviv
▁unchanged
▁secretagogues
▁investigated
agonist
▁infancy
▁monocytes
▁purified
▁yiel
▁3.5
▁conductance
ulose
▁hysterectomy
▁nylon
▁atrophy
virus
▁Exc
▁evid
▁rabbits
▁optimum
▁Subjec
osome
▁0.78
onset
▁intermittent
▁0.4%
iron
▁5.6
lycer
-2,
▁allergic
▁offspring
▁1.5
▁phosphatidyl
▁hepatotoxicity
▁pharmacy
▁anxio
▁0.50
▁chloro
▁sheath
▁innerv
otyp
▁creatine
▁8.6
rography
▁systemic
9.
casein
platin
▁GA
▁arrhythmia
▁dose
▁fulmin
▁thrombocyt
▁antiser
orepinephrine
lives
▁4,
riched
▁bronchitis
▁reass
reased
▁nicotine
▁8.
osin
▁HLA
ller
▁tomography
erence
▁ADA
▁nmol
▁lec
lyce
▁anomaly
53
▁reinforce
▁emo
▁clinics
▁myelin
▁positioning
▁10%.
▁regimen
▁kinases
alc
▁circumference
▁forsk
6,
▁polycystic
▁crom
▁abdomen
▁DS
▁secrete
tub
deficient
▁predictors
▁mec
▁surgically
▁CNS
▁femoral
▁puncture
▁categorized
▁Immun
▁chemicals
blocker
ozo
▁simplex
▁Whereas
▁progesterone
usate
▁superoxide
ticle
▁labelled
▁71
▁4-5
▁establ
▁orthostatic
▁discriminant
▁cortical
▁36
ulsive
▁0.3
▁surf
uble
anad
▁staging
▁fractions
▁Subjects
▁treating
▁resting
▁bactere
▁initiated
▁8.4
acchar
▁gp
albuminuria
▁Epid
▁oes
ults
-400
tents
▁latency
▁influenza
otonic
▁0.001)
▁synthase
▁Doses
HF
▁sugges
tus
▁nitrogen
▁concurrently
▁vesicles
▁sple
▁discon
ovirus
2%)
▁5.3
LISA
▁stimulant
▁covari
▁Evidence
▁dehyd
▁suppressed
▁indi
crip
▁11-
vail
ifferen
▁graded
▁dyspnea
▁45%
▁chloride
iant
▁30.
▁suggestive
▁Thirty
-2)
▁glucosamine
▁brady
▁replic
ochrom
1.1
▁disturbance
onephritis
▁CHF
▁cocaine
derly
▁muscul
▁gradients
▁rats
-19
▁albumin
▁Oste
▁ibuprofen
▁sarc
66
▁contraceptive
hea
▁48-
▁alcoh
▁dendri
ocon
▁viruses
▁immunoreactive
▁ovarian
▁inflammation
▁dendrites
▁embry
▁diagnosis
▁utilization
▁0.70
▁tibial
prising
▁HSV
▁nuclei
▁40%
▁-4
BM
▁51
Phe
ulitis
phosphon
▁autologous
sor
achid
▁diagnoses
▁therapy
▁42%
▁quantified
▁hypertrophy
▁physiological
▁sampled
▁cardiac
▁enrolled
acrine
▁proportions
▁71%
▁presenting
▁limb
▁bypass
osus
clerosis
bic
3).
00
rometry
tative
ilized
▁cDNA
▁monitored
eclampsia
assay
▁14,
5),
ardia
titute
▁peptide
EMG
▁Secondary
▁4.2
▁adenocarcin
significant
tia
▁ranged
▁experimentally
dL
affec
▁SG
othal
▁ventric
▁FSH
ecal
▁jejun
▁docum
▁perox
▁8.3
retion
▁asthmatic
zation
kDa
▁premature
estern
▁neurological
▁32
orac
otropic
▁centr
▁bolus
▁ionic
ochrome
ocor
▁Significant
tructive
aturated
▁reviewed
▁carp
▁belie
▁examin
infection
henyl
▁liver
BP
▁predis
▁beha
-1).
-20
▁phosphate
▁gum
▁0.000
▁responded
:1
▁nif
▁1000
▁adop
tle
▁cystic
▁4000
▁morphine
4]
▁contralateral
▁10.5
▁ischemia
▁acco
▁adip
were
▁64
▁ganglia
▁hepatic
▁limiting
▁effusion
▁(19
▁Feeding
yel
▁secretagog
▁dialysis
▁PEG
▁17%
▁accidents
▁(82
▁muta
▁physician
sych
▁(38
onuclear
rief
alsy
▁somatic
83
▁Highly
▁KCl
lyl
▁dental
▁adulthood
▁nitro
▁DMP
▁recipients
▁outbreak
embran
▁contrac
▁mRNAs
▁122
▁alterations
▁oxy
▁myc
onary
▁menstrual
▁clu
▁ect
▁electroly
ercise
▁1989
▁axons
menopausal
▁transient
tality
opathological
▁nitroglycerin
ungal
▁0.04
tening
▁natriuretic
8%)
▁urgent
▁homology
▁Wistar
osidase
▁rhythm
risk
eroxide
actin
▁(4
▁6.5
tability
disc
▁8.0
▁meal
▁subcutaneous
entric
opathic
▁valpro
▁2.5-
▁30%
▁occl
▁helical
vular
muscle
throm
▁prophyl
▁reveals
▁CB
loro
▁answ
▁horm
▁ward
▁Calc
▁assay
▁natri
icients
tidine
amus
▁androgen
LH
▁eryth
▁3.3
LDL
azepine
atosis
lym
▁1.25
trate
ergic
hemical
▁macropha
▁cran
▁histopath
▁heme
inesterase
▁cerv
▁75
physiological
▁needle
▁imaging
▁immunos
tential
▁amniotic
▁9.5
▁heparin
▁pneumoniae
▁inducing
/8
amine
▁protective
▁RV
▁elec
▁exacerb
▁compromise
tituted
▁assessments
isolated
96
▁cytotox
▁enlarged
▁eradic
▁regulated
▁immunore
▁apical
cents
Gly
▁interacted
tran
▁sulfoxide
▁dermatitis
▁conservative
▁symp
ondr
eptic
▁volunteer
-2.0
retic
eeding
infected
▁aspir
▁practitioner
▁placebo
▁iso
▁socioeconomic
▁119
▁Streptococcus
▁meaningful
▁restenosis
▁membrane
7,
▁carcinomas
▁antid
▁seroton
▁hydrocortisone
tenti
▁Hypertension
▁intravenously
omotor
ographically
glutinin
▁facial
▁inappropriate
▁norepinephrine
▁tobacco
protein
▁3%
▁hemoglobin
▁temperatures
▁82
stolic
▁isolates
onor
▁caud
98
▁800
▁succes
▁homologous
▁elu
arachnoid
▁nal
▁analgesics
▁modeling
▁indo
tophan
▁transfusion
▁screened
▁BM
▁NH
uresis
13
▁moderate
tinu
acet
▁physici
▁expense
▁improving
eptide
tual
▁inducer
ficial
jun
▁sucrose
ulph
▁perinatal
▁synthe
▁airway
obal
5%),
▁buc
▁AFP
▁enzymatic
▁cisplatin
▁repl
▁intraper
▁RAS
▁occupational
▁ips
▁polyp
▁hypothe
xone
▁9.0
▁Individual
▁(72
essive
▁neurologic
ethyl
▁discom
▁compe
▁infil
▁tes
abd
48
▁6
▁therap
▁Addition
▁plaques
urate
ignant
▁potency
▁sepsis
▁0.6
▁estrogen
tin
anine
▁110
inhib
▁24,
▁polyclonal
seud
inol
▁proton
▁mild
▁HA
6;
▁gestation
▁stab
▁ester
▁vaccin
▁14%
▁(18%)
▁regained
82
-6,
produc
▁220
▁0.05
glutin
abies
/1
▁accumulated
▁conduc
▁conges
▁Forty
▁pump
▁donor
ocomial
ulous
CoA
▁21,
▁elic
▁insoluble
▁mumol
yclic
▁200,
tional
tively
▁unde
▁Diagn
feeding
invasive
atally
polyacrylamide
▁Comparing
0%.
oxyl
▁(26
▁presentations
▁carbamazepine
▁psoriatic
▁multiv
▁progres
ociated
▁balanced
▁enriched
▁biopsies
▁polys
▁introducing
▁81
siveness
▁islets
SBP
ectable
▁antiarrhythmic
eptin
▁embryonic
6%)
▁ICU
▁placenta
▁rhinitis
▁modalities
▁porcine
retin
▁assis
▁dete
glycerol
azoline
enyl
imodipine
▁162
▁hams
▁regar
bladder
▁exis
kephal
▁progestin
50
otomy
stro
▁oligonucle
▁standardized
early
▁0.24
upus
▁10.0
▁50-
▁erythrocytes
tur
▁deple
▁FT
electro
▁NT
▁shor
▁Fc
▁87
▁sorbitol
▁0.56
aid
vaccinated
▁177
▁terat
1:
TNF
▁quanti
▁immunotherapy
ressing
▁13%
▁radiographic
▁platelet
idase
▁17,
▁77%
ithi
rogesterone
▁glycoprotein
▁mammalian
▁transloc
▁febrile
amid
▁platelets
▁transcripts
▁venti
▁excit
ylase
tetr
▁glyc
▁glycogen
▁organs
14,
▁ECG
▁26%
▁parity
▁motility
▁saphen
ocial
▁drain
▁folate
▁suppression
▁pyl
▁interventions
tering
containing
▁bronchoscopy
▁decreased
opsy
▁concentrate
reactive
▁[125
ffin
▁demonstrates
▁antibiotics
▁toge
ranolol
▁prescribed
▁clamp
jury
▁hepatocytes
fected
▁pharmacokinetic
4,
▁concer
▁preparations
oresis
▁basal
▁(8
▁retin
▁progressed
▁reproducible
▁gamma
▁atypical
▁14-
▁ventil
▁gonorrh
▁spray
▁clot
▁3.6
adine
within
▁88
kine
selective
▁verbal
ucine
▁histological
coun
▁tended
▁severity
carinic
▁xyl
▁23
▁10.
▁(2
▁106
▁spectroscopy
ATPase
▁heterogeneous
▁cerebral
▁esophageal
▁ket
▁fluoride
▁diet
0.5
▁ofloxacin
▁104
▁fibros
aminop
His
▁providers
5%).
▁capillary
▁colonization
▁postmortem
-125
ocardial
▁radiologic
.2
▁(15
▁pharmacokine
▁confirmation
▁clinicians
▁inhaled
▁lysosomal
▁diuretics
iatic
▁manifestations
▁insufficient
▁methodological
ronchial
▁2.7
oplasm
▁cholest
▁Positive
▁washout
0.
aturity
▁IFN
+-
▁64%
.6,
▁hepar
▁conserved
▁screening
▁39
▁cis
2+]
▁precipit
▁10%,
▁0.001),
▁subjective
▁outbreaks
▁sympathetic
▁decade
▁electrolytes
▁adenocarcinoma
▁nodule
azepam
▁adjustment
ysts
▁potentials
▁venous
▁(46
▁Changes
▁ethnic
▁11.
▁clones
inergic
▁ejac
▁halves
▁twofold
▁8.2
ipr
emide
▁murmur
adequ
vents
▁5.0
▁physiology
▁eliminating
▁128
▁arter
▁validated
20
▁guan
▁maturation
▁NMDA
▁projec
▁lesion
acetyl
spective
cellular
▁Atrial
▁poorer
▁(0.5
iagn
ituitary
▁dramatic
▁ovulation
flammatory
aturia
sue
sensitive
▁dihyd
amycin
DNA
▁transfected
ucl
▁adduc
▁chronic
ophen
0.3
▁currents
▁(95%
5%)
occal
▁neomycin
esophageal
▁pulmonary
▁decayed
▁neoplas
amous
determined
▁cerebellar
▁Neither
rofen
▁76%
▁(1.9
▁hypothesize
▁arth
▁deox
upuncture
▁insertion
▁carbox
▁trend
▁fasting
▁analgesic
▁evac
▁extracts
benz
▁stere
▁bacteria
▁stres
▁amino
ardized
ocusing
orated
▁77
▁fibres
▁5.4
▁stained
ionate
▁definitive
▁spor
gic
amphenicol
olip
▁(150
▁abundant
▁varicella
▁perme
▁substance
▁somatostatin
▁displacement
lep
▁adequ
▁Subsequent
ffeine
▁additive
▁anticoagulant
▁heterozygous
4%
erable
▁visits
▁necrosis
rologic
▁Reduction
▁centers
nine
opoietic
▁coeff
▁manipulation
▁(3
▁corticosteroid
ellular
▁suspicion
pirone
▁(45
gus
▁decreases
atinine
▁microgram
▁hypertension
▁undere
oreactive
▁CTL
▁gastric
▁reproductive
▁hyperg
▁threefold
▁70
▁tymp
▁BV
▁15,
vation
▁cephal
▁pressures
▁enalapril
▁descriptive
▁fetus
▁surgeon
▁translocation
asive
▁cyst
▁hypogonad
▁potassium
▁thirds
oporosis
▁nM
▁fecal
▁assayed
▁carboxyl
owever
partic
▁PP
ilateral
▁mammography
88
▁predomin
▁normalized
▁glucagon
adiol
▁muscarinic
gely
▁antigenic
vated
/30
▁methionine
▁couples
2),
▁adren
▁homogene
thmatic
▁0
RR
▁fatigue
hion
▁83%
▁8,
▁Swed
ocamp
▁Surgical
pli
▁algor
▁deoxyrib
romy
cg
▁37
/9
▁hig
tiveness
▁anticoag
▁gland
hemat
▁evaluations
▁succin
▁tetracycline
oxif
▁acutely
plete
▁foods
-2
pir
hern
pecific
▁PMS
▁mV
▁attitudes
-36
▁circulation
▁adhesion
▁uteri
▁abscess
▁promp
otre
otide
▁serotonin
▁vaccinated
allium
▁refr
aginal
matic
eliac
▁radiography
▁osteoporosis
responders
asting
▁duodenal
▁microsomal
economic
▁glycemic
▁0.20
greater
▁spon
▁189
▁corne
▁hydrox
prandial
ophylline
amination
▁methotrexate
▁hypothal
▁coval
▁volunteers
▁poisoning
▁prevalence
▁triglycerides
▁alkaline
oreceptor
▁antagonist
▁microscop
▁achieving
osal
pendent
▁tumour
▁arteries
▁controversy
onuclease
▁1960
hydr
▁neurop
12-
▁capsaicin
-18
▁tow
olic
▁neuropsych
aired
▁11%
▁enteric
atab
▁PCO
▁MRI
▁sequenced
▁ulnar
orphin
▁stimul
▁implanted
▁spontaneous
▁52%
▁10,000
osine
38
▁saliv
▁aureus
mediately
▁pharmac
urgery
▁interstitial
▁painful
▁plantar
4),
▁aortic
▁Urine
▁thrombin
▁pyruvate
▁wake
▁TC
eight
▁Replacement
▁Assessment
ucle
tif
▁oxidation
venty
oxone
▁difficul
1).
mitter
ication
duced
▁0.60
▁substanti
▁Hyd
tronic
▁caries
abdominal
▁fibrosis
)2
▁chemically
uric
▁ultrason
▁elbow
independent
tensives
▁characterized
▁-3
▁(92
▁mutations
fraction
▁poorly
▁29
▁correlating
otting
▁leukocyte
▁Arter
▁malignant
divid
▁cytosolic
olateral
ologists
▁173
▁enl
meas
▁ELISA
ropyl
▁(2.5
▁theore
molar
▁BAL
orrh
▁chol
77
▁approx
▁antibodies
▁injur
ylated
itol
▁coupled
CSF
▁sulfate
▁postmenopausal
43
▁nadir
19
▁111
▁Vmax
▁35-
▁insulin
▁1,
▁inhibitor
▁stimuli
▁LD
osterone
▁palp
▁cortisol
illin
▁thrombotic
ranial
▁admissions
scherichia
▁reacted
ventional
▁malign
▁120
▁supportive
▁allergen
oglobulin
▁unexplained
▁neoplasm
▁1.8
▁olig
▁aspiration
▁rhin
ilol
▁5.7
achial
▁superficial
▁abor
▁elderly
otoxicity
athe
▁demands
▁1.5%
▁mann
▁asymptomatic
▁sustained
astolic
tene
▁10.4
▁displ
-4
▁Hb
▁spleens
▁lymphoma
GF
▁solitary
▁nons
esic
▁antagonists
fusion
▁normalization
▁ureter
10,
phyl
▁instruc
thym
▁contractions
ostatic
-15
▁pretreated
▁plasma
▁fmol
▁(27
Ls
▁fertility
▁consultation
▁0.06
mend
▁reflec
▁3'
▁autoimmune
▁hemorrhage
▁tablet
-7
▁levodopa
▁4.
▁EG
30
RF
orrhea
▁2
▁conformation
▁anaerobic
poor
▁recurrences
-40%
▁supernatant
▁anae
▁objec
14)
▁Eff
▁untreated
0.9
▁vitamins
2+
▁canine
▁contracep
▁bup
▁streptococci
angl
creatinine
portant
▁mature
▁90%.
Ala
wenty
▁cryp
tead
habil
▁receptors
▁ions
▁furosemide
olism
▁morbidity
▁cardiovascular
dial
itrate
2)
▁sinus
▁controver
-11
Bs
tation
potential
▁septal
opoly
odiaz
daily
▁erythrocy
▁transcriptional
jec
▁progen
▁Statistical
▁supplements
acin
idis
800
▁achievement
▁tightly
▁hemodynamic
▁abl
▁irradiated
▁0.18
▁pathogenesis
lox
▁Interestingly
labelled
▁immunogenic
oxetine
▁hematuria
oglobin
▁IgE
28
▁sugars
tages
erative
▁cavity
▁expectations
▁clonidine
▁depressive
ectin
▁35%
92
▁masked
▁intrav
planted
▁mood
▁113
otone
▁actin
▁EBV
▁smear
ologous
▁insufficiency
▁interfer
odop
▁artery
▁-6
▁immunocomp
▁cuff
▁spati
xia
▁tube
atrial
▁percentile
ophag
▁ATPase
▁scalp
▁152
▁Compared
▁rheumatoid
▁prevention
▁reproduc
gestin
▁Factor
▁137
▁cAMP
▁implicated
▁markedly
-0
▁Alz
icient
0.2
▁involvement
▁NSAID
▁conduction
▁scre
▁Afric
▁estradiol
kers
istar
▁bone
▁cryst
imentation
opausal
▁medically
▁2.5,
▁seas
▁illnesses
▁cruc
carotene
sions
▁confers
▁118
▁Haemophilus
▁oral
▁13,
▁stimulatory
▁spectroscop
▁205
▁molecule
▁microns
▁describ
tabl
uncture
yrox
uoden
butamol
▁erythema
▁demonstrating
tigu
▁Sodium
▁yielding
▁biosynthesis
MH
▁168
▁compares
▁Dop
▁lesions
▁0.8
oA
▁polyc
▁0.22
epti
ipolar
▁dye
▁reveal
▁postsynaptic
▁carbonic
▁1.1
▁produc
ochemistry
enzyme
▁MH
teroid
otypes
▁benzo
▁neurones
▁paroxysmal
ocellular
duce
▁professionals
▁antenatal
76
▁84%
▁nontoxic
▁circulating
▁seiz
ffec
glycer
▁implic
▁oxid
dil
▁monotherapy
▁(16
▁(1
phosph
▁impairs
▁oxygenation
▁lidocaine
▁strom
▁stain
▁4.0
▁viral
▁metastatic
▁granules
▁cyto
▁crucial
▁angi
toc
11
placement
▁carrier
▁augmentation
▁inhibit
▁20%,
▁neurotrans
▁resemb
▁pregn
▁evoked
0%)
▁eligible
tron
▁incompletely
3%)
▁anastom
▁proteolytic
▁requi
▁latent
hydropyridine
▁intact
etent
indings
yzed
▁nocturnal
▁ascertain
▁magnesium
omes
▁deoxy
▁0.30
onstric
55
▁colonies
▁soy
▁Inhib
lobin
▁131
▁antis
amphetamine
▁TCA
▁induce
▁lacking
fib
▁Thy
▁multis
▁0.11
▁59%
turally
▁accumulation
hist
/6
ophren
▁2.2
▁(50%
▁buspirone
▁VIP
▁ranging
▁deaths
▁0.99
fat
▁55
▁dissociation
▁progressively
▁agglutination
▁monke
▁oxide
▁gonadotrophin
enec
▁abstinence
ipine
▁cerebro
-2.
▁shortened
▁intestinal
▁sour
osclerosis
9)
veolar
▁cultures
iph
▁declined
▁acyl
▁immobil
▁63
itamin
▁organic
tine
entical
▁yielded
glycerin
iazide
lys
▁splenectomy
▁wt
▁350
▁hyperthyroidism
▁measurable
▁monkeys
▁Depression
▁fiber
▁torsion
sulf
lysis
orts
▁sickness
unced
▁avoidance
ressed
ifedipine
▁Experim
parathyroidism
▁lasting
▁2.4
▁mU
ticularly
ycin
8+
▁ductus
▁attenuation
oconstric
▁0.0
▁agonists
▁89
salt
▁ligation
mature
▁TSH
ylate
▁adjus
▁43
▁keratin
-25
▁cyclosporine
▁possi
▁retina
▁alcoholics
▁antiserum
▁chromatography
-50%
▁(49
▁1)
▁46
cholesterol
▁herpes
▁hospitalization
▁32%
.0%
▁sedation
oride
▁Fib
▁39%
trast
▁deficient
xate
MDA
▁sput
▁cancers
▁3,
500
▁dendritic
▁pancre
ophy
▁differentiated
cture
▁prednis
toxin
▁Epidemi
▁splenic
5)
ituit
▁vaccine
▁amputation
trition
▁dys
▁hypotonic
▁12.5
▁chemotherapy
atients
phine
3)
ausea
ellar
7,000
▁childhood
▁dosages
▁satis
▁(3)
bran
▁(16%)
▁expressing
cycl
▁Sixteen
plied
anding
iotic
▁Failure
▁-1
dition
▁placement
acil
▁+/-
ortic
notic
▁rele
eclamp
▁spont
▁7,
chol
▁induces
▁addi
▁urinary
▁angiotensin
generation
90
▁obese
▁LV
unctions
0).
▁0.7
ignific
opramide
▁inactiv
▁perc
▁thir
▁postural
▁Thyroid
▁estimating
▁prol
18
▁osm
▁dimethyl
▁gradual
▁Ventricular
▁hered
▁DH
eled
plants
▁adhesive
3-
▁Injection
▁eccentric
▁(22
▁wk
drug
▁Angiotensin
▁PMN
▁synovial
omonas
▁PG
▁embolism
▁functioning
ureth
▁susceptibility
▁donors
▁5)
▁gluc
▁PH
▁Increas
▁acros
▁basement
azole
▁refrac
-60
atine
olamine
umetanide
▁consumed
▁aids
▁Chlamydia
▁urea
apamil
▁relapse
84
idated
▁paternal
respon
▁excessive
▁Levels
▁Complications
▁retur
▁0.2
▁bronchodilator
▁70-
▁20.
onatal
rogenase
▁0.33
promoting
▁172
▁antich
▁nerves
▁decreas
titu
▁underg
▁Candida
rates
▁cohort
IgA
ilin
▁neuropathy
-70%
▁14
tum
uppression
▁efficacious
▁Assess
▁vivo
▁vigorous
tice
▁10.7
actam
60
▁concentrated
ubation
▁Eleven
▁cytokines
mortem
▁carcin
mong
▁(39
robial
▁hypers
▁stimulates
strain
gents
1-
▁kinetic
trum
▁41%
ducts
-1000
rein
ymptomatic
▁72%
▁mice
▁discontinued
▁Tissue
▁toxicity
▁complication
▁105
▁seropositive
bumin
▁21
▁disorder
yclo
▁transplantation
▁infections
▁disorders
leuk
▁marrow
loid
AH
▁(1.5
▁blacks
cys
▁thickness
▁89%
▁carcinoma
▁15-
▁deficiency
▁(33
▁Escherichia
▁142
▁smokers
▁neph
▁upstream
▁filtration
▁pulmon
ayed
▁acet
▁anhydr
▁crude
ctive
▁guinea
▁comparative
▁exclusion
▁109
▁1986.
18)
▁eti
▁glycol
aryng
▁diarrh
▁aspartate
ilization
▁phenyl
astom
▁hemorrh
adm
▁cigarette
▁0.01
▁neon
sively
▁cann
quine
▁occlusion
▁Insulin
▁obesity
▁surgeons
▁desaturation
-6
incubation
▁fractional
▁10%
hers
atest
▁micron
▁monthly
▁binds
roin
thymidine
▁vesicle
▁ascer
▁Trial
oglyc
diagn
▁asthma
olipoprotein
▁feeding
▁predictor
▁spectra
tries
▁spectro
2+-
▁premenopausal
▁tol
▁multicenter
ithm
▁testosterone
pain
aneously
▁substrates
echanical
▁survival
▁(0.4
ogenesis
▁immunofluores
▁questionnaires
iminary
▁dihydro
▁37%
▁Maximum
▁transaminase
▁islet
tec
▁impair
▁resection
▁9.
▁sham
▁reperfusion
tamine
▁fibronectin
▁calmodulin
2).
▁leukotriene
feren
resis
▁0.95
▁olive
leu
▁decisions
4).
ureus
▁nonin
especially
tide
acyl
amol
▁discrimin
▁allergy
▁glutathione
openia
-8)
▁dissection
▁respiratory
▁esterase
▁dairy
adication
▁wee
▁laminin
▁dysp
aryl
▁qualitatively
▁healthy
▁ovari
▁fulfilled
▁peripheral
▁unstable
▁hydrochloride
▁gentamicin
▁perceived
46
▁transcription
availability
▁3.2
Hg
3/
▁9
▁HL
▁immunization
roscopy
educ
tig
thre
▁plaque
activated
▁adverse
▁trimester
tics
ocrine
cells
▁cessation
68
▁conditioning
▁conducting
▁granul
▁kit
▁Preliminary
enters
▁stimulation
▁deviations
▁resear
amethasone
▁100,
sus
▁hyperactivity
▁Combin
acetic
uretics
▁carotid
▁membran
.7%
▁glycerol
▁deterior
▁revised
orbol
ioid
▁tas
.5.
▁10,
plantation
▁prevented
▁endot
heres
olerance
trover
▁(300
▁idiopathic
ariate
thyroid
▁0.4
ospasm
▁Increases
▁prolonged
▁(2),
▁postnatal
vely
▁fibers
olol
▁suture
went
piratory
▁cats
▁meningitis
▁mEq
▁stric
▁benz
▁readings
▁limbs
▁18,
ocytes
mobil
aicin
elic
▁(75%)
▁escal
▁intrinsic
trac
▁juven
▁gonad
atched
64
▁perception
athiop
▁examinations
▁rupture
▁kappa
▁TGF
▁agonist
oag
ellum
otoxic
HDL
▁pancreatitis
▁immunoblot
▁methyl
▁splenomegaly
▁UV
▁emboli
23
▁flexor
▁medications
ectomy
▁154
▁carbonate
▁perioperative
occi
▁olfactory
▁24
ields
▁(1.6
▁carbohyd
eptidase
▁sucralfate
▁sedim
alp
▁0.29
▁benzodiazepines
▁ventilator
▁surgery
organisms
▁mug
▁1986
25)
▁microbi
▁mamm
merc
disciplinary
stimulating
▁1985
▁recurred
ococcus
▁microsomes
▁.00
▁ery
▁congestive
+/
▁0.1
inum
▁connec
▁assessment
▁(0.9
rotic
▁coagulation
thromb
▁testicular
iasis
Tc
▁phag
lastoma
▁1970
iline
▁glands
antibodies
▁enlargement
tensive
7.
▁nonc
▁micrograms
rosy
▁Elec
unar
15
arrhy
110
▁stepwise
▁50%,
▁10(-7)
-34
aternal
90)
▁striatum
oscopic
eration
▁neuroleptic
▁HC
▁splen
▁calcified
ophys
▁galact
▁efficacy
▁knee
▁anion
▁analyses
obronchial
▁paral
▁turnover
▁microscopy
▁dilution
estis
fiber
hydrox
▁attemp
▁ingestion
▁preexisting
▁intense
tures
▁lob
▁enlarge
▁alumin
91
▁occult
GD
▁adversely
▁underst
anide
▁27,
▁87%
▁tooth
▁wash
▁reticulum
▁choline
▁40,000
atical
dose
▁hospitals
ereb
▁40.
8-
▁agon
ocarcin
teral
farin
▁Sixty
▁mast
▁obstruction
▁stimulating
▁hippocampus
▁bile
chlor
▁prednisone
▁270
▁107
▁(1.3
7),
▁SDS
▁stratified
▁tendency
respective
▁11.5
crib
atoid
▁cooling
oconazole
▁chamb
▁adults
being
▁afferents
▁proce
▁bronchodil
▁scientif
roma
▁hippocampal
onvul
▁atten
▁statis
▁recordings
▁phosphorylation
▁sampl
▁modeled
ipit
▁dermat
▁acces
tory
oxin
▁metoclopramide
▁weakly
▁unresponsive
▁achie
matched
reast
dural
▁145
▁revascular
hydro
▁posttreatment
▁lipids
▁confound
▁sedative
olig
ctomy
▁tissue
▁97%
▁Retrospective
▁wounds
▁remission
▁Progesterone
▁percutaneous
diastolic
▁(80
▁subf
RH
▁0.55
▁syphilis
anin
ochem
-40
▁uro
▁27%
▁ligament
▁perfusion
▁encompassing
▁grain
tility
▁anxiolytic
ensitive
▁(18
▁340
▁consecu
ogens
ventilation
ovastatin
▁0.52
ontal
omies
▁ambulatory
▁6.9
▁2.9
▁dosage
▁constr
▁warfarin
▁nonf
▁colorectal
▁hospitalized
▁Measure
▁Comparative
enal
semb
plasty
9%
▁33%
▁hCG
▁18
chym
CAM
▁osteoarthritis
▁sodium
▁ank
testinal
ropath
▁genetic
▁anaesthe
▁doses
▁atr
▁PF
oclonal
▁diastolic
▁155
▁proximal
▁700
tive
▁injected
osid
▁enrol
▁BCG
▁residual
▁ib
▁92%
▁specificities
▁(5%)
tency
▁sputum
▁normo
-1,
▁ipsilateral
▁replication
▁resc
▁distin
▁mmol
▁LPS
▁oils
▁RR
gressive
ploy
▁(50
▁idi
▁stimulate
▁2.0
▁enhancement
gans
▁recombin
cardi
▁17-
▁199
azone
▁institutional
6%
1,
arrh
-2-
idate
▁EEG
▁3.1
▁consciousness
▁neuron
▁endothelial
▁69
ologically
acement
▁embryo
▁horiz
▁junction
idespread
▁cros
▁TD
▁(11
▁posi
3,
▁60
▁phospholipids
▁(93
▁comprised
▁discomfort
▁Risk
▁blocker
centr
▁benzyl
aemic
kelihood
▁0.05),
▁exposure
▁30-
▁nutrition
▁employment
oxine
▁chec
▁testis
▁hepat
oratory
▁behavi
▁isch
▁antigens
▁myosin
▁peaks
▁autosomal
▁adhered
▁opi
▁loos
▁respon
▁accep
▁chromat
12.
▁dox
▁recons
.00
▁cholinesterase
▁dosing
▁gradi
▁additionally
▁49
floxacin
0-
▁[14
lusion
formations
▁1980
▁prostaglandin
yridine
▁Recent
▁responsive
lymph
adjusted
etween
▁impaired
ectomized
ocarcinoma
admill
.6%
itary
73
(2
▁CRP
illary
▁confounding
-24
▁analogs
▁(67
▁heavier
▁tendon
▁progressive
linking
▁mmHg
imeth
osomal
ongest
▁Seventeen
▁compositions
▁glucocorticoid
▁granule
▁(4-
▁91%
▁fixation
▁0.02
▁reac
ialysis
▁pigment
▁effec
▁chest
▁Survival
opamine
▁prolactin
▁22
.1
-1-
ivered
▁Cancer
▁pigs
▁exaggerated
arrhythmic
imens
assium
▁adolescent
▁subjec
▁doubled
inositol
▁56
rogen
▁expec
▁histology
▁amph
▁mechanisms
ergen
treated
▁salivary
▁antioxid
taken
▁gestational
▁HS
▁chemot
vival
turb
▁undertaken
▁excision
▁fluor
▁0.03
icine
▁48%
▁emotional
▁recruited
▁0.43
plasia
uvate
▁11
▁7.9
acterial
▁tetr
▁conformational
▁adminis
tage
▁5
▁neutrophils
ostic
▁bic
▁chlor
▁sulf
▁multin
▁neurons
▁rated
▁tiss
▁Reduc
▁inactivation
iparous
▁targeted
▁hypog
▁30%.
▁infusion
▁azathioprine
▁vasopressin
▁intraven
aceous
▁166
achn
▁influenzae
▁epsilon
▁13-
rati
▁undergone
▁VA
▁steroids
▁dipyridamole
▁trends
sies
▁prognostic
inemia
▁phosphatase
▁19%
▁uterus
cortisone
eptid
▁mucosa
▁pyr
▁heterogene
▁-5
▁emergency
omatosis
▁malignancies
▁contaminated
▁immunized
▁benign
▁Calcium
ogenetic
sive
ternational
▁hypoglycemic
▁respir
▁74%
▁withdrawn
▁traumatic
▁toxin
oside
▁neutralizing
otor
athic
600
carb
tens
ergency
▁analogues
▁discus
▁3.0
tionally
antoin
▁chorionic
▁maintaining
inopril
trates
iatum
▁lumbar
▁0.07
aptic
Ds
▁knees
▁prolif
rotid
.8%
motic
▁migraine
▁intensive
▁metabol
▁elastic
0.4
▁hind
▁intrap
▁83
▁questioned
-6-
▁telephone
▁substitu
▁msec
inyl
ynthe
▁Alzheimer
▁thal
▁enhances
▁MT
oil
leukin
either
oxic
▁0.08
toph
mur
▁immunity
▁coordination
▁ciprofloxacin
-1.2
▁effector
acental
▁6.
▁filaments
▁ampicillin
▁genomic
45
▁ligands
oes
intensity
ynaptic
▁caffeine
▁sti
▁7-
ffinity
▁108
irubin
▁10(-6)
▁enamel
▁pneumon
▁Golgi
sensitivity
TG
▁aerosol
farction
ofluores
▁untrained
effective
▁favored
▁sutures
oretic
chers
selec
▁dehydrogenase
teria
▁presumed
▁pellets
▁tuber
▁therapeu
▁hygi
▁plasminogen
▁strokes
▁residues
apse
▁concom
▁exag
▁duoden
▁(44
▁antibiotic
▁formulation
▁amiloride
▁1983
sia
▁disseminated
ometr
▁afferent
▁reticulocyte
oate
▁plasmid
▁tuberc
▁vacu
▁hyperch
▁0.2%
▁70%
▁hyperlipid
terol
▁Pregn
psych
▁0.19
▁electr
okine
umulative
ocyte
▁Nine
▁tremor
▁Phen
▁clinician
400
▁compliance
▁20-
▁exploration
▁adenosine
▁affecting
▁myocardium
posure
▁controlling
sied
▁undergoing
▁1.9
enh
▁diabetes
▁synerg
ecu
▁pregnancies
▁0.38
molality
-23
helium
▁oxygen
▁pacing
▁acetyl
▁trypsin
▁resonance
▁seronegative
▁fractures
▁8.5
1/2
▁spermat
▁questionnaire
terase
athy
▁infrared
16
otine
▁reduc
obarbital
▁identifying
▁anemia
▁bathing
▁preoperative
▁tamoxifen
Mu
▁incubated
▁157
▁hyperthyroid
▁enzym
micro
▁immunode
tions
diabetic
VT
▁duplex
onidine
▁ultr
BH
▁exploratory
usal
siologic
▁lysis
▁cytochrome
ensity
▁intramuscular
▁electrophoresis
▁ure
▁pharm
▁salbutamol
▁cathe
tomy
▁116
▁aerob
▁endometrial
▁cardi
quid
▁bp
▁hypercal
▁(9
▁outlined
▁pate
erin
truc
▁catechol
oriented
erican
▁dysplasia
rosis
▁rhe
▁nursing
mega
▁ejection
concentration
taz
▁LH
ATP
tructural
▁depression
orphine
▁mammary
▁overl
▁(69
-8,
uron
-72
▁angiography
hydration
▁metabolites
▁postoperatively
traumatic
75
opam
ventil
andida
▁oste
RP
▁recurrence
▁placental
▁mono
▁epiderm
▁uncomplicated
▁Adverse
▁Diagnostic
▁glomerular
restricted
▁-0.
▁chewing
▁poten
▁explored
▁calculi
▁2-
elves
PV
▁tach
iper
▁fibrinogen
▁muscle
atient
▁wrist
▁quantif
▁abortion
▁anoxic
▁stimulus
▁neonatal
▁thrombosis
▁attending
▁11,
razole
▁exhibit
▁lys
ulum
▁implantation
olone
asal
atectomy
ocyan
▁avoiding
▁ultim
ceptions
▁perfused
▁mAb
ticular
▁vitro
GH
▁Engl
▁exposures
▁immunogenicity
ospitals
▁bladder
▁inhibited
▁CCK
▁clinic
tox
kground
▁recor
▁parame
effects
▁awake
120
▁38%
erant
rase
sorption
ressive
▁gonadotropin
▁abscesses
blockers
opathy
▁ventricle
▁31,
▁30%,
oderm
▁rhabdomy
▁adherence
▁tric
▁quantit
▁complications
▁38
▁biopsy
aryn
oxygen
▁endoc
▁pneumonia
renal
▁4
▁nucleus
icin
▁pneumococcal
▁ANP
ritis
▁cumulative
▁pancreas
▁nephropathy
▁60-
▁affinities
tified
▁prognosis
▁astro
▁IgG
▁unusually
▁complic
▁experim
▁encompass
▁extrap
itone
ophilus
▁(400
▁genome
▁hypothalamus
-65
tenance
.7
omycin
ochemical
▁(1.2
▁135
▁analgesia
▁Few
inated
▁supplementation
▁rejection
romes
▁unilateral
▁trunk
▁adhe
omethacin
▁4)
▁leakage
viral
iplin
▁lymphoid
▁transi
▁disability
▁156
apid
rever
▁pathway
▁400
▁schedules
▁96
▁7%
▁IgA
▁perfor
▁Grade
▁sedimentation
otherapy
▁aorta
▁laser
50)
▁9-
97
ferrin
stin
uded
parathyroid
2;
▁6%
▁lectin
▁4.9
▁epidemi
▁intracranial
▁bony
existing
obenz
▁spleen
▁DBP
▁mobility
itonin
▁90-
▁prenatal
thirds
▁genotype
▁terminus
▁severely
▁thymus
▁elevation
mediated
▁inadequate
▁caro
▁predic
▁phorbol
▁15
5).
▁epitope
▁triglyceride
▁pH
▁256
▁ligand
▁Lact
acted
terin
oluble
oxy
arent
▁calor
mL
rays
▁postin
▁mitochondrial
▁conflicting
tric
▁42
▁(75
monary
▁dopamine
▁lacks
▁acyclovir
▁ate
▁tendons
▁minority
▁relieved
omegaly
▁throat
▁Coronary
▁suppressor
▁autoradi
versely
otin
▁casein
botic
▁tryp
▁Americ
ifferenti
utyr
▁79%
ospor
▁autoantibody
▁degradation
▁diarrhea
roscop
▁trials
potassium
FU
amic
▁intracerebral
▁nec
▁inoculation
▁reversed
▁placent
ophore
zyme
▁6.6
▁homogenates
89
versity
PCR
osomes
▁hypothetical
▁epinephrine
▁isot
aryngeal
▁plasm
▁monol
▁initiate
▁hormones
▁structural
▁cyclic
erent
itro
▁contractile
▁1.7
▁assays
roscopic
taining
▁fetuses
▁pep
)],
phosphor
▁discontinuation
▁Tran
▁aden
▁cyclospor
atology
▁polyethylene
▁coag
▁suscepti
▁nurses
▁amn
▁causal
inally
▁pyrid
▁bovine
nRH
▁cG
▁(+/-
▁optic
acute
▁urine
-2).
.5%
▁ethical
dihyd
▁syndrome
▁arous
▁disturbances
▁Unlike
▁hydrop
▁cutoff
▁loci
▁HDL
▁160
▁phenotype
▁121
oxane
▁ESR
▁echocardi
▁ADP
tropine
▁5'-
gold
▁suction
:3
▁elective
glucose
▁invasive
▁antibody
/10
roxim
▁stomach
rele
▁structured
roup
▁0.34
▁hydrophilic
▁pathways
▁chronically
jug
▁tubercle
▁hypothalamic
▁(12
▁uniquely
ogra
▁skinfold
▁adi
▁vomiting
▁CN
▁endotoxin
▁0.25
▁bilirubin
▁interf
ocytic
▁incorporated
geal
▁confirming
▁neuro
dominal
oplas
▁1.4
agic
▁corticosterone
▁stool
▁anesthe
▁outcomes
▁HI
▁1/
▁88%
▁inoculated
okinetic
thal
▁infar
▁hypoglycemia
▁permeability
anat
cancer
▁inversely
▁150
▁penile
▁0.5
▁ablation
▁AVP
▁regulate
▁mening
▁atropine
bacter
▁suspension
ughter
▁substances
▁hypo
▁nondiabetic
▁97
▁cytoplasm
ealand
apsulated
▁likelihood
▁lupus
-22
▁carriers
▁lethal
▁mortality
▁3)
oyl
tested
▁cen
blind
▁averaged
▁peptides
▁94
▁mM
exposed
▁athe
▁inherent
▁marginally
▁clinically
zard
▁Previous
▁treatments
▁microvascular
▁unc
▁classified
▁serotypes
thi
lux
0%,
▁melanomas
▁Overall
▁probes
▁Recently
▁irrigation
▁comprising
▁euth
▁40%,
▁selectively
mia
▁canc
▁50%
▁(25%)
ingle
▁4.1
8.
▁0.23
▁occlusive
FSH
▁Examination
plication
patient
▁inotropic
▁surge
▁tumor
trical
rogenic
▁47%
corrected
▁leuk
oxicillin
▁regimens
requ
regn
▁arom
amphen
▁consensus
▁implying
▁thyroiditis
▁5.1
▁(79
▁electrodes
▁secreted
▁circulatory
▁junctions
▁lymphadenopathy
enol
▁transit
▁102
▁appropriately
reness
▁microM
▁elimination
▁amplification
▁suppor
▁chond
opres
▁kDa
▁enteral
▁surveillance
▁glomer
▁assessed
jected
▁nifedipine
▁stent
-5)
▁microtub
gated
nai
▁infants
▁Approximately
ncy
▁0.26
▁adjusting
▁heal
▁acqui
▁Significantly
vac
/20
▁Leu
▁95%
▁CRF
▁amo
▁vaginal
▁12-
▁20%.
▁predominant
▁protec
resistant
▁vertebral
administration
ropine
▁eradication
▁neonates
▁scanning
▁fever
▁diagnostic
ordial
▁analyzed
ipril
▁augmented
40
▁congenital
▁6.3
▁AO
oprol
aldosterone
▁arrhythmias
tically
blood
aric
oprotein
▁(0.6
1%)
apanese
▁resul
iloride
iteal
▁mum
22
▁Thir
▁pertussis
▁longitudinal
▁dysfunction
▁logistic
ilibr
▁lipoprotein
▁aggregation
▁exclusively
-3-
▁pell
▁CIN
▁indications
▁characterize
▁(1.0
▁plex
▁73
▁substrate
▁Ultras
Gl
▁thrombus
9).
-35
6).
▁sexually
▁tubules
▁Increasing
▁resis
▁mothers
zymes
▁750
stim
▁corticosteroids
▁bacter
▁anatomic
tradiol
▁fron
▁facilit
▁Concentrations
oidal
▁hygiene
coronary
▁angina
gesterone
▁Extensive
▁monoclonal
▁IgM
▁mitochondria
▁aqueous
2318
atment
▁trauma
ropriate
▁catalytic
▁LM
orpor
▁retention
▁fati
oplasty
▁90
0)
▁raises
tism
59
▁acidic
myc
▁98
thyl
▁0.15
thrombotic
uin
▁critically
▁0.1,
▁paren
▁epidural
▁Nineteen
▁detects
▁outpatients
▁serologically
▁elicited
▁couns
-4)
▁macrophages
examin
▁continuously
▁illness
▁TPA
▁bacterial
▁54
▁cortisone
▁cirrh
▁modulation
▁68
▁reactivity
otassium
▁previ
▁initiation
▁enti
▁eliminated
▁modif
1/
▁28%
▁mL
FEV
▁voluntary
▁pene
▁restor
▁78%
▁thromboembolism
ervical
positive
▁eluc
▁recombinant
methyl
▁marginal
▁palsy
ergy
tiguous
▁2.5%
▁attenu
oxid
▁cyclo
ritin
▁tachycardia
sors
▁bacteri
▁depolarization
ophysical
rease
▁trich
adder
57
ulant
▁0.17
▁prosthe
▁criterion
ithelial
▁sperm
▁2.8
eprazole
trogen
▁lobe
▁vasodil
▁cerebrovascular
▁organisms
terone
idic
3]
▁medulla
▁100%.
▁thym
▁cured
▁reser
orption
▁(0.
▁differentiate
▁phy
▁Impro
▁excretion
responding
.9%)
▁livers
oretically
▁nig
▁hyperglycemia
▁hypothyroidism
renol
▁lamina
operox
glycoprotein
▁PE
▁cyan
▁40,
ograp
▁fluc
▁traum
▁diazepam
▁influenz
▁gains
sion
▁multic
arate
▁induc
anded
▁ionophore
▁aneurysms
▁glutamate
▁82%
▁intrac
▁triglycer
▁neutrophil
▁PLP
urea
▁births
▁luteal
▁IGF
▁fibr
▁metast
ateral
▁strains
▁140
▁62
▁syndromes
ustained
▁mitral
▁Respiratory
▁injuries
▁FE
▁15%
GI
▁Consequently
▁radioimmuno
▁percentages
albumin
oneph
tir
▁sulph
occus
80
nisolone
ecyl
buterol
▁damaging
uppres
ignificant
▁incision
▁streptococcal
▁(43
▁luminal
pyr
▁1,25
▁grading
▁reactive
▁mononucle
lyc
▁microb
▁encephal
▁SPL
▁55%
▁elevated
▁80-
crimin
▁treadmill
▁infarctions
romycin
▁supr
tate
▁immuno
▁immunoglobulin
rents
▁inward
enil
ococci
6)
absorption
immun
▁sonography
▁alveolar
tiz
▁slices
-1.1
▁tubular
ocardi
till
▁19
▁NADPH
▁BMD
▁incontinence
▁antib
▁establishing
▁grades
yx
alanine
▁uter
▁methadone
▁noc
odopa
▁nonselective
ecretory
▁teratogenic
▁CHD
▁tear
▁7
9%)
endri
/24
▁deposition
▁asymme
▁3
▁7.1
teroids
phenyl
▁thyroidectomy
▁59
induced
▁16%
cence
asses
▁captopril
▁overt
▁Transient
▁3000
▁pancreatic
▁Doppler
▁cartil
Gs
idazole
2-
52
▁hazards
▁7.
▁socio
▁omeprazole
▁determination
▁fluorescent
arean
▁fetal
▁NGF
operative
▁inflamm
athioprine
ziness
▁0.09
acylglycerol
24
▁unexpectedly
ffer
▁calcification
▁0.14
▁35
tioned
opar
▁84
▁transferrin
▁peritoneal
azol
▁cytos
ulates
iotics
▁cirrhosis
▁reasonably
▁decarboxylase
▁granuloma
▁polymorph
▁isolation
▁0.98
▁secretion
▁plateau
bac
▁articular
▁competitive
▁judged
▁terminals
▁NF
▁necro
ochondr
▁ethyl
▁-2
-5
eptides
iaz
▁neutropenia
.6
▁somat
trus
▁noradrenaline
▁uv
-90
▁experi
▁tubes
▁supra
▁arteri
saccharide
▁31
▁slowed
▁serological
▁sut
othiaz
▁unil
▁erythromycin
▁transpor
▁ultrasound
tyl
▁Certain
▁electrocardi
▁Registry
▁polysaccharide
▁93
▁curric
adian
▁pleural
▁equivalents
▁9.2
otroph
▁Almost
▁(5-
onegative
6-
▁supernat
▁(1.4
▁11.2
ethylene
▁stools
vascular
▁30
▁comparable
▁persisted
▁attenuated
stimulated
▁cytologic
releasing
▁bronchial
▁opioid
▁dorsal
▁inver
▁arachid
rophy
phic
esin
▁specimens
robic
sodium
PSP
▁80
▁20,
ophilic
▁4.6
32
▁instr
tially
/100
▁tac
illus
-16
▁descriptions
▁alteration
▁deleterious
isole
articular
▁lisinopril
pharose
achol
▁endpoints
▁effectiveness
▁1:
▁VT
▁glucose
▁yr
▁45
▁sati
▁200
.0,
▁92
otoxin
▁PCR
▁correlations
▁impairment
▁ANF
▁mediate
utaneous
-12
▁cef
▁termination
tiv
▁67%
transfer
▁stratification
▁0,
▁nutritional
▁adolescents
35
letion
otides
▁competent
▁phosphatid
▁DSM
▁systematically
lected
▁molec
▁ison
▁pylori
plen
▁.0
density
5,
▁208
▁PV
oradi
ogenicity
▁pretreatment
▁bronch
agonists
▁allevi
median
▁(42
▁depres
▁nerve
▁hypotension
.8
▁inflamed
▁8%
▁initiating
thoracic
amn
▁1%
▁absorption
urgical
▁menopause
▁0.1%
▁serum
▁pati
ching
ials
10)
51
▁hir
▁modest
HB
▁recur
▁(4)
perature
tition
▁protr
2+.
stant
omal
31
▁0.48
6),
▁psor
▁[3
ucose
▁techniqu
▁36%
▁compartment
phor
▁libr
▁extracorporeal
▁nucleotide
▁Cells
havi
▁147
▁immunodef
▁51%
▁transc
trin
oracic
▁165
▁irrit
odipine
▁inhibits
▁Optimal
▁orally
▁progn
ocyt
▁79
▁44%
orh
▁86
▁propionate
phrine
tissue
29
▁3.8
▁12
▁phosph
▁flora
▁PRL
▁follicular
▁supplemented
▁900
%),
monstr
▁ethanol
▁cyclooxygenase
abain
▁anhydrase
▁53
▁adequately
▁0.5%
-7)
acr
.5
▁ischemic
adrenoceptor
▁6-
▁mildly
ystag
2/
▁nonsignificant
uran
sequent
▁hypoxic
▁chlorpromazine
▁tibia
▁intestine
▁inh
tivity
33
osity
▁suspic
▁emerg
▁responsiveness
▁7.5
▁115
ithromycin
tization
cyst
galact
34
topril
NK
▁300
49
▁158
▁symptoms
▁drops
ocular
▁chromosomal
▁epidemiological
olved
▁dexamethasone
▁1987
▁antec
▁antagonized
▁Holter
▁53%
▁gluten
▁condensed
▁administered
luded
controlled
▁identifiable
▁12.
▁shortening
chid
▁chloramphenicol
forming
cephal
▁Elevated
traum
▁rabbit
-8
▁Ace
▁CABG
125
▁5-
▁failures
▁600
▁ventilation
8]
▁prescription
▁(6
▁predicting
▁satisfactorily
molec
imination
triglycer
effec
▁reas
▁simultaneous
phosphamide
-1.
years
▁11.8
▁tachyc
▁hemat
▁synthetic
▁infrequently
queous
valence
chloride
▁prostate
eric
ture
onazole
▁underwent
▁adap
▁grains
sized
▁cys
atase
▁elevate
▁manifested
▁Estim
etan
▁sph
▁overweight
▁198
▁spinal
kage
▁glutamic
1%
ceived
cine
▁serogroup
▁strongest
▁192
▁presumably
▁myocardial
▁acids
yses
▁transluminal
▁postoperative
▁reflects
sy
accharides
▁AMP
-9
▁heavi
▁100
▁vesic
/12
fractions
tisone
▁phleb
ichia
unts
▁myel
▁slic
▁hamster
▁Symptom
▁4-
▁inhibiting
▁HP
▁maneu
etence
▁anesthesia
▁quin
▁utilizing
orec
▁ascorbic
ritish
0.1
linked
▁saline
▁Disease
▁recommendations
▁ori
▁morphology
acid
▁5000
▁positional
▁exon
odds
transferase
▁lith
Cer
amel
▁intracellular
▁ocular
▁deterioration
▁microorganisms
▁strain
▁maturity
▁sero
iability
▁aluminum
▁Ninety
▁adul
▁193
▁implants
▁75%
▁20
▁78
▁mononuclear
titial
clonal
mented
▁ouabain
etitive
▁159
▁Beta
▁mRNA
▁Biol
▁discharge
edding
▁lungs
▁glycine
▁bromocriptine
▁Clinical
tivation
-0.
tinent
40)
antibody
▁participating
ffinities
▁pathophysiology
▁90%
epine
▁correlates
8,
▁relap
▁restraint
0,
feron
▁metabolism
urys
smokers
▁mg
otox
.3
opic
▁leukotri
▁radioactivity
sess
inephrine
▁OA
▁contral
▁coli
▁nonsteroidal
▁prono
▁coping
▁bladders
▁0.90
acerb
25,
▁nights
-10
▁endarterectomy
▁acetic
tral
▁inactivated
▁2%
oxygenase
▁punct
porting
duc
67
▁infused
ostatin
brom
▁distinguishing
▁epid
▁hap
▁gon
ocin
▁comparisons
▁benzodiazepine
▁musc
elan
▁inpatients
▁variability
▁secretory
thrombin
attern
▁(100
▁encouraging
▁PTH
echn
▁systolic
▁compounds
▁Treatment
▁mim
▁cited
▁favorably
lyb
▁carbachol
armac
▁cytoch
▁diminished
▁Functional
21
▁0.75
inating
▁affects
regulation
.9%
fec
▁2.6
▁diets
▁Caucasian
▁brainstem
▁185
kinase
ifug
▁contamin
icide
▁infec
▁Vitamin
alian
gene
▁defects
converting
▁determinant
▁unselected
TSH
▁subc
▁exhibited
hospital
▁Myocardial
▁perip
▁homogen
▁proteins
otri
▁Likewise
oids
▁cephalosporins
dibular
ucas
▁tolerance
▁schizophrenia
▁hypoxia
▁lact
gesia
tent
adrenaline
▁restr
▁tryptophan
tile
▁0.47
▁thyroxine
ercul
ermal
▁100,000
anol
▁summarized
62
aced
▁6.1
vitamin
▁depolar
erance
▁intest
ositi
lated
▁monkey
▁Fourteen
▁averaging
cepti
5]
overed
▁lyso
▁prophylaxis
▁(40
▁esophagus
.10
▁112
▁cysteine
▁(14
▁paras
▁jaundice
▁blinded
brile
▁peroxide
▁analysed
▁valve
▁mineral
▁balloon
▁hypercalcemia
▁extrac
▁myocardi
▁epitopes
▁ultrasonography
▁motone
▁62%
▁supple
oxide
▁accounted
▁bipolar
▁22%
10-
▁graft
▁lowered
▁4.3
ymme
-70
iol
▁mandatory
▁elevations
▁glucocortic
ociation
(+)-
0.7
ulatory
plemented
ocated
▁diffic
omical
▁rash
ycline
▁celiac
▁0.
individual
▁proliferation
ypical
▁5.8
▁preferen
▁tracts
phasic
patients
▁departments
▁subun
osyl
▁efflux
,000
▁perforation
▁21%
▁detec
resist
▁ineffective
-6)
arity
ensitivity
▁cyc
entia
erver
ilic
▁chromatin
ylation
▁bac
gth
▁endo
wk
▁adrenergic
▁HBsAg
▁pathology
▁infectious
▁modality
▁bumetanide
ischemic
onyl
▁regulation
▁psychological
▁203
▁reflux
▁arginine
urther
▁labeled
hest
▁linearly
▁cerebellum
▁96%
▁Patients
▁vaccination
▁fibrob
▁250
▁diseases
▁degrad
▁transcrip
androgen
▁radionuclide
8%
▁pts
▁hyperlipidemia
cyclic
▁4.4
▁6.2
99
▁cloned
dehyde
▁exogenous
▁Evaluation
▁81%
▁31%
▁20)
tigo
▁lam
sectional
amily
unately
iciently
▁biop
▁auditory
▁clus
▁146
▁thi
▁hypot
▁57%
▁retardation
▁chl
▁surgical
▁discriminate
▁sensitivity
▁refractory
modulin
adily
approximately
▁predictive
8)
▁24-
BT
▁astrocy
▁hetero
▁calves
tein
rated
aminase
▁rigorous
▁41
▁ionized
▁respec
▁colony
▁parental
olesterolemia
aning
▁analys
▁GM
▁referral
ropathy
▁satur
▁LDL
SDS
▁titrated
▁encephalopathy
▁practic
▁cutaneous
comitant
▁longus
ifugation
▁fum
▁Meas
▁aggression
aund
▁1988
degree
rocy
▁muscles
▁phosphorylated
▁antimic
onad
ostomy
▁lowering
▁pulsed
▁postpartum
intestinal
▁metabolite
▁decline
▁TMP
▁immunosorbent
▁mutant
▁activate
gthen
ylline
glyc
▁classify
▁ane
▁nonsmokers
acked
chymal
▁aspirin
apeu
.2%
▁16,
erge
▁receptive
acts
▁CAD
▁adipocytes
othi
▁smoking
fem
ipro
▁0.01)
▁9.7
stress
▁glycer
oxazole
5%
▁nucleotides
tally
▁uncontrolled
▁intravenous
▁hypox
▁thyro
▁potentiated
▁healing
▁bilateral
▁preparation
astric
▁reductase
minute
adrenergic
roxy
▁regulatory
▁hepatocellular
▁incubation
▁glycosyl
▁affinity
▁repor
0%),
▁9%
▁cows
▁overnight
CAP
▁16
udin
▁considerably
▁carbohydrates
▁antidepressant
erox
▁anticonvulsant
▁fluores
▁preventing
▁antioxidants
clin
pinephrine
izine
flamm
metic
▁yeast
arous
▁examination
itant
▁pronounced
cad
▁Hg
▁measuring
sibly
histamine
▁expiratory
▁decarbox
▁quoti
▁65%
▁asymmetric
▁synaptic
▁micros
56
▁operative
tration
▁paroxys
▁reflex
enicillin
average
7-
▁injections
▁relaxant
▁headache
-[
▁gels
▁ald
bral
▁arthritis
▁inversion
▁61
▁saturated
eryth
▁(50%)
otypic
(1
▁1.5-
uary
▁exagger
ofl
▁dietary
▁challen
vul
.0
▁panc
▁atenolol
▁recr
▁5.5
▁dex
▁26
▁0.46
ullary
▁ferrous
▁soluble
▁melan
▁Tiss
iable
▁lipophilic
▁HR
▁excluding
▁radiological
SAID
▁otitis
▁EB
▁reflecting
.4%
IGF
▁advan
▁PPD
▁PAF
tinguish
▁targeting
▁blot
▁calories
▁indomethacin
thmic
▁ile
+,
▁tRNA
▁BALB
conduc
▁formulations
hydroxy
▁nonpregnant
▁discontinu
▁permanently
▁Eight
loxacin
▁theoretically
▁151
urine
▁subclinical
uretic
nec
▁increments
▁acetaminophen
▁antim
▁pig
▁congen
▁lamb
▁Seventy
thel
-450
▁hydrogen
▁heteroz
▁lumb
▁mutation
hyde
clusive
▁microscopic
duction
▁incis
▁margins
▁rhy
9,
rolog
▁4.5
▁anomalies
▁344
etine
▁melanoma
▁behavioral
lec
▁Plasma
opressin
oprolol
▁ruptured
▁excl
▁TNF
▁suspected
▁prescrib
7;
.3%
▁distress
rangement
▁follicles
▁localization
▁10(-5)
▁commercially
▁trimethoprim
▁sensi
▁therapeutic
▁emulsion
▁(24
semin
▁epithelium
▁extraction
▁(21
▁124
▁500
▁(0.1
▁immune
mol
▁ratios
elec
▁discharged
▁acetate
▁interviewed
▁61%
▁prospective
▁diagnosing
tant
▁pregnant
▁epidemiologic
▁ranitidine
▁potent
ascular
4+
trained
▁abnormality
▁Findings
▁antigen
▁188
▁confirms
7).
▁systematic
ortal
▁smears
▁chicken
▁isoform
74
ses
▁(8%)
▁2,
▁abruptly
▁compli
▁familial
▁Combined
hetamine
yroid
ritic
/3
▁construc
▁synthesize
3),
tagland
▁differen
obarb
lamy
pressing
▁elong
▁extensor
▁outpatient
▁132
▁identi
ronch
▁(10(
glucosidase
▁HPLC
iliary
▁2)
yro
avage
dies
▁subunits
▁FEV
brain
7)
illance
thood
▁Mg
▁2.1
tial
▁calf
piration
-1.5
▁epit
▁dodecyl
orin
▁arrhy
odil
5.
▁distal
▁1.
▁(2)
▁surveys
▁instrum
▁topical
▁Therapy
plast
▁recurrent
▁-10
▁hypertro
ighted
▁numb
▁diabe
▁3.
▁MI
▁usefulness
▁indus
▁ACTH
maximal
▁bicarbonate
▁subfractions
hydroxyp
▁creatinine
▁palpable
inflammatory
72
▁glutamine
▁infarct
▁cortex
otype
▁consis
39
▁fibrin
▁athletes
000
▁1990
▁subpop
▁nonresponders
illar
▁phosphodies
uvant
▁pooled
▁symptom
erated
▁inhib
▁(54
electric
▁reper
/18
▁suppres
unctional
ogeneic
▁abuse
▁onset
▁60%
grees
▁lysine
▁123
▁mitochondr
▁98%
▁persists
▁aspec
▁serotonergic
▁morb
rectomy
▁PI
▁syncope
▁(32
reported
▁neutrop
▁chick
roximately
▁antidepress
▁climb
pregnant
adren
▁anomal
▁renin
18,
▁preval
▁ventral
▁insuff
▁plas
▁cGMP
▁pediatric
cessive
horm
BG
▁(63
▁1.2
▁daytime
responsive
ipitation
▁CDC
▁Sout
▁chan
▁(30
▁radiotherapy
▁investigations
▁5%
reasing
uscular
-45
ylic
▁allele
▁depressed
▁adequate
▁forskolin
▁coated
▁practition
▁abnormal
ocys
▁43%
▁(1)
ensitization
▁supplement
▁HbA
▁lymphocytes
rosemide
tebral
▁encomp
isol
▁renal
▁ulcers
illation
▁promo
MN
▁spi
▁carb
▁squamous
▁derange
deoxy
0%).
10.
ilep
▁identif
4-
▁Infection
▁kidney
▁6,
▁irradiation
▁8.1
ystic
▁pneum
▁admission
▁neurogenic
osom
▁tox
cAMP
▁MAP
▁Mn
▁enhanced
▁epithelial
▁exceeded
0%
▁Mortality
▁TI
▁infarction
-1)
-3
▁disulf
▁nervous
▁RS
▁swit
▁weigh
▁ferritin
nitro
▁continuing
▁Additional
▁constituted
▁radiol
rection
esthe
rological
▁Twenty
▁fibrillation
aline
▁ketoconazole
uated
▁opioids
▁oxidative
1;
▁rotavirus
▁glycos
▁0.13
adders
▁experiencing
▁meth
bly
reatine
dered
directed
▁molecules
▁114
xual
ancomycin
▁hipp
tural
▁0.001).
▁hemorrhagic
uestion
DH
▁80%
antigen
-5-
▁consistently
vices
accharide
▁calcium
▁endometri
▁incorporation
▁irrig
ocysteine
▁preventive
▁inoc
acting
▁antif
▁goiter
▁victims
▁Chronic
▁excretory
▁Phase
enin
▁absorb
▁parox
immune
▁stenosis
▁gonadotrop
lasses
▁verapamil
▁incidence
▁drinkers
▁meals
▁47
▁-7
▁correlated
esity
▁abrupt
▁33
▁176
astatin
arge
▁citrate
▁134
▁pharmacological
▁entero
▁dors
▁potenti
▁neurolep
▁Hep
teric
derived
▁endocrine
▁chromosome
▁deliveries
▁mobilization
olam
eces
▁0.80
▁polymerase
▁Fifteen
0.8
▁rati
▁intermedi
▁compartments
▁rheum
▁semen
angiotensin
yrib
dle
▁1.0
▁Patient
▁lavage
▁tablets
▁obstetric
▁hypocal
▁dextrose
▁whee
iotensin
▁reversible
▁0.40
irub
radi
▁eosin
▁dilatation
entile
▁colitis
lue
▁0.12
▁ammon
▁histologic
▁automated
▁unaffected
▁imipramine
rected
insulin
bility
▁4).
▁pregnancy
▁27
▁neutroph
▁SEM
▁58
ondon
▁competi
-14
▁worsening
▁136
10
vertebral
tensity
llate
▁biochemical
▁multim
(2+)-
▁enal
tee
▁dele
▁reinforcement
▁proteoglyc
▁10(6)
xime
NH
▁staining
▁birthweight
▁nasal
▁(48
tizing
63
▁extracellular
▁excitatory
▁tricyclic
▁antagon
.1%
▁atherosclerotic
amicin
▁127
▁uncom
oceptor
▁brains
▁vulgaris
▁paralle
gative
astatic
▁Staphylococcus
▁extre
▁durations
▁LVH
aturation
kines
opr
▁LC
▁disclosed
opi
umerous
ifed
▁successive
ancies
helial
odal
▁outflow
▁(3.0
▁arteriosus
▁murine
▁Neuro
▁126
▁195
▁follic
▁0.35
▁25
ompan
▁163
▁titers
▁exchan
▁persisting
▁(20
▁Subsequently
▁radiolab
▁commerc
▁pulses
▁peroxidase
▁12%
▁stratif
.4
▁60.
▁3.7
100
▁neuronal
▁seizures
▁protease
tiary
▁attain
ameth
▁ET
▁fibre
▁artic
▁29%
▁antimicrobial
▁170
▁125
▁endometrium
▁Acad
▁prospectively
▁randomized
▁LN
▁manu
▁chromosomes
▁frac
▁promoter
▁Relative
aind
▁cation
omatic
▁leukemia
▁esophagitis
▁retinopathy
urin
▁thems
▁cytotoxic
▁deform
▁subunit
▁drinking
▁85
▁juice
omized
▁correspondence
▁8
caro
▁NMR
pread
aminergic
▁methodology
april
ovine
fts
cutaneous
▁duct
veness
▁gynec
▁nonex
▁weighed
▁polypeptide
▁evolved
▁degeneration
limb
▁LT
▁phosphor
▁8-
▁mucos
thmia
▁5'
▁carc
uprofen
▁dissemin
herence
iary
mg
▁equilibr
threatening
▁wors
▁capsule
▁PSA
hep
▁isoproterenol
6.
rous
▁subgroups
▁outs
▁pulse
gland
uled
▁6.4
▁(0.0
ASA
amide
sibility
OA
avirus
▁odds
▁lumen
▁SHR
FN
pregn
▁keto
-3,
▁hematoma
ygous
▁intractable
▁qualit
▁perin
8),
odynamic
2+,
▁receptor
▁Higher
epithelial
▁specialized
▁glucocorticoids
▁labeling
▁lactate
▁67
▁multivariate
▁inflammatory
▁ascorb
▁unres
▁NADP
▁Lymph
idin
opulation
ejun
affinity
▁esophag
▁lithium
trop
lude
▁unm
▁breathing
luding
▁14.
▁predominantly
▁0.44
▁synthesis
earing
▁(17
▁perone
LV
▁spasm
▁133
▁clearance
▁gastro
▁immature
▁capsules
81
▁menopausal
▁25,
▁phospholipid
▁detectable
▁anticoagulation
▁esters
▁enhance
▁72
ylamide
4%)
welling
inamide
▁endometr
▁EI
▁GTP
▁struc
aminophen
ocortic
▁drin
▁rehabilitation
▁Haem
▁embryos
ximal
▁(84
▁pharmacologic
▁aor
otropin
▁DT
▁abolished
▁lateral
▁macrophage
▁slowing
▁lapa
▁putative
▁hyperb
rosine
▁blin
▁infertility
9;
tase
▁23,
treatment
▁transverse
olarization
▁intolerance
▁Factors
▁muc
▁shifted
▁aldosterone
▁sial
▁cataly
▁167
▁cytotoxicity
▁cognitive
initi
arynx
▁improves
▁10(
ocaine
▁thresholds
▁transplant
▁interleukin
lipid
yste
]-
▁biliary
usions
inic
RB
▁persis
▁withdrawal
ophageal
▁Pain
50,
▁73%
▁sustain
associated
▁protoc
wes
tryp
ported
▁TS
apine
85
▁desm
rophob
▁3-
antial
▁plasmin
erents
kets
▁determines
▁resour
▁hybridization
▁inspiratory
▁presum
▁74
namic
▁Surgery
▁weighing
▁accurately
plas
▁kidneys
▁40
Pen
▁anxiety
▁Oral
▁heterogeneity
▁incontin
▁chains
ietic
▁serologic
▁quinine
eak
▁inconsistent
▁histamine
▁(28
▁laboratory
administered
▁nasopharyngeal
▁regurgitation
erate
0.0
▁uric
▁irradi
omat
▁23%
▁implications
▁AIDS
▁genotypes
▁0.36
▁aimed
▁utilized
▁CSF
anic
heum
phosphate
▁vein
oplasia
▁inges
700
▁parac
frequency
urations
▁antidepressants
siological
▁precursor
osynthe
▁1.3
sis
orectal
▁conclusions
▁protracted
▁hemo
0.6
▁projections
Ps
sian
oic
▁kidne
gulation
ositol
▁blockade
▁trache
▁analogue
oste
8).
▁lovastatin
▁rectal
▁3).
▁52
tually
▁activated
▁(198
▁autoantibodies
▁hazard
▁comprehensive
▁Thirteen
atitis
oprote
4;
▁colonic
▁retinal
-1.0
▁excised
emic
peptide
phyloc
thmias
▁bloc
▁endemic
▁psycho
▁copper
orsal
▁barrier
▁49%
▁haem
opa
▁acute
▁glycoproteins
itriptyline
▁VO
ventricular
titis
affected
plications
ensi
omers
▁attributable
▁retinoids
▁electrolyte
▁Rates
▁beneficial
▁throm
▁calcitonin
olated
istal
▁clon
▁consistency
oactive
-30
▁carbam
amino
▁membranes
▁PGF
ytoin
ycl
partate
bodies
▁171
estrogen
▁erythematosus
▁194
Hb
▁detecting
▁ppm
lycerol
phil
▁thyroid
▁Systolic
▁attrib
inase
▁tubercul
▁computerized
▁intraepithelial
▁validity
▁puls
▁brush
▁0.21
mitted
▁uncommon
▁thromb
▁OC
▁ventricular
▁fertile
▁infrequent
▁angioplasty
kinin
▁contraction
▁0.05)
▁Diabetes
hydrop
▁newborn
▁atyp
▁differing
olec
▁(99
▁shedding
54
▁hypokal
▁abd
ogl
▁saphenous
usp
▁inositol
▁103
▁menstr
entan
▁underestimated
▁48
lamin
▁guidelines
otrexate
▁dermal
▁0.45
▁weakness
/4
-100
▁onc
▁omega
▁questionnai
▁diagnose
▁intervention
thase
▁immunoprec
urnal
azolam
▁alcohol
▁granulomas
▁undergo
▁2.5
▁66%
▁weekly
loon
▁pall
▁vag
▁nodules
42
kely
▁197
▁cartilage
▁exhaus
▁GH
▁Leuk
tosis
trated
▁sequentially
ropha
acer
▁irr
36
ordance
▁abdominal
▁iod
▁endoscop
▁ischem
▁(62
▁indication
ygen
▁adrenal
▁collec
▁poin
MV
▁CAP
trial
▁plac
▁incub
▁minimally
chlorothiazide
▁suppressive
trib
labeled
ipramine
▁baseline
▁4.8
▁oxytocin
onucle
▁dias
predic
▁findings
▁cyt
▁contribut
Ba
9-
▁solub
▁susceptible
▁habits
hyd
▁genes
▁mellitus
▁gases
▁Plas
▁messen
tension
▁depress
▁apnea
terminal
orable
azep
▁intram
▁(500
▁pituitary
▁phenomenon
+)-
▁stren
ronectin
embry
mentation
atell
Ra
▁dissec
esium
▁GABA
irds
ipheral
▁proteinuria
mokers
▁adjustments
▁renovascular
ithin
▁ml
urons
andard
▁ovaries
▁adoles
▁0.10
▁Increased
▁indicators
partum
▁paradoxical
▁glut
lact
▁Mild
▁76
rine
▁sorb
▁felodipine
▁brom
▁papill
▁Clin
eal
▁vulnerable
▁cysts
4/
glut
▁129
▁GAD
▁babies
▁hypertensive
osocial
lycemia
lood
▁50
▁fluids
▁reliability
icep
▁(1),
omerular
▁stret
▁metoprolol
▁newborns
▁95
▁physi
▁selec
olute
78
▁endoscopy
▁incomp
rozen
1),
▁compound
▁ongoing
plic
▁Peak
ovascular
▁ech
▁defective
.1,
vant
echan
▁oocytes
▁2.
Ts
▁gyn
▁sten
measured
▁envelop
▁dextro
44
iatric
▁PB
▁(13
3%
▁Myc
▁10.8
ysm
▁remo
onomic
▁(60%)
ocl
▁determinants
▁colos
▁epilepsy
toxic
osts
acrylamide
pH
ymp
▁24%
obacter
▁1-
▁immunological
lactam
▁29,
▁inters
▁epidermal
▁HPV
▁(25
▁quantitatively
▁lis
▁AI
▁scans
MG
71
▁TM
▁100-
▁uptake
▁influx
▁coenzyme
-4-
▁wheat
▁20%
uminal
▁atheros
▁lasted
pig
▁1.6
▁peripher
▁targe
▁200-
▁depr
▁Kd
▁endogenous
tensin
▁unex
▁strep
▁cytology
▁80,
▁upright
▁stom
▁diame
oscopy
93
contrast
▁occurring
genic
27
▁(31
▁digoxin
▁hydrophobic
rhy
▁immunohist
▁accounting
▁morphological
▁clamping
▁endotracheal
itr
cyt
olgi
oric
▁ingu
ampl
▁56%
▁cholinergic
ocyst
▁5.2
olysis
▁fatty
▁EE
▁spikes
Cs
▁evaluating
▁behaviors
ashing
▁sequential
▁examined
▁0%
▁144
▁predisposition
EA
▁cytoplasmic
▁lowers
▁GnRH
▁polypeptides
▁lesser
▁proliferative
▁4%
▁decreasing
▁metastases
yrid
▁survived
▁pelvic
▁deficit
▁intrauterine
lasts
▁osmotic
amate
▁hematologic
▁glycosylated
▁2000
▁focusing
▁subjected
(3
▁mediated
igaret
▁anat
athione
▁fluorescence
▁sequelae
▁0.3%
opril
▁endoscopic
▁14.5
▁juvenile
▁(23
cemic
▁(0
.0)
enic
▁progression
▁cultured
▁allogra
▁alternating
▁coronary
▁erythrocyte
oice
hyp
▁tissues
ration
▁Organization
▁insignificant
2.
▁cereb
▁RNA
▁25%
olution
▁hydrolysis
▁glomerul
8;
▁17
avail
▁characteris
conver
▁diffuse
▁hybrid
▁ankle
▁metabolic
receptor
▁tolerability
▁amput
gluc
▁malformations
IFN
▁clinical
▁cyclase
▁0.27
▁cate
ruc
▁fluoro
fed
▁elas
opath
▁inactive
58
-50
tingu
▁44
▁MHC
▁adjusted
▁Identif
▁mimic
▁preterm
▁psychosocial
▁inhibitory
▁regulating
▁stimulated
▁drugs
acetate
▁bab
uation
▁TA
▁subarachnoid
▁axon
▁lute
sistent
▁bip
▁airflow
BV
▁Sensitivity
vastatin
▁calorie
reening
oustic
yroxine
▁splic
▁penicillin
▁lens
▁Km
▁86%
atible
▁(95
▁HB
▁ulcer
▁atopic
▁medication
▁3.4
▁(250
shaped
▁(7
-3.
fate
uplex
▁shif
immuno
▁20,000
▁rigid
coated
tropin
▁bradycardia
▁Bacter
▁ND
▁7.8
▁symptomatic
tical
sant
▁passive
▁19,
itals
tection
molecular
ceptive
▁kb
▁surround
▁13
▁malabsorption
0,000
▁reductions
▁164
ivary
▁efficac
vian
▁encour
▁concep
▁1500
▁rheumatic
▁practitioners
▁mell
▁gly
▁bowel
▁locus
ocytosis
plies
▁lifest
▁PGE
traction
▁abstin
rowing
triglycerid
▁monit
▁steroid
entricular
▁spontaneously
trol
▁moderately
▁ae
▁digestion
▁TP
opl
▁retic
▁hypothyroid
▁enzymes
arb
amines
▁uterine
▁antisera
▁depletion
▁examining
▁instrumented
17
ocomp
▁synap
embrane
▁epilep
▁choles
▁7.7
▁ana
pite
▁exud
37
▁aging
1-2
▁LMW
▁ulc
▁fossa
▁pyel
idone
ications
▁cytosol
▁10-
▁precur
oplasmic
▁hereditary
▁reticul
▁inguinal
▁electrical
mental
▁anesthetic
ministration
▁exhaustion
spectively
▁neoplasia
lytic
▁PMA
▁noninvasive
▁gonadotroph
▁intake
etoprotein
▁Gluc
3.
oxifen
▁metronidazole
▁apparatus
▁retrospective
xyl
2,000
▁EGF
▁10
▁cough
▁spine
▁(70
▁cellular
▁catheter
▁competence
▁researchers
▁caloric
▁(76
▁Comparison
▁0.01),
anking
rowth
ediatric
▁34%
▁localized
▁glial
▁lep
▁85%
ophil
▁intran
▁7.2
▁complaints
▁differentiation
▁Severe
▁activator
▁mutants
4.
▁28
dine
▁solely
▁hyperp
▁acad
▁nosocomial
atation
▁101
bearing
▁cure
▁0.01).
-17
luores
▁varies
▁oxidase
▁toxic
▁interferon
oprim
▁34
▁Clinic
▁substantially
▁lamin
ducing
DV
plicated
4)
iciency
▁91
/2
5-
▁cohorts
▁prostagland
▁100%
▁hepatitis
pation
▁spacer
-13
▁retard
onate
Leu
-80
▁peaked
▁antic
▁concordance
ylchol
▁conclu
▁defic
ulants
▁accessibility
idne
▁quantitative
rotal
▁concentrations
47
2,
mittent
▁topically
resting
weighted
lobulin
▁hydrophob
▁synthetase
minis
▁disrup
26
▁etiology
▁irritation
tro
▁0.5,
igible
edema
▁resec
1)
7%)
olytic
▁clom
▁amin
3;
ograms
▁conditioned
▁diagnosed
▁BP
reduced
▁PKC
▁vancomycin
▁lor
▁cortic
▁patches
bular
▁caution
▁ganglion
▁concomitant
▁deletion
▁50,000
▁0.42
▁diaz
▁sensory
▁(10.
▁addic
establ
ometri
expressed
▁promptly
▁Eighty
▁cesarean
hap
▁PT
▁11.0
▁(5
ylcholine
▁enzyme
idation
▁obstructive
▁(56
assi
ralfate
▁Serum
ogenic
▁TRH
▁LR
truction
▁NaCl
enem
▁Histologic
69
tumor
▁54%
▁3.9
inj
▁vitamin
struc
▁130
▁lipid
▁abnormalities
hexidine
▁99
iplinary
▁139
▁63%
▁unre
olesterolemic
▁prophylactic
▁psychiatric
87
▁cervical
▁adenylate
rocyte
▁positives
▁risks
(2+
▁0.28
▁intercourse
promazine
▁infusions
▁resistant
▁Pneum
▁fibroblast
▁pmol
teroidal
▁oss
▁immunobl
timulation
tives
▁inhibitors
▁196
ofil
olitis
oproterenol
▁PD
▁widespread
uterine
▁emphasized
-3)
300
▁Scale
opathology
▁arti
oprec
▁incom
entral
▁cholesterol
▁dementia
▁drainage
▁crosso
▁tuberculosis
moderate
omiting
ditions
arly
injection
tations
▁affec
▁Lipid
ecre
▁tertiary
▁purification
▁encoun
hene
▁complexes
modified
▁rehabil
▁Twelve
ginine
▁reversal
▁DF
osac
tabol
▁hydroly
