otox
▁discharge
▁fentanyl
▁directional
estis
▁comparisons
▁spectroscop
ompan
▁glomerular
▁intracellular
▁proteins
gluc
▁MH
atid
▁4,
▁autosomal
oprec
19
▁interf
▁regar
▁resul
▁physiology
▁prolonged
tial
7%
▁anatomy
▁phospholipids
ths
▁mM
▁geriatric
ulatory
▁epsilon
acin
FU
platin
▁infusions
▁hepar
▁GH
▁topographic
▁SNP
▁histological
▁ket
monary
4)
agin
▁antagon
▁deple
▁maturation
▁biop
loid
kephal
▁2.0
▁calves
▁10(
ocyt
▁derivatives
▁pelvis
▁HG
▁haemorrh
▁serotonin
▁splenectomy
CBF
mentation
▁HCMV
▁aerobic
▁6
▁atmosp
zymes
▁immunore
iary
▁precur
▁audi
▁1989
▁NMDA
aceous
▁fractures
▁subtype
▁apparatus
▁follic
▁eti
menopausal
trop
icine
▁adenomas
▁acet
▁geniculate
▁favourable
▁pelvic
hap
▁neurological
CSF
▁TB
▁abnormality
▁repor
ullary
onary
▁spermat
-1,
▁balloon
▁immunoprec
▁glucocortic
▁placental
NK
▁adenylate
illic
inic
grees
▁homologous
▁250
alc
▁HL
▁inflamm
hypertensive
▁opioid
myc
rozen
▁chor
▁1,25
▁cartil
▁radiological
▁bip
▁acad
ece
▁viruses
▁albumin
▁undergo
▁insertions
amet
▁immunological
asic
herence
ayers
adiol
▁maternal
prising
▁hemorrhagic
▁Multiple
▁abl
▁removes
▁sedentary
▁tuber
▁muscul
(+)-
cious
▁irritation
oluble
ococci
▁promo
filtration
▁disappearance
▁0
idase
▁Americ
▁validated
▁tyrosine
▁randomized
▁measurable
uppres
▁simultaneous
▁induc
▁fibrin
▁manifestations
▁leakage
▁hydrox
▁trache
▁purification
▁prevalence
oxic
▁adolescent
osynthe
▁stimulated
▁assessed
▁depres
▁extrac
reased
▁cavity
▁PGF
ifferen
▁LN
▁abolishes
▁immunos
▁tolerated
▁cholecystectomy
▁aden
zyme
▁gp
achol
▁tas
▁Failure
76
▁granule
idate
▁excre
sych
▁NB
BK
▁depressive
▁muc
-2-
.5
▁PCP
ctive
tance
▁recor
urc
▁cholest
athione
▁endotoxin
tabol
▁[3
rogenic
cribed
▁microvascular
1,
▁kinase
▁resol
▁reproduction
tel
▁serine
▁stenosis
▁sedation
umulative
cis
leukin
▁subf
▁MV
▁natriuretic
▁squamous
▁decreas
oradi
illary
▁adop
acrylamide
oA
▁tumor
▁diabe
sible
tiz
▁laboratories
▁(7
88
0%)
tam
▁thyroidectomy
atical
tality
▁19
odial
▁AO
▁chloro
▁44
▁melatonin
▁35
tious
reatine
▁monkeys
9)
▁49
▁10(-5)
▁glyc
ocyan
identical
▁lipids
cyt
▁nig
▁mononuclear
▁shor
▁accumulation
sies
▁oss
nec
▁predominant
epti
▁LC
glycerol
▁MRI
udin
pyr
▁TA
▁Biochem
essel
▁monol
▁chemotherapy
▁PAS
▁ach
intestinal
glucose
▁underst
▁hemorrh
▁differing
▁LS
uria
nee
▁expres
ochem
▁asymptomatic
▁organs
mixed
3%)
▁biliary
erents
ollicular
yroid
▁CI
tries
helial
.4
▁kinetics
resistant
▁analogues
▁eosin
abies
HB
▁identi
▁calcification
plate
▁physi
▁histamine
.8
▁cystic
tact
tent
assay
tis
▁aureus
istal
▁0.01
▁lec
▁adverse
resting
▁Alter
▁diluted
hion
▁quantitative
▁muta
thmias
▁hippocampus
▁ventricle
▁Whereas
rested
▁juvenile
▁projec
▁deterior
▁Considering
▁55
anish
▁0.7
obarb
lux
adrenoceptor
▁metastasis
ogens
▁hospitalization
sorption
▁atheros
lectomy
ceptual
etween
▁characteris
▁5%
renol
▁ane
erine
▁198
450
ulla
▁pati
ortal
iferation
▁elong
thmic
▁spinal
cus
▁prophylaxis
▁TC
▁1.3
▁zinc
▁smo
▁adren
▁exer
43
▁assayed
-16
(2+)-
▁averaged
polyacrylamide
▁proportional
▁supplemented
▁kidney
▁microsomes
ymp
▁reproducibility
urate
▁intra
▁comparative
3.
▁mimic
▁melan
erable
▁inhal
▁socio
▁chl
tice
▁ration
▁ionic
▁recessive
▁traum
independent
▁immunoreactive
▁depic
▁discus
▁Contrary
partate
opausal
2/
vant
▁sequelae
labeled
▁titers
▁epithelium
▁pS
▁(15
anine
ygen
aemia
eal
▁interv
▁influenz
▁hydrolysis
▁immunoglobulin
▁glycerol
Phe
▁preven
oscop
ymptom
▁unde
▁cyst
illi
lead
▁lipoproteins
relevant
▁occl
▁cytotoxicity
ipit
luding
▁anatomical
▁150
2%
▁somatostatin
▁adduc
▁PMN
▁sulfate
adren
▁endarte
▁correlations
illus
▁anesthe
otoxin
modulin
▁saline
▁junction
▁tox
▁fibronectin
loon
▁prostatectomy
▁sham
ophilic
▁chan
▁dexamethasone
▁followup
otyp
onit
vation
▁heterogeneous
▁proteolytic
▁olig
immuno
▁Increased
▁clamp
orax
▁rCBF
TK
terase
▁chol
bic
▁nicot
▁limb
▁(1
▁ventil
▁ammon
▁superficial
lytic
▁dendritic
licular
▁melanoma
▁indications
Ts
▁microbiological
▁diffic
▁undertaken
48
▁cervical
▁coex
olenic
▁thyro
▁pneumonia
occal
▁perox
▁polym
hydroxy
▁efficacy
▁eosinophil
▁pathogenesis
obacter
▁antagonized
▁complication
▁FV
▁similarity
▁practitioners
tyl
▁Hz
MIC
Cer
▁prostatic
ancre
▁5'
GV
-30
▁solub
▁carbohydrates
▁prostagland
▁(25
▁28
eration
trast
▁sulf
▁affinity
▁Ket
▁linoleic
▁IU
uoden
containing
▁mumol
oprote
onography
ectomy
▁isolates
nutrition
▁ceased
adic
▁IA
6)
lated
xual
▁phenotype
▁compli
-100
sA
atories
mental
▁Adverse
ronchial
uron
ophy
▁myelin
2,
▁grafts
osition
▁TRH
turb
BW
▁fibrob
▁hypog
79
ogeneic
heum
ustif
ayed
▁envelop
▁decreasing
lastic
▁aldosterone
▁kerat
okine
▁HPLC
▁OC
olytic
▁benign
▁Intravenous
▁molecule
▁membranes
▁biom
▁endoscop
▁tibial
osterone
▁thal
▁Previous
▁1.4
▁genotypes
▁consis
▁allogra
▁epidemic
.2%
ysm
▁anticoagulation
6,
▁alk
▁rhe
▁transcrip
derly
▁fibrillation
▁gels
tant
tingu
anyl
▁laparo
▁qualit
▁myo
olism
▁indicators
inol
▁workload
▁Alternatively
piration
osocial
trin
tumor
anol
ocl
ulitis
▁occlusal
▁underwent
▁stu
.5%
ogra
▁monoclonal
▁edema
lymph
▁macrophage
▁verteb
▁inward
▁malign
aminergic
40
▁Streptococcus
▁201
▁phosphorylated
otide
▁mAb
▁reversible
atient
▁4
lym
▁obesity
▁NMR
otomy
▁ADP
-5-
athyroid
▁incub
▁gly
▁endoc
▁24
mediated
▁Mg
ylcholine
Nase
-5
▁facilitated
▁resemb
▁confound
▁(12
7-
▁1.2
avage
▁infec
▁somat
fused
bearing
▁athle
itin
▁spectro
▁normotensive
phe
lycerol
inergic
.4%
0.5
▁neuronal
▁elevated
▁metabolism
▁palli
osidase
▁iso
▁remo
nitro
▁retin
astric
onset
▁cyclic
▁cortex
▁scre
ensory
▁vacu
▁corne
▁disper
▁12-
-1-
▁carbox
wk
ocardi
▁quanti
tected
otting
oung
ifedipine
▁mutagen
8%
▁depr
▁EEG
▁33
▁dodecyl
▁blockade
▁proliferation
▁schiz
iotic
▁intrav
yses
▁inoc
▁30%
▁empir
odil
▁63
▁determinants
▁isot
▁inactive
▁regis
▁fibers
▁enzyme
▁degrad
ocytosis
▁cytotox
tensin
▁counseling
▁sple
▁operative
amycin
iotensin
▁obese
▁68
▁requi
▁deficits
▁32
opi
scherichia
▁3.0
▁glut
▁impairment
taining
mittent
helium
▁congenital
▁cytosolic
▁pulmonary
tents
▁enteral
illin
anin
▁concentrations
▁arrhy
renal
▁anatomic
▁jejun
sively
▁leuk
▁cytokines
tensive
gesia
activation
▁distinguishing
sulf
▁nosocomial
rophy
▁12
▁2.5
oreceptor
erally
▁provid
ulae
▁vascular
▁Experim
▁agonist
▁antagonists
▁exce
dia
▁striatum
▁longitudinal
▁vitamins
▁monitored
▁dopamine
▁hypertrophy
▁modality
-40
▁HB
coh
▁conclu
▁interpre
▁transplant
▁complemented
▁elevation
▁FS
▁mediate
.9
▁nonc
▁underlie
▁peripheral
pine
▁suppressing
▁acqui
▁unex
ucle
▁differentiate
nRH
▁arginine
-10
▁polyethylene
2+
▁insufficiency
▁uncom
eclampsia
▁endothelium
▁Dil
▁gland
nucle
▁SG
▁implicated
▁myocardial
▁dietary
▁Ear
activated
▁consol
olol
▁molar
▁ossification
▁discon
▁donor
▁calf
▁ery
▁50
▁receptors
echan
▁0.01)
▁rebound
tension
▁irradiation
▁homogen
BV
▁90
ilateral
▁IVF
▁phospholipase
▁polypeptides
▁correlated
▁phe
qui
▁enrol
ologic
ifug
▁hamster
▁injec
osom
ilep
▁socioeconomic
▁embryo
▁ppm
oplasm
▁TGF
▁debr
▁fas
▁VO
▁3.2
▁glucagon
▁systematically
▁APD
▁triglyceride
▁fluores
▁CNS
▁intrarenal
positive
oderm
▁heparin
49
luent
▁compounds
electro
▁Clinical
ifferenti
esic
▁rectal
▁CAM
bility
bac
▁panc
▁30-
▁inherent
▁synthetase
▁estradiol
reas
▁anemia
▁consequently
ventional
▁8
opro
-4
▁cyto
▁disapp
▁1.7
▁homology
▁excitatory
▁apo
oplastic
▁etiology
▁methyl
▁lysine
▁dendri
hyd
ncy
▁19%
▁15
oplasty
otor
▁VIP
rever
▁expon
▁COS
▁stimulation
▁immunodef
▁Intra
▁overexpression
urrence
▁CMV
▁substances
tration
▁dex
▁hyperplasia
▁cAMP
▁nonadherent
dimer
ocamp
▁headache
▁transloc
▁RB
▁promin
eptides
▁antec
onol
helin
▁cerv
▁expressing
rox
▁transfusion
▁infiltration
itus
▁sclerosis
hospital
▁reflec
▁nucleotide
ressive
▁cG
ocaine
FH
deoxy
▁cytology
▁unexplained
▁(20
125
▁pmol
tific
-1)
omers
▁haem
▁duc
ogenous
kephalin
▁NK
67
aemic
▁pharmacokine
▁complications
▁IGF
▁contrib
▁ulcer
usp
▁regurg
▁pyr
gments
▁pancreas
rease
▁adenocarcinoma
tic
2.
▁therapies
▁biochemical
▁syndromes
▁chromat
▁cGMP
▁collec
lysis
▁dissection
-4)
apeutic
▁ascertained
ritish
phyloc
▁vaginal
embr
rocy
▁ATPase
opam
▁NH
▁acceleration
▁27
▁elu
▁6,
▁birthweight
thre
lobulin
▁Steady
▁Pregn
▁sepsis
▁exposures
ginine
isol
▁filtration
itance
ocor
▁myel
▁adhere
▁hyperg
odal
▁femur
bly
57
▁5,
▁somatic
▁divertic
oxid
▁resis
▁0.0
▁1%
▁artery
▁unstable
▁1:
▁colonization
▁urea
ogenetic
Hu
▁cen
Tu
▁positioning
▁potassium
▁enl
▁dentists
▁amo
▁allo
▁pneumon
osome
▁fati
▁physicians
▁immunofluores
lastoma
▁pla
▁uncontrolled
mediately
▁pancreatic
▁micrograms
teroid
▁predictor
▁prophyl
anthine
▁LT
▁dilution
▁kinetic
odynamic
oglobulin
▁85%
tions
sul
▁affec
ichia
▁accounted
▁79%
immune
transferase
▁afferents
▁microb
hep
▁72
2+.
thymidine
ilic
truction
▁Neu
obarbital
.1%
teroids
▁porcine
▁Taken
▁0.05
▁arteri
acchar
vival
▁catechol
phosphate
▁clinician
KD
.2%)
▁0.
OH
tens
▁depletion
▁apex
▁hypertrophied
▁hams
▁TK
▁pyl
▁RA
▁glycoprotein
▁criter
▁epitopes
▁venous
▁constitutes
clo
5%)
▁inactiv
cepti
hyde
▁cytosol
▁coeliac
thyl
▁sulph
/6
seud
andard
▁immunized
▁psychosocial
▁juven
▁margins
opramide
▁pyram
ressing
pir
▁hydrogen
▁CPAP
oconstric
alp
▁infants
tidine
▁47
▁pate
▁chamb
▁Trial
risk
▁inpatient
34
greater
▁PEG
▁phospholip
ithms
▁replication
▁ventilatory
▁modif
alsy
hemical
▁uncommon
omal
tering
▁unexpl
▁antibodies
osts
tagland
oclonal
▁exercised
▁sediment
▁1.6
▁epinephrine
atients
▁deficit
▁precedes
▁70
IgM
▁localization
▁cyclo
▁BP
▁4)
ipolar
▁identifies
▁autologous
▁multic
▁sugges
▁follicle
blast
▁hygiene
▁Hep
▁newborns
▁comprehen
6.
tection
▁cochlear
▁cesarean
▁repaired
-4-
seal
78
thma
1),
mia
▁renal
▁allergic
▁Cyt
▁cytochrome
oxygen
▁pene
▁CRF
▁gallst
▁pathologic
▁(3)
5%
▁metastas
▁39
aluation
ducts
▁livers
▁phosphatid
▁progesterone
▁catheters
▁SHR
.3
▁tric
vail
▁Throm
hips
hea
▁definite
omical
▁musc
eliac
ulose
encl
▁unilateral
isqu
▁PCR
▁oocytes
▁outpatient
▁attenu
OA
onate
▁bene
▁adenoma
▁induction
▁pigmented
ophore
▁identif
▁pathology
rologic
▁subpop
encephal
spectively
adily
▁Concomitant
▁salivary
Hg
ophag
wenty
▁NPC
erent
▁immunode
-6
▁saliv
▁immunomod
▁gait
cephal
▁prolactin
▁analogs
▁lamb
ovine
sus
▁depolar
▁inhibition
entan
▁Cushing
-[
▁PAF
ochemistry
▁cutaneous
▁poten
▁estimating
▁thym
▁recurrent
▁emerg
cardi
▁intramuscular
▁NADP
went
▁synthesis
▁luminal
▁regimens
▁electrophoresis
tamine
▁VC
▁cortic
▁Thromb
▁40%,
iol
▁Cd
▁causative
▁lys
esium
▁lam
ochrome
ffec
clic
▁elec
▁lymph
-17
▁ligands
▁Asp
▁concomitant
1-2
▁VL
spective
▁1.5
▁NGF
odium
▁lateral
▁paralle
lesion
▁thresholds
▁11
▁equilibr
▁atherosclerosis
▁soy
▁intrap
▁1988
▁Bone
▁evolving
oglobin
ranolol
▁naltrexone
▁chewing
▁HN
▁supernat
entral
▁amp
omies
▁hypertensive
▁hyperp
▁propranolol
ration
dent
▁axillary
viron
veness
▁neurologic
rhy
aneously
tec
▁potentiated
ifed
97
▁Histologic
othermic
▁angiotensin
2+,
erence
▁renin
▁bp
teine
otropic
▁cys
▁plasmid
olated
posure
▁toge
▁drainage
▁perin
▁precursor
▁intraven
▁ald
▁pharmacological
treated
▁lute
-8)
000
lective
oyl
▁intraoperative
omat
▁membran
▁recordings
ignificant
▁manipulations
▁chromatin
▁Vmax
▁incubation
▁Hb
namic
▁viral
12.
▁overlapping
65
▁biopsies
▁RBC
▁4-
▁cohort
▁multifactorial
▁wee
omerular
▁preterm
treatment
tron
stim
▁IgE
▁pH
▁extre
▁Km
tization
▁ethanol
heres
▁fluorescent
▁ganglia
▁subcutaneous
ileptic
venth
▁Chemical
▁graft
▁clearance
▁resusc
▁limbs
▁retrospective
kinin
▁validity
▁20-
,000
inephrine
▁prel
▁thrombosis
▁CTL
iplin
sess
▁endocrine
▁Lys
0%,
oplas
atab
▁prostaglandin
astatic
facial
▁detrimental
kele
bular
▁HCC
▁transpor
-9,
▁intest
▁auditory
▁chemo
▁gynec
▁hemisphere
▁uptake
▁diastolic
▁aortic
3).
robic
▁anticoag
▁(2)
affec
ivered
▁mice
▁fibroblast
▁parame
▁conduc
▁opi
▁Kd
4).
▁lymphoma
tivation
▁inhibitory
31
▁ACh
▁messen
▁sti
▁conceptual
▁subtraction
▁intrinsic
▁LPS
meth
▁favorable
odon
carcin
ipitation
▁moderately
▁periodon
releasing
▁kappa
cents
▁intestinal
gesterone
acet
▁pharmacy
pharose
trogen
oceptor
▁surgical
▁discern
▁morb
ffin
▁pT
▁postmenopausal
15
urethral
ymme
▁immunity
▁evoked
ologous
▁tymp
ilibr
▁chlor
▁oxidase
pinephrine
duce
▁reagents
▁peri
orphic
▁perip
▁ipsilateral
-2
etal
▁10(6)
▁immig
▁80-
▁atrophy
▁substitu
▁AE
▁Magnetic
associated
5.
siologic
mitter
▁sequel
▁analogue
▁chemotactic
▁DSM
▁biochemistry
▁collagen
infected
▁connec
▁Escherichia
▁modestly
▁spati
RH
▁synov
alanine
feron
roximately
▁recipients
epit
▁isoproterenol
▁speculated
reast
▁43
▁blin
amate
▁adequ
00
▁acidic
osomal
▁alp
▁needles
▁microsomal
atural
▁BAL
▁trypsin
▁occurrence
▁algor
▁30
▁PCO
▁gastric
▁ascer
▁gamma
▁cortisol
▁angioplasty
azole
itrate
▁vitro
▁necro
▁interleukin
▁msec
▁deposition
▁0.05)
▁actu
▁cues
▁CSA
CoA
▁accumulated
▁coexistence
fec
▁intrag
▁enti
onomic
▁relap
86
▁GBS
dibular
omod
▁regimen
▁suppression
▁adjunct
genic
▁SEM
▁resection
ecal
▁Tum
▁segmental
▁chloroquine
▁rotational
ogenic
achid
▁wors
▁78
otypes
▁flexion
▁AIDS
anding
▁resto
3,
gely
topril
ods
▁cigaret
▁binds
gmental
▁adolescence
▁GFR
▁homogenates
▁Bec
▁rats
▁(5-
▁accep
erating
▁gestation
▁sten
▁biosynthesis
▁amino
▁trophob
ivary
selective
rents
ensitivity
▁recombin
▁hetero
tively
feren
▁difficul
▁nucleotides
▁PET
comitant
▁anat
CMV
▁suppor
▁deficiencies
▁differenti
idation
▁Surgical
▁LVH
kines
▁embryonic
▁Hyp
▁2-
▁extracellular
▁0.05),
▁metastases
ffinity
▁androgen
▁keratin
ropriately
ATPase
▁chec
▁(9
▁avail
ociated
▁reflex
minis
▁circumferential
▁exchan
▁confir
▁Chronic
oxidation
▁0,
▁versa
ygous
▁glycos
▁peritoneal
▁interacted
▁Ara
oretic
▁undergone
▁spi
kade
44
ylamide
▁pacing
▁TPA
▁compressed
eak
▁platelet
▁morbidity
▁atres
▁phon
▁vomiting
▁palsy
tional
▁pancre
keletal
▁traumatic
orrh
weighted
▁cla
gene
▁2.
▁mmHg
12
hers
▁gradi
riched
▁fron
-3-
▁aneurysm
▁beats
adenosine
▁dorsal
asses
▁transfected
titial
▁([
oreactive
geal
▁hypothyroidism
occi
▁pedig
▁laparoscopic
▁osteoporosis
▁endometr
▁oxide
▁adhe
ecu
mend
▁cumulative
▁0.01).
atase
▁decreased
uvant
▁intestine
▁acetab
▁platelets
ranial
▁employing
lax
enteric
▁surgically
ffe
▁mann
▁Compared
▁chemot
sequent
osyl
▁phy
utions
1.
▁0.4
▁125
▁mening
▁metabolite
▁seizures
tisol
▁cardiac
▁psychiatric
▁PKC
tiveness
titution
▁tran
▁hemodynamics
▁forsk
▁tib
9-
▁13
▁23
▁apop
▁ultim
▁Engl
sive
▁extracts
▁testis
orbol
pig
kely
▁peroxidase
▁ganglion
hydrox
▁1)
▁amyloid
atest
jun
▁peptides
▁ae
▁0.1
ylline
▁persis
▁investigating
▁axons
8-
▁plantar
▁ablation
adrenaline
▁inges
oxin
▁GVHD
▁vitamin
▁cate
esthe
ociation
▁Tran
▁masked
▁alterations
▁medial
kground
▁glutamine
▁dislocation
-14
tructive
▁lumbar
▁15%
ergen
▁53
▁kidne
ilical
▁trig
▁induce
ellum
▁lobe
tructural
inhib
lier
ergency
ithelial
▁nitrogen
▁interventions
▁capillary
▁sph
▁schizophrenia
▁hypothalamic
thrombin
▁20%
▁tol
▁practic
▁onset
gression
abain
▁vaccines
-15
ocytes
athetic
53
▁IIb
glutinin
▁ESR
▁endemic
▁coronary
▁Comparisons
▁transient
▁mucosal
▁epidermal
▁struc
▁macropha
26
pendent
fusion
▁cava
▁synchronous
▁29
99
romy
ailure
roin
▁attenuated
▁kDa
ostic
▁testosterone
ocar
▁Elec
vac
▁differe
rowth
▁enhancing
▁occupational
▁manu
LF
umerous
▁lymphocytes
tion
▁RAR
▁2%
▁prednisone
erb
▁adhesion
▁20.
▁tach
▁adequately
▁demonstrating
blind
2).
▁ovari
▁GSH
▁ELISA
▁Serum
▁PTH
▁colloid
▁7.
▁instrum
▁inositol
rone
54
▁hemodynamic
▁adrenergic
dose
▁cerebellar
▁exo
▁chond
▁beha
▁lamin
phen
▁ascertain
▁quantif
▁intrac
tially
▁modulation
▁insertion
ignific
▁Mn
▁hormones
kine
▁excision
▁synaptic
▁3.1
▁sperm
▁neoplasm
▁collateral
oxia
minal
2%)
▁lactate
▁arrhythmias
▁alveolar
▁neo
▁genome
▁splic
▁noc
gic
ectable
vul
▁hazard
▁0.6
▁histologic
▁Doppler
▁tended
▁antiserum
ometh
▁scin
▁postsynaptic
▁progressively
-3
▁fetus
▁contraction
▁sci
▁glial
acental
▁1-
piratory
▁gastro
▁deformity
▁injur
amethasone
▁Patient
olones
▁statis
iminary
▁detachment
▁cleavage
▁susceptibility
roxim
▁repres
▁yielded
▁recom
(2+
▁fetuses
▁alteration
▁regression
▁vancomycin
▁ASA
lix
Pa
▁(18
▁300
ithin
▁(10(
ohyd
urgical
▁mV
▁usefulness
▁plasm
▁valve
tention
▁Findings
ithi
▁phosphatase
▁oste
▁effic
vely
dition
physiological
▁neph
onad
▁hepatocytes
econd
▁cereb
▁VD
▁10(-6)
adherent
▁reag
produc
▁spontaneous
▁mutation
erations
▁intensive
ected
▁prospectively
dominal
▁cellular
▁systemic
▁plasmin
IGF
▁adjustments
▁reper
▁astro
▁HC
▁poisoning
▁glu
oride
▁forskolin
▁(16
turally
ivation
tability
6-
irc
▁inhibit
physiologic
▁wean
▁cyan
▁episodic
semin
▁infections
▁propensity
▁sensory
lood
thel
▁monomer
▁exis
▁resear
▁microscop
diagn
▁10-
▁septal
▁symptomatic
entanyl
▁homogeneous
▁posi
▁efflux
gia
▁sacr
sial
ceptive
▁myocardium
▁coag
cysteine
resist
plas
▁resec
enia
▁Afric
ediatric
ocarcin
▁verapamil
▁cathe
▁screened
ellular
methyl
tence
▁proliferative
▁stimul
75
▁cyt
phosphonate
▁42
▁postoperatively
NB
ercul
uccess
▁Ig
▁conformation
▁rejection
olip
▁autoradi
▁corneal
▁summ
90
▁plaque
ectomized
▁antiser
▁abolished
▁desirable
▁100%
▁inflammatory
▁ruptured
▁libr
acid
▁influenza
▁milieu
▁confined
farct
omethacin
▁rheumatoid
ypical
▁ischem
ecre
ethyl
▁PRP
84
▁acyl
tum
▁cue
phosphor
▁epithelial
▁catalytic
▁(11
HF
▁pretreated
▁Thir
▁bowel
▁polymorphism
▁anastomotic
▁tubules
uccessful
▁microc
▁mammography
▁synthe
unctions
+/
arean
▁contractions
▁(4
ophren
▁neuron
▁loci
▁mRNA
▁endothelial
▁iliac
▁erythrocyte
▁(6
owever
▁exon
▁myc
▁diffuse
tradiol
▁radiotherapy
▁toxin
▁precursors
▁ischemia
▁ANF
▁Golgi
undibular
▁Removal
tory
▁neutrophil
luores
▁2
▁cytos
▁carcinomas
]-
▁homogeneity
▁reticul
▁cyclospor
▁restenosis
leu
▁5.
▁MG
lycemia
▁herpes
otides
4,
ticular
▁neon
ritis
▁shortened
urons
▁ionophore
ionic
brain
▁slices
osine
▁scanning
▁arti
uin
▁fasting
thle
vity
tussis
tase
▁Chan
▁normo
▁elic
iferol
▁fibre
▁45
▁58
▁bic
▁tertiary
▁cartilage
MV
▁15-
phil
▁parap
▁suscepti
▁detectable
iciently
▁inflammation
▁aqueous
▁nutritional
▁indi
▁pretreatment
onor
▁respec
NH
ovirus
▁analyses
▁tubular
▁NADPH
erative
inemia
▁biphasic
▁suppres
▁examin
▁regulated
bloc
▁erythrocy
-7
▁refractory
utroph
ithm
▁isch
ronch
▁monke
onin
▁pancreatitis
pH
lact
▁Contr
▁thromboemb
▁cervix
0,
▁respiratory
▁labeling
▁aspec
erox
▁residues
▁yeast
▁coh
ropriate
▁34
▁cocaine
▁amyl
▁selective
siveness
sia
▁reperfusion
-20
▁predicting
ropha
▁pleomorphic
▁amput
▁studi
▁immunohist
ustained
25
/2
iatum
ocortic
▁projections
▁venti
▁examinations
22
uran
omotor
maximal
32
cence
▁defic
▁implic
FV
▁sequential
ylated
▁appreciably
-7)
▁coronal
▁magnesium
▁hypoxic
▁gluc
siological
protein
▁immunization
▁buc
ximum
ivocal
▁0.000
▁fragile
+)-
▁vasopressin
▁morphology
▁Leu
sue
▁duct
▁perinatal
▁(4)
▁degradation
osomes
gm
+)
▁ips
aventricular
▁PMA
▁displacement
▁suppressed
erican
▁prostate
▁diabetic
▁cholesterol
▁1.1
▁lesion
cAMP
5-
bodies
▁cros
▁sodium
▁resistant
ulph
▁progen
▁subgroup
ivariate
▁mug
▁epileptic
▁progn
▁acidosis
▁0.8
▁gallstones
ituitary
idis
▁curative
divid
dor
▁fibrinogen
▁[125
▁aneurys
▁1.9
▁phosphate
▁reflux
▁tiss
oic
▁aggregation
olateral
▁preventive
▁radiol
▁bipolar
▁tissues
▁characterize
▁probes
45
▁parental
13
▁1.
sensitive
▁ultrasound
ialysis
▁reversed
▁Atropine
▁rheum
▁palliative
▁thromb
tein
▁toxicity
▁radiography
▁Meas
▁1987
▁visually
▁hepatitis
▁receptor
▁pathogen
2),
▁immun
▁0.001)
▁cytoplasm
▁exacerb
kinase
phasic
▁57
▁correlate
▁quin
arbox
▁paradig
▁mucosa
▁intravenously
▁73
rogra
essive
effec
atectomy
mide
▁inhibitor
▁(198
▁inhibiting
▁lymphoid
-6-
▁RM
▁phenyl
▁reproduc
▁digestion
xia
▁restor
▁neutrophils
▁96
uscular
arous
▁subc
▁potent
luc
▁lipoprotein
iosis
▁90%
▁tubercul
crip
▁rigidity
▁unrelated
▁ventilation
iatic
▁endpoints
▁biopsy
lep
▁developmental
▁chloride
▁nm
▁cardi
erad
▁referral
▁thi
▁10.
▁illustrate
▁(14
ycin
▁distal
▁athe
▁pediatric
transplantation
▁sensi
▁pathways
omiting
▁endot
▁kidneys
▁tomography
rected
responding
▁thir
▁spleen
▁impair
▁infectious
▁predic
-1
▁appropriately
▁nonspecific
▁heme
▁challen
▁thromboembolic
▁hypothe
▁FSH
▁dysfunction
▁vena
▁anesthesia
▁linole
▁multicenter
▁(3
▁stimulate
▁markedly
▁pressures
▁undes
fron
Ig
▁membrane
clin
▁postnatal
▁diagnose
sities
vices
Leu
loro
oplasmic
▁occlusion
▁inversely
trexone
rati
ipine
▁acetylcholine
tility
urin
▁implantation
▁Treatment
cine
ilized
▁actin
otrop
ozo
▁PSA
▁axon
.6%
▁Wistar
▁mammary
gland
eptide
▁ANP
esti
ariate
omized
opoietic
▁worsened
erving
▁monocytes
ergic
▁seb
▁carbohydrate
▁10(-7)
din
▁prescrib
▁tetr
▁preferen
▁circulating
▁reductions
▁oxygenation
▁regulate
▁aspiration
5).
asone
▁Phe
▁anaesthe
▁4.5
▁TNF
ectom
▁197
▁inver
▁prono
▁36
MH
assi
▁GTP
uted
Ka
cutaneous
▁atrial
▁(0.1
▁Dopamine
▁asymme
▁proteoglyc
cyst
▁endoscopy
▁immunobl
▁acids
▁HSV
▁Hg
▁(+/-
ATP
diol
▁aor
)2
reness
oresis
▁multivariate
▁mitochondria
▁mammalian
▁guinea
▁differentiation
▁stained
▁microm
▁simult
ostal
lateral
▁mediated
▁interc
▁urinary
▁obstruction
▁dialysis
10
LV
▁valu
▁rabbits
▁deli
▁(2
▁steroid
-12
▁glutamate
▁necrosis
atell
▁inten
▁85
▁acco
▁preoperatively
fos
▁chromosomes
onuclear
▁umb
▁dissociation
onstric
▁gluten
▁questionnaire
▁2)
▁Accordingly
ellar
▁refrac
1).
▁gradients
70
▁glycoproteins
esity
▁51
▁improves
▁polyclonal
affinity
ymptomatic
▁foc
▁secreted
▁5
▁vein
IIIa
▁TCR
atine
enic
▁hypertension
▁tidal
▁enlarged
▁atropine
▁torsion
moid
phosph
▁insuff
▁stimulus
▁irradiated
vice
▁thoracic
▁1,
▁oligonucle
▁neurotrans
▁streptococci
▁subjec
▁LH
generation
labelled
▁suggestive
▁conserved
atif
entif
▁mellitus
uretic
▁evaluations
ampl
▁75
▁sciatic
itro
▁circumferen
▁resonance
▁antisera
athe
tiv
▁secretory
.7
▁follicular
▁(0.0
▁angina
▁compartments
umulation
retion
tages
occus
▁perme
▁Biol
ronectin
▁reductase
▁modulate
▁pter
▁prolif
inositol
antial
▁placebo
▁crest
aginal
ulmonary
PSP
cells
▁0.05).
eded
pecially
▁anae
8+
▁cerebral
▁orally
▁substanti
▁highl
otent
▁embryos
▁retina
asal
crimin
35
▁overex
5)
▁inhibits
▁stimulating
▁elicited
▁eluc
▁empirical
▁assis
▁micron
Gly
▁ouabain
tero
▁0.01),
▁electrocardi
▁proce
▁heavi
acr
▁Acute
/10
▁calmodulin
▁ageing
▁IgM
tig
▁polymorph
▁feasible
regulation
▁paradigm
▁BALB
quired
▁buccal
▁congen
erate
ostat
implantation
ospor
nthe
▁Pretreatment
▁3)
▁7
▁0.9
▁distin
▁inadequate
phrine
▁deprivation
atheter
▁umbilical
18
▁52
▁substituted
▁Cox
▁consecu
TB
▁testicular
gth
▁biosynthe
-1.
▁tubes
▁evaluating
yro
85
▁spre
eptidase
DNA
▁ventral
▁leukocyte
▁papill
▁cirrh
▁54
omatic
▁exogenous
▁carcinoma
▁25
▁latent
▁evol
▁doses
idated
▁defective
▁medulla
yel
veolar
▁radioimmuno
▁subsp
▁hypot
▁WHO
▁asthma
▁antigen
▁6-
▁localized
▁grouped
▁ambient
▁bir
▁utilization
▁statistically
▁peptic
-60
▁sexes
▁chromosome
▁instability
▁bovine
▁caro
idne
azol
▁tec
▁questionnai
▁discontinued
▁compe
jected
▁tracers
▁120
ocrine
titu
▁sphincter
economic
bladder
IFN
▁surgeon
▁centr
▁endothelin
embran
rophob
▁dele
unced
▁aort
▁hydrophobic
echanical
▁38
▁connective
9%
istar
▁dye
▁endoscopic
ocarcinoma
▁HDL
ignant
▁carc
ilization
ioid
elec
ocele
▁deliveries
astolic
▁memb
tro
▁anastomosis
▁erythrocytes
▁cation
▁RNA
▁60%
phenyl
▁assemb
tub
▁CK
▁caud
▁ethyl
adication
GH
Tc
▁morphologic
onatal
aryngeal
benz
3)
▁filaments
▁mL
opo
▁interstitial
▁polymer
rins
ocul
▁lysis
▁.0
▁potentials
emia
▁lithotripsy
▁retinal
5,
▁sial
DG
▁tamoxifen
luded
atrial
ffeine
itoneum
▁vasoconstric
enol
▁interferon
▁adap
▁CSF
▁fulf
▁anion
▁appendic
▁hemat
▁hazards
▁skeletal
ields
▁inhibited
▁infil
▁thyroid
▁physici
▁21-
▁50%
▁ADH
ditions
▁poorer
▁neutroph
▁64
▁carotid
▁79
▁enrolled
▁intercostal
▁DN
▁minimally
▁chori
▁Severe
uncture
▁cancers
▁heroin
▁60
▁clon
ocardial
▁hernia
▁stimulatory
imens
▁galact
▁61
▁dosing
opsy
▁percutaneous
▁anomal
▁HU
Hb
▁NaCl
itone
▁phosph
lusion
▁plateau
otroph
▁specificity
controlled
4+
▁ultrasonography
clinical
▁prognostic
▁paren
▁terminals
receptor
▁abd
▁adhesions
▁gestational
bral
uminal
orphin
orepinephrine
angl
▁rigorous
▁adherence
▁complexes
galact
▁hippocampal
▁intrauterine
alian
▁BD
▁diame
▁Forty
versely
▁7%
▁synovial
▁defects
idine
MN
▁arth
▁manifestation
linking
▁impaired
▁5'-
▁eryth
.2
ocytic
LDL
▁superoxide
▁creatine
ospitals
▁morphine
▁95
▁CCK
▁perone
46
▁microgram
trative
▁tracer
ensi
tric
opa
▁11,
▁(8
▁intake
tivity
▁attrib
▁macrophages
▁EBV
▁concurrently
▁onc
▁bronchoscopy
sors
▁phosphor
▁vulnerability
▁natri
▁hybridization
▁systolic
ropine
duced
▁establ
▁phagocytic
▁discontinu
▁dissec
▁emphasizes
▁urine
▁repro
▁dilated
mol
trol
▁CG
gents
ternational
1)
tetr
▁septum
queous
▁malignant
▁neurons
▁endometrial
▁inactivation
▁bolus
nai
▁9
▁bloc
attern
▁subunit
▁arterial
1-
▁implant
▁inducing
iotics
versus
ylchol
▁cataly
▁hep
%).
entricular
▁analges
▁afferent
▁hipp
▁ventricular
▁readings
▁symptom
▁retention
ographically
odialysis
umably
▁Increas
▁residue
▁selectively
▁esophagitis
▁contral
▁cardiomy
▁cows
ynaptic
▁conductance
▁trough
▁correlates
▁peptide
▁VE
-11
▁benz
▁soluble
ophageal
▁cigarettes
▁abundant
ortic
▁promoter
▁bronchial
▁polyps
▁bacterial
▁+/-
▁serum
urine
▁gallbladder
ithiasis
▁staging
itoneal
▁unclear
▁granul
▁76
▁immobil
otypic
▁preferable
▁HM
▁numb
▁unaffected
▁progres
▁initiating
▁contamin
▁perceptions
▁translocation
embrane
gans
olec
7.
▁staining
▁unsuccessful
▁Comparison
▁59
▁2.4
gment
▁hypoxia
▁80
jug
ergy
KA
amide
▁500
▁suture
▁bronch
▁NP
acetic
stress
▁neonatal
▁nitro
▁genotype
▁ACTH
adequ
▁docum
▁contrac
▁postoperative
0,000
▁46
monstr
▁gonad
▁abnormalities
lasting
▁6.
▁hydrophob
▁microscopy
▁mutants
▁multim
▁synthase
8,
▁predicts
ture
▁preoperative
▁strep
orac
▁dosage
Cu
▁analysed
▁phosphorylation
▁abdominal
▁eosinophilic
orpor
▁RS
▁cortical
▁metabolites
▁ovarian
▁(1)
hydr
▁tachycardia
▁lamina
oglyc
▁MAP
▁oligo
▁inapp
▁ect
▁lesions
▁contex
oru
▁anastom
athy
▁MEP
▁norepinephrine
▁menopausal
▁uncomplicated
▁1.0
▁3.5
opoly
▁phosphodies
▁progest
▁kine
▁oils
▁10
%),
▁20
▁fracture
ejun
▁ocul
▁withdrawn
▁cis
▁contributes
▁adenosine
▁pigs
hydro
tak
▁iod
lob
▁recurrence
▁angi
▁PEEP
▁distinctly
totic
▁fatty
tate
▁atten
carinic
▁caudal
▁intraper
fir
roma
▁dehydrogenase
tine
▁carriers
▁positively
▁Immun
▁linkages
oxygenase
▁5-
responders
▁vesicles
mTc
DH
▁imaging
▁GABA
▁neurones
otin
▁incubated
opia
▁sero
▁nM
▁21
thym
eric
▁organisms
glyc
▁transplantation
peptide
▁arter
▁extensor
amines
28
▁disadvantages
▁mell
▁reproducible
MDA
2+]
urgery
6%
▁Prospective
▁cann
▁injected
▁variants
▁lar
ionine
LH
▁undetectable
chol
▁putative
▁molecules
amino
▁pertussis
-3)
Ia
cture
▁lith
▁respondents
▁intragastric
▁substrate
▁muscarinic
▁advan
3%
▁deform
▁hypoth
▁perc
▁heteroz
lac
▁physiologic
▁previ
opathic
rants
reactive
toxin
▁transcriptional
▁develops
▁70%
▁histopathology
▁62
56
▁poin
chlor
unctional
electric
silon
▁metabol
.0
till
▁10,
24
▁duoden
7,
lue
▁PRL
▁7,
▁Significant
tation
▁nifedipine
ACS
olysis
▁astrocy
▁verte
▁mono
▁alve
1%
▁estrogen
▁enriched
▁combin
▁tumours
▁OT
▁angiography
echn
▁antagonist
▁graf
▁epit
▁conduction
▁yr
onyl
ocusing
▁199
▁endarterectomy
▁pathological
▁wk
quit
contrast
TG
▁deficient
▁excretion
▁reas
▁hypox
▁demographic
▁replic
▁ultrason
▁ure
heal
▁reacted
▁seroton
icardi
▁crude
entical
▁infused
▁(17
▁throm
+,
▁Surgery
▁cultured
▁tRNA
▁22
▁arachid
▁retur
carb
▁99
ept
▁influx
▁mutant
▁66
▁inducer
▁progestin
▁neurop
▁Samples
▁[14
▁ligand
tral
subunit
▁periodontal
▁predictive
7)
▁glycogen
▁acyclovir
▁engraftment
phyl
▁phospholipid
▁IFN
▁abnormal
▁epidemi
▁echocardi
terone
▁transcripts
▁placenta
▁(50
▁sucrose
arrhy
▁abdomen
▁HLA
oracic
motic
▁pituitary
▁glutathione
▁0.00
▁synthesized
▁antibiotic
▁recombinant
▁polymerase
▁rash
oskeletal
▁fluor
▁disruption
plasia
taken
▁3,
▁stimulates
oside
▁67
▁reduc
trib
▁electroph
▁myosin
▁chromosomal
ministration
▁progression
atoid
-9
'-
▁32%
▁tumour
ipient
▁2.7
▁cDNA
▁rabbit
ophil
▁tryp
vertebral
4%
▁gangl
▁HI
▁paraventricular
erated
raine
▁40
▁200
▁cytotoxic
23
50
▁OA
invasive
▁behavioral
othelial
▁alkaline
▁fractions
clonal
▁80%
▁nec
▁ATP
▁precipit
stimulated
▁subun
/100
▁synap
gative
versity
uterine
perfusion
▁markers
▁placent
tized
amn
▁substrates
▁antigens
▁allevi
▁sampl
▁cysteine
▁lumb
iasis
▁exhibited
▁diminished
ints
▁hydroly
▁ultras
▁variability
▁2,
▁amyloidosis
▁Kup
16
▁cuff
ondr
▁cardiovascular
▁elimin
▁prospective
▁metast
▁invasive
▁suppressor
dies
uvate
▁satur
▁responsiveness
tif
/-
▁myocardi
orption
▁ile
▁unchanged
▁TBI
▁nucleus
selec
▁minus
acerb
enin
romed
▁26
SCC
kage
▁triglycer
HM
▁conformational
▁dete
truc
▁experim
▁persist
▁persisted
▁hepat
▁pneum
▁behavioural
▁stellate
▁brady
▁reser
ocomp
ietic
Tn
▁3'
xone
▁virtu
▁autoimmune
▁bran
▁thereafter
▁GV
▁Regarding
overed
▁parotid
▁contractile
hern
▁24-
▁mutations
▁monkey
duction
▁adolescents
scher
▁surgeons
Ra
▁rabb
▁uterine
▁dendrites
iciencies
▁motone
▁ow
orin
▁susceptible
▁implanted
▁secretion
ameth
▁aerob
-0
▁LDL
iably
phosphon
either
▁striated
▁radiographic
▁shif
▁undergoing
▁glands
▁Swed
▁31
▁gyn
▁lectin
▁fixation
▁noradrenaline
ucine
▁insufficient
▁enzymes
9,
▁37
▁vagal
rae
▁196
▁cholinergic
▁amines
▁LV
▁IgA
▁75%
▁concurrent
sian
lobin
▁VP
▁GnRH
(5
idney
trition
▁streptococcal
▁differentially
unar
adian
regn
operatively
rectomy
▁Vitamin
▁agon
elan
-13
▁reversal
ositol
▁microscopic
▁newborn
▁homogene
▁Kupffer
urea
▁lethal
fib
▁resour
▁hospitalized
odic
▁creatinine
▁distrib
razole
oag
80
osamine
▁differed
▁microns
▁permeability
tomy
▁69
anic
▁morphological
▁-0.
▁(0.
▁consequent
▁steroids
aline
illation
oxane
▁soybean
▁communic
▁pharmac
ograms
ocyte
▁tris
▁determinant
▁antic
▁electr
▁kb
▁migraine
obl
▁locus
▁prognosis
RNA
▁disrup
.7%
tryp
ovascular
▁MCP
opamine
▁objec
▁coval
▁8-
▁wt
▁judged
TNF
▁eliciting
▁supple
▁assay
▁GI
▁hypothalamus
▁depolarization
▁causal
▁irradi
▁indicative
▁swelling
▁protease
▁fetal
▁MN
▁infar
olgi
mature
▁immature
▁inotropic
▁fibrosis
▁metabolic
urys
birth
▁arachidonic
▁recons
rangement
ervations
▁amputation
▁AMI
▁sequentially
▁25%
4.
▁65
▁inters
▁prescribing
enzymatic
▁topical
tage
▁pulp
etitive
▁pyruvate
ensitization
ureus
29
▁motility
▁oligos
tives
clerosis
tectable
alact
iliac
fine
▁colonies
aptic
opulation
▁vasomotor
▁ambulatory
▁untreated
▁adjuvant
▁prenatal
▁reflecting
▁latency
▁mec
▁unil
▁comple
ficial
▁Plas
▁incom
ighted
▁innerv
mig
iatric
olus
▁vaccin
▁transi
▁retic
▁reactive
enzyme
lox
▁overlying
▁TG
▁derange
▁effector
▁symp
2+-
▁ALT
stolic
itamin
utaneous
▁basal
▁overweight
▁insulin
▁BMI
bacco
▁plasminogen
lasts
rological
.3%
▁elimination
▁(0.5
21
▁intravenous
rates
fts
▁competi
▁hemorrhage
▁inheritance
▁thymus
▁3.
▁yiel
▁familial
8)
-2,
▁radiolab
/3
EG
▁purified
▁bac
▁anomalies
▁1.8
oscopy
▁mitral
▁clones
trip
ococcal
tally
▁nasal
▁ions
▁potenti
▁neoplas
▁preferentially
▁hemodialysis
▁stimuli
rotid
▁embry
▁residual
quine
▁DG
▁Fc
▁stren
▁arthritis
▁thre
▁facilit
erin
injured
▁adminis
uble
reported
opres
▁saturated
otropin
rehen
▁terminus
▁spon
▁remission
thase
chymal
accharides
▁transcription
▁bile
▁contaminated
▁consolidation
▁cloned
▁pall
▁saturation
▁differen
rosis
▁(100
▁underestimated
▁reactivation
▁fluorescence
▁effec
▁bilateral
▁cerebrovascular
▁definitive
▁ischemic
▁Stu
▁AVP
.8%
▁PV
▁IgG
tituted
▁endogenous
ipid
▁Tumor
urther
tical
assium
▁feasibility
ochondr
▁16
gulation
planted
▁strains
▁evid
▁accel
▁epilep
▁sympathetic
derived
oprotein
▁hormone
▁vivo
omycin
▁techniqu
▁ACE
▁deletion
eared
atonin
testinal
▁concordance
loride
▁pineal
▁predictors
▁defec
acted
▁melanomas
0.
▁currents
functional
▁nodules
astom
▁lyso
olone
ynthe
▁femoral
▁tes
▁mortality
▁immuno
▁polypeptide
▁3
insulin
regulated
▁esophageal
ofluores
eptid
asive
▁alcoh
▁adaptive
▁fmol
ervical
chym
▁41
estig
▁lymphocyte
▁mediation
acting
olarization
▁calcified
eces
▁hap
▁duodenal
trate
▁underg
▁subunits
ontal
estion
certain
terol
-6)
amus
▁PB
▁LD
▁deterioration
ofol
▁devi
▁deficiency
▁palp
▁compartment
▁brom
saccharide
esia
▁(5
▁microv
crib
▁clinics
▁56
▁SCH
▁rhy
▁hypertro
▁predominantly
Ds
ecyl
▁glycine
▁selec
▁marrow
atum
▁nmol
ardia
▁cyclase
▁activator
dine
epine
▁fibroblasts
3-
▁sut
deficient
▁assays
orectal
▁400
▁ester
pecific
ught
▁AMP
▁augmented
▁donors
uting
▁rati
alues
ults
▁laparoscopy
entary
▁fatigue
coun
ineal
▁antibiotics
▁extraction
▁blot
▁lumen
approximately
▁coli
▁plex
▁mRNAs
▁incorporation
▁differentiated
▁hippocamp
tural
▁tumors
▁dehyd
▁fibres
ophylline
▁relapse
▁preparations
▁Systolic
▁hypo
▁intermittent
▁supplementation
tual
▁initiation
▁shortening
ffer
cessive
ureth
Ba
▁nuclei
acetyl
▁diets
sions
▁prosthe
▁HS
ochemical
▁peroneal
▁desm
▁encoun
▁metoclopramide
▁clinically
fal
▁unres
▁colorectal
▁Thirty
dle
antigen
imin
bumin
▁17
▁inserts
radi
▁laparotomy
phic
.1
▁ana
itant
fat
▁PF
▁carcinogens
onucle
▁infusion
endri
▁inhibin
▁turnover
▁oxid
▁adhesive
▁adenocarcin
▁lis
▁elucidate
▁assessing
▁reagent
arate
acyl
▁granules
acetate
▁anesthetized
omial
urrent
zard
graft
▁mediates
tors
▁uter
▁calcium
otassium
epam
PV
▁tachyc
▁Patients
olesterol
▁95%
0-
▁1986
▁genic
▁adi
▁arteries
▁vaccination
vated
▁APC
▁scintigraphy
▁possi
▁isoform
2-
dic
▁provocation
▁exten
▁synergistic
▁Continu
eroxide
▁apical
henyl
lip
onium
throm
.9%
adm
▁14
roph
▁SDS
▁unselected
▁inhibitors
▁hCG
atitis
▁complementary
▁vesic
▁inh
▁prol
utyr
▁RH
▁7-
ostomy
itic
▁catheter
rine
▁86
▁adjustment
▁mmol
tinu
▁(19
▁preliminary
dehyde
▁MHC
20
tive
▁leukemia
relations
▁inser
▁reactivity
▁1
▁cytoplasmic
▁plas
▁8.
arbonate
armac
▁silic
30
cele
▁phag
▁hypothal
▁spikes
▁canine
▁SLE
opathy
▁agonists
▁overe
▁EGF
▁conjug
▁ranged
▁Biochemical
▁pulses
-19
▁spontaneously
▁resuscitation
▁PGE
▁carcin
▁cirrhotic
▁phorbol
atment
▁infarction
incubation
eptin
▁Inhib
▁murine
▁uremia
▁carbohyd
▁(13
11
▁CABG
tics
ximal
▁thrombolysis
▁amin
▁births
▁canc
▁theore
ifugation
▁physiological
adder
▁ventric
lyce
▁ejection
▁radiograph
▁100
▁7.5
▁clinicians
▁LF
tophan
chers
zation
-8
▁inadequ
▁(54
2)
▁cirrhosis
▁coel
stro
▁questionnaires
osin
▁0.001),
▁substantially
▁addi
▁metastatic
▁lipid
onc
▁0.2
▁optic
mur
tically
legia
▁cef
aminated
▁Vac
ubation
▁investigations
▁targe
▁injections
81
oxide
▁resected
▁polyp
▁48
▁restric
▁reticulum
▁substitution
▁trac
▁0.3
accharide
▁sinus
Ki
▁epiderm
▁.00
▁therapeutic
actin
2318
▁strom
▁rationale
lycer
▁demonstrates
▁routinely
▁warranted
▁focal
▁Phy
▁aorta
▁chromatography
CRP
▁enzymatic
▁IB
-67
▁micros
▁hypoglycaemia
▁proximal
odynam
noise
▁cardiomyopathy
atinine
▁follicles
▁produc
▁sarc
▁disparity
diagnosed
genesis
vents
icin
mobil
▁oxy
imination
▁acetyl
▁mitochondr
otri
▁perfused
venous
▁entero
▁protoc
iae
cad
▁heavier
▁shorten
tition
▁77
▁nal
0%
▁equivocal
▁glucose
▁mitochondrial
fected
hyp
AIDS
oxone
▁adrenal
rele
▁reac
vascular
▁subgroups
▁modulates
inj
ameter
tabl
earance
opathological
trated
▁ketamine
ococcus
▁concom
EGF
valence
toph
▁carbachol
▁epitope
teric
▁labelled
graftment
ogenesis
▁erg
heric
▁heterogene
mented
▁hormonal
▁glomer
▁2.3
lec
▁Estrogen
centr
trimental
oratory
adrenergic
atible
▁monit
4-
▁Muc
trac
▁ech
glutin
▁attemp
toc
▁acetate
lyc
▁satis
▁thorac
▁leukocytes
▁pathway
▁propor
14
tebral
opressin
▁hemoglobin
operative
orative
▁enzym
sion
▁0.001).
▁oxidation
inally
mL
▁FH
▁atresia
atation
▁administered
ylase
▁gon
▁potency
▁premature
▁haemorrhage
vic
oagulation
▁quantit
trum
▁genomic
▁Phen
▁heterogeneity
▁functionally
▁grading
▁antibody
ometr
▁cephal
glut
estions
▁KCl
▁detec
erance
▁4.
▁microtub
▁18
▁cholestasis
apeu
▁fibr
▁inoculation
▁TSH
▁frac
▁intram
iability
ventricular
rotic
▁utero
ylation
▁hygi
▁awa
▁exclusion
▁stratification
ucleation
▁obser
iversity
▁choline
virus
tead
37
▁increas
▁implicate
LISA
immun
pation
othel
▁circumference
▁sickness
agit
▁inappropriate
▁Cells
▁ECG
▁pylori
▁synerg
oidal
-5)
▁induces
▁Preoperative
▁rehabilitation
▁decreases
▁reliably
-450
dial
▁assessments
quid
▁radioactivity
opha
▁40%
▁hepatic
▁pyramidal
▁pulmon
oproterenol
▁hemo
▁0.5
▁thrombin
oscopic
IU
▁migrated
▁preservation
odies
▁Plasma
aturation
ctomy
oate
rogenase
terminal
▁descending
17
▁carboxyl
▁specimens
▁mucos
kDa
MRI
ropyl
ectin
▁esophag
otone
▁diagnoses
▁cohorts
▁BV
▁pregnancies
▁ratios
tin
ostatin
▁airway
▁epi
▁3-
▁olfactory
▁prophylactic
▁pathologically
▁cadaver
▁incidence
▁scans
▁upstream
▁cyclosporine
tran
scop
▁discomfort
Ca
▁compart
▁microM
ocellular
▁RP
threatening
▁dors
▁ultr
tured
▁oxidative
rosine
8.
ocular
tox
▁guan
▁0.03
▁lact
ivoc
▁perfor
▁eradication
jec
lasses
phal
plantation
lowering
▁vasodil
▁molec
▁prevalent
acylglycerol
▁microcirc
▁10%
▁discom
induced
▁acute
igaret
ylate
▁drin
tures
▁construc
▁proton
PAP
.6
▁indomethacin
▁silicone
▁1000
plants
69
tus
▁Addition
▁bypass
▁bronchi
▁antigenic
▁multiv
romes
enhanced
idin
trus
/1
▁DF
▁MM
tur
affected
uptake
▁(30
aryn
acil
osal
lys
▁HPV
▁oes
▁discrimin
▁bladder
years
▁irrever
▁subjected
▁thickening
▁omitted
▁perfusion
rene
▁phosphatidyl
▁contralateral
agic
apamil
▁Nine
▁CRP
aturated
27
roscop
▁severity
60
▁(10
▁clus
▁mandibular
tained
▁hypers
▁thrombo
▁degeneration
▁stroma
▁lithotrip
owel
▁disulf
oxif
natal
