olysis
vated
▁mellitus
▁absorp
▁Thirteen
erebral
▁tec
phal
▁objec
▁arti
▁symptomatic
micro
▁exacerb
▁hered
idate
▁horiz
romycin
▁discontinu
▁deficit
▁doubling
tivation
ominant
▁headache
▁parathyroid
▁reas
▁methotrexate
▁fetus
zymes
ensitivity
feeding
▁biop
▁immunos
▁osmotic
▁assessed
tene
▁acetic
itin
▁stool
▁wee
▁antis
rowth
roscopic
fec
amycin
▁thromb
▁enalapril
▁ane
▁persisted
ectin
ucose
rosemide
tivities
▁ech
▁vascular
▁cortisol
tens
▁statis
▁bladder
▁maturity
▁oxygenation
▁pressures
▁newborns
cus
tussis
▁ejection
▁apnea
mature
▁OA
▁traum
▁adren
ergic
▁sci
molality
▁diuretic
▁nitroglycerin
▁reflecting
▁fibrosis
vents
▁ultras
▁tox
▁ciprofloxacin
▁Calc
athy
azepam
▁genotype
▁atopic
ulose
▁granul
ceptive
▁provid
nec
amuscular
▁oxytocin
▁vitamin
▁venous
▁neurop
▁glucocortic
▁reversible
▁Seventeen
avail
▁aqueous
lact
hypertensive
▁membranes
chloride
natal
opres
▁Approximately
tus
▁Nine
posure
uran
▁thems
▁ingestion
▁CHF
▁Hg
▁incidence
tual
hion
▁pH
▁devi
▁recipients
▁cla
ogens
ycin
Bs
▁nicot
esin
▁confound
▁quantif
tiz
▁secretagog
atation
▁analgesia
▁demonstrating
acute
▁pate
availability
▁Addition
▁rehabilitation
▁restric
achn
igaret
gative
eptide
▁blot
▁spontaneous
itamin
ylated
▁outpatient
▁pharmacokine
▁valve
sion
▁serological
▁predic
▁econ
aminase
sistent
roscop
obl
atell
tro
▁Measure
▁socio
clin
▁exposures
▁undergone
merc
▁edema
▁discontinuation
ostatic
inyl
ffec
jac
▁colonic
▁reproducible
▁leuk
lamy
▁polyethylene
teroids
roma
gm
oderm
▁alcoh
▁stimulation
andard
▁insulin
▁pathophysiology
▁citrate
▁compounds
▁stu
▁aspec
▁augmentation
tif
▁LM
▁stimul
operatively
▁conges
▁clot
▁aluminum
▁RA
entia
cysteine
▁arrhythmias
▁inflammation
▁neurotrans
rine
▁percutaneous
lyl
yrox
▁perin
▁manu
▁questionnaire
▁hydrophilic
▁resection
orption
▁fixation
▁glycos
▁angina
phosph
▁prophylaxis
otyp
▁bronchial
▁differen
▁sodium
▁computerized
▁isolates
▁estimating
▁empir
▁occupational
▁retard
▁diabetic
▁duoden
▁diarrhea
▁benz
iasis
▁examinations
lobulin
▁meningitis
▁hypercal
▁comparative
▁rotavirus
▁serotypes
▁filtration
▁sugars
armac
otroph
▁unstable
irds
▁duodenal
▁epidemiological
▁acidic
▁hep
renal
▁ultim
▁CG
▁elas
lysis
▁perip
▁thyroid
▁triglyceride
tative
▁elevations
▁deficiency
erence
▁lact
estions
orrh
▁Intr
ophil
▁thereafter
adm
▁efficac
▁simultaneous
▁somatic
sibly
▁mice
▁preven
odipine
ranial
▁modalities
▁peripheral
▁CN
tant
acin
▁numb
▁controver
▁qualitatively
▁responsive
▁ori
▁lidocaine
▁morbidity
▁pts
▁synthesized
▁ascorb
▁ineffective
▁ICU
produc
▁thre
▁ECG
▁predominantly
otre
▁Whereas
opamine
▁bactere
oreal
▁bicarbonate
▁pancreatitis
▁uterus
erated
Ts
Cs
bic
▁carbam
ints
▁cate
▁prescribed
▁supra
▁abscess
osin
▁summarized
cence
▁malignancy
▁initiate
▁neonates
▁esters
echanical
▁unclear
pregnant
▁dex
uresis
oxif
atif
▁simplex
sively
thirds
▁subjective
uretic
horm
tin
▁predicting
ucle
▁hydrochloride
▁antimicrobial
bility
▁PCO
xone
▁Diagn
▁memb
▁preterm
▁expressing
▁expres
▁repro
▁Hb
▁abnormality
otropin
▁differed
▁vaccinated
▁pati
▁modality
▁semen
▁donors
ilization
arynx
reactivity
▁quin
orpor
▁seropositive
▁insertion
▁spor
▁FEV
▁perioperative
ffer
▁valu
▁gonad
▁cartil
rocyte
▁physici
▁systemic
topril
▁stren
▁incid
▁lis
▁dexamethasone
ropathy
▁variability
▁familial
atoid
▁onset
▁extracorporeal
▁tracts
gia
▁histopath
BV
▁nocturnal
leb
gic
thma
▁mEq
▁Phen
inflammatory
▁saturated
▁consis
▁pulses
▁genital
etent
▁emphasized
▁anticoag
▁multic
▁hyperglycemia
▁hepat
▁Haem
uncture
▁assays
▁angi
gthen
▁ablation
▁enlarge
anol
▁nausea
▁tolerated
▁bup
reased
plasia
assium
▁electrolyte
▁resonance
▁testis
NB
▁poten
tigo
▁amplification
▁capsules
ovascular
abdominal
pran
opro
▁cardiovascular
mented
▁glutamic
▁methionine
▁assis
▁reproductive
▁dilatation
coun
▁differe
▁TS
▁cuff
▁ligation
▁blocker
▁Alz
▁angioplasty
adily
infection
▁occurrence
▁repor
▁durations
▁accounted
▁cran
▁exud
traum
tituted
ilateral
▁capillary
▁saphenous
▁resistant
rele
▁chol
▁cerebro
▁dosage
▁gon
▁isch
▁implants
rosis
odal
ociation
▁emerg
▁EG
▁infarction
eak
▁rheumatoid
illi
▁uncomplicated
▁endogenous
▁antagonists
▁calor
▁ultrasonography
actin
▁biochemical
▁estradiol
▁produc
▁routinely
idazole
timulation
▁CHD
induced
acet
▁glyc
▁regulating
brom
▁progn
inally
▁diets
eces
▁Myocardial
ergen
▁sexually
▁metabolism
▁salbutamol
atectomy
▁cef
ovirus
▁weakly
▁induce
▁restenosis
▁coordination
▁affinities
mol
▁contamin
▁arter
trover
tious
adrenergic
▁lavage
tron
ophen
▁adip
iol
pregn
tyl
toc
admill
▁Combin
▁acids
▁enhances
▁implicated
trated
▁dermal
▁nicotine
▁potent
▁immunosorbent
din
▁excre
▁confir
agic
▁supr
▁glycosylated
▁mitral
tig
▁untreated
▁compartments
▁HBsAg
▁polys
inemia
▁suppressive
ticular
▁acutely
▁attributable
ureus
▁carriers
ported
▁mmol
▁potassium
essation
▁psor
lactam
▁renin
pecific
SAID
▁exhibited
omegaly
▁identi
▁ery
erating
centr
▁casein
rofen
sequent
▁infusion
ditions
▁prenatal
▁chorionic
▁immunization
▁tetrac
▁cardiac
acchar
anking
▁immunoblot
▁micros
▁depres
▁graded
epithelial
▁confirms
azol
▁tes
▁combin
▁residual
ytoin
▁congestive
qui
▁bioavailability
inesterase
▁cruc
quid
▁hypertensive
greater
titis
rhy
▁washout
ylase
ranolol
▁enrolled
▁uro
thmia
▁discharged
lude
▁threefold
tions
ichia
▁HPV
intestinal
cemia
▁cyst
eal
ypical
▁adequately
▁ket
amel
ximum
▁skeletal
▁stratified
urin
ostic
ronch
rox
acrine
▁inhibitory
hydropyridine
▁uncommon
▁neutrophil
▁hydrocortisone
opi
▁increas
▁retur
terin
amide
▁anticoagulant
iotensin
eryth
▁Tissue
▁fecal
vular
odon
▁enteric
▁sheath
▁markedly
▁vaccination
acterial
▁dimethyl
▁thrombocyt
ereb
onomic
▁disturbances
imin
▁progesterone
▁assessments
plast
otor
sies
▁synovial
▁neoplasia
▁intake
ariate
▁muscul
▁antic
▁malformations
ventricular
eration
embry
▁Escherichia
▁carbohydrates
▁canc
uted
▁lumbar
▁sequelae
▁summ
▁Higher
amole
▁ND
oxygen
▁toge
▁MM
▁prolonged
antibody
▁estrogens
▁concom
tures
oxifen
idic
▁chemotherapy
ifedipine
▁correlates
▁undergo
ecu
▁dissection
estis
▁hypothalamic
▁reliably
▁deviations
▁vein
▁manifestations
▁gastro
▁gradi
▁Staphylococcus
astric
lipid
▁dermat
▁dye
▁adhesive
▁obser
▁methyl
lep
▁uncom
tical
▁distal
tics
▁hypot
ignant
▁tric
▁salivary
▁decarbox
alp
▁reflec
onography
tric
eded
weighted
▁Swed
▁normo
▁polysaccharide
▁retention
emia
ected
▁Alzheimer
▁newborn
▁serotonergic
arbox
retin
▁studi
▁fracture
bral
▁antibody
ymptom
▁aerobic
▁adul
▁deterior
▁EB
tations
average
▁glands
entified
tioned
▁triglycer
ogenous
▁clonidine
▁hemoglobin
▁elec
▁Chronic
▁antioxid
▁systematically
olol
amicin
ofl
versity
exposed
▁titration
▁initiation
▁triglycerides
feron
▁offspring
▁bowel
yzed
▁fatigue
▁latent
trates
▁Serum
▁intermittent
▁biphasic
▁instruc
▁inhibitors
▁aberrant
vity
▁beats
oxid
icillin
▁anomal
▁prospectively
▁satis
▁cytoch
tissue
aminop
epine
ocor
▁SG
▁TSH
▁pharmacologic
▁reproduc
acid
enteric
▁Sixty
tance
▁surgical
▁serum
angl
▁obstructive
asone
▁indicators
mentation
▁perit
▁plasm
▁ocular
▁mucosa
tinu
thyl
▁urea
ignific
timal
▁longitudinal
▁cured
▁avail
▁Doppler
▁cumulative
▁limbs
pressing
▁endocrine
▁dementia
▁validity
ifed
mend
▁osm
▁correlate
odium
▁screened
▁randomized
uled
▁embry
eprazole
▁autosomal
loid
▁prol
▁DBP
atients
▁enrol
astolic
esophageal
▁auditory
▁successive
echan
releasing
▁struc
▁concurrent
▁anesthetic
vail
uting
▁hyperthyroidism
▁tomography
ophilus
▁indomethacin
oglobulin
▁TI
▁ultrasound
▁allergic
▁transverse
▁Ninety
terase
tral
idespread
▁obstruction
▁Eighty
▁spon
▁noc
▁glomerular
vely
▁plateau
lym
jected
tisone
▁pituitary
quit
▁anemia
▁angiography
BH
▁renal
erate
ulant
uterine
▁Sodium
▁decreas
ortic
▁retrospective
tents
zation
invasive
istar
sych
▁quanti
▁rhin
▁subarachnoid
▁cystic
IU
▁recom
▁Subsequently
▁anaerobic
▁traumatic
▁parental
ulla
lac
▁cyclooxygenase
▁uric
lycer
aternal
irub
▁fluoro
tained
▁differenti
▁extrac
▁tol
ithelial
scher
▁detecting
▁airway
▁interf
▁discharge
lox
▁rati
glycer
LISA
▁injec
▁Increas
elan
▁buc
▁defic
▁inversely
odil
▁qualit
▁chloride
phic
accharide
▁intravenous
lies
▁echocardi
adian
▁circulatory
limb
zyme
▁detec
OH
ionic
pain
▁postnatal
▁refractory
▁hypog
▁etiology
elic
GH
▁omega
▁histological
▁ventilation
▁choline
▁referral
▁subc
▁coag
▁arth
▁previ
▁diffic
essive
▁coli
▁cros
▁femoral
▁dias
▁propor
▁glut
▁analges
erin
▁pathologic
▁sampled
▁fibrillation
▁immunity
▁biopsy
osamine
▁withdrawn
alian
▁paired
▁emo
▁fibr
rance
▁pleural
erge
certain
▁streptococci
▁postprandial
▁criterion
▁cysts
▁allergen
▁adop
▁fetuses
▁severity
▁impairment
▁practitioners
▁retic
plemented
ostomy
entral
▁prevalence
▁Treatment
▁capsule
nai
arbonate
urate
▁influenza
▁secrete
▁interc
▁gonadotrophin
oprotein
▁bathing
▁contracep
▁hypothe
▁intermedi
▁correlated
ilep
duction
▁bronch
▁lesion
operative
▁exis
▁sti
▁overt
ecal
▁scientif
sectional
ospor
▁cohort
ygen
plas
▁plas
oplasm
▁syndromes
▁preparations
▁LT
▁thresholds
lycemia
▁tertiary
▁hospitalization
▁abor
enol
▁oste
turb
▁hospitalized
▁neph
▁estrogen
siveness
▁adrenal
sors
▁acqui
▁fluoride
▁selec
kets
▁MRI
▁disturbance
▁cranial
▁Subjects
▁trac
traction
▁colitis
ipheral
crib
vian
ults
DNA
oxic
▁direc
▁pneum
tential
epam
▁thromboemb
tory
▁glomerul
▁hypo
▁inducer
▁antagonist
▁Calcium
▁yeast
▁hemat
▁arthritis
▁pertussis
▁examining
▁carc
ameth
▁Increasing
▁gonadotropin
▁fractures
▁perox
▁lapa
scherichia
▁selective
ithin
▁pneumon
▁undere
▁proce
▁cerv
amines
▁hyperplasia
▁ascertain
▁PV
▁Comparison
osyl
▁uterine
▁Multiple
hetamine
orectal
▁inflamm
▁regimen
▁synthesize
utions
treatment
▁Hyd
▁intrac
▁sampl
▁establ
▁encomp
uscular
▁hereditary
▁monitored
immun
▁circumference
ritis
lytic
▁attain
▁reflux
vice
ocellular
▁placebo
yridine
orbent
▁urinary
▁menstrual
uretics
▁requi
▁membran
▁hyperch
▁possi
▁suture
motic
▁stimulus
▁plasmin
▁gradual
▁ranged
▁exhaus
esity
▁basal
▁glucocorticoids
▁epidural
pH
floxacin
▁exhibiting
cents
▁doubled
hyp
▁increments
▁hydrogen
▁carotid
▁statistically
orated
otoxic
▁scans
▁hypoth
▁underg
▁hypox
glycerin
▁gentamicin
lec
arrhythmic
tiary
▁doses
uminal
▁cholesterol
▁heparin
▁xyl
▁shorten
hydroxyp
restricted
▁hypers
▁pediatric
enic
oglobin
▁underst
▁responsiveness
sess
▁nitro
▁Lymph
tero
▁creatine
chlor
▁carcinoma
cious
mL
▁agonists
▁transmitted
▁Interestingly
▁pharmac
tively
yclic
associated
tured
▁Compared
▁substanti
eared
tering
▁diazepam
iotics
▁rehabil
▁dosing
tention
itant
responders
▁squamous
▁derm
▁IgG
eric
▁abnormal
gesterone
opausal
▁ovaries
▁efficacy
▁bic
▁manifested
▁calf
▁examin
▁incub
iloride
queous
▁antiarrhythmic
opathic
▁antimic
tice
▁ovulation
▁ferritin
pir
▁hepatic
▁leukotri
yro
▁microb
omycin
▁inver
▁brom
▁androgen
▁conduc
▁receptive
▁infants
▁nephropathy
ergency
▁atrophy
tine
menopausal
▁aerosol
oscopy
▁adenomas
imeth
▁IgM
▁calcification
oretic
quisition
▁intrav
oratory
▁juven
sA
▁metoprolol
tial
▁abd
▁acet
ocin
lier
olytic
HDL
▁proteinuria
tomy
▁hepatitis
▁deox
▁rats
▁prognosis
tingu
acil
partic
▁Hyper
▁pathology
oxyl
▁stratif
dL
▁investigations
acerb
albumin
iazide
fib
▁analgesic
tivity
▁transi
▁splen
dia
▁infarct
▁throm
tein
▁evaluating
omal
blockers
uric
▁cessation
▁discon
▁ank
protein
▁initiating
iability
▁mann
▁usefulness
ocys
▁retinopathy
olamine
ardia
▁endoscopy
▁tach
▁herpes
trum
▁amph
▁endoscop
▁reactivity
▁abdominal
▁hematologic
▁Surgical
▁preventive
▁supplemented
dered
▁dipyridamole
inase
▁kinases
odine
ocl
▁ulcers
▁lithium
trin
oste
▁regurg
gth
leukin
▁melan
▁disseminated
▁Hep
Gs
▁digoxin
▁hypotension
▁Acad
▁intramuscular
omotor
▁spikes
▁atypical
▁immun
ffinities
▁affec
▁ELISA
▁progression
▁diabe
▁zinc
▁dorsal
ectomy
controlled
icine
hea
▁cerebral
▁conditioning
▁elic
onin
TSH
▁anatomic
▁recr
▁questionnaires
fat
▁epidemiologic
▁lacks
urnal
▁pneumonia
asal
▁mobilization
▁grouped
ymp
yclo
▁intracranial
▁sequenced
onyl
▁decarboxylase
anad
amphenicol
thre
omat
▁vesicles
NH
affec
dial
effects
▁Clinical
luded
▁hydrox
▁microscop
robial
esic
ecre
▁hormone
▁neurologic
▁Candida
▁leukotriene
▁assessing
▁injur
iotic
idated
Ca
▁steroids
ilic
▁regression
cyt
▁dysfunction
▁idiopathic
▁carbohydrate
▁schedules
▁logistic
▁satur
▁vaccin
▁crosso
sian
▁Thy
▁peroxide
hers
▁transferrin
patients
▁acros
▁postoperative
▁incision
▁paren
reactive
▁latency
▁microscopic
iae
▁adequ
▁Increased
ositi
▁pigment
▁induction
▁pharmacokinetic
▁occl
organic
▁intrap
olig
▁improves
sives
kine
osomal
otox
parathyroid
▁ae
thmic
▁Prel
▁coagulation
▁symp
oprol
ophilic
▁swit
▁molecule
▁drainage
▁atten
sant
▁luteinizing
luding
coh
upus
bearing
letion
hydr
▁sham
▁ach
absorption
arial
▁fung
lated
▁immunotherapy
▁intram
▁frac
erance
▁exten
tation
utable
tiv
▁aden
lyce
irc
▁detectable
tensives
mental
▁interleukin
razole
ocyst
▁amp
▁measurable
olone
▁hypothal
oconstric
▁adenocarcinoma
gestin
tially
▁proton
▁sple
▁antagon
▁polyc
▁retinal
▁elevated
▁subsets
▁insufficiency
▁neutroph
▁dopamine
prandial
EG
▁quantitative
iline
flammatory
▁relapse
▁microorganisms
tec
▁prednis
▁malign
allium
elec
ochrome
▁Twelve
ighted
regn
▁amniotic
▁elevation
▁atrial
ucl
entricular
▁benzo
estion
▁bradycardia
▁infar
vival
▁rhe
arean
▁morphine
▁sedation
▁suggestive
▁sensitivities
▁creatinine
▁averaged
▁ventricular
ulatory
▁evaluations
▁verapamil
▁scanning
▁CAP
▁transient
dine
▁effic
acted
atab
▁deterioration
bladder
▁tib
▁autoantibodies
▁compartment
▁adolescents
▁junction
▁ovarian
duce
▁characteris
▁cerebrovascular
▁euthyroid
▁attenuation
went
▁assay
ectom
▁extrap
▁resol
▁intub
athyroid
▁LDL
▁retardation
▁amo
▁definite
unctional
▁gestation
▁prostaglandin
adjusted
▁unchanged
▁aneurysms
▁protr
TG
dominal
▁Sixteen
tage
roscopy
viral
▁diarrh
genic
▁ester
▁monit
▁ankle
▁reversed
▁injections
▁Consequently
olism
▁myocardial
▁nonspecific
▁rectal
▁resul
▁angiotensin
stim
▁strains
vac
▁sulfate
▁extensor
▁ulc
anic
onc
▁Ultras
omiting
▁choles
▁compart
▁challen
induc
aemic
▁nasal
▁Evidence
yel
▁acces
▁reductions
diabetic
▁plasminogen
veness
▁nec
molec
▁postmenopausal
ochrom
▁antibiotic
pig
▁lactation
▁lymphocytes
▁respec
▁generalized
lyc
▁hetero
▁differing
▁uter
iminary
ficial
ermal
▁inhibit
lobin
▁HSV
tency
mittent
▁lumen
▁contraceptive
▁ascorbic
▁polyp
thmias
▁defec
▁vomiting
▁saphen
▁eryth
▁posi
▁metast
▁HDL
muscle
adic
aturated
terol
▁voluntary
▁ect
oracic
spective
▁identif
icin
▁tablets
▁Neu
▁hepatocellular
▁biopsies
▁pancre
▁premature
▁coenzyme
▁phenotype
▁chemically
selec
▁Preliminary
meth
▁Thirty
▁viral
hospital
▁linearly
ymptomatic
▁construc
jec
methyl
▁saturation
tic
deficient
meas
▁guinea
ureth
ocrine
otassium
▁antigen
entif
▁conjunction
▁Bac
▁muc
▁reser
ethylene
▁decreased
urther
▁venti
HF
▁gonadotroph
tum
▁cytology
▁consecu
▁TM
▁gland
itidine
▁electrodes
▁lesions
umerous
▁heterogene
tinguish
hydrop
epti
urine
▁pretreatment
chol
▁inherent
▁HB
otypes
icep
clic
itro
▁inducing
▁elastic
▁LV
▁intrauterine
▁cyt
▁averaging
▁discontinued
▁diaz
▁Survival
▁amn
lob
▁bolus
regulation
▁glucocorticoid
▁theore
tally
erent
▁irregular
april
▁inh
▁urine
▁deoxy
xual
▁mono
▁peritoneal
▁secreted
▁titers
▁hypothyroidism
▁Oral
▁calcium
▁nonc
▁adjustment
ionate
▁physicians
yrid
▁sput
ucas
ctomy
▁stepwise
assi
ologic
▁surgeon
▁reticul
▁tubercul
▁inadequ
▁subcutaneous
orin
▁malignant
tis
reast
▁constituted
▁precursors
otting
▁pyrid
▁dysp
▁supplementation
▁corticosteroid
▁congen
▁sedimentation
▁esophagus
▁placental
utaneous
▁techniqu
▁gestational
▁duct
gment
othal
ipramine
▁neon
▁coh
ipro
ogenicity
▁indus
▁hypoglycemia
▁deleterious
ffeine
▁carcinomas
▁Epid
median
▁homogeneity
▁superficial
▁lipids
▁comprising
▁neurolep
▁inten
tural
▁perfusion
ventil
onazole
arate
lives
feren
▁brainstem
▁inflammatory
olesterol
▁terat
fusion
esti
▁bir
▁retrospectively
▁hypertension
▁manipulation
▁clinics
▁precur
radi
▁lumb
ctive
▁ESR
urgical
▁RS
onine
▁mL
▁inges
▁enzyme
cholesterol
▁perc
▁Ace
▁solitary
▁transplant
rein
▁interventions
▁psychiatric
▁saliv
idone
▁insoluble
▁twofold
▁Examination
ochem
▁cortic
esium
sible
itus
▁arrhythmia
▁normalization
respective
phil
enicillin
fraction
ocardial
▁rup
▁experimentally
▁erythromycin
▁reliability
osus
▁propranolol
achol
andida
teral
urrent
▁questionnai
ophys
▁esophag
ipr
▁attenu
vation
▁staging
▁physiology
apid
elves
enia
▁regulate
▁contaminated
▁Factor
lux
gluc
▁colonization
▁respiratory
▁BCG
▁conductance
▁adherence
PCR
plants
trial
▁pyr
▁peaked
▁vasoconstric
▁smo
thmatic
▁postin
▁graf
odop
taining
▁intran
▁luteal
▁abnormally
▁histology
▁surgically
kelihood
▁fulf
titution
▁prognostic
duced
▁excretion
▁recor
▁regurgitation
▁deviation
ylic
▁converting
▁articular
▁Levels
acetic
arrhy
▁gyn
tent
▁mU
erad
▁protec
directed
▁attemp
▁LN
resist
▁audi
▁metabolic
resistant
trop
ept
ignificant
▁mening
ithm
kage
▁glucose
IgM
dose
▁unex
atible
antial
olated
▁prophyl
LDL
ongest
illin
▁obese
▁inhal
opus
▁Reduc
otoxicity
▁epilepsy
conver
amol
angiotensin
▁DF
▁progressed
▁cen
uccess
quine
▁dissemin
▁iso
▁acetyl
▁presumed
▁cereb
▁glycoprotein
hydro
▁underwent
▁deposition
▁tas
onucle
ometh
▁stres
▁intest
trib
▁metastases
▁pec
▁hypoxic
▁TC
acr
▁erythrocyte
▁unilateral
▁vertebral
enzyme
▁concentrations
diagn
▁Streptococcus
▁infectious
▁Tiss
inergic
▁glomer
injection
pecially
▁tamoxifen
▁tran
trogen
▁aspirin
▁Meas
trac
tiveness
trol
▁contex
▁fluc
▁vitro
▁radiographic
▁standardized
▁hypertrophy
▁bilirubin
▁inhibitor
aryn
itrate
▁antibodies
▁hazard
▁schiz
▁supple
▁CI
omerular
▁Bec
▁sputum
alc
▁limb
▁chronically
▁contrib
▁specificity
▁agglutination
▁albumin
▁anesthesia
▁Myc
itone
ethyl
▁pep
thood
▁bac
wes
onary
onad
tration
otrop
hyd
▁recurrences
▁quantified
opr
▁maternal
▁subjec
▁polym
▁effec
▁inspiratory
▁analogue
▁extracts
▁tendon
sue
▁seroton
▁NP
▁cephal
▁discus
▁lith
tives
▁erg
▁Arter
▁esterase
▁hyperg
▁cyclosporine
▁bacteri
▁bip
loro
blind
viron
omized
▁enlarged
owever
stimulating
▁endemic
gely
▁anat
▁captopril
▁activator
▁alanine
▁opioid
▁ana
▁lipid
▁remission
aryngeal
ycline
▁substantially
ocaine
ocomp
scop
venty
▁IU
▁influenz
venous
oscop
DH
dition
imens
▁suscepti
▁comparisons
▁indications
positive
▁algor
▁impair
echn
▁focal
HB
▁exer
▁regimens
omethacin
▁gastric
▁disclosed
▁resec
monary
▁subf
atitis
▁RR
▁obesity
▁predictors
Hb
anin
▁practic
▁euth
amphen
ischemic
▁treadmill
▁melanoma
lusion
▁atenolol
▁neonatal
▁ligament
usate
▁agonist
▁lateral
▁localized
rected
▁gels
▁mell
▁Forty
ipit
asic
▁spi
responding
throm
▁incomplete
cepti
▁wors
▁therapeutic
▁antidepress
▁sediment
▁anomalies
ffin
illary
▁prednisolone
▁fetal
▁simult
generation
ordance
zard
▁testicular
formations
ture
▁hemo
iagn
▁vesicle
▁perinatal
▁cys
▁implying
▁pneumoniae
▁oxy
▁veins
flamm
▁gluc
▁injected
teroid
▁predominant
▁electroly
▁commercially
▁subgroup
▁chan
bacco
romes
urgery
ocarcinoma
ococcal
▁ischemia
▁minimally
atrial
▁foc
▁normotensive
▁multivariate
oluble
▁excision
▁subgroups
▁adverse
▁amput
▁deform
vul
▁discriminate
▁cryp
▁fatty
▁magnesium
▁termination
▁promin
▁graft
▁uptake
▁penicillin
tition
ophy
reas
▁thrombus
partum
▁duplex
onate
▁bypass
▁investigators
yroxine
lip
▁suppression
▁rhy
▁thrombo
▁clon
osom
▁minus
yroid
butamol
▁recurrence
▁arterial
▁amphetamine
erb
dle
▁ppm
▁cyclospor
piratory
▁yielding
▁smears
▁Subsequent
rease
▁hemorrhage
ocated
▁prednisone
azolam
uble
▁dox
▁enal
▁evid
opo
cessive
▁eti
wk
aminophen
▁dosages
▁remo
▁effusion
▁morb
▁tetracycline
Rs
Hg
▁receptor
▁hypothyroid
yses
mega
▁carbohyd
LV
ayed
agonist
▁incontin
tel
▁influenzae
▁thrombosis
inic
erative
initi
sions
▁ampicillin
▁comprised
bac
▁suppressed
▁Insulin
rologic
responsive
▁lar
embran
▁HLA
ocortic
ogenic
amus
▁asymptomatic
otri
▁lute
vascular
▁pulsed
▁Thir
organisms
▁sten
achnoid
▁protoc
▁coated
ration
▁Injection
▁fas
▁acute
owel
mia
▁avoidance
ithi
oxide
▁lymph
acting
▁Afric
▁immunobl
▁placenta
▁tibial
▁lipoprotein
▁tended
▁DMP
▁balloon
▁complications
▁immunized
▁sequentially
▁diuretics
amphetamine
pine
adequ
▁relap
▁potenti
PV
tically
ospasm
▁caffeine
▁vaginal
▁ratios
▁Americ
osts
orac
▁nutritional
▁benign
▁drin
▁admissions
▁kidne
okine
▁outflow
▁sepsis
▁kidneys
▁autoimmune
▁recurrent
▁undergoing
▁incis
astatin
▁thir
▁duc
▁prolactin
onstric
▁sero
▁islet
geal
oneph
▁Fifteen
▁concep
▁comple
▁transcription
arachnoid
partate
onephritis
▁noninvasive
▁pylori
tension
▁transfusion
▁preoperative
▁tubes
atient
uria
▁reduc
▁progres
▁recordings
▁functionally
idne
▁leukocyte
oporosis
▁benzodiazepine
▁Scale
▁attrib
▁HS
yste
amethasone
▁lacked
▁infec
▁incomp
▁enamel
onegative
▁endo
▁proximal
osterone
▁intensive
▁spre
etal
rates
▁criter
▁endometrial
▁incom
blood
cortisone
▁Fourteen
tox
▁operative
▁juvenile
▁cultured
atical
terone
ocar
▁hypertro
▁interfer
▁ow
▁helical
promoting
▁neutrop
▁atropine
▁deli
▁succin
clinical
▁sugges
▁predictive
▁caries
orec
▁HI
▁menstr
▁HL
▁microvascular
oyl
molecular
▁exceeded
▁MIC
▁scre
▁dietary
orh
▁inhaled
▁AFP
indolol
▁postpartum
▁myc
odies
▁chlor
▁endometrium
rays
pation
▁glycol
ographically
romy
iatric
▁nig
▁expiratory
hep
▁diagnoses
▁LD
▁lutein
aline
▁ranitidine
ayers
xia
sive
versely
bumin
▁cavity
ampl
▁clus
aturity
▁asthma
▁hemorrhagic
▁artery
▁hygi
peptide
▁intraven
oxin
▁deoxyrib
▁Significant
▁unaffected
▁ulcer
ocardi
▁intra
itonin
▁sulf
ociated
▁spinal
▁exce
▁suppres
▁prophylactic
▁repres
cis
ximal
▁resour
▁insufficient
▁inser
▁therapies
oic
▁immunoglobulin
idase
▁optimum
▁administered
tensive
idation
otent
▁corticosteroids
▁Patients
seud
▁panc
oprost
atum
▁enlargement
▁ischemic
aicin
▁differentiated
▁ambulatory
▁enti
▁phenyl
▁nodules
▁differentiate
nine
▁dors
▁aureus
▁IgA
ritin
▁heterozygous
▁experim
▁accep
hydrox
▁microbi
▁fluids
▁arteri
cture
▁proportions
idine
▁CRP
ophageal
prising
Pa
ionine
▁acetate
▁indi
▁pancreatic
▁aspartate
ausea
tosis
▁depressive
▁heterogeneity
▁favorable
▁MH
tening
xate
▁probes
jun
▁phosphate
▁decreasing
encephal
▁ure
▁neuropathy
▁colorectal
till
opa
tran
effec
▁revascular
▁immunogenic
sus
cyclic
othi
▁formulation
thyroid
▁bilateral
phen
▁antid
▁contraction
▁fertility
▁poin
▁endoscopic
omies
▁neutralizing
▁cartilage
▁behavioral
▁adap
uppression
usp
entical
▁confirming
▁cyclo
ubs
▁couns
▁pooled
▁excised
oride
▁asymmetric
▁moderately
early
olus
▁Seventy
▁alcoholic
tia
plementation
▁peri
Ig
▁rheum
▁cutaneous
apanese
▁reac
▁cholest
apamil
▁stric
rents
▁complication
▁Maximum
▁qualitative
▁soluble
FSH
titute
▁cann
▁actin
olesterolemia
▁enl
▁retin
ergy
taz
aric
▁Fib
▁decreases
▁dehyd
▁trimester
▁calcitonin
▁cardi
▁Hyp
vices
▁defects
▁insignificant
▁TP
▁orally
▁hemorrh
▁Coronary
▁bipolar
▁specificities
coated
▁ventil
▁nitrogen
▁smokers
▁cis
▁rupture
▁definitive
▁tuberculosis
mediately
▁systolic
▁viruses
toxic
▁persis
ughter
illus
▁thi
thi
tropin
avage
▁reflex
▁suppor
galy
▁interferon
lood
odiaz
▁serolog
tensin
▁capsaicin
▁clamp
amid
▁developmental
ophag
▁substances
▁encephal
▁shortened
leu
▁lupus
idin
vic
▁recruited
▁wk
oag
▁kidney
▁phosph
▁antibiotics
▁diastolic
Ds
drug
▁crossover
▁CAD
LH
anding
tracted
▁trig
ocyt
tur
▁electr
oprolol
ophren
insulin
▁intestinal
▁histamine
▁preceding
▁gases
immune
▁instrum
mortem
▁judged
lys
ocytes
yrib
ocyte
▁mortality
▁asthmatic
▁adi
▁malignancies
ocytosis
ochemical
▁splenic
▁sensi
▁induc
osal
ontal
▁positively
illar
▁pelvic
▁bran
sia
▁metastatic
▁dysplasia
loxacin
▁pretreated
▁fasting
tors
▁cytochrome
▁susceptibility
▁inadequate
▁Hear
▁Fifty
▁predictor
vitamin
▁electromy
▁adipocytes
▁thyroxine
rogenic
▁extre
▁tiss
▁amin
▁predis
treated
▁embolism
▁alternating
ronchial
occal
▁toxicity
▁steroid
▁quantit
tisol
▁enzymes
containing
▁multiv
sulf
▁nifedipine
oplasty
tility
bacter
▁Ig
▁bacterial
▁agon
▁heavi
▁lowering
▁fractions
▁prostatic
▁physiological
ensi
onvul
▁substitution
▁chor
▁unrelated
▁dihydro
▁symptom
▁contractions
▁Concentrations
▁methodology
adren
▁beha
etan
▁plaques
▁critically
▁causal
▁impaired
olec
▁esophageal
irubin
▁imaging
▁soy
ograms
▁demonstrable
tact
▁topical
▁allele
▁histologic
▁exclusion
ducing
mokers
▁amiloride
spectively
▁chloramphenicol
trical
▁unres
▁hydrop
▁cervical
crip
urys
▁accid
▁radiological
rocy
▁Tran
▁receptors
tive
▁pregnancies
▁pyl
▁bloc
rati
anine
▁congenital
▁tumor
ffe
▁uniformly
▁clinically
▁lep
▁Initi
▁cancers
cys
leuk
▁diminished
▁radionuclide
▁persist
▁stenosis
keletal
▁furosemide
opril
▁spleens
ogl
sibility
▁percentages
▁aspiration
▁paradox
tizing
▁compli
piration
▁infusions
▁leakage
rometry
▁tumors
▁verte
azole
▁sut
▁shor
▁desm
ipine
▁hyperthyroid
▁blockers
ospitals
bodies
ifferen
▁paral
arrh
▁invasive
aryl
▁yielded
opathy
▁hydroly
▁elective
adder
▁epidemi
risk
▁prospective
▁fati
▁Eleven
roph
▁infections
tional
▁pulmonary
▁concomitant
openia
▁elimin
▁Subjec
▁atherosclerotic
▁advan
▁chec
kely
tion
▁kinase
▁elimination
▁Leu
aturation
▁nondiabetic
oidal
enal
otrexate
▁demonstrates
xime
▁markers
establ
▁pla
edema
▁testosterone
▁abnormalities
▁hyperp
▁analyses
▁commerc
economic
urea
▁postoperatively
bly
▁carcin
▁coronary
▁reactive
▁PCR
cribed
▁Likewise
▁folate
cine
