▁hydroly
titution
▁selective
isal
▁280
▁65
▁provid
keletal
▁luteinizing
▁reliably
idine
▁4.7
ayers
▁biological
operatively
▁prednisolone
entified
▁fric
▁68%
▁suicide
▁doubling
▁diz
idney
erally
ameter
▁unfractionated
▁postprandial
ococcal
▁Fifty
▁deter
▁paired
▁adenomas
▁euthyroid
RD
▁schiz
otent
▁excre
79
▁relie
natal
▁malignancy
fetoprotein
▁exten
▁nicot
oung
▁Bec
▁sediment
lamydia
▁triceps
▁thereafter
osacral
▁weighted
erad
▁21.
▁thromboemb
▁lymph
IU
▁unpredictable
▁regurg
▁isoniazid
▁cosmetic
▁developmental
▁persistently
iclovir
▁laparoscopy
odies
epines
▁1200
▁aggressive
diagnosed
moking
asone
▁incid
▁Prospective
▁ultras
olones
pran
▁94%
▁hyperplasia
▁preven
▁vasoconstric
▁contributing
essation
ometh
▁kinase
▁thrombo
1.
ximum
450
▁Hear
acquired
▁estrogens
obl
▁0.00
tained
clinical
amole
▁arterial
▁tumors
▁1
ymptom
induc
▁0.9%
▁acquisition
onography
▁derm
▁absorp
▁1.4%
orbent
▁challenges
tious
▁functionally
▁specificity
gm
▁5%.
▁probe
▁synthesized
loride
icillin
fine
5%,
/1000
▁panic
▁superf
▁therapies
▁undetermined
▁inhal
25
-2.5
roscopically
▁cere
▁7.6
▁increas
▁0.65
22,
iated
9),
amuscular
-4.
roxicam
vedilol
▁surveyed
95
▁diuretic
▁chor
▁(47
▁50,
▁propranolol
41
▁exceptionally
meth
▁shorten
▁assessing
▁nonspecific
▁exce
olesterol
5;
▁latex
▁Tes
biotic
▁Acet
odic
▁cranial
▁Estimates
▁nebul
erating
sA
▁-15
▁lutein
▁insurance
inoc
▁Infants
61
▁hormone
▁1.00
▁dehydration
▁HIV
▁detrimental
▁parathyroid
tors
▁interc
▁enroll
▁arousal
▁WHO
venous
entif
▁18%
▁99%
▁amphetamine
▁psychomotor
▁Conventional
▁93%
▁diabetic
▁crossover
▁conjunction
▁(15%)
▁4;
▁edema
▁genital
▁promin
▁(10
▁exhibiting
2]
▁ey
▁NP
▁altered
▁immun
onine
▁0.58
7%
amet
▁differed
carbohydrate
▁infection
▁diversity
▁fulf
usive
utin
inely
cyte
▁2.3
▁determining
▁(5.0
▁precursors
cemia
thma
bacco
▁intra
▁FD
itidine
▁transmitted
▁homogeneity
IgM
▁investigators
▁allergens
▁demonstrable
-96
▁pim
▁analges
▁10.2
▁renders
acycl
▁skeletal
ionine
vaccin
▁hepatotoxic
▁pathologic
onide
▁routinely
▁Exercise
▁lacked
▁antipsych
▁sensitivities
enteric
▁indoor
▁strategies
tance
▁statistically
omyces
▁zinc
▁excluded
▁gonococcal
▁vascular
▁restric
timal
▁hep
Cu
▁infected
▁contraception
▁bacteremia
rachial
200
▁pharmacists
▁Combination
▁69%
▁0.9
▁transthoracic
▁Cycl
▁wound
▁maternal
▁perit
▁5,
▁normotensive
ocar
lamp
▁5%,
-20%
▁beats
▁thromboembolic
▁awareness
00,
▁elicits
organic
arbox
▁57
▁psoriasis
reactivity
itoring
▁(78%)
odular
retro
▁virtually
roat
ogenous
▁lumbosacral
romised
▁aerobic
▁9,
14
▁saturation
▁direc
tract
▁12,
roxen
▁rup
▁relaxation
encephal
osamine
illion
2%
▁qualitative
▁Physical
▁atrial
itus
▁abnormally
▁lactation
▁classifications
epam
tracted
▁inadequ
▁veins
▁tension
tention
ologic
▁25-
▁bleeding
▁46%
▁MIC
-6.
▁paradox
alb
94
odium
000.
▁BMI
▁COPD
galy
onit
▁fracture
▁Caucas
▁aberrant
oreal
tact
tured
opian
▁counseling
▁focal
athyroid
.9
▁nausea
ectom
formin
exercise
ially
idity
arbonate
▁(1).
▁teen
▁differe
acids
sives
▁66
▁serolog
▁alanine
osage
▁tolerated
▁5.
▁117
▁contiguous
▁reactions
olus
/7
ominant
ept
▁smo
indolol
▁positively
tivities
▁freeze
▁intub
▁275
▁tet
tisol
oscop
▁rebound
seven
▁9.9
▁bioavailability
icides
ifornia
ypro
▁Prel
▁Intr
cysteine
econd
▁electromy
▁233
▁physicians
▁favorable
▁(68%)
onin
▁blockers
itin
tussis
86
▁indefinite
▁209
▁injec
uccess
▁8.8
odine
▁Abnormal
▁albuminuria
▁hypokalemia
▁retrospectively
▁carbohydrate
▁jaund
jac
ulin
70
strual
▁sclerotherapy
tic
rox
icated
▁biphasic
▁visualization
spar
proven
▁contraceptives
▁prostatic
▁stu
exc
▁unrelated
adone
▁tetrac
ailure
▁postnatally
oprost
▁relapses
▁harmful
▁amitriptyline
coh
12
▁congestion
▁contex
-1
▁tape
opause
▁58%
65
▁titration
Rs
hypertensive
asic
▁defec
PEG
orough
▁outlet
▁hairy
▁alcoholic
achnoid
ylon
▁40-
▁aerosolized
▁accid
▁Transi
▁Initi
▁symptomatology
erebral
▁unchanged
▁secretagogues
▁investigated
agonist
▁apne
▁infancy
▁(3%)
▁3.5
▁conductance
ulose
▁hysterectomy
▁nylon
▁atrophy
▁Exc
▁evid
▁optimum
▁fulminant
▁Subjec
▁0.78
onset
▁intermittent
▁0.4%
iron
▁5.6
lycer
▁allergic
▁offspring
▁1.5
▁hepatotoxicity
▁pharmacy
▁anxio
▁0.50
▁249
CHD
▁sheath
otyp
▁creatine
▁clindamycin
▁8.6
ductive
rography
▁systemic
9.
casein
IH
▁GA
▁arrhythmia
▁dose
▁fulmin
▁thrombocyt
lives
▁bronchitis
▁propensity
▁reass
reased
▁nicotine
▁8.
osin
▁HLA
ller
▁tomography
erence
▁ADA
lyce
▁anomaly
▁disadvantage
enteritis
53
avir
▁reinforce
▁emo
▁clinics
▁positioning
▁10%.
▁regimen
▁kinases
alc
▁circumference
6,
▁polycystic
▁crom
▁abdomen
▁DS
▁secrete
deficient
▁predictors
▁mec
▁surgically
increased
▁femoral
▁puncture
▁categorized
▁chemicals
blocker
▁simplex
▁Whereas
▁progesterone
usate
pirin
ticle
▁71
▁4-5
▁(62%)
▁establ
▁orthostatic
▁discriminant
▁36
ulsive
▁0.3
▁surf
uble
anad
▁herni
▁staging
▁fractions
▁Subjects
▁treating
▁resting
▁bactere
▁initiated
▁8.4
acchar
albuminuria
▁exercising
▁Epid
ults
-400
ocalization
tents
▁latency
▁influenza
otonic
reement
▁Doses
HF
▁sugges
tus
▁nitrogen
▁concurrently
▁vesicles
▁sple
▁discon
ovirus
2%)
▁5.3
LISA
▁stimulant
itively
▁covari
▁Evidence
▁dehyd
▁suppressed
▁indi
crip
▁11-
vail
ifferen
▁graded
▁dyspnea
▁45%
▁chloride
iant
17,
▁30.
▁suggestive
▁Thirty
-2)
▁glucosamine
▁serotoninergic
ochrom
1.1
▁disturbance
onephritis
▁CHF
▁206
▁quinolones
▁muscul
▁rats
11.
-19
▁albumin
▁Oste
▁ibuprofen
66
▁contraceptive
hea
▁48-
▁alcoh
ocon
▁viruses
▁ovarian
▁inflammation
▁embry
▁diagnosis
▁0.70
▁tibial
prising
▁HSV
▁Screening
▁40%
▁(32%)
▁-4
BM
▁fungus
▁augmenting
▁51
imazole
▁psychiat
ulitis
phosphon
sor
▁Invent
▁diagnoses
▁therapy
▁42%
SMR
▁quantified
▁hypertrophy
▁physiological
▁sampled
▁cardiac
▁enrolled
acrine
▁proportions
▁71%
▁presenting
▁limb
▁bypass
osus
bic
3).
00
rometry
tative
▁monitored
aerobic
eclampsia
▁14,
5),
ardia
titute
EMG
▁Secondary
▁4.2
significant
tia
▁ranged
▁experimentally
dL
▁endoscopically
affec
▁Finnish
▁SG
othal
ecal
▁alp
▁perox
severe
▁8.3
▁resolving
retion
▁asthmatic
zation
▁premature
▁(58%)
estern
▁32
orac
ositive
▁Veter
amisole
ovarian
▁bolus
ochrome
▁Criteria
ocor
▁Significant
▁carvedilol
aturated
▁Lyme
▁reviewed
▁carp
lodipine
▁Magnetic
▁examin
infection
▁liver
BP
▁predis
▁beha
-1).
▁Viral
-20
▁phosphate
oppler
▁gum
▁kits
▁responded
▁15.8
:1
▁nif
▁1000
▁adop
▁1.2%
tle
▁cystic
▁4000
▁morphine
4]
▁10.5
▁ischemia
▁adip
were
▁64
▁hepatic
▁limiting
▁effusion
▁expectancy
▁Feeding
yel
▁secretagog
▁(19
▁PEG
▁17%
▁accidents
▁(82
▁VV
▁UTI
▁physician
sych
▁0.97
▁(12.5
▁150,
▁(38
rief
alsy
ecia
▁somatic
▁ECGs
83
▁Highly
lyl
▁dental
▁adulthood
▁nitro
▁DMP
▁recipients
▁218
▁clind
▁outbreak
embran
▁122
▁oxy
▁myc
onary
▁menstrual
▁clu
▁ect
▁electroly
ercise
▁1989
menopausal
▁heterosexual
imethyl
▁transient
opathological
▁nitroglycerin
ungal
▁0.04
tening
8%)
▁urgent
▁rhythm
risk
actin
▁(4
▁6.5
disc
▁8.0
▁meal
▁subcutaneous
entric
opathic
▁75-
▁valpro
▁150-
▁2.5-
ertion
▁30%
▁occl
▁helical
vular
muscle
throm
▁nip
▁prophyl
▁reveals
▁CB
loro
▁answ
▁horm
▁ward
▁Calc
▁assay
amus
▁androgen
LH
▁necrotizing
▁eryth
▁nonp
▁3.3
LDL
valvular
vating
azepine
atosis
lym
▁1.25
ergic
▁prematurity
▁cran
▁(2%)
▁histopath
inesterase
▁cerv
▁75
▁needle
▁imaging
▁immunos
tential
▁amniotic
▁9.5
▁heparin
▁pneumoniae
▁inducing
/8
▁absorpti
amine
▁protective
▁elec
▁55-
▁exacerb
▁compromise
tituted
▁assessments
isolated
96
▁enlarged
▁eradic
▁flour
cents
▁interacted
tran
-52
deficiency
▁sulfoxide
▁dermatitis
▁conservative
▁symp
eptic
▁Dip
▁volunteer
-2.0
retic
eeding
▁aspir
▁practitioner
▁placebo
▁iso
▁socioeconomic
▁119
▁Streptococcus
▁meaningful
▁restenosis
7,
▁carcinomas
▁antid
▁seroton
▁hydrocortisone
tenti
▁Hypertension
▁candidiasis
omotor
▁60%.
ographically
▁facial
▁inappropriate
ludes
▁217
▁tobacco
protein
▁3%
▁hemoglobin
▁temperatures
▁82
▁isolates
onor
98
▁800
▁succes
arachnoid
▁analgesics
▁modeling
▁indo
▁transfusion
▁screened
▁BM
uresis
13
▁0.91
▁moderate
tinu
acet
▁physici
▁expense
▁improving
eptide
tual
umbers
▁inducer
ficial
jun
▁perinatal
▁airway
obal
5%),
▁43,
▁buc
▁AFP
▁traction
▁repl
▁RAS
▁occupational
▁polyp
▁hypothe
xone
▁9.0
▁Individual
▁(72
essive
▁neurologic
ethyl
▁90.
▁discom
▁tes
abd
48
▁6
▁3;
▁therap
▁Addition
▁plaques
urate
ignant
▁deem
▁sepsis
▁0.6
weekly
▁estrogen
▁0.82
tin
anine
▁110
▁24,
▁GER
seud
inol
▁proton
▁mild
▁HA
6;
▁gestation
900
▁ester
▁vaccin
▁14%
▁stab
▁(18%)
titutes
▁regained
82
-6,
produc
igl
▁220
atrop
▁0.05
abies
/1
▁conduc
▁conges
▁Forty
▁pump
ocomial
ulous
umbar
▁21,
uates
▁elic
▁insoluble
yclic
▁200,
tional
tively
▁Diagn
feeding
invasive
atally
▁Comparing
0%.
oxyl
▁(26
▁presentations
▁carbamazepine
▁psoriatic
▁awak
▁multiv
▁progres
ociated
▁balanced
▁biopsies
▁polys
▁introducing
▁6%,
▁81
siveness
▁ceftriaxone
SBP
ectable
▁Breast
▁antiarrhythmic
eptin
6%)
▁ICU
▁placenta
▁rhinitis
BMI
▁modalities
▁quinacrine
retin
▁assis
▁241
azoline
pharmac
enyl
▁DVT
imodipine
▁162
▁Injury
bladder
▁exis
▁progestin
50
▁0.41
▁bouts
stro
▁standardized
early
▁0.24
upus
▁10.0
▁modestly
▁50-
tur
▁FT
▁Bacterial
▁shor
▁87
▁sorbitol
▁0.56
aid
vaccinated
▁177
▁terat
1:
sparing
▁quanti
▁immunotherapy
ressing
▁13%
▁radiographic
idase
▁chlorhexidine
▁17,
▁77%
ithi
rogesterone
▁glycoprotein
▁febrile
amid
▁venti
ylase
▁glyc
▁sleeping
14,
▁ECG
▁26%
▁parity
▁saphen
ocial
▁drain
▁folate
▁suppression
▁pyl
▁interventions
tering
containing
▁bronchoscopy
▁decreased
▁243
opsy
▁concentrate
reactive
ffin
▁demonstrates
▁antibiotics
▁toge
ranolol
▁prescribed
▁clamp
jury
▁pharmacokinetic
4,
▁concer
▁preparations
▁basal
▁(8
oporotic
▁4.5%
▁retin
▁progressed
▁reproducible
▁atypical
▁14-
▁ventil
▁gonorrh
▁spray
▁clot
▁3.6
adine
within
▁88
kine
▁Rating
▁verbal
▁histological
coun
▁tended
▁severity
▁xyl
▁23
▁10.
▁(2
▁(9%)
▁106
▁cerebral
▁esophageal
▁ket
▁fluoride
▁diet
0.5
▁ofloxacin
▁104
▁fibros
▁cefaclor
reases
aminop
▁providers
His
5%).
▁capillary
▁colonization
▁postmortem
-125
ocardial
▁radiologic
.2
▁(15
▁186
▁pharmacokine
▁confirmation
▁ecological
▁clinicians
▁inhaled
▁diuretics
iatic
▁manifestations
▁insufficient
.3.
▁methodological
ronchial
▁2.7
oplasm
▁cholest
zine
▁Positive
▁washout
0.
aturity
▁64%
.6,
▁identically
▁screening
▁39
▁cis
▁10%,
▁subjective
▁outbreaks
▁decade
▁electrolytes
▁adenocarcinoma
▁nodule
azepam
▁adjustment
ysts
▁venous
▁(46
▁ethnic
▁11.
inergic
▁ejac
▁0.86
▁halves
0),
▁twofold
▁8.2
ipr
emide
▁murmur
adequ
▁cystitis
vents
▁227
▁5.0
▁physiology
▁eliminating
▁128
▁arter
▁validated
20
plenic
▁postinjection
▁lesion
spective
cellular
▁Atrial
▁poorer
▁(0.5
iagn
▁breaths
▁sonographic
▁dramatic
▁ovulation
flammatory
▁seb
aturia
sue
▁dihyd
amycin
DNA
ucl
▁chronic
ophen
0.3
▁(95%
5%)
occal
▁neomycin
esophageal
▁pulmonary
▁decayed
amous
determined
▁wards
▁Neither
rofen
▁22)
▁76%
▁(1.9
▁hypothesize
▁arth
▁deox
upuncture
▁1.75
▁insertion
▁trend
▁fasting
▁analgesic
▁evac
▁extracts
▁interpretations
▁bacteria
▁stres
ardized
ocusing
orated
▁77
▁5.4
ionate
▁continuation
▁definitive
▁spor
uitable
amphenicol
gic
▁(150
▁varicella
▁Caucasians
lep
▁adequ
▁Subsequent
▁(71%)
ffeine
▁anticoagulant
▁heterozygous
4%
erable
▁visits
rologic
oprostol
▁Reduction
▁centers
nine
▁manipulation
▁(3
▁corticosteroid
▁preschool
▁suspicion
WB
pirone
▁(45
gus
▁decreases
▁hypertension
▁undere
▁colic
▁gastric
▁reproductive
▁hyperg
▁Extr
▁threefold
▁70
▁tymp
▁BV
▁15,
vation
▁cephal
▁pressures
▁enalapril
▁descriptive
▁fetus
▁surgeon
929
lovir
deriv
▁cyst
▁fluoxetine
▁hypogonad
▁conclusive
▁potassium
▁thirds
oporosis
▁fecal
owever
difference
partic
▁PP
ilateral
▁mammography
88
▁normalized
gely
vated
/30
▁methionine
▁couples
▁anticholinergic
2),
▁adren
thmatic
▁0
RR
▁fatigue
hion
▁83%
30,
▁Swed
▁Surgical
pli
▁algor
▁deoxyrib
romy
cg
▁37
▁-0.7
/9
▁hig
tiveness
▁anticoag
▁gland
hemat
▁evaluations
▁succin
▁tetracycline
razolam
oxif
▁acutely
plete
▁foods
-2
▁(3),
pir
pecific
▁PMS
▁attitudes
-36
athered
▁uteri
▁abscess
▁promp
otre
▁vaccinated
allium
▁refr
aginal
matic
eliac
ervations
▁radiography
▁osteoporosis
responders
asting
▁duodenal
economic
▁glycemic
ulence
▁0.20
Ga
greater
▁spon
▁189
▁hydrox
prandial
▁triad
amination
▁methotrexate
▁hypothal
▁volunteers
▁poisoning
▁prevalence
▁triglycerides
▁antagonist
▁microscop
Ly
▁achieving
▁labial
osal
usively
▁controversy
▁1960
hydr
▁neurop
12-
▁capsaicin
-18
▁tow
olic
▁neuropsych
aired
▁11%
▁enteric
atab
▁PCO
▁MRI
▁sequenced
▁ulnar
osteroids
▁stimul
▁15.
timulus
▁spontaneous
▁52%
▁10,000
▁(20%
38
▁saliv
▁aureus
mediately
▁pharmac
urgery
▁bism
▁painful
▁plantar
▁2.4%
4),
▁Urine
▁0.8%
▁(63%)
▁wake
▁TC
hig
eight
▁Replacement
▁Assessment
ographies
ucle
tif
venty
1).
ication
duced
▁0.60
▁substanti
▁oximetry
▁Hyd
▁evaluates
▁caries
abdominal
tronic
▁fibrosis
▁chemically
uric
▁ultrason
▁Weight
▁elbow
tensives
▁characterized
▁-3
▁80%,
▁(92
fraction
▁poorly
▁29
▁correlating
otting
▁leukocyte
▁Arter
▁malignant
ulcer
ologists
▁173
▁enl
▁pem
meas
▁ELISA
▁(2.5
▁theore
molar
orrh
▁chol
anate
77
▁approx
▁antibodies
▁injur
ylated
itol
▁sulfate
▁postmenopausal
43
▁nadir
▁212
19
▁111
ofib
▁35-
▁insulin
▁1,
▁inhibitor
▁LD
osterone
ometers
▁palp
▁cortisol
illin
0/
▁audit
▁thrombotic
ranial
▁admissions
▁Hib
▁0.54
scherichia
ventional
▁malign
▁120
▁supportive
▁allergen
oglobulin
▁unexplained
▁neoplasm
▁1.8
▁aspiration
▁rhin
ilol
▁5.7
achial
▁superficial
▁abor
▁elderly
otoxicity
▁nonsur
▁demands
▁1.5%
▁mann
▁asymptomatic
▁sustained
astolic
tene
▁10.4
-4
▁Hb
▁spleens
▁1991
▁solitary
▁nons
▁hyponatremia
medicated
esic
▁antagonists
fusion
sul
▁normalization
▁ureter
10,
▁instruc
criptions
▁contractions
ostatic
-15
▁pretreated
▁plasma
▁Specificity
▁(27
Ls
▁fertility
▁consultation
▁0.06
mend
▁reflec
▁autoimmune
▁hemorrhage
▁Nutrition
▁tablet
-7
▁levodopa
▁4.
▁EG
30
RF
orrhea
▁2
▁spas
▁anaerobic
poor
▁recurrences
-40%
azin
▁leukocytosis
▁objec
14)
▁Eff
▁untreated
0.9
▁vitamins
▁80%.
▁contracep
▁bup
▁streptococci
angl
creatinine
portant
▁90%.
▁cryp
habil
▁receptors
▁furosemide
olism
▁morbidity
▁cardiovascular
dial
itrate
2)
▁controver
faction
Bs
tation
potential
chool
odiaz
daily
44,
apride
jec
ometrial
▁Statistical
▁supplements
acin
idis
800
▁achievement
▁tightly
▁abl
▁0.18
lox
▁Interestingly
▁immunogenic
▁Estrogen
▁0.81
oxetine
▁hematuria
oglobin
▁dehydrated
28
▁sugars
erative
▁cavity
▁Prac
▁expectations
▁clonidine
▁depressive
ectin
▁35%
92
▁masked
▁intrav
▁mood
▁113
▁actin
tib
▁smear
▁insufficiency
▁interfer
odop
▁artery
▁-6
▁immunocomp
▁cuff
▁orthoped
xia
▁tube
▁1969
▁singlet
atrial
▁percentile
ophag
▁scalp
▁152
▁ipratropium
▁Compared
▁rheumatoid
▁abduc
▁prevention
▁reproduc
gestin
▁Factor
▁137
▁implicated
▁markedly
-0
▁Alz
▁hydrolys
icient
0.2
▁curriculum
▁involvement
▁NSAID
▁scre
▁Afric
▁estradiol
kers
istar
▁bone
imentation
opausal
▁medically
▁2.5,
▁illnesses
▁cruc
carotene
sions
▁confers
▁118
▁Haemophilus
▁oral
▁13,
▁205
▁molecule
▁describ
uncture
yrox
butamol
▁erythema
▁demonstrating
▁14%,
tigu
▁Sodium
▁argues
▁yielding
placebo
MH
▁168
▁compares
▁Dop
▁lesions
▁0.8
▁polyc
▁0.22
epti
ipolar
▁dye
▁reveal
▁carbonic
▁parat
▁1.1
▁surrog
▁produc
enzyme
▁MH
teroid
otypes
▁benzo
▁cardio
▁paroxysmal
ocellular
▁endocrin
duce
▁appetite
▁professionals
▁antenatal
76
▁84%
▁nontoxic
ffec
glycer
dil
▁monotherapy
▁(16
▁(1
▁Abnormalities
phosph
▁impairs
▁oxygenation
▁lidocaine
▁stain
▁4.0
▁viral
▁metastatic
▁crucial
▁angi
toc
11
▁insom
emin
placement
▁augmentation
▁inhibit
▁20%,
▁neurotrans
▁pregn
0%)
▁eligible
tron
▁incompletely
3%)
▁requi
▁latent
hydropyridine
▁intact
(6
etent
indings
yzed
▁nocturnal
▁ascertain
▁magnesium
▁angio
omes
▁deoxy
▁0.30
▁naproxen
onstric
55
▁Medicare
▁soy
lobin
ytes
▁131
▁antis
amphetamine
▁TCA
▁induce
▁lacking
▁workplace
▁49,
fib
▁Thy
▁multis
▁0.11
▁59%
hist
/6
ophren
-79
▁2.2
▁(50%
▁buspirone
▁ranging
orbid
▁deaths
▁0.99
fat
▁55
▁agglutination
▁gonadotrophin
enec
▁abstinence
ipine
▁cerebro
-2.
▁shortened
▁intestinal
▁sour
osclerosis
9)
▁cultures
iph
▁declined
▁63
-88
itamin
▁organic
tine
entical
▁yielded
glycerin
iazide
lys
▁splenectomy
▁appendic
▁350
▁hyperthyroidism
▁measurable
▁(94
▁Depression
erum
▁fiber
▁torsion
sulf
▁Sleep
orts
▁sickness
lysis
▁avoidance
ressed
ifedipine
▁prescribing
parathyroidism
▁lasting
▁2.4
▁mU
ticularly
ycin
▁ductus
▁attenuation
▁erosion
oconstric
▁0.0
▁agonists
▁89
salt
▁ligation
mature
▁TSH
▁adjus
▁43
-25
▁cyclosporine
▁possi
▁alcoholics
▁hairs
-50%
▁(49
▁1)
▁46
umented
-]
cholesterol
▁herpes
▁hospitalization
▁32%
.0%
▁sedation
oride
▁Fib
▁39%
trast
▁308
xate
▁sput
▁cancers
▁3,
ections
500
▁pancre
ophy
▁differentiated
cture
▁prednis
▁Epidemi
▁splenic
5)
otriene
ituit
▁vaccine
▁equivocal
▁amputation
▁dys
▁hypotonic
▁12.5
▁chemotherapy
atients
opharynx
phine
3)
ausea
7,000
▁childhood
▁dosages
▁satis
▁(3)
romal
bran
▁(16%)
▁expressing
cycl
▁Sixteen
plied
anding
iotic
▁Failure
▁-1
dition
▁placement
acil
ortic
▁Nons
notic
▁rele
103
eclamp
▁spont
▁7,
chol
▁urinary
▁angiotensin
generation
90
▁obese
▁LV
0).
▁0.7
yocardial
ignific
opramide
▁quadrup
irone
▁perc
▁thir
▁postural
▁Thyroid
▁estimating
▁prol
18
▁osm
▁dimethyl
▁gradual
▁Ventricular
▁hered
▁polymyxin
eled
plants
▁adhesive
3-
▁Injection
▁eccentric
▁(22
▁wk
drug
▁Angiotensin
▁elemental
▁synovial
▁PG
▁embolism
▁functioning
ureth
▁susceptibility
▁donors
▁5)
▁gluc
▁PH
▁Increas
▁acros
▁Tests
azole
-60
olamine
umetanide
▁consumed
▁aids
▁seated
▁Chlamydia
esting
▁urea
apamil
▁relapse
84
idated
▁derangement
▁hypocalcemia
▁paternal
respon
▁excessive
▁Levels
▁Complications
▁retur
▁0.2
▁bronchodilator
▁70-
▁20.
onatal
▁0.33
promoting
▁172
▁chlamydial
▁antich
▁1.06
▁decreas
▁underg
▁Candida
rates
▁cohort
IgA
ilin
▁neuropathy
-70%
▁14
tum
uppression
▁efficacious
▁Assess
▁vigorous
tice
▁10.7
actam
60
▁concentrated
▁Eleven
mortem
▁carcin
mong
▁(39
▁codeine
robial
▁hypers
strain
gents
▁13.
1-
▁androgenic
trum
▁41%
ducts
-1000
rein
ymptomatic
▁72%
▁mice
▁discontinued
▁Tissue
▁toxicity
▁complication
▁105
▁seropositive
bumin
▁21
▁beliefs
▁disorder
▁293
yclo
omn
▁infections
▁disorders
leuk
loid
AH
▁prodrug
▁(1.5
▁blacks
cys
▁thickness
▁89%
▁carcinoma
▁Nit
▁15-
▁deficiency
▁(33
▁Escherichia
▁40%.
▁142
▁12.5%
▁smokers
▁neph
trimester
▁filtration
▁estrogenic
▁pulmon
ayed
▁acet
▁anhydr
ctive
ypass
▁guinea
▁comparative
▁exclusion
▁109
▁1986.
18)
▁eti
▁glycol
aryng
▁diarrh
▁aspartate
ilization
▁phenyl
▁hemorrh
adm
▁cigarette
▁0.01
▁radiograph
▁neon
sively
▁cann
▁0.72
quine
▁Insulin
▁obesity
▁surgeons
▁Stress
-6
▁NSAIDs
▁desaturation
▁10%
hers
isters
▁monthly
roin
▁vesicle
▁ascer
▁Trial
diagn
▁asthma
▁feeding
▁0.63
exin
▁predictor
▁premenopausal
▁tol
▁multicenter
ithm
▁testosterone
pain
echanical
▁survival
▁(0.4
▁bacteriuria
obac
▁questionnaires
iminary
▁dihydro
▁37%
lowering
▁Maximum
▁transaminase
▁0.57
▁islet
tec
▁impair
▁resection
▁9.
▁sham
2).
▁leukotriene
feren
rals
resis
▁0.95
▁olive
leu
▁decisions
4).
▁backgrounds
ureus
▁nonin
especially
tide
▁TDI
amol
▁allergy
openia
▁dissection
▁respiratory
▁0.67
▁esterase
▁dairy
▁Neurop
adication
▁wee
▁dysp
aryl
▁absorptiometry
▁qualitatively
▁healthy
▁fulfilled
▁peripheral
▁unstable
▁hydrochloride
▁gentamicin
▁perceived
46
▁Subcutaneous
▁transcription
availability
▁3.2
Hg
▁clues
3/
▁9
▁HL
▁immunization
roscopy
educ
tig
thre
▁colonoscopy
▁adverse
▁trimester
tics
ocrine
▁cessation
68
▁conditioning
▁conducting
▁granul
▁kit
▁Preliminary
enters
▁stimulation
drome
▁deviations
▁resear
amethasone
genital
▁100,
sus
▁hyperactivity
▁Combin
acetic
uretics
▁carotid
▁membran
.7%
▁deterior
▁revised
(4
ioid
▁tas
.5.
▁10,
▁prevented
convul
Ni
olerance
trover
▁(300
▁idiopathic
ariate
thyroid
otom
ylene
▁0.4
ospasm
▁Increases
▁prolonged
▁(2),
▁postnatal
▁Recurrent
vely
olol
▁suture
lora
▁OD
went
piratory
▁unsuitable
▁meningitis
▁mEq
▁215
▁stric
▁benz
▁readings
▁limbs
▁18,
▁prevalences
ocytes
aicin
elic
▁(75%)
dip
▁escal
mum
trac
▁juven
▁gonad
atched
ejection
64
▁perception
athiop
▁examinations
▁rupture
▁agonist
▁naf
ognition
oag
otoxic
HDL
▁compressive
▁pancreatitis
▁immunoblot
▁methyl
▁splenomegaly
▁Authors
▁emboli
23
▁flexor
▁medications
ectomy
▁154
▁carbonate
▁perioperative
▁24
▁(1.6
▁1.6-
▁carbohyd
▁sucralfate
▁sedim
alp
▁0.29
▁DCA
▁benzodiazepines
▁ventilator
▁surgery
organisms
▁1986
25)
▁reversing
vaginal
▁microbi
▁mamm
merc
disciplinary
stimulating
▁1985
▁recurred
ococcus
▁ery
▁congestive
▁0.1
inum
▁preeclampsia
▁assessment
▁(0.9
▁coagulation
▁superiority
thromb
▁testicular
iasis
▁GE
▁1970
iline
▁glands
antibodies
▁enlargement
tensive
7.
▁nonc
etaz
(5
rosy
▁0.84
unar
15
arrhy
110
▁stepwise
▁50%,
▁unrecognized
-34
aternal
90)
oscopic
eration
▁255
▁neuroleptic
▁splen
▁calcified
ophys
-5.
▁efficacy
▁knee
▁analyses
obronchial
▁paral
estis
fiber
hydrox
▁attemp
▁ingestion
▁preexisting
▁intense
▁Statistically
tures
▁unin
▁enlarge
▁alumin
91
▁occult
GD
▁adversely
▁underst
anide
▁27,
▁87%
▁tooth
▁wash
naud
CRP
▁choline
▁40,000
▁PGA
dose
▁hospitals
atical
ereb
▁40.
▁0.76
8-
▁agon
teral
▁ipr
farin
▁Sixty
▁mast
▁obstruction
▁(90%)
chlor
▁prednisone
▁270
▁107
▁(1.3
7),
▁stratified
respective
▁11.5
crib
atoid
▁cooling
oconazole
▁adults
being
▁proce
▁savings
AFP
▁bronchodil
▁scientif
roma
onvul
▁atten
▁statis
▁recordings
▁sampl
arms
▁modeled
ipit
▁dermat
▁biased
▁acces
tory
particularly
oxin
▁metoclopramide
▁weakly
▁unresponsive
▁achie
matched
reast
▁CAH
▁145
dural
▁revascular
hydro
▁posttreatment
▁lipids
▁confound
▁sedative
olig
ctomy
▁tissue
▁97%
▁Retrospective
▁wounds
▁remission
vus
▁Progesterone
▁percutaneous
▁(80
▁subf
▁0.55
▁syphilis
anin
ochem
▁uro
▁27%
▁ligament
▁perfusion
▁1.16
▁encompassing
▁grain
tility
▁anxiolytic
ensitive
▁(18
▁340
▁consecu
ogens
ohns
ovastatin
ventilation
▁0.52
ontal
omies
▁ambulatory
▁13.3
▁6.9
▁2.9
▁dosage
▁constr
▁warfarin
▁nonf
▁colorectal
▁hospitalized
troduction
▁Measure
▁Comparative
enal
plasty
9%
▁33%
▁18
CAM
▁(31%)
▁osteoarthritis
▁sodium
oskeletal
▁ank
tam
ropath
▁genetic
▁doses
▁cream
▁musculoskeletal
▁diastolic
▁155
▁SPF
▁proximal
▁700
tive
▁injected
osid
▁enrol
▁BCG
▁residual
▁ib
▁92%
▁specificities
▁(5%)
tency
▁sputum
▁normo
▁resc
▁mmol
▁oils
▁RR
gressive
▁(50
▁idi
▁2.0
▁17-
▁199
azone
▁institutional
6%
1,
arrh
idate
▁3.1
▁consciousness
▁69
ologically
▁0.71
▁horiz
▁junction
idespread
▁cros
▁TD
▁(11
▁posi
3,
▁60
▁anteced
▁(93
▁comprised
▁discomfort
▁Risk
▁blocker
centr
▁benzyl
aemic
kelihood
▁precordial
▁exposure
▁30-
▁nutrition
motor
▁employment
oxine
▁chec
▁testis
▁hepat
oratory
▁behavi
▁isch
▁contradictory
▁Successful
▁Computed
▁autosomal
▁adhered
▁loos
▁respon
▁accep
12.
▁dox
cinolone
.00
▁cholinesterase
▁sulfonyl
▁dosing
▁gradi
▁additionally
repres
▁49
uris
floxacin
0-
▁factorial
▁tic
lusion
formations
▁1980
▁prostaglandin
yridine
▁Recent
▁responsive
adjusted
nons
▁impaired
▁elevating
ocarcinoma
admill
.6%
▁progest
itary
▁24)
73
(2
▁CRP
illary
▁confounding
-24
▁(67
▁heavier
▁440
▁tendon
osteroid
▁progressive
▁evacuation
imeth
osomal
ongest
▁Seventeen
▁compositions
▁glucocorticoid
▁(4-
▁91%
▁fixation
▁1.7%
▁0.02
▁reac
▁pigment
▁effec
▁chest
▁Survival
opamine
▁prolactin
▁22
.1
▁Cancer
▁exaggerated
▁ABR
arrhythmic
imens
ipid
assium
▁adolescent
▁subjec
▁doubled
▁nipple
140
▁56
rogen
▁expec
▁histology
▁scl
▁amph
ergen
treated
▁stringent
▁salivary
▁antioxid
▁gestational
▁HS
vival
▁managing
turb
▁excision
▁fluor
▁0.03
icine
▁48%
▁emotional
▁recruited
▁0.43
plasia
troph
▁11
▁7.9
acterial
tage
▁5
ostic
▁bic
▁chlor
▁sulf
▁multin
▁rated
▁tiss
▁Reduc
322
iparous
▁targeted
▁hypog
▁30%.
▁infusion
▁azathioprine
▁intraven
aceous
▁166
achn
▁influenzae
▁13-
rati
▁undergone
▁VA
▁steroids
▁dipyridamole
▁trends
sies
▁prognostic
inemia
▁19%
▁uterus
cortisone
▁mucosa
▁(36%)
▁pyr
▁heterogene
▁-5
▁emergency
omatosis
▁malignancies
▁contaminated
▁immunized
▁benign
▁Calcium
▁desatur
sive
ternational
▁hypoglycemic
▁respir
▁74%
▁withdrawn
▁INH
▁traumatic
▁cuts
▁neutralizing
otor
athic
600
gol
fatal
tens
pore
ergency
▁discus
▁3.0
tionally
antoin
▁chorionic
▁maintaining
inopril
trates
▁sensitiz
▁deformities
▁lumbar
▁0.07
▁acupuncture
▁0.25%
Ds
▁knees
.8%
motic
▁migraine
▁intensive
▁elastic
0.4
▁intrap
▁certainty
▁83
▁questioned
▁antithrombotic
▁telephone
inyl
▁Alzheimer
▁enhances
oil
leukin
either
oxic
▁0.08
▁echocardiogram
mur
▁immunity
▁coordination
30)
▁ciprofloxacin
-1.2
acental
▁6.
▁ampicillin
▁(1/
45
oes
intensity
▁caffeine
▁sti
▁7-
melan
▁108
irubin
▁enamel
▁pneumon
sensitivity
TG
▁aerosol
farction
▁untrained
effective
▁myopathy
▁favored
▁sutures
oretic
chers
selec
teria
▁presumed
▁pellets
▁(28%)
▁tuber
▁0.69
▁hygi
▁therapeu
▁plasminogen
▁0.88
▁strokes
apse
▁concom
▁exag
▁duoden
▁(44
▁antibiotic
▁formulation
▁amiloride
▁1983
sia
▁disseminated
▁reticulocyte
▁tuberc
▁hyperch
▁0.2%
▁70%
amethoxazole
terol
▁hyperlipid
▁Pregn
psych
▁0.19
▁electr
okine
umulative
Ev
ocyte
▁Nine
▁tremor
▁Phen
▁clinician
400
▁compliance
▁20-
▁exploration
▁affecting
posure
▁controlling
sied
▁undergoing
▁1.9
enh
▁diabetes
ecu
▁pregnancies
▁0.38
molality
-23
▁(88%)
▁oxygen
▁acetyl
▁resonance
▁seronegative
▁fractures
▁8.5
▁incompetence
▁questionnaire
terase
athy
▁infrared
16
otine
▁reduc
▁identifying
▁anemia
▁bathing
▁preoperative
▁tamoxifen
▁Milk
Mu
▁157
▁fumarate
▁hyperthyroid
micro
tions
diabetic
VT
▁duplex
onidine
▁ultr
BH
▁exploratory
usal
▁cytochrome
ensity
▁intramuscular
tense
▁ure
▁pharm
▁salbutamol
tomy
▁116
▁aerob
▁endometrial
▁MRSA
▁cardi
quid
▁hypercal
▁(9
▁outlined
▁pate
erin
oriented
erican
▁dysplasia
rosis
▁rhe
▁nursing
mega
▁ejection
concentration
taz
▁depression
orphine
▁1.05
▁overl
▁(69
-8,
-72
▁angiography
hydration
▁rifampin
▁postoperatively
traumatic
75
opam
ventil
andida
▁oste
RP
▁recurrence
▁16.
▁placental
▁mono
▁uncomplicated
▁Adverse
▁Diagnostic
▁glomerular
▁OB
restricted
▁-0.
▁chewing
▁poten
▁explored
▁calculi
▁2-
elves
PV
▁tach
▁muscle
atient
▁wrist
▁quantif
▁abortion
▁anoxic
▁stimulus
▁neonatal
▁thrombosis
▁attending
▁11,
razole
▁18.
ulum
▁cellul
olone
asal
atectomy
▁whey
▁avoiding
▁ultim
ceptions
ticular
▁vitro
visc
GH
▁Engl
▁exposures
▁immunogenicity
ospitals
▁bladder
▁specialty
▁reinfection
▁clinic
tox
roxic
▁recor
effects
▁awake
120
▁38%
erant
rase
ressive
▁lifestyle
▁gonadotropin
▁intranasal
▁abscesses
blockers
opathy
▁31,
▁30%,
oderm
▁rhabdomy
▁adherence
▁tric
▁quantit
▁complications
▁38
▁mcg
▁biopsy
aryn
oxygen
▁264
▁endoc
▁pneumonia
renal
▁4
▁Suc
icin
▁pneumococcal
ritis
▁cumulative
▁nephropathy
▁60-
▁affinities
tified
▁prognosis
▁IgG
▁unusually
▁complic
▁experim
▁encompass
▁extrap
itone
ophilus
▁(400
-65
tenance
.7
omycin
ochemical
posable
NIDDM
▁(1.2
▁135
▁analgesia
▁Few
endazole
00-
inated
▁0.6%
▁supplementation
tices
baseline
romes
gA
▁unilateral
▁trunk
omethacin
▁4)
▁leakage
viral
iplin
▁transi
▁disability
▁156
apid
▁400
▁1.6%
▁schedules
▁96
▁7%
▁IgA
▁perfor
▁Grade
▁sedimentation
otherapy
▁tolerate
▁meperidine
▁laser
▁constipation
50)
▁9-
97
▁suprac
stin
ferrin
parathyroid
▁(4.0
2;
uded
▁6%
▁4.9
▁epidemi
▁intracranial
▁bony
existing
obenz
▁DBP
itonin
▁90-
ispanic
▁prenatal
thirds
▁introduc
▁650
▁shaft
▁genotype
▁severely
▁elevation
heat
▁inadequate
▁caro
▁predic
▁15
5).
uding
▁triglyceride
orotic
iuria
▁pH
▁256
▁Lact
acted
terin
oluble
oxy
arent
▁calor
mL
rays
▁postin
▁conflicting
tric
▁42
▁(75
monary
▁dopamine
▁lacks
▁acyclovir
▁ate
▁tendons
▁minority
▁relieved
omegaly
▁-0.6
▁throat
▁Coronary
▁anemic
edle
versely
▁casein
botic
▁Americ
▁79%
ospor
▁autoantibody
▁diarrhea
roscop
▁trials
potassium
amic
▁intracerebral
▁nec
▁reversed
▁placent
zyme
▁6.6
89
▁70.
▁sha
versity
PCR
▁hypothetical
ervative
aryngeal
▁plasm
▁initiate
▁structural
▁titr
erent
itro
▁lax
▁1.7
roscopic
▁assays
taining
▁fetuses
PPP
▁pep
)],
▁discontinuation
▁Tran
▁aden
▁cyclospor
atology
▁polyethylene
▁coag
▁psychotherapy
▁suscepti
▁nurses
▁amn
▁causal
inally
▁pyrid
▁gout
acute
▁urine
-2).
.5%
▁ethical
dihyd
-78
▁syndrome
▁arous
▁disturbances
▁Unlike
▁hydrop
▁cutoff
▁HDL
▁160
▁phenotype
▁121
atropium
▁ESR
▁echocardi
▁CAL
tropine
gold
▁suction
:3
▁elective
▁42,
▁invasive
▁antibody
/10
▁stomach
rele
▁structured
roup
▁0.34
▁hydrophilic
▁chronically
▁tubercle
▁hypothalamic
▁(12
▁uniquely
▁skinfold
▁adi
▁vomiting
▁CN
▁0.25
▁bilirubin
▁interf
▁incorporated
hemo
geal
▁confirming
▁neuro
dominal
▁1.4
agic
▁stool
▁outcomes
distal
▁HI
▁1/
▁88%
okinetic
thal
▁infar
▁hypoglycemia
▁biopsied
anat
cancer
▁inversely
▁150
▁penile
▁0.5
▁ablation
▁regulate
▁mening
▁atropine
bacter
▁suspension
ughter
▁substances
▁hypo
▁nondiabetic
▁97
ealand
apsulated
▁likelihood
▁lupus
-22
▁carriers
▁mortality
▁3)
oyl
▁eczema
▁187
tested
▁cen
urred
blind
▁averaged
ureas
▁94
60)
exposed
▁inherent
▁marginally
▁clinically
zard
▁treatments
▁179
▁microvascular
▁unc
▁classified
▁serotypes
thi
lux
0%,
▁melanomas
▁Overall
▁probes
▁Recently
▁irrigation
▁comprising
▁euth
ths
▁40%,
mia
▁canc
▁50%
▁(25%)
▁consul
ingle
▁4.1
8.
▁0.23
▁occlusive
FSH
▁Examination
plication
▁surge
▁tumor
trical
rogenic
▁47%
corrected
▁leuk
oxicillin
▁regimens
requ
regn
amphen
▁consensus
▁implying
▁thyroiditis
▁5.1
▁(79
▁electrodes
▁secreted
▁circulatory
▁specialists
▁lymphadenopathy
enol
▁0.83
▁transit
▁102
▁appropriately
reness
▁elimination
▁amplification
▁suppor
▁17.
opres
▁enteral
▁surveillance
▁glomer
▁assessed
jected
▁nifedipine
▁stent
-5)
gated
nai
▁infants
▁Approximately
▁0.26
▁adjusting
▁Inventory
▁heal
▁acqui
▁Raynaud
▁Significantly
vac
▁alopecia
/20
▁Leu
▁95%
▁amo
otransferase
▁vaginal
▁12-
▁20%.
▁predominant
▁protec
resistant
▁vertebral
administration
▁eradication
▁neonates
▁(1000
▁scanning
▁fever
▁diagnostic
ordial
▁analyzed
ipril
40
▁congenital
▁6.3
▁AO
oprol
aldosterone
▁arrhythmias
tically
blood
aric
oprotein
▁(0.6
1%)
apanese
▁resul
iloride
iteal
22
▁Thir
▁pertussis
▁divertic
▁longitudinal
▁dysfunction
▁ramipril
▁logistic
▁lipoprotein
▁exclusively
▁pell
▁CIN
▁indications
▁(1.0
▁73
▁Ultras
▁1991.
Gl
▁0.61
▁thrombus
9).
-35
6).
▁0%,
▁sexually
▁Increasing
▁resis
▁mothers
zymes
▁750
stim
▁corticosteroids
▁bacter
▁anatomic
▁Concentrations
oidal
▁hygiene
coronary
▁Delayed
▁angina
gesterone
▁Extensive
▁IgM
▁aqueous
▁trauma
▁(3.8
idating
▁LM
orpor
▁PEF
▁retention
▁fati
oplasty
▁90
0)
▁raises
tism
59
▁acidic
▁98
thyl
▁0.15
thrombotic
▁triam
uin
▁vegetable
▁critically
▁0.1,
▁paren
▁epidural
▁Nineteen
▁detects
▁outpatients
▁serologically
▁conservatively
▁couns
▁0.51
examin
▁continuously
▁illness
▁bacterial
▁54
▁cortisone
▁68
▁reactivity
otassium
▁previ
▁initiation
▁randomization
▁enti
▁eliminated
▁modif
1/
▁28%
▁mL
FEV
▁voluntary
osol
▁78%
▁thromboembolism
▁Smoking
ervical
positive
methyl
▁marginal
▁palsy
ergy
tiguous
▁2.5%
▁attenu
oxid
▁emissions
▁Laser
▁cyclo
ritin
▁70%.
sors
▁standardization
▁bacteri
ophysical
rease
▁trich
adder
57
ulant
▁0.17
▁criterion
ithelial
▁2.8
eprazole
▁46,
trogen
▁electrom
▁cerebrovascular
▁vegetables
terone
idic
3]
▁100%.
surgical
▁cured
▁reser
orption
▁(0.
▁differentiate
▁Impro
▁excretion
responding
.9%)
oretically
▁spirometry
▁nig
▁hyperglycemia
▁hypothyroidism
▁Diabetic
glycoprotein
▁PE
▁40,
ograp
▁fluc
▁traum
▁diazepam
▁influenz
▁14.8
▁gains
sion
▁multic
arate
▁induc
▁aneurysms
▁psychosis
▁82%
▁intrac
▁triglycer
▁neutrophil
▁PLP
urea
▁births
▁luteal
▁fibr
▁metast
ateral
▁strains
▁140
▁62
▁syndromes
▁0.66
ustained
▁mitral
▁Respiratory
▁injuries
▁FE
▁15%
▁12.0
GI
▁Consequently
▁percentages
albumin
oneph
tir
80
nisolone
130
buterol
▁damaging
ignificant
▁incision
▁streptococcal
▁(43
▁grading
ufficient
▁reactive
24,
▁mononucle
lyc
▁microb
▁encephal
▁SPL
▁55%
▁iat
▁elevated
▁80-
▁2/
▁Apgar
▁treadmill
▁infarctions
romycin
▁supr
tate
▁immunoglobulin
rents
▁223
enil
▁hypnotic
ococci
6)
absorption
immun
▁sonography
tiz
-1.1
ocardi
till
▁19
▁BMD
▁incontinence
▁antib
▁establishing
▁grades
yx
▁uter
▁methadone
▁noc
odopa
▁nonselective
ecretory
▁norfloxacin
▁teratogenic
▁CHD
▁tear
▁7
9%)
▁tenderness
/24
▁deposition
▁3
▁7.1
acial
▁0.87
teroids
▁thyroidectomy
▁59
induced
▁16%
cence
▁focuses
asses
▁captopril
▁overt
ronate
▁3000
▁Transient
▁Doppler
▁pancreatic
▁cartil
Gs
idazole
2-
▁favoring
▁hazards
52
▁7.
▁socio
▁omeprazole
▁determination
▁0.94
arean
▁fetal
▁yearly
operative
▁inflamm
athioprine
ziness
▁0.09
24
▁unexpectedly
ffer
▁calcification
▁0.14
▁iatrogenic
▁35
tioned
opar
▁84
▁transferrin
▁peritoneal
azol
iotics
▁reasonably
▁decarboxylase
▁granuloma
▁0.98
▁plateau
bac
▁articular
-66
▁judged
▁necro
▁-2
-5
ameters
iaz
▁neutropenia
.6
hop
▁uv
-90
▁experi
▁tubes
▁supra
▁arteri
▁31
▁slowed
▁serological
▁sut
othiaz
▁unil
▁erythromycin
▁drank
▁ultrasound
tyl
▁Certain
▁Registry
▁polysaccharide
▁93
▁curric
adian
▁pleural
▁equivalents
▁9.2
otroph
-600
▁Almost
▁3/
onegative
6-
▁(1.4
▁11.2
▁MCV
ethylene
▁stools
vascular
▁30
▁comparable
▁persisted
▁cytologic
releasing
▁bronchial
▁opioid
▁dorsal
▁inver
phic
esin
sodium
▁80
▁(10%
▁20,
ophilic
▁4.6
32
▁instr
tially
/100
▁tac
illus
-16
▁descriptions
0.00
▁75%,
▁deleterious
isole
articular
▁lisinopril
▁EMA
achol
▁endpoints
▁effectiveness
▁1:
▁VT
▁glucose
▁45
▁sati
▁200
.0,
▁92
▁PCR
▁impairment
▁distorted
utaneous
-12
▁cef
▁termination
tiv
▁67%
▁stratification
▁nutritional
▁adolescents
▁worsened
35
letion
▁competent
ystitis
POA
▁DSM
▁systematically
lected
▁ison
▁UT
▁pylori
plen
density
▁detrusor
-100%
▁Bronch
5,
▁208
▁PV
▁diphen
ogenicity
▁pretreatment
▁bronch
agonists
▁allevi
median
▁(42
▁depres
▁nerve
▁hypotension
.8
▁inflamed
▁8%
▁initiating
thoracic
amn
▁1%
▁absorption
urgical
▁0.59
▁menopause
▁0.1%
▁undetected
▁serum
▁pati
ching
ials
10)
51
▁hir
▁modest
HB
▁recur
▁(4)
perature
tition
▁protr
stant
▁221
omal
31
▁0.48
▁7%,
1]
6),
▁psor
▁ethn
ucose
▁techniqu
▁36%
▁compartment
phor
▁extracorporeal
▁trichloroacetic
havi
▁147
▁51%
▁transc
▁Centers
trin
oracic
▁165
▁irrit
odipine
▁Optimal
▁orally
▁progn
ocyt
▁79
▁44%
orh
▁86
▁propionate
tissue
29
▁3.8
▁12
▁phosph
▁flora
▁supplemented
▁900
%),
▁cyclooxygenase
▁anhydrase
▁53
▁adequately
▁fec
▁0.5%
acr
.5
▁ischemic
▁6-
▁mildly
ystag
2/
▁nonsignificant
uran
sequent
▁hypoxic
▁chlorpromazine
▁tibia
▁inh
tivity
33
osity
▁suspic
▁emerg
hormonal
▁responsiveness
▁7.5
▁Improvement
▁115
ithromycin
▁cylinder
cyst
34
oterol
topril
▁300
49
▁158
▁symptoms
▁drops
▁prescriptions
▁epidemiological
olved
▁mep
▁headaches
▁dexamethasone
▁1987
▁adolescence
▁Individ
▁antec
▁Holter
▁53%
▁gluten
▁condensed
▁administered
luded
controlled
▁identifiable
▁12.
chid
▁chloramphenicol
forming
▁Elevated
traum
▁(89
-8
▁Ace
▁CABG
▁5-
▁failures
▁600
▁ventilation
8]
▁prescription
▁(6
▁predicting
▁satisfactorily
molec
imination
triglycer
effec
▁reas
▁simultaneous
-1.
years
▁11.8
▁hemat
▁synthetic
▁infrequently
queous
LN
valence
▁complaint
chloride
eric
ture
onazole
▁Cardiovascular
▁underwent
▁adap
▁grains
▁cys
▁elevate
▁manifested
▁Estim
etan
▁overweight
▁198
▁spinal
kage
▁glutamic
1%
ceived
cine
▁serogroup
▁strongest
▁192
▁presumably
▁myocardial
▁acids
yses
▁transluminal
▁genit
▁postoperative
▁reflects
sy
▁(7%)
-9
▁heavi
▁100
/12
fractions
tisone
▁phleb
ichia
timate
▁Symptom
▁4-
▁HP
▁maneu
etence
▁anesthesia
▁quin
▁utilizing
orec
▁ascorbic
ritish
0.1
linked
▁Disease
▁recommendations
▁diagnos
▁ori
acid
▁5000
▁positional
odds
▁lith
-7.
Cer
amel
▁waking
▁213
▁ocular
▁deterioration
▁microorganisms
iscal
▁strain
▁maturity
▁sero
iability
▁aluminum
▁Ninety
▁adul
▁193
▁implants
▁75%
▁20
▁78
mented
Fs
▁159
algia
▁Beta
▁discharge
edding
▁bromocriptine
▁warr
▁Clinical
tivation
-0.
tinent
40)
antibody
▁participating
ffinities
▁pathophysiology
▁90%
epine
▁correlates
8,
▁relap
▁restraint
0,
feron
▁metabolism
urys
smokers
▁mg
▁specialist
otox
oxyrib
.3
opic
▁leukotri
▁300-
sess
▁OA
▁coli
▁nonsteroidal
▁coping
▁bladders
▁0.90
acerb
25,
▁nights
-10
▁endarterectomy
▁acetic
tral
▁2%
onam
▁investigator
▁punct
porting
duc
67
▁-0.0
brom
▁distinguishing
▁epid
▁gon
ocin
▁comparisons
▁benzodiazepine
▁musc
elan
▁inpatients
▁variability
attern
▁(100
▁encouraging
echn
▁systolic
▁compounds
▁Treatment
▁cited
▁favorably
lyb
armac
▁cytoch
thickness
▁diminished
▁Functional
21
▁0.75
inating
▁affects
regulation
.9%
fec
▁2.6
▁rigor
▁diets
▁Caucasian
▁brainstem
▁185
▁contamin
icide
▁infec
▁Vitamin
alian
▁defects
converting
▁0.2-
▁39,
▁unselected
TSH
▁subc
▁exhibited
hospital
▁Myocardial
▁perip
otri
▁Likewise
oids
▁cephalosporins
ucas
▁tolerance
▁schizophrenia
▁lact
gesia
▁mite
tent
▁restr
tile
▁0.47
▁thyroxine
ermal
▁11.6
▁100,000
anol
▁summarized
62
aced
▁6.1
vitamin
erance
▁intest
ositi
assessed
neph
lated
▁Fourteen
▁averaging
cepti
5]
▁prophylaxis
▁(40
▁235
▁esophagus
.10
▁112
▁(14
▁jaundice
▁blinded
brile
▁peroxide
▁valve
consuming
▁mineral
▁balloon
▁hypercalcemia
▁extrac
▁ultrasonography
▁62%
▁supple
oxide
▁accounted
▁bipolar
▁22%
10-
▁graft
▁lowered
▁4.3
valine
-70
iol
▁mandatory
▁elevations
▁glucocortic
▁arrhythm
ociation
0.7
ulatory
plemented
ocated
▁diffic
▁rash
ycline
▁celiac
▁0.
individual
ypical
▁5.8
▁tracts
▁fluconazole
patients
▁departments
osyl
,000
▁perforation
▁21%
▁detec
resist
▁ineffective
arity
▁295
ensitivity
▁cyc
entia
erver
ilic
▁bac
gth
▁endo
wk
▁HBsAg
▁pathology
▁motivation
▁infectious
nish
▁modality
▁bumetanide
ischemic
onyl
▁regulation
▁psychological
▁203
▁reflux
urther
▁labeled
▁linearly
▁96%
▁Patients
▁vaccination
▁250
▁diseases
▁183
androgen
▁radionuclide
8%
▁pts
▁hyperlipidemia
cyclic
▁4.4
▁6.2
99
▁Evaluation
▁81%
▁31%
▁20)
tigo
▁adoption
▁characterizes
sectional
amily
unately
▁biop
▁12%,
▁auditory
▁clus
▁146
▁thi
▁hypot
▁57%
▁retardation
▁chl
▁surgical
▁discriminate
▁sensitivity
valent
▁refractory
▁maneuvers
▁grise
adily
▁predictive
▁quotient
8)
▁24-
BT
▁exercises
▁hetero
tein
rated
aminase
"-
▁rigorous
▁41
▁ionized
▁respec
▁parental
olesterolemia
aning
▁analys
▁hemorrhages
▁emesis
▁referral
ropathy
acking
▁satur
▁LDL
SDS
▁titrated
▁encephalopathy
▁practic
▁cutaneous
ectomies
comitant
▁longus
▁fum
▁Meas
▁aggression
xiety
aund
▁obstetr
degree
endix
rocy
▁antimic
onad
ostomy
▁lowering
▁pulsed
▁postpartum
intestinal
▁decline
▁TMP
▁immunosorbent
▁drip
gthen
dyn
▁classify
▁ane
▁nonsmokers
▁3.5%
acked
▁aspirin
▁serology
.2%
▁16,
erge
▁receptive
acts
▁CAD
▁adipocytes
othi
stem
▁smoking
fem
ipro
▁9.7
stress
▁glycer
▁antifungal
oxazole
5%
tally
▁uncontrolled
▁intravenous
▁hypox
estim
▁healing
▁bilateral
▁preparation
astric
minute
adrenergic
roxyprogesterone
roxy
▁hepatocellular
▁glycosyl
▁repor
0%),
▁9%
▁overnight
CAP
▁16
▁imaged
udin
▁considerably
▁carbohydrates
▁antidepressant
▁anticonvulsant
▁preventing
▁antioxidants
clin
izine
flamm
metic
▁yeast
arous
▁examination
itant
▁pronounced
cad
▁Hg
▁measuring
sibly
▁(2.6
▁15%.
▁expiratory
histamine
▁decarbox
▁quoti
▁65%
▁asymmetric
▁micros
56
▁231
▁operative
tration
▁paroxys
▁reflex
enicillin
average
7-
▁injections
▁osteoporotic
▁relaxant
▁bismuth
▁headache
▁gels
ocytopenia
bral
▁arthritis
▁inversion
▁61
▁saturated
eryth
▁(50%)
(1
▁1.5-
▁exagger
ofl
▁dietary
▁challen
vul
.0
▁panc
▁atenolol
▁recr
▁5.5
▁dex
▁26
▁0.46
▁ferrous
▁soluble
▁melan
▁Tiss
iable
▁lipophilic
▁HR
▁excluding
▁radiological
SAID
▁otitis
▁EB
▁reflecting
.4%
▁advan
▁PPD
tinguish
▁targeting
▁blot
▁calories
▁indomethacin
thmic
conduc
▁formulations
▁nonpregnant
▁0.62
▁discontinu
▁permanently
▁Eight
▁fourteen
▁8%,
loxacin
▁theoretically
▁151
urine
▁subclinical
uretic
nec
▁increments
Hyp
▁acetaminophen
▁antim
▁pig
▁congen
▁pound
▁Seventy
▁hydrogen
▁lumb
▁scars
clusive
▁cep
▁microscopic
▁2.8%
duction
▁unipolar
▁individualized
▁incis
▁margins
▁rhy
9,
rolog
▁4.5
▁anomalies
▁344
etine
▁melanoma
▁attainment
▁behavioral
lec
spectrum
oprolol
▁indeterminate
▁ruptured
▁excl
▁suspected
▁prescrib
7;
▁infertile
.3%
▁distress
▁eradicated
▁exacerbations
▁commercially
▁trimethoprim
▁sensi
▁irritant
▁therapeutic
▁emulsion
▁(24
▁(21
▁appendicitis
▁stimulants
▁500
▁124
▁immune
▁viewing
mol
▁ratios
▁80.
elec
▁discharged
▁acetate
▁interviewed
▁61%
▁prospective
▁diagnosing
tant
▁pregnant
▁epidemiologic
▁ranitidine
▁potent
ascular
trained
▁abnormality
▁Findings
▁antigen
▁188
▁confirms
7).
▁systematic
Gy
ortal
▁smears
74
ses
▁(8%)
▁2,
▁abruptly
▁compli
▁familial
▁Combined
hetamine
yroid
ritic
/3
▁construc
▁synthesize
3),
▁differen
lamy
pressing
▁extensor
▁outpatient
▁132
▁identi
ronch
glucosidase
▁dizziness
▁2)
yro
avage
▁FEV
▁swabs
7)
illance
thood
tipation
▁2.1
tial
▁calf
piration
-1.5
orin
odil
5.
▁distal
▁1.
▁(2)
▁Incidence
▁surveys
▁inconclusive
▁milder
▁instrum
Ep
▁topical
▁Therapy
plast
▁recurrent
▁-10
▁preserving
▁optimally
▁hypertro
ighted
oselective
▁numb
▁diabe
▁3.
▁MI
▁usefulness
▁indus
▁bicarbonate
neumon
▁subfractions
▁IVC
▁Protection
hydroxyp
temperature
▁creatinine
▁palpable
inflammatory
72
▁infarct
effectiveness
otype
▁consis
39
TCA
▁athletes
000
▁1990
▁nonresponders
illar
▁pooled
▁symptom
erated
▁inhib
▁(54
▁cephalosporin
/18
▁suppres
unctional
▁abuse
▁onset
▁60%
▁123
▁98%
▁persists
▁aspec
▁serotonergic
▁morb
▁PI
▁syncope
▁(32
reported
▁neutrop
▁antidepress
▁climb
pregnant
adren
▁anomal
▁renin
18,
▁2.3%
▁preval
▁reti
▁plas
▁pediatric
cessive
horm
▁favors
BG
▁(63
▁1.2
▁daytime
responsive
▁CDC
coag
▁chan
▁(30
▁investigations
▁5%
reasing
uscular
-45
ylic
▁annually
▁allele
▁depressed
▁adequate
▁coated
▁practition
▁abnormal
ocys
▁43%
▁(1)
▁supplement
▁HbA
▁lymphocytes
rosemide
tebral
▁encomp
isol
atches
▁renal
▁ulcers
▁overestimated
▁spi
▁carb
▁squamous
▁derange
0%).
10.
ilep
▁identif
▁228
4-
▁Infection
▁kidney
▁6,
▁8.1
ystic
▁pneum
▁admission
▁neurogenic
osom
▁tox
▁enhanced
▁immunocompetent
▁exceeded
0%
▁Mortality
▁TI
▁infarction
-1)
-3
▁nervous
▁RS
▁swit
▁weigh
▁ferritin
▁continuing
▁Additional
▁constituted
▁Twenty
▁fibrillation
aline
▁Absolute
▁ketoconazole
uated
oligo
▁opioids
1;
▁rotavirus
▁glycos
▁0.13
adders
▁experiencing
▁meth
bly
reatine
dered
directed
▁114
xual
ancomycin
tural
▁hemorrhagic
▁warts
orbidity
uestion
DH
▁80%
127
▁consistently
vices
accharide
▁calcium
▁endometri
▁irrig
ocysteine
▁preventive
acting
▁antif
▁goiter
▁victims
▁Chronic
▁excretory
▁Phase
enin
▁absorb
▁parox
immune
▁stenosis
▁gonadotrop
▁verapamil
▁incidence
▁drinkers
▁meals
▁47
▁-7
▁correlated
esity
organism
▁abrupt
▁33
▁176
astatin
arge
▁citrate
▁0.79
▁134
▁clomiphene
▁dors
▁potenti
▁neurolep
▁Hep
teric
▁endocrine
▁deliveries
▁mobilization
olam
eces
▁0.80
▁Fifteen
0.8
▁rati
▁intermedi
▁compartments
▁rheum
▁semen
angiotensin
yrib
dle
▁1.0
▁Patient
▁lavage
▁tablets
▁obstetric
▁hypocal
▁dextrose
▁whee
iotensin
▁reversible
▁0.40
irub
radi
▁dilatation
entile
▁colitis
▁0.12
▁histologic
▁automated
▁unaffected
elvic
▁imipramine
rected
insulin
bility
▁4).
▁-0.5
▁pregnancy
▁27
▁neutroph
▁58
ondon
-14
▁worsening
▁136
10
vertebral
tensity
llate
oagulation
▁biochemical
▁multim
▁enal
tee
▁reinforcement
xime
NH
▁birthweight
▁nasal
▁(48
tizing
63
▁tricyclic
▁antagon
.1%
▁(45%)
▁atherosclerotic
amicin
▁127
▁uncom
▁subdural
▁vulgaris
imus
gative
astatic
▁Staphylococcus
▁extre
▁durations
▁LVH
aturation
▁0.7%
ophila
opr
▁nonfatal
▁disclosed
opi
umerous
ifed
▁successive
ancies
odal
▁outflow
▁(3.0
▁arteriosus
▁Neuro
▁126
▁195
▁sinusitis
torchid
▁0.35
▁25
▁163
▁titers
▁persisting
▁(20
▁Subsequently
▁commerc
▁pulses
▁grip
▁12%
▁stratif
.4
▁60.
▁3.7
100
tiary
▁attain
ameth
▁artic
▁29%
▁antimicrobial
▁170
▁125
▁endometrium
▁Acad
Ox
▁prospectively
▁randomized
▁LN
▁manu
▁frac
▁Relative
aind
omatic
▁Stro
▁esophagitis
▁retinopathy
urin
▁thems
▁deform
Ti
quir
▁gastroenteritis
▁85
▁juice
omized
▁correspondence
▁8
caro
pread
▁methodology
april
cutaneous
▁duct
veness
▁gynec
NV
▁nonex
▁weighed
▁evolved
limb
▁LT
▁8-
▁mucos
thmia
▁carc
uprofen
▁dissemin
herence
mg
threatening
▁wors
▁capsule
▁PSA
hep
6.
rous
▁subgroups
▁pulse
uled
▁6.4
▁(0.0
ASA
amide
sibility
OA
avirus
▁odds
▁lumen
pregn
▁keto
▁hematoma
▁addiction
▁intractable
▁zoster
▁239
▁qualit
▁perin
8),
▁receptor
▁diverged
▁Higher
epithelial
▁specialized
▁glucocorticoids
▁67
▁multivariate
▁inflammatory
▁ascorb
▁unres
▁Lymph
idin
opulation
▁esophag
▁lithium
trop
lude
▁encouraged
▁unm
▁breathing
luding
▁14.
▁predominantly
▁0.44
earing
▁(17
▁perone
LV
▁spasm
▁133
▁gastro
▁capsules
81
▁menopausal
▁229
▁25,
▁detectable
▁anticoagulation
▁esters
▁72
4%)
welling
inamide
▁EI
▁struc
aminophen
ocortic
▁drin
▁rehabilitation
▁Haem
▁(97
ximal
▁(84
▁pharmacologic
otropin
▁DT
▁lateral
▁chorio
▁slowing
▁amlodipine
ithium
▁lapa
▁hyperb
▁blin
▁wearing
▁infertility
▁0.77
9;
▁23,
treatment
▁transverse
▁intolerance
▁Factors
▁muc
▁167
▁cognitive
initi
arynx
▁improves
ocaine
▁thresholds
▁transplant
▁interleukin
lipid
yste
usions
inic
RB
▁persis
▁withdrawal
ophageal
▁Pain
50,
▁73%
▁sustain
associated
▁protoc
compared
wes
ported
▁TS
▁warrant
apine
itudinal
85
▁desm
▁3-
antial
▁plasmin
kets
▁determines
▁resour
▁inspiratory
▁presum
▁74
▁Surgery
▁weighing
▁accurately
plas
▁kidneys
▁40
Pen
▁anxiety
▁13.9
▁Oral
▁heterogeneity
▁incontin
▁serologic
▁2.1%
▁quinine
eak
▁inconsistent
▁histamine
▁(28
▁laboratory
administered
▁nasopharyngeal
▁regurgitation
erate
0.0
▁uric
▁dressing
▁0.49
omat
▁23%
▁implications
▁genotypes
▁0.36
▁prostatectomy
▁colpos
▁aimed
▁Tolerance
anic
heum
▁ecz
▁vein
oplasia
▁182
▁inges
700
▁parac
frequency
urations
▁antidepressants
▁1.3
sis
cycline
orectal
▁conclusions
▁protracted
▁Benz
▁hemo
0.6
Ps
sian
oic
▁kidne
gulation
▁analogue
oste
8).
▁lovastatin
▁rectal
▁3).
▁56,
▁SIDS
▁0.93
▁52
tually
▁posth
▁autoantibodies
▁hazard
▁comprehensive
▁Thirteen
atitis
4;
▁colonic
▁retinal
-1.0
▁excised
emic
peptide
thmias
▁bloc
▁endemic
▁scarring
▁psycho
▁copper
orsal
▁49%
opa
▁acute
▁Prevention
itriptyline
ventricular
titis
▁overlapped
▁doxazosin
plications
ensi
▁attributable
▁retinoids
▁electrolyte
▁Rates
▁Barrett
▁beneficial
▁throm
▁calcitonin
▁(67%)
olated
istal
▁clon
▁consistency
▁carbam
▁membranes
ytoin
ycl
partate
bodies
▁carpal
▁171
estrogen
▁erythematosus
▁194
Hb
▁detecting
▁ppm
ardias
phil
▁thyroid
▁Systolic
▁attrib
inase
▁tubercul
▁computerized
▁intraepithelial
▁validity
▁puls
▁brush
▁0.21
mitted
▁uncommon
▁thromb
▁OC
▁ventricular
▁fertile
▁infrequent
charged
▁angioplasty
▁contraction
▁Diabetes
hydrop
▁newborn
▁atyp
▁differing
olec
▁(99
▁shedding
54
▁hypokal
▁abd
ogl
▁saphenous
usp
▁103
▁menstr
▁33-
▁underestimated
▁48
lamin
mmol
▁guidelines
70)
otrexate
▁dermal
▁0.45
▁weakness
/4
▁nominal
-100
▁omega
opecia
▁questionnai
▁diagnose
▁intervention
urnal
▁regulations
azolam
▁alcohol
▁granulomas
▁undergo
▁2.5
▁66%
▁weekly
▁doxycycline
▁vag
▁0.05%
▁nodules
42
▁eighth
kely
▁197
▁cartilage
▁exhaus
▁Leuk
tosis
trated
▁sequentially
acer
▁irr
36
ordance
▁abdominal
▁endoscop
▁(62
▁amoxicillin
▁indication
ygen
▁adrenal
▁poin
▁CAP
trial
▁plac
▁incub
▁minimally
▁7.5%
1-1
chlorothiazide
▁suppressive
trib
ipramine
▁baseline
▁4.8
▁oxytocin
onucle
▁dias
predic
▁findings
▁cyt
▁contribut
Ba
9-
▁habits
hyd
▁mellitus
▁gases
tension
▁depress
▁apnea
orable
azep
HN
▁intram
▁(500
▁pituitary
▁phenomenon
▁stren
embry
mentation
atell
Ra
esium
irds
ipheral
▁proteinuria
mokers
▁adjustments
▁phon
▁renovascular
ithin
andard
▁ovaries
▁adoles
▁0.10
▁Increased
▁indicators
partum
▁paradoxical
▁glut
lact
▁Mild
▁76
rine
▁sorb
▁felodipine
▁brom
▁Clin
eal
▁vulnerable
▁iden
▁cysts
4/
▁129
junction
▁GAD
▁babies
▁hypertensive
osocial
lycemia
lood
▁50
▁fluids
▁reliability
icep
▁(1),
omerular
▁metoprolol
▁newborns
▁95
▁physi
▁selec
olute
78
▁endoscopy
▁incomp
1),
5%.
▁compound
▁ongoing
plic
▁Peak
ovascular
▁(85%)
▁ech
.1,
vant
echan
▁0.64
▁0.74
▁2.
Ts
▁gyn
▁sten
measured
▁Educ
▁dextro
44
iatric
3%
▁Myc
▁10.8
ysm
▁remo
onomic
▁(60%)
ocl
▁colos
▁epilepsy
toxic
osts
pH
ymp
▁24%
▁1-
lactam
▁29,
▁HPV
▁(25
▁lis
▁scans
▁pea
MG
71
aminated
▁TM
▁(24%)
▁100-
▁uptake
▁coenzyme
▁wheat
▁20%
uminal
odiazepine
▁lasted
pig
▁1.6
▁matur
▁200-
▁endogenous
▁1600
tensin
cephalic
▁unex
▁cytology
▁80,
▁upright
▁stom
▁(86%)
oscopy
93
contrast
▁occurring
genic
27
▁(31
▁digoxin
rhy
▁accounting
▁clamping
▁endotracheal
itr
vivors
cyt
oric
▁ingu
ampl
▁56%
-90%
ocyst
▁5.2
olysis
▁fatty
▁EE
▁spikes
Cs
▁evaluating
▁behaviors
ashing
▁550
▁examined
▁0%
▁144
▁predisposition
▁lowers
▁lesser
▁4%
▁decreasing
▁metastases
yrid
▁survived
▁pelvic
▁deficit
▁intrauterine
▁osmotic
▁hematologic
▁glycosylated
▁2000
▁focusing
▁Prevalence
(3
igaret
tite
▁anat
▁angiogram
▁sequelae
▁0.3%
opril
▁endoscopic
▁14.5
▁juvenile
▁(23
cemic
▁(0
.0)
enic
▁progression
▁cultured
▁antipsychotic
▁alternating
▁coronary
▁erythrocyte
oice
hyp
ration
▁Organization
▁insignificant
2.
▁cereb
▁25%
olution
▁glomerul
8;
▁17
avail
▁mIU
▁characteris
conver
▁ankle
▁metabolic
erop
▁Dys
▁tolerability
▁amput
gluc
▁malformations
▁clinical
▁0.27
▁cate
ruc
▁fluoro
fed
▁elas
opath
58
▁1.15
▁(4%)
-50
tingu
iphene
▁44
▁adjusted
▁Identif
▁preterm
▁psychosocial
▁inhibitory
▁regulating
▁drugs
▁bab
uation
▁subarachnoid
▁lute
sistent
▁bip
▁airflow
BV
▁Sensitivity
vastatin
▁calorie
tise
reening
oustic
yroxine
sants
▁penicillin
▁86%
atible
▁(95
▁HB
▁ulcer
▁atopic
initiated
▁medication
▁3.4
▁(250
shaped
▁(7
▁experts
-3.
fate
uestionnaire
uplex
▁Dental
▁20,000
▁rigid
coated
tropin
▁unrel
▁bradycardia
▁Bacter
▁ND
▁7.8
▁symptomatic
tical
sant
▁19,
itals
tection
molecular
ceptive
▁surround
▁13
▁malabsorption
0,000
▁reductions
▁164
ivary
▁efficac
vian
▁encour
▁concep
▁hypon
▁lorazepam
▁1500
▁rheumatic
▁practitioners
▁mell
▁gly
▁bowel
ocytosis
plies
▁lifest
traction
▁abstin
▁provoke
rowing
triglycerid
▁monit
▁steroid
entricular
trol
▁moderately
▁ae
▁TP
▁fathers
▁181
opl
▁retic
▁hypothyroid
▁enzymes
arb
amines
▁uterine
▁examining
▁25%.
▁instrumented
17
ocomp
:1)
▁choles
▁7.7
▁ana
pite
▁exud
37
▁aging
1-2
▁LMW
▁ulc
▁fossa
▁pyel
idone
ications
▁10-
vaccination
▁precur
▁hereditary
▁reticul
▁inguinal
▁electrical
▁amenorrhea
mental
▁anesthetic
▁exhaustion
spectively
▁neoplasia
lytic
▁noninvasive
▁gonadotroph
▁intake
etoprotein
▁Gluc
3.
oxifen
▁metronidazole
▁retrospective
xyl
2,000
▁10
▁cough
▁spine
▁(70
▁competence
▁researchers
▁caloric
▁13.2
▁(76
▁Comparison
▁overview
anking
rowth
ediatric
▁34%
▁localized
▁lep
▁85%
ophil
▁intran
▁7.2
gag
▁complaints
specificity
▁Severe
▁activator
4.
▁28
dine
▁solely
▁hyperp
▁acad
▁nosocomial
atation
▁101
bearing
▁cure
▁0.01).
ystolic
-17
▁varies
▁toxic
▁interferon
oprim
▁34
▁Clinic
▁substantially
ducing
DV
plicated
4)
iciency
▁91
/2
5-
▁cohorts
▁100%
▁hepatitis
pation
▁spacer
▁adhering
-13
onate
▁retard
-80
▁peaked
▁antic
▁concordance
▁voiding
▁defic
ulants
▁accessibility
idne
▁quantitative
rotal
nee
luc
▁concentrations
2,
47
mittent
▁topically
weighted
lobulin
26
▁etiology
▁irritation
tro
▁0.5,
igible
▁noncom
edema
▁0.89
▁resec
1)
7%)
olytic
▁clom
▁amin
3;
ograms
▁diagnosed
reduced
▁vancomycin
▁lor
▁cortic
▁patches
▁caution
▁concomitant
▁50,000
▁0.42
▁diaz
▁(10.
▁addic
establ
ometri
expressed
▁promptly
▁Eighty
▁cesarean
hap
▁suspicious
▁PT
▁11.0
▁(5
▁enzyme
idation
▁obstructive
▁(56
assi
ralfate
▁Serum
▁MMS
ogenic
▁LR
enem
▁Histologic
69
▁54%
▁3.9
inj
▁vitamin
struc
▁130
▁lipid
▁abnormalities
hexidine
▁99
▁0.2,
estive
iplinary
▁139
▁63%
▁urtic
▁unre
olesterolemic
▁prophylactic
▁appra
▁psychiatric
87
▁relieve
▁cervical
rocyte
▁positives
▁risks
▁0.28
▁intercourse
promazine
▁infusions
▁resistant
▁CVD
▁Pneum
▁Physicians
teroidal
▁oss
▁immunobl
timulation
tives
▁inhibitors
▁196
ofil
olitis
▁flashes
▁PD
▁widespread
uterine
▁emphasized
300
▁Scale
opathology
▁Cumulative
▁Sulf
▁arti
▁incom
▁abr
entral
▁cholesterol
▁correspondingly
▁dementia
▁drainage
▁crosso
▁tuberculosis
moderate
omiting
ditions
arly
injection
tations
▁affec
▁Lipid
ecre
▁tertiary
hene
modified
▁rehabil
▁Twelve
▁DF
▁Braz
osac
▁90%,
