▁vaccination
▁molecule
termined
clin
hydroxyp
▁revised
▁overe
▁pediatric
▁1,25(
ecan
.1%
▁ampicillin
▁abnormalities
▁condens
▁retarded
▁([
▁intraven
▁5'
▁excretion
▁levodopa
▁adequ
▁soleus
▁alteration
turb
olus
▁PaO
▁fibrin
phosphon
cyclo
▁antidepress
▁vaccinated
poor
▁lactating
isole
▁Pharmac
▁hypotension
induced
▁1.5
▁pancre
▁sedation
▁clinics
▁hypotheses
▁adrenal
▁progestin
▁rup
▁comparative
▁clom
▁micron
▁antibiotic
▁strepto
▁centr
dominal
thrombin
romes
iability
▁infusions
▁lumbar
tails
upus
▁prol
▁contraction
▁kappa
▁institu
▁immunoprecipit
▁293
▁pancreatic
▁medulla
haem
▁propionate
(2)
▁(500
▁22%
▁reacting
▁filaments
oxic
tified
▁underst
▁cytochrome
▁balloon
▁crosso
▁antidepressants
▁antiser
▁adrenoceptor
▁smo
▁Immuno
▁sodium
▁(400
▁gonadotrophin
▁fibers
-(1
▁latencies
4)
▁diaz
istar
▁glycol
▁bilaterally
▁2000
▁regulating
opulmonary
▁constituents
itro
▁Optimal
llate
/3
ecal
regn
▁myelin
▁tracer
▁splenectomy
▁cleaved
atell
▁mutagen
▁0.1%
ayed
▁Depending
▁iodide
GFR
▁catabolism
urgical
▁ophthal
▁sciatic
gression
▁lupus
▁4)
-34
▁diastolic
rofen
thymidine
▁immunofluores
▁bleomycin
▁supernatants
90
▁cavity
peak
▁tuber
▁(2.5
▁norepinephrine
▁determinant
lysine
sul
17
▁melan
rele
▁potency
▁0.34
▁transpor
▁phi
romyces
.0
▁Calc
aggreg
▁Higher
omegalovirus
▁prednisolone
ergency
ulla
▁persist
chymal
▁EF
▁fractions
▁infectious
▁metabolized
▁acetaminophen
,000
▁12%
▁spermatozo
esium
▁(24
▁difficul
▁cyt
▁interpretations
▁decarboxylase
ilical
▁120
▁142
astatin
▁30.
tetr
acil
▁nadir
▁Prol
ontal
▁dox
▁adenoma
▁hepar
▁5
▁enriched
ucle
▁androstenedione
▁tolerability
▁0.64
ermal
▁fourfold
rene
▁ventricular
▁trigg
tero
4,
enteric
▁cathe
-16
▁Sixty
otox
▁candidiasis
hesus
amol
▁secretory
entan
▁sacr
▁300
▁cortical
onas
ogenicity
Ls
acylglycerol
.7%)
▁persistence
▁capsules
▁electrophoresis
approximately
ogenes
▁diameters
▁polycystic
▁concanavalin
▁Acet
ilol
▁PLA
▁suppor
▁genomic
▁Strep
fos
▁secretions
▁phospho
▁pate
▁postin
adian
▁ulc
▁hypokal
▁beha
utyr
▁tryptophan
ergy
▁elucidated
edded
▁chamb
trial
▁negligible
cortisone
filtration
istal
▁1/2
Ci
▁tablets
rosis
▁neuron
parathyroid
▁modalities
▁calf
menopausal
18,
▁11.6
▁dextrose
absorption
▁stepwise
trypsin
▁insec
-18
ocyanate
tions
▁Leu
▁organs
▁elevate
▁attained
▁feasible
▁subarachnoid
isolated
▁0.06
▁62
▁iso
urgery
▁165
▁ectopic
▁specificities
▁Thirteen
sial
▁substituted
topril
▁gm
▁inversely
▁invasive
ipolar
thanolamine
uginosa
ostomy
▁fatigue
▁uncommon
▁transluminal
1),
▁heifers
▁aneurysms
▁adjustments
▁systematically
▁(23
▁Severe
▁endocardi
▁catar
▁pK
▁genic
utyryl
omatic
imbr
NK
▁undere
olol
osyl
tidine
▁ICP
uccessful
▁microscopy
ept
otoxicity
▁fluids
uretics
▁TSH
tations
▁CHD
▁compe
▁glutamine
▁nifedipine
went
osts
rocal
allikrein
▁mediators
▁prosthesis
▁vaginal
promoting
▁scinti
▁0.48
▁palpable
▁behavioral
▁progression
▁dosing
▁intram
amicin
▁[35
▁ileal
▁endogenous
▁blotting
osarcoma
chid
▁glut
prising
▁normalization
tisone
▁alleles
▁otitis
Hodgkin
▁multicenter
-0.
▁vitamin
▁tamoxifen
▁routinely
53
▁comple
uron
▁immunodef
▁parasites
▁glomeruli
▁whereby
aptic
ensi
▁8.8
▁intercal
▁kain
vice
▁relapses
▁220
loro
▁(11
▁88%
osidase
▁HI
atients
administration
▁spati
▁10%,
▁synthesis
▁canine
▁cocul
▁interfer
carinic
▁subgroups
-1000
carbon
tiv
nec
▁serological
▁preexisting
▁colos
/-
▁methodological
▁erg
enching
▁degen
44
▁haemorrh
▁pancreatitis
IgM
amethasone
▁laparo
enem
▁prospective
28
▁6.4
▁aromatase
intensity
▁liposomes
▁esophagus
▁midbrain
▁Bone
▁sperm
arrhythmic
duced
▁distin
▁crom
▁streptococci
▁ipsilateral
inopril
nucle
▁Ear
opeptidase
cholic
▁pulses
▁Simult
▁Electron
▁MV
itoring
▁urinary
▁200-
▁amines
tro
▁68%
derly
cade
▁Doses
▁instrum
etent
tebral
▁RPE
▁typhimurium
cein
▁amiloride
▁0.4%
▁52
/9
olamine
▁platinum
▁apoB
▁arteries
imetric
▁Eighty
glycerin
▁tyros
7%)
▁sugars
PAC
▁acqui
▁messen
lysis
aturation
▁neutrop
▁RI
▁anesthe
▁poorer
▁phagocytic
▁allele
GMP
40
ymp
▁inversion
rotal
▁HL
▁intolerance
▁angina
▁(67%)
▁assis
vaccin
▁homogenates
▁seasonal
tradiol
▁Bmax
unctions
▁ventil
▁cleft
▁neurob
▁hygi
▁agon
▁minus
▁gluten
▁concordance
▁polyaden
ventilation
7).
▁22
xone
▁digestive
▁congenital
▁smears
siveness
athione
▁salts
▁masked
inesterase
▁exhibits
▁thromboxane
assays
▁11.8
▁Effects
▁visualized
▁restric
▁gangl
▁cyto
▁hypothalamic
fine
▁quiescent
▁perone
▁critically
atine
▁seroton
▁presumed
▁dermal
▁allergens
4),
notic
▁postoperative
ectomized
oderm
▁magnesium
▁perikarya
mature
▁cones
▁lectins
▁gonadotropin
ture
▁eicos
▁PTCA
fts
ophore
▁piglets
epine
▁larvae
▁muc
▁syngeneic
▁isop
▁contrac
▁calmodulin
tec
▁opioids
atab
orbent
▁practitioners
▁normals
gradely
athyroid
tration
▁CAD
▁hepatic
▁14.5
▁compartments
▁9.5
▁polyc
ostatin
minis
transformed
▁46,
▁neurom
▁elevation
▁threefold
▁109
ropath
chlor
▁granulosa
lym
▁linearly
▁10)
floxacin
▁hypocal
▁incis
▁BAL
restric
ynthe
▁(1,
▁constitutive
▁inactive
▁fluxes
▁splenomegaly
sorb
▁Forty
▁0.2%
▁hemodialysis
▁(1.0
▁6.8
▁physici
▁luminal
▁(9
▁Wistar
▁modif
seud
▁Screening
▁111
.4%
▁synthase
▁loos
▁regeneration
▁metastases
▁12,
ulinemia
▁helix
▁81%
LR
astric
▁thrombin
eptides
▁ineffective
▁bip
▁lisinopril
acholine
ispanic
▁azathioprine
resist
▁clonal
carb
esarean
▁incidence
▁curric
▁thrombocyt
▁competence
▁resusc
orporeal
▁0.14
▁inflammatory
phrag
xanthine
Ki
▁ile
▁mRNA
rozen
atient
▁Hz
▁gyrus
▁extensor
▁cytoch
▁papilloma
▁9,
▁divalent
▁interc
▁endometr
▁0.75
▁polymorphism
electric
▁recurrent
▁-0.
▁prostatectomy
keleton
86
▁dismutase
▁sca
▁IGF
▁fetus
▁phasic
▁exchan
▁discrimin
▁abd
ughter
▁microsomes
▁tendon
▁ison
Leu
▁thym
▁centres
-32
tance
ycin
▁biologic
▁multiv
▁apparatus
anserin
conjug
▁sonic
6-
▁diabe
▁sequenced
▁Ace
▁recurrences
arate
▁stoichi
▁chol
▁verapamil
▁(24%)
▁13.3
▁immunoblot
acental
▁actu
▁electrode
▁vincristine
▁cycloheximide
▁prevalence
viron
▁(0.4
▁SRIF
0-
▁elab
▁methylation
▁cytometry
▁fluoxetine
▁loci
velength
▁familial
▁3
smokers
ipitation
ophilus
positive
itriptyline
▁Transi
▁Salmonella
crip
▁crystals
▁tiss
▁interstitial
▁commiss
▁modifying
chers
▁dendritic
tium
▁astrocy
▁100%
▁subtypes
▁nocturnal
▁0.6
▁PMA
▁Significantly
▁thresholds
▁quadrup
▁pharmacokine
odend
▁denti
sectional
▁encompassing
deple
ystokinin
▁PKC
▁fibros
▁outlet
▁rearrangements
romised
▁haem
▁isotonic
▁radionucl
folate
yclo
▁osmolality
5%),
eptic
responders
125
▁vomiting
▁CTL
lowering
▁unclear
▁infused
▁megakary
enzymes
▁98%
▁glutamate
▁morb
olitis
▁Chlamydia
▁unlabeled
olism
▁augmented
▁septum
.6%)
▁Transient
▁ulnar
ochemical
▁sensory
-24
▁noradrenergic
▁vacuoles
jac
lated
▁extrav
▁thymus
▁amn
(+)-
▁calculi
ipheral
(2+)-
urrence
▁unaffected
▁concomitant
▁excitatory
▁39%
▁bronchoconstric
rometry
attern
▁monkeys
pendent
nary
cephal
▁periv
▁bicarbonate
▁reas
▁twitch
ductase
acerb
cis
▁49
▁tubule
▁cic
▁symptom
▁births
-22
▁diazepam
▁irrig
▁incid
▁endotoxin
▁CK
▁polypeptide
moking
▁Depression
▁valves
▁dendrites
▁blots
▁fibrils
PKC
▁MM
phrine
▁immunosorbent
▁analytical
▁ischemia
cessive
▁antenatal
▁NMDA
▁multivariate
molecular
ulant
iotic
▁suckling
ovascular
▁poten
▁eradication
▁quantify
▁(76
▁hybridized
▁Compared
amide
moid
▁PEG
▁Acad
▁(2),
▁Combin
GH
7%
▁harves
▁terminals
▁Maximal
20
▁euk
▁dizziness
oag
HF
▁gyr
▁CMV
▁0.19
▁postsynaptic
▁Sulf
▁ibuprofen
▁interpre
▁absorp
FGF
▁neoplasms
▁myeloma
▁avid
48
▁methacholine
encephalon
▁clonidine
▁labelling
enopus
▁dele
▁stimulants
▁56%
ischemic
▁embryonic
▁ductal
▁obser
unced
▁inoculation
▁.000
▁exacerb
▁worsening
▁tendons
▁heterologous
▁17%
▁assessing
tam
▁MLC
▁pallid
▁Mice
▁preserving
▁immunogenic
▁catheter
▁leukaemia
olec
▁6.7
▁resuscitation
▁2.1
individual
▁Replacement
/6
angiotensin
azepam
rophob
▁autoradiography
▁interf
din
▁Ala
mL
▁kine
▁subunit
2.
aemic
▁sti
▁subpop
▁mediate
▁139
▁pressor
ocyt
▁confers
▁osmotic
▁thyroid
planchnic
5;
▁(70
cardi
.2%)
akary
▁subfractions
ypical
ompan
▁depended
▁occlusion
ticular
bloc
▁EMG
ellum
▁thalamus
opr
23
rents
▁linoleic
▁chickens
▁2)
▁conception
tiary
▁stimuli
▁20%
▁resistant
▁perfor
▁neurotrans
▁ANF
▁0.05,
▁palli
ivariate
▁pineal
▁DBA
▁ventricul
▁0.005)
jected
▁lysozyme
▁comprehen
▁vesti
▁60
▁107
▁128
iplinary
▁supplements
4+
▁(15%)
▁injected
ysts
lob
tensives
▁ferritin
▁37%
▁cerevisiae
opramide
▁induces
▁KCl
ophen
▁radiography
▁avail
▁deposits
opulation
▁Addition
tissue
NB
▁thymidine
wenty
▁myeloid
aminergic
▁terminus
2-
retic
▁endarterectomy
▁cytolytic
▁cytoplasmic
terone
ameter
▁fractional
▁gonadotroph
▁xen
▁Sensitivity
-198
▁28
▁mesen
▁virions
▁0.60
▁(250
▁convul
▁unstable
tious
tant
lymer
catalyzed
onephritis
▁diabetic
▁dissection
▁neutrophils
▁0.3%
▁wt
diabe
▁compounds
▁homogeneous
romy
▁assessments
▁-10
igaret
silon
anesthetized
echn
▁histidine
idym
-2
catal
▁resultant
▁questionnai
8)
▁750
▁Infants
▁121
▁dermat
▁serum
▁ventricles
vedilol
▁(33
▁larval
selec
▁moieties
▁quantit
endocrine
▁Scatchard
atum
▁corticos
▁substitu
▁2.5%
inj
▁physiologic
▁intakes
▁Escherichia
opyr
▁reversibly
gangl
12-
▁endothelin
▁percentile
immune
immunoreactive
▁positives
▁Bacter
▁hydrolase
64
tir
▁prosthetic
0%),
▁incubations
till
9,
ocap
▁nasal
▁striatal
▁reconstituted
chol
rease
keratin
ELISA
▁4.2
▁pathophy
yridamole
▁chemot
▁tracheal
ilts
sive
▁ascorbic
▁chlorpromazine
diagn
▁intest
▁trimester
hips
yel
thirds
essive
▁AChE
▁uniquely
▁interacting
▁psycho
teria
▁detectable
.9
actam
▁particulate
+.
▁vasoconstrictor
▁diame
▁.1
▁triglycerides
pinephrine
amycin
▁phosphorylation
▁(50%
▁3.9
▁extrac
▁investigators
▁0.28
▁cholesteryl
▁hypothal
▁6.0
▁hybridization
▁tachy
▁homogen
▁indicative
▁esters
▁arteriosus
▁immunogenicity
▁persis
▁simian
exposed
▁chan
▁2.7
▁102
invasive
▁(1),
▁unid
terolog
▁76
determined
▁0.65
alasin
▁glycosyl
herence
▁erythropoietin
▁propor
▁forskolin
▁1.9
▁reagents
administered
entgen
▁PN
▁Estrogen
▁chlor
▁dysplasia
labeled
▁intracor
▁diacylglycerol
▁abundant
▁phentolamine
▁Symptom
stranded
▁enzymatic
clic
▁166
idol
▁PBL
ronch
▁angiography
▁AMI
blocker
▁Secondary
▁counseling
▁streptozotocin
ymptomatic
onin
▁discom
atoid
▁16-
▁apprec
▁lamb
▁CDC
▁contaminated
▁biphasic
▁receptor
▁stu
▁oscillations
▁simplex
▁fibrinogen
piratory
onstric
▁glucagon
aminase
▁microm
opolysaccharide
protein
▁24
▁primate
▁ascending
aemia
oretic
▁stratif
prisingly
▁quinine
▁topical
▁pharmacological
▁discomfort
▁grafted
ionic
▁cDNAs
oprol
▁187
vascular
thms
▁GTP
▁ligand
▁Cells
▁reproducibility
ammonium
▁cytosol
▁(0.
▁rotavirus
MH
▁hematuria
▁41%
▁yielding
tally
glut
0%.
▁prophylactic
MW
▁Candida
▁CAP
▁thrombotic
▁compartment
▁breeding
▁Hyper
▁extre
▁10(-7)
onography
▁immunod
▁ICU
ethyl
blockers
▁attributable
27
erant
meth
▁270
performance
azole
▁(22
▁0.62
▁myel
kage
▁regression
dehyde
-40
▁elimination
▁(25%)
pirone
contrast
1;
▁attemp
.8
▁connective
▁parenchym
▁Significant
▁employing
crib
▁antide
1.
▁blot
mediated
ineal
91
▁80%
▁analyzing
▁fasting
early
opar
▁chewing
eprazole
adjusted
▁rhin
▁unexpectedly
(6
oil
▁eosinophil
▁atria
▁formulation
icardi
▁descrip
▁venous
▁phosphates
phorbol
▁abdomen
▁motone
▁undergone
ignific
ximide
lamydia
▁radiological
ulitis
▁Radi
timal
nitro
▁HMG
▁158
▁disruption
aspartate
kephal
▁87%
▁theoretically
▁adverse
containing
▁reciprocal
▁swine
▁2.5,
▁biotin
▁19
treatment
▁optimum
▁40%,
stress
▁anomaly
▁FF
▁objec
▁5.7
▁dextro
▁MF
olam
▁vesic
▁0.54
aryotic
▁toxin
eeding
▁BMD
▁strains
▁(13
ensities
▁100,000
▁endurance
trover
▁dissec
CoA
omat
▁(200
fraction
entanil
▁recessive
▁angiotensin
▁swit
ococcal
ogenous
▁neonatal
▁vascular
▁adenine
43
meas
othiaz
ritis
▁(5-
▁disturbances
ocrine
▁intrav
▁substitution
▁testosterone
▁silic
▁oocytes
Nase
▁anatomical
▁ovine
▁locus
▁apical
thick
▁spontaneous
educed
▁daytime
▁2-3
▁proce
▁selec
▁stent
turally
▁discharge
triglycer
gans
▁purified
▁topo
▁arter
▁serologic
▁Hyp
.5.
aminoglyc
▁BW
▁Amin
▁lumb
osac
▁antipsych
▁linole
▁epidemiologic
▁diminished
razosin
arose
▁bundles
▁activators
▁tubules
▁metronidazole
jun
tilis
▁33%
▁unipolar
tability
▁aeruginosa
▁carcinoma
▁ingu
eclamp
itone
itance
▁infants
200
▁attain
astatic
-48
▁fluc
▁1990
▁EB
taken
▁Saccharomyces
▁FN
▁pell
▁HS
▁fibrosis
▁thio
▁duplex
▁specificity
▁parie
ardia
▁Schwann
tents
trous
▁2.5
▁homogeneity
▁1),
porting
aldosterone
▁confir
▁lowering
-1),
oskeletal
87
rendipine
▁cleavage
18)
▁acyl
vail
▁Triton
▁albicans
unctiv
▁gradients
▁amygdala
iatum
▁synov
▁qualitative
▁0.52
▁prazosin
▁0.01,
▁conformations
▁obstetric
▁Phen
▁quotient
▁entero
▁schiz
▁premature
kilobase
2(+)-
▁weaker
atosis
▁allografts
▁oxidation
▁plateau
▁couns
▁adduc
37
▁118
thyl
tical
eptidase
▁buspirone
▁asthmatic
▁strokes
▁endothelial
▁radiotherapy
blood
▁depleted
▁plas
rostagland
▁albic
▁cyst
ostasis
▁contras
▁internalization
▁glyc
▁0.70
▁30%,
▁preincubation
risk
▁pem
▁insignificant
▁ultrastruc
4%)
▁TP
▁heterogeneous
strand
▁cystic
▁ducts
▁rheumatic
cemia
▁pyr
▁(8
retin
▁natriuretic
▁neurones
▁ara
atening
▁MAb
▁allogra
▁deviations
▁remarkably
▁steroidogenesis
osal
▁0.25
▁terminated
▁corneal
helical
oreceptors
▁(5)
▁interacts
encephalic
▁(2-
amines
▁ACh
esic
▁heterozygous
▁plaques
▁(150
▁cartilage
▁membran
▁gonadotrop
▁predicting
▁logistic
▁maneu
hyde
tructive
kelet
-90
trodotoxin
▁fibroblast
agas
▁evaluations
▁neuropeptide
▁oss
▁scalp
▁113
▁tox
▁luteal
gm
activation
CBF
▁Urine
▁ole
suppres
oconazole
tussis
tency
▁methodology
▁latex
▁10,000
10)
▁plasmids
▁HRP
▁10.7
▁glycoprotein
▁gangli
butyl
▁diabetics
systolic
▁rhythmic
▁menopause
▁leukemia
androgen
luores
▁Protein
▁morbidity
ranial
initi
▁0.04
▁ICAM
▁(1
phine
▁hypog
▁abstinence
polyacrylamide
AFP
▁platelets
▁femur
▁84%
othelial
lep
▁(16
tiguous
▁purification
)],
Tc
colem
▁amino
anding
▁dodecyl
tumor
▁8)
anic
▁VLDL
phil
▁Concentr
▁omega
▁admissions
▁malformations
▁Arter
▁syphilis
luded
▁influenz
▁proliferative
4,5)
▁anions
▁horseradish
▁ascer
▁IgG
▁4,
▁modality
6;
▁homolog
▁eliminating
heres
▁PBMC
▁chromosomes
roline
▁monophosphate
▁LD
▁complementary
▁HSV
▁90
6,
▁Likewise
▁10,
vertebral
phosphate
▁preincubated
▁seminal
▁0.98
diagnosed
▁depletion
▁17-
dR
▁ventricle
▁sero
▁inositol
xate
▁1,25
Rb
▁BSA
▁symptomatic
occal
▁shear
oxicillin
teryl
ejun
▁lysosomal
ranolol
▁Plate
▁BMT
ocytes
1)
▁50-
▁infrequ
ifferentiated
▁coordin
▁enalapril
▁cytologic
▁dilated
tilb
▁fimbr
▁151
▁1980
▁185
ongue
ocompatibility
▁anastomosis
9)
▁7.8
▁perc
▁(=
ogl
▁cochlear
▁nitro
▁intran
ituitary
▁13%
▁incontin
▁Diagnostic
▁cortisol
tence
▁cGMP
apine
diabetic
imens
▁somatostatin
▁18%
▁ars
azone
oxidation
▁neuros
▁grains
▁tetr
ubicin
sion
▁cerebro
▁mobilization
▁50,000
▁(1.6
▁oval
▁rupture
▁obstetr
▁supernat
▁Pseudomonas
thmatic
▁(92
▁85%
▁inhibitory
plasty
▁-6
3;
ocortic
tition
flammatory
▁0.66
▁transduction
50
▁164
▁referral
ordial
-9
(1
clerosis
▁persisting
temperature
▁tetrac
▁undetectable
tigo
▁adequately
osin
phylaxis
▁dexamethasone
▁mutant
omeric
BSA
acetic
▁transmitted
myristate
▁diffic
▁pHi
assium
▁bovine
erad
▁statistically
erent
rhy
▁synaptic
▁enlar
▁digestion
aldehyde
▁NK
▁Purkinje
▁socioeconomic
▁203
tabl
▁spike
▁aneurysm
▁scaven
▁innervated
▁1%
pine
▁Holter
▁4-5
▁99
dic
▁exponential
▁cotrans
psych
mokers
ganglionic
▁cuff
▁anhydrase
▁mannose
▁utilization
▁reversed
▁harvested
▁fascic
▁tas
▁rebound
▁glioma
▁152
▁electrophoretic
▁atropine
▁7.6
▁ery
brids
osum
▁precipitated
▁intestine
▁diurnal
▁0.01
▁labelled
▁alterations
00,
opro
▁ana
bilities
▁disrup
iteal
▁cutoff
▁digested
▁(67
phosph
▁fibr
▁reversing
▁fertil
▁(42
▁dilation
duction
hea
▁psoriatic
uclear
cepti
▁63%
receptor
▁RAS
osyltransferase
ocamp
orption
idney
phthal
▁11.5
▁retrograde
leuk
4-
▁progest
plas
▁mIU
▁prescribing
achn
▁inducible
rague
▁cerevis
▁cardiovascular
Gly
ographically
iodarone
Hyp
ochrom
▁examining
▁psor
redoxin
▁testicular
▁protocols
▁pneum
▁hGH
▁palsy
entile
▁scientif
▁verte
2+,
ipid
▁enrolled
orrh
▁cyclosporine
▁preliminary
▁oriented
▁phospholip
▁hypertonic
▁isoniazid
amate
puts
▁motoneurons
dipine
MSH
8]
▁corticosteroid
▁0.49
▁dimers
onuclear
Gal
▁denat
▁ket
▁physiological
ocomial
ogeneic
trum
▁60-
▁homology
▁hypoth
▁Trial
▁dehyd
▁polym
ophils
▁homoz
▁reper
▁counterparts
▁abnormality
▁elic
▁opi
▁SHR
▁retard
▁identifiable
▁isomers
▁carc
▁9.0
urium
▁archite
SOD
▁somata
▁xanthine
tracellular
ivation
▁Responses
tants
HDL
PGE
zard
▁jaund
vular
▁88
▁numb
▁66%
▁13-
▁IU
▁(10.
▁recipients
▁solvent
▁hypother
▁venom
▁acetylcholine
▁substrates
▁malabsorption
tin
47
▁86%
▁0.23
▁hydrophob
thase
▁2,
▁benzodiazepine
▁Fifteen
iesis
▁myot
▁electrodes
ionyl
▁abolished
▁phon
▁muta
▁embryos
Ala
▁sten
▁hippocampus
adecan
asic
orectal
.0)
▁7
▁infec
▁(21
▁immunocomp
moderate
acrylamide
truc
atching
▁histone
▁solitary
▁deterioration
▁0.001)
acin
-70
▁fung
▁nausea
▁sple
inol
▁hemodynamics
HIV
▁blas
▁molar
▁4.7
pregn
significant
▁glands
▁pyl
▁transcrip
▁vena
▁expon
▁100
ocytosis
▁precur
▁hepat
▁thymocytes
isomer
romedial
▁Vitamin
▁chromatin
▁myof
▁68
▁deduced
roxy
oxetine
▁methotrexate
oxif
ereb
oradi
▁3.2
▁plexus
▁compli
▁polarity
sodium
▁substantia
▁Renal
▁suscepti
▁analogous
▁osm
▁hir
▁serologically
ymptom
▁endoscopy
hern
▁prostate
▁implants
▁85
▁ionized
ods
6%)
obacterium
▁haemat
▁Morph
▁indexes
▁degraded
322
▁0.76
activated
▁flas
mediately
▁quantif
▁aspec
▁exhaustion
alkyl
▁valve
▁sarc
▁endoc
▁Twelve
▁shif
cholate
8).
tural
▁axon
▁herni
▁anemia
(+)
acting
▁penicillin
▁posttreatment
▁0.99
▁antioxid
▁reacted
lycemic
▁penetration
▁PLC
daily
▁acutely
▁lacks
exchange
▁14
▁spp
▁36%
▁cows
physiologic
▁elution
▁200,
.9%)
tinu
pyruvate
▁tibial
owel
▁derivatives
independent
heal
▁unilateral
▁mucosal
▁lectin
▁monit
▁appropriately
tenolol
▁GABAergic
▁postmortem
uran
▁myosin
reatine
olab
acids
▁adolescence
phosphatid
▁bumetanide
ffin
▁foci
▁eluc
▁immature
IIIa
lymphocyte
yrib
kinson
▁0.22
▁maturity
▁supr
▁PAI
▁caudate
/12
▁ouabain
▁chloro
▁7.5
▁physicians
▁cephalosporins
▁fibrillation
▁qualit
▁heavi
▁CGRP
phosphorylation
either
hemoglobin
▁satis
▁serotoninergic
▁181
Gs
icine
▁influx
▁gynec
▁systolic
▁prel
▁16
bral
▁41
▁kallikrein
omethacin
tabol
▁6-
▁mesang
▁(95
osine
▁kinetic
25,
▁86
▁evol
▁serotonin
▁supplemented
enal
ugular
resistant
▁reactivity
thromb
piper
terologous
▁outpatients
/4
ococcus
▁irrever
▁spinal
bumin
▁LTB
otonic
▁lovastatin
▁pharmacologic
▁fibrous
edding
ophosphate
▁circumference
▁nondiabetic
▁tumour
▁salbutamol
▁bac
-5)
ureth
▁initiation
▁sensitivities
irubin
▁9.9
▁regulated
▁chorionic
itoneally
ophag
acr
ophylline
-27
▁adjustment
▁titres
ropha
▁mitogenic
▁progeny
▁traum
▁saliva
rowth
ophy
uprofen
▁adducts
othal
▁provid
▁carbachol
▁surfactant
phyloc
▁carboxy
imolar
kinin
▁1,25-(
▁mutagenesis
▁addi
▁(84
▁oxid
▁forebrain
sied
▁carp
▁lethal
▁reacts
glutamate
▁experim
▁Crohn
insensitive
▁hemat
luding
▁swelling
▁contamin
▁striatum
lobin
subunit
▁stabilization
▁globulin
▁cholera
▁proliferating
MV
▁cirrhosis
ropo
▁downstream
8+
iciently
▁quantitatively
▁rearrangement
PMN
▁possesses
▁denervation
opa
▁nonc
▁fertile
▁stratified
▁glycine
▁vicin
▁persists
▁adenomas
▁Alz
▁mucus
▁MHC
▁sediment
▁electroly
▁pathologic
▁techniqu
▁elast
▁1:1
▁0.15
aryngeal
toid
▁insufficient
▁untreated
scop
▁prothrombin
▁hemorrhage
orrhea
▁correlates
urk
▁protoc
▁ATP
▁eluted
▁HTLV
osylation
iasis
atment
▁hydroly
▁Consid
▁iod
▁RNase
▁redistribution
▁kinetics
▁0.47
▁spon
▁precursors
▁placental
▁fibres
tyrosine
xime
▁acco
▁excreted
▁Myocardial
▁NSAID
▁bile
▁papillary
▁thromboemb
66
▁Activation
▁periodontal
▁Surgery
▁0.01).
▁extremity
▁60%
▁hepatocytes
▁ovary
▁cytochalasin
▁Chan
▁0.0001).
▁intraoperative
▁autosomal
▁spre
▁48
▁sph
▁socio
osom
▁2.6
▁juven
▁stimulation
▁bacteri
odon
▁hypogonad
▁8.3
▁communic
▁Multiple
▁resis
▁21%
000.
irradi
ocusing
▁exer
ietic
▁pathogens
▁aeros
▁avoidance
▁sampl
▁benzodiaz
▁vimentin
▁endoscopic
▁potent
7)
▁chondroitin
hep
▁pepsin
▁PEF
▁3'-
▁schem
sych
▁Measure
▁ankle
olerance
▁Oral
▁nodules
▁hepatotoxicity
▁249
▁vasculature
▁germinal
▁spleens
▁possi
▁TM
geal
▁aortic
▁15,
oretically
odds
uronium
▁5.2
▁anhydr
▁vesicular
▁shunt
viruses
42
▁bFGF
▁implant
▁canc
▁neurogenic
▁accep
vic
▁commerc
▁RR
5),
▁133
FU
▁Fourteen
▁occult
▁EcoRI
rological
▁urea
dihyd
▁168
▁rota
▁cardiac
57
glycer
▁6.5
▁additive
ygotes
atchard
DH
ffinity
▁(32
▁5000
▁arthritis
▁Calcium
eclampsia
▁transcriptional
▁monkey
▁Phe
▁discharges
▁microtub
▁cytotoxicity
▁predominant
▁contralateral
6)
omial
▁diploid
opathy
▁chlamydial
icillin
▁MAbs
▁stimulator
▁keratin
▁23%
okinase
▁hypotensive
▁dichroism
ithin
▁Relative
ardized
competitive
▁EGTA
isomerase
▁inhibin
▁whee
operoxidase
oea
▁dialysis
ituit
examin
▁mucosa
▁sucrose
tice
▁(18
▁ferric
ichia
▁nitrogen
▁nec
econd
ochem
▁tonic
▁162
aminated
▁retinoids
glutin
▁MH
maximal
ostigmine
▁concomitantly
▁gly
occi
rested
▁repor
▁TGF
▁peroxidation
ilization
odermal
▁inability
▁galactose
▁dermatitis
▁brainstem
▁molecules
terminal
tur
▁prenatal
▁propranolol
feron
24
sively
▁intraocular
▁antigen
▁(16%)
2/
olipid
▁AK
▁motility
/7
aminobutyric
yronine
▁cirrhotic
ospecific
▁disulfide
enoic
▁56
-1
▁diethyl
▁damaging
oxid
sibility
▁concentrations
median
angl
sibly
Trp
enicillin
plate
▁SDS
▁defec
molar
▁NADH
okinetic
▁hypothe
loxacin
▁synapt
▁polyp
ticle
▁forsk
▁leuc
▁epididym
▁oxytocin
▁25,
▁suppressive
▁99%
obarbital
▁agglutinin
▁collateral
▁malignant
motic
▁cohort
▁topically
▁23
▁erythrocyte
▁ratios
▁46
▁vigorous
ventional
▁constriction
▁tib
▁-2
77
▁glutaraldehyde
▁turnover
▁PAP
▁allogeneic
▁memb
rolateral
▁hypoxic
▁extraction
▁radiolabeled
▁quanti
timate
▁squamous
▁hemodynamic
ubation
immun
▁ovulation
▁staining
▁marginally
omal
▁lamin
▁regis
▁amoxicillin
▁defects
▁dietary
trate
▁subcellular
▁metabolite
▁AII
/2
▁TCDD
-7,
▁polymorph
▁Rb
▁4.
▁cationic
versely
▁confound
▁microsp
imination
oratory
▁dye
ospor
MHC
▁180
fentanil
▁flexor
▁PSA
3+
uppres
▁21,
▁inactivation
▁resembles
69
▁clot
lycerol
▁exon
▁(56
membrane
▁initiating
▁intracellular
▁fluorescein
▁appreciable
ellar
▁crystall
▁7.2
IGF
▁incision
osamine
▁substances
▁correlated
▁tricyclic
▁90.
▁mA
reased
etoprotein
2)
▁LFA
mental
▁encodes
carotene
▁GRF
▁infarctions
tyl
▁vaccines
▁ingestion
73
▁hap
▁Prospective
▁splen
▁hippocamp
▁termination
▁oxide
▁recor
▁1960
▁protec
▁neoplasm
▁5,
▁emboli
tics
pA
orac
uridine
▁Isolated
▁66
▁requi
.1,
▁195
▁myrist
▁antagonized
▁follic
ediatric
▁enlargement
▁citrate
▁antiarrhythmic
▁EG
usp
63
sess
▁Conversely
measured
▁acute
▁inadequ
▁adjusting
▁Consequently
iol
▁3-4
▁vancomycin
▁deleterious
▁MIC
▁yielded
▁stools
▁fla
▁AFP
▁priming
illin
▁resembled
▁inges
zot
releasing
26
▁nephropathy
▁grouped
apeutic
▁overlapping
▁physiologically
▁phenotype
▁membrane
▁autoradi
▁prophylaxis
ochrome
▁permeability
▁bipolar
hospital
▁cytotox
▁anticholinergic
taining
▁potassium
▁osteoporosis
+/
▁(100
henyl
-17
▁hypothyroidism
▁Thirty
▁titration
atible
terin
▁Asp
ocor
▁actin
coronary
▁impairs
▁3-
▁pector
▁Intra
▁jejun
▁pore
oxygen
▁adi
titis
▁histology
▁tremor
acetate
ofl
oprec
▁implicated
▁pim
▁NAD
▁percentages
▁lactic
▁haemoglobin
▁lymph
.1
▁124
▁vasopressin
▁daltons
▁intravenous
▁resto
▁(31
▁NaCl
▁expenditure
aturia
partum
▁prolongation
▁0.55
▁conserved
acchar
pressing
▁recombination
▁definite
▁ions
ylic
▁vasoactive
▁83
▁5)
operox
▁malign
obl
onc
▁12.
▁(63
▁rhesus
▁correlate
parathyroidism
55
▁reflexes
▁toxins
▁transfected
ostr
▁Kd
▁Throm
olated
▁chel
▁calcitonin
lyb
▁readings
▁estrogens
IgA
▁repressor
▁cysts
.0,
yron
▁slices
▁gastric
0)
▁Insulin
0,000
cture
ocul
▁microscop
Daw
pretreated
▁hypere
▁VV
▁stiffness
cristine
ylyl
▁enzym
▁pneumonia
▁aromatic
omotor
▁SEM
▁inapp
yrosine
▁evoked
▁42
atidyle
lobulin
▁zinc
▁fractionated
Ts
▁offspring
10,
fal
▁38
▁cGy
restingly
▁progressed
-3)
ubiqu
▁RV
▁grafting
yzed
tia
▁wk
▁7,
tomy
▁subtype
▁AML
▁Hear
▁methadone
-66
▁brach
alveolar
adecanoyl
incub
inemia
sives
average
12.
oblast
▁132
▁fetal
▁Respiratory
▁immunode
amphen
rogenase
▁heteroz
azem
▁viscer
tivation
▁pM
▁atten
▁aggres
▁bladders
▁detrimental
cutaneous
▁Tum
▁radiographic
▁carbohydrates
▁decarbox
arone
▁strands
▁Drosophila
▁proteoglycans
▁perikary
clonal
traumatic
▁pall
icidal
▁agonist
GTP
▁cathepsin
physe
▁tomography
mRNA
▁perioperative
kinase
▁detec
5-
'-
▁Differences
▁phagocytosis
▁sucralfate
▁promo
▁150
▁LH
▁10(-3)
▁0.30
▁PMNs
▁myocytes
▁tubercle
oglobin
-100%
▁Biol
▁5.0
▁Glucose
▁complications
▁hospitalization
ungal
▁regenerating
▁stimul
▁alb
▁proteins
▁spermatozoa
antoin
▁pec
▁plasm
truction
▁trigeminal
echanical
-60
▁clamping
▁(26
▁RBC
▁complication
terase
▁48%
▁Neu
▁1986.
armac
amuscular
▁nebul
▁colonic
odine
▁gentamicin
tingu
▁hypophys
weighted
▁HPV
▁114
▁OT
tisol
▁succinate
oplasmic
▁bronchi
▁electrolytes
▁transaminase
▁0.43
▁Complications
fron
▁Hb
▁colonization
▁COOH
reas
ymethyl
▁innerv
bac
▁physi
anthine
▁tolerate
affin
▁Flu
▁menopausal
▁mucos
wes
▁preferentially
PCR
▁10(-8)
▁PCR
▁titrated
-2).
toli
▁localized
▁167
▁2.
▁advan
▁extracellular
600
▁transitional
▁cyc
▁reinfor
▁newborns
ocarcinoma
▁proportional
▁calorie
tub
▁subgroup
omonas
iliac
tosis
▁serine
▁EEG
▁mathem
▁leukotriene
▁6.1
▁soybean
adders
▁specimens
▁79%
▁130
patients
▁IA
▁Streptococcus
▁accumulation
▁quoti
0.8
▁24,
▁OA
▁10.4
gland
▁Electro
▁(1.2
▁aldosterone
▁blunted
▁192
▁dib
▁hemorrh
▁intrauterine
▁velocities
▁sclerosis
idase
▁yohimbine
omotion
.7
▁attenuated
▁synapses
▁differen
▁HCC
aric
▁deficits
timulus
Ra
▁irradiated
▁lith
▁mann
▁IGFBP
▁efficac
▁selectively
▁isometric
usate
▁antibiotics
dition
▁caloric
▁occlusive
orbol
▁cytotoxic
▁implanted
olipids
+)
▁prescrib
-20%
pharose
aryng
▁pH
▁tau
.5%
▁allevi
▁6.6
▁corne
methionine
▁IB
▁visc
▁0.40
tures
onium
▁unrelated
modulin
▁constitutively
tized
▁reliability
▁cereb
DV
▁dilution
grees
umetanide
himb
▁hyperg
▁outflow
▁IDDM
▁autocrine
▁cDNA
▁rash
▁histologically
ordin
▁GS
availability
▁phenylalanine
▁contraceptive
olgi
▁NP
▁Comparing
teine
odgkin
3.
▁irrespective
▁(94
vac
oprolol
▁parenchyma
(2-
olesterolemic
▁TMP
▁neoplasia
▁medullary
▁ganglia
▁elec
▁twofold
thle
▁dyspnea
▁hydroph
▁Proc
▁156
pregnant
trast
venty
▁HPLC
dihydroxy
dividual
razole
22
atology
▁proximal
▁recurred
▁radiologic
▁PCP
▁articular
atical
▁metastasis
▁intraper
ominant
▁anaesthesia
ercul
bearing
produc
▁Exercise
▁anoxic
aryl
▁limbs
eric
▁sulf
▁bradyc
fir
▁61%
▁Aden
tigmine
fected
▁RU
▁simult
▁gonadal
▁Continu
▁carbam
▁hyperlipidemia
▁Tryp
▁supra
conjugated
hetamine
8.
ocytic
tis
▁hormone
▁Pt
▁lipid
▁Estim
▁trypsin
▁IgM
thood
▁pyrid
▁89%
▁nutrients
▁medial
▁randomized
▁neurolep
bromo
▁hairy
enol
▁transloc
▁mite
▁39
▁manifested
openia
▁condensed
▁bup
▁pelvic
atectomy
▁atherosclerotic
▁adminis
trus
▁transient
▁endo
teroidal
entral
tiazem
grams
▁subc
▁summarized
planch
▁alcoholic
▁justif
▁depres
▁influenzae
▁hyperch
▁heterogene
▁cochle
clinical
troph
▁atenolol
▁hamsters
▁lympho
1).
▁doxorubicin
ocin
lue
▁allo
▁89
triglycerid
oxal
13
▁prostaglandins
▁projecting
▁estrus
▁simplified
▁afferents
-400
▁nonf
▁clinician
▁accumulate
21
▁145
rotid
▁Pseud
esthetized
tein
tif
▁Clinic
▁targe
oidal
Hg
▁prostaglandin
▁choro
/10(
▁distor
ration
lec
cad
▁acids
▁kb
▁mitochondrial
▁incomp
emak
-30
operated
▁haplotype
▁superficial
▁1,2-
nine
▁thickening
0.
▁recombinant
3,
▁CG
-50%
▁neoplas
▁0.97
▁hydrocortisone
LPS
caro
odular
▁40%.
▁Mild
ariate
▁Registry
ffe
blind
▁regimens
▁hospitalized
▁Comparative
▁predominantly
▁artery
rati
▁intrap
▁reticulum
Phe
cribed
▁4.6
▁Coronary
generation
▁repression
▁fati
▁retinal
anking
▁cAMP
▁carriers
gus
▁underwent
jec
▁bilateral
▁[14
▁hematopoietic
perme
▁bacteremia
promazine
▁subdural
arous
toxin
▁thromboembolic
▁Fifty
▁intravenously
obut
▁titer
osan
▁neurons
▁Indi
▁manu
▁surfact
▁spectrophot
▁Km
CRF
▁lymphomas
othre
▁exceeding
▁cranial
rostened
eak
▁lymphocytic
▁lengthen
▁intral
▁divertic
▁hormones
▁PAF
▁(0.6
glucose
oxane
▁infancy
▁sinus
▁Exc
▁kerat
▁responsiveness
▁minimally
rected
ymme
▁amput
trone
▁regulator
▁Depart
▁159
▁progn
▁1983
▁10-
▁5.8
hydr
▁radios
kely
▁seropositive
▁hyste
▁AO
▁emin
▁interfere
aminophen
▁repro
▁septic
obase
amyl
restricted
bile
▁.0
chrom
▁epicardial
idium
▁77%
▁HeLa
omere
▁preparations
▁alanine
▁51
▁creatinine
▁sterol
▁replication
▁proportions
1:
▁sensitization
▁exce
89
▁0.02)
-2.0
teroids
▁adherence
▁ethyl
▁solubilized
▁tandem
endri
hypertensive
insulin
▁parox
▁thi
oproterenol
▁62%
▁amide
atally
▁lobe
▁blockade
▁112
ventricular
▁homozygous
▁midline
▁menstr
illus
▁respiratory
▁hypocalcemia
▁allograft
tage
▁37
▁CSF
▁Cardiac
▁stratification
bred
▁101
82
▁monitored
▁spleen
▁(197
▁analgesics
▁diaphragm
▁Pulmonary
▁intercourse
▁constructs
olytic
▁synovial
trates
▁proteinase
▁benzo
▁Engl
▁discrep
organisms
▁strips
▁seizure
▁folding
▁intrad
▁gon
opamine
ochondr
yto
▁92
ecu
tionally
▁usefulness
▁confluent
▁sexually
ducing
▁selectivity
▁streptococcal
▁pregnancies
ATP
▁GAD
▁immunization
imeth
▁pyram
▁69%
▁mU
▁polyclonal
▁attitu
▁0.27
ergen
▁foc
resis
heximide
antigen
▁nM
▁isoelectric
▁fluo
anide
▁Tx
opam
▁Cul
vitamin
▁endonuclease
ografts
▁atri
▁ethanol
cyt
▁resour
▁dams
▁lesion
▁20-
creatinine
▁pep
▁hydrop
tory
▁transforming
▁confirms
▁200
▁reser
▁enl
odies
▁AMP
▁hypertension
ervoir
dimethyl
▁catheterization
ophil
▁oste
▁filament
erox
▁(50
tension
crist
▁calor
▁intermedi
▁metoprolol
▁dipyridamole
▁stratum
▁differed
otid
▁neon
▁chond
anadate
▁leuk
▁physiology
▁dichro
helial
▁emo
▁thir
▁LPL
effects
inamide
▁discrepancy
▁3%
▁pigment
▁lymphocytes
phal
0.3
olig
rox
Tu
▁homogenate
▁dysfunction
▁airways
4/
▁efficacious
sus
▁Ig
trop
onad
▁anaesthe
▁anis
accharides
▁DBP
strain
titial
trig
▁-0.0
▁correlations
▁endoplasmic
▁overex
▁truncated
▁inbred
chloride
inhib
bular
▁MG
▁duodenal
▁TRH
▁thirds
pont
▁reduc
▁caud
▁computerized
vivors
▁exogenous
▁ald
erents
▁preoptic
▁GABA
▁KD
TSH
idne
▁oxy
▁atrium
▁endometrium
▁pertussis
oracic
▁underestimated
▁phy
▁grafts
oreactive
▁psychiatric
▁retinoic
▁posttrans
▁halothane
▁analgesic
▁gases
▁intrac
▁ascorbate
▁wean
▁epinephrine
▁amplification
lamy
▁subpopulations
opus
phragm
tional
▁catecholamines
▁hyperthyroidism
▁ligands
▁Lact
tine
anad
ovine
▁Staphyloc
▁embry
▁1-2
▁unresponsive
▁excitation
-1-
edema
omegaly
ucose
▁(37
2),
▁1.
rays
stim
anav
tality
▁129
▁enhancing
▁myc
▁herpes
▁Assess
tRNA
▁modulating
butyrate
▁thyroidectomy
▁0
▁Obs
asses
▁hemoglobin
▁implying
▁MRSA
▁genomes
-14
▁bp
ysm
▁pars
▁polyethylene
▁RII
OH
▁dementia
otoxic
osus
▁rIL
ncy
▁stimulating
▁mesenteric
▁eccentric
.5
▁prostacyclin
▁carbonic
-13
▁elevations
▁(50%)
idis
▁effector
▁subcutaneous
▁7.
▁54%
▁193
▁construc
▁endometri
▁isot
ocardi
▁radicals
mTc
▁30%
▁adipocytes
▁mating
▁excitability
oprotein
▁intraepithelial
▁glutathione
▁(60%)
acterial
▁Increased
▁Biochem
Dawley
▁immunohist
eded
▁stres
00
-3
-19
▁chambers
junctional
inic
▁neurop
uncture
ostatic
urea
exercise
▁coordination
▁0.000
tamine
adenosine
▁isoforms
▁captopril
illar
▁pyro
ulants
▁undergoing
▁myocardial
▁preferen
violet
ocl
uin
67
icep
▁Lym
▁sequentially
▁nutrient
oA
rance
inescence
▁dialys
tead
▁dyst
▁(0
▁dias
obenz
▁mutagenic
▁Abnormal
iferative
eal
▁VO
▁ulcer
▁yeast
▁termed
▁questionnaire
▁suture
▁latent
▁Seventy
▁branched
ectable
ulline
▁withdrawn
▁parac
▁reperfusion
▁rods
▁acet
▁8%
▁hypothetical
▁circumflex
▁nodular
▁TS
▁cruc
▁anesthesia
RIF
▁resembling
▁atherosclerosis
▁synthetase
▁abl
▁aspartate
▁perforation
▁antigens
▁Myc
▁RNAs
pig
-7)
▁parental
▁1.7
odeoxy
▁nonsmokers
▁0.50
▁adop
▁inward
ruc
▁fulminant
▁subend
▁femoral
▁EPR
▁Thir
elan
▁ventric
▁Neuro
▁10.0
flurane
▁103
▁terat
▁psoriasis
▁assayed
▁antagon
nithine
▁PCO
▁hepatitis
trol
-6)
▁smear
▁TC
ogenetic
▁HB
▁tac
▁35-
▁indi
▁duc
Bs
bacter
▁synthe
▁efficacy
reactive
39
posure
▁keto
▁PRL
anol
▁neutropenia
▁mitochondria
▁autoantibody
▁0.07
▁aggression
osides
▁104
icardial
▁forearm
▁cros
▁deform
▁oligonucleotide
▁thal
▁induce
▁angioplasty
ionine
▁phe
▁valpro
BMI
▁rehabilitation
▁gradi
▁weakly
▁0%
albumin
▁reproduc
▁thymic
.00
ulmonary
▁fatty
trating
naph
▁Doppler
sero
wann
▁119
▁bilirubin
▁122
▁marrow
▁mediated
▁(82
chlorothiazide
semin
acute
▁hematocrit
▁morphological
▁circumst
▁thorac
▁reversible
▁adjus
▁brid
▁cerebellum
▁caro
utions
▁(28
trin
▁3',5'-
▁CRP
▁constituted
▁inhalation
ervical
▁gonad
▁(36
▁18
portant
onate
incubation
▁cumulative
enters
oxone
▁0.44
▁reproductive
▁substanti
▁chloride
▁intubation
pli
▁mitogen
▁chromatographic
▁3',
▁semin
ographs
▁leukocyte
▁lacked
▁106
▁dentate
▁stationary
▁junctions
▁elong
▁mildly
▁oestrogen
▁preoperatively
▁aor
▁2.8
rectomy
apatite
+)-
▁MMC
aminob
▁practitioner
▁empir
▁migraine
ociation
▁spasm
▁LV
irds
▁0.56
oalveolar
tig
▁PGI
vive
▁45%
▁nitroprusside
omethyl
▁genetically
athioprine
tectomy
▁criterion
uted
dia
▁hyperb
omyel
▁94%
▁mutated
tential
/8
tran
dotoxin
▁threonine
ducts
▁glomerul
▁Accordingly
▁libr
virus
tioned
▁plots
idone
▁vitamins
-1).
▁aluminum
/24
▁persistently
▁(5
▁monocytes
▁uncontrolled
▁diets
▁phospholipase
regulated
erate
rosemide
urate
acet
▁atrophy
asive
ults
▁desm
76
opha
plemented
▁exhibiting
▁Pb
▁hypon
▁5.4
▁cholec
▁[1
▁cerebrovascular
ochondrial
▁contracep
▁voluntary
untary
▁(80
▁adrenergic
▁(1.5
▁catalyzes
▁hyperthyroid
atories
▁(8%)
▁anticonvulsant
▁folate
ometri
▁bradycardia
▁Combined
▁sonography
▁prognosis
▁5%,
▁intercellular
thmic
astolic
▁1-
▁cyclosporin
▁hygiene
▁fibre
▁fracture
9;
▁9-
sensitivity
▁SG
▁PB
tent
▁hyperthermia
GABA
▁Progesterone
2%
▁HLA
SAID
▁incubated
lood
thanol
▁LM
transferase
▁(48
▁(5%)
▁Apgar
aturity
tigu
yclic
uccin
▁1.6
▁noninvasive
▁guanine
▁decreases
▁agglutination
othyronine
therapy
▁147
▁11%
ozo
▁fas
▁catechol
▁retention
▁tran
▁sput
urones
▁endpoints
articular
▁8.1
▁unchanged
▁jejunum
▁PHA
▁Risk
radi
▁resol
3%)
▁Increases
▁leukotri
lytic
4;
▁migrated
▁0.
▁spectrometry
▁900
dine
▁potentials
opeptide
▁100%.
▁(3
ucl
immuno
mol
▁exert
ected
▁48-
▁0.025
▁promin
▁diarrh
▁infil
▁infertility
▁carbox
▁17
▁postnatal
▁Identif
▁60.
exis
▁Lp
leu
pecific
uled
▁varicella
▁recruitment
takes
▁(198
▁2.3
▁frog
▁ribosomes
▁neuroendocrine
000
▁solubility
▁endometrial
▁antif
-1,
▁immunologically
▁Entero
ellular
▁conges
▁54
orpor
▁amniotic
▁algor
agin
▁83%
▁secreted
▁13,
0.0
▁outward
▁perfusion
▁regimen
▁OKT
▁synaptosomes
▁elucidate
issive
▁hipp
▁20.
▁inhaled
▁nuclease
▁spindle
▁arterial
▁0.01),
19
3-
.6%
▁hyperpolar
▁neuromuscular
vices
tively
▁erythematosus
flamm
▁stren
▁fertilization
venous
otting
▁Mn
▁ODC
25)
orh
▁restor
amphetamine
34
abd
ophilic
phosphatase
responsive
▁wavelength
▁Examination
gia
▁pyramidal
▁antagonism
yro
▁biopsy
adex
ochemistry
oactive
▁Findings
▁investigations
▁NADPH
9).
▁circulatory
oproteins
▁MAP
adap
▁Tyr
▁hyperglycemia
▁144
▁occl
▁palp
▁progen
▁medically
ylamide
▁0.45
▁ank
▁0.12
▁accelerated
onucl
▁ornithine
▁duoden
▁pups
muc
▁inotropic
▁35%
▁irregular
80
▁Functional
▁analogue
▁stenosis
phen
▁selen
▁formalin
▁discon
▁gestation
▁lifest
▁radiographs
▁SPL
▁pati
▁segreg
adder
▁Graves
▁31
otoxin
▁51%
▁neuropsych
▁thrombolytic
▁immuno
▁corpus
7.
mented
▁Reduction
▁placebo
▁morphology
▁inoculated
▁circadian
ofil
▁orally
-6
▁caries
▁eukaryotic
▁exceeded
▁Bac
inone
▁cytosolic
▁71
athetic
etition
OA
▁opiate
▁resonance
▁(38
sAg
thmias
▁Cys
stained
.3%)
▁decreas
▁aspirin
ritish
kines
dependently
▁adenocarcin
▁nonlinear
▁severity
SBP
▁inhibitors
▁trache
▁interventions
Glu
▁aureus
7,
▁modeled
▁196
▁FFA
▁gamma
▁Alzheimer
▁DMP
.0%
▁lysis
▁bacterio
adrenoceptors
▁variability
▁deficit
KD
▁parame
eared
romed
▁platelet
▁regurg
▁transfusion
PAT
▁promoter
▁bronchodil
▁55
▁344
▁placent
brom
▁antis
ecre
▁undertaken
▁antibody
▁instability
molec
▁neuraminidase
▁upstream
▁monol
▁paternal
▁paral
▁Vmax
▁allergic
▁tumors
uting
▁0.05),
▁centrifugation
antigens
pyrene
diastolic
uplex
icin
▁expressing
affec
hydryl
▁Ib
▁MCF
AVP
▁selective
-20
▁0.005).
▁dosage
▁consecu
embry
▁immunized
overed
osclerosis
▁sequel
rinary
trip
▁enrol
LH
odopa
▁(99
▁opioid
amus
ximal
▁dihyd
romic
pendence
▁2.5-
vian
▁neurite
phila
▁retur
▁hypothalamus
▁8-
▁augmentation
▁mediator
▁Purified
diol
▁isozymes
▁favored
▁(7%)
▁resected
▁triacylglycerol
▁Epstein
ocysteine
▁preterm
▁eosin
▁Eleven
▁pI
▁hazard
otides
phyl
▁inappropriate
▁53%
▁uv
▁hapten
▁insulin
▁43%
▁75
▁doses
▁modulation
tained
DNA
ocyan
▁abnormal
lyce
▁ACE
▁acces
▁microns
osomal
▁simultaneous
▁mimic
▁sphing
▁palmit
▁Caucasian
▁anomal
vity
subs
odipine
muscle
plementation
▁8.0
▁Cardi
▁potencies
▁(34
▁antidepressant
▁prolactin
▁mumol
▁shortening
▁Evaluation
▁LMW
▁residue
▁fructose
0.1
▁parietal
ditions
ogenesis
▁epidermal
▁hydrophobic
▁febrile
▁melanomas
asone
hydrox
▁preservation
-1.2
▁4
▁androgens
▁IgA
lymph
idazole
▁dopamine
▁absorbance
▁confirming
▁transplant
▁intron
▁20,
▁compositions
otide
▁TNF
spective
ulph
tensive
etence
▁fron
▁weaning
opres
▁adenylate
▁epidermis
▁attenu
▁DF
▁supernatant
▁microorganisms
▁distrib
▁staphyloc
▁pacemak
▁mediating
▁reticulocyte
▁encoun
▁monolayers
thma
evoked
centr
erving
chym
oste
▁increments
iminary
teral
rosal
ximum
65
robial
stro
▁discriminant
▁Reduc
▁poli
▁Taken
tide
▁-5
▁addic
▁cen
opause
▁80
78
olase
▁kidney
▁susceptibility
▁spectro
▁conjugates
ullary
▁cyclospor
▁epithel
▁genotype
▁progenitors
▁lambs
tization
▁acceleration
▁(3)
▁carbohyd
▁cyclo
▁acyclovir
EMG
▁recordings
PAP
▁amiodarone
▁flexion
▁immunos
▁exud
▁36
years
▁ultrason
▁10(5)
49
▁saphen
▁24-
▁(10(-5)
▁1986
▁testis
▁adrenaline
▁exis
▁transverse
▁BV
▁determinants
▁tubercul
▁catalyzed
▁0.08
squ
▁chlorhexidine
▁(93
▁monolayer
CRP
▁reac
▁nodal
gestin
▁Lymph
▁halves
▁anatomic
kD
▁quinidine
▁perin
▁operon
▁recr
▁previ
4%
▁excision
▁cerv
▁synergistic
pyr
▁186
rophic
DG
unsaturated
▁Sepharose
tate
uantitative
▁30%.
▁nodule
▁viral
▁.01)
Glc
▁immunoreactive
▁lytic
▁granule
▁differentiated
▁cardiomyopathy
▁15%
▁rheum
▁benign
-2)
oluble
▁chondrocytes
▁latency
▁hyperlipid
▁rabb
▁encomp
▁IIb
▁(2
ths
esia
tryptamine
▁deple
▁bladder
Cys
astom
▁CCK
▁chromat
▁adhesive
▁hydrophilic
12
▁cate
▁rises
ammon
▁0.80
▁vaccin
▁[(
▁puber
oagulation
obarb
▁titers
▁0.20
▁+/-
▁Previous
▁transmembrane
▁quantified
▁cultured
▁asbestos
▁nonresponders
▁96%
▁Cs
▁CHF
assi
▁Carb
acted
ecyl
▁freshly
▁pharmacy
hion
▁explants
ighteen
▁retrospective
derived
▁hypo
oplasia
▁tol
▁buc
saccharide
▁tyrosine
uronal
TGF
▁wors
▁vivo
▁40%
▁paroxys
coated
▁Arterial
oplas
▁proliferation
▁hematologic
roat
▁microliters
▁junction
alues
triphosphate
▁improves
▁phenomena
▁cycling
▁combin
lastoma
▁EA
▁epilepsy
▁280
▁immun
▁glycerol
▁heparan
▁201
glycerol
▁hered
▁postoperatively
aceous
▁erythrocytes
▁3,
▁2.9
▁shorten
▁isotope
▁effusion
comitant
▁clu
ylate
▁adulthood
▁infra
disc
fractions
▁Experim
omers
liters
▁1)
▁Histologic
▁infar
▁horiz
hydration
▁muM
olization
charomyces
▁graded
▁72
▁GLUT
▁oxidized
rostenedione
▁fluoro
tive
▁symp
▁21
(3
▁(3.0
6.
affinity
sia
▁devoid
iodothyronine
▁(2.6
roxen
itonin
▁11.
▁retin
▁hetero
1-
otri
▁intravascular
▁inver
▁arrhythmia
▁105
psin
▁submuc
▁cann
▁pathology
▁estrogen
phot
uracil
▁deposition
▁esterase
▁conformational
▁eryth
pressure
▁91
translated
▁demonstrable
▁8
▁kinase
tagland
6%
ithine
▁Gluc
natal
within
▁clon
▁suppressor
▁selenium
▁carcinogenic
ensitized
tially
▁inhibited
▁relap
▁monomeric
ylline
cells
▁biop
▁arb
▁experimentally
5)
▁59%
▁Chronic
▁73%
letion
▁0.13
▁isoprenaline
havi
▁arterioles
▁BALB
izine
▁epithelial
▁Eco
▁digesti
0%).
▁inadequate
▁cyclic
▁Mg
▁transcripts
▁equivalents
▁bronchoscopy
kets
▁AH
▁sham
▁hypertro
▁degrad
▁sulfate
ologous
rogenic
▁9
glutinin
upuncture
▁cholest
alian
▁19%
▁postural
ogens
▁Staphylococcus
▁cortic
▁adherent
▁sorb
▁puberty
▁HDL
▁infrequent
▁Injection
▁bloc
▁transduc
▁manifestation
▁NSAIDs
embr
adiol
dered
anavalin
osacral
olateral
dyle
▁conflicting
]-
uminal
Cs
ifed
▁elective
▁Afric
▁exhibited
nitine
▁carcinogens
▁estrous
▁transi
rolase
▁studi
▁Concentrations
▁ionic
▁ureth
▁PMS
14,
ficial
▁converting
▁obese
▁favorably
▁synthesize
▁GFR
amel
-6,
pecies
▁[125
▁macrom
orsal
▁antisera
▁NMR
▁blockers
omical
▁codon
▁mammalian
CAT
dent
▁radioimmuno
▁celiac
ilep
ampl
▁FSH
▁Kinetic
1.1
▁conduction
hydroxyphenyl
▁adenocarcinoma
▁suction
▁1500
▁mRNAs
▁58%
▁impulse
▁31,
yrox
farin
▁exten
▁derange
▁radioactive
▁anastom
▁diges
ller
uanti
▁indis
▁electroph
▁cesarean
▁athe
▁microvascular
cytochrome
▁livers
▁tolerated
▁kinases
▁126
ococci
yrate
▁vasoconstric
▁amo
amino
▁osteoc
700
▁bene
▁compensatory
▁originating
▁197
▁(40
orax
▁10%.
▁hypoglycemic
▁nonex
▁motif
▁0.2,
▁cooperative
▁intermittent
▁vasodil
rosophila
▁anaerobic
ologic
▁crude
▁43
filament
▁asbest
ipril
▁(300
▁Sixteen
▁125
aluation
irub
▁similarities
▁multis
crimin
▁immunocyt
reening
▁trophob
▁paroxysmal
▁clones
▁10(-1
▁cerebral
▁substantially
ikary
▁171
Rs
onidine
aginal
orin
▁Platelet
etan
-[
roprusside
tened
▁Nineteen
olestero
▁regar
▁phenotypic
luent
▁neuroleptic
▁3.1
▁lesions
▁injur
▁intensities
1/
▁cations
coh
iotics
▁epitope
▁(-)-
adication
▁2,3-
100
tronic
▁hypothyroid
▁translocation
feeding
▁lamina
▁600
▁bronchoalveolar
▁starch
▁0.1
▁shortened
ivary
▁salivary
▁deliveries
0%,
▁Bacterial
▁potentiation
▁contractions
▁transplanted
▁glycosylation
▁cohorts
ropriate
molality
▁nicotine
MDA
olone
▁3.0
▁Golgi
▁murmur
▁longitudinal
jury
ylcholine
ctive
▁microvilli
-5
infection
gnetic
▁malignancies
▁septal
▁Thyroid
▁unil
ighted
▁transcription
olip
▁trac
▁autologous
monella
▁sigma
▁vein
▁PGE
▁phosphate
▁(27
▁incom
Ig
▁contractility
▁anae
▁HCl
▁pneumon
▁cardiople
98
▁prognostic
▁carbamazepine
6).
▁arth
▁ether
▁asymme
▁peripheral
▁esophageal
uspid
4.
▁antiserum
nutrition
▁ventral
▁3.8
▁superiority
▁digoxin
▁aggregation
▁parathyroid
▁binds
▁Cyt
▁equivocal
▁lumen
▁antec
turition
-7
▁insuff
▁disper
▁superoxide
mum
▁stric
potassium
PGF
▁hypertensive
▁(60
▁quantitated
▁precursor
▁ventilatory
▁97
▁amel
▁LTD
▁atopic
▁lowers
▁gluc
▁74
▁Clinical
▁molec
▁differentiating
hydrop
vul
adren
▁0.05
▁defic
▁heterodim
tic
SDS
erance
▁enhances
16
riamycin
▁nigra
▁vertebrate
▁dysp
Lys
▁adren
itre
▁20,000
▁cellulose
▁seronegative
▁interleukin
oate
otopic
▁recruited
▁uniformly
▁proteolysis
roscop
▁vesicles
▁kary
▁59
▁venti
ophila
▁micros
imentation
tries
okine
bly
ylase
▁radiol
▁6.9
ionate
▁asymmetric
▁subcl
▁lineage
isite
▁Tc
▁thems
tensity
▁57
▁(9%)
5).
▁20%,
▁phosphorus
▁reflex
56
▁hypotonic
admium
▁unfractionated
toxicity
adrenoceptor
▁53
▁limb
cys
deoxy
tember
renal
▁adenosine
▁conditioned
CSF
▁peric
ylephrine
▁necrosis
▁olfactory
vastatin
▁aryl
erable
ethanol
▁galact
▁hippocampal
▁differing
▁perfusate
vae
▁LTC
96
▁hemisphere
▁anticoagulation
▁malignancy
thi
estions
▁autopsy
▁relaxant
▁uterine
▁mutations
▁LVH
uccess
▁phenyl
▁ciliary
▁notic
turnal
▁waveform
eptide
ophren
▁imaging
operidol
45
▁glucocortic
▁sutures
▁secretagogues
▁ow
eliac
▁mell
▁immunosuppres
7,000
▁edema
▁nif
▁labeling
▁underestim
▁lactate
▁symme
▁puncture
▁neurologic
yx
-29
▁demographic
▁1000
▁transporter
▁aeti
eryth
▁nucleotides
▁neutralizing
establ
▁monoclonal
▁nmol
iprofloxacin
ifedipine
▁mononuclear
▁extracorporeal
▁aerosol
▁cloning
▁identif
120
ferrin
▁131
roin
▁0.001
incubated
▁spind
▁derm
tituted
melan
▁calves
▁calcification
▁CRF
glucosamine
hemagglutinin
9),
▁ADR
▁bathing
▁Inhibition
▁brady
▁schedules
▁islet
▁morphine
▁Hep
disciplinary
▁modestly
tron
▁anxio
▁enrichment
dural
epti
▁lep
TNF
estion
/10
▁Binding
lix
totic
▁cytoskeletal
▁1989
▁inhibition
▁phosphatase
▁microbi
▁psychosocial
glyc
▁incub
▁ACTH
▁rodents
▁35
▁concurrent
▁sexes
▁pancreas
idation
▁microM
▁polys
▁Evid
irectional
▁duodenum
▁fasted
nucleotide
planted
▁hydrolysis
oclonal
▁functionally
▁sci
▁hybrids
LDL
▁colonies
activating
▁tetrodotoxin
▁ultr
▁mercury
▁cyclase
rocy
▁Oste
▁lysosomes
▁anomalies
▁statis
▁seb
▁80%.
ondr
uretic
lasting
▁accessibility
iphene
▁contributes
umably
▁indirectly
▁polymerization
▁subcutaneously
▁degradation
59
▁uptake
▁insufficiency
ometh
▁(43
▁therapeu
▁esophagitis
ypro
▁nucleic
Pa
omatous
▁Comparison
▁fossa
▁hyperactivity
50)
5%,
▁carnitine
2;
achid
▁21-
▁-1
▁Whereas
▁formulations
▁validated
▁DNAs
cious
▁90-
ogenously
41
▁Leydig
▁laminin
▁intensive
pinal
▁(10(-6)
NH
▁0.5
▁0.01)
zotocin
▁coag
▁pathological
▁splicing
▁perfused
oung
▁benzyl
-45
▁cef
▁deficient
▁leukemic
40)
▁jejunal
ustif
▁glucuron
▁regurgitation
▁nylon
▁laboratories
▁27
abies
gment
▁creatine
▁Recom
▁thyro
▁spermat
▁allergy
▁macropha
▁antiv
feren
▁roset
▁42%
▁effic
▁differentially
▁mitotic
fusion
▁distinguishing
▁bioavailability
▁CDDP
reness
▁displacement
▁dopaminergic
▁antagonist
effec
entical
▁LPS
▁methionine
▁8.2
otherapeutic
▁margins
oblastoma
▁fecal
▁intra
serine
plast
tectable
thio
viral
▁NH
▁splic
▁saphenous
▁seizures
▁spacer
scher
ventil
▁cardiopulmonary
▁Factor
IU
▁biochemical
▁muscarinic
▁pla
▁Treatment
▁promotes
tetra
▁contraceptives
▁eradic
sian
▁cofactor
▁biologically
▁estradiol
ocortical
▁lysine
▁pharmacokinetic
pended
▁GV
Cu
▁VH
merc
▁triphosphate
electro
▁transplants
otropin
▁nonsteroidal
odop
▁nitric
▁transplantation
▁FGF
51
enkephalin
rowing
▁(49
ortal
)2
limiting
.6,
▁astrocytes
▁arousal
endorphin
▁extensively
▁vitro
▁regulates
▁affec
uria
cellulose
▁casein
▁phosphorylase
tening
ncies
▁modulated
azepine
▁140
reflex
▁pS
▁(35
▁DVT
avail
▁joints
▁devi
▁Elec
▁GH
▁amyloid
amental
▁Epid
aterals
aind
▁postpartum
▁potenti
ysto
agonists
▁uterus
roprus
▁primed
▁hypercalcemia
▁epiderm
atitis
▁Maximum
▁carcinogen
thoracic
▁isoform
welling
▁(10(
▁tes
79
60
▁79
▁Growth
▁Incubation
▁intraperitoneal
enzyme
▁8.4
▁hemorrhagic
RH
trients
▁mEq
odil
▁mixtures
▁33
▁phosph
urin
ifugation
ygo
84
alc
▁guinea
▁traumatic
▁27%
▁AVP
itant
azep
-50
▁8.6
▁facilitated
corrected
oblas
raine
▁chor
▁transferase
plastic
▁fluor
opathology
▁abnormally
▁reconstitution
▁treadmill
oflurane
teroid
▁nitrate
ANF
▁intrinsic
▁SOD
tetradecanoyl
BW
▁Respon
▁spectroscopy
uric
ystic
▁schizophren
▁ischem
▁microbial
▁autonomic
▁phenobarbital
▁alternating
▁91%
▁porcine
▁elicited
▁nm
▁pulsed
▁hamster
mia
▁preferential
▁benzodiazepines
iae
▁Experimental
▁diuretic
-8)
ilized
atif
▁degeneration
▁subtilis
▁Disease
▁indus
▁ovaries
▁teratogenic
ovulatory
mittent
▁starvation
▁DD
▁Phy
▁debr
▁permits
▁produc
▁0.1,
.7%
▁judged
▁lyso
roglobulin
▁29,
loride
tococcus
ealand
▁recognizes
▁198
▁endemic
▁hemo
▁scre
▁paradig
▁intake
▁obesity
▁3.3
fiber
entified
▁Differen
-65
▁undergo
▁10(9)
▁hindlimb
▁deviation
tris
▁(17
▁antibodies
odia
▁diffus
2,
▁yiel
ipital
▁infrared
▁55%
▁0.29
▁115
azoline
2+.
oventricular
ovastatin
▁signaling
azol
pH
▁chemo
▁4-
uctose
bladder
▁70-
▁deline
▁9%
osterone
▁pneumoniae
▁clinicians
▁antin
-300
▁graft
odium
▁epidural
▁Stu
▁Diabetes
owever
▁propensity
ritic
▁unstimulated
threatening
▁MAO
sies
▁63
▁hemisp
lational
▁75%
▁confounding
▁elevated
trac
purified
brain
sensitive
▁3).
riched
opril
▁cys
▁cytology
hyp
▁actinomycin
avage
secre
▁skeletal
▁lining
▁hens
▁5.1
0.9
osynthe
▁glycosaminoglyc
▁splenic
▁identi
aturated
oglobulin
inum
▁NIDDM
Hu
▁erythropo
▁0.0
▁dilatation
▁rabbit
▁macrophages
rophen
▁Conventional
▁messenger
▁Haemophilus
18
▁proline
ucas
▁natri
▁NR
erebral
brile
GlcNAc
▁mucin
▁sulfhydryl
▁cured
▁72%
▁irritation
▁choles
▁enamel
inositol
▁1.25
▁pylori
▁varic
▁inters
▁goiter
▁immunologic
trient
▁Swed
3/
otypes
▁16%
▁(95%
▁PF
▁promoters
ranged
▁congestion
▁monomer
yrid
▁diuresis
▁adap
conver
▁diagnose
opoiesis
▁overt
▁myo
ocaine
▁brom
Tyr
eroxide
▁mitral
▁blinded
▁successive
▁effec
othane
otrypsin
▁serotypes
▁cloned
enin
▁lapa
▁PDE
iline
2,000
▁replic
▁vertebral
asal
▁Initi
%),
▁bic
oplasma
mitters
▁0.24
▁proteinuria
▁recombin
▁peroxis
▁Plasma
guan
2]
▁junctional
ucine
coun
▁metoclopramide
▁covari
▁nonpregnant
7;
ithelial
14
▁positively
ropathy
▁moderately
ylation
oneph
▁unres
gely
▁epidemic
▁Intravenous
ulses
▁ANP
▁focal
▁substrate
idated
▁Experiments
oxamine
estis
▁GMP
▁80-
▁arginine
▁strand
▁electrically
▁SMC
▁hepatoma
▁fixation
respective
oceptor
▁artifact
umbens
erule
onine
▁reag
opo
▁PDGF
apeptide
▁adolescent
▁0.21
▁CRH
enriched
▁typh
▁basolateral
▁transferrin
▁instrumented
cellular
▁VP
▁enhancer
▁catheters
olarization
▁cutaneous
▁neonates
▁gradual
▁postmenopausal
▁256
▁progressively
▁potentiated
▁tachycardia
▁increas
▁unexplained
tral
▁prospectively
▁antim
▁coli
inally
▁Krebs
zyme
▁shor
▁illus
▁discontinu
▁fluctu
▁patency
▁NADP
ordance
▁pacemaker
tracted
▁nucleoside
ophys
reasing
▁84
▁ureter
▁rabbits
▁tetan
▁sequencing
blast
wk
▁inducer
-40%
▁Lys
primed
▁177
rosy
▁excised
onyl
▁bony
perfusion
32
(1,
▁mAb
▁preoperative
▁paradox
▁standardi
throm
▁9.7
ustained
▁worsened
genic
▁conjug
entanyl
▁renin
epines
▁thyroiditis
mend
hene
-5,
-9)
lyl
▁lam
▁Patients
-3.
▁immunocompetent
▁psychomotor
-35
▁neutroph
▁therapies
▁inpatients
ochemically
▁alkal
▁tec
odopsin
normally
ameth
▁ADA
▁virul
▁MBP
▁(0.3
▁radiolab
▁autop
23187
5,
▁0.63
2318
▁gland
▁prolif
-4
0.2
▁degenerative
▁DEAE
▁optic
▁plasmin
imodipine
000,
▁Epidemi
▁histologic
▁respec
31
ensitization
▁cobal
▁etoposide
▁electrocardi
▁cholinergic
▁preceded
▁ovariectomized
▁vulgaris
keto
▁purine
▁rumen
▁stimulant
▁denaturation
▁Infection
▁hydrochloride
▁ewes
▁allergen
▁ADP
ocyte
▁exerts
▁scanning
ailure
8-
▁premenopausal
▁secretagog
▁transgenic
▁drainage
illaries
▁incubation
▁gum
▁Preliminary
▁saline
ynaptic
-12
▁apolipoprotein
-0
globulin
ietin
▁disappearance
osocial
▁apomorphine
▁0.4
▁relapse
dil
▁depolarized
ithromycin
▁interacted
▁dismut
▁chromaffin
▁expec
eradish
▁.05)
olesterol
▁10(-4)
▁epsilon
▁PTH
abilized
▁radiograph
atinine
▁10(
▁coronary
▁embolism
▁ofloxacin
▁intox
▁proceeded
ialysis
eminal
58
macrophage
▁tach
ulae
▁ECG
▁tetra
lamp
ocys
etine
▁50,
xual
▁apo
▁ach
-6-
▁oestradiol
▁phosphodies
▁enzyme
▁hydrolyzed
▁Thy
imentin
▁ae
▁succes
▁overload
▁47
▁remo
▁recom
▁echocardi
▁saliv
▁amputation
▁65%
adic
▁autoreg
▁32
▁1:
agittal
april
▁Viral
▁carboxyl
▁ganglion
▁toxicity
▁expres
▁splanchnic
▁kD
▁adsorbed
▁transfection
▁(46
▁inflamm
▁perox
alate
▁polymerase
▁detects
ogenic
FSH
amn
▁initiate
reast
▁amygdal
glucosidase
butamol
inase
odg
▁Stimulation
roscopy
▁1-3
▁Subjects
apamil
▁methyl
romycin
ofluores
▁incorporation
0.6
▁sequelae
▁sacrificed
▁serotonergic
heum
-)-
▁somatosensory
▁consequently
▁stimulate
tak
rences
▁HM
Ca
▁64
▁micrograms
▁(0.2
obases
ints
tative
namic
▁10.
ardias
esthe
▁adjuvant
▁ovari
acrine
osome
odialysis
.6
▁thallium
▁5.5
▁10(-10)
onegative
traum
tillation
▁abrup
entif
azolam
▁carcinogenesis
▁variants
thym
oprim
dial
▁50%
▁deoxy
ocar
▁71%
▁genotypes
ignant
assay
emble
▁accid
▁deoxyrib
▁vagal
atite
ectin
lamin
▁tRNA
admill
▁95
▁sarcoma
-10)
HCO
▁NF
earance
elves
odiaz
▁hypothesized
▁gastro
▁Nine
oxin
tility
reported
▁5-
▁glutamic
▁dosages
othreitol
ycline
▁causal
anine
2(
▁1200
▁respondents
2+
▁scle
8%)
▁phenotypes
▁dextran
▁antral
abain
-75
BH
▁resul
▁enal
▁1,
▁crest
PRL
▁regen
andida
▁resec
gene
▁110
▁Investig
▁muscul
gulation
▁iodine
450
▁slowing
cence
▁ejection
▁biopsies
▁murine
greater
▁emphasized
▁10(6)
ductive
▁adul
▁serotype
leucine
ilateral
opressin
▁laparoscopy
encephal
▁Regarding
▁protr
▁HBV
▁hyperther
▁rostr
▁amph
▁reabsorption
unar
male
reases
▁CABG
▁insensitive
▁unusually
tensin
▁neutrophil
▁islets
rein
▁12
▁9.
▁tended
▁1970
▁700
▁cytokines
▁34
▁augmenting
90)
▁fum
▁transported
▁29
▁pleural
▁rodent
▁5.6
responding
lasts
trib
▁fmol
aminop
▁oncogene
tection
benzo
reactivity
▁mellitus
arrh
uppression
▁tubes
▁PGF
roso
▁4).
▁averaged
▁ips
ervations
▁thrombus
lact
▁predisposition
▁abstin
lactam
71
▁uncomplicated
▁refrac
▁proton
oside
▁(25
▁heavier
▁differe
phenyl
▁(45
▁0.33
▁1.1
-72
▁incremental
▁depolarizing
▁1.2
dihydro
▁exposures
▁inverted
▁cisplatin
anat
95
▁discontinued
umerous
arbonate
▁recons
embrane
▁calcium
▁epidemiological
ETE
▁LDL
▁trig
divid
▁denatured
▁olig
rae
▁calcified
▁bulb
▁67%
▁93%
▁(18%)
▁saturable
▁adsorption
▁cla
▁2%
ronchial
quinone
▁lor
oxia
▁evaluable
.4
▁interv
▁Groups
▁inconsistent
▁5.
▁untrained
glycoprotein
▁disseminated
▁characteris
ffer
rever
▁ligament
▁covalently
▁plex
▁urine
▁glycogen
▁ane
▁examin
RNA
▁bromocriptine
▁residual
iagn
▁TA
▁uric
▁instruc
▁electromy
▁amp
▁adhered
rospinal
▁lactose
▁collaterals
▁alters
zation
onatal
▁cyan
▁oligonucle
▁sulph
thre
▁hypoglycemia
▁poin
erated
schem
▁prevalent
▁69
▁3.4
ADP
▁staging
▁26%
onvul
▁doubled
▁coagulation
▁androgen
arynx
▁173
chlo
▁0.26
achial
▁14,
▁aden
▁127
▁babo
-4.
▁bowel
▁inten
urons
▁subsets
toph
accharide
▁Increas
2).
▁impairment
▁epidemi
tinguish
gluc
▁97%
depleted
▁constitute
▁1/
glutamyl
ociated
▁furosemide
▁diarrhea
▁plantar
urrent
▁ANG
▁nosocomial
▁examinations
▁ori
yridine
▁tryp
▁Increasing
IAA
▁demonstration
▁paradoxical
▁umbilical
▁sputum
4,5-
▁measurable
▁glycemic
▁1.5-
▁polyacrylamide
▁streptoc
▁resemb
▁coated
plenic
▁alk
▁collic
ACh
▁carbohydrate
▁fractures
▁ester
▁sedim
phasic
▁impedance
▁leucine
▁189
traction
tropin
99
▁promp
gesterone
lox
7),
▁qualitatively
gents
▁paren
rine
2+-
cus
▁reticul
▁membranes
Cer
▁subun
▁intermediates
▁theophylline
▁77
▁attrib
Hb
▁thalamic
▁(0.9
bility
▁suspensions
▁Lipid
▁nucleus
▁congestive
▁succin
▁serogroup
ivered
▁Interestingly
▁demonstrates
anuary
+/-
▁ventilated
▁34%
mortem
▁audi
▁30-
▁EE
▁compares
ropine
/30
▁sulphate
▁eosinophils
▁fibrob
▁lactation
▁PGA
entia
▁indomethacin
oscopy
▁fulfilled
▁catalase
▁breaths
▁(47
epam
▁systemic
cancer
kephalin
▁radioactivity
▁refractory
imidine
itin
▁optimally
▁0.10
roph
iatic
▁chemotherapy
perature
▁.00
▁neutralization
▁MCA
▁SCC
toc
tens
▁(79
▁implic
uterine
▁inorganic
oxide
▁invari
methoxy
oyl
▁hams
▁CFU
glucuron
antibody
▁0.9%
▁12.0
▁LC
52
NAc
▁leukocytes
▁Sprague
.1%)
▁82%
-8
▁12.5
tial
eces
▁spikes
-5-
▁Eighteen
mide
thyroid
▁analges
▁colorectal
▁promptly
ropyl
▁develops
▁arose
ophysical
oblastic
▁acin
▁32%
75
▁dorsal
▁cerebellar
clamp
▁actuarial
▁hydroxy
▁conductance
▁Inte
monstr
▁Ia
▁HbA
▁umb
etitive
▁rhythms
roitin
.4%)
-4)
▁thyroxine
omies
▁uncom
▁aggregates
▁1988.
scherichia
▁gastritis
sequent
▁sugges
▁108
ocyst
▁elongation
▁asthma
▁trypan
▁organelles
▁cholecystokinin
▁unidentified
lycer
▁modulate
▁Elevated
▁bupivacaine
+]
rogesterone
▁satur
otyp
1%)
-28
▁WK
▁ammonium
▁rhy
▁phorbol
▁positional
▁supplementation
herol
▁pA
▁eminence
▁bronchodilator
ospasm
atrial
▁38%
▁axons
agonist
▁recurrence
▁macromolecules
otypic
▁Intracellular
▁BCG
▁collagen
▁neomycin
▁monocyte
▁57%
▁UDP
▁arteriovenous
controlled
▁160
▁activating
ressive
leb
▁vege
▁protons
▁(29
tum
clo
▁confined
▁contiguous
▁DP
▁hrs
▁ablation
limb
allium
▁abscesses
▁Urinary
rocytes
▁scarring
physiological
otropic
▁nonin
erence
iplin
▁manipulation
▁detrusor
▁projections
▁hydroxylase
▁hypertrophic
associated
▁precipit
▁0.78
▁maxillary
ylcholinesterase
benz
▁sorbitol
gthen
▁vestibular
▁170
▁vacu
▁aerobic
▁Leuk
etween
ubertal
▁exploratory
zymes
hydroxy
▁bactericidal
tus
▁0.46
▁40-
▁nonselective
oporosis
▁conjunction
filaments
▁splice
▁responders
▁contral
81
▁BK
▁0.17
▁2.4
▁practic
▁discriminate
▁microelectro
ipro
athe
▁washout
iably
▁250
imin
97
▁183
ensitivity
▁differentiation
▁78%
otrexate
▁GSH
▁affinities
PSPs
dor
piration
▁theore
orec
histamine
trition
▁antiviral
helix
nee
opoly
▁defective
▁reinforcement
▁arous
▁0,
0.7
▁(75
▁amphetamine
▁mutation
sulf
titution
▁aqueous
▁flanking
aline
▁follicles
oride
NIDDM
▁luteinizing
apsulated
▁immunoblotting
▁uro
heat
yroid
▁mammography
▁123
▁exag
▁cancers
▁contractile
terol
queous
▁29%
▁ranged
▁jugular
▁macrophage
▁135
▁0.7
▁RNA
▁influencing
▁enrich
rospor
▁gelatin
▁pulp
ginine
3)
ATPase
ositi
apo
occus
otrop
acetyl
Ds
▁dimer
thmia
▁40
▁leakage
fetoprotein
-1.5
kine
tinent
▁renovascular
▁unnecess
arean
▁necrotizing
veness
galy
▁0.42
▁impair
▁0.05)
▁endocytosis
Fc
ifug
▁pharmac
▁methanol
▁preven
▁triglyceride
▁summ
lusion
anin
▁pectoris
▁topoisomerase
PV
ocardial
▁(62
▁immunological
▁suppres
▁comprised
otone
etidine
▁cytoskeleton
emia
aternal
▁irradi
itic
▁gingival
▁airflow
PMA
▁paired
sulfate
irradiated
sions
6),
atural
▁xyl
xia
soluble
▁lymphatic
▁colchicine
▁responsive
▁lipophilic
▁parasite
▁disposition
IgG
▁leth
▁myristate
▁translational
▁hypers
▁inhal
▁beads
▁solub
▁administered
▁dehydrogenase
▁musc
▁feasibility
▁alveolar
idine
▁ketoconazole
▁mesangial
enil
▁0.3
▁contex
▁3.6
▁infrequently
▁consis
▁glomerular
▁birthweight
▁secrete
▁heterogeneity
▁structurally
38
▁fistula
▁lateral
▁percutaneous
▁AIDS
monary
▁87
▁intractable
tact
ronectin
▁27,
▁isolates
kinje
rophenyl
▁glycosylated
▁characterize
▁thrombo
▁seques
▁350
▁comprising
▁0.001),
potential
utaneous
▁bioassay
rologic
▁(12
▁maturation
oinositi
▁lymphadenopathy
▁amyl
▁newborn
plen
▁hemorrhages
omerular
88
▁enlarge
retion
▁relevance
9%)
▁NGF
▁10(-6)
▁(1.4
tric
▁phospholipids
▁valu
▁4.9
antial
▁subf
▁desaturation
▁lis
▁0.11
▁discus
5]
▁peptid
tolerance
▁tetracycline
onor
▁reflecting
achol
0.4
mobil
▁viability
utyric
▁reductase
▁homeostasis
ocellular
tivated
▁Highly
▁syncope
▁unex
▁cytoplasm
plants
ralfate
▁tuberc
▁satisfactory
▁chromosome
▁6.3
▁disapp
▁accel
dibular
▁metabolism
▁anion
▁depolarization
▁submaximal
▁5%
esity
▁steroid
resid
▁microscopic
▁phyto
tocin
▁blin
▁RS
▁glucocorticoid
▁Bec
oxazole
stimulated
▁elastic
allik
▁maternal
▁1.5%
%).
▁biology
▁antid
70
▁atypical
▁sequential
tenti
▁44
▁fetuses
▁cis
▁10.2
▁IFN
300
glutination
▁coping
▁supine
abin
apid
▁ejac
▁Adverse
▁projec
▁lipids
LV
▁PRA
▁17,
trated
▁VIP
▁antitumor
/10(6)
▁demonstrating
fluoro
▁deletions
▁immobilized
ectomy
▁salvage
▁Survival
tering
▁0.001).
ohyd
▁retardation
▁adenocarcinomas
utable
nitros
▁manifestations
▁hormonal
▁insoluble
/100
-80
horm
opathic
▁Basal
urane
▁corresponded
▁0.00
arum
▁polypeptides
▁deficiency
▁-4
▁nutritional
▁CEA
uble
vaccinated
▁pigs
▁covalent
▁trimethoprim
▁vertebr
-1.
▁moiety
▁Various
▁proliferate
▁periphery
▁oleic
▁prostagland
▁apnea
▁ambulatory
▁intracranial
▁cocaine
hCG
▁econ
▁asymptomatic
▁30
tually
adrenergic
▁DSM
oplastic
▁90%
▁ELISA
▁saturation
▁kilobases
loidy
▁inh
▁20%.
▁vascul
▁hysterectomy
▁0.02).
olones
▁ventilator
▁dimethyl
atation
▁GVHD
▁proteoglyc
▁disclosed
▁specimen
▁crossover
▁underg
▁bacterial
-15
▁hsp
▁92%
▁proteases
▁isozyme
▁tuberculosis
▁prophyl
▁Atrial
receptors
▁challen
▁81
▁antic
▁rheumatoid
▁granular
otomy
▁circulating
dL
tention
▁airway
▁collec
▁7.7
ternational
tomas
▁ductus
▁enti
▁20
-23
1/2
▁irreversible
▁rejection
▁Hypertension
▁8,
▁proteoglycan
94
▁capsaicin
▁synthesized
▁procollagen
ovirus
keletal
tructural
▁134
▁rhinitis
ischem
▁Pretreatment
▁filtration
▁nitroglycerin
110
▁diagnosing
▁(1)
▁pulsatile
▁clamp
▁mM
▁ingested
▁tric
▁genital
5.
▁RIA
▁64%
▁47%
▁26
Km
tiveness
▁drinkers
▁satisfactorily
▁ubiqu
▁globin
▁ultim
▁stimulatory
▁parenteral
conduc
buterol
▁enteral
▁80,
Mg
▁denervated
▁spectroscop
▁lymphoid
▁microtubule
▁Lyt
68
▁5'-
▁APC
ethylene
▁incomplete
siologic
15
▁dithiothreitol
tase
robic
▁subjective
▁shedding
▁dB
▁occurrence
▁cephal
gressive
affected
▁faecal
▁BP
andard
▁lavage
▁stained
▁pacing
estradiol
▁alkaline
▁ammon
▁nig
1,
▁EDTA
2+]
roscopic
opi
▁pneumococcal
▁-3
▁accumbens
▁chromosomal
estig
▁000
▁98
▁facilit
platin
aneously
▁reflux
▁homogene
▁corticosterone
▁1989,
▁irradiation
▁(7
▁duplic
▁intestinal
Sepharose
▁mitosis
▁surgical
▁ascites
▁metabolites
▁laminae
▁inherent
certain
SHR
▁(6
sue
▁perit
▁alp
athic
▁acetic
▁infarct
▁tibia
8%
amet
▁envelop
▁onc
uestion
33
▁negatively
▁11,
itus
▁harb
leukin
adin
▁gp
▁linkage
esin
▁rostral
▁encephal
▁0.67
-25
▁hypot
▁CNS
▁irrigation
▁Trp
tically
▁restenosis
tages
▁Systolic
▁mitochondr
myc
▁orthostatic
▁exerted
▁deli
▁chromatography
▁abrog
▁ADH
▁restraint
alas
athy
▁genome
aortic
▁enanti
▁libitum
▁carcin
hexyl
▁albumin
▁mmol
roma
chemical
▁hypertrophy
▁correlating
toxic
▁superf
4]
▁virtu
▁stool
50,
▁0.02
▁classify
arterial
36
emide
▁8.5
▁mening
teric
onide
▁chimer
▁LAK
arbox
▁HC
▁Evidence
500
nish
▁8.
▁triglycer
▁endot
paired
▁catecholamine
erb
▁complementation
▁activates
▁(4%)
bran
▁uremic
▁enzymes
kling
secreting
valence
▁Antibodies
-1.0
▁postnatally
otent
iliated
▁acinar
▁smokers
operatively
▁immunoprec
iceptive
▁(30
antagon
▁secretion
▁11
▁msec
peptide
odal
▁mAbs
vival
▁acidosis
tested
ausea
▁ciprofloxacin
▁subclinical
gative
-1.1
54
▁connec
▁1988
idating
uvate
▁progenitor
▁0.03
▁amylase
ancomycin
.2%
▁PPD
▁immobil
▁currents
trogen
▁phleb
▁mutants
▁tumor
veolar
▁146
▁contrib
electron
phadex
▁beats
ortic
▁6
▁pathways
omatosis
▁transmitter
▁metast
helium
▁12-
▁repetitive
▁Subjec
altered
▁carotid
-4-
▁unrecognized
▁diarr
▁sarcolem
▁osteoarthritis
9.
+,
chloro
▁154
▁phospholipid
ifers
▁thromb
▁scans
▁behavioural
▁capillary
▁granulocyte
▁wedge
▁Haem
▁glycos
▁ND
▁presynaptic
▁veins
▁25
nthe
neu
▁HF
▁ischaemia
▁infections
▁parotid
▁electr
14)
-125
ticularly
araldehyde
800
▁avian
iflu
trical
▁hydroxyl
▁viscosity
61
pation
-21
hemical
▁stimulates
▁adip
olecular
PAF
▁sinusoidal
sible
ayers
▁retinopathy
▁radionuclide
▁Feeding
3]
▁chl
▁compart
atase
▁mimicked
▁lipoproteins
▁polymorphic
▁controver
▁keratinocytes
▁establ
▁16,
▁mmHg
▁utero
HCV
-4,
▁nontoxic
casein
▁pretreatment
otin
▁thiol
▁ranitidine
▁3000
mur
loon
▁verbal
▁depressive
▁phage
▁Americ
cryst
3%
orphin
▁synap
▁dete
▁transcript
▁(2)
-52
▁sial
iary
▁atrial
▁coh
▁mice
ctomy
rosine
ulators
ensin
phosphorylated
▁cation
▁skinfold
▁3.
pecially
▁prednisone
▁retrospectively
▁PMN
▁calibr
erally
galactosidase
▁-7
yste
▁tris
▁10(-9)
▁ambient
iotensin
vely
tinguishable
▁CIN
ympathetic
bic
▁microv
▁phosphorylated
▁naloxone
responsiveness
3),
▁bolus
▁HCO
▁uteri
▁conjugate
▁sarcoplasmic
▁efflux
▁facilitation
▁arising
▁GST
▁imipramine
▁unselected
growth
▁quies
ervo
▁gallbladder
▁sulfoxide
10
▁obstructive
rates
▁neuronal
▁reproducible
tism
isol
▁sedimentation
lycemia
umulative
optic
▁direc
▁receptors
▁peptides
▁(4)
▁SLE
▁(15
ytoin
idin
▁autoimmune
salt
-1)
arial
▁NI
▁caffeine
▁monke
▁dissociation
▁kidneys
▁stringent
lac
ovalent
▁hyal
inergic
▁surveyed
▁Surgical
▁100-
▁similarity
▁torsion
▁(1.3
▁elicit
▁ulcerative
▁kcal
▁activator
4).
▁pressures
▁conduc
/20
▁organism
▁macromolec
▁adenylyl
rehen
▁enkephalin
▁fractionation
roxim
▁morphometric
▁thrombosis
:1
▁neuroblastoma
▁yolk
▁2.2
▁prono
▁dissoci
▁95%
▁deletion
▁glomer
▁adipose
▁respir
▁mono
▁thromboembolism
▁progesterone
▁endotracheal
▁aorta
8),
▁Prel
▁isoenzyme
obronchial
urine
▁ultraviolet
▁overweight
▁Dip
▁uncoup
▁endocrine
▁athle
tribution
▁idiopathic
▁isoflurane
tual
▁hypothermia
epithelial
▁0.38
▁occupational
prin
▁investigating
abdominal
apeu
illi
▁cytomegalovirus
▁polymer
▁40.
▁capsule
▁acetyl
ophageal
0.5
▁Dex
testosterone
roximately
demic
▁catalytic
▁surgeon
ylchol
ometr
▁resin
▁endothelium
▁ascertain
▁stabilized
▁capillaries
▁10.5
▁tymp
directed
▁emptying
▁incontinence
▁diuretics
▁differs
▁weighed
oscopic
ulatory
▁1.0
(2+
TPA
▁GHRH
▁doubling
▁weighing
▁averaging
▁resemble
▁NG
▁oligodend
▁6)
▁definitive
galact
▁neurological
▁65
▁multin
▁hyperplasia
▁accessory
▁208
▁136
-3,
▁25-
▁800
infected
▁monoamine
▁subunits
▁multim
▁oligos
▁137
▁probes
▁ESR
▁sheath
▁histological
▁anticoagulant
deficient
▁conjugated
abec
cysteine
▁117
▁(54
▁diagnoses
hap
▁predictor
▁exaggerated
estrogen
▁dithi
▁viruses
▁predictive
▁7-
▁hematoma
▁haemodynamic
▁Meth
▁rRNA
▁10(4)
essel
atid
▁subjected
FEV
parag
vix
HB
▁biosynthetic
▁distric
▁predic
bodies
globin
▁carcinomas
tizing
iversity
▁lys
▁Bacillus
hydroxylase
▁Removal
▁outbreaks
▁putative
ureus
▁bursts
opausal
▁stroma
▁inactiv
▁EBV
▁immunotherapy
organic
▁Tiss
▁Hg
▁CAT
lipid
PTH
▁LN
▁10(-5)
ffec
▁5.9
▁immunore
MN
adm
sities
▁coval
enia
▁anatomy
bisphosphate
▁Subsequently
▁desensitization
10-
iparous
▁Immun
lude
▁biliary
▁progres
▁validity
▁appendic
tel
▁collagenase
▁subjec
▁estimating
-3-
▁outgrowth
▁oxygenation
metabol
▁revascular
▁choline
▁exhaus
reduced
aicin
▁immunoglobulin
pran
fate
adine
▁Ps
▁suppression
▁tachyc
nRH
▁tumours
linking
▁concurrently
▁raphe
ziness
▁(19
▁aneup
▁interrup
▁tissues
▁felodipine
▁euth
▁rhabdomy
▁remod
▁67
▁deox
▁adduct
▁Meas
▁repres
emias
▁fulf
▁10
▁glial
▁(75%)
gth
-10
fused
▁0.90
▁ultrasound
▁strom
▁serolog
▁phosphoinositi
quine
▁tubular
▁TCA
phic
▁sphinc
▁fibronectin
partate
▁199
▁glucocorticoids
▁schizophrenia
▁sut
▁dioxide
▁pouch
▁throm
jug
▁simulated
▁cigaret
itum
EAE
oposide
▁2-
▁thoracic
▁monos
▁analyses
induc
▁aberr
▁19,
nisolone
roscopically
HV
ochle
itoneal
ocarcin
▁juvenile
▁protease
▁triceps
oprost
▁borderline
▁dehydration
30
▁therapeutic
▁neph
▁resear
dT
▁preventive
▁CI
ipine
opoietic
▁peri
-11
ntolamine
▁immunostaining
intestinal
▁amplitudes
▁DH
▁subclass
▁reversal
▁anxiolytic
▁soy
▁cartil
cents
▁noc
vated
▁injec
inflammatory
▁segmental
iloride
▁incompletely
74
▁Positive
▁Diagn
▁AUC
▁chymotrypsin
▁50%,
▁Scale
thickness
▁6.2
lyc
▁arachidonic
▁constric
▁gyn
obacter
ministration
ASA
▁amin
▁morphologically
stin
oscop
▁granulocytes
▁Effec
▁acoustic
onucle
uscular
▁agonists
▁7)
▁Magnetic
▁DNase
▁70.
▁0.9
▁anesthetized
▁hypercal
▁Statis
▁lymphocyte
▁longus
▁lipoprotein
▁embryo
▁retina
▁descending
▁peptide
▁elemental
▁castrated
dies
▁6%
▁1.00
▁microscope
▁developmental
▁Pregn
▁(+)-
igenic
▁phag
▁disturbance
athiop
▁cervix
▁resection
▁13.2
▁prostatic
▁alcoh
▁tubulin
▁cytokine
operative
formations
actin
ollagen
sors
▁31%
▁extracts
botic
▁glycoproteins
▁chemically
fec
▁(+/-
oplasty
▁concom
tenosis
.2
▁dissemin
ygdal
hyd
tured
▁infiltration
▁afferent
/5
▁4.0
▁illumin
▁soluble
▁sati
▁antithrombotic
▁90%.
▁inactivated
▁cran
▁immunity
▁Fib
▁yr
▁chemotactic
▁protracted
(2
▁lymphokine
▁cimetidine
▁taurine
▁TI
▁aerob
▁nuclei
▁enteric
▁nucleotide
▁reserpine
▁granulomas
onset
▁Rates
▁excretory
▁Measurements
▁mediast
▁14%
▁500
▁MRI
85
olesterolemia
▁arti
versity
ainide
▁0.18
▁inhibiting
▁datab
tives
prol
▁complexes
lys
▁cellular
▁alkyl
▁LT
▁undergoes
▁penile
▁78
▁antagonists
▁acros
▁CoA
onazole
otassium
▁erythema
lux
gated
▁acuity
lastic
▁clearance
▁mortality
▁49%
oreceptor
▁chloramphenicol
orated
▁pathway
▁jaundice
tempor
adone
▁Extensive
▁isch
bacco
▁pathogenesis
▁nonspecific
▁headache
▁7.3
▁conditioning
▁eti
▁GnRH
acid
29
lycero
▁Sephadex
▁cortisone
kDa
▁bromide
5'-
▁neoplastic
micro
▁10.8
▁synerg
▁1988,
▁concep
etal
▁Hyd
carbox
ipr
▁Biochemistry
tryp
erating
▁pathogenic
HRP
▁differenti
▁clarify
▁1,000
▁Serum
▁chym
itamin
▁6,
urnal
▁strep
▁14-
▁abor
▁spor
uvant
loid
▁encephalopathy
Ba
▁nal
▁aneurys
▁analogs
▁virulent
▁metabol
aminidase
▁positioning
▁evolutionary
▁toge
.9%
▁7%
▁inser
▁biosynthe
▁fused
▁integrin
▁0.36
▁6.
acycl
▁96
▁trich
amid
▁noradrenaline
▁TT
▁60,
omized
tation
gic
pain
▁retinol
aund
▁1.8
▁MoAb
▁205
▁cyanide
▁pulmonary
▁acetate
oxan
▁25%
riton
▁prolonged
93
▁11.2
onary
opsy
5,000
5%
▁188
odic
▁innervation
▁interne
▁LR
▁follicle
conversion
ritin
▁rectif
▁76%
▁rigorous
▁amine
▁colliculus
▁pools
onit
▁cervical
geneic
▁perip
▁ligation
ervated
▁Phosph
▁papill
▁decayed
▁carbonate
hers
▁parturition
▁Plas
▁ovarian
▁elimin
xyl
▁donors
▁diffuse
orubicin
▁disrupted
oic
▁onset
▁deterior
▁blocker
omiting
▁residues
▁(0.1
-2.
▁ure
▁gallst
▁alcoholics
tiz
plasia
▁0.35
▁11-
taz
▁sepsis
▁mV
▁endings
▁mononucle
▁etiology
▁antimic
▁predictors
▁isoproterenol
▁TPA
cAMP
▁ribonucle
▁Ventricular
▁regulate
▁reticular
yses
▁fluorescent
▁lute
▁quantitative
selective
▁MK
▁inspiratory
▁hypox
ACTH
▁0.58
itrate
▁4.8
▁Subsequent
▁oes
atonin
▁mug
▁agar
-6.
▁glucosamine
▁efferent
▁polysaccharide
▁Tran
timulation
▁supple
▁Sodium
▁acceptor
ceptive
▁nonsignificant
▁presentations
▁accumulated
▁bronch
oppler
▁humoral
oprote
▁extremities
EGF
ongest
ostic
▁adhe
adequ
▁oxidative
sant
▁LHRH
▁dissociated
▁elicits
▁secretin
▁aberrant
▁Inhib
▁EI
▁Intr
▁antero
▁esophag
▁benz
▁lymphoma
producing
▁reactive
▁0.09
fibr
urther
myrist
▁Patient
▁depolar
▁Animals
kele
▁Angiotensin
▁prescribed
▁15-
▁antich
▁feces
▁epilep
stolic
himbine
▁Tn
ocrit
▁laparotomy
▁50
▁(44
osomes
▁proteolytic
▁4000
▁Experiment
▁regained
▁virulence
▁anat
▁(4-
▁electrolyte
▁postulated
▁reductions
▁rats
▁exons
1%
▁fertility
▁inducing
▁gastr
▁TG
unctional
farction
macropha
IDDM
▁elas
/18
▁discontinuation
▁dors
▁(90%)
▁nasopharyngeal
adrenaline
/1
▁Immunohist
idic
▁monotherapy
▁hemolytic
▁competitively
▁infarction
▁EGF
▁cirrh
▁surgically
alanine
▁basal
▁adolescents
▁mec
ithm
▁ORF
▁determinations
▁1
▁Specifically
osylated
▁agarose
▁abscess
▁neuropathy
▁aids
▁blasts
▁0.5,
▁somatic
▁155
▁expectancy
▁suppressed
urys
▁4.3
plantation
▁myocardium
▁locomotor
-10(
▁normo
▁Benz
▁influenza
▁(14
LISA
▁[3
▁myometr
omegal
predic
▁operative
▁anticoag
▁Assessment
▁inhibitor
▁coenzyme
testinal
▁subpopulation
▁stimulus
.8%
▁isolate
▁cil
▁tracts
▁arrhythmias
▁retic
EG
udin
▁arachid
cine
▁astro
▁evidenced
▁prednis
▁sensi
▁1.3
▁thre
▁Exposure
▁pmol
drug
▁bran
▁0.2
inoc
▁occupancy
phor
▁intramuscular
▁18-
▁guan
-100
ifferen
▁Retrospective
▁elastase
▁Tumor
▁(0.5
▁Few
lives
oxygenase
▁nephro
▁hep
luc
▁assessed
▁0.95
▁phenylephrine
▁WHO
▁7.1
▁0.5%
elec
25
▁struc
▁400
▁expiratory
lax
▁fibroblasts
kground
▁duct
ecretory
▁substitutions
indings
▁lipase
ulsive
tene
3).
▁gestational
mega
fat
rotic
▁transcribed
▁guanosine
▁radioligand
▁morphologic
▁acad
▁100,
▁tritiated
agic
▁13
lies
▁anaesthetized
▁iliac
▁46%
erative
inducible
oconstric
▁Ultras
▁elu
▁cardiomy
▁(0.0
cemic
▁axial
qui
▁poisoning
▁gonorrh
▁valvular
▁Rats
oglyc
lective
erver
-200
▁nicot
▁peaked
▁ultras
▁1987,
injected
onuclease
▁remn
ignificant
ichloro
▁haplotypes
▁thereafter
erge
▁ionophore
▁emerg
ilus
72
▁adaptive
▁hazards
▁cortex
▁ribosomal
antibodies
▁infusion
omorphine
▁aspiration
▁oils
clerotic
olipoprotein
quit
▁3.7
▁gels
▁corticosteroids
olysis
▁94
▁pulmon
enec
▁axonal
▁meningitis
▁Acute
▁placenta
inephrine
▁TCR
▁microtubules
▁altering
▁exclusion
amphenicol
▁(69
▁bir
▁40,000
TG
▁homologous
▁discharged
▁decreased
SEM
osition
olet
▁helical
▁detergent
▁55-
▁mitogens
▁Tissue
▁stromal
10.
mercap
▁steroids
▁antigenic
▁affinity
mitter
▁disulf
ingers
▁Estimates
▁cadmium
-70%
▁cytos
▁pretreated
92
▁inflamed
▁induction
46
0,
▁depr
▁maximally
concentration
▁Seventeen
chicine
lasses
magglutinin
asions
▁pituitary
▁transection
tivities
▁differentiate
▁Pneum
▁conclu
▁excluding
▁transiently
▁.05).
isopropyl
▁visualization
▁testes
▁bactere
arrhy
ressing
ergic
▁bronchitis
ipit
▁Statistical
ithi
ioid
▁chicks
▁ischemic
ospitals
▁sampled
titute
▁reservoir
▁Possible
pir
▁isomer
▁infertile
▁standardized
rometer
iatric
vents
-13-
▁receptive
▁competent
quisition
entricular
▁mammals
▁neo
▁inflammation
▁unequ
▁70
quired
▁nicotinic
▁93
▁amitriptyline
▁dibutyryl
▁lysates
▁mediates
ported
othi
▁OC
arginine
▁generalized
▁vesicle
▁nude
▁zym
esides
▁TB
▁clinically
▁microb
▁peroxide
▁1984
rostaglandin
35
▁postprandial
thel
▁hepatocellular
▁Cd
▁inhibit
vation
▁immunobl
converting
rangements
imid
▁bronchial
▁myelinated
▁Therapy
propyl
▁IgE
▁menstrual
acyl
otine
▁markers
▁fluorescence
▁hapl
▁deprivation
▁flap
▁assay
▁CBF
▁dispersed
▁CHO
▁triti
▁glucose
▁wee
▁equilibr
▁erythroid
▁1.4
▁(39
▁organisms
▁0.8
▁durations
▁displaced
▁illnesses
rangement
iruses
▁accounted
▁HBsAg
▁somat
▁52%
▁157
▁glycer
.3
indolol
▁graf
▁attenuation
iazide
▁Mortality
▁inguinal
▁cG
▁hepatocyte
▁HSP
▁necro
▁chec
relations
▁lar
imurium
lier
▁indo
amole
▁heme
▁4.4
polar
▁3.5
▁cryp
▁immunoassay
0).
5%)
ystag
expressed
▁emulsion
▁catab
▁parenchymal
ivacaine
▁angiographic
▁Oc
▁markedly
ANP
▁peritoneal
cholesterol
▁perme
▁superim
▁erythromycin
▁screened
tochemistry
uresis
▁1985
oplasm
orphine
treated
▁lidocaine
▁docum
imetry
▁mesenchymal
atoxin
myr
▁exchanger
▁plaque
imetidine
onomic
ivac
phyrin
▁2).
eptin
hydropyridine
▁melanoma
▁spi
idespread
coup
▁stimulated
▁Sertoli
▁flora
thrombotic
igand
ylated
▁sialic
dose
▁4%
▁23,
▁epitopes
ields
▁194
9-
▁dex
▁microsomal
▁Caucas
▁hydrox
▁cholinesterase
▁116
siology
▁oocyte
idate
ilic
▁cataly
▁hypoxia
▁microspheres
7-
maleimide
CDD
▁uninfected
phosphor
minal
illary
odynamic
itidine
▁ulcers
renaline
▁persisted
▁abdominal
▁lec
kelihood
▁indicators
▁grading
elic
angi
▁amplified
▁rati
▁glandular
▁tricuspid
▁ocular
0%
▁spontaneously
▁cysteine
▁assays
▁10(3)
rophy
▁implantation
▁antimicrobial
▁pene
▁CsA
▁haloperidol
obutyl
sorbed
uronic
▁outpatient
5%.
olesterole
orepinephrine
▁hypothesize
embran
ffeine
resting
▁pentobarbital
inyl
phage
▁Chrom
▁cardi
▁syndromes
duce
lofen
▁myocardi
▁thyrotropin
(5
▁CN
9%
▁sedative
▁dihydro
▁comparisons
sA
▁omeprazole
siological
-2,
IFN
▁lobes
▁intimal
▁primers
▁ultrastructural
ovis
▁evaluating
labelled
tropine
▁chimeric
▁mL
▁questionnaires
▁0.05).
▁hCG
-36
erican
enyl
achnoid
opropyl
ocomp
▁Failure
▁7.9
▁awa
▁(1.9
▁hereditary
▁7.4
▁LDH
▁arteri
▁61
/1000
▁reliably
▁rehabil
▁ischaemic
▁novo
▁myofibr
terminus
▁RP
dle
2%)
▁occluded
alact
oreal
oresis
stimulating
iosis
▁atyp
▁competi
illation
▁ppm
oxine
iciencies
▁172
▁vasodilation
.10
ilibr
▁Nutrition
▁metastatic
helin
▁45
▁18,
▁pellets
▁predis
▁(4
▁repeats
ocular
▁anesthetic
▁adenovirus
▁163
ograms
.5%)
▁contamination
▁pathophysiology
▁unaltered
ilin
ipramine
lip
▁mannitol
▁panc
▁240
▁immunoglobulins
▁posi
▁bradykinin
▁oligosaccharide
▁ascorb
▁baro
▁extrap
▁guanylate
esophageal
▁injections
▁70%
▁PLP
▁metabolic
pril
hepatic
Barr
▁phosphatid
cyclic
▁GDP
▁reagent
▁evid
▁resorption
▁tryptic
▁dendri
▁localization
aterally
▁trachea
▁kidne
:3
▁descriptive
▁indications
▁uter
▁intracerebral
▁examines
▁mandibular
▁Beta
osid
ositol
uoden
▁233
▁[32
▁0.0001)
▁PV
tructed
agit
.8%)
▁pyel
▁fluoride
▁follicular
▁FEV
atibility
echan
fib
1-2
▁hydrogen
▁340
injection
▁30,
essation
▁peroxidase
▁angi
eration
▁induc
▁obstruction
▁colitis
▁epit
ucleotide
▁28%
yroxine
▁microgram
▁cholesterol
▁warfarin
omod
▁remission
▁cessation
▁20)
▁prosthe
▁9.2
83
▁analogues
▁excre
▁bombesin
gesia
▁14.
▁Ringer
NMDA
▁Kine
▁rhe
8,
▁enlarged
▁autoanti
▁73
▁semen
▁infarc
▁ammonia
▁migrating
osaminidase
▁histochemical
▁adversely
▁ATPase
▁lact
▁clus
oblasts
▁fluores
▁acr
▁lithium
▁ect
▁bypass
▁paraffin
▁rectal
▁paralle
▁4.5
ifferenti
▁kDa
▁antioxidants
▁176
vant
gA
arcoma
▁auditory
▁transmural
imide
▁ruptured
struc
▁acidic
apanese
▁quin
▁Hodgkin
▁trabec
▁MN
rography
tophan
▁RA
▁granules
▁normotensive
▁weighted
prandial
otroph
▁44%
▁donor
▁BMI
▁detecting
▁3'
▁gastrin
▁conformation
▁aberrations
▁intub
▁2.0
▁fulmin
▁pts
▁Fc
osensory
▁Ninety
esti
▁dischar
▁multic
▁Factors
▁commercially
▁diltiazem
alp
▁inoc
▁scintigraphy
▁15.
▁surgeons
▁COPD
oxifen
aryn
▁11.0
otre
▁frontal
▁adhesion
▁3)
▁(72
alsy
▁dor
▁malaria
▁ovid
▁10%
▁pyrophosphate
▁biom
dens
▁histopath
▁congen
irc
▁phosphor
▁paralleled
▁interferon
▁mammary
ritten
0%)
▁7.0
▁FMLP
▁4.1
gmental
mentation
▁74%
▁sympathetic
▁erythrocy
▁pyruvate
▁bilayer
▁distal
cyst
eptid
ygous
▁categorized
▁arrhy
▁redox
enic
rocyte
▁phosphatidyl
▁sickness
▁renal
methyl
oxyl
PSP
▁plasminogen
ydig
▁cyclooxygenase
▁atheros
utaneously
▁preceding
▁melatonin
atest
▁decreasing
▁suggestive
▁insertion
▁epithelium
▁10(7)
▁chronically
▁1987
▁polymyxin
erin
▁1).
▁tertiary
economic
regulation
tors
▁0.41
.3%
▁GI
▁2
▁inhibits
nai
▁favorable
hydro
▁lutein
▁perinatal
-2-
tion
▁analysed
▁narrowing
ocytochemistry
▁plasmid
Kd
▁ileum
tivity
▁cerebrospinal
▁scin
▁targeting
▁parity
▁arterio
▁criter
BV
▁susceptible
▁Approximately
▁precipitation
▁respiration
-450
▁heparin
▁oxidase
acyclin
graphy
▁ration
▁pooled
phosphates
ectom
▁symptomatology
oreg
tox
▁(10
titu
▁analgesia
▁reflec
▁NIH
ocated
▁15
quid
▁granuloma
62
▁(20
phosphamide
spectively
renol
ogra
▁saturated
400
8;
▁biosynthesis
tonic
▁ultrasonography
▁epithelia
▁ferrous
adily
sorption
▁hyperp
▁positivity
▁ech
▁Gly
▁unde
▁caudal
▁fentanyl
▁Levels
omycin
▁encompass
partic
ygen
▁5.3
▁acidification
▁frac
▁sphincter
▁cistern
▁endoscop
sistent
▁granul
▁muscular
11
ffinities
▁densities
▁impaired
▁histamine
ensory
hexidine
ulose
▁syncy
phs
▁58
▁assemb
opathological
▁24%
▁dairy
dU
▁visceral
▁autoantibodies
▁40,
otor
▁eighth
▁82
▁ventilation
▁bif
▁sensitized
arachnoid
▁drin
▁euthyroid
▁Glu
▁vasodilator
5%).
-8,
ubs
tochem
albuminuria
