▁ischemia
phrine
25
rength
ancement
oagulation
▁Alternative
▁phag
▁Biochemical
uccessful
▁exo
cis
▁overweight
.7
▁mediates
▁simultaneous
▁microc
▁amy
▁aspiration
9,
▁prognostic
▁discrimin
gression
▁WHO
▁pulmonary
otrop
▁resear
▁bronchoscopy
▁naltrexone
▁consequently
ointing
▁severity
▁differentiated
▁eliciting
▁6
rehen
phal
hicle
▁directional
▁catheter
▁assis
uin
▁impaired
▁specimens
lym
othel
▁MH
▁bronchi
▁exclusion
uvant
▁confir
vul
▁prednisone
▁cholest
▁thromboemb
▁aggravation
icul
▁errone
▁oligo
▁displacement
▁IgG
▁elimination
erus
▁adolescence
▁vagin
▁correlated
▁ortho
▁endos
fos
▁TK
▁relap
ods
atial
▁Histologic
Ba
Ts
ths
▁neonatal
olenic
comitant
▁molecule
1-2
ostatin
▁depr
▁FV
ctive
▁hypog
erals
anish
iol
Ly
▁CMV
▁atrophy
▁modulates
hap
estig
▁metabolism
▁shor
LU
estive
▁tes
opathy
▁homogeneity
▁assay
▁heparin
▁bypass
eclampsia
▁ceased
▁melanomas
derly
ineal
▁CAM
▁atten
97
▁investigations
trip
▁clus
emory
ceptive
65
▁transient
▁Estrogen
▁oro
▁ADH
▁Acute
▁subjected
▁uncomplicated
pH
tation
▁clinically
▁utilisation
ministration
▁newborns
▁nutritional
▁Atropine
▁irradi
▁overdose
formin
▁uremia
▁sclerosis
▁metastatic
▁progn
▁memb
▁carcin
▁pneum
▁anastom
▁80
▁cla
▁adhesions
▁rhy
▁metoclopramide
▁evaluating
▁prostate
▁prospectively
▁Engl
▁apex
▁radiographic
▁150
▁RBC
abies
▁implantable
▁Comparison
RH
▁prescrib
▁valu
▁catheters
▁allevi
tam
▁cardiac
▁fluor
athe
▁synovial
▁appreciably
▁EMS
▁assays
atment
▁reliably
illic
urther
▁reflecting
functional
▁predictive
▁indetermin
tomy
▁cardiomyopathy
▁radiography
▁PB
▁transi
zole
spective
iferation
trib
29
hei
▁gradients
▁predictor
nowled
tent
▁CABG
attern
ediatric
▁phagocy
duction
▁expenditures
-1
▁efficacy
▁radiological
operative
▁MN
CRP
▁juven
▁stu
acental
omal
pation
▁cesarean
vic
urethral
-9
Ds
Au
tific
▁VO
▁hypertension
▁Lys
▁gallbladder
▁endoscop
ollicular
▁upd
▁cervix
urse
▁tracers
▁septum
2-
▁myo
▁evoked
▁inadequate
inic
Ti
▁RB
lec
▁MRC
▁confound
▁thrombolysis
-5
▁pathogen
▁hypers
ceptual
8%
KI
certain
▁estimating
▁validity
▁prenatal
▁thorac
▁mandibular
▁apop
▁UL
▁implicate
▁atropine
glumine
urrence
ameth
▁reperfusion
▁visually
▁adenocarcinoma
▁adver
▁immunode
▁IgM
▁Blockade
12
▁facilit
severe
▁enl
▁HPV
lead
▁atmospheric
kele
▁disruption
▁autosomal
▁coeliac
▁fragile
xual
rapid
hers
▁chemotherapy
21
▁susceptibility
▁receptors
▁mellitus
▁moderately
veolar
▁hormone
▁inappropriate
knee
▁dexamethasone
▁chemot
▁lipids
▁predicts
radi
imin
opa
estim
▁proce
▁hypertensive
▁9
otactic
▁lept
▁cephal
▁hypoglycaemia
oleic
▁gait
▁PEEP
▁Chemical
fentanyl
31
▁11
aryn
esity
▁hypot
odynam
vity
oretical
ethyl
idney
stem
▁fati
▁follicle
▁establ
▁hospitalization
▁positively
resses
▁enrolled
asive
▁Intravenous
▁atheros
ithms
versal
Pa
▁episodic
ignant
osal
▁remin
▁kerat
▁AVR
onc
tin
▁phy
▁occurrence
▁awa
▁genotypes
▁prostates
▁ile
edic
▁coexist
cribed
▁deficiencies
lore
▁coexistence
▁ambulatory
▁MEP
44
▁benz
▁prostatic
▁fetus
▁CI
sych
▁anemia
▁amyloid
▁chloro
▁10-
ithiasis
▁preconditioning
▁hepatocytes
acted
▁fracture
4-
tead
▁olig
▁1.7
osition
▁influenza
▁multifactorial
▁adolescent
▁synchronous
▁hemis
chers
▁Ig
OA
roma
acial
▁morphologic
▁recessive
ochondral
▁Comparisons
inemia
▁scans
▁prophylaxis
erating
Fs
▁confron
hospital
TG
-0
▁cardiomy
▁tert
alues
▁insertion
▁unevent
erative
▁feasible
▁abl
▁pregnancies
▁unexpl
▁uncom
lep
rae
▁underestimated
▁challen
▁Vaccin
SAP
▁births
▁phagocytic
▁adhe
▁adequ
▁Phen
drome
▁lumb
amet
▁evol
▁19
omedullary
▁throm
▁tec
genital
▁interv
▁compart
oplas
aneously
▁reproducibility
▁coronary
▁abnormal
▁apoptotic
chondral
99
▁alveolar
▁molec
▁48
ophag
▁Operative
ulatory
onset
▁accumulation
otomy
▁receptor
▁remission
▁Accordingly
▁deprivation
edullary
▁overex
▁inhibition
▁migraine
▁cancers
▁inhibitors
▁steroidal
▁hemisphere
▁integrating
▁vulnerability
▁histologic
▁spontaneous
menopausal
ulcer
▁unselected
▁Medicaid
▁migrated
▁scoliosis
▁segmental
filtration
utaneous
▁placent
▁chan
▁Greater
▁acids
graft
▁monitored
▁traumatic
▁deficits
▁mann
▁debridement
▁abnormalities
▁vascular
▁anomalies
▁immature
▁subgroups
lapping
▁exce
▁chori
▁phenotype
LV
▁monit
▁increas
EGF
▁polym
▁undes
Tu
thle
urea
lax
IU
tate
induced
▁arter
blast
1-3
▁(54
▁pharmacological
▁occlusal
▁pneumonia
▁ultrasound
▁AE
▁neurologic
▁interp
▁surrogate
lective
atest
▁regulate
▁IUD
▁TC
▁menopausal
▁5
7.
hep
orotic
icin
imens
▁13
ensit
ensory
oride
▁prescribing
carcin
orac
hemia
▁oxy
▁globally
orrh
▁PAS
▁manifestation
▁IU
▁metastasis
▁2-
▁counteract
▁bipolar
mature
▁cen
▁Rout
▁ruptured
▁undertaken
▁prophyl
astom
▁arthritis
▁epinephrine
alc
▁aortic
▁cumulative
30
▁procedural
▁aerob
▁specificity
▁pineal
▁Compared
▁normo
irc
duced
▁subf
▁acetabular
▁zinc
▁ETS
▁metast
▁exacerbations
faction
▁paraplegia
estions
▁tib
▁PRP
▁arteries
undibular
▁chor
otomies
keletal
utions
alp
▁deterior
Gi
anese
▁warr
▁immig
onium
▁ovari
isture
▁detectable
odialysis
economic
▁IBS
▁synergistic
raine
▁develops
▁proteins
urrent
▁psychiatric
FH
▁LD
acclim
ameters
▁Adverse
▁cancellous
SAH
▁palliative
relations
▁residency
▁anastomosis
pS
atif
▁inh
▁Streptococcus
▁intram
sess
▁haemorrhage
▁intensive
▁pall
▁ventilatory
▁SCH
80
weighted
▁tonsil
▁prostatectomy
▁propensity
▁agonist
▁cann
▁medial
acr
▁SBA
▁discomfort
utin
antial
▁corrective
KA
▁adhesive
2/
▁incidence
TU
▁adolescents
▁physiological
▁ultr
▁epileptic
ystolic
▁PEG
anding
spectively
▁4-
84
▁unsuccessful
olum
oten
ervations
resting
arers
oplastic
▁progestin
▁biopsy
▁Inclusion
▁isch
tect
▁infusion
▁Cyt
▁LVH
▁contralateral
▁Phy
▁manifestations
▁synerg
regulation
sible
▁detachment
▁shig
arer
▁Neu
▁testicular
▁Taken
▁recurrent
▁appendicitis
▁curative
rele
urred
▁hep
▁undetected
▁perforations
▁eradication
ucleation
.8
reness
▁nomenclature
▁pedig
mented
▁collateral
idement
▁poin
valent
responder
mig
.8%
▁cardiovascular
elan
▁esophageal
mittent
▁cyt
▁fluoroquin
gents
▁oss
lesion
ocytes
ucle
▁substituted
▁MHC
tens
otom
ipar
▁GV
▁continence
▁cohort
odies
▁GBS
▁tric
farct
bral
▁statistically
34
▁indications
ometr
▁RP
▁labeling
▁carbohydrates
dial
▁neo
▁pharmacy
▁unco
clo
▁carc
▁vomiting
▁counseling
▁anatomical
olism
▁PCO
▁excimer
▁allo
▁somatic
pendent
bility
ocardial
▁contributory
▁herp
▁rotated
▁membrane
▁Analy
▁pleomorphic
SCC
rogra
▁morbid
itures
FV
hemo
▁distin
▁perce
▁decreased
▁parental
▁endometrial
omized
▁graft
uptake
▁pylorus
▁improves
▁acad
orectal
amn
yroid
agit
▁readings
▁ultrason
▁identically
loride
▁MRI
▁reductions
phos
arental
▁alleviate
▁unin
orrhagic
▁implant
▁hemodynamics
▁concordance
osom
▁gad
▁unil
▁selectively
▁IH
▁lith
▁maternal
▁adhere
▁Vac
omat
▁complemented
▁drainage
▁abnormality
ilic
oag
▁retention
▁ACE
illus
▁suture
onary
85
▁stenosis
▁3-
▁compartments
▁alp
tical
▁linole
▁smo
toc
cture
udin
▁wee
rals
▁perone
mL
vascular
▁thyroid
▁limb
▁modality
astatic
▁undisturbed
▁paradigm
▁hemorrh
▁AGA
▁eosin
oic
▁inver
▁endpoints
gesia
▁umbilical
▁intrag
▁HCMV
▁mammography
▁overd
ococcus
75
▁vagal
▁HG
▁cohorts
▁plantar
tum
cutaneous
▁35
▁eluc
▁autoimmune
▁provid
ussion
aceous
▁melatonin
▁intramedullary
▁locus
▁disparate
ineural
▁judged
ogens
heal
▁laparoscopy
48
▁Contrary
▁insufficiency
cessive
▁Mucosal
▁spon
2.
erator
▁tamoxifen
▁responsiveness
onography
19
birth
▁VS
▁osteoporotic
▁distinctly
▁anatomy
cad
▁vancomycin
unctional
idation
▁elucidate
▁concom
▁unic
rophilic
▁preferen
▁sacr
▁ceph
49
AIDS
▁inapp
▁19-9
urine
cine
rectal
▁anastomotic
oscop
▁silic
▁3
▁IBD
▁ischem
▁pelvic
▁transplantation
bic
clin
▁vitamins
RU
ronch
LF
▁clinicians
ygen
▁bronchial
rene
▁intraven
▁ventil
▁insertions
cored
▁Considering
▁surgeons
▁synov
▁genotype
erving
ropriately
▁adenoma
▁leu
▁unres
▁underst
▁referral
eal
yro
▁antic
iasis
cysteine
▁disappearance
tant
▁thromb
luent
▁sphincter
▁physicians
▁DFS
omatic
fir
▁atres
scop
ioid
▁milieu
▁acute
gative
ociated
▁immunomod
▁arterial
▁correcting
▁testis
▁vaccines
▁tuber
tus
▁ageing
▁Pretreatment
▁MG
10
▁aden
▁connective
▁50
▁progest
▁groin
▁glomerular
▁80-
▁mell
▁FS
geons
▁metabolic
▁5-
▁pla
itudinal
▁followup
▁hCG
saturated
▁Larger
ocar
▁19%
▁definite
risk
▁gluc
ostic
hered
▁predictors
Ki
umption
▁tris
▁adop
loid
▁limbs
agin
40
urc
▁Thromb
adequ
▁cervical
odynamic
▁physi
▁Continu
onol
▁repres
▁feasibility
ilical
▁complication
▁gynecological
▁underlie
▁inhibin
▁immunological
▁creatine
▁angi
kely
▁fragility
▁PV
ustained
oty
▁acetab
▁problematic
▁workload
▁phe
▁Treatments
trimental
▁intrav
▁recor
▁usefulness
▁estrogen
ithm
▁unresectable
▁ramus
irrh
stolic
genic
▁reac
▁transfusion
▁LF
3-
vating
▁201
▁34
▁myocardial
▁calcification
▁bedside
▁comprehension
▁analyses
▁Ket
HG
▁ascertained
▁saline
osomal
▁melan
▁supple
roph
perfusion
erad
▁repaired
arcin
▁adaptive
▁recess
▁preliminary
▁undergoing
▁somat
occal
▁ves
▁abd
sive
▁HC
▁sequel
osts
ejun
▁streptococcal
▁reactivation
▁ventricular
▁pelvis
▁intrauterine
sequent
▁lymph
▁reevaluated
jejun
ognitive
▁dosing
▁Cox
▁stillbirth
esia
dominal
IK
ocl
▁microbiological
▁BPs
ographically
▁mitral
2).
umulative
▁10
▁amin
▁geriatric
unar
tected
KD
▁gallstones
▁trough
▁hemorrhagic
▁laparoscopic
▁RS
▁muc
▁individualized
▁mutations
ergic
▁beverages
▁definitive
ontal
orative
▁interc
ogra
▁cytology
▁bir
versely
lastic
▁underg
▁discon
▁PID
▁sedentary
ituitary
▁edema
thma
▁pressures
▁conceptual
otropic
▁adequately
▁systemic
▁decreasing
▁TG
▁surgical
continu
▁APD
▁Older
Cy
▁ECG
▁pH
MN
urally
opathological
▁GER
▁8.
▁auditory
▁discom
▁atresia
▁attrib
▁impairment
▁ketamine
▁UF
▁defic
isol
ffer
rested
▁deformity
▁correlates
▁intermittent
kage
▁sensorineural
▁caregi
ochlear
cence
▁warranted
atab
▁asthma
▁discusses
econd
▁nonadherent
▁External
▁BD
▁avail
▁athle
▁scanning
▁NH
▁initiating
▁LN
▁GFR
opramide
▁deliveries
▁tissues
▁excision
rC
rine
▁redund
▁agon
herence
years
ureus
▁ablation
▁acyclovir
▁prevalent
▁LC
▁differentiate
▁laparo
▁elevated
▁athe
▁neoplasm
WBC
▁Multiple
▁scintigraphy
▁subtraction
▁retrospective
▁Therapeutic
▁carriers
▁ambul
▁pancre
▁overe
ocyt
atural
glum
▁foc
▁nodules
▁concurrently
regulated
▁85%
81
▁anomal
valence
▁ultim
▁Chest
erper
itus
ococci
(5
ressing
▁resection
▁uncommon
phosphon
▁onc
▁psychotic
▁patellar
▁dissection
▁decisive
ocyte
▁40%
▁selective
▁60
▁heparinized
▁neurop
▁haemorrh
▁buccal
▁utilization
▁stimuli
▁glu
▁chec
▁ana
70
nee
ialysis
ovascular
▁induction
essential
eces
▁Roux
totic
▁100
▁strom
▁prolonged
▁chloride
▁techniqu
hering
▁Treatment
glyc
cele
▁Removal
▁SLE
gic
▁vitro
▁epidemic
omain
▁chemotactic
▁favourable
▁tumour
▁sti
▁cystic
sia
▁resis
▁canc
▁uptake
▁glycaemic
▁bladder
▁disappointing
.2%)
▁HL
▁quantit
▁Clinical
-67
▁reas
▁widening
▁resol
▁reproducible
natal
▁Concomitant
54
▁merit
▁schizophrenia
ighted
▁polymorph
▁Magnetic
▁periodon
ortal
▁aneurysm
▁ambient
▁infar
▁enucleation
bac
▁hazards
▁necro
ignific
▁latent
uran
▁1.6%
▁genic
urement
LN
▁VD
▁differen
▁surrog
▁ACL
ritish
tection
erine
employ
1)
omical
▁chole
atonin
▁systolic
▁immunisation
ophil
▁noncom
▁cutaneous
▁dietary
immune
fron
lys
uccess
▁thyroidectomy
▁catheterisation
inol
▁hemodynamic
ertion
▁correlations
▁palp
ections
fusion
▁annulus
▁invasive
▁unde
▁routinely
nosis
ocusing
▁Adherence
echanical
▁familial
▁juvenile
▁subsp
▁AMI
▁inpatient
uted
odon
▁traum
▁modestly
▁proportional
▁measurable
ostat
▁ICS
retro
▁employing
▁differing
tec
5%
▁eosinophilic
▁histological
▁esophagitis
ochemical
▁dysfunction
▁multic
xiety
▁infarction
▁79
tig
▁clinics
▁rotational
16
▁hazard
▁deficiency
▁modulate
othermic
oung
idate
▁vaginal
▁hernia
mide
▁variants
▁cerebrovascular
▁adverse
▁mucosal
▁loosening
endan
elvic
tero
▁alteration
▁indeterminate
▁neurological
▁suggestive
▁laboratories
ocul
adder
▁markers
▁inhibit
▁aor
▁contral
urate
▁orthopaedic
▁rheumatoid
rectomy
▁poten
▁rese
▁antegrade
▁satis
itally
▁rigorous
▁ocul
▁ancestor
▁preferable
▁chol
▁investigating
▁oils
▁insufficient
oracic
▁sciatic
▁poorer
stab
▁mediation
▁chloroquine
▁colloid
▁histopathology
▁rash
▁40
▁antibiotic
lateral
6.
irrhotic
▁complications
▁synthe
leu
▁ae
olysis
genesis
▁discordant
▁implic
▁Addition
▁deem
8.
▁ventric
▁saturated
▁ensured
hea
▁melanoma
▁Alter
▁sustaining
orax
tak
▁perfor
▁follicular
▁TAA
▁16
▁ASA
▁Paget
atient
opam
MV
▁-0.5
▁doses
▁sulfonyl
▁bip
▁Patients
▁soybean
▁ascer
57
▁lar
▁inten
▁diabetic
ipid
▁advisable
IH
▁artery
▁moles
estion
ducts
▁rCBF
▁therapies
▁intrinsic
Ia
▁UTI
▁debr
0.5
▁excretion
▁bilateral
▁speculated
ffs
▁acidosis
▁1-
embers
▁polyps
▁avascular
neumon
umably
entan
▁seizures
romes
vation
▁percutaneous
▁substantially
Ara
anyl
▁intrarenal
▁headache
56
▁8
▁tertiary
MH
▁palli
▁preterm
taken
ometrial
▁sut
▁rationale
▁substitution
opausal
▁parame
▁vein
▁preservation
positive
▁Samples
adic
▁11,
cious
▁gangrene
▁cadaver
ilization
▁discer
▁warrants
▁topographic
sus
▁musculoskeletal
erican
trop
▁tet
aemia
▁pathologically
▁hepatitis
nec
▁amputation
iary
chond
▁hepat
▁tomography
▁ART
▁Muc
▁tox
▁lithotrip
▁diagnos
oplast
▁NB
▁ultrasonography
clinical
▁simult
adherent
onous
rates
▁PVR
BK
▁irradiated
pies
▁osteoporosis
ACS
▁prel
ivariate
TB
agal
▁HI
copic
dic
▁2,
▁resonance
▁demonstrating
stim
▁numb
roin
▁physiologic
▁infiltration
▁proposes
▁empir
bly
▁mono
▁questionnaires
▁assurance
lysis
rogenic
▁airway
opulation
79
▁implantation
ostal
▁Emergency
▁pathologic
kade
▁persist
increased
▁derange
3,
▁deform
.2%).
ropine
▁fractures
▁gallst
▁DSM
▁thi
▁reagents
▁radiograph
heum
▁behavioural
▁OT
▁stratification
▁evid
▁contex
▁perc
▁systematically
omotor
lasting
▁colorectal
▁interacted
opi
ventricular
▁attentional
▁amyloidosis
▁supervision
▁sequential
ochemistry
ocaine
▁distinguishing
atheter
▁cholestasis
▁MBC
tual
▁diagnoses
4)
gment
imination
▁sci
onatal
din
▁unaware
▁biopsies
▁fentanyl
▁physici
▁infections
▁UT
olectomy
▁suppression
urgery
▁pathway
▁chl
lood
ocarcinoma
versity
enol
▁intravenous
▁practiced
diagn
ventive
▁pituitary
omerular
▁22
ditional
ditions
▁fatty
▁thoracic
▁SGA
▁nec
monary
▁preoperatively
HF
alities
ampl
▁Cushing
▁homogeneous
▁Systolic
▁symptomatic
lyc
▁dentists
ithin
angli
▁scaled
▁latency
▁Phe
▁follic
itance
▁ovarian
▁tol
oratory
▁uniformity
▁31
▁cigarettes
▁pancreatitis
ortic
▁Steady
▁disagreement
▁thrombo
▁pathologies
▁peripheral
earance
▁prevalences
▁implicated
vents
pir
▁spinal
regn
phth
▁endothelin
▁sph
▁thromboembolic
implantation
▁mucosa
ondral
▁verteb
▁differenti
▁heterogeneity
CMV
▁cyclosporine
ficial
jective
crib
▁adjunct
▁onset
rane
feren
▁scin
▁fetal
▁proliferation
▁indicative
▁reposition
▁postnatal
ariate
▁iatrogenic
TN
▁glucose
arotid
rone
embr
▁ischemic
FG
▁uncovered
▁preoperative
▁OA
▁coincidence
▁atherosclerosis
NAP
▁operative
▁concurrent
▁opi
gulation
▁Contr
▁polymorphism
▁evaluations
iological
Ka
▁vena
vant
▁preclude
▁VC
neal
▁rigidity
illary
ervical
ximum
asal
▁Regarding
▁congenital
▁circumference
▁buc
▁7.
prising
▁Bone
▁angiography
▁morbidity
sue
▁injected
igaret
▁theore
▁Biochem
owever
orphic
erum
▁gland
▁Swed
▁ALT
dle
trative
▁Alternatively
22
▁malignant
▁LV
▁bene
76
oxia
fat
▁laparotomy
onate
heric
lac
idated
9-
▁heterogeneous
adication
▁tibial
▁carotid
▁repro
▁elimin
▁pyramidal
▁HS
▁Kup
▁disks
evaluation
▁favorable
▁Severe
▁ane
mortality
▁resected
▁unilateral
▁DST
▁adenomas
▁Throm
controlled
▁unclear
quit
2,
ivoc
▁provocation
▁aerobic
itin
▁comparative
▁consolidation
CGP
▁causal
helial
▁mL
▁12
▁cathe
idne
▁pediatric
hig
▁TB
▁benign
▁APC
▁200
▁fixation
▁79%
opsy
▁Stroke
tic
▁cuff
▁paraventricular
▁staging
▁erroneous
▁coex
▁glands
ewish
▁differentially
▁withdrawn
▁overlaps
▁(5
▁Increased
gments
▁Excess
ofol
28
asone
▁urine
▁myoepithelial
▁highl
tectable
atients
▁intragastric
▁minimally
▁fas
esting
legia
▁neurolog
▁embry
▁hospitalized
entary
sial
▁fatalities
▁carbohyd
▁needles
▁diminished
lop
▁hypothyroidism
▁75
▁restorative
▁NPC
dents
nutrition
▁variability
▁removes
▁OSA
▁eyelid
▁validated
TSP
▁disparity
▁synthesis
▁31-
iplin
▁reproduction
DG
60
▁TBI
tive
▁equivocal
▁AO
▁APTT
▁instability
▁tubes
phic
5.
▁footprint
▁resour
ducible
▁anticoag
arous
▁chorio
▁enteral
▁PCT
▁perceptions
oxif
mur
▁demographic
bacco
▁atmosp
▁determinants
▁thre
▁oes
enhanced
▁dislocation
pine
▁amput
▁poisoning
ositive
isqu
▁misleading
▁hyperg
rof
loro
▁neutrophilic
ration
▁oxide
MIC
erate
DNA
▁urinary
▁HN
▁sebaceous
▁grouped
▁multiv
▁0
▁micron
cold
iably
▁resuscitation
coun
▁colonoscopy
▁contrib
▁glycoprotein
▁soy
▁differentiation
▁multicenter
▁preferably
transplantation
▁pter
taining
.5
▁glut
onance
▁thickening
linic
▁lobe
operatively
NB
▁pylori
▁assessments
seal
ullary
▁skeletal
cardi
▁ow
▁spi
▁perip
▁bac
▁Ear
▁cerebral
▁exogenous
lated
omial
▁vaccination
hemical
▁adhering
tors
erally
▁communic
▁heavi
▁regimens
ochem
2%)
quine
▁advancement
onad
▁contaminated
▁Randomized
▁somatostatin
▁consultations
ustif
entanyl
▁tidal
▁proct
razole
▁modif
tions
▁satur
▁confined
epit
linolenic
acetylcysteine
enzymatic
arean
▁Alcohol
qui
▁appendic
▁depic
▁omitted
▁hypo
utroph
▁shorten
▁preparations
▁aort
MRI
▁1.
erations
▁constitutes
hort
▁subtype
▁emphasizes
▁MCP
▁inference
lymph
▁influenz
▁2
▁studi
ancre
▁musc
ineph
▁consol
▁cirrhotic
▁Whereas
▁Neurop
▁erg
▁uninjured
▁intramuscular
▁organisms
▁IIb
phon
uncture
▁1.6
ecre
▁circumferen
▁fri
▁Tran
zard
igel
▁elic
ypical
▁cholecystectomy
eration
▁gastric
▁bowel
▁minerals
Cu
▁PSA
verages
sities
▁pigmented
istal
▁sequelae
▁intrap
▁herpes
ectomy
▁unprotected
▁demonstrates
▁glomer
▁pneumon
▁Tumor
▁caro
▁inclin
▁postoperatively
▁ossification
tact
ayed
ture
cretion
tinu
▁BP
▁exacerb
▁clipping
▁preventive
▁enlarged
▁tolerated
ustment
▁morphology
▁nucleus
sies
▁merits
▁sev
▁consequent
7%
▁GVHD
▁30
monstr
owel
▁sulf
▁antec
▁ach
vice
anic
ameter
▁endometr
▁PF
uality
.2%
▁pathogenesis
▁undetectable
▁adjustment
fal
▁referrals
▁Routine
▁previ
▁Surgery
32
arate
▁exis
itic
either
uterine
▁masked
▁unemploy
BW
▁causative
cents
▁arth
emia
opro
▁pedigree
▁empirical
▁rectal
▁PCR
▁discharge
atectomy
piration
▁fibers
▁potency
iminary
omiting
aventricular
▁concentrations
Cer
oidal
oplasty
▁depressive
moid
▁perin
-1,
▁GE
▁4
quired
▁amp
activation
▁Doppler
▁cues
echn
▁nosocomial
oglyc
rophob
ervative
encl
ostomy
vated
etal
onor
▁sepsis
GV
itoneum
entral
vate
▁ultras
andard
▁Percutaneous
oplasmic
▁supplementation
.2
27
▁perfusion
▁pulmon
▁Kupffer
ubted
▁therapeutic
tur
▁injections
▁advan
opamine
▁distal
umbar
▁iso
ovir
▁HAM
▁undergo
▁swelling
ocular
identical
▁biom
▁femur
eric
▁progression
odal
ureth
aturated
APC
Phe
opia
▁comparisons
tib
itant
▁thir
▁interventions
inactivation
▁algor
ospor
ulitis
ivary
▁encoun
-3
▁intercostal
▁CRP
sul
ognition
▁rebound
atories
essive
▁identifies
▁elevation
▁stellate
itone
ogenous
▁2.5
plantation
angl
gmental
lux
▁illustrates
▁psychosocial
▁anticoagulation
▁fatality
mixed
olated
athyroid
▁aorta
▁timely
oxid
▁adherence
▁cochlear
immun
▁superficial
▁molar
▁Hyp
oscopic
5-
▁gynec
sensitive
gia
▁vaccin
ece
gland
entif
stro
▁valve
▁homogene
▁15%
▁congen
▁neon
ected
ilateral
▁neutroph
▁regar
▁symptom
yel
▁atrial
▁umb
▁DG
▁32%
licular
▁appropriately
idis
▁intra
omies
▁sulfonylurea
▁tymp
▁99
▁DN
000
▁cardi
aline
▁sequentially
▁rehabilitation
▁overlapping
▁colonization
▁postmenopausal
▁lobectomy
▁dex
▁topical
agic
▁diabet
46
associated
▁Dopamine
▁21
eliac
teric
▁pT
▁sampl
▁suppressing
▁ventilation
12.
rents
▁lesions
▁HLA
▁premature
▁FHR
▁trac
ibi
▁hygi
20
▁lis
▁spikes
vely
▁congenitally
▁epi
▁recom
▁Prospective
yses
astric
▁discus
aryngeal
▁regis
▁diagnose
mend
▁microm
▁pate
clerosis
tebral
▁microcirc
tial
▁emerg
▁tympan
contrast
▁interpersonal
tis
edle
▁derangement
tro
▁IB
hyd
▁socioeconomic
▁depar
▁enti
LB
▁nulliparous
▁heterogene
▁LDL
▁plaque
▁shortened
▁trophoblastic
▁relapse
▁reduc
▁coronal
▁muscul
▁hemodialysis
olis
ternational
▁lax
erated
▁inflamm
Hb
ociation
IgM
onit
▁hypox
▁chewing
ixation
enic
detected
▁acceleration
inj
▁coel
▁inserts
ravid
graftment
invasive
▁dilated
▁evacuation
▁vegetable
▁ascertain
▁biop
▁Medicare
▁acupuncture
odial
eak
treatment
ograms
▁monounsaturated
ints
uscular
▁insulin
▁prognosis
erin
▁anat
▁Chronic
15
▁concomitant
▁MV
▁renal
PAP
▁undoubtedly
rins
▁Effective
iliac
▁elu
▁RH
osocial
tage
ivocal
parative
▁sensory
stress
▁behavioral
▁chemo
▁eosinophil
erance
▁respondents
lact
▁inducer
physiologic
ubtedly
ifol
▁malign
▁deformities
mia
▁secretion
▁pathology
▁regimen
▁BV
▁compli
▁27
Ig
▁tracer
▁ethanol
14
▁AMP
umulation
▁lipoprotein
▁endarterectomy
atical
atitis
▁ulcer
▁stimulation
▁margins
oscopy
▁socio
▁reag
▁etiology
-6
▁multivariate
▁extensor
▁IHD
2%
xone
▁Preoperative
fine
1-
▁indicators
▁engraftment
helin
olones
▁audi
▁15
▁cate
▁phon
ococcal
PV
▁amyl
▁gradi
athy
▁appropriateness
▁prophylactic
xia
▁uncontrolled
▁biochemistry
▁5.
▁deterioration
▁mortality
▁202
▁criter
gth
VH
genes
▁triv
▁chond
reas
▁outpatient
acet
▁comprehen
▁lumbar
intestinal
tel
luc
▁overlying
bladder
▁infants
race
▁compressed
anol
11
▁undergone
occus
noise
aminated
0%,
▁linoleic
▁positioning
ycin
▁volumetric
▁distrib
▁pulp
▁sickness
oxidation
▁characterize
lowering
▁physiology
▁gyn
reatine
▁nonc
oprotein
flux
iotic
▁OC
▁fractured
EG
dition
itamin
licate
lectomy
▁splenectomy
▁contamin
6%
acting
▁TGF
▁FH
▁conservatively
▁manipulations
dor
▁requi
alian
adily
ropriate
rement
▁Ara
▁oste
cus
▁GI
▁lithotripsy
▁desm
▁pS
▁divertic
▁peris
Hu
▁introduces
▁metastases
▁IA
▁femoral
ocytic
▁inad
itively
▁Physicians
▁cue
itro
▁exercised
eared
▁heroin
▁infil
▁RM
orphism
▁tiss
etus
ellosis
▁cyst
▁hypoxic
IIIa
HB
▁peri
▁reper
▁peptic
tolerated
thre
aginal
oplasm
consuming
▁screened
incidence
prep
▁acqui
▁Significant
SPECT
otyp
▁specialty
ceptibility
rophyl
▁7
otent
oxic
injured
▁prol
onyl
▁ration
▁morb
▁illustrate
ught
nai
▁paradig
▁7%
▁complementary
▁stimul
▁ure
Ta
duce
venth
▁TA
▁vitamin
rants
tein
usp
▁assessing
▁excre
▁intervertebral
▁uter
▁radiotherapy
oskeletal
▁spati
▁inversely
omod
▁recurrence
104
ipolar
▁precedes
▁THA
▁tumor
▁vasomotor
WB
▁localized
▁Increas
▁intraoperative
▁inflammation
jun
responders
guided
▁deficit
▁crest
▁restor
▁nasal
▁seb
ithi
▁amines
tering
▁unrel
ectomies
iciencies
▁unexplained
rophy
phe
evaluated
▁BMI
▁summ
▁pathologists
▁syndromes
crimin
lix
▁neutrophil
▁ganglion
▁shif
▁MM
▁Delayed
▁conclusive
▁HCM
▁intake
urin
▁palsy
▁cava
0.
asic
▁microv
▁deli
▁nig
▁50%
▁callus
▁microvascular
acerb
▁endoscopic
ergency
▁ESR
▁blin
sian
▁diffic
▁examin
▁unstable
▁endothelial
discharge
▁trophob
atoid
▁carcinoma
▁metformin
▁putative
relevant
ults
▁GPs
▁enhancing
▁neph
▁pathological
▁alterations
▁antibodies
▁experim
▁fatigue
▁RAR
▁hypothe
▁calcified
TK
-9,
▁streptococci
▁compartment
phen
urgical
threatening
▁grading
▁cannulae
clim
iatric
▁evolving
▁rati
ailure
▁cocaine
lecting
▁Trial
▁Tum
ophilic
▁torsion
quid
ronchial
▁practitioners
▁CPAP
▁leakage
oru
echan
versus
wk
69
▁21-
▁ratios
▁autoxidation
▁endoscopy
▁comple
%).
▁reflux
▁contributes
overall
▁HSV
iosis
▁perinatal
Tc
▁Cytoplasmic
▁schiz
▁flexion
▁hepatic
estis
occi
▁hern
romed
osyn
trol
▁labial
tif
ectable
▁0-1
tration
vac
ctomy
ept
dimer
▁discontinued
▁overestimated
▁57
▁disapp
▁leuk
▁inadequ
▁RA
▁endoc
dent
0-
▁Serum
alsy
atid
BV
▁substances
▁embryo
▁superv
▁Improved
▁hormonal
▁exposures
tries
▁pyram
▁pharmacists
▁identif
▁extre
▁metastas
ressive
▁versa
tensive
▁platelet
▁rhe
▁transurethral
▁toxicity
osin
atine
mutant
HM
▁haem
viron
▁plur
sions
▁parotid
▁scl
otor
▁utero
▁lipid
centr
▁peroneal
hips
tyl
othelial
▁14
▁Bec
78
▁tumours
▁turnover
ymp
acil
▁endemic
oprote
▁striated
Ca
ophren
▁VL
▁resusc
▁100%
rotein
67
▁restenosis
▁placenta
▁gluten
artum
▁uni
essional
geal
retion
▁prevalence
▁Pregnancy
namic
00
▁SNP
▁mec
onin
▁combin
oradi
▁cigaret
AO
vertebral
lication
▁CSA
▁hygiene
▁chlor
▁reagent
▁effic
mTc
icine
▁predominantly
aluation
enin
▁Findings
▁eyel
rati
▁HCC
▁Improvement
▁practic
0%
▁discern
▁injur
▁irritation
▁quantitative
▁hyperfiltration
▁unex
▁VAS
▁disadvantages
odic
lip
zation
▁immun
▁mucos
phosphonate
idem
erb
protective
ysm
▁multim
▁Surgical
▁cardio
▁scre
urys
▁pati
dia
▁macrophage
ectom
▁sexes
Tn
rox
▁manu
▁40%,
pT
▁PAN
mentation
▁inherent
ivation
▁AGE
▁abdominal
HN
▁salivary
▁venous
▁bronch
▁hepar
ipient
armac
vail
▁cortisol
ourable
responding
jected
▁hypertrophied
ilized
▁endarte
erable
erop
▁CK
▁2.
▁COS
ritis
▁correlate
▁sedation
▁NN
NH
▁inflammatory
▁pharmac
▁cereb
▁diluted
▁adjustments
▁nal
13
▁birthweight
cyst
▁uneventful
elong
▁EO
▁coh
▁necrosis
▁exer
dose
entists
▁Pregn
▁Failure
▁rigor
▁microb
▁surgically
▁heavier
▁stimulate
ocele
▁parap
▁occupational
▁imaging
▁HM
▁geniculate
▁graf
jug
▁hypoxia
ulae
▁Hb
orin
▁detrimental
lusion
53
▁corneal
▁overexpression
▁VE
9%
mental
▁Whilst
▁aureus
eptin
trast
gm
reported
▁Tren
▁serum
▁polyethylene
gely
▁HU
▁randomized
istrib
▁silicone
▁psychotropic
▁gly
▁echocardi
▁PCP
▁inheritance
arthritis
▁circumferential
▁Tumour
▁mediated
▁lesion
▁linkages
▁FD
2)
▁worsened
▁seropositivity
▁abolishes
▁lymphadenectomy
▁empirically
▁axillary
▁predic
▁decreas
ventional
▁IVF
▁Ultrasound
▁enrol
▁stroma
atell
▁Afric
▁Dil
▁desirable
stages
▁clinician
ergy
ximal
▁facilitated
ileptic
▁leukocyte
1.
chol
venous
▁saliv
▁undo
rosclerosis
▁verte
▁occl
4.
▁ruptures
reast
iferol
TNF
▁esophag
CBF
▁stren
▁bloc
▁oxygenation
▁LS
▁predicting
ologic
▁iliac
iatic
1,
vaginal
▁corne
▁subgroup
▁tympanic
hesive
▁drin
sion
.6
50
▁tumors
▁Asp
immunization
Ra
renal
diol
diagnosed
▁HMO
lob
tion
▁85
▁32
▁PET
▁Patient
▁postoperative
▁wors
morph
▁surgeon
▁prospective
▁palpation
▁carcinogens
entical
▁500
35
tach
▁SG
ulfonyl
anin
vival
trexone
rosis
▁obese
atrial
aemic
▁reproduc
▁Intra
▁impair
-2
onomic
▁cerv
▁thresholds
4).
▁discriminative
▁Ras
▁unrelated
▁nutr
▁abdomen
▁beha
infarct
▁NP
▁ket
facial
asses
▁DF
▁periodontal
▁Chan
hern
tained
▁inhibitory
▁obesity
▁pyl
▁kidney
DH
▁pancreatic
▁20
▁glyc
▁metabol
▁opioid
▁gangl
▁alve
▁adjuvant
▁anatomic
▁remo
▁Recurrence
eded
▁gout
▁LOS
▁1
fication
▁tas
▁fulf
uting
▁restric
▁allergic
▁Vitamin
▁tran
▁sten
ohy
effectiveness
▁porcine
seud
▁questionnai
▁parag
▁longitudinal
▁examinations
