PV
▁Cytoplasmic
ectomy
▁glu
ineph
▁thromboemb
▁pati
aneously
piratory
▁7%
▁allergic
▁cognition
▁Afric
▁pediatric
tant
▁auditory
▁elic
▁subunit
detected
jected
Au
▁rebound
tility
▁saliv
onography
erican
aluable
siveness
▁72
▁nomenclature
urrence
▁shor
▁antigens
▁stimuli
tions
▁fibers
ginine
▁physiological
▁fatalities
orin
▁scans
▁wors
▁fixation
erad
▁glyc
▁salivary
ipolar
▁inflamm
▁uncom
ystolic
▁streptococci
evaluation
▁poorer
atical
▁nutr
▁mitochondria
.2%)
▁IBD
endot
stolic
athyroid
ojejun
▁carriers
▁Treatments
▁systematically
▁preferable
▁tubes
▁surrogate
▁myocardial
hig
odies
▁sequel
▁steroid
▁labeling
▁disks
▁Hz
unar
otential
entical
▁comparisons
▁reactivation
7.
protein
yro
▁moderately
▁RNA
▁31
▁Hyp
▁3'
▁myoepithelial
loride
▁hams
▁geniculate
helin
umulative
84
fine
▁coronal
▁mucosal
ophren
▁clus
▁unexpl
▁distrib
▁ceph
▁Failure
▁progestin
ogenic
▁advan
ameters
namic
▁staining
▁kine
▁ETA
ept
▁clinically
▁Trial
ivation
entral
▁assessments
▁phosphor
▁cerebrovascular
▁Trauma
ditional
osome
▁cardiomy
▁mAb
▁valve
dimer
▁tomography
▁pretreatment
romes
▁newborns
▁overweight
▁manu
AIDS
▁antec
▁selective
cale
▁resul
terol
lec
▁catheterisation
▁infiltration
ropriate
▁heparin
itant
tion
▁neutroph
▁cues
▁pharmacists
alp
▁ATP
IU
▁optimizing
8%
oceptor
ronous
glum
80
▁4.
produc
▁impair
▁preclude
▁thyroidectomy
▁MM
▁pathways
▁(4
▁previ
▁expres
▁Ras
istrib
▁intrac
iary
ohy
idney
▁uninjured
omia
▁gamma
▁hypot
Ti
anin
▁irradiated
▁apo
▁worsened
▁lamin
herence
▁ramus
▁stimul
▁subsp
▁endoscopic
▁30%
▁irradiation
trum
60
▁contributes
▁subgroup
▁upd
▁antigen
▁stratification
▁ligand
till
▁apoptotic
protective
oglyc
▁sepsis
employ
▁circumference
▁endoscopy
▁cytoplasmic
▁scintigraphy
▁elimin
taining
▁diagnos
-0
▁heterogene
▁Samples
▁0.5
▁substances
omedullary
▁abnormality
turb
vul
sies
▁incubation
ynthe
olol
▁specificity
▁statistically
▁fragile
▁proximal
▁sensorineural
KI
Cy
78
▁sarc
▁GCS
▁kinase
▁lifelong
▁residues
▁Phy
okinetics
▁hyperg
▁advisable
saturated
ameter
81
rolith
ocar
▁propensity
ighted
54
pinephrine
itone
▁inhibitors
▁emphasizes
CMV
▁TBI
▁ow
▁suppor
ostomy
▁NN
rins
cine
▁deli
orotic
▁Mucosal
▁compounds
3-
attern
▁thyroid
▁consecu
▁(7
▁oxygenation
▁AE
ifol
▁toge
▁mmHg
ococci
weighted
▁catechol
arotid
▁graft
▁thickening
ubtedly
▁regression
▁0.01)
▁ultim
erals
▁predictor
▁11,
▁adhesive
▁theore
▁Engl
▁anticoag
▁ach
▁molecule
▁dissociation
▁retur
omatic
plas
▁recurrent
50
vice
▁reactive
▁metabolism
▁contral
▁pyl
▁microM
LN
▁respiratory
▁complexes
▁seropositivity
▁IgM
▁197
▁premature
▁markers
ellosis
versely
quit
ensory
▁outpatient
▁parotid
oplas
▁Throm
▁SLE
▁anastomotic
▁reas
itamin
▁tympan
▁IGF
▁deficits
3,
▁sustaining
athe
affec
▁APC
▁autosomal
▁parental
▁diame
ergic
▁GTP
ece
▁uniformity
fat
▁MV
cad
▁LN
▁cyclic
▁withdrawn
▁indetermin
▁remin
hydro
▁topographic
jug
▁biochemical
rapid
▁mediation
functional
▁antibodies
▁(8
▁hemorrh
▁elimination
▁hormonal
▁PB
▁concurrent
ocul
▁PCT
▁NPC
▁dilated
▁reversed
▁8-
ods
▁gluc
▁poten
▁lept
▁insulin
cence
ocytosis
-6
▁resection
▁cholest
▁competi
▁Chemical
illin
tis
astatic
resist
▁ischemia
▁superficial
rents
▁gastro
urrent
▁valu
▁perfor
▁prevalence
licate
FH
tectable
▁10-
▁cumulative
▁neonatal
ardia
▁stimulated
acet
▁lithotrip
HU
▁NK
▁(198
▁uncovered
▁Randomized
▁ocul
▁hCG
9)
minis
▁elec
▁alteration
▁preven
▁Clinical
receptor
sions
▁causation
▁consequently
▁0.0
erent
▁monoclonal
▁elevation
flux
▁coli
iotensin
▁abd
▁alleviate
▁lar
heum
▁reactivity
ampl
antial
erate
Ly
esic
▁renal
adherence
▁Alternatively
lact
▁hypoth
olon
iae
▁testicular
▁prophylactic
▁metastas
▁diabet
Pa
▁HS
erb
▁vagin
severe
▁ranged
imens
▁ETS
▁Pregnancy
sus
▁thoracic
▁suppressing
9,
▁phosphatase
▁attemp
relations
▁calcium
▁streptococcal
▁Acute
▁hazard
▁modality
▁Doppler
32
▁chori
ATP
eces
▁regulate
asone
▁diastolic
▁contex
gments
ewish
tics
▁disapp
MH
▁tox
derly
eptide
erox
▁anomal
25
erator
urgery
roxim
▁vaginal
▁33
▁tris
▁prospective
ineal
▁follicle
ecre
▁postoperative
▁preoperatively
ilated
▁concurrently
vate
▁RAR
▁bowel
▁perin
keletal
▁Vac
0.
▁putative
▁pigmented
8)
ergy
▁infiltrative
osomal
▁corne
▁cyst
acerb
onol
▁redund
▁2.
▁inadequ
46
▁enhancing
99
orbol
▁HCM
▁adjunct
oglobulin
ocular
▁develops
▁Ultrasound
adrenoceptor
1-2
▁50%
▁labial
ture
itic
▁prognostic
Ia
▁elicited
pies
Ts
LB
▁conclu
ucle
▁monounsaturated
▁prostatic
rogenic
ucleation
menopausal
▁bedside
usp
oxif
opathological
ussion
▁cervix
▁thrombo
▁nM
afe
aemic
andard
▁FD
▁incub
104
▁pate
uccessful
▁(2)
▁Cushing
▁atmospheric
hemo
amn
▁interventions
▁bovine
▁triv
9%
▁synthe
▁connective
ximal
trac
▁subtype
Cer
cious
EGF
▁hybridization
▁chec
quid
opha
▁somatostatin
icine
icacy
▁dete
phosphon
▁overlaps
ostic
ognitive
regulated
▁resonance
▁athle
aryngeal
▁physi
▁44
▁500
▁fetus
19
▁flexion
▁hypertrophied
▁proce
▁actin
TB
▁recons
ticular
ritish
▁correcting
▁sensory
▁familial
▁silicone
olis
tiv
▁implantation
▁sampl
▁hernia
undibular
▁regimens
▁acetabular
▁pancreatitis
echanical
▁amyl
▁testis
phosph
▁Excessive
▁phagocytic
▁thre
enic
-6)
ecu
nowled
▁demonstrates
▁plaque
opro
▁administered
ipit
-450
▁acute
aventricular
▁0.00
ioid
neal
▁Concomitant
▁rotated
pine
4.
ochrome
▁intervertebral
▁evaluating
▁inhibition
▁satis
▁resear
▁gallbladder
▁oxide
rele
aceous
▁BMI
AO
▁HCC
▁behavioural
▁chloride
▁laparoscopic
plantation
din
▁acqui
occi
ervative
▁cyclosporine
diagn
▁abolishes
opsy
▁aorta
▁glomer
ullary
▁Removal
▁cortex
genic
▁perox
▁abnormal
▁WHO
▁tas
▁2,
idem
▁PBB
▁angiotensin
▁spontaneous
▁IVF
▁metoclopramide
▁ultrasonography
▁disparities
ethyl
trition
▁rCBF
▁0-1
▁ACL
▁comple
▁aerobic
prep
▁(1
▁donor
oskeletal
osynthe
estigated
onate
▁socio
sar
ditions
trop
▁detrimental
9-
▁vein
▁staging
NB
sul
▁vagal
qui
xide
tens
▁laboratories
▁Asp
▁VLBW
istal
▁201
▁polyps
atability
▁symptom
wk
tural
20
bral
PAP
▁proportional
positive
▁chemotactic
▁3-
oratory
hered
cents
▁carbohydrates
▁mM
viron
lobin
28
opia
▁sulfonyl
dition
▁discer
loid
▁induce
▁contributory
56
filtration
tus
fron
▁Accordingly
stress
controlled
▁venous
ximum
assay
ochondral
ologous
▁cytochrome
▁deem
▁Muc
▁20%
▁nig
▁Compared
27
isol
▁ascertainment
osition
▁adhesions
▁coronary
▁inser
▁5.
▁excision
▁underestimated
Hg
▁organisms
HF
embr
▁hepat
tured
▁musculoskeletal
▁PMP
DG
▁speculated
▁ultras
22
▁fluoroquin
▁Improved
ration
osyl
▁ECG
▁biopsies
▁markedly
orectal
▁CI
ocytes
▁nonc
eclampsia
▁manifestation
▁polymer
▁comprehen
MN
▁sciatic
minal
▁FHR
tension
tors
▁appreciably
lication
tig
hydroxy
▁modestly
▁amputation
▁3,
▁IMR
▁90
49
▁heparinized
tryp
prepared
▁trig
▁hypers
▁oesophagitis
otrop
mittent
▁rigor
osine
▁haemorrh
▁+/-
oplast
tially
olones
arcin
CSF
▁progn
opo
aptic
chym
▁cortic
01
chol
▁underwent
helium
prising
▁suture
acr
▁identifies
▁ventil
▁PET
geal
▁pediatrics
▁undergoing
▁85
▁reevaluation
▁hepatocytes
▁unprotected
▁29
▁stroma
mig
21
23
▁BP
noise
stim
▁sensi
idne
▁80
esti
▁adequately
onc
▁OA
▁corneal
▁contrac
▁0.05
inear
▁sedentary
DNA
glutin
▁Chan
▁tumours
▁tethered
▁ESR
▁tol
▁Considering
▁micros
19-9
▁persis
trimental
ternational
▁perme
-20
bic
atient
▁inhibit
▁acceleration
▁apop
▁sut
▁awa
lasting
▁mumol
▁interc
▁dehydrogenase
gression
▁microscop
▁sexes
▁smo
▁stenosis
▁polym
02
regulation
glumine
umbar
aline
▁ethanol
▁mammalian
mixed
▁undergone
eliac
▁IH
▁18
gia
53
roin
overall
ialysis
▁APTT
agic
▁proteins
▁sulfate
▁1.
omain
▁disparate
▁acet
▁rectal
tensive
APC
lym
▁cataly
▁hemodynamics
▁menopausal
▁ambulatory
▁23
ellular
▁nucleotide
▁45
ropha
▁ventilation
▁disappearance
▁usefulness
odil
KA
▁latency
▁Plas
▁surgeon
edic
▁adhesion
▁ions
ilateral
▁segmental
▁intraoperative
▁TB
▁instability
▁hypertensive
▁PCOS
assi
gesterone
onance
clim
lective
30
RNA
▁occurrence
olytic
▁lax
rocy
ceptibility
etus
▁gastric
▁oxy
▁eosinophilic
▁eosinophil
▁undisturbed
▁subjec
guided
hospital
rosis
▁rehabilitation
lys
enon
ylchol
invasive
▁correlate
▁vaccinations
containing
ocl
▁pulp
vents
ionic
▁inheritance
▁dislocation
▁Hb
▁preservation
rox
2).
▁AO
imination
▁disruption
▁ech
▁deform
bac
▁radiograph
tub
mL
inj
▁abolished
▁prolonged
▁colonization
tation
▁arth
xone
▁saline
▁infec
▁selec
▁lipids
▁cephal
▁cuff
pap
hern
67
iatric
▁regimen
▁epinephrine
▁schiz
fos
▁coex
▁surgeons
▁plantar
▁chan
▁neoplasm
▁precedes
zole
▁footprint
▁tolerated
iciencies
continu
▁oss
▁micron
▁hospitalization
pation
tum
▁fas
▁MRI
▁supplementation
▁myel
-1,
▁adhering
▁suppression
▁circulating
crib
jects
▁35
tib
▁acids
▁vena
jejun
oprotein
▁bipolar
▁exacerb
coh
▁carc
tection
▁supple
▁corrective
pS
▁coexistence
▁enrol
▁predictors
udin
▁(19
▁alterations
oplastic
▁proliferation
tomy
ileptic
▁combin
▁phag
▁polypeptide
veolar
ophilic
▁reagents
▁intest
▁12
▁glucose
CCT
▁MG
▁Tum
▁discern
gement
▁Consideration
▁dehyd
▁warr
acted
adily
▁decisive
▁immunomod
▁resec
▁thym
4%
▁fibres
reas
▁antibiotic
▁detectable
cepti
edle
erop
SSA
otent
▁repro
mentation
▁exo
▁intercostal
otor
▁AMP
▁APD
mia
▁clinics
▁mice
resting
reast
olarization
inergic
erable
▁equivocal
umably
▁melanoma
ATPase
▁responsiveness
▁TAA
▁employing
chond
opausal
oural
▁reflux
▁caregi
▁adherence
-1.
▁intrapartum
▁microbiological
▁assurance
phen
▁metab
▁retention
▁prostates
▁predic
SPECT
▁sperm
▁potentials
▁overdose
ensit
▁fractures
went
▁peri
ectom
ographically
▁practiced
▁retic
oidal
atectomy
▁ester
lecting
▁chlor
▁pathological
▁cys
▁iso
▁discordant
ithi
▁pleomorphic
▁MN
▁endometr
▁shig
▁multicenter
odial
iplin
▁neutrophilic
estive
enzymatic
▁gout
lateral
▁follic
vated
rosine
▁diminished
▁leakage
▁melan
onstric
▁progres
▁11
SAP
lycerol
tory
▁diagnose
▁discrimin
▁discus
▁minimally
rophilic
▁patellar
▁ACTH
▁6.
5).
▁conceptual
trogen
▁pla
▁disappointing
threatening
▁continence
▁chloroquine
▁affec
embers
▁scin
▁abnormalities
emory
▁pH
illus
enhanced
▁chorio
▁mL
▁hep
▁investigations
zard
-100
▁inh
ustif
essional
valence
urea
▁promoter
bladder
▁prevalences
▁uncover
▁cigaret
erative
▁potenti
▁Improvement
▁multivariate
artum
eptin
tral
▁reperfusion
▁deliveries
▁adminis
tiz
▁Intra
▁thromb
aturated
▁External
umption
▁IFN
ilibr
rone
▁FH
ught
▁moles
▁protoc
▁RA
urc
▁1,
'-
▁compli
▁incidence
▁fracture
▁coel
onyl
tures
14
reet
astric
▁perce
phasis
▁postoperatively
18
▁reagent
▁cathe
▁metabol
activation
-3
▁undetected
▁indeterminate
▁HPV
knee
atid
▁70
▁CSA
▁retin
▁monit
rotein
orption
▁hepatic
6.
1%
▁reposition
▁uneventful
▁plasmid
loro
▁utilisation
gene
LV
fal
▁gradients
eration
opathy
▁extrac
▁ulcer
▁Tumour
alact
oxid
▁pancreatic
▁septum
ocrine
▁mammography
treated
▁0.
erine
ilized
16
▁HSV
atif
▁ovarian
▁relapse
▁unic
otomy
▁morbidity
▁endochondral
▁immunode
▁eradication
itro
▁(10
▁overestimated
▁deterioration
▁filtration
▁TGF
aminated
▁paradigm
▁100
▁conjug
▁cis
olism
gth
▁antagonist
▁polymerase
▁pathologically
.3
odal
▁intraven
omycin
2)
yel
ectable
▁cirrhotic
▁RB
▁esophagitis
▁heterogeneity
venth
mend
itally
vein
▁indefinitely
2.
ipar
idation
erally
▁examin
Phe
blast
intestinal
▁acetab
▁microcirc
▁Plasma
cus
▁cAMP
▁communic
▁intestinal
aryn
orpor
▁dendri
abies
operatively
▁creatine
▁19
sion
▁gluten
▁prospectively
▁32
,000
olum
▁transient
▁phosphate
▁cann
erus
▁Stroke
atent
nRH
4)
licular
▁DSM
tically
▁OSA
▁studi
▁myocardi
▁improves
▁0.8
alan
▁sequential
▁biop
▁compartments
▁sodium
▁synovial
generation
▁mandibular
▁potency
▁20
▁infusion
hep
▁synthesis
44
▁procedural
▁recess
▁fluorescence
▁neutrophils
▁indicators
▁GPs
lop
ichia
ylase
▁decreases
▁fluor
▁8
▁hydrolysis
▁hemisphere
▁tumors
▁interp
lead
▁recurrence
adequ
▁favourable
▁surrog
hips
▁shorten
▁therapies
vail
uccess
astolic
resses
▁counseling
▁anastomosis
▁198
▁cholecyst
▁dosing
▁facilitated
▁electrophoresis
▁MBC
rosclerosis
-9,
▁(5
▁infants
phyl
▁reac
▁PAN
▁reflec
▁sequelae
▁trac
▁endarterectomy
▁hos
▁inducer
teroid
▁viral
▁38
▁psychiatric
RU
▁cereb
radi
alities
epit
▁restenosis
▁progest
▁oligo
▁underline
▁diabetic
▁deficiencies
▁40
▁vegetable
▁olig
▁cervical
oside
▁masked
atase
cture
▁anticoagulation
▁LS
▁omitted
onin
ospor
▁complications
jec
omial
rof
tained
▁inference
▁AGE
▁pylorus
▁monke
▁strom
▁endogenous
eptides
▁spikes
morph
▁swelling
opamine
linolenic
ventive
stro
fected
▁Hg
▁physici
▁(9
▁OT
▁Treatment
rhy
▁characteris
lowering
idine
ulph
▁misleading
inic
rk
▁unresectable
▁inpatient
onous
▁therapeutic
▁adren
▁sebaceous
sia
▁hemis
▁empirical
▁obese
odynam
acial
ymp
▁prevalent
▁pituitary
nutrition
(5
rease
▁venti
▁graf
▁amput
▁criter
▁possi
▁pulmon
tality
asal
sive
▁heterogeneous
oresis
▁(3
ustment
▁practitioners
▁mediated
▁endoscop
▁laparo
▁unclear
▁accumulation
▁fatality
▁antibody
enol
76
▁intramedullary
▁persist
▁oes
seud
Ara
▁selectively
▁dele
ACS
▁multic
▁degrad
▁7.
▁predominantly
▁Vitamin
▁debr
siological
▁sclerosis
▁FS
Ra
▁unevent
.4
▁shortened
▁compart
ceptive
NAP
▁genic
ochlear
▁alve
▁immunisation
▁substrates
tical
▁PGE
▁31-
occal
ropriately
▁alk
▁implic
idement
▁neurologic
utaneous
ylate
▁subchondral
▁tryp
oride
▁stimulate
amino
CBF
▁MRC
▁umbilical
▁oxidation
▁0.7
▁endothelin
▁predictive
mediated
▁hemat
▁pall
▁adver
agit
▁chl
tive
piration
gment
▁defic
▁counteract
oplasty
▁peripheral
▁gangrene
iological
ariate
▁epithelial
▁proct
▁mediates
▁differentiate
▁discharge
▁precur
▁progression
▁chole
▁operative
▁juvenile
▁mRNA
▁inactivation
▁exis
▁morb
rates
cele
▁MH
onit
▁0.01).
fusion
immune
ylamide
identical
▁degradation
onium
▁SG
orepinephrine
▁norepinephrine
▁placent
▁Whereas
▁skeletal
ylcholine
▁ALT
▁ves
▁fri
rophyl
▁adenomas
evaluated
▁severity
▁Obese
%).
▁inhibitor
ected
lier
▁tibial
Ss
▁Contr
▁cen
▁seroton
▁preparations
▁resistant
endan
stem
▁calcified
▁THA
▁homogeneity
▁quantit
▁AVR
▁genotype
▁striated
▁anatomy
▁proposes
vant
▁7.8%
▁vaccin
immun
▁(100
ithms
▁transplantation
▁ruptures
dents
▁2)
▁Immun
▁aggravation
▁acupuncture
▁regar
TNF
dial
otom
2+]
▁arter
trip
▁soluble
▁gynec
▁aortic
▁coh
▁inad
5)
▁methyl
uality
▁underst
ulatory
▁unrelated
▁contraction
▁differing
▁200
otassium
▁cochlear
obic
years
▁rhy
▁quanti
▁lumbar
0.5
▁Alternative
reatine
▁CPAP
▁silic
cessive
iasis
▁0.2
Tc
▁synerg
▁untreated
iton
▁preferen
rogenase
▁circumferential
▁202
oten
▁aspiration
IgM
▁marrow
▁Phen
incidence
▁NPH
ulcer
▁CAM
▁regis
tead
▁lys
hemia
ensi
acetyl
ancement
▁hypoxic
▁illicit
ults
▁distinctly
▁vulnerability
▁alp
▁mec
▁cancellous
▁caro
▁biochemistry
▁Adherence
▁injur
lood
▁assays
▁trough
crip
▁preliminary
aluation
▁membrane
▁repaired
tivity
mortality
orphism
▁anomalies
▁differe
40
opramide
duce
▁nec
erence
vity
tries
idase
▁polyp
▁haemorrhages
▁receptor
▁debridement
▁adenylate
▁clipping
lesion
▁transrectal
etal
▁stu
0%)
▁1-
▁metastases
▁Progression
.2%).
▁10.
2%
▁1.2
▁48
clin
tase
▁unselected
▁reproduction
▁enrolled
▁urine
▁synovitis
▁resis
opulation
olenic
orphic
▁bir
adren
contrast
▁recessive
igel
▁porcine
▁glut
▁acidosis
▁prostagland
▁erythrocy
duction
oscop
▁suppres
esity
▁HU
infected
▁Vaccin
▁prognosis
▁30
▁deterior
▁edema
▁validated
hers
ovir
▁membran
▁morbid
▁hydrox
▁estimating
▁43
▁appropriately
entan
▁exacerbations
▁individualized
▁transcription
▁28
▁reper
▁BMP
▁lymphadenectomy
▁dysfunction
arental
ivoc
cretion
▁thrombectomy
▁sphincter
4-
▁haemorrhage
olec
▁limb
hering
GV
avage
diagnosed
▁lipid
acclim
alsy
▁peptide
▁ageing
bacco
▁antagon
atial
▁reproduc
▁Biochemical
▁incorporation
▁atrial
▁injected
occus
▁pylori
▁resected
.2%
▁characterize
▁reimplantation
▁diluted
irc
unctional
▁examiners
6%
▁Intravenous
▁diap
▁melatonin
▁ancestor
tin
▁0.6
▁EMS
▁referrals
mTc
▁provocation
▁migraine
8.
▁scoliosis
tein
▁appendicitis
▁(10(
▁amyloidosis
ostat
▁inserts
▁soybean
tam
▁radiographic
▁anatomic
oic
▁gonad
MIC
▁techniqu
acil
▁LD
▁verteb
▁nutritional
▁buc
▁PCO
-0.5
▁sickness
married
▁intermittent
▁toxin
▁(1)
▁axons
▁suppressed
omized
▁somatic
▁unsuccessful
zation
▁circumferen
tach
essel
▁0.001)
ejun
inusoidal
▁leuk
▁Addition
phth
ilical
▁psychotic
▁polyethylene
▁antiser
▁insertion
▁interleukin
▁NSC
▁sci
endri
▁medicines
▁fati
▁rigidity
▁hypo
▁aiming
eck
adiol
▁defec
▁malign
▁amo
▁mortality
▁pulmonary
asive
otyp
entists
▁readings
▁displacement
▁drainage
Ki
▁fulf
▁cesarean
▁toxicity
▁evaluations
▁antic
▁adenocarcinoma
▁localities
dia
▁IPF
▁HC
▁undoubtedly
▁intramuscular
▁encounters
▁pyram
▁ket
▁purified
▁exten
▁stained
anic
orac
▁definite
thle
▁pmol
▁vitro
▁intragastric
▁eyel
▁recombinant
▁enucleation
▁satur
▁leukemia
▁radiotherapy
▁sedation
▁determinants
scop
WB
lyce
▁distinctions
▁symptomatic
responders
HN
▁kidne
1).
rants
1.
certain
▁pigs
▁torsion
▁enlarged
▁TA
▁Premature
▁airway
.2
▁femoral
rehen
▁morphologic
▁LVH
consuming
▁Tran
▁22
cribed
omerular
▁correlated
▁phenotype
▁pneumonia
▁concomitant
▁seb
▁reductions
iferation
▁uter
▁ae
▁abdomen
▁lumb
▁palsy
▁appendic
▁remo
scher
teric
▁Kupffer
▁adhe
alian
▁Comparison
IK
dominal
▁.0
.9
hemical
▁DFS
ostom
▁hepatitis
▁effec
▁Excess
▁hypox
▁cytos
3%
▁recombin
cis
▁inflammatory
▁adverse
▁4
▁Kup
ervical
thma
▁benign
▁repor
ondr
mation
▁contralateral
▁judged
Nor
▁recom
esting
▁follicular
▁initiating
▁contrib
▁acad
▁cava
HG
▁(3)
seal
ressive
▁endometrial
ysm
▁linkages
▁Significant
▁sacr
▁resuscitation
▁SNP
▁histologic
▁6-
acental
▁80-
ocaine
helial
ometr
▁desm
▁antagonists
HM
ths
▁shif
HB
▁macropha
ediatric
▁mutant
▁intrauterine
▁neurolog
▁Phe
iably
▁inadequate
utroph
Tn
▁numb
35
▁gradi
▁ruptured
▁rese
ovascular
▁posi
udent
▁spleen
▁exhibited
cysteine
▁limbs
ylated
57
▁Trials
tak
ocytic
▁Healthy
▁metastasis
geons
▁synov
▁adjustments
tage
iatic
▁workload
anish
▁Swed
▁receptors
cation
▁Continued
▁PF
▁stimulation
▁manifestations
▁plasm
carcin
▁Magnetic
▁uptake
▁pneumon
atisfaction
▁Roux
▁evoked
/2
▁tyrosine
amate
▁HM
▁lobectomy
sian
▁TSH
▁infections
▁bip
cored
ropine
▁preventive
▁heavier
ocele
▁PTC
epti
urally
▁kerat
▁rhe
▁cellular
treatment
▁24
4,
rength
vascular
▁coincidence
cyst
BW
fir
▁trophob
▁3)
race
▁microgram
▁fragility
▁tumor
▁excimer
▁disadvantages
icul
▁Effective
itin
ochemistry
▁lateral
▁99
hesive
quine
idated
entif
▁90%
▁assessing
terl
sively
opam
▁GV
▁GH
atonin
▁etiology
▁undertaken
yses
ompan
▁ery
▁angiography
ituitary
reness
▁evid
clerosis
activated
▁pathologists
▁carotid
▁residency
ignific
Ba
▁imaging
▁tamoxifen
▁congen
▁initiation
elvic
astom
▁biom
▁malignant
centr
▁strains
-2-
▁LF
▁pyramidal
▁reliably
▁paralle
rogra
▁pedig
▁errone
CGP
operative
odialysis
▁Dopamine
▁steroidal
▁pathogenesis
▁engraftment
▁adop
▁caregivers
Hu
▁sero
trib
atment
▁endpoints
tect
ignificant
coun
▁spati
▁albumin
ostatin
▁vaccination
eak
▁COS
▁disparity
▁uncommon
▁antegrade
▁hormones
infarct
rC
▁bronchiectasis
▁Pretreatment
▁LC
▁scre
▁150
▁Chronic
gli
▁5-
▁isch
methyl
▁confir
▁multifactorial
▁catheter
▁phon
▁polymorphism
▁1)
ointing
▁adjuvant
omical
anine
▁metast
▁lymph
▁intra
▁decreas
▁NP
odynamic
▁phosphatid
raine
▁rabb
1,
ureth
▁ile
▁cocaine
▁125
▁versa
osin
▁metabolic
estis
▁inherent
6)
▁autoxidation
▁substantially
▁HAM
▁inclin
▁blin
▁discom
▁phosphorylation
▁beha
70
▁warranted
▁impairment
-1
moid
▁elevated
oru
oyl
▁confronted
zyme
▁saturated
asic
▁chromatography
.0
▁removes
ormone
▁Larger
▁thi
90
▁undes
▁dexamethasone
▁LPS
▁autoimmune
LF
▁enzymes
▁intram
▁tumour
▁asthma
▁anesthe
▁unco
▁substitu
/-
comitant
lymph
dose
gulation
▁esophageal
affected
▁reevaluated
ffer
▁(54
▁concentrations
▁excretion
▁bladder
▁chol
▁Physicians
erper
▁catheters
▁fractions
omiting
entricular
urethral
atories
arate
tual
ctomy
▁locus
ellar
▁aneurysm
▁Serum
▁DST
▁validity
itoneal
▁cholecystectomy
▁embryos
responder
▁Regarding
▁endoc
tration
VH
▁cholestasis
tific
▁gallstones
▁cate
▁physiologic
▁palp
▁UL
7%
oleic
▁positively
▁sti
▁Prophylactic
▁molec
ulting
▁bronch
ective
▁infil
▁platelet
▁10
copic
hort
TG
omal
▁agonists
▁PEG
▁biases
opram
veness
▁affinity
▁murine
vit
▁tracers
▁atres
▁hypothal
▁(0.
▁neuronal
▁neo
▁nal
▁impacted
-67
▁adaptive
▁mann
elan
otoxin
▁DN
▁rabbit
discharge
linic
▁inhibin
uretic
jun
oagulation
associated
▁percutaneous
▁0.1
▁substitution
uoden
▁Operative
▁spinal
▁evolving
2%)
labeled
tur
▁10(
▁micrograms
6,
▁atherosclerosis
uin
▁ischemic
anus
▁residue
▁cyto
pecially
▁STI
▁splenectomy
▁oxid
▁mutation
actin
▁mellitus
▁establ
▁nonadherent
either
▁coexist
▁projec
▁causal
▁warrants
▁panc
▁fluores
urse
▁differentiated
▁incubated
▁Contrary
otr
▁prel
ducible
▁cytology
▁bilateral
▁bac
lux
lobulin
vasive
▁osteoporotic
unctions
▁intensive
▁40%,
▁fatigue
pir
graftment
▁Recurrence
▁adap
▁minerals
▁iatrogenic
▁placebo
▁abdominal
▁adolescents
▁immunore
▁tympanic
▁melanomas
ilization
hei
▁quantitative
▁atropine
▁mitochondr
▁ablation
▁PAS
▁fibroblasts
roph
▁Findings
▁cloned
effec
▁dentists
▁discriminative
mented
▁myo
ineural
othelial
▁exercised
▁peris
▁pathologies
lac
ducts
ints
drome
▁molar
▁physiology
▁LT
diol
▁OCD
oplasmic
▁chloro
▁transcrip
▁chor
oracic
▁plur
▁promo
▁nmol
tate
retion
▁EGF
▁influenz
▁feasible
▁consultations
▁heroin
▁resusc
essive
▁sple
aem
▁HG
luent
▁ASA
▁encoun
iferol
▁curative
▁inflammation
▁soy
▁guinea
osts
▁sulfonylurea
tebral
ections
dg
▁lymphocytes
▁suturing
-4
▁dorsal
inemia
▁13
▁deficit
genital
ameth
ergency
▁suprap
▁respondents
itudinal
oty
29
▁tet
▁blockade
▁aerob
▁inoc
▁distal
▁annulus
▁Cox
▁molecules
▁79
▁subf
▁physiotherapy
▁3
vely
venous
▁unde
uted
▁Neurop
yroid
FV
oxidation
▁somat
▁gangl
▁ascer
ilic
0%
▁equilibr
▁increas
▁endarte
adrenergic
tif
▁simultaneous
▁timely
▁surgically
▁21
▁Estrogen
▁loosening
otomies
▁extensor
onomic
▁stimulus
effectiveness
▁milieu
▁injec
2+
10
▁anat
▁SUP
▁headache
alues
vements
▁Systolic
oung
RH
EG
▁Ig
▁1.6%
esia
▁crest
gastric
othel
▁grading
omies
▁Imaging
▁PID
henyl
▁prescrib
▁tracer
▁haem
▁histopathology
hap
heal
▁colorectal
LU
▁hygiene
▁vesicles
▁AMI
▁intracellular
▁39
▁pelvis
▁anastom
ressing
▁preferably
▁lobe
▁tric
SCE
lycer
▁sugges
-2
▁VE
vertebral
5.
▁bypass
owel
▁visually
gesia
oxia
▁questionnaires
▁derangement
stimulated
▁hypoglycaemia
▁neurological
▁conservatively
▁inhibitory
ertion
vic
▁42
▁tertiary
▁amino
assium
▁Steady
▁thorac
ectin
▁HN
mental
▁secretory
▁Lys
.8%
▁substrate
▁rash
▁pyr
▁rigorous
▁parame
▁psychosocial
▁illustrate
▁phospholip
▁targe
▁bloc
▁PEEP
irrhotic
▁inten
WBC
ochemical
xia
ipient
▁gland
▁synaptic
Tu
▁exchan
formin
17
▁behavioral
otropic
▁prox
▁ventilatory
▁overd
rati
▁85%
▁drin
▁mutants
▁medial
terone
▁(2
▁examinations
ourable
▁agon
ibi
▁inactiv
▁enl
ohyd
▁resour
▁nuclei
▁Paget
▁beverages
▁MCP
▁26
dic
amet
▁construc
ocortic
ogenous
▁zinc
owever
▁1.6
▁50
34
▁perc
ologic
▁19%
▁ischem
Ka
▁axillary
▁cerebral
▁estrogen
▁alveolar
▁decreased
▁manipulations
▁vitamin
▁mutations
▁predicts
urement
▁clearance
▁cortisol
sensitive
▁erg
▁patella
ronch
▁cyt
tun
▁endothelial
▁SBA
▁ana
ffs
imin
▁spi
▁monitored
armac
▁prophyl
▁subtraction
▁oro
hea
▁scanning
grees
adder
▁prolif
▁Patients
▁mucosa
▁preterm
earance
▁cardi
▁chond
▁throm
▁empir
▁adenoma
rans
immunization
amus
▁compartment
encl
▁hypothe
5%
▁reflex
▁diagnoses
olysis
▁1
▁tiss
▁carcin
▁10%
resistant
echn
▁thromboembolic
▁cancers
▁collateral
thyl
▁herpes
▁blot
▁7
sue
inol
▁epi
ficial
▁evol
12.
trative
▁RP
▁resol
▁lymphocyte
▁microc
mide
▁(6
▁implicate
Gi
odon
▁nodules
▁occlusion
▁perfusion
▁Increas
▁modif
vation
▁neoplas
▁IIb
2-
▁vancomycin
▁LV
▁9
SAH
ortal
▁inhibited
▁physicians
mur
▁diabe
▁yiel
▁FDG
urate
▁differenti
▁ascertain
▁VC
▁requi
gely
acin
▁embryo
forcement
31
omat
▁Routine
omod
▁merits
▁variants
▁ascertained
▁PCR
▁collagen
isqu
▁depres
▁cerv
▁integrating
glut
▁ART
graft
renal
▁excre
▁obesity
▁reag
▁Pregn
▁sev
▁GI
.8
▁subjected
ylation
▁Therapeutic
▁pS
umulation
▁paradig
taken
▁potent
ulitis
apeutic
7,
▁bronchoscopy
▁0.3
▁aureus
▁muc
▁intrap
▁GVHD
erving
pH
▁respec
lip
▁traum
ancreas
▁HL
▁chromat
ogens
▁sympathetic
▁parap
▁cue
▁implicated
▁poin
oscopic
▁empirically
▁potassium
▁prenatal
ondral
▁unil
▁kDa
ycin
▁gallst
ravid
▁16
▁exclusion
▁fetal
▁40%
▁restor
▁progesterone
▁necro
▁cyclo
▁cystic
▁carcinoma
▁adhere
alc
▁microscopy
OH
▁decreasing
▁dietary
▁complemented
▁polymorph
▁differentially
▁wee
▁differentiation
esthe
▁14
▁gestation
▁pathologic
truc
parative
vival
bility
neumon
ervations
▁extracellular
▁nucleotides
▁tec
UF
kade
▁palliative
▁thir
8,
▁dors
irrh
▁prostatectomy
ochem
oclonal
tial
monary
▁refraction
▁Multiple
▁bile
▁bene
arous
▁correlates
▁glands
▁provid
omotor
tabl
derived
planted
▁restorative
eal
▁hipp
adrenaline
otides
+)-
totic
▁cadaver
▁nitro
▁aspec
▁Rout
▁exer
▁uni
▁atresia
▁NB
▁ure
faction
▁Increased
▁nm
▁60
▁fentanyl
▁consangu
▁vascular
▁synchronous
ixation
▁appropriateness
FU
gmental
▁34
adherent
erance
▁lipoprotein
▁groin
roma
▁carcinogens
▁glycaemic
erating
dle
▁electr
lusion
▁differen
▁referral
▁colonoscopy
▁pren
▁aden
▁transfusion
angli
▁microm
▁HI
▁IBS
luores
▁0.000
tisol
▁enzym
▁comparative
▁distin
▁scaled
▁routinely
▁AGA
▁immature
osom
▁consis
▁muscul
▁FV
hyd
▁EO
▁0.05)
▁Atropine
increased
acchar
▁100%
2/
▁discontinued
▁cigarettes
▁variability
▁Ear
▁aort
▁angi
icin
gic
aturation
▁TC
▁longitudinal
▁ceased
terminal
▁VD
ograms
MV
▁opioid
▁unchanged
arers
ivary
TN
▁IU
▁linole
▁0.4
▁systolic
risk
▁schizophrenia
▁ossification
▁gyn
regn
angl
cardi
opa
anding
▁multim
▁consolidation
▁adjustment
▁6
▁ultr
▁acco
NH
▁disagreement
▁ganglion
▁deformity
uptake
▁basal
▁Surgical
onad
▁cholesterol
▁inappropriate
▁pathology
valent
erin
leu
▁propor
tact
leukin
▁audi
▁sinus
urine
anyl
dor
titu
▁hern
tagland
elong
nai
▁120
▁subc
▁LOS
▁modulate
▁ketamine
▁hygi
1-
▁echocardi
▁fractured
▁birthweight
lysis
erated
onset
oradi
clinical
▁CMV
▁demographic
▁Mg
injured
▁superv
athy
15
orrh
▁2
▁microv
▁assay
BV
▁anatomical
-1-
▁RS
▁secretion
fts
▁4-
▁[3
▁experim
itively
▁atmosp
▁testosterone
▁GER
phrine
▁Bec
tering
▁subunits
4+
▁inapp
▁synergistic
▁deple
fentanyl
▁unrel
▁cardiovascular
75
▁histamine
igravid
▁scl
ococcal
oprote
odium
inally
appropriate
heric
IIIa
▁compressed
▁psychotropic
▁eyelid
▁pineal
ffinity
chers
▁uncontrolled
▁paraventricular
▁prostate
▁hypothyroidism
▁reduc
0-
▁positioning
tolerated
▁favorable
▁summ
▁endot
▁unaware
▁simult
inactivation
▁0.05).
gland
▁balancing
▁hippocamp
▁intrag
▁canc
ochondr
cores
▁Thromb
▁thrombolysis
toc
▁documenting
orrhagic
▁avail
▁UF
▁mell
ffin
bumin
▁prudent
kDa
enin
phosphonate
onary
▁mitral
▁prescribing
▁pneum
Ig
▁relied
▁gynecological
13
▁enti
uran
▁margins
▁preconditioning
-10
▁1.0
farct
▁induction
▁irradi
asses
▁intravenous
▁occlusal
▁definitive
▁microvascular
▁Bone
▁elu
▁overex
▁undiagnosed
▁overlapping
▁desirable
4).
▁exce
▁ICS
▁2-
▁fibrin
olip
0%,
▁0.001).
▁PRP
▁sph
▁nucleus
delayed
▁hemodynamic
▁utilization
-9
▁uremia
▁ultrason
ayed
▁subgroups
ortic
▁DG
▁ane
▁adequ
▁Adverse
▁traumatic
▁alph
▁influenza
▁clinicians
▁noncom
▁interpersonal
induced
▁isolates
▁perone
▁overlying
-7
▁perip
▁correlations
▁platelets
▁unexplained
hicle
rae
isture
dent
peri
ocamp
▁aor
iology
2,
atural
▁phagocy
00
▁peroneal
athetic
79
genes
nee
▁Surgery
▁volumetric
7)
sible
versal
▁atten
▁indicative
▁utero
▁glycoprotein
▁enzyme
trex
overed
inatal
▁laparotomy
ociation
arean
FG
▁capped
▁eliciting
▁prol
▁introduces
▁infar
▁RH
▁congenital
▁algor
tized
amide
chondral
ivariate
▁dissection
▁intake
agin
xual
▁arterial
▁lesion
▁allevi
xiety
▁Escherichia
▁Blockade
▁pathway
▁susceptibility
▁enteral
lasses
▁cutaneous
▁adolescent
▁feasibility
▁chemot
▁kinetics
oscopy
itance
▁cytotox
▁bran
▁highl
▁restric
erum
igaret
trast
▁symp
▁MEP
▁laparoscopy
▁cytotoxic
xpression
sequent
ositol
ectasis
▁vaccines
agal
▁Analy
▁predictability
▁unemploy
lix
/1
ronchial
▁inadvertent
urred
▁induc
▁arteries
▁herp
▁confound
▁CRP
▁implant
jective
.1
▁pharmacological
▁abl
▁Percutaneous
12
▁atrophy
▁IB
scherichia
▁recor
▁ultrasound
▁osteoporosis
gluc
aginal
atab
.5
luc
▁obser
▁extracts
▁seizures
▁HCA
osterone
ophag
▁undo
▁micromet
atheter
▁reticul
▁injections
onor
▁occl
▁unilateral
▁macrophages
gative
▁grafts
▁depressive
▁births
▁RBC
▁clinician
▁ensured
▁peptides
▁NH
▁hemodialysis
onuclear
▁prednisone
▁periodontal
▁ration
sial
▁32%
trol
▁neoadjuvant
lated
stab
▁mono
▁rationale
3)
versus
▁globally
▁electroph
fication
▁IHD
gans
65
▁MHC
ceptual
ocardial
▁synthesized
▁perfused
▁epidemic
tence
▁predicting
▁neph
▁pelvic
▁substituted
▁GBS
69
▁gon
iosis
▁avascular
▁cardiac
.6
▁acyclovir
▁conduc
▁2.5
▁Discre
▁pter
▁BD
istor
▁struc
atoid
▁analyses
▁Ket
ostal
tively
▁lith
▁remission
▁benz
tent
onatal
▁Inclusion
entanyl
▁diffic
▁interacted
atell
▁Older
utive
▁constitutes
▁discusses
▁concom
▁cannulae
transplantation
▁4,
▁phe
0,
pecific
entary
▁Patient
▁Prospective
ypical
ococcus
▁HLA
▁doses
kage
OA
-5
ocyt
▁UTI
ulae
▁genotypes
genesis
▁bronchi
oplasm
▁Cyt
▁identif
-1)
▁rabbits
DH
▁prophylaxis
▁urinary
truction
tention
▁sten
▁postnatal
arthritis
▁chewing
tinu
Cu
ygen
▁adrenal
relevant
ollicular
▁amy
▁reflecting
▁lithotripsy
tel
▁Stu
▁grouped
▁foc
▁cardio
▁produc
iotic
▁distinguishing
iminary
▁calcification
▁LH
responding
▁21-
▁complication
mutant
▁parag
▁pT
Hb
▁intrinsic
▁morphology
▁unex
5-
urther
ocardi
▁-0.5
▁19-9
ffective
TU
ncy
▁neutrophil
▁ACE
odic
SCC
ancre
▁multiv
oag
▁directional
sities
adic
▁ovari
▁divertic
▁dex
CRP
phon
gents
▁pathogen
▁inversely
▁clon
▁insertions
▁37
itures
▁gad
▁ICM
▁anemia
▁nulliparous
ureus
▁Emergency
ctive
lasts
▁Elderly
▁geriatric
▁periodon
▁chromosome
▁investigating
▁IUD
perfusion
▁pressures
11
monstr
▁normo
itus
)2
tice
vating
rophob
eded
▁poses
adication
▁unres
▁evacuation
▁diets
▁leu
ectomies
plasia
▁amyloid
▁caud
▁perinatal
osyn
▁subun
5,
verages
▁tymp
▁palpation
tec
aemia
Ds
▁LDL
lax
mature
estion
▁8.
▁overexpression
rine
ophil
▁27
▁Greater
thre
▁vitamins
lectomy
▁oils
85
▁vomiting
▁plas
▁overe
ognition
▁TK
nthe
▁Histologic
tance
▁facilit
▁interpre
▁lact
+,
▁5
▁CK
▁phosph
97
illic
▁undetectable
▁Tren
orative
▁hypog
ulfonyl
▁0
▁tonsil
estions
hydrox
IH
▁VS
▁inver
rested
▁turnover
▁cortical
▁objec
▁expenditures
▁Alter
▁surgical
phe
▁poorest
▁intrarenal
▁suggestive
▁replication
▁hormone
ogra
▁epiderm
orax
econd
▁bacterial
▁SGA
uncture
rement
▁aggregation
▁Biochem
▁sulf
▁deficiency
otactic
natal
▁ortho
odality
atrial
▁IgG
▁substanti
▁pover
▁TNF
▁VO
▁consol
▁efficacy
▁gly
BK
ociated
▁IA
nisone
▁0.9
%),
▁metabolites
▁episodic
▁artery
lep
uble
duced
ositive
▁concordance
1),
▁opi
▁membranes
facial
uron
▁Alcohol
iliac
okine
▁unaffected
▁reproducible
▁implantable
transferase
▁Ara
▁discon
▁esophag
▁BV
▁metastatic
▁illustrates
▁OC
▁underg
▁attrib
▁underlie
retro
▁vesic
▁ratios
▁microb
▁TG
▁biopsy
▁kidney
elec
▁sequentially
▁statis
▁allo
▁PVR
▁consequent
▁mucos
▁adenosine
tradiol
▁rats
▁placenta
sych
ocarcinoma
atitis
▁mV
▁perforations
▁peptic
ferential
▁prostaglandin
KD
razole
▁hypertension
glyc
ometrial
▁depr
otide
48
cutaneous
romed
▁chemo
▁FSH
tabol
1-3
lob
▁connec
wenty
▁lactate
▁neurons
▁onc
▁assis
▁cleavage
▁callus
▁heavi
otox
tensin
opres
▁pedigree
atients
▁topical
mol
▁migrated
▁amin
▁BPs
▁Medicare
▁widening
▁glomerular
▁tidal
▁systemic
ailure
olesterol
▁cohort
▁renin
▁ventricular
kele
▁stellate
▁Mothers
▁collec
uting
TSP
▁deprivation
▁contaminated
trexone
▁athe
osal
eared
phal
▁colloid
▁15
▁problematic
▁supervision
ithm
▁Delayed
▁rati
▁detachment
phosphate
▁umb
▁unin
▁needles
▁epileptic
▁postmenopausal
▁homogene
estim
▁pregnancies
lapping
▁specialty
▁histological
▁Continu
▁onset
-14
▁lis
▁stren
▁tissues
othermic
▁arthritis
▁dopamine
idate
Ca
▁naltrexone
acting
▁immig
▁tailored
itoneum
▁adolescence
▁alcoh
▁hazards
physiologic
▁endemic
▁depic
tic
▁tran
▁carbohyd
nec
▁radiography
▁effic
▁permeability
osocial
▁immunoglobulin
▁tib
ignant
▁insufficient
onucle
▁vivo
▁tuber
rotid
1)
▁deformities
▁1.7
atine
-8
▁detach
roximately
▁leisure
▁tert
▁immuno
▁interv
▁indi
rophy
▁chemotherapy
▁pharmac
ritis
olectomy
▁confron
▁juven
ynaptic
ansing
▁occupational
▁granul
▁trophoblastic
▁tes
▁hospitalized
▁complementary
opi
▁specimens
▁derange
▁immunological
▁impaired
olated
osomes
▁stillbirth
▁fatty
Wo
oretical
ventricular
▁embry
▁ambul
▁predominant
tox
▁neurop
▁75
▁femur
atest
yloid
▁socioeconomic
▁linoleic
▁immun
▁17
ranolol
▁emerg
▁hetero
▁79%
illary
ovine
anese
▁erroneous
▁randomized
reased
▁radiological
▁tach
erations
ivocal
ustained
▁vasomotor
birth
▁atheros
▁eryth
▁PV
rectal
▁advancement
apeu
▁indications
reported
▁relap
▁fibrob
feren
▁musc
TK
▁invasive
▁cardiomyopathy
▁modulates
benz
rene
▁3.
▁syndromes
▁Whilst
▁gait
▁attentional
▁immunos
▁GFR
▁mitochondrial
▁metformin
rane
000
clo
▁5'-
vac
edullary
tric
▁discomfort
▁measurable
▁congenitally
.7
Fs
▁unstable
▁agonist
utions
▁memb
carb
▁Streptococcus
sess
▁infarction
▁insufficiency
▁perceptions
▁VL
emia
▁necrosis
▁localized
ontal
▁preoperative
▁erosive
ipid
crimin
▁57
echan
▁Chest
▁paraplegia
▁PSA
ocusing
▁VAS
kely
▁mmol
▁assessed
▁suscepti
▁exogenous
▁22).
▁repres
ubted
gm
▁contamin
▁extre
lastic
urys
▁identically
oxic
tingu
tro
▁GABA
▁coeliac
▁leukocyte
▁transurethral
tero
▁iliac
oxygen
▁eluc
▁rotational
▁precursor
ventional
vaginal
▁transi
fec
▁Severe
▁serum
▁Neu
▁cyclase
▁comprehension
ocyte
▁verte
Ta
▁hydroly
idis
▁hepar
▁ventric
anol
estig
▁cla
▁clones
▁confined
▁SCH
▁detec
▁epit
▁epithelium
economic
hyp
▁pancre
spective
▁elucidate
▁screened
6-
▁demonstrating
▁Comparisons
cold
▁apex
▁nonoperative
phic
versity
▁Medicaid
lyc
urin
▁thresholds
▁rheumatoid
▁malle
▁hypoxia
ofol
▁Tumor
legia
▁PCP
▁hu
▁latent
MRI
pendent
▁ADH
uterine
phos
▁followup
▁irritation
▁retrospective
▁exposures
anis
▁Dil
▁reproducibility
mediately
▁amp
spectively
▁Preoperative
▁cohorts
▁phy
▁cultured
▁neon
lore
▁buccal
ithiasis
▁hyperfiltration
▁macrophage
▁HMO
▁orthopaedic
quired
▁laxity
rals
▁depar
▁uncomplicated
▁hemorrhagic
stages
utin
oglobin
acetylcysteine
▁CABG
ogenesis
▁poisoning
▁nosocomial
nI
▁36
tyl
essential
uvant
▁conclusive
▁practic
ffec
▁DF
▁Taken
scopy
implantation
▁homogeneous
ithin
▁hypertro
▁challen
uscular
(+)-
urgically
▁HCMV
▁maternal
urgical
▁undergo
bly
▁oste
▁palli
▁causative
ministration
nosis
▁25
▁cDNA
accharide
▁intrav
▁questionnai
▁1.5
▁eosin
▁RM
▁merit
▁bronchial
▁pharmacy
▁UT
tected
arer
pT
▁attenu
▁ambient
▁GE
▁amines
▁nasal
rectomy
iol
▁endos
muscular
▁spon
tional
dop
eric
▁lesions
▁15%
