▁occlusion
ondr
▁HI
▁doctors
▁enrolled
▁fracture
.2%
SAP
ticular
▁drinking
▁depress
lectomy
▁rotated
▁subtype
▁proximal
ochem
▁numb
▁mucosa
▁pathologic
▁cocaine
▁unre
▁manu
agal
▁uniformity
▁pharmacological
orotic
onium
▁dentists
▁residues
▁atmosp
iciencies
▁potent
▁pathological
▁caud
▁cohorts
29
▁tracer
▁referral
▁behavioral
▁identifying
▁mutation
▁striated
▁implantation
▁nal
▁stillbirth
roma
valent
▁chloride
▁SCH
▁overd
▁screened
crimin
ynthe
▁gon
▁remin
anish
▁preoperative
▁nosocomial
trac
▁5
▁monitored
tenance
▁verteb
+,
▁poorer
▁Denmark
oes
▁0.
▁gout
▁mothers
olectomy
tec
▁chick
hest
atrial
itoneum
ocele
olum
gic
opa
unts
▁oste
▁Recurrence
olysis
▁athletes
vating
▁nucleus
▁decisive
▁fractions
▁retrospective
pendent
▁Greater
ysm
▁prognosis
patient
▁40%,
EA
osine
▁intrag
omiting
tific
▁paralle
arly
tant
▁tymp
▁reposition
▁thromboemb
orts
▁groin
ressive
▁desm
bic
ylate
▁agon
▁drin
tage
RH
tures
▁0.05)
▁Accordingly
ubtedly
reast
▁VO
▁autoimmune
▁pulse
tility
▁vancomycin
▁198
▁inhibits
▁85
▁Chest
plas
effectiveness
ilization
▁backs
discharge
▁classified
gluc
alact
▁prevention
cessive
▁reac
diagnosed
ustif
▁explored
▁cervical
▁salivary
▁OA
AO
HN
▁inh
▁conservatively
▁synov
aminated
▁overl
▁intramuscular
▁Stroke
olytic
▁predomin
sively
▁nm
▁adenylate
▁glucose
▁strains
inactivation
▁subjec
▁rhythm
ometr
▁warranted
mend
ture
▁Dopamine
▁restenosis
▁chromosome
▁yiel
▁aggregation
iated
▁encoun
▁sickness
▁previ
.2
▁respec
▁harmful
▁therapist
urethral
▁secretory
▁ALT
asal
▁contribut
▁thrombo
tality
▁polymorph
▁meaningful
▁16
itively
▁diminished
hap
▁biopsies
▁20%
▁rehabilitation
▁manufacturers
▁wee
▁stren
▁microscopy
▁fibroblasts
90
▁syndrome
omes
▁cholest
▁sten
isqu
▁accumulation
▁surgeon
▁episodic
erad
▁causative
81
ustained
▁calcified
▁vagin
▁FSH
sis
onary
▁shif
sy
▁CRP
▁routinely
▁35
▁antagonist
lys
arate
▁10(
▁insurance
▁asthma
▁FS
trimental
pir
▁stimulated
▁Bone
▁MRC
▁0.001).
▁unin
ervative
fected
▁suppression
teroid
▁HL
▁causal
▁GABA
PAP
▁invasive
▁cadaver
▁affecting
▁uncovered
▁physi
▁sensitivity
TN
▁procedural
▁PCR
▁attemp
▁lymphadenectomy
otropic
▁evac
▁edema
▁indicators
▁LD
▁suspicion
entan
▁screw
▁inducer
ceptibility
▁glands
▁accurately
▁32
▁examin
FU
▁empirically
▁contamin
▁Tests
▁lact
▁suture
▁cortex
▁congen
uin
4-
▁evoked
▁annulus
▁physically
▁exo
▁alcohol
estive
▁conclusions
▁hypog
▁surveys
▁40%
▁implications
atheter
▁pharmacy
EGF
▁tissue
▁symptoms
BG
▁aspec
▁nurse
▁severity
▁insufficiency
ochlear
▁theore
▁aerob
▁carcin
▁seropositivity
▁genes
▁diagnostic
gth
alp
▁PF
roin
▁decades
▁gonad
rehen
,000
▁unilateral
5.
erper
▁paradigm
▁100%
▁spon
▁progressive
▁alveolar
reatine
lusion
▁perone
▁organisms
lasting
lep
▁ward
▁epid
▁satis
▁needle
▁indeterminate
▁inhibit
icine
▁RBC
▁consensus
▁adenosine
▁sulfate
▁volumetric
▁AI
adrenergic
▁neonatal
▁adhesion
▁intestinal
duc
veolar
terol
-9
▁psychotic
-8
▁chest
▁overweight
ivation
▁pathology
▁isch
ucle
▁stom
sized
▁restorative
▁valve
▁initiating
▁insertion
▁molecule
▁seb
▁DN
▁exposure
▁phosphatid
▁AGE
▁colonoscopy
▁Dop
piratory
imental
otomy
▁deficiencies
▁+/-
wk
alsy
TK
▁cutaneous
ohyd
ituitary
▁deple
imens
▁thir
onit
▁lumb
hicle
▁receptor
▁unco
▁chemotactic
▁instr
▁unexplained
iotensin
▁chor
DH
▁seventh
▁adequate
-1,
sus
▁molar
ometrial
atine
plasia
isture
▁reflux
sych
▁utero
▁anticoagulation
▁tympan
▁ablation
▁nutr
▁morphology
▁satur
▁cancell
Ga
terminal
rates
▁tibial
▁GFR
▁awa
▁AE
▁extracts
atectomy
▁ventilatory
urther
moid
▁perc
▁saline
▁RB
ithm
vate
reased
▁ischemic
▁antigens
▁ossification
▁granul
▁prol
heric
adherent
▁subunit
▁homogeneous
uble
▁characteris
▁investigations
▁reactive
ece
▁endemic
▁donor
tach
▁sut
tif
▁venous
ffs
▁postnatal
ochondral
▁apex
3%
▁promo
▁Compared
27
ovascular
30
▁undergone
iant
▁neph
olec
▁vascular
▁increasingly
NM
ducts
▁multic
▁Hz
▁intense
▁ultrason
ulcer
osyn
▁gangrene
▁transi
▁99
▁latent
▁vesicles
ulfonyl
▁recur
▁hepatic
▁residue
▁suggestive
▁Sout
▁contributes
sul
chym
iosis
stress
▁rhe
onography
▁lithotrip
▁compounds
emic
▁Clin
omedullary
▁ongoing
▁cAMP
▁fibers
▁anxiety
▁pter
▁venti
amic
▁collagen
▁nerves
treated
opic
▁neutroph
▁stimuli
pation
▁respiratory
veness
yel
IU
-0
siological
iciency
ivocal
▁socio
▁pate
mitted
ograms
▁versa
ially
▁IGF
▁Kup
▁abilities
ogenous
▁NH
-1
▁micrograms
▁PG
▁etiology
▁depression
▁dors
tam
injured
PB
▁pressures
▁HIV
▁lobe
▁oral
▁tes
▁correlations
▁interpersonal
▁tertiary
▁practically
owever
▁ambulatory
▁eluc
▁anticipated
▁raises
▁unchanged
ophren
▁Findings
▁Intra
▁Contr
▁fulf
arean
▁irrit
▁chec
%),
▁fibres
▁metabolic
▁diabetes
ocyt
▁questionnai
▁newborns
ameters
Ly
▁differentiated
▁undertaken
▁underwent
acchar
▁suspicious
▁Increas
inemia
pinephrine
▁thromb
hern
▁Effective
2.
rection
▁heal
osyl
▁EMS
▁debr
▁agonist
▁pyr
Ra
▁Hg
genes
erance
grees
▁7.
osocial
▁suicide
▁Steady
quine
▁mitochondria
▁diagnose
▁locus
oratory
▁ruptured
▁labeling
▁dysfunction
▁barrier
▁disparate
amily
▁scin
▁endoscopic
▁flexion
▁mediation
▁complications
anol
phth
▁palsy
ospor
othelial
▁PAS
ithiasis
▁[3
employ
▁barriers
40
▁(0.
hemo
▁rati
▁nodules
ellar
BM
▁racial
▁aspiration
estis
▁pyl
▁trials
46
▁microm
itally
▁spikes
▁haemorrhage
▁microv
▁inflammation
atonin
▁relapse
▁cataly
▁MHC
amn
trol
▁FD
atched
▁spontaneous
ileptic
birth
iminary
ncy
▁50%
▁trauma
▁pT
▁coronary
resistant
ardless
▁anat
▁Immun
▁immunos
▁pathway
urally
ampl
wenty
▁obese
econd
▁anastomotic
▁cryst
▁unaware
ococcal
▁ageing
▁ae
▁resear
coh
▁hern
▁resistant
essment
tingu
▁enhancing
▁mamm
▁speculated
1-2
▁bloc
▁vomiting
undibular
▁phosphorylation
▁precur
▁infiltration
avage
oradi
▁secretion
▁LOS
tured
roximately
▁potency
▁evaluations
fec
versity
odial
▁fibrob
▁ancestor
tensin
▁deem
▁facilitated
▁dete
▁hemat
▁synthesis
lesion
▁abuse
▁Roux
▁tissues
▁postoperative
▁5.
▁variability
▁inadequ
▁clinical
oag
▁reactivity
ynaptic
▁physiological
▁lipoprotein
▁undes
▁cytotox
-6)
▁uncom
responding
acental
▁hippocamp
tory
▁neutrophils
▁PAN
threatening
trast
affected
▁Large
▁engraftment
▁ischem
▁reproduc
urc
MRI
RF
tradiol
▁Tes
▁specimens
sies
8,
sia
seud
▁eosinophilic
rof
1-3
ipid
17
leu
▁endoscop
▁fluoroquin
▁treatments
▁pulmon
▁olig
▁presumably
▁elucidate
▁needles
▁affinity
▁embryo
▁mum
▁zinc
▁elimination
▁cyto
ATP
▁plates
▁deemed
▁cereb
▁necro
▁Twenty
▁elevated
3,
eptin
assium
▁intercostal
▁worsened
▁pituitary
taining
▁approx
▁iatrogenic
▁79%
truc
▁resis
▁ET
▁sensi
▁malign
retro
▁vivo
urys
roup
▁corrections
onyl
▁substances
▁cholestasis
▁urinary
gland
helial
▁guinea
▁noncom
▁Ket
effec
▁80
▁catheters
ensitive
▁sore
▁(6
▁financ
ulph
▁displ
▁analyzed
▁suppor
▁substantially
▁axillary
radi
▁substance
▁hemis
adren
tact
anyl
▁discrimin
▁influenz
▁anatomic
2%)
ardia
▁4.
tin
▁Operative
▁reproduction
28
▁mg
idine
▁discom
▁lacking
▁Acute
▁ventricular
▁achie
▁Patients
▁sensorineural
▁10.
enhanced
▁aorta
▁(10
▁perip
▁contraction
▁resection
▁adolescent
▁micros
itr
▁erroneous
▁vulnerable
-10
▁Analy
▁emerg
eight
▁prevented
▁ETS
▁effec
idney
▁uncomplicated
hered
rolog
olesterol
▁advancement
▁caro
▁Pregn
▁antegrade
▁retin
ilibr
whe
▁amyloid
▁unemploy
VL
▁bipolar
▁FH
▁ester
▁ovarian
▁excit
▁opi
▁heterogeneous
▁periodon
sive
phosphonate
▁axons
aired
▁pregnancy
▁regulation
responder
neumon
▁25
▁epithelial
▁GH
ventional
▁auditory
astolic
▁IBD
acet
hyp
ipit
20
▁affec
oxia
▁tooth
▁bladder
▁cDNA
▁ure
induced
▁Biochemical
▁algor
▁correlated
▁collateral
▁conduc
tate
▁palpation
▁usefulness
▁erythrocy
uvant
▁HCM
▁heroin
ervations
▁vasomotor
▁APC
fine
diagn
▁pathologists
▁myel
▁distal
▁thresholds
▁posi
▁burden
rosine
▁Intravenous
esity
▁AVR
▁perox
▁emotional
-4
irrh
▁hypoglycaemia
▁clinician
▁cerv
▁periodontal
▁mechanisms
onstric
▁cytochrome
▁comprehensive
▁musc
VT
dominal
mittent
rested
APC
▁molec
receptor
lec
▁implant
▁30
▁carbohyd
▁polymer
KD
▁incidence
▁coeliac
79
identical
▁extracellular
2+]
▁eyel
oleic
ceptual
rease
▁plasmid
▁Phe
ACS
▁thickness
▁unevent
▁encouraged
▁sciatic
tric
▁8-
▁ventil
▁connective
entary
▁hospitalized
▁substitu
▁cardiovascular
sities
▁histopathology
▁opportunities
minis
▁musculoskeletal
▁Paget
▁consis
phos
▁nurses
▁silicone
▁discrimination
▁adults
▁perme
▁objec
▁dendri
▁respondents
▁amput
rophob
▁resonance
▁surgery
▁potentials
▁traumatic
▁Removal
▁stellate
▁precursor
tomy
▁0.0
abies
ficial
▁adjunct
▁competi
▁reas
▁bip
Ki
facial
▁conclu
▁expenditures
tral
minal
▁meals
▁utilisation
▁phospholip
▁reactivation
▁gradi
ensory
uated
▁chains
herence
▁LVH
▁healthy
▁contralateral
▁loosening
▁4,
lastic
▁docum
oracic
rhy
▁mortality
▁OSA
▁macropha
ylcholine
▁lobectomy
▁substrate
▁clinicians
▁deterior
▁colloid
▁cyclase
4+
▁reflecting
BK
▁preparation
ensi
▁socioeconomic
erals
▁hernia
▁interp
ocardial
stro
lobin
ufficient
▁tumour
acts
▁stratification
▁surrogate
olenic
▁assessments
▁neoplas
nutrition
yro
▁toxicity
▁vein
▁directional
▁72
oplastic
▁protoc
▁confron
hort
▁specialty
▁phosphatase
▁43
otassium
▁malignant
ervical
▁inflammatory
▁(1
nai
▁adhe
▁tumor
▁infar
▁rele
▁lax
▁LC
▁torsion
ogra
▁compressed
sial
▁enzymes
ositol
fos
▁prostatectomy
▁epidemic
ections
▁progest
▁unselected
ocytes
▁sampl
▁esophag
▁37
▁radiological
▁fever
▁(3)
▁polyethylene
▁murine
▁gynec
▁electr
▁degrad
▁150
-14
diol
▁oes
▁quantitative
▁(4
acement
▁60
▁(19
oscop
▁eryth
▁gradients
▁morbidity
▁epithelium
▁progres
▁construc
ognition
▁intramedullary
nowled
▁steroid
▁immature
▁specificity
▁investigated
stim
pite
tabl
▁childhood
atients
rotein
▁Increased
▁2.5
ifol
▁bacterial
▁immigrants
▁cere
▁ultrasound
▁everyday
▁glu
▁discusses
esic
▁problematic
▁adenocarcinoma
▁19
▁lis
▁distinguishing
ronch
44
genic
helium
▁altered
oglobulin
25
bladder
▁Mucosal
clusive
hemical
▁0.2
▁participate
▁5'-
gative
inol
orpor
▁interventions
▁progression
atient
▁excre
▁discern
ineal
▁197
▁blockade
▁carb
ffec
PV
▁physiology
▁renin
LU
▁positively
siveness
▁pmol
ught
graft
▁pig
▁inhib
▁antiser
▁RM
▁chond
thyl
etus
▁recombin
ials
▁Chemical
▁muscles
▁prognostic
ilateral
▁impairment
immunization
uran
▁implantable
▁immun
4)
trop
▁bronchial
▁1.5
▁sinus
▁bronchi
▁ovari
▁carbohydrates
▁overestimated
▁follic
otent
▁activated
entif
luc
▁endoc
▁laparotomy
▁psychosocial
rous
ceptions
▁EGF
▁symptom
rated
▁peptic
RP
ostat
▁appropriately
urin
▁decreas
▁TNF
unctional
phosphate
▁predominantly
containing
crib
tions
rae
▁MBC
gene
▁unil
orrh
ostomy
ritis
▁cuff
▁susceptibility
▁modulate
orax
▁100
▁instability
▁tear
▁nucleotide
▁membran
▁Educ
▁normalized
▁pharmacists
▁80-
▁chlor
▁withdrawn
▁metastatic
ectable
▁broader
▁anesthe
▁tomography
astric
10
▁GTP
.0
gm
natal
geal
ffinity
▁tracing
olol
▁immunological
oxy
erts
▁HA
▁allergic
▁modestly
▁neurological
monstr
ofol
▁intrauterine
▁antic
rants
▁calcification
opha
▁chemo
joy
▁involvement
▁MEP
▁Routine
▁BMI
▁microc
terone
risk
atid
▁IVF
▁pathways
▁attendance
ayed
▁selec
atical
legia
overall
iol
aning
▁infected
▁parotid
▁conclusive
▁mutant
aventricular
▁quantit
▁biochemistry
▁prenatal
▁influences
▁unprotected
▁decisions
CBF
▁linkages
▁disruption
▁rated
ipient
▁uncommon
▁adjustment
ourable
▁1.6%
▁2-
▁paraventricular
▁experi
▁beverages
▁advised
▁preparations
tinu
iferol
▁utilization
▁cyt
orable
▁intravenous
fts
▁endothelin
▁heparinized
▁202
▁demands
▁stab
▁preventive
odies
entral
tase
▁sedation
lobulin
2)
▁continence
▁physiologic
▁PGE
▁Randomized
hyd
3-
FN
▁surgeons
▁strain
onomic
▁abl
▁atm
▁therapy
5,
ollicular
▁adop
▁enl
osity
▁deserves
were
acin
dition
▁RP
valence
▁depar
▁repl
▁decreased
▁extensor
mTc
▁indicative
▁advisable
▁ulcer
▁uremia
▁resec
▁genotype
tially
omal
▁presenting
▁endos
chers
▁Comparison
▁thromboembolic
▁alteration
omies
▁HCC
adiol
▁congenitally
guided
mixed
▁schiz
olism
ropriate
▁Cushing
▁migraine
dimer
▁deformity
▁ESR
▁vagal
▁reduc
▁targe
chond
▁birthweight
aemia
▁90%
▁soybean
▁gallstones
▁misleading
▁ACE
HG
▁iso
onance
ygen
▁pharmac
▁aging
▁MCP
▁promoting
▁turnover
▁metabolites
▁Chronic
▁latency
▁1.7
▁comparable
▁occurring
increased
idis
▁UTI
▁Delayed
tained
ositive
elvic
▁intra
▁sustain
heal
▁ana
▁struc
▁prospectively
copic
▁monke
▁thickening
▁prednisone
VH
anic
enin
▁myocardial
97
▁undergo
▁acetabular
▁injections
▁superficial
▁illness
▁AMI
▁GER
▁actin
▁glomerular
ochrome
▁coronal
▁PCT
▁viral
▁analyses
▁laparo
itro
▁telephone
▁IFN
▁THA
orepinephrine
▁individualized
▁SNP
▁syndromes
▁scanning
▁IIb
▁synthetic
educ
jejun
7.
▁hypo
ohy
13
▁pregnancies
▁gallbladder
dents
▁implicated
echanical
1%
Fs
▁surgical
▁Cyt
▁hemodynamics
5).
weighted
▁Surgical
▁conservative
acclim
ectom
encl
gulation
ighted
sions
sequent
ditional
▁reproducibility
erating
HB
luores
▁irradi
▁septum
▁spati
ogenic
▁saliv
1)
▁diagnosed
utaneous
2/
trogen
ompan
▁adolescents
▁preferably
▁differentiation
▁cholecystectomy
▁overdose
▁carcinoma
drome
▁kinase
▁prophylactic
ograp
opl
▁heterogene
▁eosinophil
orin
▁retur
plantation
▁polymerase
.2%)
ranolol
▁disagreement
▁enti
85
▁depressive
▁waist
▁biochemical
tle
▁osteoporosis
▁suscepti
▁implic
ocarcinoma
▁DST
elong
▁Tran
▁overlaps
(5
▁diabetic
▁4
▁atten
▁adhere
▁adequately
▁.0
▁kerat
▁0.8
▁discharge
▁cytotoxic
gmental
▁unres
▁rationale
▁confound
▁22
▁cardiac
▁sensory
▁progestin
▁NT
tensive
▁30%
▁inspection
▁reticul
edle
▁multivariate
▁behavi
8.
▁placebo
tagland
▁palp
taken
▁hCG
▁laparoscopy
▁42
▁LS
▁23
▁reagents
▁substrates
▁metastases
▁challenges
▁calcium
▁follicular
▁Prospective
▁morphologic
▁Blockade
▁thrombolysis
▁poorly
▁contributory
▁COS
▁describ
herent
▁cytos
▁endarterectomy
▁fold
▁amines
mur
6%
WL
▁31-
ureus
ritish
retion
▁postmenopausal
▁PI
▁births
▁disks
▁femoral
▁Plas
▁epit
▁sph
▁deprivation
-20
▁TAA
▁outpatient
▁deficit
erop
▁renal
▁toxin
kinin
▁transfusion
▁exercised
▁DS
phyl
▁pathologically
adily
▁Samples
ocaine
▁hypoxic
▁prospective
▁amo
▁consequent
▁mediated
▁eliciting
adequ
versely
prising
▁inhibitor
▁atropine
▁definitive
▁medial
▁prostatic
▁incubated
▁hep
Phe
▁bile
▁practitioners
▁neuro
▁gly
▁pigs
▁ASA
▁CPAP
▁hemodialysis
.5%
lateral
▁phe
ologists
ascular
▁evacuation
▁infection
▁adrenal
▁allevi
totic
iotic
opia
▁membranes
▁cesarean
▁SGA
49
▁intrinsic
lysis
pS
▁pathogen
osynthe
▁nulliparous
▁tyrosine
▁pneumonia
▁hepatocytes
astatic
▁menopausal
▁0.000
▁UT
▁encourage
▁pyram
▁tolerated
▁consol
▁antagon
udin
▁exchan
▁discon
▁0-1
▁incubation
ologically
▁tympanic
▁correcting
▁antagonists
▁Patient
gents
respon
lapping
derived
▁inoc
gans
▁synovial
▁pneum
▁plaque
sue
▁tol
urement
eptides
▁staging
arcin
▁myo
urse
centr
rotid
▁inversely
zard
▁histamine
▁pleomorphic
▁1
▁alterations
IIIa
▁Whereas
0%,
vated
gesia
▁Alternative
ureth
▁21-
adder
▁lactate
Tc
▁complemented
▁CMV
erus
▁subf
▁surveillance
ercise
▁efficacy
▁naltrexone
▁testosterone
ondral
7%
▁Doppler
▁PD
▁LPS
▁amyl
▁practiced
▁AGA
ococci
▁pelvis
▁designing
▁avascular
arent
▁detectable
▁complication
seal
▁molecular
▁eating
SPECT
erin
▁hygiene
odic
▁allerg
▁polypeptide
placement
▁chori
▁antibody
▁umb
▁TA
▁Escherichia
▁50
▁somatic
erine
▁muc
32
tyl
▁reconstruction
▁14
assi
▁pancreatitis
▁tow
▁merit
▁Dil
▁endothelial
ylated
▁adhesive
romes
▁19%
▁500
iferation
▁contaminated
▁labeled
noise
lact
itone
accharide
▁gad
arb
mol
▁antec
▁24
▁plantar
▁familial
▁endometrial
▁peripher
hers
▁remission
aneously
▁Adverse
okine
▁therapies
▁validated
▁conceptual
▁tolerance
HM
▁4-
▁2)
▁HS
regn
▁promising
▁eliminated
▁rotational
▁microbiological
tering
▁strom
▁statistically
▁prophyl
▁gynecological
stem
▁reveal
▁compound
▁decreases
▁infusion
▁abnormal
▁Severe
▁Streptococcus
▁genic
▁acids
▁exclusion
athe
.8%
▁nons
otyp
invasive
▁leukemia
6-
verages
▁lithotripsy
cine
▁cue
▁Vac
▁(198
▁vag
▁pneumon
fusion
12
formin
▁rectal
▁indications
alian
▁interleukin
lore
eptide
Ev
▁propensity
rectal
▁amin
3)
▁inhibitory
▁anticoag
erent
amide
asting
.8
▁(54
▁reagent
▁oxid
ecre
▁hams
▁phy
▁insult
bility
▁heavier
▁reflec
glumine
yroid
unar
orac
tectable
8%
ergic
▁laparoscopic
▁fentanyl
oride
▁electrical
mL
ocked
opres
▁improves
▁attrib
cysteine
leukin
GF
phosph
▁extrac
enh
▁acad
▁temporarily
glutin
▁kDa
▁technically
▁rigor
▁stimulus
▁ery
▁sperm
▁intermittent
otype
odal
▁acyclovir
▁slowed
▁localized
▁immune
▁silic
▁radiography
▁sple
esting
▁WHO
▁examined
▁smoking
▁improving
▁proteins
▁circumference
▁cerebral
▁vitro
endri
.5
▁evid
▁filtration
▁airway
▁synthe
▁TD
LB
▁providers
▁canc
▁palli
planted
ctive
▁dyn
dial
▁poin
▁cirrhotic
▁drain
▁alcoh
▁amputation
▁cathe
▁subsp
▁failures
▁thyroid
▁sequelae
iliac
▁cancellous
▁mature
▁sebaceous
▁appendic
ectomy
▁concom
ancies
▁26
rine
tors
▁ket
▁PRP
jected
▁acupuncture
▁circumferential
iatic
▁nig
sor
▁Addition
▁surrog
▁nonadherent
4%
coun
▁delivering
▁bronch
▁0.4
▁streptococcal
uron
▁probe
▁predominant
▁Histologic
18
▁obesity
▁constr
▁cancers
▁dietary
omical
60
rele
gain
▁amyloidosis
▁disorders
31
▁PET
▁regar
ylase
flux
tus
2%
immune
▁acqui
▁insulin
operatively
▁overlapping
▁3.
▁traum
▁endometr
jec
xiety
ocytic
clinical
▁nucleotides
▁sev
▁exce
▁36
consuming
ostal
▁suppres
▁hemisphere
.3
cyst
enzymatic
▁PP
▁radiograph
▁scl
▁supplement
▁adenomas
▁multicenter
rone
▁DG
▁professionals
▁atheros
faction
anding
▁decline
ensit
▁preclude
▁underst
▁ultras
▁lamin
▁elevation
rins
▁errone
35
▁risks
▁comparative
▁intraoperative
000
▁hospitalization
▁pelvic
▁Cytoplasmic
▁electroph
▁grading
▁reliably
▁atrophy
▁protective
▁fibrin
osterone
▁vaginal
▁1.
atase
▁elic
oside
▁continuing
▁CM
▁confined
namic
▁minimally
iological
▁vaccination
actin
pT
mentation
▁PEEP
▁HPV
▁exis
osal
▁prostagland
stolic
▁hazard
▁Preoperative
CGP
ameth
▁influenza
oric
generation
▁homogene
▁impair
▁untreated
▁unex
▁lipid
urred
▁leukocyte
▁packing
▁treating
genesis
▁cyst
▁GVHD
glut
entists
ejun
lected
11
▁prostate
ocial
functional
▁oils
▁TBI
▁bab
▁favorable
▁diastolic
roxim
▁clipping
odil
▁ascertain
▁patellar
overed
▁ey
▁reag
▁preconditioning
▁9
ognitive
genital
▁glut
▁injec
▁Eff
onor
nthe
▁seizures
▁induc
tect
▁osteoporotic
phosphon
▁diagnos
uation
▁elec
▁RS
▁neuronal
-6
▁enucleation
▁epileptic
asive
▁ventric
▁parame
ilic
▁DSM
▁postoperatively
▁Overall
osts
NH
tics
sts
▁adap
▁discriminative
▁Systolic
▁ganglion
▁stenosis
▁considerably
▁tox
▁differentiate
otides
▁practition
ostic
▁39
▁compli
tig
▁intervertebral
inic
▁structural
▁mitochondr
▁abnormality
▁incorporation
luent
▁diabe
▁6.
▁cigarettes
▁undoubtedly
▁anastom
▁mice
▁haem
▁disability
▁7
▁indi
▁predicting
▁arteries
ximum
▁enteral
▁substituted
▁0.6
▁PT
▁mitochondrial
▁gland
▁neutrophil
▁hemodynamic
53
▁guidelines
BP
astom
▁hormones
henyl
arental
itamin
▁nursing
▁achievement
▁nuclei
usp
▁IHD
▁exposures
resses
▁glycaemic
trexone
opathological
▁adjuvant
orative
▁unsuccessful
kers
ystolic
▁Muc
▁cephal
▁Clinical
▁subun
▁shor
kage
mg
▁ECG
ertion
▁rabbits
years
otherapy
▁differing
neal
▁Medicaid
▁examination
▁audit
ulatory
▁outs
▁hypertensive
▁athle
.4
▁monit
▁antib
▁oxidation
occus
▁subjected
mediately
8)
iable
FV
sess
▁rheumatoid
aline
▁bilateral
rosis
▁cultured
▁irr
ffer
▁Additional
▁meth
▁graft
orphic
▁RT
▁carriers
0.5
opulation
▁adaptive
▁resour
▁solely
▁perfor
▁undergoing
▁3,
ociation
▁catechol
▁predicts
otactic
▁angi
▁12
▁develops
▁modulates
▁diagnosis
▁mM
▁Magnetic
▁illustrates
▁immig
▁metoclopramide
▁sclerosis
plic
▁leuk
▁Phen
▁diversity
versus
▁moles
▁coincidence
▁Larger
▁minority
▁managing
▁clinic
elec
69
▁unaffected
▁measurable
▁safer
▁200
CMV
▁remo
FG
▁respon
tized
ministration
▁muscle
▁macrophage
carcin
▁vitamins
▁cleavage
reated
GD
matched
▁SG
istically
▁unde
▁immunoglobulin
attern
lix
occi
▁exhibited
tively
▁apoptotic
otomies
▁VA
▁hyperg
▁spinal
9-
▁tric
▁concordance
▁validity
▁chan
athy
▁endpoints
-100
(+)-
▁3)
tries
▁0.1
ocusing
▁chromat
uscular
tub
arers
ogenesis
▁PSA
oyl
▁irradiation
▁insertions
ophil
oprote
Ti
physiologic
▁horm
▁hepar
48
▁prostaglandin
▁pall
▁profound
▁pharm
23
▁lesions
▁sympathetic
▁modif
▁resting
DG
▁depic
▁HMO
eration
▁poisoning
▁discordant
▁TB
oretical
hering
▁surgically
nosis
▁doses
mide
▁seiz
▁plac
▁lymphocytes
▁ultim
RD
▁mL
▁10-
went
▁HCMV
ostatin
gments
ivary
positive
hydro
▁repor
▁gluc
▁ech
▁babies
▁retention
▁examinations
▁tet
▁inadequate
▁therapeutic
▁adjusted
linolenic
opi
lymph
▁vulnerability
▁resul
▁aimed
oxin
▁NN
rophyl
▁oxygenation
ximal
oplasmic
▁prolif
itus
▁distinctly
rapid
▁regimens
thal
mig
▁FV
▁perinatal
aid
▁pancreatic
umbar
angl
▁endoscopy
tection
▁proposes
▁coexistence
▁suppressing
▁artery
oids
▁Medicare
▁hypothyroidism
▁gains
obal
▁habits
▁leu
lycer
▁focusing
▁molecules
▁hypothe
▁undo
erative
▁HN
crip
▁percutaneous
▁affects
CSF
▁phosphor
▁40
comitant
▁kine
clim
▁chole
▁differe
▁excluded
▁cytoplasmic
▁mmHg
lux
farct
▁panc
opsy
▁compartment
▁precedes
▁appropriateness
16
ypical
▁alve
▁metformin
▁cholesterol
▁nonc
▁neurolog
▁hormone
ociated
▁7%
▁counseling
▁benz
▁nasal
▁8.
▁carc
▁avoiding
renal
▁125
protective
▁melanoma
illus
▁moderate
▁(5
fication
▁lumbar
▁aden
ceptive
ithin
▁Plasma
▁physician
rents
oskeletal
▁anastomosis
▁lateral
sensitive
▁indetermin
▁buccal
▁diffic
▁6-
▁poten
▁Lys
▁correlates
▁tryp
2+
oscopic
anin
ipher
▁Slow
75
▁18
ths
uccessful
▁MI
19
odialysis
▁neoplasm
▁wrist
▁Tum
▁shortened
▁LH
▁preferen
▁unrelated
ylation
▁rCBF
▁microM
▁gallst
oping
▁elu
▁tiss
ication
▁17
▁interv
antial
associated
▁intake
▁subgroups
bacco
▁Considering
▁21
▁heparin
tically
▁rabbit
TNF
▁cortic
9)
▁0.01)
▁inev
▁pS
▁divertic
▁sarc
ration
erum
▁thyroidectomy
▁11
▁exacerb
▁VC
▁peris
gely
▁disrupt
▁atherosclerosis
adication
▁prostates
▁HLA
▁limb
RB
▁mammography
opamine
▁abolished
andard
▁occl
▁HG
▁segmental
▁DFS
▁intrarenal
▁Mg
▁agonists
▁institutional
▁homogeneity
MIC
alc
ocular
ulin
otide
activated
lasts
itary
▁fetus
▁heterogeneity
WB
▁unexpl
phic
▁surge
▁assays
▁arter
▁preferable
uality
▁vaccin
▁immunode
▁attenu
transferase
vely
▁85%
▁Taken
2,
protein
▁employing
▁elicited
▁cohort
▁diluted
clin
▁hormonal
▁porcine
▁ketamine
▁38
tiz
▁HU
glyc
▁recipient
▁morbid
orest
▁derange
▁overexpression
ochondr
6)
▁premature
vail
lycerol
▁swelling
urgical
▁encour
▁myocardi
▁eyelid
▁psychiatric
▁counteract
ressing
▁coel
▁MH
ucleation
▁supple
piration
▁scre
▁(100
▁LDL
ointing
orrhagic
▁paraplegia
tial
▁Bec
▁desirable
▁hybrid
▁replication
4.
▁Improved
MH
erox
icide
▁UL
tice
▁reveals
thma
▁knee
▁31
▁cure
▁fati
▁synthesized
▁rese
▁Engl
▁rash
vul
plo
▁macrophages
▁assay
▁70
▁tamoxifen
menopausal
ateral
▁neurons
▁retic
▁physici
oresis
▁cortical
▁injur
ellular
oscopy
Ts
▁abnormalities
▁reperfusion
▁abolishes
▁sustained
▁mucosal
oung
▁ethanol
▁Neurop
▁saturated
Hu
eak
▁0
7)
otoxin
▁inactivation
▁OT
▁pregn
▁sphincter
▁acetab
ingle
▁paras
enol
reement
▁scoliosis
5-
bac
▁complic
itures
acial
IgM
▁adhering
imination
▁biom
ocytosis
enic
▁hydroly
▁48
▁pylori
▁-0.5
▁intensive
▁atr
▁recurrent
1).
▁carcinogens
▁occlusal
cele
▁mammalian
ocar
▁estimating
▁lymph
▁techniqu
utroph
▁Impro
thle
▁predictor
▁acute
▁tobacco
▁(2)
treatment
▁anemia
▁atres
teric
▁Contrary
thre
rophy
▁contrac
80
istal
▁juvenile
ialysis
▁behaviors
urine
▁viewing
implantation
▁plas
▁differentially
▁purified
▁deterioration
▁possi
eric
▁subtraction
asses
erate
▁consultations
▁clon
immun
▁concomitant
▁epi
5%
▁adenoma
tation
amino
▁throm
▁toxic
itness
▁ile
▁esophagitis
▁baseline
tive
istrib
▁sour
mong
21
▁inver
▁pylorus
▁inserts
▁ocul
ullary
ternational
▁endogenous
quid
arous
incidence
0%)
olarization
-450
▁awareness
ocardi
loid
▁6
titu
▁correspon
▁32%
Tn
▁(7
▁normo
idated
▁oxy
idase
zyme
ocul
▁fatty
▁synerg
▁quanti
tead
▁feasibility
▁thigh
xual
▁schizophrenia
▁biological
▁cochlear
▁cortisol
▁ACL
ortic
▁consistently
RM
▁femur
▁caregi
jun
opramide
feren
▁mAb
6.
osomal
▁bowel
▁intrac
hydrox
ovine
tivity
▁28
▁bacteria
0,
▁uninjured
▁supplementation
▁appreciably
▁Swed
▁19-9
carb
iatric
opathy
▁disappearance
▁AO
▁favourable
▁superv
regulation
▁angiography
stant
WBC
▁connec
▁79
▁lymphocyte
apeu
tro
▁sequel
▁dehyd
fron
▁dex
▁nmol
▁echocardi
▁testicular
▁microgram
▁excision
lated
4).
lead
aceous
▁enzym
oxidation
spective
▁enlarged
▁widespread
▁Cox
▁selectively
▁irradiated
▁identif
▁aortic
athyroid
▁dilated
▁dele
▁GM
licular
▁supervision
▁preterm
▁Older
▁parental
tiv
▁Inclusion
▁0.7
▁corne
emory
▁hazards
▁severely
▁disappointing
▁transplantation
ichia
▁recombinant
▁iliac
▁Poor
▁tach
MV
▁BS
▁morb
▁33
▁manifestations
oxygen
▁GA
▁lys
stimulated
keletal
▁preservation
▁rats
▁acquire
▁pregnant
▁hypertrophied
idation
▁adverse
▁mucos
▁Vaccin
▁chloroquine
▁reper
perfusion
ATPase
▁inhibin
▁cyclic
▁migrated
▁pulp
uncture
lecting
trition
▁GI
otom
▁abortion
atories
▁timely
-9,
vaginal
oxic
▁monoclonal
▁uter
▁PH
1,
▁sequentially
ithi
▁distin
opes
▁insufficient
0.
armac
▁clinically
aemic
▁muscul
▁adoles
▁grafts
kade
▁laboratories
onate
▁exten
itant
athetic
▁FT
Cu
▁referrals
▁10%
derly
▁immunore
▁BV
nec
illance
▁mandibular
▁DF
urgery
ectin
tical
Ka
▁NPC
▁adequ
tur
▁metastasis
1.
▁discer
▁bedside
SCC
acetylcysteine
▁glyc
oglobin
▁intracellular
▁extre
▁inhibited
▁discomfort
▁polyp
amus
▁MG
▁establ
elan
▁regis
▁soluble
tent
▁MRI
▁randomized
ycin
hea
oidal
oplasm
▁microb
epit
omotor
sian
BV
▁aureus
▁herpes
▁Improvement
bral
itol
anese
acil
▁drugs
truction
▁mellitus
odynamic
▁metastas
onuclear
idement
▁phagocytic
1-
▁maternal
▁(2
▁dislocation
eal
ochemical
icin
65
▁epinephrine
plication
tisol
▁excimer
▁DT
▁ischemia
amet
▁peptides
▁predic
ronchial
glum
geons
atest
▁phagocy
▁stained
▁fluor
▁expertise
▁tension
▁psychotropic
plied
Hb
▁radiographic
▁GBS
▁coli
▁intram
▁HC
otypes
▁Concomitant
▁moderately
▁reasonably
▁injected
▁investigating
▁histological
▁metabolism
▁clus
▁ligand
bumin
▁histologic
hep
▁sodium
▁medication
▁debridement
ariate
▁neon
erable
uded
▁elderly
▁diabet
dose
ineural
▁mec
-2
▁ratios
▁tumors
▁cues
▁enhancement
▁assessment
oagulation
fat
▁somat
transplantation
acting
▁questionnaires
▁cava
▁leakage
amine
ulitis
ontal
▁compartments
lym
▁aort
ching
▁discontinued
▁resusc
versal
▁microcirc
▁adjustments
ulae
▁endarte
tum
▁congenital
▁GF
▁LN
opam
ffin
▁judged
elfare
▁contral
▁cultures
isol
tib
▁toge
responders
▁mumol
▁trough
▁dorsal
ectomies
▁complexes
▁prophylaxis
hospital
acrylamide
▁phosphate
▁trophob
onatal
▁highl
hemia
▁beha
▁tidal
▁fetal
▁healing
▁resuscitation
▁EO
▁hypertension
▁permeability
▁functioning
▁inapp
▁aggravation
iplin
▁linole
▁diame
▁prescrib
▁CABG
▁0.001)
▁immunomod
▁fluorescence
ivoc
▁consolidation
incip
▁integrating
▁multiv
▁ADH
▁outcomes
▁Significant
ailure
oice
▁recessive
amination
▁expend
▁trend
▁ultrasonography
▁microvascular
▁oxidase
▁nutrition
▁sulfonyl
▁0.00
▁hypot
▁15%
▁followup
▁75
▁sexes
▁stimul
▁peripheral
ensity
venous
▁sulf
ibi
▁gait
▁SB
▁behavioural
▁preoperatively
▁transcription
▁(9
▁hypox
▁phag
▁induce
▁infarction
umulative
oplas
▁regimen
ancre
▁regulatory
▁BP
▁nerve
ithms
▁cardio
▁benign
▁characterize
▁biopsy
▁detachment
rectomy
▁inhibitors
morph
duced
▁perforations
▁stimulation
▁Pregnancy
▁isolates
▁8
▁projec
▁synergistic
34
LF
ixation
mutant
▁dexamethasone
▁preven
▁IH
▁IA
▁intact
▁positioning
aints
scherichia
▁degradation
▁hig
▁subunits
1),
rati
▁parap
▁intragastric
▁HP
▁cate
▁acet
▁characterized
▁attending
14
fentanyl
▁manifestation
uptake
▁provocation
▁imaging
atment
kely
▁mediates
▁vaccines
▁deform
▁tuber
ediatric
▁GV
inated
▁dehydrogenase
▁intrap
▁lesion
OA
▁Kupffer
▁drops
▁preferences
▁intervention
▁GD
rox
olated
▁systolic
▁inpatient
▁catheter
▁somatostatin
▁pathogenesis
Ba
ortal
▁CSA
ervice
▁methyl
▁sequential
▁0.5
▁circumferen
parative
▁glomer
cardi
▁pathologies
▁inflamm
▁concer
▁collec
Ps
▁constitutional
eces
mediated
▁Hb
▁survived
▁urine
ewish
▁hydrolysis
▁deter
▁overlying
ploy
▁limbs
arge
transfer
▁Weight
▁1.6
▁aerobic
lyc
arer
essive
00
▁undetectable
▁dosing
▁facilitate
▁circulation
▁APD
igel
▁fractures
▁emissions
▁inequ
▁11,
▁interc
▁vegetable
▁visually
▁Cycl
104
▁stu
tebral
▁Neither
illic
▁fitness
4,
▁relating
aturated
nRH
▁gluten
▁Serum
▁PE
especially
ococcus
▁Thromb
tox
apse
tration
▁selective
▁beneficial
▁Continu
▁Phy
▁adherence
9,
▁placenta
▁10
▁neurologic
mia
▁ambul
▁diet
usive
hei
▁epiderm
▁PB
▁topographic
22
▁1)
▁NP
▁availability
▁analys
▁detec
odium
▁fulfill
▁LF
▁HM
▁athe
▁CK
▁evolving
▁TK
▁chromatography
resting
▁Percutaneous
▁compliance
idne
ineph
▁ions
▁(8
▁PV
-1.
▁prescribing
▁PCO
▁assessed
▁Atropine
regulated
▁likelihood
▁viable
-2-
monary
▁spi
+)-
▁electrophoresis
pecific
urea
▁hypers
▁2.
▁deliveries
idem
BW
▁underlie
Ta
▁cen
vascular
apeutic
▁rigorous
▁cumulative
70
tryp
▁marrow
▁120
TG
cad
▁technologies
▁demonstrates
▁exogenous
▁increas
▁ramus
▁irritation
▁MN
Hg
odynam
▁moisture
▁circulating
▁Trial
▁cardiomy
entical
hesive
▁acco
.2%).
▁gestation
▁metabol
▁tas
tein
▁palliative
omain
▁eradication
otor
▁abdomen
▁systematically
▁intraven
tens
▁specialist
lood
▁Afric
AH
-5
otox
HF
54
▁preliminary
▁depres
assay
▁sugges
ropine
▁pedigree
▁disadvantages
cents
▁restric
▁diseases
▁cerebrovascular
His
▁uneventful
▁29
▁experts
▁oss
▁laser
▁(3
angli
asic
▁peptide
▁margins
▁sliding
unctions
▁HAM
▁contex
▁neurop
▁0.01).
amate
▁20
oplasty
degree
▁cyclo
▁controversial
▁manipulations
▁readings
▁consecu
aryngeal
5)
ubted
ignific
▁hepatitis
▁persis
▁unm
▁colonization
▁lob
Mu
rogen
aced
▁determination
▁callus
▁placent
▁embry
▁absorption
▁practic
▁membrane
▁undetected
▁emergency
nee
▁unc
tension
▁regulate
ropha
▁soy
▁markedly
▁nail
▁SBA
▁hemorrhagic
mented
▁nutritional
erally
▁strategies
▁LT
▁stimulate
▁staining
ellosis
ymp
▁mann
▁smo
aryn
icated
jug
FH
aginal
▁promoter
▁depr
▁transient
▁0.05
▁plur
▁suppressed
▁parag
vant
▁incub
estim
▁spine
▁GE
▁advances
ographically
▁enhance
▁cellular
▁justified
artum
▁pretreatment
▁aspir
▁mild
.7
-1)
▁restor
▁liver
ulates
▁potenti
▁TGF
▁kinetics
loro
eled
▁hypoxia
bly
▁overex
▁relaxation
ults
▁thoracic
▁revealing
agic
▁neo
▁ventilation
▁overe
onol
▁proliferation
▁mineral
oceptor
▁haemorrh
▁cannulae
▁umbilical
▁atrial
▁carotid
erator
CRP
ergy
▁perfusion
effective
Cer
▁empirical
▁biop
onset
uretic
▁seroton
▁decreasing
▁chewing
7,
dle
▁laboratory
▁Vitamin
ocamp
reported
NAP
orectal
▁perception
erican
orbol
ologic
tected
▁27
▁transcrip
▁inclin
hop
▁cardi
helin
▁establishing
▁requi
▁mutations
olip
▁infect
pies
▁clinics
▁AMP
▁scintigraphy
▁cervix
▁prevalences
embr
heum
▁emphasizes
chol
▁pineal
ultural
cold
▁coex
-67
▁anatomical
▁infections
▁vaccine
ioid
▁shorten
▁proce
▁appendicitis
▁NB
▁Comparisons
filtration
▁eosin
▁psychological
benz
▁5-
▁34
Ds
▁Emergency
mental
lyce
loride
▁deaths
omat
phrine
duction
olones
atoid
▁thorac
▁facilit
ginine
▁infec
▁masked
▁ACTH
hig
▁pancre
▁1.0
.6
▁testis
aluation
▁produc
▁tracers
ocyte
▁ethnic
▁3
▁gamma
▁facial
LV
▁pyramidal
▁atmospheric
iron
▁perfused
opausal
▁clones
usal
▁PCP
▁microscop
tance
rogenic
▁resected
vertebral
reness
matic
▁corrective
asone
▁hemorrh
▁Failure
.1
itoneal
▁warrant
▁Alcohol
▁autosomal
▁administered
lowering
▁IgG
omerular
epti
▁15
▁mobility
ergency
▁bacter
romed
▁dose
▁responsiveness
▁Treatments
pH
▁vena
▁physicians
▁opioid
▁(10(
▁bone
▁widening
▁TC
▁mandatory
cepti
▁substanti
occal
▁multim
infected
▁vitamin
olute
tolerated
▁pH
15
▁impaired
▁RH
igaret
▁homologous
▁rhy
▁minerals
2).
omycin
tile
▁HSV
▁intrav
▁warrants
zation
▁rigidity
▁operative
▁assurance
▁stroma
affec
▁fixation
▁pigmented
kDa
acted
▁bac
▁inherent
osin
▁44
RNA
rement
▁temperatures
▁maintaining
▁discus
lasses
▁adolescence
produc
olved
▁3-
▁synchronous
▁detrimental
▁blot
▁peroneal
▁chemot
▁subc
vation
▁polymorphism
▁effectiveness
▁complementary
oic
▁predictors
▁BM
ivariate
▁1,
2-
▁estrogen
ilized
rC
rogenase
▁coeff
▁rebound
67
▁mRNA
osome
▁nec
▁systematic
▁surviv
▁hydrox
▁guided
▁presum
turb
▁identifies
▁neutrophilic
▁blin
-7
▁breasts
▁Estrogen
entricular
DNA
▁melanomas
▁kidney
eliac
ditions
acerb
▁paradig
▁dys
hydroxy
/1
itance
▁scans
acr
▁13
▁spleen
▁mono
▁nitro
ept
razole
▁dissection
▁amino
▁polyps
▁enrol
ilical
▁progesterone
▁sero
▁corneal
controlled
oxif
▁norepinephrine
▁chol
▁aor
idate
ustment
▁tonsil
▁hypothal
▁MV
atell
▁plasma
▁enhanced
▁prevalent
ignant
▁melatonin
▁modest
▁ortho
▁pediatric
12.
alues
▁reactions
▁measuring
0%
venth
oves
▁mitral
economic
▁oxygen
rogra
▁hybridization
▁OC
▁cystic
▁pati
idity
rength
▁nervous
▁Tumour
rocy
ipolar
▁gastro
ventricular
KI
▁oxide
▁merits
▁hipp
vents
uding
▁potassium
▁balanced
▁injuries
▁infil
others
▁ane
oglyc
▁apop
mature
arity
-3
▁coexist
illary
▁comparisons
trib
▁systemic
▁3'
▁spont
▁amy
▁juven
▁underg
▁arthritis
erated
▁longitudinal
cutaneous
▁tubes
▁0.05).
itin
▁plasm
▁Throm
ylamide
activation
itudinal
onad
olution
▁heavi
▁ration
▁alp
▁assessing
▁pronounced
▁excretion
either
alities
▁interacted
▁tert
▁lipids
ocl
▁IgM
▁antigen
othermic
▁reversed
▁topical
▁ruptures
▁ICS
entanyl
▁deformities
▁RAR
evaluated
▁antibodies
▁recurrence
▁Therapeutic
▁anatomy
▁residency
ctomy
VR
▁dissociation
▁fatigue
sion
▁perin
▁modality
▁nomenclature
▁BD
▁researchers
ocrine
rying
methyl
▁headache
▁Physicians
▁buc
▁hetero
osomes
▁oligo
▁inhibition
contrast
▁0.9
▁geriatric
▁1.2
▁chl
KA
▁uptake
▁sustaining
Au
echan
▁fragility
olic
oxid
▁fluores
▁platelets
edullary
▁deficits
▁steroidal
ipar
▁melan
78
▁infants
atab
uccess
cretion
xone
▁onc
▁comprehension
▁wors
)2
▁VD
till
▁anomalies
▁experim
umulation
uterine
▁gangl
▁APTT
▁cardiomyopathy
ylchol
▁VE
tic
▁putative
Ns
.9
ophilic
▁exacerbations
▁dental
duce
ocom
▁identically
▁hygi
▁ultr
vival
urate
▁controlling
▁evaluating
6,
▁(1)
▁embryos
LN
84
▁skeletal
▁meal
57
▁RNA
gesterone
▁unrel
▁receptors
▁progn
▁prolonged
▁indication
▁relap
▁repaired
▁fatality
▁follicle
eclampsia
▁thym
▁streptococci
▁Surgery
intestinal
knee
▁arth
▁nM
oprotein
▁challen
ocortic
▁hepat
▁bovine
▁cann
▁targeted
▁feeding
▁gyn
▁basal
▁Pretreatment
▁CAM
▁endot
▁Tumor
▁constitutes
trative
▁phenotype
▁symp
▁concentrate
▁orthopaedic
▁pulmonary
▁equilibr
▁serum
▁cys
▁chloro
▁adren
▁reproducible
relevant
labeled
▁unstable
▁determinants
uoden
oclonal
▁cigaret
adrenaline
▁survival
lective
▁1-
▁ascertained
othel
▁abdominal
▁demonstrating
Ia
ethyl
inergic
▁Treatment
inely
▁vesic
/2
▁findings
arotid
▁colorectal
▁albumin
▁LV
▁adminis
▁challenging
anine
99
▁disparity
▁screening
▁curative
▁introduces
yses
▁prel
omod
▁caution
▁57
▁proct
▁VL
56
▁linoleic
▁201
tak
▁TG
▁cited
cence
▁deficiency
▁statis
▁concurrently
IH
onucle
▁genetic
xia
▁splenectomy
▁intest
oplast
saturated
relations
▁immunisation
▁encouraging
ochemistry
AIDS
▁implicate
▁mV
▁bronchoscopy
▁gastric
▁weigh
graftment
onin
▁sti
▁Biochem
ses
ecu
MN
echn
▁symptomatic
tention
▁cyclosporine
▁diets
▁predictive
iaz
▁abd
▁workload
toc
▁clearance
▁chorio
0-
▁inactiv
MG
▁thi
▁2,
9%
▁necrosis
▁PEG
▁initiation
▁transurethral
▁diagnoses
▁VAS
▁glycoprotein
osom
rals
ameter
usions
▁synaptic
▁recor
▁creatine
aturation
▁multifactorial
aptic
▁tumours
▁cloned
▁consequently
requ
▁chemotherapy
▁genotypes
▁fractured
evaluation
▁enzyme
atitis
▁warr
clerosis
▁mutants
▁reductions
operative
tabol
tional
esthe
▁crest
inj
▁Certain
iary
▁prevalence
▁comprehen
severe
illin
▁recess
utin
stages
acetyl
▁uncontrolled
spectively
▁sedentary
▁simultaneous
▁TSH
cored
▁wound
▁triv
▁fiber
▁kidne
ycl
omatic
linked
GI
▁underestimated
tual
▁micron
vac
▁phosph
▁angiotensin
▁onset
▁surf
ventive
ications
▁provid
▁chronic
▁myoepithelial
▁disorder
▁aneurysm
▁determining
▁lith
▁shallow
▁defec
▁gaps
▁ml
▁adhesions
essential
▁exhibit
▁UF
▁2
▁platelet
▁45
hist
trip
▁suspic
▁inappropriate
▁acidosis
orption
acking
▁conducting
-1-
▁reflex
50
▁metast
▁portions
▁0.3
icient
▁stomach
▁demographic
ophag
acer
▁tris
▁radiotherapy
▁perceptions
▁phon
▁mell
▁derangement
iably
▁therap
resist
▁esophageal
▁defic
76
tural
iasis
▁occupational
entric
erence
▁minimize
▁complaints
▁cognitive
▁bypass
▁ascer
▁cytology
▁sepsis
▁phenomenon
▁geniculate
inally
cture
ignificant
omized
▁hypertro
arthritis
▁excl
▁immuno
▁sulfonylurea
▁atresia
▁differen
ropriately
opath
▁mmol
▁anomal
▁feasible
ogens
erations
▁preval
▁unresectable
▁assis
▁recons
▁beating
trum
tence
▁displacement
▁concentrations
ologous
▁ranged
▁labial
▁90
▁SLE
▁advan
▁equivocal
adrenoceptor
▁drainage
itic
▁dopamine
▁discussions
▁trophoblastic
riend
ressed
▁antibiotic
▁fragile
▁arterial
▁cis
▁PVR
