erance
inum
▁10.7
▁4000
▁jejun
▁fibrillation
11
▁sequential
▁underst
▁ultrasonography
▁9,
▁clom
▁prolonged
▁opioid
Lys
▁adjustment
▁allergen
▁CDC
▁29%
▁NP
▁illus
anthine
▁3'
▁cephal
kinase
approximately
▁GMP
oyl
▁limb
▁encephal
▁periodontal
▁NADH
▁glyc
▁8.4
▁biologic
▁collagen
▁cochle
▁experim
▁localization
▁malignant
lac
▁anomalies
▁exhaus
▁neoplasm
FU
▁trache
▁systemic
▁potentials
▁anesthetic
pig
adone
▁98
▁bic
▁trypsin
▁Experiment
fluoro
▁parie
rogenic
▁cysteine
▁0.005)
roglobulin
▁78
traumatic
▁strokes
▁RS
▁residue
▁fron
▁oocytes
▁pec
▁BMD
othi
▁LM
▁accelerated
▁latency
atonin
88
idated
▁PBMC
▁quantif
▁mucosal
▁interpretations
herence
antial
▁fasted
▁replication
▁objec
uran
▁thromboemb
▁sodium
esin
▁heavi
▁gland
▁900
▁oss
▁extre
▁infants
assium
rene
▁Rates
▁ventil
pain
▁ineffective
▁assessments
12
Rs
▁irradiation
ximide
globulin
▁innerv
▁serotype
▁pressures
▁pathological
osylation
▁31%
venty
▁Neuro
(2-
▁precipit
▁expiratory
▁aneurysms
▁Doses
▁dialysis
▁rRNA
oxone
▁constric
▁[(
16
▁circulatory
▁dib
▁esterase
rography
▁dextro
tracellular
▁skinfold
▁organs
▁expressing
amide
▁morphology
▁3).
▁melanomas
▁antagonist
▁nasopharyngeal
▁blotting
▁averaged
isolated
74
▁esophag
-18
▁weaning
▁influx
opam
lycemic
▁restor
▁hypothetical
▁reflex
▁thrombin
partic
-1.0
▁4.7
▁3.7
▁centr
▁neurogenic
▁bromide
/9
amyl
▁practitioner
▁stimulatory
▁7.0
▁psoriatic
entile
▁uncommon
▁dyspnea
tiv
▁adhered
ucleotide
▁CN
▁Few
▁ACh
▁oxidation
▁aneurys
▁insufficiency
9,
▁53
tection
▁clamping
▁nonsteroidal
▁postnatal
▁ligament
▁promp
▁(40
▁immunogenic
inesterase
▁lactate
▁elong
▁sugges
▁relap
▁135
▁prognostic
▁opioids
▁6-
▁keratin
opolysaccharide
77
omethacin
▁GSH
ventricular
tality
+)-
▁categorized
▁33%
ongest
▁blockade
▁IgM
+,
▁transmitter
lycemia
▁4.9
▁vagal
▁clearance
osyl
▁incomp
coated
▁modulation
▁rearrangement
ytoin
▁Sodium
operoxidase
▁enamel
▁67
entanyl
▁palsy
▁rats
▁pelvic
▁arteries
▁(150
▁progenitor
cine
▁mucosa
oride
tide
▁51%
▁unchanged
▁cesarean
▁enteral
hydrox
▁typhimurium
▁citrate
▁irreversible
▁37%
▁severity
▁predictors
▁bronchodil
▁[3
▁forskolin
▁diaz
▁LT
leu
▁sugars
▁spasm
▁radiography
▁86%
▁valve
▁immature
▁Transi
altered
▁histologically
▁subdural
▁latencies
▁43
-30
▁topo
▁cations
ausea
▁intram
▁granulosa
▁96
▁5)
▁Benz
teine
ococci
▁intran
▁tas
▁eryth
▁(72
▁differed
▁investigators
menopausal
▁stringent
-2)
vaccin
▁inser
▁oligonucle
▁otitis
▁precursors
fal
▁mitral
▁biosynthe
ziness
▁6.9
▁immunore
risk
▁psychomotor
▁0.05
▁TPA
ogenicity
-1000
▁anion
▁libr
▁elas
trating
ivation
▁unde
▁hypogonad
▁Exposure
▁(19
osac
▁0.90
▁proteolytic
▁11
▁genotypes
▁progesterone
▁deli
▁proliferating
▁coh
▁prospectively
▁(6
▁21%
▁coordin
molality
▁lec
▁selectively
▁ulnar
▁gestational
▁antimic
phic
▁deterior
▁cereb
▁dosing
▁exon
30
ANP
Gal
▁infarction
▁(1.9
▁lesion
otonic
essel
▁reticul
▁decarbox
▁arterio
administered
▁preincubation
▁peritoneal
▁dendritic
▁indicators
eptin
▁differenti
uestion
.2
▁transmembrane
▁Purkinje
▁transiently
olarization
hesus
▁1.
▁Candida
▁amplitudes
▁0.001).
▁inoc
▁stimulant
▁compe
uctose
oconstric
onegative
▁visualized
▁homogenates
loxacin
▁leukotri
▁Experim
atibility
▁cataly
▁catalyzed
▁Statistical
▁cyclooxygenase
-3,
▁detergent
roin
oscopy
▁satisfactory
▁(500
▁Calcium
▁obser
▁predictive
/1
▁lys
▁amniotic
▁nutritional
▁hepatoma
ographically
▁olig
▁Mortality
▁polypeptides
asal
▁doses
▁recr
▁fibres
▁adrenaline
▁Incubation
thmatic
orac
▁lowers
▁bumetanide
▁tumor
truction
▁Effec
▁sensitization
▁0.001)
▁133
▁explants
2).
▁proliferative
▁thromboembolism
enia
▁Cardi
▁microscopic
glycer
-50
120
▁incontinence
years
▁ICU
▁efficacious
6%
7,
▁neuronal
▁impair
onary
otrypsin
▁83%
▁10.0
▁globulin
8.
▁inhibitor
▁disseminated
▁carbonic
pressing
▁157
▁TMP
1.
▁mitogenic
▁potency
▁70.
▁(2.6
aminated
▁adop
▁Patients
▁downstream
▁nifedipine
▁seizure
▁laboratories
▁Chlamydia
▁diabetic
▁0.58
▁proteoglycan
▁BV
trogen
▁15-
▁tetrac
▁avail
▁eosin
▁BALB
rowing
teroid
ayed
▁42%
aceous
▁acad
rometry
▁glomeruli
fine
oproterenol
▁injected
▁competence
oprol
▁forsk
Bs
▁ascorb
▁ciprofloxacin
▁dexamethasone
OA
traum
▁sati
sulf
▁LVH
▁gangli
▁dementia
▁positioning
26
▁chym
-72
▁0.66
▁Interestingly
▁(250
▁apolipoprotein
▁0.8
▁77%
▁hypercal
oskeletal
▁0.005).
▁ventilation
14
7%
-19
▁microsomal
36
plementation
etween
▁eosinophils
vice
admill
▁perfor
▁42
▁13.2
▁9
titution
teria
ymptomatic
▁HPLC
▁1
ioid
onor
▁monocytes
▁kidney
econd
▁4
▁inactiv
▁Inte
ficial
▁0.01).
▁microtubule
▁47
▁amel
smokers
▁0.09
sul
adjusted
▁islet
▁11.8
8%
arbonate
75
mented
indings
▁Diagn
▁inflammatory
▁Alzheimer
▁bipolar
▁adenosine
▁antagonized
tensin
▁tuberculosis
rati
▁undergone
▁menstrual
▁homozygous
▁microtubules
▁vomiting
▁fibronectin
chloride
▁HLA
▁interf
▁nausea
▁(0.4
▁histology
gment
tential
glyc
olesterol
▁viral
▁optimally
▁64%
examin
enoic
▁postural
▁Angiotensin
ionine
trac
▁3000
▁summarized
phosph
renol
▁oxid
▁nitroprusside
lactam
▁cholec
apanese
trin
apine
omerular
▁lesions
alp
tives
oprote
▁intake
bumin
▁dor
utyric
▁renin
▁(3)
▁worsening
▁(24%)
NB
▁docum
5%
▁resemb
▁infil
▁actin
galact
ughter
adication
MV
entia
amphen
ocortic
▁antiser
▁pineal
▁ascites
▁(63
oxine
▁behavioral
▁0.05),
.7
▁diarrhea
▁125
▁prostate
astolic
▁methodological
▁24-
▁2)
▁msec
din
▁practic
▁granular
IDDM
▁melatonin
▁inoculated
▁macropha
olated
▁nodal
▁6)
▁HbA
▁exag
▁penile
adrenoceptor
▁translocation
▁80%.
olus
ginine
▁intermittent
2+,
▁nonex
▁exogenous
▁peri
▁192
▁computerized
opo
▁myocardial
amethasone
achn
▁leuk
hep
▁inositol
▁alteration
▁restenosis
▁retrograde
▁100
▁atrial
▁plateau
odic
▁(5-
▁strips
53
▁130
▁tec
▁agglutination
▁glycer
▁augmented
▁CGRP
▁arrhythmia
▁0.04
▁CAD
▁recipients
▁Complications
00,
▁32%
▁exacerb
▁hyperplasia
kDa
osomes
▁septal
▁0.02).
▁preserving
regulation
▁antagon
▁livers
▁condensed
3-
ervical
▁Nineteen
amate
▁pati
▁gynec
▁epithel
▁25-
▁mec
▁7.5
yrox
▁confers
▁symptomatic
▁preferentially
▁endotracheal
▁IFN
▁tracer
phorbol
▁164
▁forearm
▁IgE
▁benzyl
▁1/2
assay
itonin
molecular
ithm
/10(
▁uncomplicated
spective
cholesterol
7.
tryptamine
▁crossover
▁tryptophan
▁000
▁cadmium
▁splicing
▁6.2
▁pentobarbital
erin
+/-
0).
▁bactere
tron
onin
▁endoscopic
▁11.5
▁noradrenaline
opulmonary
▁fractionation
.7%)
▁inactivation
▁Epidemi
atif
▁deviation
▁25,
-8,
himbine
ensitivity
▁densities
tant
plasty
▁tric
assi
▁antibiotic
otox
idespread
-0.
▁hemodynamics
▁oste
▁hypon
▁ventilatory
aldehyde
▁clarify
ochrom
▁12-
urin
rophy
▁acute
▁angiography
tention
alas
▁structurally
▁encompassing
rogenase
▁epithelial
▁uteri
obarb
▁guanosine
▁perinatal
▁chorionic
▁pyl
cis
▁corneal
▁reas
▁0.52
aryngeal
▁RR
▁proteoglyc
▁catalytic
▁1,000
▁xyl
▁apical
▁adduct
▁oxytocin
opa
▁hemorrhagic
▁phon
▁antidepressant
2]
orbent
iatum
botic
▁malignancy
ocusing
▁eccentric
▁inver
▁NMDA
ophore
thel
▁Caucasian
5%.
▁lymphocytic
ocompatibility
ophren
▁Urine
▁esters
▁cerebrovascular
limb
▁exhaustion
acetate
▁menstr
▁NAD
▁osteoarthritis
▁Acet
▁Examination
affected
CAT
▁8.0
orin
▁defective
pine
opathy
idium
▁reabsorption
▁sci
exercise
omatosis
▁edema
▁0.45
ximal
▁ligation
▁septic
idne
▁benzodiazepine
▁127
nitine
gangl
-40
▁0.9%
▁disapp
▁1986
▁55-
▁TM
stim
PTH
▁(82
▁40.
▁normo
▁(1),
omical
▁CI
▁creatinine
amphetamine
▁complexes
▁epsilon
ositol
phyloc
▁worsened
▁erg
▁rectal
▁Protein
▁labeling
▁AIDS
responders
▁optimum
▁hydrophilic
hea
▁oxide
▁regimens
▁sickness
▁22
▁anaerobic
(1
▁adequ
▁microtub
affec
-450
tivity
patients
▁adipose
▁suppressive
▁pyro
▁comparative
▁immunoglobulin
▁69%
▁resis
oil
▁fossa
esti
sities
▁progn
▁saturation
Cer
▁48-
▁hepar
▁bacteri
enin
▁susceptible
▁36%
▁excreted
inol
▁1990
▁intron
ullary
turnal
▁monocyte
▁hypokal
▁histone
lives
▁caffeine
▁27
▁intraperitoneal
▁phage
leucine
▁carbamazepine
▁calcified
10,
onium
keletal
▁myosin
▁onset
▁anticholinergic
olipid
usp
▁DH
▁transcript
▁nicot
▁efferent
▁tran
vival
▁chicks
▁35-
▁Ear
▁proximal
▁mutagen
▁(50
▁scientif
▁gradual
▁inh
▁outpatients
▁rotavirus
bacter
▁labelled
▁AH
0%,
▁fused
tition
otomy
▁reductase
mend
▁amputation
ylate
aicin
▁septum
▁sepsis
idation
imin
▁asymmetric
▁decreased
▁calves
▁phosphates
▁dosages
▁aqueous
▁radiological
▁mV
▁brom
▁20.
roph
47
▁CK
▁fractional
▁refractory
ortal
'-
▁Tn
▁thal
ctive
▁20)
gth
▁deox
ipril
1/
▁ECG
,000
razosin
▁compartments
rele
64
▁reinforcement
▁lymphoma
bloc
▁resol
nRH
▁seroton
▁schizophren
▁meningitis
▁nutrient
/7
▁interacted
▁pulmon
pirone
IgA
pran
▁substances
▁acces
▁imipramine
vular
▁(16%)
▁kidne
tosis
▁203
▁aeros
▁balloon
5).
▁differentiate
kground
urine
▁mammalian
idney
▁synovial
▁supr
▁promptly
asic
▁(80
thanol
▁transi
trical
▁unres
▁corticosterone
-1.5
blood
▁(18%)
▁adrenoceptor
/4
versity
▁strep
▁diazepam
▁Prospective
micro
▁histological
▁chewing
atectomy
cad
▁propionate
minis
▁(7
▁74
arial
ethanol
▁Systolic
concentration
eroxide
▁15,
▁endometrial
▁zym
dies
▁questionnaires
phosphor
▁208
ADP
ecyl
▁clu
▁4.1
▁cardiac
▁0.50
▁1.5%
▁simultaneous
etent
▁adducts
▁unexpectedly
tual
▁nucleotides
tened
▁intermediates
▁hypoglycemia
1%
▁efficacy
esity
▁negatively
▁activates
reased
86
▁thickening
%).
protein
▁capsule
▁myc
▁1987
▁electroph
▁0.05).
genic
▁metabolized
▁exhibiting
▁enzyme
eration
▁Drosophila
▁neurological
▁0.03
▁(49
odeoxy
▁ventric
▁palp
+)
bacco
enic
▁substantia
▁hormones
▁precursor
▁granule
▁initiating
▁familial
▁reduc
▁alk
resist
▁lar
icardi
▁fertil
(5
▁unilateral
▁-10
▁(3.0
amid
▁attenu
▁2.2
▁embolism
▁intercellular
opause
▁dilated
▁hormone
molar
▁diagnose
▁devoid
viral
▁inability
▁6,
▁transplantation
utions
tir
growth
▁5.1
oresis
▁coli
ellum
▁Fourteen
▁accep
etine
▁febrile
▁decarboxylase
ffinity
notic
▁LC
▁Magnetic
▁sedation
▁Specifically
▁spre
▁ligand
olesterolemic
▁35
▁classify
2(+)-
▁synap
▁preliminary
▁1/
ophy
▁MIC
▁relapse
▁titers
etan
▁attenuation
ialysis
ustained
ypical
▁Sensitivity
▁ureter
▁antis
▁Tissue
▁5000
▁promin
▁stratified
▁frontal
▁0.36
▁hyperactivity
▁leukemic
dor
▁MRSA
▁2.5,
achid
urgery
dil
▁0.47
restricted
▁plaques
gression
gthen
▁criterion
▁substitu
▁0
▁empir
▁clon
▁kinase
amuscular
oate
▁NF
▁labelling
▁acceptor
▁Concentrations
tionally
▁enzym
owever
ylcholine
▁requi
▁150
▁bronchial
▁reticulocyte
▁PRL
▁transluminal
▁attitu
4/
▁stimul
NK
▁deviations
iability
▁dehyd
tase
▁galactose
▁chl
gene
erents
▁validated
▁immunocompetent
▁HPV
▁amin
ovis
idol
▁olfactory
pecially
▁vesti
▁lymphadenopathy
3)
▁emo
tructural
albumin
irds
▁carc
ropriate
▁75
▁sexually
▁normalization
▁pancreas
▁hamsters
▁surfact
xone
itamin
ysm
0,000
osterone
enil
okinetic
▁tibia
▁anesthe
▁recurred
anol
▁unid
2;
oluble
▁0.17
▁65%
▁postmenopausal
▁rejection
▁virul
▁ket
retin
▁HBsAg
▁10.8
oconazole
▁carboxyl
educed
▁dilution
▁elu
▁devi
▁entero
▁phospholipase
▁1.6
▁arousal
▁theophylline
▁unrelated
▁alkal
psych
▁transaminase
emak
▁Leydig
▁titrated
▁termination
▁aggregates
▁substrate
85
▁isometric
▁mono
▁gases
rhy
▁serolog
▁conditioned
▁disturbances
▁CHO
▁dopamine
produc
posure
▁alveolar
5-
testinal
dent
ylation
acr
▁(5
otine
corrected
▁defic
▁cen
▁desm
ealand
rological
▁coval
▁pep
▁latent
iotensin
▁emulsion
▁WK
▁physiological
▁conjunction
38
rosine
▁reagent
▁clinician
▁5%
astatic
▁sampl
▁euthyroid
▁proton
▁plexus
▁cloning
▁0.26
▁immunoblot
4%
▁prophyl
▁sph
▁irrig
▁(2
▁chamb
coup
▁Elevated
▁folate
EG
▁polypeptide
▁67%
sorb
▁heterologous
endocrine
(2+)-
▁jaund
virus
iotics
-6,
▁Ia
▁nucleotide
▁plaque
▁enalapril
▁acetyl
▁pigs
▁reflec
▁114
oxyl
dimethyl
▁canine
▁sarc
▁repeats
▁parathyroid
ovirus
igand
rosis
▁specimen
▁Increasing
▁distin
-66
▁immun
onuclear
▁7
imidine
-2,
▁1,25
▁fluc
olestero
tub
-3-
▁163
▁subun
▁TNF
ocortical
▁successive
▁MK
▁prophylactic
▁analgesics
occi
▁twofold
▁Tum
▁0.2
cemic
aminidase
▁69
polyacrylamide
ophys
▁chemically
▁vasoconstric
▁dendrites
ubicin
▁immunological
▁cranial
glutinin
ncies
▁plasminogen
atment
taining
odopa
oxic
ichia
▁ester
▁jaundice
▁positives
ofil
▁66
50,
▁generalized
.1%
(6
thrombin
▁rostral
▁employing
▁persistence
veolar
endri
▁immunohist
▁Subsequently
7),
▁duplic
▁detec
▁probes
▁fibros
▁ovary
▁apprec
rocyte
endorphin
lyc
ycin
▁secreted
6%)
male
tiary
acet
▁antigen
▁AO
▁aggregation
acterial
▁233
▁quadrup
odium
tenti
▁depolarization
▁orthostatic
▁depleted
-2
tice
DG
▁aortic
▁prostaglandin
▁Thyroid
▁donor
▁elicits
erant
ectomy
-6
▁capsaicin
▁exert
▁neoplasms
-3
▁revascular
▁Oste
resid
▁TRH
▁45
PSP
obase
▁ESR
▁phorbol
%),
▁nec
▁benign
▁flora
▁Biol
▁physicians
▁mell
▁Approximately
▁limbs
▁steroids
▁Identif
▁necro
▁malabsorption
Ba
Leu
▁crude
obl
▁silic
erican
▁methodology
0.5
▁filtration
▁contractions
▁disclosed
▁percentile
▁LMW
osal
▁Trial
▁ery
▁transplant
▁Bac
▁cDNA
▁172
▁Mild
▁Extensive
▁migraine
eprazole
adders
▁cortisol
▁62%
▁digoxin
hips
MDA
17
▁frog
centr
ogenes
▁determinations
cein
▁58
▁gestation
00
▁Scatchard
olone
▁23,
▁trachea
61
onazole
enal
▁0.18
.4
▁CNS
▁23%
▁couns
inally
▁dilatation
rates
▁(25
grams
▁microgram
iline
▁tubercul
▁immunogenicity
▁graf
kele
▁nal
▁96%
heat
tensive
illin
▁fentanyl
▁DP
▁platelets
▁188
▁syphilis
▁erythrocy
▁prescrib
▁metabolic
▁scarring
▁demonstrable
macrophage
atine
▁polymerase
▁isoprenaline
▁20-
▁chromatography
lasses
echanical
▁intrav
▁atrium
▁sca
▁RNAs
tance
▁subjec
sequent
mental
▁catheters
responsive
▁cGMP
▁thalamus
gestin
▁0.20
▁cessation
▁19,
/3
▁ligands
▁predictor
50)
▁142
▁euth
▁irradi
▁1-
▁48%
▁supplementation
▁.00
▁PDGF
▁74%
▁TI
infected
▁noninvasive
▁ect
▁elucidate
▁contributes
▁antiarrhythmic
▁antidepress
2318
▁79
▁oval
▁infancy
▁sonography
▁0.28
deple
▁ANF
▁morbidity
amel
▁musc
ocytosis
sies
▁alanine
▁hipp
▁ND
▁120
▁86
hene
wenty
▁filament
▁lysine
▁lateral
▁embry
▁1,25(
▁121
subs
▁11.
hypertensive
yroid
HV
unctions
tis
▁PPD
▁detects
▁concurrent
▁simult
ometr
tein
▁catab
▁autologous
▁biopsy
ucine
24
▁inversion
mitter
▁300
▁arose
▁intractable
▁filaments
▁76
bran
▁hematuria
gesterone
arous
▁grafting
ucle
▁fetal
▁4,
▁(21
▁MAP
▁Km
▁(47
▁erythropo
▁allogra
▁glycos
▁reactive
▁EE
ubation
▁ulc
▁5,
▁dimer
▁metoclopramide
abec
▁0.6
▁55
partate
▁guan
▁neuropsych
▁(33
odop
establ
▁bypass
eptic
▁Estimates
▁captopril
MH
▁amplified
▁econ
▁anxio
▁Fib
▁(0.0
secre
▁corticos
▁amo
iparous
▁monkeys
▁swit
ceptive
▁allele
erox
rotic
▁thyro
arginine
atural
▁PKC
▁bolus
enkephalin
cture
ffe
▁leukocytes
ensi
▁perip
ophylline
tiguous
▁plasmin
terin
▁20%,
▁adversely
▁substantially
▁repetitive
▁ewes
▁vacu
adiol
▁contrac
55
▁conserved
▁Alz
▁glut
▁dairy
▁(18
▁EBV
▁solubilized
0,
▁electrodes
activated
▁regulated
vertebral
▁nonsignificant
ifedipine
▁histopath
▁hematocrit
▁ofloxacin
99
▁neon
▁oocyte
▁Therapy
▁pacemak
8%)
▁rhy
▁epidermis
coun
rospinal
oprolol
▁nebul
▁blocker
▁yielded
▁quotient
▁endoscopy
▁monke
▁hippocampus
▁implants
olism
37
▁Staphyloc
titis
lym
▁thiol
▁280
▁malformations
▁1.2
▁electr
▁assis
▁tertiary
opoietic
tized
▁100%
▁11.0
obenz
▁dorsal
urnal
▁intrinsic
meas
▁positional
▁cic
▁triglycerides
▁dispersed
▁tendons
18,
-7
▁myocardi
▁glucagon
PSPs
erge
▁spleens
▁diagnoses
▁31,
▁eluc
dose
▁sulfhydryl
▁interrup
▁endometrium
▁Findings
▁dietary
▁microv
▁deduced
acylglycerol
▁0.76
▁tiss
▁viscer
▁retrospective
allium
▁xen
promoting
▁peroxidase
lys
▁retin
▁0.35
▁LDH
▁perfusate
▁mRNAs
▁intravenously
▁polym
▁1200
ophilus
Glu
▁haemat
▁alternating
scher
idin
▁subpop
▁30.
▁54%
▁restraint
androgen
▁coated
▁85%
▁mAb
▁conclu
▁5.3
▁assessing
individual
▁(46
tration
erent
▁mildly
▁remo
▁adolescence
▁coag
ylephrine
▁kcal
▁carotid
▁PRA
▁0.1%
▁pyrid
derived
ogens
icin
▁sten
feeding
chers
▁measurable
▁staging
▁cultured
▁preterm
▁propensity
▁implant
▁8.2
▁molar
reactive
▁gum
roso
TG
LR
▁addi
ulants
athetic
▁NGF
-4
itre
▁histidine
▁artifact
10.
▁pHi
tage
adin
▁0.000
▁carbox
▁insec
▁sulph
▁(28
▁recurrences
▁20,
▁supine
500
▁improves
utaneous
dihydro
▁synthesis
▁cows
.6
▁hypothesized
april
ococcus
roma
mTc
▁ducts
▁secrete
▁routinely
▁Surgical
▁unfractionated
▁shorten
ysts
▁colitis
▁equivalents
▁glands
omized
▁exhibits
▁Conventional
controlled
▁unexplained
▁cardiomyopathy
athiop
▁fluorescent
▁TCR
▁mucus
▁paradoxical
▁94
▁traum
amus
tening
▁quinine
▁diffic
titial
▁700
▁Comparing
monella
▁overlapping
▁direc
▁dismut
▁186
▁screened
jug
▁detrimental
▁HI
▁bursts
▁moderately
▁artery
▁interfere
ritten
▁possi
10
▁similarity
farction
▁Positive
▁0.02)
▁Pt
▁oxy
▁Consequently
▁attemp
2/
▁apo
▁dyst
▁allergens
▁streptococci
▁118
▁thym
▁autoantibody
▁construc
▁ions
▁dodecyl
▁chromat
adine
hydration
▁ech
▁magnesium
▁IGF
-20
▁1-2
▁nitrogen
▁30%.
▁dermal
ordance
▁(16
▁gon
yste
olones
median
▁palmit
▁microscopy
▁antithrombotic
▁injections
110
adequ
ionate
▁instrumented
▁crosso
▁DBP
▁RAS
▁displacement
▁2%
(2)
tussis
▁competi
oactive
▁100-
▁fecal
llate
ields
astric
▁transforming
▁gonad
▁atypical
▁cathe
▁neonates
rocytes
.6%)
▁reag
▁(2)
initi
▁Estrogen
urther
▁10.5
ovascular
▁guanine
opropyl
▁syndromes
▁10.2
▁polyethylene
28
▁cation
phot
▁quanti
kinje
▁13%
▁RIA
▁hyperlipidemia
▁Meth
dine
▁postmortem
▁somatic
arate
▁9.5
▁3-
▁reversible
rences
induc
▁cyclosporine
▁conjugated
▁0.13
▁inhibition
achial
▁paired
Tu
thrombotic
▁eosinophil
▁enlar
▁lor
▁junction
othiaz
ograms
▁tRNA
▁1.5-
▁0.5%
-17
▁platelet
▁anemia
▁Eighty
▁elastic
:1
physiological
▁pall
ozo
ometh
6.
lix
▁EEG
▁Fifteen
▁71
▁cruc
▁phospho
3;
▁glomerul
▁frac
ncy
▁lifest
▁72
▁electrically
itrate
▁extensively
▁examin
▁analogues
rine
▁appendic
▁cycling
Ki
34
▁respiration
▁scaven
▁CSF
▁PTCA
kely
exposed
▁PEG
▁antipsych
.6,
sions
▁serotoninergic
▁astrocytes
▁ubiqu
yzed
▁analgesic
▁fibrosis
lofen
▁aureus
▁endometr
▁eliminating
6;
▁250
galactosidase
avail
▁ips
horm
entricular
ignificant
▁antiserum
promazine
76
▁degen
▁57%
aund
▁osmotic
▁Cyt
▁ureth
▁Mg
▁differe
▁genital
▁offspring
▁hydrogen
▁monkey
erate
▁rheumatic
arone
▁airways
▁cortisone
3%
orrh
▁tamoxifen
▁seb
▁interleukin
▁0,
othelial
▁GnRH
roxy
▁Hep
▁embryonic
▁hypothesize
▁107
GTP
▁1.0
umulative
atab
▁substrates
▁proteinase
ximum
▁circulating
▁oligos
glycoprotein
▁percutaneous
▁stren
namic
uria
onate
ifug
▁superf
andida
▁gonadotrop
▁microscop
macropha
▁conditioning
▁vasodilation
▁transfected
▁12.
▁Ace
▁inconsistent
▁halves
▁MRI
abies
▁impairment
tivation
▁abscesses
▁posi
ocyan
▁clamp
abin
sives
▁4).
tested
▁uniformly
▁hypox
▁coordination
▁incom
▁rabb
▁vertebr
azole
rophic
▁chromatin
▁123
▁increas
▁Multiple
▁larvae
estrogen
coh
▁159
▁airway
vant
oxide
▁cytotoxic
▁tyrosine
▁binds
▁inappropriate
▁analogue
silon
oplasia
▁albumin
incub
▁pediatric
▁chol
▁vaccinated
▁mononuclear
▁hydroxy
97
▁steroid
▁weighted
▁ELISA
▁inten
▁hamster
▁adrenergic
▁luminal
asone
▁adduc
▁covalent
▁Sulf
▁PCO
▁coping
▁referral
▁responsiveness
▁intest
▁2.
▁phosphorylation
▁etiology
▁contaminated
▁glycoprotein
▁ribosomes
▁(4)
ylchol
sial
▁155
▁rhe
▁rup
▁ulcers
▁sero
▁epilep
▁CFU
▁unstable
▁propor
0.3
aminase
▁assay
eeding
▁recor
▁endpoints
tics
tively
2%
osin
veness
▁caro
ulant
illaries
▁5.2
▁invasive
grees
trast
▁82
▁Estim
▁expec
inositol
▁lysosomes
▁2.1
▁pneumoniae
▁atenolol
1%)
▁newborns
dividual
ureth
▁Bmax
▁mumol
▁aluminum
▁placental
▁projections
▁(32
diastolic
▁stools
ensitization
venous
14,
▁24%
▁uniquely
▁kappa
▁1.3
nai
▁Wistar
▁fibre
▁conflicting
▁depolarizing
▁leuc
ydig
▁regimen
▁injur
▁contrib
▁-0.0
alact
▁systematically
atchard
lact
oretic
ruc
▁hemat
▁fibr
▁enlargement
thyroid
otting
▁154
▁3.8
dihydroxy
▁immunization
▁infertile
▁3'-
▁23
▁sinus
▁(8%)
▁retrospectively
▁OKT
ductive
▁hyperthermia
▁36
▁persisting
▁ascer
ostasis
▁radiographic
▁intrac
▁immunoblotting
ejun
Dawley
-400
▁diuretics
▁185
▁suppor
▁4.4
/-
▁follicles
▁acqui
▁sulfoxide
8;
▁covari
ophosphate
▁adenine
▁unaltered
entical
oplas
▁shunt
takes
▁hydrocortisone
uprofen
▁7.9
▁connec
mobil
▁drin
▁discontinuation
▁Hyper
▁prostatic
▁outlet
aminob
▁isoproterenol
SBP
.9
CoA
oglobin
▁attributable
issive
ygotes
▁homogeneous
▁serogroup
MN
▁2,
▁neuron
▁unipolar
▁(1)
plemented
welling
▁incidence
▁2.9
▁perforation
▁triglyceride
▁grading
▁immuno
▁ultrastructural
rected
▁tox
/18
▁41%
▁metronidazole
▁sulf
▁8.8
▁joints
▁transgenic
▁suture
▁pars
▁(48
▁cloned
inamide
▁concep
▁fixation
▁nodules
BMI
▁PAF
ovastatin
▁Renal
fused
▁87
▁SG
▁harves
Cu
▁fati
amet
nucle
▁HSV
▁sut
▁sucrose
▁postoperative
▁diame
▁obstructive
▁phenotype
▁tumors
▁205
▁HCO
ardized
▁.0
▁LHRH
▁109
▁sorb
labeled
▁myel
▁malign
▁anastom
▁thromb
ocor
depleted
iciently
eradish
producing
▁neutropenia
▁1960
▁8.1
▁84
▁auditory
▁allergic
tumor
▁ferritin
▁hygi
-8)
▁Chan
▁160
▁immunode
▁attain
▁opi
▁arising
▁(31
ture
▁guinea
▁(93
imentin
▁antitumor
▁preferential
ostic
▁substitution
▁sedim
▁adhesion
▁ammonium
▁fatty
embran
▁Electron
▁priming
▁previ
ipolar
▁messenger
oreactive
▁(-)-
ethyl
▁aor
▁rheum
▁CHF
otoxicity
0.9
1;
▁EG
▁transloc
▁regis
phine
▁recurrence
▁52
▁endo
Ra
▁lute
titu
▁oncogene
▁10,000
osclerosis
3).
▁PLP
▁tetrodotoxin
▁putative
43
▁diagnosing
ammon
▁blots
▁lipid
▁NADP
▁0.43
▁51
▁transcrip
▁clinically
uvant
▁modestly
▁(14
mature
▁66%
▁outward
▁mutants
chid
tel
0.7
lux
▁14
▁selec
▁yeast
▁contex
arose
▁colonic
▁influenz
tilis
▁90%
olysis
▁adenylate
▁favorably
▁catheterization
heres
monary
▁complication
▁NI
-1
▁chec
▁perfused
▁splic
bac
▁Meas
▁4.2
▁desensitization
▁nylon
eclamp
zymes
▁9-
ervations
▁hypothyroidism
tigo
▁tolerability
opres
18
ulla
▁asthmatic
urrence
platin
▁diethyl
0.2
gia
retic
plast
ycline
urys
▁Treatment
hepatic
Cs
▁diarrh
chloro
▁simplified
iae
▁molec
▁throm
▁18%
▁pneumonia
▁complications
▁muc
▁lumb
▁Hyp
otypes
/20
ilateral
▁recons
othane
▁92
▁penicillin
▁atherosclerotic
▁optic
NH
upuncture
leukin
▁Vitamin
▁ultim
▁circumst
▁1,
▁occult
tions
agin
erebral
▁felodipine
enyl
▁diaphragm
▁4%
rowth
▁drainage
▁1.00
cAMP
▁mucin
▁concurrently
▁60
▁34%
▁autosomal
hydroxyp
mL
▁nude
odon
▁106
▁(198
▁difficul
▁101
agonist
▁cerebro
itro
lusion
▁immunologic
▁immunocyt
ilol
▁3.4
tropine
▁excretory
▁0.24
▁hydrox
▁fluoxetine
▁bloc
ntolamine
▁spacer
▁hepatocytes
▁73
▁gallbladder
▁tubules
▁Abnormal
▁thromboxane
▁compounds
▁NK
▁exclusion
▁lep
▁neph
▁peripheral
▁amn
oside
ylated
idym
▁divalent
▁progres
hexidine
▁metastasis
▁persis
atinine
lated
▁Hz
▁sacrificed
▁encompass
▁0.78
tracted
▁erythematosus
uanti
▁Cys
sue
▁neoplas
▁symptomatology
▁Seventeen
cephal
heum
▁intraepithelial
ocellular
▁fulmin
esophageal
▁phi
yridine
igenic
Hg
▁radiotherapy
▁favorable
▁thir
roximately
oporosis
▁inhibited
thmia
omotor
ypro
▁Radi
arterial
uplex
idine
hetamine
2,000
▁concanavalin
▁lymphocytes
ailure
▁7-
▁discrep
optic
gesia
▁deterioration
▁Comparative
istal
trol
▁tac
▁thereafter
▁marginally
▁resistant
▁(3
▁Intra
Ts
▁omega
iary
▁excitation
▁hybridization
itin
phragm
▁3)
average
▁89%
▁acceleration
bladder
▁triti
▁dissemin
roxim
▁hemodialysis
▁suppres
▁exer
ropha
strain
15
▁experimentally
unar
▁ison
▁pretreatment
▁synthesize
▁0.56
▁autoradiography
▁subf
tinguishable
▁viruses
▁equivocal
ospasm
trated
▁paroxys
ostatin
▁200,
▁disturbance
▁(27
▁glycogen
.7%
▁readings
▁chlorpromazine
tero
onatal
▁Dip
.0
▁blinded
▁tolerate
▁(67
.3
▁nonselective
▁acros
▁deficient
10)
▁anatomic
rophenyl
oprotein
queous
ordin
▁nig
▁hepatotoxicity
48
gic
▁cryp
▁cytos
▁confined
▁80%
▁theore
odal
6-
▁doubling
▁Registry
▁cystic
▁polymyxin
▁catalase
▁plex
cysteine
▁(45
-45
▁spike
▁13,
imentation
▁136
inephrine
▁neuropeptide
▁asymptomatic
aryn
▁Severe
9;
▁biotin
▁acutely
▁hypothal
ominant
▁Golgi
▁fulfilled
▁350
▁Evaluation
▁subgroup
▁preparations
▁manifested
▁conjugate
oxetine
▁Viral
▁vasopressin
▁1.1
▁61
▁1000
5'-
▁lysozyme
acrine
▁aggres
erating
▁polysaccharide
▁proceeded
2-
▁hemo
▁gonadotroph
▁tuberc
▁extraction
▁inhibin
▁stimulate
▁LPS
▁trimester
▁hyperthyroidism
▁bacterial
▁AFP
▁selectivity
▁diabetics
▁confirming
▁selen
cholate
itriptyline
▁incontin
olec
▁cys
thase
▁RA
2+]
▁7.7
▁hydroly
-13
▁(4
▁deoxy
idis
▁30,
▁Morph
▁vesicles
▁5.5
▁10
▁nasal
ogra
parathyroid
69
.3%
▁quies
▁Optimal
▁repres
59
▁Ultras
▁vitamin
▁fractures
acetic
▁fibroblasts
oreal
terminal
tence
▁immobil
-10
opoly
actin
▁(15%)
▁addic
▁carcinoma
▁gluten
▁TT
▁anaesthesia
▁mmol
▁sequencing
plenic
eryth
▁donors
▁0.22
▁anatomical
▁dissociated
▁0.19
▁asthma
▁adherent
▁lithium
anuary
▁nitrate
▁neuroleptic
▁termed
atories
▁depletion
▁phy
▁strepto
▁Thirteen
▁trimethoprim
▁seropositive
anin
tec
▁26
▁lis
▁adulthood
elec
CSF
▁hyal
▁therapies
seud
rease
istar
▁drinkers
)],
▁ATPase
▁terat
▁repor
▁incompletely
▁Bec
razole
tia
tribution
▁ammon
▁neonatal
▁sham
reas
aginal
ofluores
fts
▁palpable
▁mRNA
▁129
▁0.001),
▁criter
▁multicenter
▁papill
▁bilateral
olamine
ophag
▁46,
▁reticular
sodium
▁protocols
▁DSM
▁PB
▁incubated
▁combin
uppres
65
sess
rehen
ecre
sion
▁17
▁propranolol
▁hysterectomy
organic
tigu
▁erythroid
angl
ermal
Sepharose
▁pigment
▁5'
▁subgroups
olesterolemia
aminophen
▁Maximum
lamy
athic
onset
▁GAD
estis
casein
▁neoplastic
▁CEA
▁cytoch
▁thems
physe
tomy
▁arachid
▁lowering
▁transporter
▁hypother
▁reser
▁-6
▁122
▁mIU
▁neurolep
phosphon
atell
▁promoter
▁umb
▁94%
▁subjective
▁131
▁reversing
▁insensitive
▁leukocyte
azepam
▁cytochrome
▁homology
▁Hodgkin
▁discon
adder
▁CCK
▁NH
▁memb
onad
▁oxidative
▁7.3
▁nontoxic
divid
ogenic
▁CABG
-1.2
▁neomycin
▁decreasing
▁postprandial
fos
▁ablation
glucose
92
8+
▁pyramidal
turb
82
4;
hydroxy
▁markedly
-2).
▁hypoth
ucl
tiz
▁5.0
hion
▁197
ocytes
LISA
▁extensor
▁averaging
nish
essive
▁proline
▁64
brids
otent
Ca
▁lumbar
▁inhibitors
ergen
regulated
.6%
)2
▁Acute
otropic
▁locus
Ala
-2.
▁hydrophob
.3%)
▁hepatocyte
▁Diagnostic
▁thyroiditis
anserin
▁100%.
4)
▁1980
▁norepinephrine
▁velocities
▁heme
ymme
kets
ressing
valence
▁DF
▁spermat
▁gonorrh
▁premature
taken
adex
4,5-
▁TC
▁heterogeneity
▁definitive
untary
▁radioactive
▁calcitonin
8-
▁100,
isole
lysine
▁Symptom
▁56%
▁93
5;
▁derm
earance
▁kinetic
▁Functional
arrhy
selec
▁BP
iatic
▁21,
▁tau
▁intensities
▁exons
▁graft
▁phosph
ministration
▁discontinu
▁tendon
▁Increased
▁196
▁axon
▁intraven
acetyl
kelihood
▁glycine
adian
▁HTLV
▁theoretically
▁200
▁199
ochrome
▁progen
lax
▁reflecting
▁glycosylated
▁Pseudomonas
▁40-
▁oes
▁precipitation
▁Serum
72
▁deliveries
▁aorta
otroph
embrane
▁resour
▁satis
▁Higher
▁(300
▁recom
▁sedative
1.1
▁radionuclide
trodotoxin
▁margins
25)
▁89
▁retard
▁cytosolic
▁lam
▁adip
▁poten
▁prosthe
▁congenital
▁glycosyl
▁MM
▁questionnaire
yroxine
▁herpes
insulin
oA
▁sympathetic
fate
omiting
azem
▁0.00
lysis
▁31
▁aspiration
mokers
▁Oral
7%)
olam
▁interfer
▁mellitus
itone
retion
▁immunity
erver
▁initiate
uble
▁prophylaxis
▁50%,
motic
thood
▁breaths
▁corpus
otre
▁cortical
:3
▁Intr
tRNA
▁sarcoplasmic
ffin
▁35%
▁daytime
.1,
▁10,
ochemical
odil
▁8
▁abscess
orec
14)
▁hydrophobic
▁obese
▁chemotherapy
▁scinti
-125
-1-
esthetized
▁ADA
▁inhibits
▁abnormality
potential
▁urine
▁gentamicin
apeutic
▁(8
13
▁OA
▁angina
▁antigens
eclampsia
▁Disease
▁relaxant
▁incorporation
selective
▁evidenced
▁3.6
iably
▁residues
▁allogeneic
▁thymocytes
aemic
olig
▁peptides
▁1989
pregnant
▁neutrophils
▁implicated
▁hormonal
onc
▁parity
▁regression
Hb
▁abstin
1/2
▁tumour
tries
▁1.5
ASA
▁8-
▁cis
▁erythrocyte
▁regeneration
▁agglutinin
41
▁retardation
▁kb
▁subtype
▁isoelectric
▁parasite
▁modalities
▁vertebral
▁lipase
7-
trum
▁1.25
▁EGF
ilization
enec
▁lupus
tissue
▁verapamil
▁mediated
tene
tif
▁fasting
opramide
▁monos
▁nucleus
▁Secondary
▁specificities
icine
70
pendent
▁Retrospective
▁allergy
▁osteoporosis
▁benzodiazepines
duce
▁clonal
▁pancreatitis
.10
▁hippocamp
▁ingestion
▁practitioners
▁38%
▁phenyl
thym
▁pathophy
▁paralleled
otone
rague
tak
▁arter
astom
▁basal
▁diastolic
▁50,
acchar
uoden
▁preservation
ronectin
lastic
oflurane
▁2.6
▁avoidance
utyr
ticular
▁serotonin
▁examining
▁microbi
▁arteriosus
aneously
moking
▁clinicians
otassium
▁4.3
▁capillary
▁132
▁isot
▁malignancies
▁parental
▁questionnai
1-2
▁basolateral
▁toge
▁gradients
▁electroly
▁0.2,
▁induces
ranged
▁LDL
▁segmental
-24
/10
▁0.14
▁50,000
▁cate
▁intestine
▁helix
fraction
yclo
▁cholinergic
▁monol
▁11-
thromb
/1000
▁progestin
▁plots
▁pituitary
yron
450
▁cyan
▁receptor
▁selective
▁estimating
oclonal
▁cumulative
▁refrac
▁phenotypic
clic
odia
vaccinated
▁Whereas
▁10(-6)
▁phosphatidyl
▁impaired
▁phag
▁220
dial
▁0.98
▁Gly
inhib
azoline
▁PHA
▁accel
▁dehydration
ritic
▁osm
ctomy
mia
intestinal
uccess
okine
▁ileum
-6.
▁7.6
olateral
▁resear
9-
▁hypertensive
▁infarctions
▁recombination
▁44
uclear
▁envelop
▁occl
▁circadian
▁persistently
▁10(-9)
67
▁esophagitis
▁57
▁recruited
▁NADPH
blockers
orsal
▁doxorubicin
▁granulomas
▁sensory
▁valpro
potassium
tococcus
partum
▁newborn
▁kinases
apsulated
helin
▁vulgaris
5%,
orepinephrine
▁lectin
mediated
▁neutrop
hydryl
thyl
▁reversal
▁97%
▁2.8
hydrop
▁titer
▁rash
▁azathioprine
▁-4
▁mite
▁15%
phenyl
▁gastrin
vitamin
▁conformation
conver
▁11,
▁0.01
rocy
▁pacemaker
▁cytologic
▁4.0
▁proteases
tochemistry
▁pathways
▁methylation
▁treadmill
glutamate
▁Cul
peptide
▁carbonate
▁Significant
▁collateral
teroidal
▁PGF
utaneously
sA
▁endotoxin
kephalin
edded
▁degraded
roprusside
▁Elec
Tyr
▁activating
▁sigma
▁neoplasia
▁deletion
▁Cd
▁Likewise
▁lymphomas
▁monitored
roscopy
-40%
▁accumulation
▁synapt
▁2.5-
glutin
▁analgesia
▁metast
teral
mentation
▁recordings
▁acids
▁ald
▁mucos
▁secretory
uminal
apeu
▁manipulation
▁compartment
▁abd
oratory
▁fluctu
▁longitudinal
▁radiol
▁smo
▁synaptic
▁bilayer
lies
▁inorganic
▁immunized
▁formulation
▁ANP
▁80-
▁thrombo
▁hypertro
clo
▁identi
uretic
▁femoral
ferrin
nary
▁estrogens
diagnosed
▁13-
▁foc
▁11.2
▁0.99
▁androgen
▁thi
amole
▁70
▁resul
▁diffus
phthal
▁displaced
▁Ninety
otor
▁reproduc
▁intercourse
▁0.
▁hemorrhage
▁tubule
▁murmur
▁predominant
hydroxylase
▁receptive
▁micron
▁weakly
▁Apgar
▁sexes
osus
▁endothelin
irradi
prising
▁fertilization
▁untreated
aminop
▁LV
▁cla
▁linkage
▁ppm
▁pleural
▁responsive
2)
▁venous
▁5.7
▁7%
diabetic
▁54
▁pts
▁furosemide
▁obstetric
inase
treatment
idating
alasin
▁initiation
▁pacing
icillin
osome
▁NaCl
▁pulses
▁Pretreatment
▁(1,
▁potentiated
▁prenatal
ogenous
▁IgA
treated
23
▁gamma
▁focal
tyl
▁DMP
▁studi
hap
tabl
▁protease
rotid
▁cytotoxicity
soluble
▁regulating
90)
▁concomitant
teric
-2-
▁LTB
▁placenta
uric
▁immunoreactive
▁0.15
scop
feren
▁microscope
esthe
▁progressed
turally
trous
ignific
▁defec
▁transplants
oxif
▁incision
▁unusually
bred
▁wors
ystic
▁contiguous
▁10(-7)
▁genotype
AFP
▁nicotine
carbox
▁glycerol
▁chickens
▁126
▁curric
uridine
▁underwent
alsy
▁ascorbic
▁cerebrospinal
▁93%
ocardial
▁homogene
▁isolates
▁omeprazole
opr
▁administered
sia
▁45%
▁SPL
▁kerat
▁elevation
▁connective
ologic
fec
azolam
▁Lys
▁88%
aline
-9)
▁34
▁vaccination
otypic
▁converting
▁immunobl
▁activator
ifugation
ported
▁inoculation
dia
▁ana
▁redox
immune
▁distal
▁endocrine
▁sclerosis
iciencies
▁gingival
▁ultrason
▁commercially
▁isoforms
▁cured
MW
▁eluted
illi
oscop
▁lovastatin
▁vasoactive
modulin
anat
▁decayed
▁indis
▁occlusion
▁cyclo
▁Tran
▁induc
ulatory
entified
▁nadir
▁mortality
flamm
toxicity
ochem
▁ADP
▁spontaneously
sAg
▁altering
▁targe
troph
▁arachidonic
arbox
▁Seventy
PV
▁precur
▁stimuli
ellar
drug
▁autop
▁Evid
▁alb
▁hered
gnetic
▁proliferation
▁enlarged
▁0.1
▁epidemi
▁neutrophil
▁deoxyrib
▁25%
▁0.5,
▁agon
ophila
▁63
ovine
ingers
fir
▁angiotensin
▁thirds
▁Eleven
▁withdrawn
▁proce
plas
cys
natal
omatic
▁chronically
▁Kd
tion
▁intra
zyme
▁bronchodilator
nee
yro
▁lisinopril
olytic
▁noc
▁valu
▁algor
▁spor
▁0.4%
iflu
▁electrophoretic
▁conjug
▁8.3
▁dizziness
▁maternal
▁isolate
▁bony
▁kD
▁aberr
▁cartilage
inyl
ystag
▁amput
epam
kephal
esium
▁leucine
itoneal
▁striatum
▁potent
▁controver
▁GV
▁peroxis
▁bulb
▁cardi
▁progression
▁membranes
▁disulf
▁immobilized
▁gyr
▁interventions
▁evid
ensory
▁mammary
▁cutaneous
▁(95
▁concom
▁heterogene
▁parac
▁Hg
osides
puts
terologous
▁bathing
otoxic
▁reac
tam
▁tol
▁hypercalcemia
79
▁somat
▁cohorts
▁stimulated
▁PTH
ispanic
hyp
▁distrib
NAc
fib
▁19
floxacin
▁spermatozo
▁SLE
sied
otides
oxygenase
ifferenti
-34
-5-
▁156
▁normotensive
▁subcutaneously
▁operative
▁infec
▁unlabeled
▁thresholds
mol
▁cerv
▁mitogen
▁recurrent
▁biopsies
▁(94
▁intracellular
▁16,
▁puber
opi
▁ischaemia
▁cleaved
daily
▁stoichi
▁EA
▁nuclei
ionic
44
iatric
40
▁2.5
▁symptom
▁400
▁Increases
independent
▁8.6
portant
▁SHR
▁phenomena
carb
roscopic
▁alcoholics
muscle
esic
▁metoprolol
▁oxidase
▁caloric
aturation
immuno
▁uro
▁115
buterol
nthe
▁constituted
odine
▁brid
vac
▁infused
▁halothane
sibly
▁aerosol
▁(23
▁conduc
▁implying
▁carcinomas
mediately
ophils
▁flanking
▁modulate
▁keratinocytes
▁carbohyd
▁dihydro
▁shortened
▁lipoprotein
▁transpor
▁presentations
▁reperfusion
▁hemorrh
lipid
etence
4%)
oxia
▁elicited
aryotic
▁respec
▁calorie
▁puncture
▁electrophoresis
▁currents
▁panc
▁1985
▁Inhibition
▁aneurysm
▁stimulation
ocl
oxygen
▁diarr
▁discontinued
▁homoz
vices
ophen
▁macrom
inj
inergic
(3
▁cardiopulmonary
▁10%,
▁premenopausal
orectal
oretically
▁Myocardial
aemia
toxic
imeth
▁thrombosis
▁epit
57
▁(0.9
▁LN
ipitation
▁saliva
▁exploratory
iotic
▁80,
▁phosphate
▁upstream
loidy
rever
diabe
▁inversely
yx
▁granuloma
ilibr
▁radiograph
▁masked
▁RP
Ig
heal
uted
▁LR
5%).
▁immunocomp
▁succinate
iazide
ocin
▁10%
▁ow
▁microb
▁indicative
▁Highly
agonists
▁Escherichia
osomal
ocys
▁assemb
amicin
▁stepwise
▁triceps
▁mesenteric
▁neurop
▁consecu
▁pneum
▁ultr
performance
▁luteal
diagn
effects
sensitivity
▁toxicity
glycerol
▁macrophage
▁PCR
▁chlorhexidine
▁6.
oagulation
▁motif
PGF
▁hazards
lyb
▁Neu
▁admissions
▁6
▁ampicillin
▁replic
rents
/2
5,
atation
▁exchan
▁(67%)
▁discom
▁1970
▁(92
▁corresponded
▁pellets
▁lymphocyte
carotene
▁glucose
▁adenocarcinoma
▁varicella
▁arous
tradiol
▁4-
lycer
▁struc
/30
▁(69
▁derivatives
▁reactivity
quine
▁twitch
himb
▁estrogen
▁angi
▁CHD
▁nigra
▁tonic
roitin
▁180
▁triglycer
acrylamide
oplasmic
2.
onephritis
sible
▁paroxysmal
▁somatostatin
▁nonpregnant
anav
lymph
▁differing
▁synergistic
▁(90%)
ffeine
▁neutroph
▁prostatectomy
▁1:
epti
struc
▁examinations
ronch
effec
▁fertility
▁regurg
▁Lipid
▁concordance
▁Lym
▁(43
▁derange
▁glutamic
▁multim
▁covalently
▁rati
▁70-
▁fum
▁Injection
▁trigg
▁18
▁cyt
▁exis
▁motone
▁squamous
▁multis
▁disulfide
.0)
▁unrecognized
atoid
ameter
▁operon
▁vege
▁blockers
sively
▁audi
▁0.54
.8%
▁75%
▁advan
▁cortic
▁fmol
▁anaesthe
significant
oppler
osynthe
▁inotropic
▁endothelium
▁saturable
▁VP
terone
helium
tium
-65
▁AVP
▁PF
▁spindle
▁pyram
▁affinities
keratin
farin
▁erythema
clerotic
9%)
▁arthritis
-60
▁prednis
▁leukemia
▁augmenting
▁vascul
methyl
▁serologically
geneic
▁monophosphate
▁bicarbonate
▁susceptibility
▁calor
▁bp
▁dextrose
DH
▁sperm
blind
▁solub
(+)-
apamil
oxane
meth
▁tumours
sectional
-90
▁[125
▁triphosphate
▁hygiene
▁tib
lue
▁stratification
anine
▁cavity
▁Increas
▁electrode
▁sampled
chym
nitro
pregn
▁calmodulin
operidol
flammatory
▁amp
orbol
▁exerted
▁cardiovascular
▁purification
opathic
▁monoclonal
omal
-22
39
▁antif
rox
▁aspartate
umetanide
▁poorer
comitant
erated
▁0.42
inemia
lastoma
▁deposits
▁145
iphene
ept
▁gyn
admium
▁prospective
▁visc
▁pools
▁encephalopathy
adrenaline
tamine
taz
▁antimicrobial
planted
stimulating
▁nonin
arrh
▁oligonucleotide
▁placent
▁Pseud
▁patency
▁iso
kinin
eptides
▁emboli
ethylene
▁logistic
▁hairy
▁incubation
▁messen
▁mice
▁sensi
▁sciatic
▁mutant
▁mediating
▁hydroxyl
ereb
▁0.2%
chol
letion
▁accumulated
▁bran
▁PAI
▁blin
▁diuretic
▁salivary
ecal
▁cleavage
▁amygdal
▁cocaine
▁9.2
▁ank
antoin
enzyme
apid
▁carp
▁59%
glycerin
tine
tually
eared
▁postpartum
▁carbam
▁shif
▁arth
gus
▁194
amphenicol
▁saturated
▁intravenous
▁atherosclerosis
.4%
▁CBF
oic
▁Ventricular
▁dermatitis
ilized
▁resembled
▁183
▁hypertension
urgical
▁CRP
titute
ophysical
lamydia
50
tizing
▁yr
▁histologic
▁progest
anding
▁VV
▁smear
.2%
▁crom
▁recombin
ogeneic
▁regulate
▁Failure
▁82%
▁compart
▁allevi
▁progressively
aryl
▁turnover
▁gels
▁750
▁electrolyte
▁polycystic
myc
▁elast
▁neurones
▁scin
oceptor
etoprotein
▁trig
irubin
▁(60%)
opsy
▁proteolysis
stro
orubicin
cence
/100
luent
▁elemental
▁perox
▁cigaret
▁95%
▁8.
icep
▁surgeons
29
adenosine
fractions
▁discomfort
▁(75%)
4]
▁Sephadex
▁leakage
yrate
eal
▁correlating
▁pla
46
▁absorp
▁0.38
▁pate
osacral
▁fluids
inflammatory
▁functionally
▁deletions
pation
▁simplex
▁polymorph
dihyd
▁multivariate
resis
administration
▁laminin
0.0
▁iod
melan
▁retic
▁membrane
fusion
▁physiology
▁nmol
▁Lact
▁enhances
▁hematopoietic
▁crystall
▁99%
ituit
ineal
▁71%
▁erythromycin
▁124
chymal
plen
▁0.60
▁0.55
▁supplements
poor
▁proteins
▁carcin
oidal
▁fetuses
▁Hyd
9).
▁Subjects
sive
▁plantar
odular
▁PEF
▁indirectly
SAID
xime
▁COPD
▁muscarinic
▁enzymes
▁anae
EGF
▁microns
▁innervation
▁117
▁Compared
▁28%
▁(26
▁conjugates
evoked
agic
onuclease
▁0.41
73
▁isch
oxazole
umably
▁prolongation
ubiqu
▁amph
▁congestion
▁pylori
clamp
▁tracts
▁prol
▁(1.0
▁0.7
iferative
acids
fetoprotein
▁casein
.5%
▁threefold
▁ventral
perature
▁6.3
▁(1.3
ucas
▁inherent
duced
▁hypers
▁ischem
▁0.27
▁tolerated
▁laparoscopy
tetra
psin
▁65
▁instruc
▁hypotension
▁erythrocytes
-70
▁198
▁50-
conduc
▁600
▁bile
fat
-1).
▁polymer
▁116
▁ischemia
▁corticosteroid
▁verte
▁peptide
56
1-
▁kDa
▁ATP
▁4.6
▁grafts
▁protec
tox
▁nonresponders
5%)
acycl
nec
▁TSH
timal
tability
▁6.8
uin
▁zinc
▁echocardi
chemical
▁17,
linking
▁Groups
uting
▁Factor
▁8.5
▁167
oplasm
▁(2.5
▁renal
▁saline
jec
▁infarct
▁Fc
▁60-
lier
▁158
▁acetate
▁nM
▁cephalosporins
31
inic
▁cann
▁MH
uncture
▁72%
▁PGI
tate
▁catheter
erative
▁Experiments
▁0.11
▁7.1
ropo
▁alkaline
▁sutures
eak
▁psycho
edding
▁antisera
armac
4+
▁astrocy
▁wt
▁Tc
ipro
opressin
ometri
▁hir
Ls
▁phospholipids
ologous
oglyc
carinic
▁0.08
▁schiz
▁transient
EMG
▁accessory
▁presynaptic
▁14.
ographs
-36
serine
▁revised
dehyde
▁maximally
▁deprivation
▁Staphylococcus
▁nuclease
▁subsets
▁tubes
8,
ACh
otri
bly
▁supernatant
▁allo
ropath
▁morb
▁abundant
▁dosage
▁phosphorylase
▁-1
mum
orpor
▁PSA
tages
▁Combin
▁hetero
▁uric
▁[35
ropathy
sorption
▁lavage
rested
▁TB
keleton
▁yiel
dU
▁allograft
▁elimin
jun
▁bup
▁14,
▁mobilization
azepine
iasis
renaline
▁cyc
gulation
▁0.67
▁definite
▁stres
▁enriched
▁haemodynamic
▁adherence
ogenesis
albuminuria
▁reinfor
▁differs
ranolol
rangement
▁biosynthesis
▁2.3
▁10.4
▁uptake
athe
▁NSAIDs
▁superoxide
gressive
ensities
/12
erad
▁purified
2+-
phal
▁medial
▁parenteral
▁vancomycin
▁hyperb
▁beha
▁2-
antibodies
▁acetylcholine
▁Salmonella
▁dox
▁41
4),
ardia
.00
odies
▁fas
▁conception
antigen
▁periphery
erving
umerous
tious
aldosterone
▁70%
▁exud
▁tachycardia
▁consis
▁ocular
▁insoluble
▁(12
▁44%
lec
▁hap
atid
▁lipophilic
5]
▁implanted
▁MBP
sant
romes
▁WHO
lip
sensitive
1).
▁serologic
went
ducts
anic
ilus
organisms
▁ranged
▁evoked
▁fulminant
▁ultrasound
▁1)
-50%
opulation
acting
▁acet
pinal
700
▁genomic
▁blot
▁ibuprofen
illar
elic
attern
ATPase
0%
▁contractile
▁summ
dural
0)
▁GTP
▁degrad
▁pyel
▁ovulation
▁herni
occus
ticle
▁anesthesia
ritin
▁0.23
▁multin
▁glutathione
▁Triton
▁IU
oderm
▁(70
▁nodule
timulation
converting
▁hCG
▁correlate
20
▁statis
▁unil
▁Thirty
▁(0.6
▁deple
maximal
▁attained
HCO
phasic
acin
▁PMS
.5
▁24
▁psoriasis
glut
lood
ocysteine
▁0.01)
▁ejection
allik
▁dipyridamole
ths
▁inhalation
▁acco
▁abnormal
▁hyperg
▁(100
▁juvenile
▁Plas
sych
▁cG
ylline
aptic
▁270
▁inpatients
phil
▁29,
▁Thir
▁Animals
▁penetration
labelled
▁Combined
▁151
▁5.6
▁carriers
thmias
1:
▁adi
eptidase
roat
-(1
ochle
▁luteinizing
▁pem
▁wee
onine
▁lact
▁14-
▁indo
overed
▁numb
▁tymp
▁intub
oventricular
▁gastric
oxid
-15
▁vesicle
▁-5
▁(62
▁Ps
unced
▁amplification
▁hydrop
reatine
oblastic
▁0.97
▁deficiency
dipine
operative
▁92%
▁340
-4-
▁preceding
▁fibroblast
ostomy
▁transferrin
27
operatively
▁phosphatase
49
▁hapl
odiaz
▁Progesterone
▁solitary
▁arrhythmias
▁Myc
▁anticonvulsant
lyce
▁hydrochloride
▁25
▁indus
▁Swed
▁lumen
▁24,
merc
▁alp
▁Tyr
▁fractionated
tensity
▁9.
▁Inhib
ylamide
▁provid
moderate
9%
▁DVT
▁aden
piratory
acental
polar
▁ferrous
▁sti
81
dotoxin
toph
▁mutagenic
ilical
helial
romycin
loro
▁ductus
▁scre
▁2.5%
▁38
oung
phosphate
▁22%
toid
▁predicting
histamine
▁19%
▁diabe
▁tremor
▁thromboembolic
▁determinant
▁58%
▁usefulness
opus
▁myo
▁lamina
▁baro
▁ruptured
▁relevance
▁methotrexate
atrial
▁atria
bility
indolol
▁enteric
▁afferent
▁12
89
brom
▁monomer
uresis
butamol
▁tricyclic
reness
▁Acad
63
▁methadone
87
tension
▁proteinuria
▁Screening
▁ori
▁specimens
5%),
▁descriptive
▁exhibited
▁0.30
robial
tism
luores
ynaptic
▁30-
▁exposures
▁overweight
▁trich
ardias
liters
▁myof
ffinities
▁Clinical
▁EMG
▁sedimentation
-52
▁discharge
▁paternal
▁chromosomes
▁phe
▁subpopulation
▁encomp
▁lacked
▁adren
phen
ecretory
availability
kD
abdominal
▁isoniazid
uppression
thma
iplinary
▁socioeconomic
upus
▁(56
▁12.5
▁conformational
22
tetr
abain
▁schem
▁(38
▁caudal
▁intravascular
viron
ospor
▁endarterectomy
estig
▁hereditary
▁hypoglycemic
▁0.95
▁(0
▁protoc
▁medically
▁sequentially
ivered
▁(42
elan
▁16
▁concentrations
▁interpre
▁hypocalcemia
▁Reduction
▁autoantibodies
▁fulf
ller
ulsive
▁chan
▁transcription
blocker
▁nocturnal
▁bundles
5),
▁chond
▁modeled
▁cysts
▁duodenum
▁suspensions
▁diminished
▁([
▁(4%)
echan
▁0.65
.5.
erb
6,
▁40%.
▁interne
ynthe
ygen
luding
▁(9
imens
iminary
▁flexor
opar
▁256
▁wean
▁cerevisiae
utable
▁epidermal
▁MV
oprec
activating
tally
▁insertion
▁HL
▁parame
▁TP
▁melan
1,
▁multiv
oreg
▁189
▁polyclonal
▁Mn
ituitary
etal
▁vesic
▁prescribing
▁saliv
ocyte
viruses
LDL
▁perit
▁unex
▁infrequently
Nase
▁Forty
ophil
▁cuff
amines
▁prednisolone
osidase
45
▁evol
till
▁illnesses
▁infrared
▁comple
▁lutein
▁yielding
▁haem
▁viscosity
▁modality
▁recombinant
FEV
▁thrombotic
▁aerobic
▁solvent
▁rheumatoid
▁increments
ulph
▁coagulation
▁histamine
0.1
▁lymph
▁supernatants
▁(25%)
osom
Hyp
ediatric
▁disper
84
8]
▁mL
▁pharmacy
▁secretagogues
activation
-6)
▁analogs
▁(5%)
▁constitutive
▁stimulants
vents
▁arteri
idate
▁glycemic
oxin
wes
▁0.0001).
▁cholest
atase
▁exce
▁thio
amol
▁tachyc
itant
icardial
robic
yronine
idazole
▁deficit
▁20
▁buspirone
▁abdomen
vascular
▁10(-5)
▁undere
▁40%,
▁heavier
▁adjus
▁characteris
▁spati
deoxy
3+
▁10(4)
▁tetracycline
(2+
▁sphinc
stress
▁hypog
gents
phila
▁61%
▁hippocampal
▁synapses
▁10(6)
ocomial
▁confounding
odds
▁hypoxic
▁paradox
▁levodopa
tum
LPS
ayers
disc
▁spectro
▁standardized
▁Subsequent
▁grouped
▁ure
▁5-
▁intrauterine
▁pathology
▁benzo
▁(13
ochondr
▁Histologic
▁(7%)
▁nonspecific
▁293
▁exponential
▁3.5
imination
▁Relative
▁teratogenic
▁clones
▁antero
BV
▁Gluc
▁varic
▁FSH
6)
.0,
triglycer
▁ane
rosophila
otin
ventil
▁dihyd
subunit
▁bradyc
▁transcripts
▁anticoagulant
loride
▁sarcoma
▁epididym
▁granulocytes
▁histochemical
▁ae
90
iteal
▁ratios
▁hospitalization
▁hypocal
▁Previous
wann
▁0.3
58
▁metabolism
andard
certain
rotal
astatin
bilities
ogenetic
acted
▁specificity
ochemically
oscopic
▁sacr
gland
▁virtu
▁uncontrolled
induced
Phe
▁pharmacokinetic
pecific
vated
▁176
ressive
exis
athioprine
0%).
▁encodes
▁tubulin
estradiol
▁stent
roprus
yrid
▁76%
tory
▁arginine
▁inhal
tization
asses
▁ionized
▁adminis
▁anomaly
▁pressor
sorbed
▁104
18)
directed
▁cytoplasmic
▁redistribution
aturated
▁inducing
quid
▁9.0
heximide
▁cyst
▁transduction
▁stained
▁influenzae
itoring
opathological
adrenoceptors
▁0.70
▁21
▁lactation
rogesterone
cessive
▁marrow
within
▁inadequ
7;
▁postnatally
riched
▁(50%)
▁autoimmune
▁follicular
▁metabolite
▁inhibitory
olerance
▁stenosis
▁Americ
▁monolayer
itidine
▁GH
▁fung
▁9.7
▁TA
ods
▁emptying
▁neuropathy
▁microvascular
▁0.63
▁obesity
▁granul
▁malaria
iagn
▁pathogenesis
onyl
▁1983
▁0.40
oplasty
ygo
PCR
▁obstetr
aterally
▁mannose
invasive
▁affinity
tivities
▁atyp
-14
ogl
▁contracep
stranded
▁metastatic
▁venti
▁analysed
▁postoperatively
acyclin
▁rehabil
oproteins
▁antec
▁quin
▁stratif
▁Patient
hern
alveolar
▁subpopulations
▁48
▁(1.4
/6
▁3%
▁pancre
hydro
▁myeloid
odipine
▁subcl
▁testis
▁saphen
semin
▁excre
▁poin
▁diges
▁84%
ulitis
▁stimulating
▁ventricle
-200
ected
▁20%
▁inactive
▁Factors
▁supra
▁smears
▁antic
▁inflammation
dL
▁predic
luc
ungal
yrib
▁dete
IgM
▁cardiomy
▁benzodiaz
bral
▁alcoholic
chicine
▁restric
▁embryo
▁tubular
▁airflow
▁chloro
jury
▁comprehen
▁preventive
▁53%
▁modifying
pecies
▁centrifugation
▁responders
▁athe
azep
roscopically
urane
▁intestinal
▁muta
▁TGF
▁lymphoid
▁29
▁NMR
▁accessibility
tional
generation
▁synthesized
▁rehabilitation
▁surgically
topril
phrine
▁interc
▁peroxide
▁salbutamol
ocyst
▁800
ygdal
intensity
▁voluntary
immun
▁nonsmokers
▁splen
stolic
5)
▁0.49
incubation
▁establ
▁reversed
▁abstinence
phosphatase
obarbital
adren
▁Pneum
▁characterize
▁162
TNF
▁autoanti
▁cycloheximide
▁dissociation
▁macrophages
▁xanthine
62
▁typh
▁radiolab
▁congen
300
▁4)
pir
acute
▁ventricular
▁pK
83
▁menopause
crip
▁injec
▁mA
▁euk
ocaine
▁comprised
▁clot
▁kinetics
tructive
Tc
▁transported
▁Infants
▁dB
▁prednisone
entral
▁3
▁agar
▁suppressor
25,
tinguish
trus
▁lith
▁spermatozoa
TSH
ergency
wk
▁cotrans
▁3.9
▁polyp
▁irrigation
▁ascending
ampl
oracic
resting
▁rhabdomy
▁tryp
▁inflamm
+]
▁manifestations
odg
▁molecule
weighted
▁Infection
▁0.75
▁spind
glucosidase
▁hepatitis
Ds
athione
▁dextran
cus
▁rabbits
▁pathologic
▁transduc
▁IB
1)
▁atropine
▁77
expressed
▁prono
amino
▁socio
▁coenzyme
▁GABA
▁cervical
▁retention
▁motility
▁colorectal
▁eti
▁alcoh
▁antid
▁mesen
▁spectroscopy
oreceptors
iol
omat
▁complementary
▁testosterone
▁LD
▁CG
0%),
▁HRP
ymp
-23
▁3.
▁mitochondria
phor
▁7.4
▁nephropathy
▁99
onucle
▁underestimated
▁Cardiac
▁resusc
▁Subjec
▁postin
▁amiloride
cyt
4-
urea
▁contractility
▁targeting
▁serine
▁344
kinson
hydropyridine
carbon
42
▁radioactivity
-0
▁stabilization
igaret
▁11%
▁(9%)
2+.
▁foci
▁MAbs
aternal
▁atopic
▁phosphodies
▁longus
opha
inoc
▁90%.
▁communic
muc
▁alterations
▁Sprague
▁effec
▁fractions
▁Depression
▁beats
bular
▁linearly
▁births
▁0.01),
yses
▁respiratory
dic
ervated
▁rigorous
throm
▁144
▁uv
▁endoc
hospital
ectin
▁aromatic
hyd
▁ultras
▁aspec
▁glucocorticoid
regn
▁phosphor
▁irradiated
▁immunoprecipit
▁diets
▁neurologic
▁synthetase
tural
feron
▁vitamins
truc
▁cytokine
uretics
▁testicular
▁chromatographic
▁fibers
GABA
▁EGTA
▁subcellular
ritish
(2
▁biop
tioned
▁excluding
98
▁ganglia
▁50
▁62
▁Depending
▁collec
iesis
▁inward
▁sensitivities
3.
trates
prol
▁correlates
▁Phosph
odynamic
▁endogenous
▁disrup
illus
opausal
▁prolif
▁transmitted
▁colonization
leuk
▁sucralfate
▁brainstem
olip
akary
▁induction
▁infections
▁calcification
ischemic
▁nosocomial
ocamp
▁15.
▁(=
tact
▁posttreatment
sistent
▁iodine
▁homologous
▁Pregn
▁Surgery
disciplinary
▁inhibit
▁indomethacin
000.
chrom
▁ethyl
▁reper
ropine
▁5.
▁muscul
atical
tro
tead
▁Chronic
▁152
▁dele
▁0.05)
▁streptococcal
▁persists
▁VO
▁HDL
▁111
▁contamination
▁81%
▁fla
ietic
0%.
thick
▁anastomosis
othal
▁reflux
▁thyroidectomy
alc
▁indi
hyde
▁hyperpolar
78
.0%
▁0.07
gA
▁200-
-6-
▁glycoproteins
▁biliary
▁splenomegaly
eric
accharide
▁165
▁Calc
0-
▁(75
reases
▁ventilator
▁glycosylation
▁0.29
mur
ults
▁detectable
▁10.
tagland
▁cyclic
▁myelin
▁2.4
tran
▁dendri
tensives
Daw
▁morphologically
▁shor
gans
▁caudate
▁60%
▁urea
gely
▁mediator
enteric
urium
▁synthe
▁favored
▁-7
▁elongation
▁assayed
illary
transformed
▁0.02
▁prostagland
-1,
positive
▁fluor
enol
▁incomplete
▁mesang
▁bradycardia
▁12%
/8
LH
▁phleb
▁10(
ositi
anide
▁cytotox
▁amyl
ophageal
ociation
▁epitopes
ubs
orption
iloride
lob
▁112
ipit
▁loci
▁10(-4)
▁ouabain
▁sensitized
▁lymphatic
▁indications
▁minus
▁ammonia
▁(24
80
▁pulsed
opathology
-16
aind
▁placebo
▁mononucle
injection
▁quantitatively
stimulated
▁demonstrates
▁systolic
oxicillin
rologic
ffec
▁transcriptional
▁subc
atosis
▁subarachnoid
▁collagenase
▁superiority
ancomycin
▁necrotizing
adily
▁soy
▁Bacter
ochemistry
▁biologically
xual
▁fertile
▁sple
▁aberrant
vic
▁Levels
▁actu
▁TCA
trial
▁techniqu
▁transfusion
▁mutagenesis
▁146
atitis
▁46%
acyl
▁endot
restingly
▁accumulate
▁quantit
▁cytology
▁9.9
▁hyperch
▁cartil
▁sequelae
▁2.7
▁atheros
▁orally
▁viability
omycin
0.6
▁MG
▁thrombocyt
▁bioavailability
5,000
acid
▁junctions
▁strand
tonic
▁aggression
iliac
▁weighed
▁hyperthyroid
tenolol
▁(54
▁27%
▁137
▁147
▁microorganisms
▁catecholamine
▁agonists
▁confir
essation
stin
▁topically
▁0%
▁synthase
▁infar
▁phosphorus
▁exceeded
tral
operox
▁hemorrhages
▁[14
omial
-5)
▁prostaglandins
.9%)
athyroid
phosphamide
crimin
▁(10(
dibular
▁cirrhosis
▁clinics
▁40,000
Glc
▁amyloid
▁neurotrans
▁(1.5
▁tach
▁mammals
▁markers
▁dysplasia
▁compositions
▁detrusor
traction
▁capsules
▁substanti
operated
▁rostr
▁sediment
▁variability
▁prolactin
▁psychosocial
orh
▁axonal
acerb
reast
▁pharmacologic
▁contamin
▁permeability
▁infiltration
▁113
▁mimic
otide
▁astro
vely
▁pregnancies
600
receptor
▁damaging
eces
▁regained
▁insufficient
▁outbreaks
▁bac
trypsin
▁standardi
▁chloramphenicol
orrhea
▁dias
graphy
plastic
▁keto
▁assays
▁traumatic
pyr
▁pharmacological
▁segreg
▁+/-
tive
▁uterus
▁lipids
▁stool
gated
▁sulphate
▁intracerebral
21
olecular
▁eighth
imide
▁anomal
▁transplanted
▁organism
abd
measured
onit
▁creatine
▁antidepressants
▁vigorous
▁spectroscop
ithine
odialysis
▁contraceptive
▁adjusting
cancer
▁acyclovir
▁humoral
zation
▁congestive
isol
▁denervation
terase
▁43%
achnoid
limiting
-4)
tectable
▁atrophy
▁32
▁decreas
▁105
▁Arter
HB
▁anxiolytic
thickness
▁3.1
epine
▁canc
▁vaginal
▁angioplasty
▁glomerular
▁12,
cellular
ectable
▁thymidine
▁tris
▁impairs
▁(1.6
▁hypothalamic
▁(+/-
etitive
infection
xyl
▁bradykinin
rays
▁surveyed
iplin
▁AMP
▁hepatocellular
▁corticosteroids
▁0.0
transferase
▁duoden
▁OC
▁mann
▁inguinal
▁autonomic
ocardi
▁pyruvate
▁Coronary
ucose
▁88
▁formulations
▁thoracic
▁projec
▁metastases
322
▁rebound
▁desaturation
▁whee
▁colonies
aminergic
▁100,000
▁critically
tric
▁bip
ipheral
▁rupture
▁immunosorbent
▁Survival
▁developmental
▁adequately
ulose
tency
ditions
▁organisms
▁buc
tent
onvul
▁ether
▁170
▁excised
52
ofl
ellular
enopus
quit
oplastic
▁polyc
54
siologic
▁deficits
▁retinoic
▁thyroid
▁extracellular
▁dopaminergic
▁incis
▁follic
▁63%
0.4
ectomized
▁resonance
▁Vmax
▁Beta
phrag
ecu
▁ole
ipr
▁menopausal
▁102
▁177
ifferen
ternational
▁bif
▁(30
▁antibody
▁seronegative
▁Hypertension
▁subunit
actam
mittent
▁bronchitis
ints
otyp
ygous
▁Respiratory
onas
isomer
onide
▁verbal
▁thrombus
▁counseling
▁carbohydrates
▁gonadotropin
▁reproducible
▁glial
▁kidneys
▁carboxy
000
▁thymic
▁pulmonary
▁analges
osid
imetidine
▁0.44
▁amylase
▁Differences
▁18-
▁isomer
orphine
▁0.4
ilin
omatous
▁6.0
▁immunoprec
edema
▁neurom
▁discrimin
▁evaluating
▁39%
tained
▁homogeneity
6).
ergic
▁amphetamine
▁52%
▁lambs
▁(400
▁differen
▁glutamine
▁preceded
-25
▁5'-
▁occupational
▁aerob
▁assessed
▁slices
alate
▁Doppler
CDD
▁Clinic
henyl
▁Hb
radi
▁scans
▁amino
▁spleen
▁9%
▁oxygenation
▁cytosol
accharides
▁Measurements
reported
▁Immun
reactivity
icidal
▁adrenal
▁fluores
tering
▁quantified
▁percentages
▁4.5
▁rhinitis
▁unaffected
▁undertaken
▁articular
▁persisted
yel
parathyroidism
▁atten
thanolamine
▁myocardium
▁physi
▁colchicine
urrent
▁Binding
▁adipocytes
▁ovari
▁antagonism
▁splenic
▁esophagus
▁(197
arrhythmic
thre
▁mM
IGF
plate
▁0.06
ulae
▁(60
ipid
▁protons
terolog
eliac
tingu
ordial
amycin
▁CTL
▁radiolabeled
quisition
]-
▁epithelium
atally
▁171
▁(2),
benz
▁antich
avage
electric
▁Sertoli
▁91
▁supplemented
9.
9),
▁HC
▁clonidine
▁resto
atum
brile
66
▁heterozygous
nisolone
atient
▁ile
▁elution
▁abnormally
tinu
lamp
▁ankle
▁posttrans
ivary
▁ingu
▁morphologic
▁additive
▁prel
▁anticoag
▁13
▁(0.
roxen
▁(44
▁pyr
▁doubled
▁attenuated
-3.
▁cortex
▁4-5
▁grains
lamin
rofen
▁insuff
ifed
▁comprising
oea
▁MAb
▁muscular
▁extrav
▁utilization
▁swelling
▁fluoro
▁Hear
lytic
▁mediators
ulmonary
tic
▁maneu
12.
osition
2+
▁dischar
▁liposomes
cutaneous
▁carbachol
▁reacted
cious
▁56
eptid
▁undergoing
▁anoxic
▁antiv
▁dimethyl
tially
▁78%
▁PMA
loon
▁PV
▁judged
ifferentiated
▁residual
▁irritation
▁2
omers
resistant
▁horiz
▁veins
▁suscepti
cents
HF
ATP
IgG
creatinine
imurium
▁extrap
▁(76
clin
▁augmentation
ritis
arean
▁500
▁axons
▁lobe
▁50%
▁obstruction
▁titration
▁immunodef
▁cAMP
▁tissues
tors
▁muM
▁dismutase
▁pathway
asive
thoracic
▁40,
▁6%
▁instrum
▁mug
versely
kine
▁neutralizing
▁reliability
▁valves
▁micros
▁2.0
▁substituted
▁comparisons
ranial
▁ovariectomized
▁topical
▁plasm
▁melanoma
▁8%
▁anticoagulation
zard
▁tes
onidine
▁EI
▁nitro
▁anat
9)
▁DEAE
▁sorbitol
▁natriuretic
▁ach
▁avian
▁antim
▁33
ergy
▁Lymph
lycerol
▁elastase
▁bowel
tinent
olgi
▁0.25
▁wk
▁horseradish
▁Conversely
▁reproductive
▁1500
▁108
▁subjected
▁correlated
▁ambulatory
▁rabbit
▁elimination
▁Thy
▁supple
100
▁slowing
orated
▁Nutrition
-[
ocar
▁0.80
▁chel
▁headache
▁choles
800
▁endothelial
vedilol
thirds
▁presumed
trib
restric
25
▁Streptococcus
▁serological
ercul
EAE
▁0.48
▁embryos
atients
▁40
▁Differen
openia
▁equilibr
▁cytometry
vul
▁murine
ithelial
bearing
▁parietal
scherichia
▁paren
▁37
▁qualitatively
▁analogous
oreceptor
responding
▁psor
▁epiderm
▁mitotic
osocial
▁decreases
▁181
thio
▁-2
3),
adic
porting
▁carcinogenesis
▁underg
vail
▁perone
▁caries
▁excretion
▁semen
▁irrever
cellulose
▁lidocaine
▁commerc
ectom
▁promo
▁(15
▁modulated
▁enzymatic
▁determinants
3]
alian
93
▁BAL
.8
urons
coronary
▁porcine
onomic
▁0.9
▁enrol
▁constitute
▁tachy
▁glomer
▁antenatal
▁dehydrogenase
▁intracranial
19
▁diameters
▁Cells
▁inspiratory
▁regar
▁remission
▁salts
dominal
ymptom
▁(1
▁ovaries
keto
▁cutoff
▁syngeneic
lasts
tidine
▁Stimulation
dens
▁tubercle
-4.
izine
▁immunosuppres
400
▁10(3)
ylase
unctional
▁caud
▁galact
▁stromal
▁40%
▁succin
▁CMV
▁overt
▁Evidence
▁polymorphism
▁dye
▁antagonists
23187
▁sput
▁bene
▁neuromuscular
▁cancers
▁-3
▁schedules
ocarcin
▁medulla
▁methionine
ithi
▁nonf
▁fibrinogen
jected
tig
▁calculi
▁sial
▁naloxone
TPA
ropyl
moid
lude
▁hyperlipid
▁epidemiologic
▁epilepsy
▁20%.
▁dors
▁17-
idone
▁maturation
▁implantation
▁Investig
enters
▁retinal
▁paralle
▁1988
▁59
▁depolar
▁enal
esia
▁Exercise
ilic
hers
▁alleles
▁vein
-32
omyel
▁prognosis
deficient
IFN
idic
ecan
7,000
▁phospholip
sibility
▁accid
releasing
affinity
▁VIP
▁infusion
-20%
▁denat
▁vitro
▁ranitidine
▁SEM
▁adenomas
erally
▁apnea
▁(50%
▁reagents
▁Risk
▁ventricles
▁pene
▁qualitative
91
▁sequenced
olol
▁motoneurons
ompan
cyst
▁antigenic
▁deleterious
▁appropriately
▁ACE
▁esophageal
▁chemot
▁HF
▁0.12
clonal
▁(5)
▁supernat
▁90
▁bacteremia
▁inters
tin
▁(95%
greater
▁durations
▁depres
adrenergic
▁pertussis
▁mutation
▁8,
▁aeruginosa
▁vasodilator
▁128
▁anhydrase
▁anesthetized
Gly
▁(1.2
▁91%
tical
acil
▁ionic
Kd
▁preoperative
obronchial
▁conductance
▁thyroxine
arynx
▁irrespective
▁ketoconazole
▁39
▁datab
▁predisposition
-1)
oinositi
ocular
▁4.
-1.
-5
▁secretagog
▁1%
kage
▁divertic
10-
▁peroxidation
glutination
▁EB
▁15
▁83
mega
▁10(5)
4.
▁95
▁spon
utyryl
tial
ventional
▁genome
▁Respon
▁splenectomy
xia
▁codon
▁insignificant
▁trac
dered
▁monolayers
▁pathogenic
▁pM
▁heterogeneous
pH
bic
▁sphincter
▁1986.
▁differentiation
▁receptors
▁radiologic
osine
40)
▁Ib
▁acin
▁dermat
▁cholera
▁contraction
▁protr
▁ethanol
▁glucocortic
▁3,
▁identif
▁phosphatid
tebral
▁Leu
▁serum
▁transverse
▁chromosome
▁monotherapy
vian
▁microM
▁Measure
▁statistically
▁retinoids
brain
▁monit
▁PGE
▁pharmacokine
▁torsion
▁quoti
-2.0
▁suggestive
▁perioperative
▁pim
▁preexisting
▁modif
▁resection
▁aids
▁schizophrenia
▁TS
4).
▁deform
3,
▁variants
▁heteroz
▁weighing
▁mutations
▁pups
▁surgical
▁eradic
▁medullary
▁streptoc
▁enlarge
▁interferon
▁depr
▁ribosomal
▁intensive
▁glucosamine
uscular
▁efflux
romised
rosemide
▁lacks
▁bir
▁elevated
▁mandibular
lep
▁duodenal
▁necrosis
▁lysosomal
riton
▁localized
▁heparin
▁spikes
▁skeletal
raine
▁pooled
▁30
▁attrib
tryp
▁adolescents
▁goiter
▁gp
▁affec
▁hams
▁effusion
▁choline
tation
▁7,
▁phosphorylated
▁cerebral
ocated
▁0.21
rein
▁cirrh
▁inges
▁reductions
▁defects
▁CsA
▁90.
▁quantitative
eded
entif
pinephrine
▁sphing
▁abolished
-1),
esides
▁7.8
estion
▁calf
otrop
▁duplex
lyl
mortem
▁adul
tility
▁stimulus
▁polyacrylamide
▁potenti
▁Phen
achol
Gs
▁proportions
▁49%
sus
▁cDNAs
▁dysfunction
▁ejac
▁10(-8)
▁(0.1
▁hypothe
lymer
odgkin
▁conduction
▁GFR
eptide
▁arrhy
▁KCl
FGF
oag
▁perme
▁Replacement
▁6.5
▁98%
▁(11
▁intolerance
▁degeneration
▁disruption
derly
▁retur
▁enti
▁insulin
atible
▁forebrain
▁undergo
▁hypothyroid
▁exaggerated
▁fracture
▁birthweight
▁unselected
teroids
▁LH
7).
tiveness
▁bronch
▁predominantly
▁-0.
▁spontaneous
▁superficial
rangements
▁fibrob
irub
▁ACTH
▁1.9
piration
▁arti
▁17%
▁6.6
▁tetr
adm
▁CIN
vity
▁identifiable
ocrine
roline
▁contral
▁pretreated
onography
ighted
-1.1
▁mediate
oprost
▁(20
▁(84
ameth
▁gluc
▁methyl
duction
phadex
▁abdominal
▁unresponsive
▁NSAID
ylic
▁degradation
▁natri
▁chromosomal
tisone
▁10%.
▁bromocriptine
▁hemisp
▁cisplatin
▁Haemophilus
imetry
▁oxidized
▁Epid
-100
▁cytoplasm
▁infectious
▁glutamate
ospitals
▁neurob
▁genetically
▁Comparison
▁unnecess
opril
ralfate
▁seizures
▁follicle
thymidine
▁subclinical
.5%)
trop
reduced
▁lineage
plants
0.
▁hyperglycemia
ococcal
2%)
▁proportional
timulus
kines
▁dysp
onstric
illation
▁cellular
threatening
▁5.4
▁fluoride
geal
▁plasmids
early
▁pell
▁emphasized
▁anhydr
71
.1
clerosis
toc
▁catechol
▁pharmac
▁28
▁Taken
▁6.4
-4,
▁RV
▁competent
ociated
▁bronchoscopy
▁(79
▁0.46
▁gangl
▁gonadotrophin
hemical
▁brady
▁periv
thmic
▁55%
▁maturity
▁morphological
osamine
▁103
▁cros
125
cyclic
sors
leb
▁30%,
▁challen
▁therapeutic
▁visualization
▁tuber
▁irregular
▁terminus
neu
▁synov
fected
itus
▁vasodil
+/
▁transcribed
▁excision
▁inadequate
magglutinin
▁ischemic
aturity
▁shedding
▁substitutions
▁conges
▁expon
orphin
▁dissec
▁terminals
▁outflow
▁Haem
▁16%
▁139
▁hep
▁phentolamine
12-
RNA
athy
▁bladders
OH
▁IGFBP
▁organelles
▁HM
▁syncope
▁compli
▁chemotactic
▁Plasma
▁hypotonic
▁Bacterial
▁pancreatic
occal
▁hypertrophy
tituted
rance
▁(99
formations
▁fructose
▁myocytes
▁relapses
▁efficac
▁protracted
romy
▁elevate
▁chor
▁166
▁nif
33
▁11.6
▁distinguishing
ithin
▁1.7
ostatic
trition
▁confirms
▁nondiabetic
▁subunits
▁produc
▁plasmid
omonas
▁intermedi
▁particulate
▁6.1
emia
electro
hydr
▁vivo
▁reticulum
▁duc
▁immunotherapy
obacter
phosphatid
uvate
▁spi
▁nitroglycerin
▁emerg
▁granulocyte
▁parox
▁strom
▁latex
▁autopsy
▁mating
▁20,000
0.8
▁abor
▁juven
enicillin
8),
▁effic
▁extrac
▁ganglion
▁candidiasis
toxin
erable
▁predis
▁homogen
▁graded
▁fatigue
▁striatal
▁axial
▁cran
oprim
3%)
▁biphasic
Pa
▁mmHg
▁bilirubin
osts
associated
galy
▁HBV
▁uncom
systolic
▁soluble
▁Preliminary
omies
▁imaging
▁7.
▁renovascular
▁hematoma
▁umbilical
▁therapeu
-70%
▁bovine
▁168
omegaly
▁atri
▁cyto
▁clus
▁coronary
▁Fifty
echn
udin
itum
▁immunofluores
ariate
▁RNA
CRP
BH
▁micrograms
▁outpatient
opro
▁urinary
lox
▁preferen
jac
▁elicit
▁cerevis
▁0.33
timate
▁195
▁discriminate
tically
epines
▁satur
▁EF
tures
▁expectancy
▁unclear
tronic
▁endoscop
oneph
▁analyses
▁enhancing
▁ovarian
▁leukotriene
▁PGA
▁fetus
lowering
▁cyclospor
▁stu
luded
▁(10
tropin
imodipine
▁differentiated
▁lysis
fiber
Mg
▁hematologic
96
▁phagocytosis
▁discus
▁cyclase
▁tended
lobin
▁cerebellar
mide
▁arterial
▁poisoning
▁26%
▁10-
▁implic
▁compares
▁Sixteen
eminal
IU
0%)
ipramine
▁Assess
thi
▁Afric
ocyt
▁cef
▁potassium
▁hyperp
saccharide
35
▁hydrolysis
otoxin
▁retina
▁simulated
uterine
otrexate
▁hybrids
▁46
8)
▁intrap
▁morphine
▁deposition
+.
▁suction
tative
▁HS
▁facilitated
GH
ocomp
ortic
rocal
containing
▁suppressed
▁contraceptives
oglobulin
▁exten
ilep
▁epitope
▁acetaminophen
ureus
▁acidosis
▁80
rozen
▁sulfate
vivors
▁psychiatric
loid
▁1.8
tisol
▁oestradiol
▁gradi
▁epidural
entan
▁Tiss
▁0.62
▁3.0
uron
▁hyperther
▁adjuvant
▁aspirin
▁subtypes
▁phenylephrine
▁amitriptyline
trient
▁thre
▁81
▁aldosterone
articular
▁islets
▁metabol
▁30%
uginosa
▁hypo
▁untrained
vation
pharose
▁Strep
▁mixtures
▁PMN
▁subcutaneous
aturia
▁onc
exchange
▁disappearance
▁serotonergic
▁adverse
▁IA
▁demonstration
▁neurons
4,
▁elective
▁TG
▁prevalence
havi
▁occurrence
▁RNase
1),
chlor
▁electrolytes
tents
usate
▁ionophore
▁193
HDL
qui
reasing
▁carbohydrate
▁vaccin
▁thymus
▁dex
conjug
▁microsp
▁physici
tations
▁elec
▁3.3
anad
▁biochemical
atology
▁cerebellum
▁benz
▁adenocarcin
▁resec
vastatin
amn
▁5%,
▁interstitial
▁endometri
▁vascular
economic
uled
▁Twelve
▁novo
▁Asp
▁secretion
▁SDS
▁12.0
▁junctional
▁3.2
▁intraper
▁helical
▁glucocorticoids
▁Insulin
▁acyl
vae
opamine
▁hospitalized
▁Engl
azol
7)
siveness
200
▁acetic
▁physiologic
▁outgrowth
▁5.8
▁discriminant
▁14.5
▁Rats
▁postsynaptic
▁duct
▁Assessment
▁lyso
ducing
▁capillaries
kelet
▁spinal
▁scalp
▁ascertain
▁demonstrating
▁polys
▁extracts
▁accounted
▁shortening
▁fibrous
▁apparatus
▁0.10
▁0.3%
▁hepat
▁Significantly
▁facilit
▁descending
▁warfarin
▁infrequent
▁saphenous
▁inducer
▁papillary
▁134
▁negligible
clinical
▁resorption
ithromycin
tur
▁amoxicillin
▁antioxidants
▁Atrial
▁pmol
siology
▁prescribed
▁87%
▁2-3
ocytic
tophan
olipoprotein
▁60.
▁nonc
▁hydroxylase
▁Ig
terol
▁testes
▁moiety
cardi
▁discharged
absorption
idase
▁membran
▁tibial
▁140
▁47%
▁freshly
▁loos
iversity
▁Adverse
▁tetan
▁hazard
▁reciprocal
caro
▁IgG
▁4.8
/24
▁induce
▁regen
▁gly
▁tracheal
▁respir
▁colos
▁mEq
▁metabolites
▁uterine
▁elic
▁hemodynamic
▁similarities
oste
▁rhin
▁inactivated
LV
ronchial
respective
▁RBC
▁regurgitation
▁.05)
▁oils
▁electromy
ignant
▁kine
▁pH
▁endoplasmic
sian
dle
▁investigations
▁fibrin
otropin
-100%
▁retinopathy
▁antioxid
urate
▁Sixty
▁washout
32
▁Leuk
▁Addition
ontal
▁perin
siological
▁depended
▁institu
gluc
▁cytokines
cells
quired
▁hypoxia
▁satisfactorily
▁autoradi
▁Scale
▁isoform
▁expres
▁catecholamines
▁110
▁(17
encephal
▁10(-3)
▁cholesterol
arachnoid
51
▁suppression
▁Transient
▁adhesive
olitis
▁contralateral
▁persist
▁positively
oblasts
owel
plantation
▁reconstituted
▁ipsilateral
▁circumference
▁CRF
▁radicals
▁diffuse
▁preven
DV
toli
▁lamin
▁toxin
▁postulated
rolase
▁excitatory
ocrit
▁abl
rophob
estions
-3)
temperature
lobulin
▁extracorporeal
angi
▁5
▁cholinesterase
rectomy
▁phenobarbital
-9
▁strains
▁sialic
6),
aryng
95
▁granules
determined
▁inhibiting
▁adsorption
▁dissection
contrast
▁BW
▁occlusive
xate
renal
▁endemic
cemia
▁0.64
▁VLDL
▁encoun
▁adolescent
trone
ventilation
▁asymme
HIV
▁249
▁eradication
.9%
-7)
▁elevations
▁gastro
predic
▁qualit
trate
▁epinephrine
tured
▁crystals
spectively
▁MHC
▁fluorescence
▁validity
▁scanning
▁187
emide
▁promoters
ticularly
gm
reening
▁randomized
▁mitochondrial
▁corne
etidine
▁27,
angiotensin
▁73%
▁lethal
▁mU
▁chlor
tus
8).
FSH
▁minimally
▁enhancer
▁depressive
▁perfusion
▁Feeding
ohyd
tiazem
ophilic
▁myeloma
▁incub
▁Exc
▁mitochondr
▁symme
▁pneumococcal
▁0.001
cortisone
dyle
60
▁influenza
▁BCG
▁idiopathic
chlorothiazide
▁inducible
antibody
▁intramuscular
-10)
monstr
▁85
▁estradiol
▁Prel
anking
▁CAP
▁pneumon
▁rIL
▁inflamed
prandial
▁uter
rosy
inopril
▁incid
▁inhaled
gative
▁isop
-35
▁constriction
▁lamb
▁FEV
▁infusions
bodies
▁interv
ocarcinoma
▁adap
▁Holter
▁confound
▁2000
▁Diabetes
oradi
crib
▁infertility
▁sputum
▁hemoglobin
▁evaluations
▁adjustments
plasia
▁calcium
▁sheath
▁stimulates
▁18,
▁potentiation
▁RI
▁(22
▁nm
▁peaked
▁microsomes
▁undetectable
▁hypot
▁effector
▁glycol
immunoreactive
phyl
epithelial
▁49
▁Caucas
▁chlamydial
▁diltiazem
receptors
▁radioimmuno
▁prazosin
▁epidemiological
▁(39
anavalin
methionine
alanine
cepti
▁molecules
pli
roscop
▁97
tens
▁multic
▁Initi
▁(200
▁plas
▁celiac
▁perc
68
DNA
▁BMI
▁68
▁ulcer
▁LAK
▁electrocardi
nine
-11
tified
▁repro
arcoma
▁serotypes
▁hepatic
tocin
▁Nine
allikrein
94
▁antibiotics
▁antibodies
aspartate
▁agonist
▁mening
▁adhe
▁alkyl
▁1.4
▁Glu
▁tomography
▁Regarding
elves
isomerase
ogenously
▁79%
▁detecting
▁chloride
▁succes
2),
dition
▁Concentr
▁0.5
▁manu
▁cohort
itic
▁EDTA
▁AII
▁acidic
▁synerg
▁0.025
either
irc
▁pathophysiology
▁overe
▁0.34
▁(4-
5.
salt
▁staining
▁correlations
SDS
▁(10.
enem
tabol
riamycin
▁surgeon
▁digestion
azone
atest
RIF
erence
▁hypothalamus
phosphorylation
▁immunos
ondr
▁causal
NIDDM
▁13.3
▁lipoproteins
▁smokers
▁phospholipid
ration
▁173
▁bladder
▁surfactant
tochem
▁119
ffer
embry
trover
▁afferents
minal
▁68%
oxifen
▁enl
▁HB
▁subfractions
▁tablets
▁Reduc
▁(0.5
-8
-12
ipine
yclic
▁paral
injected
▁phenotypes
cribed
-80
3/
▁14%
▁lapa
▁7.2
triglycerid
▁stric
▁Stu
RH
▁abnormalities
▁HeLa
2,
▁enrolled
▁mammography
▁0.1,
▁90-
▁symp
▁reliably
aric
molec
