PV
▁Cytoplasmic
ectomy
▁glu
ineph
▁thromboemb
▁pati
aneously
▁7%
▁allergic
▁cognition
▁Afric
▁pediatric
tant
▁auditory
▁elic
detected
jected
Au
▁rebound
▁saliv
onography
erican
aluable
▁nomenclature
urrence
▁shor
▁stimuli
tions
▁fibers
▁physiological
▁fatalities
orin
▁scans
▁wors
▁fixation
erad
▁glyc
▁salivary
ipolar
▁inflamm
▁uncom
ystolic
▁streptococci
evaluation
▁poorer
atical
▁nutr
.2%)
▁IBD
endot
stolic
athyroid
ojejun
▁carriers
▁Treatments
▁systematically
▁preferable
▁tubes
▁surrogate
▁myocardial
hig
odies
▁sequel
▁labeling
▁disks
unar
otential
entical
▁comparisons
▁reactivation
7.
yro
▁moderately
▁31
▁Hyp
▁myoepithelial
loride
▁geniculate
helin
umulative
84
fine
▁coronal
▁mucosal
ophren
▁clus
▁unexpl
▁distrib
▁ceph
▁Failure
▁progestin
▁advan
ameters
namic
▁ETA
ept
▁clinically
▁Trial
ivation
entral
▁assessments
▁cerebrovascular
▁Trauma
ditional
▁cardiomy
▁valve
dimer
▁tomography
romes
▁newborns
▁overweight
▁manu
AIDS
▁antec
▁selective
cale
lec
▁catheterisation
▁infiltration
ropriate
▁heparin
itant
tion
▁neutroph
▁cues
▁pharmacists
alp
IU
▁optimizing
8%
ronous
glum
80
▁impair
▁preclude
▁thyroidectomy
▁MM
▁previ
▁Ras
istrib
iary
ohy
idney
▁uninjured
omia
▁hypot
Ti
anin
▁irradiated
▁worsened
herence
▁ramus
▁stimul
▁subsp
▁endoscopic
60
▁contributes
▁subgroup
▁upd
▁stratification
▁apoptotic
protective
oglyc
▁sepsis
employ
▁circumference
▁endoscopy
▁scintigraphy
▁elimin
taining
▁diagnos
-0
▁heterogene
▁Samples
▁substances
omedullary
▁abnormality
vul
sies
▁specificity
▁statistically
▁fragile
▁sensorineural
KI
Cy
78
▁GCS
▁lifelong
▁Phy
okinetics
▁hyperg
▁advisable
saturated
ameter
81
rolith
ocar
▁propensity
ighted
54
itone
▁inhibitors
▁emphasizes
CMV
▁TBI
▁ow
ostomy
▁NN
rins
cine
▁deli
orotic
▁Mucosal
3-
attern
▁thyroid
▁oxygenation
▁AE
ifol
ococci
weighted
arotid
▁graft
▁thickening
ubtedly
▁ultim
erals
▁predictor
▁11,
▁adhesive
▁theore
▁Engl
▁anticoag
▁ach
▁molecule
omatic
▁recurrent
50
vice
▁metabolism
▁contral
▁pyl
LN
▁seropositivity
▁IgM
▁premature
▁markers
ellosis
versely
quit
ensory
▁outpatient
▁parotid
oplas
▁Throm
▁SLE
▁anastomotic
▁reas
itamin
▁tympan
▁deficits
3,
▁sustaining
athe
▁APC
▁autosomal
▁parental
ergic
ece
▁uniformity
fat
▁MV
cad
▁LN
▁withdrawn
▁indetermin
▁remin
▁topographic
jug
rapid
▁mediation
functional
▁antibodies
▁hemorrh
▁elimination
▁hormonal
▁PB
▁concurrent
ocul
▁PCT
▁NPC
▁dilated
ods
▁gluc
▁poten
▁lept
▁insulin
cence
-6
▁resection
▁cholest
▁Chemical
tis
astatic
▁ischemia
▁superficial
rents
urrent
▁valu
▁perfor
▁prevalence
licate
FH
tectable
▁10-
▁cumulative
▁neonatal
acet
▁lithotrip
HU
▁uncovered
▁Randomized
▁ocul
▁hCG
▁alteration
▁Clinical
sions
▁causation
▁consequently
▁elevation
flux
▁abd
▁alleviate
▁lar
heum
ampl
antial
erate
Ly
▁renal
adherence
▁Alternatively
lact
olon
▁testicular
▁prophylactic
▁metastas
▁diabet
Pa
▁HS
erb
▁vagin
severe
imens
▁ETS
▁Pregnancy
sus
▁thoracic
▁suppressing
9,
relations
▁streptococcal
▁Acute
▁hazard
▁modality
▁Doppler
32
▁chori
eces
▁regulate
asone
▁contex
gments
ewish
▁disapp
MH
▁tox
derly
▁anomal
25
erator
urgery
▁vaginal
▁tris
▁prospective
ineal
▁follicle
ecre
▁postoperative
▁preoperatively
ilated
▁concurrently
vate
▁RAR
▁bowel
▁perin
keletal
▁Vac
0.
▁putative
▁pigmented
ergy
▁infiltrative
osomal
▁corne
▁cyst
acerb
onol
▁redund
▁2.
▁inadequ
46
▁enhancing
99
▁HCM
▁adjunct
ocular
▁develops
▁Ultrasound
1-2
▁50%
▁labial
ture
itic
▁prognostic
Ia
pies
Ts
LB
ucle
▁monounsaturated
▁prostatic
rogenic
ucleation
menopausal
▁bedside
usp
oxif
opathological
ussion
▁cervix
▁thrombo
afe
aemic
andard
▁FD
104
▁pate
uccessful
▁Cushing
▁atmospheric
hemo
amn
▁interventions
▁triv
9%
▁synthe
▁connective
ximal
▁subtype
Cer
cious
EGF
▁chec
quid
▁somatostatin
icine
icacy
phosphon
▁overlaps
ostic
ognitive
regulated
▁resonance
▁athle
aryngeal
▁physi
▁500
▁fetus
19
▁flexion
▁hypertrophied
▁proce
TB
ritish
▁correcting
▁sensory
▁familial
▁silicone
olis
▁implantation
▁sampl
▁hernia
undibular
▁regimens
▁acetabular
▁pancreatitis
echanical
▁amyl
▁testis
▁Excessive
▁phagocytic
▁thre
enic
nowled
▁demonstrates
▁plaque
opro
▁acute
aventricular
ioid
neal
▁Concomitant
▁rotated
pine
4.
▁intervertebral
▁evaluating
▁inhibition
▁satis
▁resear
▁gallbladder
▁oxide
rele
aceous
▁BMI
AO
▁HCC
▁behavioural
▁chloride
▁laparoscopic
plantation
din
▁acqui
occi
ervative
▁cyclosporine
diagn
▁abolishes
opsy
▁aorta
▁glomer
ullary
▁Removal
genic
▁abnormal
▁WHO
▁tas
▁2,
idem
▁PBB
▁spontaneous
▁IVF
▁metoclopramide
▁ultrasonography
▁disparities
ethyl
▁rCBF
▁0-1
▁ACL
▁comple
▁aerobic
prep
oskeletal
estigated
onate
▁socio
sar
ditions
trop
▁detrimental
9-
▁vein
▁staging
NB
sul
▁vagal
qui
xide
tens
▁laboratories
▁Asp
▁VLBW
istal
▁201
▁polyps
atability
▁symptom
wk
20
bral
PAP
▁proportional
positive
▁chemotactic
▁3-
oratory
hered
cents
▁carbohydrates
viron
28
opia
▁sulfonyl
dition
▁discer
loid
▁contributory
56
filtration
tus
fron
▁Accordingly
stress
controlled
▁venous
ximum
ochondral
▁deem
▁Muc
▁nig
▁Compared
27
isol
▁ascertainment
osition
▁adhesions
▁coronary
▁5.
▁excision
▁underestimated
▁organisms
HF
embr
▁hepat
▁musculoskeletal
▁PMP
DG
▁speculated
▁ultras
22
▁fluoroquin
▁Improved
ration
▁ECG
▁biopsies
orectal
▁CI
ocytes
▁nonc
eclampsia
▁manifestation
▁comprehen
MN
▁sciatic
▁FHR
tors
▁appreciably
lication
tig
▁modestly
▁amputation
▁IMR
49
▁heparinized
prepared
▁hypers
▁oesophagitis
otrop
mittent
▁rigor
▁haemorrh
oplast
olones
arcin
▁progn
01
chol
prising
▁suture
acr
▁identifies
▁ventil
▁PET
geal
▁pediatrics
▁undergoing
▁85
▁reevaluation
▁hepatocytes
▁unprotected
▁stroma
mig
21
▁BP
noise
stim
idne
▁80
▁adequately
onc
▁OA
▁corneal
inear
▁sedentary
DNA
▁Chan
▁tumours
▁tethered
▁ESR
▁tol
▁Considering
19-9
trimental
ternational
bic
atient
▁inhibit
▁acceleration
▁apop
▁sut
▁awa
lasting
▁interc
gression
▁sexes
▁smo
▁stenosis
▁polym
02
regulation
glumine
umbar
aline
▁ethanol
mixed
▁undergone
eliac
▁IH
gia
53
roin
overall
ialysis
▁APTT
agic
▁proteins
▁1.
omain
▁disparate
▁rectal
tensive
APC
lym
▁hemodynamics
▁menopausal
▁ambulatory
▁ventilation
▁disappearance
▁usefulness
KA
▁latency
▁surgeon
edic
ilateral
▁segmental
▁intraoperative
▁TB
▁instability
▁hypertensive
▁PCOS
onance
clim
lective
30
▁occurrence
▁lax
ceptibility
etus
▁gastric
▁oxy
▁eosinophilic
▁eosinophil
▁undisturbed
guided
hospital
rosis
▁rehabilitation
lys
enon
invasive
▁correlate
▁vaccinations
ocl
▁pulp
vents
▁inheritance
▁dislocation
▁Hb
▁preservation
rox
2).
▁AO
imination
▁disruption
▁deform
bac
▁radiograph
mL
inj
▁prolonged
▁colonization
tation
▁arth
xone
▁saline
▁lipids
▁cephal
▁cuff
pap
hern
67
iatric
▁regimen
▁epinephrine
▁schiz
fos
▁coex
▁surgeons
▁plantar
▁chan
▁neoplasm
▁precedes
zole
▁footprint
▁tolerated
iciencies
continu
▁oss
▁micron
▁hospitalization
pation
tum
▁fas
▁MRI
▁supplementation
-1,
▁adhering
▁suppression
crib
jects
▁35
tib
▁acids
▁vena
jejun
oprotein
▁bipolar
▁exacerb
▁carc
tection
▁supple
▁corrective
pS
▁coexistence
▁enrol
▁predictors
udin
▁alterations
oplastic
▁proliferation
tomy
ileptic
▁combin
▁phag
veolar
ophilic
▁reagents
▁12
▁glucose
CCT
▁MG
▁Tum
▁discern
gement
▁Consideration
▁warr
acted
adily
▁decisive
▁immunomod
reas
▁antibiotic
▁detectable
edle
erop
SSA
otent
▁repro
mentation
▁exo
▁intercostal
otor
▁AMP
▁APD
mia
▁clinics
resting
reast
erable
▁equivocal
umably
▁melanoma
▁responsiveness
▁TAA
▁employing
chond
opausal
oural
▁reflux
▁caregi
▁adherence
▁intrapartum
▁microbiological
▁assurance
phen
▁metab
▁retention
▁prostates
▁predic
SPECT
▁overdose
ensit
▁fractures
▁peri
ectom
ographically
▁practiced
oidal
atectomy
lecting
▁chlor
▁pathological
▁iso
▁discordant
ithi
▁pleomorphic
▁MN
▁endometr
▁shig
▁multicenter
odial
iplin
▁neutrophilic
estive
enzymatic
▁gout
lateral
▁follic
vated
▁diminished
▁leakage
▁melan
▁11
SAP
▁diagnose
▁discrimin
▁discus
▁minimally
rophilic
▁patellar
▁conceptual
▁pla
▁disappointing
threatening
▁continence
▁chloroquine
embers
▁scin
▁abnormalities
emory
▁pH
illus
enhanced
▁chorio
▁mL
▁hep
▁investigations
zard
▁inh
ustif
essional
valence
urea
bladder
▁prevalences
▁uncover
▁cigaret
erative
▁Improvement
▁multivariate
artum
eptin
▁reperfusion
▁deliveries
▁Intra
▁thromb
aturated
▁External
umption
rone
▁FH
ught
▁moles
▁RA
urc
▁compli
▁incidence
▁fracture
▁coel
onyl
14
reet
astric
▁perce
phasis
▁postoperatively
▁reagent
▁cathe
▁metabol
activation
-3
▁undetected
▁indeterminate
▁HPV
knee
atid
▁CSA
▁monit
rotein
▁hepatic
6.
▁reposition
▁uneventful
loro
▁utilisation
LV
fal
▁gradients
eration
opathy
▁ulcer
▁Tumour
oxid
▁pancreatic
▁septum
▁mammography
erine
ilized
16
▁HSV
atif
▁ovarian
▁relapse
▁unic
otomy
▁morbidity
▁endochondral
▁immunode
▁eradication
itro
▁overestimated
▁deterioration
▁TGF
aminated
▁paradigm
▁100
olism
gth
▁pathologically
odal
▁intraven
2)
yel
ectable
▁cirrhotic
▁RB
▁esophagitis
▁heterogeneity
venth
mend
itally
vein
▁indefinitely
2.
ipar
idation
erally
▁examin
Phe
blast
intestinal
▁acetab
▁microcirc
cus
▁communic
aryn
abies
operatively
▁creatine
▁19
sion
▁gluten
▁prospectively
▁32
olum
▁transient
▁cann
erus
▁Stroke
atent
4)
licular
▁DSM
▁OSA
▁studi
▁improves
alan
▁sequential
▁biop
▁compartments
▁synovial
▁mandibular
▁potency
▁20
▁infusion
hep
▁synthesis
44
▁procedural
▁recess
▁indicators
▁GPs
lop
▁fluor
▁8
▁hemisphere
▁tumors
▁interp
lead
▁recurrence
adequ
▁favourable
▁surrog
hips
▁shorten
▁therapies
vail
uccess
resses
▁counseling
▁anastomosis
▁cholecyst
▁dosing
▁facilitated
▁MBC
rosclerosis
-9,
▁(5
▁infants
▁reac
▁PAN
▁sequelae
▁trac
▁endarterectomy
▁hos
▁inducer
▁psychiatric
RU
▁cereb
radi
alities
epit
▁restenosis
▁progest
▁oligo
▁underline
▁diabetic
▁deficiencies
▁40
▁vegetable
▁olig
▁cervical
▁masked
cture
▁anticoagulation
▁LS
▁omitted
onin
ospor
▁complications
omial
rof
tained
▁inference
▁AGE
▁pylorus
▁strom
▁spikes
morph
▁swelling
opamine
linolenic
ventive
stro
▁physici
▁OT
▁Treatment
lowering
▁misleading
inic
rk
▁unresectable
▁inpatient
onous
▁therapeutic
▁sebaceous
sia
▁hemis
▁empirical
▁obese
odynam
acial
ymp
▁prevalent
▁pituitary
nutrition
(5
▁graf
▁amput
▁criter
▁pulmon
asal
sive
▁heterogeneous
ustment
▁practitioners
▁mediated
▁endoscop
▁laparo
▁unclear
▁accumulation
▁fatality
enol
76
▁intramedullary
▁persist
▁oes
seud
Ara
▁selectively
ACS
▁multic
▁7.
▁predominantly
▁Vitamin
▁debr
▁sclerosis
▁FS
Ra
▁unevent
▁shortened
▁compart
ceptive
NAP
▁genic
ochlear
▁alve
▁immunisation
tical
▁31-
occal
ropriately
▁implic
idement
▁neurologic
utaneous
▁subchondral
oride
▁stimulate
CBF
▁MRC
▁umbilical
▁endothelin
▁predictive
▁pall
▁adver
agit
▁chl
tive
piration
gment
▁defic
▁counteract
oplasty
▁peripheral
▁gangrene
iological
ariate
▁proct
▁mediates
▁differentiate
▁discharge
▁progression
▁chole
▁operative
▁juvenile
▁exis
▁morb
rates
cele
▁MH
onit
fusion
immune
identical
onium
▁SG
▁placent
▁Whereas
▁skeletal
▁ALT
▁ves
▁fri
rophyl
▁adenomas
evaluated
▁severity
▁Obese
%).
ected
▁tibial
Ss
▁Contr
▁cen
▁preparations
endan
stem
▁calcified
▁THA
▁homogeneity
▁quantit
▁AVR
▁genotype
▁striated
▁anatomy
▁proposes
vant
▁7.8%
▁vaccin
immun
ithms
▁transplantation
▁ruptures
dents
▁aggravation
▁acupuncture
▁regar
TNF
dial
otom
▁arter
trip
▁gynec
▁aortic
▁coh
▁inad
uality
▁underst
ulatory
▁unrelated
▁differing
▁200
▁cochlear
obic
years
▁rhy
▁lumbar
0.5
▁Alternative
reatine
▁CPAP
▁silic
cessive
iasis
Tc
▁synerg
iton
▁preferen
▁circumferential
▁202
oten
▁aspiration
IgM
▁Phen
incidence
▁NPH
ulcer
▁CAM
▁regis
tead
hemia
ancement
▁hypoxic
▁illicit
ults
▁distinctly
▁vulnerability
▁alp
▁mec
▁cancellous
▁caro
▁biochemistry
▁Adherence
▁injur
lood
▁assays
▁trough
▁preliminary
aluation
▁membrane
▁repaired
mortality
orphism
▁anomalies
40
opramide
duce
▁nec
vity
tries
▁haemorrhages
▁receptor
▁debridement
▁clipping
lesion
▁transrectal
etal
▁stu
▁1-
▁metastases
▁Progression
.2%).
2%
▁48
clin
▁unselected
▁reproduction
▁enrolled
▁urine
▁synovitis
▁resis
opulation
olenic
orphic
▁bir
contrast
▁recessive
igel
▁porcine
▁glut
▁acidosis
duction
oscop
esity
▁HU
▁Vaccin
▁prognosis
▁30
▁deterior
▁edema
▁validated
hers
ovir
▁morbid
▁estimating
▁appropriately
entan
▁exacerbations
▁individualized
▁reper
▁BMP
▁lymphadenectomy
▁dysfunction
arental
ivoc
cretion
▁thrombectomy
▁sphincter
4-
▁haemorrhage
▁limb
hering
GV
diagnosed
▁lipid
acclim
alsy
▁ageing
bacco
atial
▁reproduc
▁Biochemical
▁atrial
▁injected
occus
▁pylori
▁resected
.2%
▁characterize
▁reimplantation
▁diluted
irc
unctional
▁examiners
6%
▁Intravenous
▁diap
▁melatonin
▁ancestor
tin
▁EMS
▁referrals
mTc
▁provocation
▁migraine
8.
▁scoliosis
tein
▁appendicitis
▁amyloidosis
ostat
▁inserts
▁soybean
tam
▁radiographic
▁anatomic
oic
MIC
▁techniqu
acil
▁LD
▁verteb
▁nutritional
▁buc
▁PCO
-0.5
▁sickness
married
▁intermittent
omized
▁somatic
▁unsuccessful
zation
▁circumferen
tach
ejun
inusoidal
▁leuk
▁Addition
phth
ilical
▁psychotic
▁polyethylene
▁insertion
▁NSC
▁sci
▁medicines
▁fati
▁rigidity
▁hypo
▁aiming
eck
▁malign
▁mortality
▁pulmonary
asive
otyp
entists
▁readings
▁displacement
▁drainage
Ki
▁fulf
▁cesarean
▁toxicity
▁evaluations
▁antic
▁adenocarcinoma
▁localities
dia
▁IPF
▁HC
▁undoubtedly
▁intramuscular
▁encounters
▁pyram
▁ket
anic
orac
▁definite
thle
▁vitro
▁intragastric
▁eyel
▁enucleation
▁satur
▁radiotherapy
▁sedation
▁determinants
scop
WB
▁distinctions
▁symptomatic
responders
HN
rants
1.
certain
▁torsion
▁enlarged
▁TA
▁Premature
▁airway
.2
▁femoral
rehen
▁morphologic
▁LVH
consuming
▁Tran
▁22
cribed
omerular
▁correlated
▁phenotype
▁pneumonia
▁concomitant
▁seb
▁reductions
iferation
▁uter
▁ae
▁abdomen
▁lumb
▁palsy
▁appendic
▁remo
teric
▁Kupffer
▁adhe
alian
▁Comparison
IK
dominal
hemical
▁DFS
ostom
▁hepatitis
▁Excess
▁hypox
cis
▁inflammatory
▁adverse
▁4
▁Kup
ervical
thma
▁benign
mation
▁contralateral
▁judged
Nor
▁recom
esting
▁follicular
▁initiating
▁contrib
▁acad
▁cava
HG
seal
ressive
▁endometrial
ysm
▁linkages
▁Significant
▁sacr
▁resuscitation
▁SNP
▁histologic
acental
▁80-
ocaine
helial
ometr
▁desm
HM
ths
▁shif
HB
ediatric
▁intrauterine
▁neurolog
▁Phe
iably
▁inadequate
utroph
Tn
▁numb
35
▁gradi
▁ruptured
▁rese
ovascular
udent
cysteine
▁limbs
57
▁Trials
tak
ocytic
▁Healthy
▁metastasis
geons
▁synov
▁adjustments
tage
iatic
▁workload
anish
▁Swed
▁receptors
cation
▁Continued
▁PF
▁stimulation
▁manifestations
carcin
▁Magnetic
▁uptake
▁pneumon
atisfaction
▁Roux
▁evoked
▁HM
▁lobectomy
sian
▁infections
▁bip
cored
ropine
▁preventive
▁heavier
ocele
▁PTC
urally
▁kerat
▁rhe
treatment
rength
vascular
▁coincidence
cyst
BW
fir
▁trophob
race
▁fragility
▁tumor
▁excimer
▁disadvantages
icul
▁Effective
itin
ochemistry
▁99
hesive
quine
idated
entif
▁assessing
terl
opam
▁GV
atonin
▁etiology
▁undertaken
yses
▁angiography
ituitary
reness
▁evid
clerosis
▁pathologists
▁carotid
▁residency
ignific
Ba
▁imaging
▁tamoxifen
▁congen
elvic
astom
▁biom
▁malignant
centr
▁LF
▁pyramidal
▁reliably
rogra
▁pedig
▁errone
CGP
operative
odialysis
▁Dopamine
▁steroidal
▁pathogenesis
▁engraftment
▁adop
▁caregivers
Hu
trib
atment
▁endpoints
tect
coun
▁spati
ostatin
▁vaccination
eak
▁COS
▁disparity
▁uncommon
▁antegrade
infarct
rC
▁bronchiectasis
▁Pretreatment
▁LC
▁scre
▁150
▁Chronic
gli
▁5-
▁isch
▁confir
▁multifactorial
▁catheter
▁phon
▁polymorphism
ointing
▁adjuvant
omical
▁metast
▁lymph
▁intra
▁decreas
▁NP
odynamic
raine
1,
ureth
▁ile
▁cocaine
▁versa
osin
▁metabolic
estis
▁inherent
▁autoxidation
▁substantially
▁HAM
▁inclin
▁blin
▁discom
▁beha
70
▁warranted
▁impairment
-1
moid
▁elevated
oru
▁confronted
▁saturated
asic
▁removes
ormone
▁Larger
▁thi
▁undes
▁dexamethasone
▁autoimmune
LF
▁intram
▁tumour
▁asthma
▁unco
comitant
lymph
dose
gulation
▁esophageal
▁reevaluated
ffer
▁(54
▁concentrations
▁excretion
▁bladder
▁chol
▁Physicians
erper
▁catheters
omiting
urethral
atories
arate
tual
ctomy
▁locus
▁aneurysm
▁Serum
▁DST
▁validity
▁cholecystectomy
responder
▁Regarding
▁endoc
tration
VH
▁cholestasis
tific
▁gallstones
▁cate
▁physiologic
▁palp
▁UL
7%
oleic
▁positively
▁sti
▁Prophylactic
▁molec
ulting
▁bronch
ective
▁infil
▁platelet
▁10
copic
hort
TG
omal
▁PEG
▁biases
opram
vit
▁tracers
▁atres
▁neo
▁nal
▁impacted
-67
▁adaptive
▁mann
elan
▁DN
discharge
linic
▁inhibin
jun
oagulation
associated
▁percutaneous
▁substitution
▁Operative
▁spinal
▁evolving
2%)
tur
▁atherosclerosis
uin
▁ischemic
anus
▁STI
▁splenectomy
▁mellitus
▁establ
▁nonadherent
either
▁coexist
▁causal
▁warrants
urse
▁differentiated
▁Contrary
otr
▁prel
ducible
▁cytology
▁bilateral
▁bac
lux
vasive
▁osteoporotic
▁intensive
▁40%,
▁fatigue
pir
graftment
▁Recurrence
▁minerals
▁iatrogenic
▁abdominal
▁adolescents
▁tympanic
▁melanomas
ilization
hei
▁quantitative
▁atropine
▁ablation
▁PAS
roph
▁Findings
▁dentists
▁discriminative
mented
▁myo
ineural
othelial
▁exercised
▁peris
▁pathologies
lac
ducts
ints
drome
▁molar
▁physiology
diol
▁OCD
oplasmic
▁chloro
▁chor
oracic
▁plur
tate
retion
▁influenz
▁feasible
▁consultations
▁heroin
▁resusc
essive
aem
▁HG
luent
▁ASA
▁encoun
iferol
▁curative
▁inflammation
▁soy
osts
▁sulfonylurea
tebral
ections
dg
▁suturing
inemia
▁13
▁deficit
genital
ameth
ergency
▁suprap
▁respondents
itudinal
oty
29
▁tet
▁aerob
▁distal
▁annulus
▁Cox
▁79
▁subf
▁physiotherapy
▁3
vely
venous
▁unde
uted
▁Neurop
yroid
FV
oxidation
▁somat
▁gangl
▁ascer
ilic
0%
▁increas
▁endarte
tif
▁simultaneous
▁timely
▁surgically
▁21
▁Estrogen
▁loosening
otomies
▁extensor
onomic
effectiveness
▁milieu
10
▁anat
▁SUP
▁headache
alues
vements
▁Systolic
oung
RH
EG
▁Ig
▁1.6%
esia
▁crest
gastric
othel
▁grading
omies
▁Imaging
▁PID
▁prescrib
▁tracer
▁haem
▁histopathology
hap
heal
▁colorectal
LU
▁hygiene
▁AMI
▁pelvis
▁anastom
ressing
▁preferably
▁lobe
▁tric
SCE
-2
▁VE
vertebral
5.
▁bypass
owel
▁visually
gesia
oxia
▁questionnaires
▁derangement
▁hypoglycaemia
▁neurological
▁conservatively
▁inhibitory
ertion
vic
▁tertiary
▁Steady
▁thorac
▁HN
mental
▁Lys
.8%
▁rash
▁rigorous
▁parame
▁psychosocial
▁illustrate
▁bloc
▁PEEP
irrhotic
▁inten
WBC
ochemical
xia
ipient
▁gland
Tu
formin
▁behavioral
otropic
▁prox
▁ventilatory
▁overd
rati
▁85%
▁drin
▁medial
▁examinations
ourable
▁agon
ibi
▁enl
▁resour
▁Paget
▁beverages
▁MCP
dic
amet
ogenous
▁zinc
owever
▁1.6
▁50
34
▁perc
ologic
▁19%
▁ischem
Ka
▁axillary
▁cerebral
▁estrogen
▁alveolar
▁decreased
▁manipulations
▁vitamin
▁mutations
▁predicts
urement
▁cortisol
sensitive
▁erg
▁patella
ronch
▁cyt
tun
▁endothelial
▁SBA
▁ana
ffs
imin
▁spi
▁monitored
armac
▁prophyl
▁subtraction
▁oro
hea
▁scanning
adder
▁Patients
▁mucosa
▁preterm
earance
▁cardi
▁chond
▁throm
▁empir
▁adenoma
rans
immunization
▁compartment
encl
▁hypothe
5%
▁diagnoses
olysis
▁1
▁tiss
▁carcin
echn
▁thromboembolic
▁cancers
▁collateral
▁herpes
▁7
sue
inol
▁epi
ficial
▁evol
12.
trative
▁RP
▁resol
▁microc
mide
▁implicate
Gi
odon
▁nodules
▁perfusion
▁Increas
▁modif
vation
▁IIb
2-
▁vancomycin
▁LV
▁9
SAH
ortal
▁physicians
mur
▁FDG
urate
▁differenti
▁ascertain
▁VC
▁requi
gely
▁embryo
forcement
31
omat
▁Routine
omod
▁merits
▁variants
▁ascertained
▁PCR
isqu
▁cerv
▁integrating
▁ART
graft
renal
▁excre
▁obesity
▁reag
▁Pregn
▁sev
▁GI
.8
▁subjected
▁Therapeutic
▁pS
umulation
▁paradig
taken
ulitis
▁bronchoscopy
▁aureus
▁muc
▁intrap
▁GVHD
erving
pH
lip
▁traum
ancreas
▁HL
ogens
▁parap
▁cue
▁implicated
▁poin
oscopic
▁empirically
▁prenatal
ondral
▁unil
ycin
▁gallst
ravid
▁16
▁exclusion
▁fetal
▁40%
▁restor
▁necro
▁cystic
▁carcinoma
▁adhere
alc
▁decreasing
▁dietary
▁complemented
▁polymorph
▁differentially
▁wee
▁differentiation
▁14
▁pathologic
parative
vival
bility
neumon
ervations
▁tec
UF
kade
▁palliative
▁thir
irrh
▁prostatectomy
ochem
tial
monary
▁refraction
▁Multiple
▁bene
arous
▁correlates
▁glands
▁provid
omotor
▁restorative
eal
totic
▁cadaver
▁Rout
▁exer
▁uni
▁atresia
▁NB
▁ure
faction
▁Increased
▁60
▁fentanyl
▁consangu
▁vascular
▁synchronous
ixation
▁appropriateness
gmental
▁34
adherent
erance
▁lipoprotein
▁groin
roma
▁carcinogens
▁glycaemic
erating
dle
lusion
▁differen
▁referral
▁colonoscopy
▁pren
▁aden
▁transfusion
angli
▁microm
▁HI
▁IBS
▁comparative
▁distin
▁scaled
▁routinely
▁AGA
▁immature
osom
▁muscul
▁FV
hyd
▁EO
▁Atropine
increased
▁100%
2/
▁discontinued
▁cigarettes
▁variability
▁Ear
▁aort
▁angi
icin
gic
▁TC
▁longitudinal
▁ceased
▁VD
ograms
MV
▁opioid
arers
ivary
TN
▁IU
▁linole
▁systolic
risk
▁schizophrenia
▁ossification
▁gyn
regn
angl
cardi
opa
anding
▁multim
▁consolidation
▁adjustment
▁6
▁ultr
NH
▁disagreement
▁ganglion
▁deformity
uptake
▁Surgical
onad
▁inappropriate
▁pathology
valent
erin
leu
tact
▁audi
urine
anyl
dor
▁hern
elong
nai
▁LOS
▁modulate
▁ketamine
▁hygi
1-
▁echocardi
▁fractured
▁birthweight
lysis
erated
onset
oradi
clinical
▁CMV
▁demographic
injured
▁superv
athy
15
orrh
▁2
▁microv
▁assay
BV
▁anatomical
▁RS
▁secretion
▁4-
▁experim
itively
▁atmosp
▁GER
phrine
▁Bec
tering
▁inapp
▁synergistic
fentanyl
▁unrel
▁cardiovascular
75
igravid
▁scl
ococcal
oprote
appropriate
heric
IIIa
▁compressed
▁psychotropic
▁eyelid
▁pineal
chers
▁uncontrolled
▁paraventricular
▁prostate
▁hypothyroidism
▁reduc
0-
▁positioning
tolerated
▁favorable
▁summ
▁unaware
▁simult
inactivation
gland
▁balancing
▁intrag
▁canc
cores
▁Thromb
▁thrombolysis
toc
▁documenting
orrhagic
▁avail
▁UF
▁mell
▁prudent
enin
phosphonate
onary
▁mitral
▁prescribing
▁pneum
Ig
▁relied
▁gynecological
13
▁enti
uran
▁margins
▁preconditioning
farct
▁induction
▁irradi
asses
▁intravenous
▁occlusal
▁definitive
▁microvascular
▁Bone
▁elu
▁overex
▁undiagnosed
▁overlapping
▁desirable
4).
▁exce
▁ICS
▁2-
0%,
▁PRP
▁sph
▁nucleus
delayed
▁hemodynamic
▁utilization
-9
▁uremia
▁ultrason
ayed
▁subgroups
ortic
▁DG
▁ane
▁adequ
▁Adverse
▁traumatic
▁alph
▁influenza
▁clinicians
▁noncom
▁interpersonal
induced
▁perone
▁overlying
▁perip
▁correlations
▁unexplained
hicle
rae
isture
dent
peri
▁aor
iology
2,
atural
▁phagocy
00
▁peroneal
79
genes
nee
▁Surgery
▁volumetric
sible
versal
▁atten
▁indicative
▁utero
▁glycoprotein
trex
inatal
▁laparotomy
ociation
arean
FG
▁capped
▁eliciting
▁prol
▁introduces
▁infar
▁RH
▁congenital
▁algor
chondral
ivariate
▁dissection
▁intake
agin
xual
▁arterial
▁lesion
▁allevi
xiety
▁Blockade
▁pathway
▁susceptibility
▁enteral
▁cutaneous
▁adolescent
▁feasibility
▁chemot
oscopy
itance
▁highl
▁restric
erum
igaret
trast
▁MEP
▁laparoscopy
xpression
sequent
ectasis
▁vaccines
agal
▁Analy
▁predictability
▁unemploy
lix
ronchial
▁inadvertent
urred
▁arteries
▁herp
▁confound
▁CRP
▁implant
jective
▁pharmacological
▁abl
▁Percutaneous
12
▁atrophy
▁IB
▁recor
▁ultrasound
▁osteoporosis
aginal
atab
.5
luc
▁seizures
▁HCA
ophag
▁undo
▁micromet
atheter
▁injections
onor
▁occl
▁unilateral
gative
▁depressive
▁births
▁RBC
▁clinician
▁ensured
▁NH
▁hemodialysis
▁prednisone
▁periodontal
▁ration
sial
▁32%
trol
▁neoadjuvant
lated
stab
▁mono
▁rationale
versus
▁globally
fication
▁IHD
65
▁MHC
ceptual
ocardial
▁epidemic
▁predicting
▁neph
▁pelvic
▁substituted
▁GBS
69
iosis
▁avascular
▁cardiac
.6
▁acyclovir
▁2.5
▁Discre
▁pter
▁BD
istor
atoid
▁analyses
▁Ket
ostal
▁lith
▁remission
▁benz
tent
onatal
▁Inclusion
entanyl
▁diffic
▁interacted
atell
▁Older
utive
▁constitutes
▁discusses
▁concom
▁cannulae
transplantation
▁phe
entary
▁Patient
▁Prospective
ypical
ococcus
▁HLA
▁doses
kage
OA
-5
ocyt
▁UTI
ulae
▁genotypes
genesis
▁bronchi
oplasm
▁Cyt
▁identif
DH
▁prophylaxis
▁urinary
▁sten
▁postnatal
arthritis
▁chewing
tinu
Cu
ygen
relevant
ollicular
▁amy
▁reflecting
▁lithotripsy
tel
▁grouped
▁foc
▁cardio
iotic
▁distinguishing
iminary
▁calcification
responding
▁21-
▁complication
mutant
▁parag
▁pT
Hb
▁intrinsic
▁morphology
▁unex
5-
urther
▁-0.5
▁19-9
ffective
TU
▁neutrophil
▁ACE
odic
SCC
ancre
▁multiv
oag
▁directional
sities
adic
▁ovari
▁divertic
▁dex
CRP
phon
gents
▁pathogen
▁inversely
▁insertions
itures
▁gad
▁ICM
▁anemia
▁nulliparous
ureus
▁Emergency
ctive
▁Elderly
▁geriatric
▁periodon
▁investigating
▁IUD
perfusion
▁pressures
11
monstr
▁normo
itus
vating
rophob
eded
▁poses
adication
▁unres
▁evacuation
▁leu
ectomies
▁amyloid
▁perinatal
osyn
verages
▁tymp
▁palpation
tec
aemia
Ds
▁LDL
lax
mature
estion
▁8.
▁overexpression
rine
ophil
▁27
▁Greater
thre
▁vitamins
lectomy
▁oils
85
▁vomiting
▁overe
ognition
▁TK
▁Histologic
▁facilit
▁5
▁CK
97
illic
▁undetectable
▁Tren
orative
▁hypog
ulfonyl
▁0
▁tonsil
estions
IH
▁VS
▁inver
rested
▁turnover
▁expenditures
▁Alter
▁surgical
phe
▁poorest
▁intrarenal
▁suggestive
▁hormone
ogra
orax
econd
▁SGA
uncture
rement
▁Biochem
▁sulf
▁deficiency
otactic
natal
▁ortho
odality
atrial
▁IgG
▁pover
▁VO
▁consol
▁efficacy
▁gly
BK
ociated
▁IA
nisone
▁episodic
▁artery
lep
duced
ositive
▁concordance
▁opi
facial
▁Alcohol
iliac
▁reproducible
▁implantable
▁Ara
▁discon
▁esophag
▁BV
▁metastatic
▁illustrates
▁OC
▁underg
▁attrib
▁underlie
retro
▁ratios
▁microb
▁TG
▁biopsy
▁kidney
▁sequentially
▁allo
▁PVR
▁consequent
▁mucos
▁placenta
sych
ocarcinoma
atitis
▁perforations
▁peptic
ferential
KD
razole
▁hypertension
glyc
ometrial
▁depr
48
cutaneous
romed
▁chemo
1-3
lob
▁onc
▁assis
▁callus
▁heavi
▁pedigree
atients
▁topical
▁migrated
▁amin
▁BPs
▁Medicare
▁widening
▁glomerular
▁tidal
▁systemic
ailure
▁cohort
▁ventricular
kele
▁stellate
▁Mothers
uting
TSP
▁deprivation
▁contaminated
trexone
▁athe
osal
eared
phal
▁colloid
▁15
▁problematic
▁supervision
ithm
▁Delayed
▁rati
▁detachment
▁umb
▁unin
▁needles
▁epileptic
▁postmenopausal
▁homogene
estim
▁pregnancies
lapping
▁specialty
▁histological
▁Continu
▁onset
▁lis
▁stren
▁tissues
othermic
▁arthritis
idate
Ca
▁naltrexone
acting
▁immig
▁tailored
itoneum
▁adolescence
▁hazards
physiologic
▁endemic
▁depic
tic
▁tran
▁carbohyd
nec
▁radiography
▁effic
osocial
▁tib
ignant
▁insufficient
▁tuber
1)
▁deformities
▁1.7
atine
▁detach
▁leisure
▁tert
▁interv
rophy
▁chemotherapy
▁pharmac
ritis
olectomy
▁confron
▁juven
ansing
▁occupational
▁trophoblastic
▁tes
▁hospitalized
▁complementary
opi
▁specimens
▁derange
▁immunological
▁impaired
olated
▁stillbirth
▁fatty
Wo
oretical
ventricular
▁embry
▁ambul
▁neurop
▁75
▁femur
atest
yloid
▁socioeconomic
▁linoleic
▁immun
▁emerg
▁79%
illary
anese
▁erroneous
▁randomized
▁radiological
erations
ivocal
ustained
▁vasomotor
birth
▁atheros
▁PV
rectal
▁advancement
▁indications
reported
▁relap
feren
▁musc
TK
▁invasive
▁cardiomyopathy
▁modulates
rene
▁syndromes
▁Whilst
▁gait
▁attentional
▁GFR
▁metformin
rane
000
clo
vac
edullary
▁discomfort
▁measurable
▁congenitally
.7
Fs
▁unstable
▁agonist
utions
▁memb
▁Streptococcus
sess
▁infarction
▁insufficiency
▁perceptions
▁VL
emia
▁necrosis
▁localized
ontal
▁preoperative
▁erosive
ipid
crimin
▁57
echan
▁Chest
▁paraplegia
▁PSA
ocusing
▁VAS
kely
▁exogenous
▁22).
▁repres
ubted
gm
▁contamin
▁extre
lastic
urys
▁identically
oxic
tro
▁coeliac
▁leukocyte
▁transurethral
tero
▁iliac
▁eluc
▁rotational
ventional
vaginal
▁transi
▁Severe
▁serum
▁Neu
▁comprehension
ocyte
▁verte
Ta
idis
▁hepar
▁ventric
anol
estig
▁cla
▁confined
▁SCH
economic
▁pancre
spective
▁elucidate
▁screened
▁demonstrating
▁Comparisons
cold
▁apex
▁nonoperative
phic
versity
▁Medicaid
lyc
urin
▁thresholds
▁rheumatoid
▁malle
▁hypoxia
ofol
▁Tumor
legia
▁PCP
▁hu
▁latent
MRI
pendent
▁ADH
uterine
phos
▁followup
▁irritation
▁retrospective
▁exposures
anis
▁Dil
▁reproducibility
▁amp
spectively
▁Preoperative
▁cohorts
▁phy
▁neon
lore
▁buccal
ithiasis
▁hyperfiltration
▁macrophage
▁HMO
▁orthopaedic
quired
▁laxity
rals
▁depar
▁uncomplicated
▁hemorrhagic
stages
utin
acetylcysteine
▁CABG
▁poisoning
▁nosocomial
nI
tyl
essential
uvant
▁conclusive
▁practic
▁DF
▁Taken
scopy
implantation
▁homogeneous
ithin
▁challen
uscular
urgically
▁HCMV
▁maternal
urgical
▁undergo
bly
▁oste
▁palli
▁causative
ministration
nosis
▁intrav
▁questionnai
▁eosin
▁RM
▁merit
▁bronchial
▁pharmacy
▁UT
tected
arer
pT
▁ambient
▁GE
▁amines
▁nasal
rectomy
iol
▁endos
muscular
▁spon
dop
eric
▁lesions
▁15%
