▁anaesthe
oscopy
eptides
▁validity
ulatory
▁airway
oyl
eight
oscop
▁fetal
▁muscles
▁solub
oproterenol
▁1.
▁1.5
lastic
onin
▁findings
▁protoc
▁Phen
independent
▁stenosis
omized
▁VA
dominal
▁prophylactic
▁pylori
▁AIDS
▁hazard
sial
▁algor
odium
bility
-6)
▁androgen
▁gamma
tagland
▁NaCl
▁adenoma
▁autosomal
▁hemodynamic
▁genes
▁transloc
▁measurable
▁pelvic
ochondr
▁Phy
▁PV
versely
▁anesthe
8-
7)
▁undergoing
▁facilitated
gesterone
▁suppressing
▁thoracic
▁pyl
▁flexion
aints
rehen
▁exposures
▁perfused
▁enzymatic
atients
▁pretreatment
▁injected
▁pH
▁atrial
▁yeast
aryngeal
▁pathways
▁cancers
▁disruption
▁interleukin
▁oxid
▁experim
Cu
▁fibrob
▁maternal
▁considerably
▁raises
▁Immun
▁reductions
▁isolates
pite
▁responded
oxia
▁emerg
▁complic
▁(3)
▁determinants
▁catalytic
erin
lec
▁rati
▁produc
▁15
▁GM
▁atten
▁diagnosis
crimin
.7
▁solely
▁MHC
omal
ipine
▁adequate
athy
MN
▁cardiac
rated
▁undertaken
comitant
▁tooth
ivocal
▁197
▁unexpl
armac
▁regimen
▁caud
▁hypertensive
ipher
49
▁dietary
▁ketamine
▁cumulative
▁extrac
chol
BG
ycl
▁serotonin
▁margins
rocy
▁restenosis
uccessful
▁preparation
thal
▁diagnosed
▁resistant
anyl
▁ultrasound
▁(9
▁Clin
▁extracellular
▁confound
phosph
ecu
jug
ocyt
▁vaccine
▁cerebral
▁validated
▁micros
▁rehabilitation
orax
nutrition
cAMP
gative
▁leukocyte
responding
▁tracers
mature
▁iliac
patient
▁spontaneous
▁cultured
▁concer
valence
▁fluorescence
▁intracellular
▁placebo
▁carb
▁HS
▁mell
▁axons
▁noradrenaline
▁glomerular
▁(7
▁juvenile
▁RS
-67
tabol
▁babies
leu
2%)
osts
GD
ortic
▁respec
▁sple
▁hydroly
▁connec
otypes
▁remo
▁subunits
▁proximal
▁differing
▁PT
▁multiv
virus
▁coronary
atrial
▁sero
▁intensive
▁glut
▁consequent
tiveness
▁streptococci
76
▁biological
▁DT
▁hams
▁substitu
▁substanti
▁chor
▁ACE
trition
tization
▁spinal
adren
▁retin
▁TA
▁substances
▁screened
actin
▁satis
▁20
▁facial
ults
economic
aginal
▁(4
▁aneurysm
▁500
▁lymphocyte
▁behavioural
▁SCH
ditions
atical
▁percutaneous
erence
odialysis
▁umbilical
ffinity
ifferen
BV
▁anticoag
▁congenital
▁indication
kDa
treatment
▁insufficient
▁hypog
▁prophylaxis
phrine
rogenase
ctive
▁inversely
▁carbohydrate
▁haemorrhage
▁leuk
▁colorectal
▁preparations
▁influenz
amethasone
▁radiological
▁vomiting
▁testicular
urine
▁ACh
rogra
▁chemotherapy
▁adenosine
▁thresholds
▁adjusted
isol
ovine
▁uptake
▁transpor
▁OT
▁presenting
▁Increas
▁pathology
onomic
▁limb
inj
facial
▁adjuvant
▁inactiv
▁glutamate
arate
tension
▁microns
▁cortex
▁diabetes
▁6.
▁macropha
▁elic
orin
▁modulates
orpor
atase
▁HLA
treated
▁catheter
▁hormonal
▁hormone
.5
▁hepatocytes
▁cirrhotic
tice
▁clinic
4,
▁spon
▁phagocytic
▁CM
▁intrap
▁prophyl
clinical
▁32
▁neutroph
▁chan
glutin
tub
truction
plasia
dehyde
▁PCO
lasses
▁phospholip
▁distin
▁diagnostic
atell
KD
▁nal
▁DG
▁microb
▁overl
ercise
▁elu
▁amyloid
vents
oglobin
▁promoter
kage
▁normo
▁amino
▁nervous
▁employing
rophob
▁(3
25
loro
-10
▁physicians
▁myo
▁37
▁relap
itol
▁reversed
▁contral
-2-
generation
.0
▁blot
▁wound
▁plaque
▁RT
▁cytotox
▁characteris
▁assessing
veness
▁chloroquine
▁31
▁72
▁benz
▁sensory
▁homogeneous
▁oxide
▁2.5
▁reag
▁inhibitors
▁organisms
▁liver
▁preventive
▁dental
▁clinics
rati
▁predomin
▁sensi
▁radiol
▁33
kade
tin
protein
▁fentanyl
renal
▁cephal
▁equilibr
▁syndrome
ectin
▁monoclonal
acr
agic
▁chloride
cents
▁acidosis
onyl
mTc
.2%
▁rejection
ept
▁positively
97
lobin
loid
▁nm
esthe
▁promoting
olol
,000
▁acco
selec
▁pulmonary
▁chori
▁palli
▁polyethylene
▁carc
▁compound
aturation
▁demographic
▁extensor
▁implantation
▁pneumonia
▁IgE
labeled
▁implant
▁antagonist
▁(198
▁pressures
▁dosing
▁remission
▁monke
▁GI
▁chemotactic
entan
oids
oclonal
▁mmol
linked
▁surgeon
▁25%
▁genotype
ochrome
▁meth
▁PI
10
▁neutrophil
▁occupational
▁chond
▁drinking
▁synovial
▁clearance
oxif
▁predictive
▁herpes
tate
fts
▁depressive
-6
▁subjec
pinephrine
▁Accordingly
▁mellitus
tron
▁innerv
▁neuro
ignificant
aluation
▁tol
ofol
0-
ycin
▁reacted
ocl
1)
▁postoperatively
▁GF
▁judged
▁heterogeneous
▁Large
▁hospitalization
▁eliminated
▁GV
▁plasma
▁0.05).
▁chromat
▁venous
rous
alues
itr
▁diabetic
wk
▁progesterone
13
oxy
rogen
▁murine
cepti
unctional
▁79%
derly
▁differed
▁systolic
lasts
53
▁labeling
2+]
▁paralle
otropin
DG
osynthe
acet
▁pyramidal
▁immunohist
▁RB
vul
▁metabol
▁parotid
6%
14
▁aorta
graft
▁adenylate
▁strains
▁cava
▁severely
▁discrimin
▁duct
▁tas
perfusion
▁persis
bacco
▁monocytes
▁moderately
▁anomalies
ontal
▁pS
▁targe
-1-
▁aggregation
MIC
▁healthy
ogra
.9
▁intrav
▁mamm
▁endoscopic
▁unchanged
itary
▁establ
▁identif
▁49
▁MV
▁illness
cine
▁abnormality
went
▁PE
▁chains
onuclear
spective
ocytes
▁schiz
▁rabbits
.4
▁impairment
▁metastasis
oxin
ymme
▁extraction
▁46
5,
ostic
itin
▁150
▁bile
▁abortion
▁kerat
▁0.5
ergic
uvant
tric
▁infusion
tak
inemia
wenty
▁excre
tively
▁24
TNF
▁surgeons
vival
▁neurons
▁medial
arge
▁demands
Mu
▁PG
19
▁alcohol
▁immature
▁ventilation
tial
entric
zation
▁cyt
tional
cence
▁24-
▁prognostic
▁ranged
▁withdrawn
60
▁antib
ses
acerb
lasting
▁surviv
urea
anic
seud
▁GD
▁HPV
▁parap
▁crest
▁infiltration
ximal
▁depres
▁suscepti
2).
▁prol
▁NP
▁(0.
▁IgM
erative
▁ongoing
▁gland
icated
▁Bec
▁haem
▁17
▁contractions
ulin
sized
chym
lective
kinase
BM
infected
▁epid
ventricular
▁occl
▁unsuccessful
ysm
▁secretory
olesterol
▁fracture
▁utero
▁pathological
▁preven
▁receptor
▁thigh
▁Streptococcus
▁reflecting
▁uncom
opl
▁determination
▁yiel
▁tryp
glyc
▁potency
▁conduction
▁predicts
▁elderly
▁spleen
trum
▁latent
▁poten
▁demonstrating
▁agonists
iol
orepinephrine
▁cortisol
ritis
▁contraction
arent
▁elimination
▁imaging
▁neurologic
▁toge
ithm
▁urinary
▁hypertro
▁LV
▁systemic
effec
▁predominant
9,
tryp
▁PET
▁detec
▁substituted
▁TG
12
▁progression
▁Plas
▁calcification
▁feasibility
▁manifestations
▁insulin
56
▁Sout
▁exten
▁multicenter
▁phosphate
▁oxidation
▁amin
IIIa
xia
▁potent
mide
ficial
57
tact
▁localization
iasis
▁55
▁IA
▁adolescents
ociated
▁Km
▁phosphorylation
▁parame
idne
adily
istically
▁morphology
▁scintigraphy
▁PSA
idation
▁undergo
▁rhythm
phyl
▁hemoglobin
▁saliv
▁pelvis
monary
▁neo
▁contrac
▁(20
ophren
▁ADH
▁LC
angl
hyp
▁overex
▁tobacco
▁8.
▁tissues
oes
▁antibody
▁epiderm
▁macrophage
▁electr
▁hepatic
sequent
▁disrup
▁attenu
tics
▁pathogenesis
Ps
onography
▁Escherichia
75
▁transcrip
▁describ
▁cytosolic
siological
▁bypass
alian
▁Hg
▁morphological
▁participate
▁10(
▁nuclei
IU
▁intraven
obarb
OA
▁myocardial
▁balanced
▁assis
▁buccal
gents
asic
▁projec
ingle
ologic
ocarcin
sA
sities
▁metabolism
▁melanoma
erate
positive
▁40%
mitted
immun
▁ery
▁contralateral
▁discontinued
relations
▁collec
/100
▁pall
▁mechanisms
-1,
ithi
▁excision
uation
▁intrag
▁psychosocial
▁explored
2),
ylation
▁8-
▁25
ocytic
siveness
▁inflammation
▁inh
▁genome
▁subf
pyr
▁abnormal
▁bipolar
▁monit
enh
ulae
obl
HM
▁bac
olarization
trib
▁curative
tle
▁filtration
▁RBC
▁peptic
▁BP
▁unex
▁questionnaires
▁adhesion
22
tec
69
4-
▁10%
oglobulin
▁abnormalities
▁frac
▁complexes
▁congen
▁intrac
▁epithelium
▁4,
▁cocaine
▁paras
▁TC
uterine
▁Intravenous
oidal
▁mV
70
▁enhanced
▁(2
▁tachyc
▁challen
000
▁definitive
▁injections
▁sodium
▁comprehen
lobulin
▁adolescent
▁geniculate
unced
▁strategies
ergen
▁synap
mL
urgical
▁coeff
ration
▁carcin
usp
▁vascular
TG
▁ward
▁triglycer
▁reversible
▁portions
▁0.7
▁pharmacological
▁mucosal
40
▁retur
▁reactions
▁behaviors
▁peripheral
opath
▁Throm
tiv
▁1)
▁MRI
dial
▁bic
intestinal
▁disorders
ariate
atinine
▁Serum
oglyc
▁chronic
▁enhance
▁conductance
▁BM
amide
▁astro
essive
▁mortality
atid
▁expend
BK
▁fatigue
▁bab
-2,
▁targeted
▁beneficial
▁ultim
▁cultures
▁chromatography
▁40
▁adaptive
anine
]-
iable
rection
▁unil
operative
ially
▁laboratories
▁suggestive
▁consis
▁Addition
▁emotional
▁modest
▁muscul
▁headache
▁physically
▁doctors
▁phosph
▁nurses
▁cadaver
▁tris
PV
tur
/2
▁degrad
▁cys
▁deprivation
epti
▁decreas
▁advances
▁suppressed
-450
▁proteins
▁subunit
▁dorsal
enol
▁recipient
▁reproduc
ctomy
▁48
romes
/1
ighted
▁characterize
pendent
ilical
▁differentiation
▁statis
itoneal
▁randomized
iosis
urgery
▁mum
ymptom
▁glycoprotein
▁tyrosine
▁surf
orbol
endri
▁glu
▁defects
mong
omical
tents
aemia
▁compliance
ophageal
▁3-
▁physici
lix
▁barrier
▁smoking
▁pregnancies
▁mucosa
▁constitutes
lycer
ploy
▁plac
▁lis
mia
otox
▁microM
▁topical
▁risks
radi
▁antagonists
▁influences
▁granul
▁TB
▁intramuscular
otide
▁endoscopy
▁posi
oric
bular
▁stimulation
▁panc
▁Lys
▁sarc
igaret
osity
▁AMP
▁newborns
▁specificity
mittent
▁undetectable
trin
acement
▁reac
▁cyst
▁venti
▁lungs
NM
otoxin
▁(1
testinal
▁adherence
▁olig
taken
▁enhancing
▁dose
▁lobe
▁cleavage
▁nutritional
▁ethnic
▁replication
▁pump
▁comprehensive
iliac
▁reagents
▁accel
▁0.6
ondr
tering
▁placenta
▁traum
▁infection
ivation
▁stimulatory
entanyl
embran
▁guinea
-3-
▁85
▁inflamm
▁antiser
▁corneal
▁hepatitis
▁onset
Phe
▁repl
▁lymph
-8
▁selectively
gans
▁desm
▁affinity
dle
▁Acute
▁endogenous
6.
▁regulatory
▁complication
▁fibroblasts
▁assay
ellar
eliac
▁34
▁traumatic
▁11,
▁thym
tries
▁Phe
▁anastom
▁ml
▁50
▁proton
7,
-2
activation
▁tubular
▁FSH
controlled
▁exis
▁concentrate
truc
▁PRP
EA
▁physiological
▁arterial
▁induces
▁correlates
▁synthe
▁physiology
▁myel
▁therap
idase
▁surgical
adder
▁200
▁biopsy
▁demonstrates
olution
atonin
▁0.3
▁molecules
▁reperfusion
▁desirable
▁tumors
▁influenza
▁confined
▁investigated
▁attemp
▁constr
▁parental
oag
▁APC
▁mediated
yro
aptic
▁spectro
heal
▁deficiencies
▁deficits
teine
versus
sensitive
▁resting
▁examin
▁dys
▁residue
▁evaluating
32
▁13
▁0.1
▁basal
minal
▁focusing
oscopic
▁ablation
▁circumferen
▁absorption
▁meal
birth
-3
▁duoden
▁acet
▁opioid
+)-
▁malignant
▁behavioral
▁suture
▁HA
▁peptide
gene
weighted
ipit
atitis
▁burden
▁Treatment
roscop
▁acetylcholine
▁prospective
bly
phosphor
▁laparotomy
▁efficacy
▁affec
heric
▁CMV
DH
▁paradigm
tig
ylate
▁exclusion
▁HCC
▁198
ensitivity
▁depletion
▁symptoms
▁resection
▁putative
thle
▁vena
▁prognosis
osterone
▁reactivity
lyce
hospital
▁peritoneal
▁GFR
mol
▁ischemia
5.
glycerol
▁seiz
hydro
▁immunofluores
▁radiographic
▁Intra
▁tracer
arb
▁14
othel
▁pregnant
▁elec
▁natri
alsy
▁meals
▁polypeptide
▁excluded
▁coex
▁prono
sion
▁pati
duction
▁2)
▁subc
▁45
▁horm
opic
▁125
▁needle
rae
ectomized
▁ET
▁irrit
years
▁sour
iciencies
tum
▁affects
ochem
▁42
RF
▁cognitive
▁Afric
▁sensitivity
▁preoperatively
▁rated
▁enrol
▁GH
▁trend
adrenergic
▁enl
▁diseases
emic
ovascular
▁laparo
echan
▁dors
▁endometrial
▁mitochondria
▁atmosp
▁Hb
▁cues
0.5
▁PTH
ivariate
immune
ocrine
▁pulse
▁perin
▁fulf
▁axillary
▁ratios
idine
▁52
▁27
▁intra
inated
▁isch
icine
9-
▁antic
gluc
terase
▁LDL
oprote
▁cystic
▁agonist
▁poorly
▁mRNA
▁EGF
-1)
ensitive
mediately
▁infected
itance
-5
plication
▁glutathione
opi
▁graft
▁peroxidase
▁thrombin
▁16
▁lipid
▁impair
luores
urys
▁nutrition
▁epinephrine
▁satur
▁kidne
ortal
▁irradiated
entif
ticular
▁IGF
▁classified
.3
▁Compared
▁improves
▁histologic
▁differentiate
lusion
yses
atine
▁platelets
sia
▁wors
tus
oplasm
diagn
▁ECG
▁improving
▁manu
duced
ylase
RP
tead
sor
▁temperatures
▁discus
oxygenase
regulated
▁preterm
17
▁angi
amn
▁develops
▁lumbar
▁strom
▁achie
▁skeletal
▁inoc
▁rheumatoid
▁dex
80
oradi
titu
nRH
threatening
▁recurrence
▁LN
▁perc
osyl
▁questionnai
astolic
opres
▁oral
iatric
rele
▁vaginal
ffer
rox
▁atheros
Tc
tradiol
kely
esity
ecyl
placement
▁ambulatory
▁10.
▁10-
▁kine
▁0.01).
feron
▁recons
▁nodules
adequ
▁tissue
▁inhibition
▁zinc
GF
overed
▁Pretreatment
RNA
ximum
ressed
67
4%
utaneous
▁COS
▁hypertension
▁cervix
▁(12
▁athle
roup
▁microsomal
▁ure
▁heavi
brain
▁underwent
▁exce
▁healing
▁Twenty
▁aging
▁indi
▁acqui
assay
▁chest
▁nasal
▁micrograms
▁genetic
otent
▁cen
duc
roxim
vely
vated
▁sequential
▁baseline
xone
▁colonization
erox
ylcholine
resistant
▁competi
▁symp
▁malign
▁sepsis
oplasmic
▁chec
▁hypoxia
▁turnover
▁CK
ectomy
▁aspiration
▁80%
▁cloned
▁fati
erent
▁intestinal
▁embryo
ocamp
ograms
▁exhibited
▁6-
ialysis
ocytosis
▁ovari
▁deple
centr
▁discharge
ymp
▁adhe
▁apical
▁chemot
2)
▁variability
▁plates
▁corne
▁digestion
▁stimulated
▁Taken
▁auditory
rested
amine
ubation
▁synthetic
▁intense
alact
duce
okine
uron
ucle
▁radiotherapy
▁inappropriate
▁alveolar
▁encour
ethyl
sive
▁lith
ylamide
sies
▁intraoperative
reast
oic
produc
▁endot
▁reactive
▁examinations
imens
lux
▁prednisone
alc
▁ile
4)
▁fluores
▁43
▁investigations
ensity
▁athletes
asone
▁cure
ostatin
▁thromb
▁fluor
▁nucleotide
odies
eak
▁phenotype
omerular
▁plas
▁hypo
adiol
▁trypsin
lue
acchar
opes
▁exacerb
▁infused
▁lactate
▁99
-19
PB
opausal
▁PP
unctions
lym
otherapy
▁protective
vascular
▁cate
▁comparative
▁transplantation
ypical
▁perme
▁iod
ocul
▁intervention
plantation
▁incub
achid
▁mammalian
ials
▁macrophages
▁sexes
▁nmol
oA
▁dopamine
▁(19
ecre
oceptor
▁distinguishing
urate
▁polymorph
▁pulp
▁rotational
▁fibrin
▁occlusion
▁habits
sess
▁gastric
▁disappearance
▁ventral
▁haemorrh
▁unde
ropha
▁21-
▁anesthesia
▁diminished
ancre
▁thrombolysis
functional
responders
▁arteries
▁immuno
▁bloc
ameth
▁pmol
natal
▁myocardi
▁ulcer
▁lumb
▁chloro
▁rectal
▁tox
▁practically
ilization
▁anticipated
▁analyzed
▁bleeding
▁pancre
▁dexamethasone
▁substrates
▁paren
sych
▁alkaline
▁alve
▁adverse
▁ascertain
▁alteration
ascular
idity
▁quin
▁201
▁organs
▁VO
▁resusc
▁cryst
▁peptides
▁57
▁erythrocy
▁mitral
▁hydrogen
opha
▁examination
invasive
▁insertion
▁cochlear
▁kidney
rease
▁TSH
▁periodon
oxygen
▁cyclase
▁acetate
▁oes
▁exposure
20
▁75
▁GVHD
aryn
crib
ocular
oracic
GH
▁nurse
▁cAMP
▁saline
▁Comparison
atectomy
▁38
resist
▁differentially
acrylamide
▁atropine
uptake
▁abuse
▁analys
quine
▁subgroups
▁immunos
▁conduc
▁alcoh
▁melan
▁ae
minis
risk
▁retention
olytic
▁autoimmune
ophilic
▁glycos
osal
ministration
▁carcinoma
▁morbidity
▁trauma
otomy
accharide
0%
▁elevated
ostomy
▁stab
▁tamoxifen
▁possi
▁rabbit
osin
▁displacement
▁contractile
▁PCR
▁ischem
▁18
oprotein
▁mature
▁infil
erating
ece
tivity
ocial
ulmonary
grees
▁predic
▁throm
▁synergistic
onucle
helium
menopausal
▁stimulate
romed
eric
▁uter
ressing
▁cerv
5-
▁0.4
hers
▁childhood
sy
▁therapy
▁oxygen
rents
▁lipoprotein
▁immunode
hyd
idis
▁impaired
assi
▁sedation
▁gradi
▁pancreatitis
▁allergic
▁PH
▁probes
▁wk
-5)
containing
▁favorable
▁carbohyd
▁toxic
▁lact
▁conclu
oplas
▁anemia
8)
▁periodontal
▁ethanol
▁juven
▁belie
▁debr
▁increas
▁affecting
▁antigenic
▁gangl
▁12
MH
oxid
▁interv
▁deficiency
▁hepar
▁stimulus
olic
ophag
▁initiation
▁sphincter
▁mutant
▁consecu
30
▁prolif
▁metabolites
FU
▁bronchi
▁adults
▁shor
amino
olute
▁proliferative
▁abdominal
▁respondents
▁compli
▁homogeneity
▁mothers
▁LD
▁blockade
▁PF
▁AI
▁oxygenation
avage
▁multim
▁carcinogens
lep
▁intest
▁synchronous
tyl
trip
▁TNF
▁MH
NH
▁cervical
44
▁vitro
▁instr
WL
▁synaptic
▁5,
4).
▁markedly
acts
IgM
▁asthma
atched
uded
ofluores
▁cytoplasmic
▁RNA
▁invasive
lymph
▁exchan
ateral
▁vaccines
9)
▁concurrently
hest
▁progres
28
▁subun
▁centr
▁19
versity
▁prenatal
anded
▁0.2
prising
▁7%
▁survived
▁3)
6)
toc
▁unilateral
▁transi
Ki
▁endothelin
▁Hz
osomal
▁sympathetic
mediated
▁effectiveness
▁Chemical
atoid
▁transient
▁vivo
▁feeding
otyp
▁lesion
▁enlarged
▁prevented
▁extre
acil
▁subtype
▁fiber
▁untreated
rates
▁analyses
amination
otype
HB
▁50%
▁adequ
planted
▁arteri
▁predominantly
21
▁microscop
asting
▁aor
8%
▁scin
zyme
▁paradig
▁supple
VT
▁spectra
ogenous
▁thi
pecific
▁reconstruction
▁microv
▁immunore
8.
sue
▁perfusion
▁emergency
▁consistently
▁sustained
▁vagal
▁objec
▁residues
acetyl
ranolol
itant
▁hemorrhagic
▁ester
iaz
▁mineral
▁aden
0.
▁canc
lood
tabl
-12
atient
cysteine
▁sequel
▁1.6
ospor
▁umb
▁medication
▁contex
▁vitamin
▁mutants
▁defic
unts
▁inactivation
omycin
▁stimuli
iant
▁currents
erance
inic
▁oxidase
▁44
▁56
▁marrow
▁lacking
▁follic
▁70
▁silic
omies
▁newborn
▁synov
▁ventric
▁overlapping
usal
▁polypeptides
▁DS
-1.
▁pineal
▁atrophy
▁ultrasonography
▁simultaneous
aid
▁hypothe
▁interferon
▁biopsies
▁minority
▁phe
▁ASA
▁follicular
▁immune
▁cats
▁aort
▁Removal
▁CSF
genic
▁perip
abies
▁suppression
▁PCP
▁glyc
▁Samples
ylated
▁hig
▁identifying
bladder
▁phenomenon
▁cytology
▁thickness
▁HM
tein
▁Bone
asive
▁arth
iably
▁adi
tase
icide
▁consequently
▁sulf
clerosis
▁prolactin
▁LT
▁reticulum
▁mutation
▁tachycardia
▁morb
▁ultras
▁thrombo
▁adenocarcinoma
▁bacterial
▁esophageal
▁numb
▁irradiation
▁reflux
▁defec
▁suicide
▁reper
▁nitrogen
apeu
▁20%
▁quanti
▁Tumor
oxidation
tomy
ulates
0,000
▁acids
uran
▁sciatic
cture
▁unstable
ureth
▁perception
▁3'
15
▁FT
▁cohort
▁cortical
▁thromboemb
transfer
kines
▁(15
▁injuries
▁nerve
vac
▁Mg
nai
▁inherent
piratory
▁95%
alp
ching
rosis
▁immun
uble
▁abdomen
▁recurrent
▁adrenal
▁surround
▁(8
▁hydrox
estis
▁awa
▁Continu
▁cytotoxicity
occal
▁salivary
▁100%
▁recombinant
clin
▁reliably
▁repor
▁nig
oconstric
▁cuff
5%
▁electrical
▁dissociation
▁cann
omod
▁differen
▁referral
▁(5
▁30
ATPase
ologous
▁collateral
▁chick
▁stu
▁ranging
▁adjustment
▁metabolic
▁eosinophil
▁propranolol
▁bronchial
▁2
ampl
▁ventricular
▁ganglion
▁clinically
▁reticul
educ
▁prospectively
▁cesarean
▁investigating
.2
▁oste
▁iso
tors
uretic
illance
licular
-4
rectomy
ications
▁discon
.6
▁evoked
▁amo
▁gastro
▁unrelated
▁obese
▁tubes
▁inhibin
geal
▁PB
▁surgically
thyl
▁microcirc
lycerol
▁aspir
▁mononuclear
orac
▁bacteria
▁phy
eptid
osomes
ilized
▁nM
▁postoperative
▁chemo
onary
▁90%
ovirus
▁dehyd
▁concom
rotid
▁retinal
azole
affinity
▁reagent
onor
▁biop
1-
▁testis
ncy
▁psychological
▁atr
▁localized
ellular
▁anomal
▁microvascular
▁reproducible
hyde
filtration
asal
▁etiology
+,
▁probe
▁follicle
▁feasible
▁2.
▁antigen
lated
▁pituitary
▁spikes
▁induce
▁circulating
▁intake
▁volunteers
▁pharm
▁prostagland
▁histological
▁PMN
▁poin
reased
▁molecular
▁85%
reness
entary
▁atherosclerosis
▁65
▁mitochondr
olec
▁endothelium
▁ech
▁prevention
Ds
ocardi
odil
▁TGF
tile
▁artery
▁compartment
ropriate
greater
▁ventricle
▁knee
▁retrospective
▁restor
▁physician
zard
▁embryos
48
feren
acin
▁(100
▁socioeconomic
▁anat
urc
▁nons
▁lys
▁neurological
▁perox
▁immunological
▁drain
▁infarction
arean
idney
)2
6,
▁VL
▁12-
▁2-
0%)
▁heterogeneity
▁cholest
▁utilization
scherichia
▁deter
▁quantit
▁polyp
▁laboratory
▁fibres
▁regis
5).
▁elucidate
carb
▁dendri
▁edema
moid
▁guan
▁terminals
▁thyroid
vation
▁microm
▁physiologic
▁buc
ochemical
▁sinus
MG
ometh
▁progressive
▁undergone
▁cereb
▁GA
icin
▁inhibitor
BW
34
▁pate
illus
ocar
▁eluc
opa
derived
▁inhib
▁circulation
▁phosphatase
▁resonance
54
idated
▁Whereas
▁GTP
▁interventions
▁saturated
▁appreciably
▁uterine
▁experi
▁hCG
vail
▁Tum
herent
▁migrated
matic
pation
▁microgram
ropriately
helin
▁osteoporosis
▁MT
▁recessive
▁predictors
stim
▁resec
▁plasm
▁2.0
▁86
▁41
dition
▁symptom
▁multic
▁kinetics
▁correlated
▁nursing
▁profound
▁structural
eroxide
▁implic
olysis
1%
▁adminis
diol
▁pronounced
▁erythrocytes
▁fold
otassium
▁benign
▁progn
▁kDa
▁36
▁inadequ
fron
phosphate
keletal
quid
ATP
▁assessments
fected
toph
uscular
▁maturation
7.
▁micron
dose
▁reveals
▁Swed
▁weigh
▁spontaneously
▁23
▁scanning
▁decreasing
gth
▁strain
▁preval
▁deform
▁fractures
▁Kupffer
▁dysfunction
▁accumulation
adherent
ectom
▁reviewed
▁cortic
▁NH
▁apop
▁gestation
terminal
lact
opathological
▁antibiotic
▁kinase
▁arachid
tially
▁19%
▁70%
▁diet
▁behavi
▁infar
▁(1)
luent
▁surveys
▁GnRH
▁athe
▁cigarettes
.2%)
▁glucose
▁complementary
razole
leukin
▁grading
▁7
▁occurring
▁selec
▁Increased
▁donors
throm
ranial
▁recur
▁epidermal
ancies
uccess
▁toxin
▁diastolic
▁Patients
▁1.4
▁quantif
atest
▁cholinergic
tox
▁conservative
▁antagon
▁Fc
venous
tained
▁incubation
bic
4.
receptor
rological
3%
ffin
-20
BP
▁selective
hep
yroid
▁hemodialysis
▁bip
tized
phic
kers
RH
erated
▁screening
▁5'-
▁mobility
▁shif
▁resuscitation
▁thickening
ignant
esic
▁gallst
▁ventil
▁Significant
▁diluted
8,
▁receptors
▁abolished
eptide
His
3)
ineal
▁peripher
nthe
▁inters
ologists
▁adenomas
ardia
▁NB
urther
otor
▁120
arly
Hu
iotensin
▁administered
▁excit
▁attrib
▁steroid
▁60%
▁seroton
▁fixation
▁hypothal
acental
roximately
sus
ervical
▁ey
▁carbox
aturated
activated
▁esophag
▁bronch
3.
▁nerves
▁recipients
▁eating
tual
99
1).
▁shortened
▁controversial
▁ligand
▁prostatic
omes
ureus
▁membran
▁obesity
▁0.05
▁cardiomyopathy
▁limbs
▁carriers
LISA
▁likelihood
▁births
stimulated
tility
▁90
rine
▁6
78
resting
opressin
▁compounds
▁vasodil
▁intermittent
▁encoun
▁cere
▁cirrh
▁developmental
assium
▁substrate
▁epit
▁amputation
▁hetero
onset
tant
▁cardiomy
▁tetr
oride
▁widespread
henyl
▁bilateral
▁concentrations
▁testosterone
▁pneumon
atment
▁predicting
▁permeability
▁lesions
▁monitored
▁Clinical
▁tertiary
▁homogen
▁gonad
▁Biochem
▁mice
▁pregn
mg
▁guidelines
umerous
▁phorbol
▁molecule
▁Cox
▁postmenopausal
▁ACTH
olus
▁4
fat
▁provid
tically
▁docum
aired
▁polymerase
▁interc
▁poisoning
▁mutations
ographically
2,
▁influx
▁regulate
▁bacter
▁neoplas
.5%
estern
▁ischemic
▁regimens
▁gon
▁seizures
▁presumably
▁strep
▁anatomical
▁hepat
▁0.00
transferase
andard
ompan
▁bone
▁grafts
29
▁theore
▁regar
▁Plasma
▁presum
▁biosynthe
-14
DNA
▁hemat
▁regulation
▁chromosome
▁infections
▁thir
▁oxy
▁5%
▁5-
▁failures
coh
▁9
▁1.3
▁synthesized
▁characterized
▁proliferation
titial
▁granules
▁7.
▁monkeys
▁aspec
urin
sis
▁exogenous
▁mediates
▁carcinomas
▁metastatic
▁hep
▁potassium
elec
▁resected
▁discrimination
▁mAb
▁32%
▁implicated
▁distal
▁PD
▁tumor
▁gains
antial
▁fibr
▁0.01)
▁atm
-9
rophy
regulation
helial
▁uncommon
ynthe
▁reductase
entricular
▁unaffected
▁stained
▁21
tensin
(+)-
▁contamin
ichia
▁cholesterol
▁necrosis
▁1.2
▁microscopic
▁surveillance
▁kb
othelial
till
tention
▁colony
▁tolerated
▁slic
bac
▁contributes
▁compartments
▁drin
23
▁RP
totic
amic
gm
▁vein
▁80
hydroxy
FN
▁deficit
▁aimed
▁UV
hea
gic
osine
plied
apse
sions
▁insertions
▁stomach
▁3
▁surgery
▁purified
itic
▁clones
▁lamb
▁plasmin
▁hyperg
▁unres
▁CRP
▁51
▁mann
ronchial
▁molec
▁synerg
▁respiratory
▁differentiated
2+,
▁heterogene
▁scans
▁enzyme
astric
aemic
▁awareness
▁phosphatid
▁septum
idate
▁hydrolysis
▁secreted
▁overe
▁trache
rected
▁disability
▁quantitative
▁cataly
otropic
apeutic
▁respon
itro
3,
▁neutrophils
▁IgA
.1
▁aerobic
▁28
▁familial
▁tiss
▁phospholipid
olip
▁1-
▁assays
▁smo
gland
▁cyclosporine
aced
Hb
AIDS
aneously
▁stimul
▁thorac
▁ket
PAP
▁regulated
▁elevation
▁postnatal
mental
▁renin
tic
▁inhibited
2%
▁ane
▁altered
rosine
▁sclerosis
▁calcium
cessive
▁sph
tinu
oplasty
entical
ithin
▁effec
▁heparin
tent
odynamic
▁0.05)
▁metabolite
▁facilit
▁neon
crip
▁PGE
▁15%
trac
omat
▁cigaret
▁tracing
roma
xual
▁pathologic
▁fitness
▁preliminary
▁ascer
▁synthesis
▁neph
▁30%
▁homogene
iotic
omotor
▁1,
itus
▁cardiovascular
regn
orectal
▁adoles
operatively
ogenic
▁severity
▁cyto
veolar
affec
bral
▁HDL
oxide
olism
iary
▁enzymes
onstric
▁prevalence
▁.0
anding
▁hypertrophy
icient
lyc
▁somat
oung
▁mono
▁rele
▁spati
tural
jected
enzyme
▁sampl
▁operative
renol
▁contaminated
▁embry
2/
▁cyclic
▁prolonged
▁viable
▁aureus
▁interf
tality
▁struc
ococcal
▁facilitate
▁subjected
▁reflec
aline
▁depolarization
▁serum
rotic
ocardial
▁collagen
▁tibial
▁heal
LV
acyl
▁potentials
ygen
▁detectable
.8
▁35
▁injec
ochemistry
▁tolerance
▁22
adrenoceptor
▁reproducibility
taining
▁intram
▁muta
coun
▁outs
▁TK
▁preoperative
▁actin
terone
▁MG
tive
pH
onad
▁reas
▁decades
ometr
echn
oplastic
plants
▁hypers
lesion
▁Thir
▁deletion
acted
iminary
▁intrinsic
▁lec
▁injur
ulph
▁attenuated
▁reflex
▁accurately
▁leukemia
00
▁junction
onium
▁(6
occi
▁elicited
▁estimating
▁specimens
owever
▁Overall
▁sequentially
plic
ceptive
▁0.9
tingu
▁mec
▁measuring
▁11
▁rhe
50
monstr
terol
▁amyl
▁estradiol
▁intestine
▁statistically
▁epileptic
▁0.001)
▁catheters
ignific
▁advan
▁angiotensin
▁reactivation
▁cytoplasm
▁progestin
▁muc
anol
▁toxicity
enic
EGF
▁trophob
bumin
▁arthritis
ogenesis
tiz
amus
-1
odal
▁vaccination
▁prevalent
85
▁nitro
▁diets
▁lymphocytes
mend
▁displ
▁antiserum
▁acute
▁antigens
▁availability
▁retic
erad
▁porcine
lys
▁latency
▁lamin
▁electrophoresis
▁8
uoden
▁survival
itamin
27
▁lob
▁100
▁enhancement
▁induc
▁gradients
▁resour
▁plasmid
astom
▁neuronal
▁anastomosis
▁depression
sively
▁differe
▁mitochondrial
eled
induced
ophil
▁dissection
▁reduc
▁connective
▁immunoreactive
enhanced
▁dehydrogenase
▁vesic
▁recombin
▁ESR
▁locus
▁(10(
0%,
MV
▁embryonic
▁assessed
▁modulate
inely
▁complaints
▁VE
▁sut
▁Comparisons
▁femur
▁construc
▁indications
▁mg
▁BAL
▁echocardi
▁glomer
▁transfusion
tence
turb
▁cutaneous
0,
▁tomography
ensory
▁HL
▁gluc
▁diabe
orts
▁reveal
▁dilated
▁SG
▁infec
▁deterioration
▁superficial
▁socio
▁modality
▁Neither
▁alterations
▁creatine
utroph
▁maintaining
▁hemisphere
tamine
▁syndromes
▁pancreatic
tenance
▁FV
▁relaxation
▁substance
31
gely
▁pyram
▁correlations
▁favourable
▁involvement
▁bovine
fusion
methyl
▁irr
▁indicative
46
▁cis
▁inhibit
▁attending
▁electroph
▁anatomy
▁membrane
▁MN
▁hypox
▁infants
▁mmHg
▁mumol
spectively
▁lymphoma
▁spont
▁adap
▁nucleus
▁0.0
CBF
rolog
▁myosin
robic
▁mM
▁establishing
▁AMI
▁substantially
cardi
ucine
▁segmental
▁4-
▁inadequate
▁depr
thym
90
tions
▁laser
▁soy
▁abilities
olated
requ
▁fibers
▁FS
▁tes
▁causative
affected
▁dete
nec
▁hygiene
▁Tran
▁poorer
▁instability
▁ovarian
▁clus
▁suppor
orrh
▁gyn
▁IFN
glucose
▁intrauterine
▁3,
osome
▁pediatric
▁endothelial
▁Concomitant
▁scre
tration
▁usefulness
▁5.
▁admission
▁linoleic
rogenic
▁acetyl
embr
▁lateral
▁ions
ilateral
▁platelet
▁prel
▁pig
▁promising
1,
iciency
▁HSV
tro
▁techniqu
▁mL
▁0.8
atab
Ts
▁causal
▁HP
-7
▁yielded
ergy
▁nonc
aventricular
▁caution
▁responsiveness
▁viral
▁enti
▁mRNAs
ayed
teroids
osocial
▁resul
▁WHO
▁proce
▁chol
onate
▁epidemic
▁schizophrenia
CSF
trop
▁immunoglobulin
atories
▁glands
ropine
▁incorporation
▁stren
▁ana
associated
▁adhesive
▁amines
▁0.
▁hybridization
▁suppres
▁paraventricular
▁residual
▁trials
plas
▁susceptibility
▁intravenous
▁anxiety
ocarcinoma
▁premature
hist
▁hybrid
omiting
▁urine
▁Contr
▁sequelae
▁adren
tical
▁initiating
▁nec
anin
▁indicators
▁angiography
▁vesicles
thma
▁polymorphism
orption
athe
450
echanical
▁3.
▁psychiatric
ociation
hydrox
▁pigs
▁implications
▁sti
▁biochemical
▁transcription
▁declined
▁muscle
▁HIV
▁Cyt
▁cyclo
▁recor
▁microscopy
▁60
-100
oside
ynaptic
ication
▁decline
1.
▁staging
▁surge
▁depressed
respon
▁precursor
▁longitudinal
▁endometr
▁leakage
▁perinatal
▁anatomic
▁histamine
▁tumour
▁hypoxic
▁10
▁activator
▁enrolled
6-
▁requi
tory
▁practition
otides
▁MI
▁transcripts
▁LPS
▁excretion
▁capillary
luded
▁rhy
▁swelling
79
▁[3
▁insufficiency
▁conserved
▁diagnoses
▁morphine
▁polymer
▁catechol
▁tumours
ocyte
pir
▁5'
ronectin
▁soluble
▁fractions
▁pharmac
onit
▁cerebrovascular
ullary
2+
7%
ceptions
usive
▁incidence
▁hemorrh
▁pregnancy
▁inver
▁Patient
▁genotypes
lysis
▁activated
▁clinical
▁beha
acetate
athetic
itone
▁unc
▁(2)
▁somatostatin
▁underst
effective
ameter
▁carbohydrates
▁Chronic
▁(10
oxic
▁cytotoxic
▁0.000
▁ventilatory
▁inhibitory
▁minimize
▁controlling
▁pathogen
encl
LDL
▁uncomplicated
▁prostate
▁tymp
▁agon
▁47
▁clon
▁pneum
▁ald
▁somatic
▁spi
2.
eces
▁SLE
▁diffic
ionine
▁Additional
▁0.001).
4+
▁excl
glut
-0
tensive
ifug
▁cardi
▁onc
sts
▁pathway
opamine
16
olved
ffec
▁preservation
▁2,
ocortic
inally
▁relapse
tectable
▁bowel
oresis
▁hipp
physiologic
▁radioactivity
▁biom
▁perfor
▁concomitant
amines
▁deaths
gmental
▁29
▁degradation
fec
▁mandibular
▁manifestation
adrenaline
▁aortic
▁sugges
▁metastases
inositol
▁consensus
▁adequately
ture
▁functioning
▁sulfate
3-
▁inflammatory
▁melatonin
▁1.0
▁inapp
▁supplementation
▁previ
▁decisions
tures
▁stroma
▁antibodies
tage
▁glucagon
▁neonatal
▁mild
jec
▁multivariate
▁hormones
ejun
▁arrhy
▁secretion
sian
occus
▁circumference
▁shorten
▁39
eration
amate
▁NT
▁prostaglandin
▁extracts
▁54
VL
▁continuing
ocaine
▁endemic
entral
ologically
isqu
▁Doppler
+-
▁systematically
▁practic
▁Surgical
▁epithelial
▁complications
tens
▁0
acting
▁79
▁eryth
▁26
▁incubated
▁gly
▁dyn
▁HC
plete
▁preferen
▁diame
▁irradi
▁rats
1),
▁minimally
▁comparisons
▁PEG
▁diversity
▁distinctly
▁ADP
sorption
▁symptomatic
rhy
▁linole
-15
▁metast
▁evid
▁tach
▁PRL
▁morphologic
semb
▁exhibit
▁coli
▁dosage
▁vag
▁drugs
▁promo
immuno
▁estrogen
matched
▁disorder
▁treating
18
▁adop
2-
▁hypot
▁outpatient
ergency
▁conclusions
▁1
▁Dop
▁systematic
meth
▁inducer
▁neurop
▁cDNA
▁correspon
opathy
Hg
▁IgG
▁cytos
11
▁membranes
▁phosphor
ilic
▁hygi
▁efflux
9%
eal
▁approx
▁endoscop
▁normalized
thre
▁hemodynamics
5)
ilibr
.8%
▁5
▁cellular
▁decreased
▁hospitalized
▁amput
tation
▁cytochrome
inergic
erine
▁staining
▁precur
teroid
▁tension
▁intact
athyroid
▁sten
▁doses
▁inhibits
▁supernat
▁carotid
oratory
▁apex
▁Severe
▁slowed
▁renal
▁OA
▁sperm
▁mammary
fos
▁gallbladder
ginine
▁potenti
▁nucleotides
▁ration
▁vaccin
hemical
▁enzym
▁donor
ituitary
▁moderate
embrane
eptin
▁Kup
▁hypothyroidism
▁valve
▁albumin
illin
piration
▁femoral
ogens
▁outcomes
▁fatty
▁arter
▁restric
▁evaluations
tif
incip
▁chlor
▁drainage
kinin
▁+/-
vices
▁wee
namic
▁therapies
▁hippocamp
▁soybean
▁4.
▁determining
▁dele
▁labeled
▁comparable
trogen
ronch
▁norepinephrine
hern
▁opi
mentation
mented
jun
▁LS
▁increasingly
▁tric
▁decreases
▁fever
▁ATPase
▁spine
athione
▁kinetic
65
▁predictor
▁lipids
HF
tured
▁genic
125
▁1.7
▁phag
stolic
▁molar
ustif
▁supplement
▁examined
▁unm
illary
35
▁binds
▁tidal
▁fetus
tance
▁GABA
▁abd
%),
uncture
▁practitioners
ylchol
▁IIb
▁assessment
▁pyr
▁Tes
▁stom
osom
ohyd
elan
phosphon
ensi
▁cathe
▁HI
▁routinely
▁methyl
▁eosin
▁DF
tisol
▁deterior
▁bladder
yel
abain
amily
ediatric
▁viruses
tral
ositol
▁challenges
▁relating
▁therapeutic
trol
▁homologous
▁LH
benz
▁treatments
▁underg
▁300
