▁leu
▁unre
▁pren
AO
▁manipulations
▁HN
▁preferen
▁tooth
▁1.6%
▁streptococcal
ociation
▁UTI
osocial
▁coeliac
▁100%
▁amines
▁tissue
▁cyt
5,
isqu
▁shor
▁regis
urred
▁lipids
alact
▁contex
▁Tests
ravid
▁discrimin
▁inadequate
transplantation
▁lesions
▁breasts
▁mum
▁ration
itudinal
▁topographic
anol
▁overweight
TNF
▁selec
adherent
▁illicit
▁DSM
opramide
▁Emergency
▁ruptured
itoneum
▁initiating
tration
▁chori
1-
▁sickness
▁flexion
protective
APC
loro
▁perin
▁HPV
▁quantit
50
▁indicative
ATPase
▁HDL
oplastic
▁hypothal
▁avascular
gulation
▁prognosis
▁adenosine
▁thir
ditions
▁oral
▁birthweight
lasses
▁hepat
▁conclu
▁43
ocardi
▁cathe
▁manifestation
▁minimally
▁Bone
omycin
▁symptom
▁plas
▁Comparison
omod
▁morb
16
▁0.4
▁abolished
▁substance
facial
ulatory
▁aureus
orption
▁adjustment
FN
▁elec
▁infections
▁HI
▁discern
ectom
▁BM
,000
oscop
▁beneficial
wenty
▁vascular
▁reagent
▁prophylaxis
▁bloc
▁empirically
25
▁conducting
▁equivocal
AIDS
▁inhibin
▁adoles
▁substanti
intestinal
▁biochemistry
▁contralateral
▁tear
tive
▁Tumor
▁TC
▁seventh
▁reper
ffin
▁depr
oprotein
▁modality
▁hemodynamics
▁ech
▁SLE
▁unaffected
economic
ochondral
▁clinical
▁predictors
aptic
▁DT
thre
▁guidelines
▁Paget
▁periodontal
▁preparation
lood
occal
▁tiss
▁pH
pite
▁NP
▁excretion
▁inversely
▁carb
ometrial
▁bacteria
▁erythrocy
ovine
▁anesthe
▁underlie
▁paraplegia
▁debridement
plied
-2
placement
▁60
urgery
▁gland
▁cyto
atoid
▁causative
acial
▁subsp
ept
ses
▁suspicious
rectomy
▁7
▁endoscopic
▁preoperative
▁putative
▁enucleation
▁DG
▁enhanced
rection
▁sebaceous
emory
forcement
noise
▁demographic
▁FHR
idine
antial
▁Clin
▁IHD
▁synovial
kinase
▁100
joy
▁cate
▁replication
▁Swed
onography
▁glycoprotein
▁Muc
▁elderly
44
acts
ths
overall
▁axons
▁microscopy
▁gallst
cessive
▁buccal
▁haemorrhages
ectomies
ompan
oxia
▁hypers
nisone
6)
▁Biochemical
▁potenti
icit
ailing
TK
▁adhere
▁discomfort
increased
gans
▁11,
assay
PV
-0
eliac
▁vitamins
▁vitro
▁anat
▁overexpression
onous
tence
iated
uble
▁musc
1).
▁pulse
tures
▁individualized
yses
▁evacuation
▁sedation
inergic
▁500
▁endogenous
derly
▁19%
▁Stroke
bacco
estive
▁collec
▁cannulae
▁vitamin
▁thresholds
▁splenectomy
agal
hemical
LF
▁physiology
▁gluc
▁99
▁chemotactic
▁overe
▁experim
▁severely
▁enl
▁satur
▁0
reement
NAP
▁geniculate
▁conduc
▁cerebrovascular
▁ACh
▁appendicitis
idne
▁labial
▁lifelong
▁cancell
▁progest
monary
▁seiz
▁bile
▁ageing
reated
▁CK
ocyte
▁pathological
▁ranging
▁Chest
▁enlarged
▁viewing
▁ascer
▁deemed
▁seropositivity
▁chromatography
▁connec
cine
▁immunoreactive
▁cue
atine
▁adenomas
▁preventive
▁promoter
aired
▁(2)
▁illness
▁diabet
▁uptake
▁oes
▁pneum
onance
2).
▁laboratory
▁synthesis
▁TAA
▁substituted
▁disability
▁discharge
tisol
▁empirical
▁IUD
▁attrib
▁pyram
▁hepatitis
▁sut
▁cyst
▁undes
▁behavioural
Ia
trition
▁proliferation
HF
athyroid
BW
ignific
▁conclusive
▁irradi
▁poorer
▁shortened
▁sustain
▁impacts
▁sustaining
▁cytology
▁adenocarcinoma
atitis
▁autoxidation
▁experi
illic
chers
aline
▁practition
29
ipher
▁19
▁Trauma
▁MBC
▁unemploy
▁0.00
▁nosocomial
▁differe
▁1.0
▁metoclopramide
▁reflecting
▁IgG
▁communications
▁Cushing
ositol
▁poin
flux
arent
▁34
▁aimed
immun
▁encounters
ophag
▁MN
▁conductance
▁heavier
conc
▁surrog
▁nasal
ectomy
▁RS
▁Vac
▁fitness
▁Pregn
mittent
▁adver
▁perme
encl
▁glomer
▁0.5
▁adhesions
▁influenz
▁IIb
▁pathologic
▁callus
▁substitu
▁(4
▁timely
VH
▁synovitis
GD
▁pathways
itone
fected
▁27
ration
opausal
▁cardiovascular
▁ket
▁bip
▁exchan
dominal
▁neurolog
▁concomitant
▁Patients
iatic
tum
▁pigmented
▁detectable
vul
▁LD
▁peripheral
▁laparotomy
▁emphasizes
▁propensity
▁VA
▁infiltration
RM
20
otox
▁PCT
▁dorsal
▁GCS
▁likelihood
ochlear
▁GD
▁phy
▁nonadherent
▁premature
▁dele
acchar
ectable
▁inver
▁justified
▁modest
▁obese
▁Mg
▁reversible
▁enhancing
▁moles
▁repl
▁antagonists
▁acute
▁synergistic
ropine
▁rotational
▁retention
▁85%
ochondr
▁plasmid
▁tomography
generation
asive
▁Vaccin
▁Neither
▁cyclase
piratory
ture
▁overestimated
▁regimens
▁topical
▁NB
▁overd
EA
▁phosph
32
ochem
▁hybrid
▁cardio
▁ester
odynamic
oxygen
tized
▁Percutaneous
▁aging
7%
▁fluorescence
ocyt
▁37
phth
▁PCP
▁balanced
urc
▁baseline
▁ions
▁detrimental
▁oss
iminary
▁athletes
▁lymphadenectomy
▁inhibited
▁bone
▁immun
▁instability
▁assays
▁angiotensin
erop
morph
▁synchronous
▁heavi
fusion
trib
▁unex
▁evaluations
tries
onad
lectomy
▁PE
▁specificity
▁residues
asting
seud
erad
▁ae
▁examin
▁affecting
▁warrant
ially
▁exclusion
angl
19
▁electroph
▁agonists
▁stellate
tained
▁venous
▁differen
▁18
elong
▁perceptions
cretion
itively
rolog
ohyd
▁melanoma
▁Older
▁trend
▁melanomas
▁bronchial
▁immunode
78
eled
▁implicated
glum
mend
▁conceptual
acetylcysteine
▁substrates
▁testicular
▁disappointing
trac
▁Kupffer
▁etiology
astric
▁controlling
▁recombinant
truc
namic
actin
-1,
▁10.
.0
▁deformities
▁tumours
▁cues
▁dors
mitted
15
▁mucosa
▁disparity
▁incubated
▁NT
othel
▁decline
RP
nowled
ycl
yel
-7
▁fractions
▁labeling
▁202
veolar
▁disappearance
▁pelvis
▁120
▁amyloid
▁facilitate
▁treating
▁GH
▁PV
▁eradication
▁inclin
obic
onin
▁placebo
▁airway
▁inducer
verages
▁excre
orts
hyde
▁disagreement
ameth
tension
anish
illance
▁preparations
ressive
▁responsiveness
▁glu
atonin
▁tes
ications
▁bedside
▁glucose
ollicular
▁0.8
pies
▁relapse
irrhotic
▁adop
gene
parative
▁unstable
▁PCR
▁documenting
.9
▁phon
▁specialist
▁circulation
ipar
▁spine
▁sple
yloid
▁urinary
vail
▁weigh
▁misleading
▁discontinued
▁fractures
▁examiners
uality
olved
orepinephrine
▁inev
▁pregn
oconstric
▁neuronal
tically
▁intact
-100
▁recons
erican
▁Consideration
bic
▁cystic
ATP
osynthe
Ev
▁Routine
▁unic
▁contraction
▁46
incip
graftment
▁definitive
ecu
▁Roux
▁VC
▁reproducible
ineural
xual
▁gonad
▁vesicles
erox
ostic
▁Excess
▁eluc
▁nec
azole
▁endothelial
▁pancreatic
eptin
anding
▁deciding
iology
rents
▁unexpl
▁cholecystectomy
terol
▁consol
▁bac
▁MEP
▁births
inactivation
▁steroid
▁fetal
▁Impro
▁periodon
CMV
▁7.8%
▁chemot
odium
ibi
aceous
plasia
ygen
▁valve
iotic
▁determining
onucle
▁biopsies
▁awa
▁prescribing
▁conclusions
▁muc
5).
trexone
lusion
▁intrinsic
lux
▁phosphatid
▁TA
▁mitochondrial
▁gon
▁lactate
▁carcinoma
▁cloned
▁PEEP
EGF
▁biopsy
▁ECG
▁involvement
ineal
▁globally
▁hazard
▁fixation
▁pulmon
▁emissions
▁ventilation
▁alp
▁urine
nec
▁unprotected
▁atmosp
▁strains
-1)
▁40%,
immune
tively
▁carcin
ventricular
lyce
▁appendic
ipine
ranolol
▁gastric
▁deter
avage
cyst
▁hypox
amet
gic
▁tol
rhy
▁regulation
bac
arge
ventive
▁emerg
osal
▁plantar
▁gradients
▁depicted
▁onc
asses
bladder
▁organisms
▁(0.
▁coeff
▁adhesive
▁auditory
▁relied
▁drin
▁radioactivity
▁professionals
oglobin
trast
12
2/
amic
▁PB
▁Discre
zard
▁nitro
bly
▁stu
linked
▁1.5
▁viable
ocarcinoma
▁experts
6,
obal
▁moisture
▁Alternative
▁indications
▁LDL
▁alveolar
IU
▁catheters
▁neon
▁ruptures
Wo
illary
▁phenomenon
ologically
▁strain
▁dendri
▁currents
▁hemisphere
tors
▁concer
▁metastas
ervice
.7
▁cholestasis
▁75
▁determinants
ceptual
acr
idis
otyp
athetic
▁skeletal
rants
tus
aginal
▁practiced
ocol
opl
▁exacerb
▁laser
sequent
▁LN
others
▁enzyme
0.5
▁continuing
▁gout
aid
▁Large
bral
gland
▁moderately
ituitary
▁CM
▁discordant
gents
tics
greater
erum
▁atm
▁pter
▁beating
▁lis
▁anomalies
▁injections
▁Hz
ultural
▁enhance
▁retrospective
▁35
18
rapid
▁gynecological
1.
UF
▁GTP
▁needles
tory
▁platelets
consuming
▁hypo
▁nurse
▁preoperatively
-9
omat
atients
ostomy
▁ascertainment
▁(3)
tected
oride
ronch
▁chronic
▁antic
0,
▁atropine
▁FDG
▁hypertensive
▁endot
▁Analy
especially
28
▁settle
ACS
▁excl
▁Improvement
▁interleukin
▁geriatric
ulting
▁causation
▁thorac
▁highlights
BG
clinical
ervical
▁Excessive
▁Escherichia
▁kinetics
▁LPS
▁potentials
▁morphology
▁introduces
crib
▁micromet
odic
▁Continu
▁inhibitory
▁MRI
idem
▁Cox
adrenergic
vertebral
ochrome
uran
▁uneventful
▁cortex
▁previ
▁acupuncture
▁90
veness
▁cholesterol
rosclerosis
ocked
▁oligo
▁newborns
▁challen
olution
4-
▁AGE
▁susceptibility
▁normo
▁nursing
▁sperm
▁diagnostic
▁develops
▁myoepithelial
▁apex
▁pressures
▁throm
▁inserts
▁bladder
urys
▁aor
4,
▁diabe
HM
inol
rested
▁mann
▁lobectomy
▁overlying
ondral
▁rash
▁poisoning
▁electrophoresis
▁therapist
▁TSH
▁preterm
▁lymph
ffs
▁Randomized
▁monitored
tur
▁unilateral
fat
ostal
▁ramus
▁randomized
responding
▁aort
inj
54
treatment
▁lith
5.
▁GA
▁scoliosis
▁hypertro
▁cigaret
▁stratification
uron
▁transient
ogens
acted
▁esophagitis
▁substrate
ontal
▁gad
▁mandatory
teroid
▁chains
▁pati
ypical
▁cleavage
xia
tect
▁undoubtedly
▁1)
▁pyramidal
▁compressed
▁reimplantation
rates
lapping
odial
▁rhy
▁alleviate
cardi
piration
assium
▁attenu
▁simultaneous
27
8,
lead
GI
57
▁reposition
▁plates
otassium
nai
amus
23
▁residue
▁seizures
▁hernia
0%
▁TD
▁mAb
▁spi
▁0.000
▁encourage
▁surge
▁recurrent
▁occlusion
▁creatine
▁(8
sul
▁ceph
▁infusion
▁Preoperative
atrial
▁Contr
hig
▁defic
trogen
▁haemorrh
genic
▁CSA
BP
▁clearance
opram
9-
glyc
19-9
onol
▁MV
▁carc
icin
copic
.2%).
▁thickness
stolic
arean
othermic
▁85
abies
▁rese
occus
mand
▁HSV
▁alcohol
erts
helial
▁drugs
endan
▁reac
uin
▁BV
000
▁unsuccessful
▁fracture
▁minority
2-
▁cadaver
▁affinity
siological
▁microvascular
▁bab
▁platelet
osyn
▁sequentially
urin
tiz
oratory
▁hemorrh
hist
0%)
▁histopathology
erine
▁abolishes
trative
▁congenitally
rying
MG
▁muscle
▁malignant
▁ambulatory
Ba
▁activated
oplasmic
▁infected
▁mice
urally
▁fibers
▁amputation
▁rati
▁bowel
▁IMR
roxim
▁adequate
erence
KI
imental
▁ery
▁38
▁depression
▁laparo
▁follic
▁migraine
▁neuro
comitant
henyl
▁scl
▁0.1
▁muscul
esity
▁avoiding
▁adenylate
▁suspic
▁imaging
▁dislocation
▁trauma
▁adolescent
orpor
▁8
▁inactivation
ilibr
▁Tumour
▁consis
▁microbiological
▁incorporation
▁evoked
▁PRP
▁diagnoses
gth
▁secretory
▁norepinephrine
tradiol
▁derangement
▁gluten
rae
zyme
▁ensured
PAP
lact
Tc
▁screw
oxidation
▁thi
▁mucosal
104
oscopic
▁abnormality
▁endothelium
▁palliative
▁controversial
▁prevalence
▁colorectal
olarization
▁complications
romes
▁Afric
delayed
▁disadvantages
inated
▁heterogeneity
▁autosomal
▁ultrasound
aturated
▁tolerated
ensitive
nthe
▁tumors
▁2
trip
▁pleomorphic
▁palp
▁perinatal
▁risks
▁monoclonal
▁orthopaedic
▁explored
opsy
▁implicate
▁concentrate
▁constitutes
▁sedentary
▁considerably
erated
sue
▁disparate
▁telephone
▁cytotoxic
▁hormone
▁ventricle
ubation
duced
▁prednisone
▁broader
centr
▁improves
▁oxygenation
▁relap
▁cardi
▁placenta
▁microm
▁drinking
▁neutroph
ducible
gement
onset
▁cardiomy
▁reevaluated
▁somatic
▁colonization
ceptive
▁ART
edullary
rosis
▁fibrin
▁retin
▁HP
igravid
▁progressive
▁atten
hep
chondral
▁PGE
▁radiological
▁chemotherapy
▁comprehen
▁presumably
▁prostates
HG
▁ablation
idated
76
▁Inclusion
▁peroneal
▁CAM
DG
tage
▁prenatal
▁gallstones
itant
▁HS
▁ventricular
▁scanning
mixed
▁tracing
▁characterize
erally
tions
▁preferably
▁thrombolysis
▁iso
plas
▁perfused
ocar
nI
▁3)
▁PVR
hemia
ials
▁Mothers
▁rectal
ulcer
▁undetectable
olum
▁OSA
▁pathway
years
ighted
▁Intravenous
1-3
▁protective
▁lumbar
-3
▁inequ
▁Considering
ipolar
▁prophyl
andard
▁nig
▁cAMP
▁undergoing
▁cava
ocytes
▁pig
uretic
▁operative
rosine
▁enrolled
▁ethnic
▁rigor
▁0.3
▁aneurysm
ureth
mutant
▁hypog
rength
▁7.
▁50%
▁inclusive
▁ACE
transferase
▁5-
▁embry
▁prol
olip
▁Dil
fentanyl
▁derange
▁PT
▁leakage
▁HCM
▁perforations
keletal
▁4-
▁progres
hei
▁decisions
rogen
clim
scherichia
▁sulfonylurea
urgically
▁receptor
▁nutritional
▁7%
▁venti
pinephrine
▁modestly
▁hippocamp
CCT
implantation
ocardial
▁demonstrating
itr
▁survival
▁impaired
▁rCBF
acin
▁GI
osome
21
▁hypoxic
▁kerat
▁undergo
▁synerg
detected
tured
▁reas
sy
NH
▁deaths
▁consequently
▁chloroquine
▁33
okinetics
sions
▁constitutional
▁FS
otomy
diagn
▁theore
▁correlations
49
▁dehydrogenase
▁analyzed
▁electrical
▁Doppler
▁mammography
▁chloride
22
▁ambul
▁dehyd
ignant
chym
▁surf
▁renin
(+)-
▁distal
▁(10
▁granul
ginine
▁referrals
▁1-
kers
opulation
▁behaviors
▁GV
tabol
Ki
▁neonatal
zation
▁10%
MV
▁findings
▁cognitive
spectively
▁sensi
▁drainage
▁pulmonary
▁judged
▁antagonist
▁amin
▁intestinal
Vi
rement
▁inspection
opathological
transfer
▁48
rine
▁homogeneous
TSP
▁complaining
▁Prophylactic
attern
▁meal
▁persis
phic
▁epinephrine
▁Phy
▁oxy
atment
▁ischemia
enin
▁mothers
▁cerebral
▁radiotherapy
eclampsia
▁pylorus
tific
hap
▁provid
sial
▁adjuvant
▁IBS
▁suppressing
▁phospholip
▁morbid
tig
thma
▁consultations
▁PCO
▁restor
roup
osin
▁facilit
lowering
▁dex
7.
tryp
▁habits
▁lobe
▁underline
▁latent
▁RB
rophyl
▁affects
▁arter
▁abl
istically
.5
▁spinal
onatal
▁Whilst
▁cyclo
▁gallbladder
ocom
▁markedly
▁28
▁Effective
atent
▁shig
▁Findings
▁197
▁Severe
▁isolates
▁lithotrip
▁stomach
▁hipp
▁selective
▁establishing
urther
▁occl
Hg
sts
apeu
▁investigating
▁aerob
▁immunomod
▁APD
▁cognition
ynaptic
▁routinely
severe
plo
perfusion
▁clinics
vation
▁medial
▁aden
▁uncommon
▁sinus
▁bronch
▁polymer
▁transrectal
ercise
▁absorption
▁proce
MH
icacy
▁salivary
ensory
jug
tolerated
▁prolonged
gely
iferation
▁8-
▁abd
▁toxicity
plantation
▁thrombo
ognitive
▁recurrence
▁maintaining
operative
▁EMS
▁discer
▁plasma
▁(198
▁deliveries
▁2.
▁specimens
▁paralle
illin
▁mmol
itol
epti
▁positively
▁assay
▁DS
▁lys
▁immune
▁mortality
otypes
▁localities
▁molecule
▁yiel
▁polyp
▁membrane
▁slowed
embr
▁chl
resistant
▁poten
▁chromosome
▁sequential
▁mg
▁paraventricular
inic
Ps
ovir
▁conservative
▁construc
]-
BV
formin
▁limbs
▁nucleotides
▁tubes
▁fever
▁attending
▁GPs
infarct
▁cortisol
unced
▁sensory
▁erosive
▁rationale
▁amyloidosis
rectal
▁lacking
otype
neumon
▁discussions
▁MH
▁fatigue
▁synthetic
▁VD
siveness
▁bacterial
▁expertise
▁intraven
onomic
undibular
icine
▁portions
▁participate
▁infil
00
1,
▁vasodil
ingle
▁diabetes
▁thickening
IIIa
mig
▁PCI
▁acet
▁delivering
▁thigh
orectal
▁acidosis
ensit
receptor
▁distinctly
WL
anese
knee
▁evolving
▁atres
▁psychosocial
▁mM
▁ventil
bumin
▁facial
eal
▁tibial
▁0.9
iasis
tens
▁perception
84
56
▁thromb
feren
▁physiologic
valent
▁ETA
▁29
olute
▁stimul
▁dysfunction
▁manufacturers
▁colloid
▁agonist
▁degradation
▁polymerase
arotid
elfare
▁microcirc
▁advisable
acental
▁0.01).
▁elu
ropriate
unctions
▁suppres
▁needle
▁Operative
▁somatostatin
▁subunits
arer
▁insulin
▁alterations
▁progesterone
▁potent
▁schiz
▁gaps
▁0.01)
adrenoceptor
▁masked
1)
anyl
▁depressive
▁epidemic
▁SB
▁AVR
▁cytotox
▁tidal
▁tailored
▁indi
RH
▁phagocy
▁3-
opia
▁mamm
▁eosin
3.
etus
aneously
WBC
idity
tle
oxid
▁intrav
ucle
▁Concomitant
stem
TN
▁polymorphism
6-
▁bronchi
aemic
▁vaccine
▁comparable
ilical
responders
▁sequel
▁dissection
▁epithelial
▁3'
▁proteins
jec
ylase
hesive
17
▁tymp
▁biosynthe
▁reactive
tabl
▁HCC
▁pelvic
▁deterior
▁ICS
▁histologic
▁linole
▁vancomycin
▁mammalian
▁21-
ocamp
identical
oretical
▁cited
osomal
▁ortho
either
▁correspon
ologous
▁myo
▁homologous
▁morbidity
▁backs
herence
▁waist
▁insurance
▁DN
▁nodules
versus
clerosis
tebral
dose
eces
oag
ilated
erals
ffec
▁Recurrence
▁harmful
ifol
ocytic
irrh
▁NH
▁enti
▁supervision
▁correcting
▁peptides
▁72
▁wound
▁intra
▁endoscopy
▁circulating
opamine
▁ml
▁diagnose
▁HAM
ospor
▁OT
▁precedes
eptide
▁symp
▁silic
▁fentanyl
lasting
▁(7
▁regulate
crimin
▁synov
▁glands
▁microM
▁fluor
ulph
pT
▁1.6
▁treatments
ailure
▁collagen
methyl
iciencies
▁circumferen
▁Steady
oxic
▁lymphocytes
ococcus
▁Patient
▁2-
▁uniformity
▁mitochondria
ophren
▁perfusion
0-
pap
appropriate
▁albumin
▁(6
lected
▁emotions
▁prospective
▁repor
▁surveys
Ka
▁physically
▁aspir
▁nuclei
utaneous
▁leuk
▁BD
controlled
▁26
alian
▁HMO
▁reag
▁DST
▁80-
rk
▁TNF
otactic
▁subc
▁80%
▁leukocyte
▁dyn
hea
Phe
▁percutaneous
kDa
▁mild
▁posi
▁aggregation
usal
▁NSC
ticular
▁reductions
10
▁40
▁validated
▁pine
▁arterial
▁mutant
▁55
▁Failure
tak
RD
▁warrants
▁encour
▁anatomical
opi
▁barriers
itus
▁distin
▁ane
▁FH
stant
▁pathologists
▁PAN
adren
entical
▁OC
atectomy
▁objec
phrine
▁proposes
▁WHO
▁mec
4).
▁GFR
4.
olism
▁meaningful
▁validity
phyl
▁patella
▁achievement
▁discriminative
▁cereb
▁arteries
▁linoleic
iary
▁biop
epit
▁awareness
▁syndromes
46
▁interc
adiol
tin
arity
▁genes
▁extensor
▁phosphate
▁caregi
fec
legia
▁excit
▁shorten
▁cultured
▁blockade
▁pump
sian
linolenic
▁heroin
▁retic
▁cervical
▁peris
▁carriers
odynam
▁adhe
▁consecu
▁decreasing
▁endometrial
▁steroidal
olic
▁pigs
▁AE
▁thrombectomy
idney
aluation
▁heterogeneous
sized
▁moist
▁limb
lateral
▁suprap
▁basal
urse
▁hormones
▁neurons
protein
▁exercised
▁Dopamine
evaluated
oscopy
▁ultrasonography
erative
asal
.2
sar
totic
tagland
▁PI
▁FT
▁DF
usive
▁physician
▁saturated
▁concentrations
▁differing
ocl
▁elucidate
lycerol
ofol
omiting
▁outpatient
▁fold
▁endpoints
▁metformin
5)
▁inherent
▁AMI
▁examined
atheter
▁metast
▁diagnosed
retion
▁analys
▁mediates
heric
▁diame
ustained
linic
pation
.2%
▁psychotic
▁MI
tent
▁4
▁interpersonal
▁unchanged
▁vivo
▁angiography
▁fibres
guided
ithms
SPE
▁functioning
▁marrow
▁exten
▁deterioration
▁psychological
▁plur
▁sti
▁fulf
▁inevitable
ilic
drome
▁90%
eight
tility
acking
▁radiography
90
oung
▁0.05)
▁lob
▁ile
ormone
▁gastro
▁clinician
▁resuscitation
▁acetab
5%
mL
▁surgery
▁symptoms
▁underwent
▁2,
▁mobility
▁monit
▁atheros
▁metastasis
▁catechol
▁0.6
Ta
▁promising
▁amput
▁implications
▁ICM
DH
▁epit
▁ventral
▁MRC
▁disorders
▁disruption
▁2)
▁57
▁saline
▁secretion
▁implic
tance
▁95%
.8%
▁anastom
▁exogenous
▁outcomes
▁(2
olones
▁inhibit
▁glomerular
▁2.5
▁oxygen
▁dentists
LN
▁nail
▁arth
▁Therapeutic
▁cyclic
▁intervertebral
▁contaminated
▁0.05
▁chol
▁linkages
went
ceptibility
▁plaque
▁regulated
▁resusc
▁insufficiency
▁prostagland
▁uncontrolled
▁anemia
▁profound
▁poorest
▁adaptive
▁diversity
▁reproduc
2.
▁adequ
▁subun
▁UL
▁attemp
▁fiber
▁LV
FV
▁demonstrates
nRH
▁comparative
chol
▁strategies
▁pedigree
▁relating
.5%
▁tet
▁psychotropic
▁chan
▁subgroups
▁tamoxifen
ocul
▁EGF
genesis
ministration
▁endometr
chond
▁capped
▁Kup
▁oils
▁labeled
▁NN
▁extracellular
▁tow
▁Removal
▁interp
▁onset
▁contribut
▁radiographic
rehen
▁interventions
▁dilated
▁Progression
▁extre
entan
▁counseling
▁statis
▁fati
estis
cored
▁ligand
▁differentiate
▁appropriateness
▁Hg
erable
arly
ceptions
▁deem
▁margins
▁14
▁biom
▁tuber
▁perfor
▁thromboembolic
▁monounsaturated
tation
spective
▁deficiency
uptake
▁Cytoplasmic
▁describ
▁concom
▁neoadjuvant
▁smo
▁drops
tral
▁vaccines
▁atmospheric
▁abdomen
cents
▁PCOS
▁BMI
▁satis
▁nulliparous
titu
▁PET
▁readings
ults
▁abnormal
nee
▁stab
▁suppressed
▁pregnant
▁11
diol
invasive
▁iatrogenic
RNA
▁affec
▁gyn
▁rehabilitation
▁hepatic
▁30
▁metastases
RB
▁antigen
▁CPAP
ctomy
▁suture
▁intragastric
emic
▁amy
▁pyr
▁anticoagulation
▁overlapping
▁kine
▁toge
reness
▁workload
▁accel
diagnosed
▁systematic
▁IA
ulates
▁79
▁LH
▁identif
▁abilities
▁fibroblasts
▁ultrason
▁reticul
duce
▁identifying
▁preservation
▁lamin
▁bipolar
▁hospitalization
gain
eck
▁providers
ortal
hop
otide
▁uncovered
▁inappropriate
▁targe
▁supplementation
6%
01
▁MHC
▁usefulness
▁unde
▁palpation
▁carcinogens
SCC
helin
▁heterogene
▁feasibility
▁consangu
angli
▁emotional
▁adhering
97
▁Chronic
▁accurately
ufficient
▁sarc
urea
▁challenges
▁reasonably
▁overdose
ocular
▁advan
tic
rophob
ojejun
taining
thal
▁39
▁anticipated
phosphon
▁aspiration
▁neutrophilic
leu
▁episodic
lix
cence
▁RBC
▁confron
omedullary
▁chor
atest
rated
stages
▁testosterone
▁cataly
FU
luc
itally
▁chole
▁reveals
▁epithelium
▁favorable
orbol
▁counteract
amide
gmental
▁dietary
▁grading
▁indefinitely
LU
sies
▁modif
▁invasive
effectiveness
▁mucos
entif
elan
▁PID
matic
VL
onium
▁regimen
▁failures
tivity
▁vulnerable
▁schizophrenia
▁44
iplin
▁ventilatory
▁cortic
regulation
▁accumulation
oceptor
▁dete
▁dental
▁monke
▁mell
scopy
-450
cutaneous
▁coronary
▁VO
▁Medicaid
/2
▁coincidence
▁Comparisons
▁recessive
▁Estrogen
▁cigarettes
cele
olec
enic
ocial
▁APTT
cale
oskeletal
▁palli
resist
▁beha
adequ
▁resear
FH
▁APC
oclonal
▁complic
▁engraftment
GU
▁Thromb
▁subtraction
▁estradiol
▁leukemia
▁Cyt
▁complementary
▁investigations
▁impacted
▁merit
▁audit
▁HU
itamin
jejun
reported
arthritis
▁multifactorial
▁molec
▁chromat
▁irr
▁PF
ece
▁ulcer
▁kDa
hydro
▁remin
oves
▁intensive
▁Accordingly
oglyc
▁Continued
tomy
hering
armac
▁antigens
▁financ
▁10
ensi
▁divertic
▁complemented
▁mmHg
▁pediatric
ertion
rogra
▁follicle
▁molecules
onit
Ns
▁gait
-20
▁nm
▁injur
▁transi
▁lymphocyte
odil
versely
oic
2)
▁emergency
▁NPC
urgical
▁exhibit
▁desirable
▁supple
▁cytoplasmic
▁sev
.8
rophy
▁liver
▁dosing
evaluation
▁progestin
ineph
isure
▁immature
essment
omical
▁hepar
▁phosphor
▁pineal
occi
oids
▁hyperfiltration
lys
▁cirrhotic
▁unexplained
▁postmenopausal
▁deform
▁opioid
ducts
▁23
▁surgeons
▁1
ussion
xiety
▁esophageal
▁umb
vements
▁benz
ylcholine
itin
tate
▁outs
▁perone
EO
▁9
▁intram
▁6-
oprote
lysis
▁necro
itary
▁therapeutic
ophilic
▁encoun
atab
▁atr
▁gestation
▁erroneous
▁prox
▁murine
▁abortion
▁intrap
▁confined
▁medicines
▁tissues
oracic
▁unin
▁inadvertent
olesterol
erent
▁contributory
phasis
▁bilateral
▁4.
▁diseases
▁unil
▁42
30
WB
▁pituitary
▁underestimated
▁physicians
omia
▁longitudinal
1),
ancreas
SSA
▁naltrexone
▁21
accharide
▁PSA
▁preval
▁compli
▁cultures
▁hypothe
▁Ket
▁employing
utroph
▁anxiety
faction
tric
RF
3%
lobulin
idase
erations
▁ultr
▁actin
oxy
▁adenoma
mation
hest
hospital
▁tas
contrast
▁parap
erance
sis
▁Throm
▁rotated
▁consensus
hemo
▁(9
▁prevention
70
▁conservatively
2+
▁haem
▁degrad
▁circumference
▁12
▁intrauterine
▁improving
▁0.001).
▁metastatic
coun
▁discusses
▁leisure
NM
▁phe
▁exis
atched
fication
▁microv
▁displ
-6
▁glyc
umbar
▁porcine
▁unaware
▁toxic
heum
▁tobacco
▁thyroid
▁pylori
▁cardiomyopathy
educ
ropriately
▁transurethral
9%
sively
▁Physicians
Hb
▁amino
▁opi
hern
produc
▁ACTH
opres
▁atherosclerosis
▁Ultrasound
▁ovari
▁chond
▁scre
adily
pH
▁SBA
▁adequately
▁phenotype
versity
▁Larger
▁vaginal
▁Alcohol
▁verteb
roma
▁ultim
▁microscop
ociated
▁evid
▁cholest
phosph
tyl
mental
▁radiol
leukin
1%
erator
▁seroton
▁resting
tead
▁1.7
▁amyl
▁questionnaires
rogenase
lobin
ureus
.2%)
ncy
▁echocardi
▁effectiveness
ascular
▁hemodialysis
▁microc
grees
erate
▁undiagnosed
▁exce
▁wors
▁promo
▁predicts
▁predictor
▁Tes
▁pretreatment
▁physici
▁circumferential
▁inflammatory
itance
▁ure
▁contral
▁kinase
▁20%
kinin
ancies
▁complaints
ithin
▁examination
tec
▁remission
▁shallow
stro
▁donor
▁knee
▁PP
His
▁necrosis
▁reactivity
degree
containing
oplasty
▁substantially
▁resour
▁superv
▁adjunct
▁progression
▁UF
▁measuring
▁bypass
▁mono
▁administered
▁ovarian
▁eryth
tering
▁1.2
▁ESR
iaz
▁antib
▁modulate
omotor
▁grafts
▁thoracic
▁surrogate
▁perip
▁soybean
monstr
▁carbohyd
inusoidal
urine
▁sero
40
▁resection
sess
▁carcinomas
ternational
▁staining
▁cancers
ication
81
▁minimize
▁mediated
▁expenditures
▁pS
ameters
vely
▁underst
▁herp
▁suscepti
quine
▁uremia
iol
▁irradiated
▁diagnosis
▁effec
▁synthesized
teric
oradi
▁poverty
▁spleen
▁Pregnancy
▁unm
▁(3
▁deserves
oural
▁requi
▁interv
▁packing
▁0.05).
▁synthe
▁infection
IH
oglobulin
▁suppression
▁fragility
▁referral
iliac
▁OA
iron
8)
itic
▁resec
▁postoperative
▁adults
rotid
ections
▁volumetric
▁parental
▁hormonal
▁Greater
▁microgram
▁Immun
▁severity
4)
▁corrections
▁fibrob
▁normalized
▁inflamm
▁eyelid
▁therap
▁oxidase
mediated
Nor
ditional
▁BMP
▁cann
▁unresectable
▁cohorts
▁intrapartum
▁[3
▁PEG
▁feeding
▁excision
▁ancestor
▁fatalities
clin
ignificant
▁nonoperative
erper
uncture
fos
9,
▁enzym
▁instr
▁VL
stim
▁reflux
ergy
plication
▁staging
▁preliminary
gm
▁diffic
▁coexistence
imination
aryngeal
HN
discharge
▁dys
ervative
▁compound
▁hep
▁tonsil
▁hig
▁acco
▁epileptic
▁merits
▁myel
▁recur
▁RAR
▁bovine
▁anomal
▁characterized
atase
▁LVH
▁attendance
KD
ficial
▁practically
12.
derived
▁somat
▁polymorph
▁hemat
▁tric
effective
lasts
▁sustained
▁knife
▁neoplasm
▁reconstruction
jun
▁cervix
▁Denmark
kage
▁predic
osom
▁Treatments
▁hypoxia
▁tension
▁racial
▁sequelae
▁endarterectomy
▁phag
▁deficit
matched
▁anastomotic
oidal
ferential
▁paras
Hu
▁3
▁intense
▁myocardi
▁variability
▁neph
▁spontaneous
benz
oresis
▁athe
65
▁ACL
▁multivariate
▁Samples
acclim
regulated
▁docum
▁LT
▁caregivers
owever
▁triv
▁quanti
▁cephal
▁HM
lyc
Ti
▁inhibitor
uded
ayed
▁noncom
▁inad
▁macrophages
esting
▁Adherence
DNA
▁adap
quid
▁nutr
▁predictive
resses
▁depic
▁chewing
▁Slow
SAH
▁ischem
toc
turb
tensin
▁caro
-1
Ly
▁increas
loid
olysis
▁polyethylene
▁Tran
▁peripher
erus
▁fibr
▁protoc
ectasis
olenic
1-2
▁mitral
▁reductase
inatal
stimulated
▁exacerbations
▁elicited
amate
▁discon
▁preferences
▁ASA
▁localization
romed
ardless
▁mitochondr
orac
▁inapp
▁inhibition
rati
ochemical
oric
amination
▁systematically
▁encouraged
alities
▁tyrosine
▁scin
fts
vents
truction
▁pharmacy
▁(5
▁safer
▁MCP
enh
▁stimulation
echanical
vant
sion
▁osteoporotic
▁Contrary
oes
▁ascertained
mol
luores
▁inh
oxin
▁postoperatively
tact
▁mumol
▁Hb
▁revealing
▁sympathetic
kely
▁vagal
▁epi
ologic
tingu
▁UT
ylation
uterine
▁olig
tention
▁adren
▁insertion
▁BP
▁deprivation
vaginal
▁Improved
▁hams
KA
vating
▁healthy
▁metabolites
natal
▁carotid
▁unrel
TU
▁supplement
▁ocul
onate
astom
threatening
▁iliac
▁optimizing
▁HA
igaret
▁IgM
▁exhibited
2%
▁heparinized
▁pancreatitis
▁pathogen
▁reliably
▁assessed
entanyl
▁undo
dimer
▁3,
▁anatomic
▁trophoblastic
▁shif
▁dexamethasone
uccess
▁poses
▁swelling
▁acqui
▁tumor
▁reagents
entricular
▁eosinophil
▁Trial
▁nal
▁30%
▁perox
otent
▁insufficient
▁institutional
ethyl
0%,
fine
were
inemia
▁3.
acetyl
▁ketamine
▁technically
ylamide
otoxin
xide
▁cerv
▁cyclosporine
entric
glut
elec
▁sensitivity
rox
▁initiation
▁alteration
▁genotype
apse
▁Biochem
CBF
▁immunological
▁psychiatric
odialysis
▁bacter
▁distinguishing
8.
▁ultras
34
employ
▁inpatient
▁assis
▁VE
arers
▁respiratory
ustment
▁identifies
▁clipping
ustif
▁nM
▁0.7
▁prevalences
▁multiv
▁nomenclature
nosis
4%
▁estrogen
moid
opa
ervations
▁neoplas
peri
idate
▁immunisation
▁integrating
▁GF
▁CMV
inely
lycer
vascular
▁subjected
▁IBD
istal
▁nervous
▁cuff
▁familial
licular
▁genotypes
▁musculoskeletal
▁pathologies
▁osteoporosis
▁menopausal
▁recor
▁diagnos
▁extracts
▁undergone
▁debr
▁vag
8%
▁Engl
▁50
echn
▁selectively
▁TGF
▁renal
▁IGF
ampl
▁reproducibility
6.
▁apop
vac
▁predomin
ylchol
▁depletion
▁cochlear
▁reactivation
▁Poor
▁opportunities
▁Blockade
▁pulp
▁biological
istrib
▁physiological
▁correlates
▁atrial
▁coronal
iably
2%)
▁OCD
▁fulfill
▁incidence
▁classified
▁Whereas
elvic
helium
▁predicting
▁300
▁altered
▁contributes
aced
▁hygiene
▁undetected
▁atresia
▁lept
farct
▁hypothyroidism
▁tertiary
▁IH
4+
▁rabbit
ophil
▁screening
▁LF
▁melatonin
▁LS
▁fluores
ucleation
itro
loride
asone
▁congen
onuclear
-6)
▁stren
48
▁beverages
vals
▁EO
▁provocation
alc
rotein
▁Dop
▁soy
▁FSH
▁rheumatoid
FG
▁AO
▁FV
▁0.001)
▁moderate
▁restenosis
igel
▁adolescence
▁survived
▁iod
▁induce
jected
▁hemorrhagic
▁acad
itoneal
feron
omies
▁trials
oplas
ogenous
IgM
▁hemis
tox
▁remo
▁inoc
▁epid
▁hern
)2
▁immunoglobulin
▁modulates
▁collateral
▁dose
arous
glumine
PB
▁injec
▁advances
▁hypoglycaemia
▁macrophage
▁assessment
▁aiming
mortality
▁spikes
athy
mature
▁hetero
▁implantable
▁malle
▁.0
ritish
▁cellular
▁childhood
xone
hicle
▁continence
▁pronounced
▁NPH
idement
venth
▁desm
▁vagin
▁cumulative
▁intravenous
▁retur
apeutic
ycin
oleic
cold
CSF
▁AGA
zole
▁homogene
dents
▁immigrants
▁prospectively
ograms
▁septum
▁preconditioning
ropha
opha
▁IVF
▁causal
(5
▁uter
▁regar
itures
▁ana
Au
rophilic
-14
ronchial
▁acetabular
riend
▁homogeneity
▁sciatic
▁canc
▁annulus
▁manu
dial
▁adminis
+)-
opam
▁31
▁elic
▁sphincter
ocortic
▁intrag
▁projec
▁tox
▁gangrene
ipid
ivation
operatively
▁strom
▁compartment
▁201
▁detachment
▁sodium
▁decreases
▁sugges
▁detach
▁blot
reast
oagulation
▁TBI
itness
tality
▁phosphorylation
▁ranged
▁glycaemic
ocaine
▁disparities
▁follicular
▁19-9
▁undisturbed
▁cytos
▁oste
ellular
▁Clinical
▁gynec
menopausal
olytic
▁predominant
ognition
treated
▁neurologic
estigated
atid
▁MG
▁connective
▁spati
▁32
▁Delayed
.1
▁stimulate
overed
rals
▁fetus
▁prostatic
wk
▁microns
sensitive
hydrox
▁LC
gesia
▁micrograms
▁identically
▁GER
▁suppor
▁micron
▁comprehensive
▁pregnancy
▁maternal
▁aggravation
enzymatic
▁excluded
▁postnatal
▁assurance
clusive
ulae
acet
▁5,
lective
▁loosening
▁subf
▁synaptic
▁surviv
▁vasomotor
usions
▁untreated
omatic
▁complexes
odal
otom
ensity
▁reduc
roximately
▁incubation
▁artery
▁lact
▁COS
▁enteral
regn
iosis
▁serum
▁arthritis
incidence
terone
▁parag
+,
▁followup
▁diminished
▁HLA
3-
urethral
▁pharmacological
▁targeted
▁Compared
▁minerals
vated
▁decreased
▁segmental
orable
7,
vate
▁intramuscular
▁medication
▁athle
asic
▁correlated
▁utilisation
▁adherence
▁Plasma
▁statistically
▁catheterisation
▁mRNA
▁intermittent
▁metabol
▁probe
▁torsion
otomies
▁suggestive
arental
▁unrelated
prepared
▁RH
iatric
▁chick
▁Treatment
▁adverse
▁aspec
▁SG
rC
▁elimination
tif
▁Addition
▁gains
▁surgeon
crip
▁metabolism
▁streptococci
iant
▁Additional
▁superficial
▁parotid
▁pancre
odies
▁tert
patient
▁managing
▁rated
ught
▁withdrawn
▁zinc
▁detec
tural
▁tach
▁decreas
▁aerobic
ctive
▁concurrently
sych
▁6.
luent
ixation
▁Increased
▁clinicians
▁Phe
▁mL
▁Plas
▁illustrates
▁vein
▁measurable
▁relaxation
▁endoscop
onstric
BK
▁investigated
erating
▁polypeptide
▁mature
▁exposures
▁influences
▁ALT
mg
esthe
requ
▁intramedullary
▁oxidation
▁axillary
hydroxy
▁sepsis
injured
▁nons
▁eosinophilic
▁panc
▁cohort
▁buc
ipit
ubtedly
▁myocardial
▁hyperg
▁pT
hesis
▁calcified
▁mandibular
GF
▁cen
▁colonoscopy
▁expend
Mu
▁macropha
HU
yroid
▁infarction
▁struc
▁nucleus
▁intraoperative
ometr
▁curative
▁parame
▁syndrome
▁rats
embran
▁Streptococcus
atient
ovascular
▁lipid
▁Histologic
▁Trials
astatic
-9,
▁mV
ximum
otherapy
▁biases
iable
▁Taken
▁adjustments
▁(19
▁25
▁(10(
▁rigorous
umulative
▁neurological
plic
▁malign
tially
ressed
▁reflec
▁focusing
▁fluoroquin
.3
▁sampl
utin
▁filtration
cture
tial
ilized
oice
oplast
▁locus
▁hemodynamic
53
▁reactions
▁crest
iotensin
▁evac
trex
sus
▁embryo
▁injected
▁pneumonia
sities
▁Medicare
▁evaluating
olated
▁Bec
▁stroma
▁GM
▁membran
▁resul
▁Eff
▁facilitated
▁preferable
physiologic
▁cutaneous
▁scaled
▁AMP
mong
▁consequent
▁exposure
▁confound
▁problematic
▁restric
▁irradiation
enol
▁recombin
VT
▁stimulus
▁implant
aturation
hers
▁temporarily
genes
▁diabetic
▁resistant
▁adhesion
ostat
ejun
▁Cycl
▁juvenile
▁juven
▁warr
▁Healthy
▁gangl
ressing
▁unres
▁inactiv
ourable
pir
vein
▁implantation
▁latency
▁carbohydrates
planted
▁hypertension
▁advised
▁transcription
▁sore
▁deple
ymme
▁utilization
positive
▁abdominal
mented
CGP
▁resected
lastic
▁nurses
TG
▁Vitamin
▁immunos
uoden
▁caud
enhanced
▁resis
▁laxity
▁Tren
olol
▁questionnai
edle
75
▁manifestations
▁inhibits
▁temperatures
acting
▁deficiencies
anin
VR
▁ey
▁laboratories
80
▁indetermin
coh
▁indication
▁65
icated
▁prophylactic
vasive
▁Systolic
▁contrac
heal
minis
▁antegrade
athe
▁resonance
▁RP
mentation
▁laparoscopic
▁irrit
▁differentially
▁stillbirth
▁depress
▁striated
▁tympan
▁disrupt
▁appreciably
tant
3)
ortic
2,
▁clus
▁allevi
endri
reatine
minal
▁hCG
▁cytotoxicity
▁32%
lec
▁guided
ococci
▁receptors
▁Elderly
▁palsy
rins
▁trophob
▁tumour
▁inflammation
omal
arb
aning
ulitis
▁consultant
graft
▁coex
▁elevation
▁recess
essive
▁chloro
▁catheter
rous
▁deformity
▁Prospective
▁paradigm
▁endemic
▁genic
▁presum
▁apoptotic
▁perc
ocele
▁atrophy
▁discom
▁heal
▁antagon
▁eyel
Ga
trimental
▁depar
uvant
▁intercostal
thyl
▁intest
▁stimulated
urate
phosphate
stress
▁calcium
▁testis
labeled
▁endothelin
▁-0.5
▁GBS
gastric
▁behavioral
trop
11
opic
▁doctors
ynthe
▁meth
▁radiograph
lep
▁autoimmune
▁occurring
entral
▁versa
▁cortical
▁spont
ivocal
▁sensorineural
▁immunore
▁prolif
ocrine
▁transfusion
▁cure
▁(1)
▁immuno
osyl
▁neurop
▁intrarenal
▁hydrox
usp
▁pharm
neal
uccessful
▁obesity
▁hypertrophied
▁dopamine
▁coli
▁uncomplicated
atories
activated
ellosis
▁clones
-2-
▁HL
iferol
mTc
/1
▁technologies
▁STI
▁preven
otides
prising
▁reflex
3,
▁haemorrhage
▁fractured
rof
▁practic
▁rhe
entary
▁specialty
ergic
▁22
▁stenosis
atical
▁ratios
▁ADH
▁multic
opathy
.4
▁cesarean
▁designing
omerular
lesion
osterone
▁plasm
▁physiotherapy
acerb
▁substances
essential
▁turnover
▁hypot
tection
▁suicide
duc
▁diluted
▁methyl
▁precursor
▁Adverse
▁mellitus
ameter
▁pyl
ecre
▁mutation
▁intervention
MIC
ective
acer
▁corne
activation
▁abnormalities
tib
▁sten
▁biochemical
alsy
▁seb
%),
▁antec
▁intracellular
▁4,
▁0.
saturated
▁20
▁occupational
60
functional
acil
▁traumatic
geal
mia
kade
nutrition
▁RT
▁Atropine
▁TG
adder
▁interacted
▁kidney
▁198
anis
▁depressed
▁respondents
▁0-1
▁VAS
▁chlor
▁directional
▁infect
▁(100
▁hybridization
▁abuse
▁hydroly
genital
▁Mucosal
pecific
▁surgically
▁vegetable
▁antibiotic
▁suturing
aemia
▁achie
ellar
▁wrist
▁challenging
cepti
▁impairment
▁edema
mediately
assi
aints
-1-
▁muta
ubted
unts
ochemistry
orative
▁warranted
▁Chemical
tual
lore
relevant
ateral
▁discus
▁exo
ylated
uscular
▁+/-
▁endarte
▁presenting
▁surveillance
ogenesis
echan
▁unselected
▁sexes
radi
▁LOS
orin
▁enrol
ritis
▁guinea
▁Significant
▁infants
ioid
tase
▁prostate
tenance
acement
69
▁eating
uding
▁precur
▁hazards
▁immig
tach
▁undertaken
▁pall
▁confronted
▁oxide
▁systolic
ancre
tro
▁gamma
▁antibodies
immunization
▁congenital
▁sliding
▁GE
▁thym
▁15%
▁regulatory
▁assessing
atell
▁characteris
▁histological
▁sour
trol
▁alcoh
▁cytochrome
▁herpes
astolic
udin
▁impair
▁permeability
▁PAS
▁excimer
cores
▁corneal
▁headache
▁quantitative
▁smoking
▁inhibitors
-5
▁Certain
▁lithotripsy
▁reproduction
▁attentional
▁ischemic
dle
▁underg
LB
AH
▁embryos
▁paradig
▁vomiting
▁placent
artum
▁diets
▁babies
▁differentiation
▁FD
terminal
▁tympanic
amily
▁clon
▁determination
eration
▁decisive
umulation
▁prescrib
▁availability
▁vulnerability
ointing
entists
▁ATPase
▁PG
ediatric
▁insertions
▁HC
ylate
▁TB
▁subunit
▁poorly
▁5'
▁approx
▁prostatectomy
ergency
adrenaline
▁TK
SCE
▁0.0
▁femoral
lym
▁BPs
▁worsened
▁(54
▁15
OA
▁patellar
▁125
▁benign
▁promoting
phosphonate
hyd
▁organs
▁ossification
▁indeterminate
ocytosis
▁socio
okine
▁pharmacists
▁inclined
infected
▁angi
▁antibody
▁muscles
▁doses
endot
▁enhancement
arate
weighted
99
▁rebound
▁widespread
uated
tiv
▁socioeconomic
▁sph
▁oxid
▁dissociation
▁cere
responder
▁nonc
ileptic
▁structural
onary
▁sulfate
anine
eak
ithi
▁hydrolysis
▁ET
▁Phen
▁ascertain
▁inadequ
▁aorta
sia
▁acids
affec
▁5
▁mediation
induced
seal
▁cancellous
ialysis
▁16
opath
gesterone
▁disks
▁uncom
ploy
Ra
▁laparoscopy
▁nucleotide
orest
ographically
▁procedural
▁advancement
▁unevent
urement
▁overex
▁SNP
▁acquire
▁vaccination
▁therapy
respon
▁prevented
▁thyroidectomy
tile
venous
31
CRP
econd
▁everyday
▁HCMV
▁Surgical
adication
▁intake
▁establ
MN
▁31-
hered
ulin
tein
▁elevated
▁SCH
eric
▁neutrophils
inally
▁discrimination
▁potency
▁predominantly
otor
▁efficacy
ogra
▁GABA
ulfonyl
pS
▁pmol
▁restorative
▁antiser
▁rele
▁chemo
▁molecular
▁hepatocytes
▁utero
▁esophag
tice
ffer
iological
▁agon
▁silicone
othelial
▁prevalent
▁consistently
▁residency
▁spon
▁molar
▁fatality
▁isch
osts
▁phosphatase
SAP
Ts
▁algor
erin
valence
▁uninjured
ipient
aryn
aventricular
▁mutants
▁epiderm
▁tris
▁demands
▁pneumon
▁preclude
▁pathology
▁tracer
osity
▁GVHD
relations
▁tryp
MRI
14
▁proximal
▁gly
▁equilibr
▁13
mur
▁footprint
opes
agic
amine
▁uni
omized
▁multicenter
▁corrective
ching
geons
▁respon
Ds
▁24
▁meals
▁anastomosis
imens
▁residual
▁reveal
▁amo
▁gradi
▁lateral
tensive
▁localized
▁disorder
▁rhythm
▁eliciting
▁drain
▁metabolic
herent
▁sclerosis
ivariate
mates
tub
▁estimating
▁indicators
▁diet
▁comprehension
▁multim
oyl
▁1,
▁SUP
aminated
ithm
-4
Fs
▁unc
risk
ariate
oping
▁10(
▁Increas
retro
▁inhib
esic
▁79%
▁allerg
▁40%
alp
13
▁5.
▁AI
▁chec
▁sulf
Cu
rone
▁nmol
▁ganglion
35
▁positioning
▁1.
▁irritation
▁electr
oside
ichia
▁lesion
▁proct
▁therapies
▁clinic
ysm
otropic
▁hospitalized
isture
8-
▁toxin
▁blin
▁Pretreatment
arcin
ilization
▁Lys
▁DFS
▁intrac
LV
▁widening
▁cDNA
ymp
▁decades
▁physi
▁wee
dehyde
▁occlusal
orotic
▁scans
ograp
ullary
▁saliv
5-
▁plac
tectable
roin
▁uncover
▁soluble
tional
▁36
-1.
▁techniqu
▁eliminated
▁prel
▁infar
▁feasible
taken
▁speculated
▁traum
▁favourable
ocusing
▁barrier
85
▁ethanol
▁80
▁PD
ystolic
▁Acute
2+]
razole
▁phagocytic
▁cryst
▁injuries
▁peptic
▁anatomy
▁graft
▁subchondral
lymph
▁constr
afe
▁insult
▁nerve
▁nerves
tical
osine
▁researchers
▁visually
▁produc
phos
▁Magnetic
▁diastolic
unctional
yro
▁solely
▁clinically
▁HG
enon
▁contamin
ffinity
sive
▁compounds
Tn
HB
▁purified
▁errone
▁pathologically
▁Weight
▁depres
▁Tum
7)
▁highl
▁45
▁150
▁kidne
▁adrenal
▁vaccin
iciency
▁endos
vival
▁bronchoscopy
▁Educ
▁endoc
▁RM
ewish
ilateral
▁melan
illus
▁trough
ohy
▁Neurop
▁possi
ventional
sor
▁cocaine
ologists
ococcal
mide
icide
▁screened
▁IFN
gative
ondr
▁appropriately
▁calcification
▁microb
▁ongoing
▁migrated
▁chorio
onyl
pendent
▁8.
omain
ivoc
▁CRP
aem
▁vena
ithiasis
0.
▁(1
ivary
amino
▁asthma
till
orrhagic
▁compliance
▁rigidity
▁sulfonyl
BM
▁displacement
cad
▁membranes
osomes
▁SGA
▁allergic
ectin
▁aortic
▁prognostic
.6
meth
▁stimuli
▁RNA
rele
gments
▁behavi
▁femur
▁histamine
rocy
dition
▁CABG
▁comparisons
▁chest
ardia
▁glut
cysteine
ositive
▁deficits
tam
orrh
renal
▁BS
▁subtype
▁ventric
carcin
▁pathogenesis
unar
-67
▁HIV
▁tracers
▁anticoag
rease
filtration
▁incub
▁vesic
▁neutrophil
▁pharmac
effec
▁scintigraphy
olectomy
carb
▁adjusted
▁transplantation
▁lipoprotein
▁Intra
▁nutrition
▁hygi
▁coexist
9)
▁enzymes
gluc
▁coel
bility
▁17
lated
▁practitioners
67
married
▁70
▁cys
▁THA
▁lumb
▁potassium
▁Twenty
oplasm
ogenic
▁6
▁ward
▁extrac
▁prostaglandin
eptides
▁numb
▁overlaps
▁Serum
hyp
omes
▁defec
▁oesophagitis
▁surgical
▁PBB
▁recipient
versal
▁infec
affected
SPECT
▁0.2
▁pate
▁10-
▁tolerance
duction
isol
▁adolescents
▁systemic
▁stained
▁heparin
birth
thle
▁mutations
▁acyclovir
▁umbilical
▁PH
▁cis
reased
▁ETS
▁infiltrative
trum
▁alve
▁induc
▁reversed
hort
▁compartments
glutin
associated
▁concordance
atisfaction
▁polyps
whe
onor
▁progn
▁pregnancies
▁fatty
▁repaired
oxif
▁suspicion
acrylamide
▁mechanisms
▁unco
▁assessments
▁caution
▁pediatrics
▁encouraging
▁groin
ronous
▁overl
resting
anic
▁competi
-0.5
▁examinations
79
▁stom
▁ADP
-10
▁reperfusion
orax
▁neo
▁burden
rans
rogenic
▁rabbits
▁peptide
alues
Cer
▁morphologic
▁200
▁subjec
▁thromboemb
▁lax
▁healing
orphic
▁transcrip
▁differentiated
uation
▁Overall
ximal
▁Surgery
olon
▁complication
▁genetic
▁Sout
▁analyses
icient
estim
▁viral
lecting
▁cardiac
▁consolidation
▁5'-
▁raises
▁symptomatic
Ara
▁micros
▁influenza
▁mineral
-8
ostatin
▁horm
fron
amn
▁respec
▁fragile
▁VLBW
tinu
idation
▁increasingly
