▁Km
▁encompass
retic
uretics
keletal
▁substrates
▁(16%)
▁testosterone
alp
▁diets
▁adminis
▁antipsychotic
oprec
aemia
▁prevalences
nee
▁cyt
▁contractile
▁embryo
▁physi
enzyme
▁resolving
traumatic
▁lungs
▁subunit
plants
uran
▁NT
▁muscular
▁restric
▁Thirteen
▁positively
ongest
▁ane
▁underwent
▁allele
brain
▁Cumulative
jury
▁septal
▁visualization
▁ecz
resist
▁LPS
▁pound
▁localized
▁keto
▁grading
▁whey
imus
vating
▁tremor
-60
▁apprec
creatinine
▁mechanisms
gents
▁competence
▁apolipoprotein
▁sickness
▁consultation
▁56
▁biosynthesis
ration
▁(17
▁sustain
▁Smoking
▁275
havi
▁gon
▁probe
▁retina
andard
▁0.97
▁15.
▁pulsed
▁atherosclerotic
quid
▁fossa
▁sedimentation
tein
46
ilin
▁antiserum
9-
sy
▁propionate
7).
▁multin
imens
xime
▁(2.6
▁ET
▁142
▁carbonic
▁gly
▁89%
ophila
idic
▁TSH
▁correspon
▁micrograms
▁occlusive
▁Depression
▁LN
▁5.2
▁reduc
atine
▁latex
▁sodium
▁Experim
acylglycerol
▁slowing
▁glucose
▁demonstrating
▁0.54
▁arrhythmia
▁regulating
▁14%
▁39
▁experiencing
-6-
eled
▁persisted
fusion
▁incom
▁170
▁microns
▁clu
▁6.
SDS
▁Clin
itus
▁familial
▁deple
▁selec
▁8.3
-2,
ymp
▁precursor
otre
▁hyperactivity
▁hydrophilic
▁births
▁sleeping
MG
▁knees
aemic
▁129
▁hig
▁identif
▁Likewise
edding
▁abundant
tility
▁surveillance
ologically
▁evaluates
▁0.74
▁BAL
carotene
▁ranitidine
▁bup
▁genetic
▁3-
tivation
▁30-
▁chond
79
▁regulate
▁unchanged
▁spectra
▁incision
▁(43
▁drin
▁Prevalence
▁injected
▁qualitatively
▁attributable
coh
ecia
imeth
▁acros
siology
▁Organization
▁homogeneous
▁fulf
▁0.79
faction
▁defects
▁alveolar
▁Almost
▁disrup
▁expectancy
▁evolved
▁0.23
ureas
9%
enil
adrenoceptors
▁splenic
▁1.6%
▁hypoglycemic
oic
5%),
insulin
▁ions
▁phosphate
▁regeneration
▁prono
7-
turally
eric
itidine
ocytopenia
roxyprogesterone
▁peroxidase
▁1969
▁malign
▁enal
ocyte
▁RV
acquired
▁0.6
▁immunode
▁abd
▁lysis
roscopy
▁resc
tensity
▁scalp
▁respec
▁(10(
▁carbox
▁endoscopic
roximately
amphenicol
▁(3.8
▁drain
▁Evaluation
▁metronidazole
▁pea
▁thresholds
▁developmental
Ga
▁nurses
▁regen
▁augmentation
▁investigator
▁DP
cellular
rected
▁thirds
▁spi
▁phosphorylation
▁surgical
73
▁ofloxacin
fused
▁chlorpromazine
ynaptic
ietic
▁excluding
▁0.05%
urons
▁fibers
▁likelihood
▁clinician
▁Nineteen
▁cows
went
kephalin
▁satisfactorily
▁chloride
▁inhibited
▁salivary
▁10
partic
▁pall
ections
▁Ia
▁mg
▁adhering
▁prednisolone
oderm
▁anhydr
▁UV
▁10.8
-2
▁isch
▁transc
tite
▁neon
▁kDa
▁grains
▁bromocriptine
▁pellets
▁79%
icide
utin
▁electroph
▁rats
▁3)
▁unrecognized
▁leuk
▁(67%)
▁intake
▁0.8%
otide
▁mutations
▁extre
▁schedules
eryth
▁PCR
▁bacterial
affec
otropin
yocardial
lasses
▁122
▁killer
ochrome
-1.0
▁arteri
▁symp
▁(1),
▁64%
▁metabolism
iphene
-40
▁decayed
▁hazards
▁scientif
effective
▁sten
140
lycemia
▁outbreak
▁excitation
ogens
▁gastric
▁sati
▁(28
▁Calc
▁tuberculosis
ospasm
▁excision
▁hyperthyroid
RF
▁dehydrogenase
▁infertility
▁exacerb
▁emissions
80
▁aids
▁inoculation
itic
oil
ophilus
▁2.1%
▁poorly
tide
phyloc
itone
▁adoption
▁neoplastic
frequency
▁concer
▁3'
▁1.1
opramide
▁adolescent
▁ips
▁rostral
▁adenocarcin
82
ensitivity
▁206
▁Urine
▁spirometry
uretic
titu
▁premature
▁nec
▁terminus
▁cann
▁predictor
▁BM
▁polys
▁enzymes
hydropyridine
▁supr
▁muc
urys
inyl
▁hospitalized
rozen
opulation
▁depr
roup
oxide
feeding
▁220
▁exhaustion
▁cardi
rotic
▁chl
thmias
▁146
▁15%.
fate
▁stimulate
▁HS
▁21.
hene
▁polypeptide
▁penile
▁successive
▁disturbance
tingu
▁24,
ogenetic
Ly
▁strep
▁surgery
30)
ylase
▁focuses
▁cytosol
▁relieved
▁cyclooxygenase
limb
▁67%
▁titr
▁3;
▁algor
motic
cholesterol
▁(+/-
▁3.2
▁isolates
▁maneu
benz
▁98%
▁1000
▁inducing
▁tumors
▁CHF
▁compositions
▁infarctions
ischemic
▁shedding
otypes
▁reperfusion
.2
▁immunosorbent
olone
exc
wes
oporosis
obacter
▁alcoholics
▁diastolic
▁investigations
▁determinant
▁plasminogen
▁acidic
kDa
helial
▁22)
▁addi
▁antidepressants
▁90.
vaccination
ranial
▁ACTH
▁PD
▁4.5
wenty
▁occurring
ophils
▁hypercal
reduced
BG
▁0.08
ococcus
cortisone
molar
▁surround
brom
▁stres
osclerosis
▁pump
romy
terin
▁arom
▁(5-
▁0.26
▁0
-3)
▁radiologic
▁clus
▁0.50
ylline
▁ganglion
▁12.
▁parox
▁78%
apeu
▁depression
▁2000
▁coated
▁atheros
▁vulgaris
renal
▁OB
▁Systolic
▁ultrasound
▁0.86
tural
▁cep
activation
▁Sixty
▁intranasal
▁Breast
▁(22
▁chromosomes
ticle
▁hydroxyl
▁undere
▁45%
▁leukotriene
▁inguinal
▁scars
▁ascer
▁vaccin
▁influences
itoring
▁0.65
▁scans
▁84%
otting
ectable
▁infusions
dial
▁disper
lobulin
▁swelling
▁renal
▁arth
selective
▁12.5%
ropine
▁infancy
▁potentials
▁(1.4
▁21,
▁displ
▁polymer
▁nm
▁expec
▁(2)
▁inspiratory
▁characterize
▁expressing
▁clearance
▁Elec
▁(80
▁0.33
sis
▁plasm
▁progn
sectional
▁lor
▁standardized
aired
▁adhe
▁Ventricular
▁0.69
▁implantation
▁regulated
angi
anthine
▁resis
tak
▁67
amine
▁0.45
▁163
▁2%
▁angioplasty
▁prognosis
adders
▁CB
▁blot
▁conduction
▁10(-6)
subunit
▁magnesium
▁fibrob
eces
▁TA
▁allogeneic
isolated
▁acetylcholine
▁IGF
▁graded
ichia
▁antic
▁seated
▁spectro
▁intracerebral
IgA
▁savings
ffeine
55
▁tubular
+]
▁symptomatology
▁phosphorylated
▁estrogen
▁1.7%
▁hygi
▁resul
OA
▁pharmacologic
▁Recurrent
azin
Leu
▁euth
▁athletes
▁73%
associated
melan
▁Epid
abdominal
Mu
▁0.41
▁24
▁brom
cutaneous
▁HP
echanical
▁diabetic
▁gonadotrop
opathological
▁traumatic
▁standardization
loride
assay
▁fetal
▁oximetry
/3
▁influx
▁74
▁appropriately
▁(11
tigu
▁mV
▁researchers
▁plasmin
▁bouts
▁Eff
▁chewing
▁squamous
▁96
▁infarct
▁biopsied
▁dye
thirds
sants
▁belie
▁focal
▁183
▁isoniazid
▁RBC
48
ilization
▁treatments
▁untrained
▁(75%)
▁57
▁1.5%
▁strongest
▁agglutination
▁rehabilitation
▁adoles
LH
51
▁sucralfate
▁arteries
▁carrier
inamide
▁receptive
▁NaCl
-13
▁diagnosed
ocysteine
8-
▁oocytes
▁fibrin
▁49
▁alkaline
trition
▁blockade
(2+)-
Ti
ughter
▁recr
▁0.93
▁inhibition
▁fluoro
▁Addition
▁Mn
▁(32
▁promptly
▁0.05)
▁refrac
▁ischem
63
5;
oclonal
▁cerebro
lasts
▁posth
deficiency
fem
plied
▁restenosis
▁rabbit
ucine
▁analgesia
azepine
▁psychosocial
▁hyperglycemia
▁synthesized
oblasts
▁socio
▁ADA
▁(25%)
▁lymphoma
▁autoimmune
▁hepatocytes
▁calcium
▁hemisp
60
▁55
▁prel
▁exaggerated
25,
▁hyperthyroidism
amic
▁4.4
▁23,
ogl
adrenaline
sian
▁11.2
ilep
intestinal
▁antioxidants
300
▁hypotension
▁Treatment
tages
▁lactate
▁ipr
aturated
nec
tained
▁pigment
lue
▁depleted
▁telephone
oconazole
▁chromatin
▁ABR
▁abstin
enic
▁protective
▁standardi
nucle
▁89
▁derange
▁psoriasis
▁sheath
▁scl
▁46
tropine
▁implying
▁surgically
▁exploration
▁cellul
▁validity
▁(99
trial
ditions
ulant
-]
▁tamoxifen
▁atrophy
▁CRP
▁neuropathy
▁transplant
tig
▁PLP
▁Significantly
▁cere
▁correlating
▁birthweight
onazole
▁substance
▁(16
▁confirms
▁6-
▁1.5-
▁perfor
▁abnormalities
▁2.0
▁babies
▁PG
▁hydrolysis
▁conformation
▁Prospective
tabol
▁immunohist
CAM
▁80.
iteal
▁10(6)
Ala
▁crude
▁genital
inase
▁renin
▁electrical
▁124
▁adjusted
elic
▁infertile
amination
▁stimulatory
2+]
▁herni
porting
respon
alc
1-1
oxazole
▁permanently
smokers
▁lamb
ronchial
▁dermal
▁glands
▁(7
lysis
▁phy
▁5.
▁seroton
▁kits
tence
▁Gluc
8;
▁metabolites
▁12,
tration
acement
ositive
▁suppression
▁Acet
▁euthyroid
2)
▁residues
▁livers
isole
▁curric
▁caffeine
▁proteolytic
▁0.72
▁gout
▁mep
▁irradiated
tensin
lyb
▁degrad
administered
▁influenzae
rangement
▁junctions
▁microorganisms
▁0.94
esophageal
▁0.01),
▁postin
▁Eighty
oprolol
sistent
consuming
▁30.
▁stimulation
31
▁stimulating
▁1.06
▁titration
idase
▁deliveries
▁(12
openia
rometry
thmia
▁(25
▁epid
▁overview
▁articular
oradi
▁pelvic
▁hormonal
tional
▁0.9%
▁hospitals
▁experi
▁78
phyl
▁sham
▁consensus
occi
▁BMD
enal
amel
▁7.8
▁61
▁hormones
95
▁immature
▁diet
erant
▁65%
▁bowel
▁62%
4.
ecal
▁pancre
▁calcification
/8
▁judged
▁diagnose
tub
▁mucos
▁PH
sion
▁therapeutic
▁CVD
▁tendons
▁varies
▁0.46
2+-
▁paradox
▁GMP
▁immunoprec
▁cardiomy
▁transfected
▁10%
otin
exercise
▁cancers
▁mmHg
▁regurg
tate
▁hyperlipidemia
▁spleen
▁neutralizing
protein
▁intensive
sively
▁sequelae
valence
▁lamin
ipril
▁Fib
▁18%
abies
▁ovulation
odine
▁sial
▁2)
▁1970
▁immune
▁actin
disciplinary
▁incid
bly
apid
sparing
ventricular
▁morb
▁meal
7.
▁bip
▁superoxide
rays
tics
oplasmic
▁arous
retin
▁32%
plast
▁5.1
▁unresponsive
acterial
▁arginine
diagnosed
▁18
mentation
▁kinetic
.6,
Hyp
▁bronchitis
tigo
▁immunogenic
▁IgG
▁covari
opoly
▁polymorph
irubin
:3
▁gentamicin
▁lamina
▁0.28
▁compe
▁translocation
embrane
▁experts
uitable
▁panc
▁Inventory
trum
osity
amphetamine
9.
FSH
▁bronchial
▁82
ffin
▁pylori
▁unrel
▁detrimental
23
▁cerebellum
▁LR
17,
▁retention
▁succes
-100%
▁ward
▁erythematosus
▁dextro
▁immunoglobulin
▁2.6
ohns
▁blast
▁ank
▁analgesic
▁occl
0%)
▁Dys
▁0.20
▁Progesterone
▁docum
▁enzym
▁(84
2+,
▁eccentric
▁hemoglobin
casein
ocaine
▁rigorous
▁prednisone
▁lysosomal
▁adap
▁encompassing
▁Leuk
erence
▁fractures
50
▁subtypes
▁kidney
▁harmful
luores
▁motivation
aturity
RP
thood
▁diffuse
▁recordings
▁incontinence
▁mRNAs
▁11%
till
▁3
▁alp
▁autoantibody
omatic
▁106
▁cations
elec
▁cyan
▁7.2
▁somatostatin
arb
▁assis
tations
aldosterone
sorb
▁15-
.2%
tec
▁compartments
-17
(6
)2
▁weighed
Rs
otypic
tability
▁ammon
▁glial
BH
▁NSAIDs
▁reticul
▁excitatory
▁obstruction
▁mitochondr
▁reag
▁5.6
trast
▁sequential
100
bran
gA
▁maturity
▁epitopes
▁neutroph
Tc
▁contractions
▁0.21
▁purification
▁VP
▁92
▁exis
0.1
▁glycos
maximal
▁lep
▁concom
▁exclusion
▁ib
daily
▁proteinuria
lox
mong
▁sour
▁codeine
▁opi
accharide
ectom
▁femoral
▁parac
obarb
▁structural
▁infrequently
achol
rein
▁0.77
▁sero
▁immuno
LV
erally
roscop
▁appendic
▁HBsAg
▁lesser
▁contraceptives
▁nephropathy
▁encour
▁gonadotropin
▁Factor
immune
▁sarcoma
12
▁efficacious
▁ablation
converting
▁frozen
▁intraepithelial
▁carotid
▁pneumococcal
▁38%
entric
▁500
▁93%
▁musculoskeletal
▁discom
▁modest
organic
▁anomalies
▁shifts
▁traum
▁psycho
▁Levels
▁48%
▁felodipine
▁certainty
▁experimentally
▁5.0
ASA
▁metoclopramide
alanine
orectal
▁meaningful
▁alternating
▁awareness
opulmonary
▁exploratory
apine
.1
▁manifestations
▁concurrently
▁attain
▁600
▁1
farction
xia
tiguous
▁exchan
ameth
▁classifications
▁186
ailure
▁preventive
acial
▁parame
▁predictive
ifedipine
▁disadvantage
▁kine
▁spike
▁Successful
▁surgeons
gm
▁cytokine
▁horiz
▁34
▁potentiated
blockers
▁145
ionine
▁stimulants
plemented
rase
mL
initi
tene
▁prostatectomy
▁antidepress
5]
▁plasma
▁Subjec
▁Hib
pirin
▁sampled
▁absorp
▁glycosylated
▁dosages
-90
▁pancreatitis
▁hydroxylase
▁polymerase
FGF
▁homogene
▁contraction
▁181
▁hysterectomy
▁mmol
▁neonates
flammatory
▁0.47
hydration
▁ICU
▁194
▁anatomic
▁seiz
▁ovaries
versity
▁thrombin
▁6.4
otype
▁49%
▁5,
▁susceptibility
april
▁evaluating
▁CK
▁RS
▁0.40
▁intraven
▁enlarged
inergic
▁morphology
▁angiotensin
▁densities
▁remission
▁0.57
ardia
aptic
▁(5
▁eczema
▁nicot
▁aerob
▁123
▁58
▁(19
▁myocytes
▁16
neumon
▁cytotoxicity
0)
▁attainment
iol
valine
phic
▁brainstem
onuclear
tebral
▁responding
dip
tally
▁scin
6).
▁subjective
obac
84
▁modif
clin
▁progestin
▁hippocampal
▁nasal
▁concentrate
chid
exposed
▁findings
▁aneurysms
omonas
▁lysine
▁obstructive
▁modeled
▁embryonic
▁contribut
▁Cardi
▁potentiation
.0%
idation
▁tetracycline
▁synthe
ologists
osynthe
▁anticoag
▁LV
▁FSH
urane
▁complexes
helin
▁60%
▁(58%)
▁dissec
▁accurately
▁(0.4
▁vulnerable
▁Tran
rowth
▁beliefs
▁doses
ogenic
▁immun
▁overlapped
▁hemo
▁38
▁dosage
opic
ensi
97
▁leukemia
▁auditory
▁staining
▁LM
▁0.36
▁223
requ
▁epidemi
▁percentages
▁constric
psych
▁preexisting
▁pathologic
▁appra
8%
42
▁differe
▁avoidance
▁cytos
ubation
Ev
▁calf
▁neurolep
▁eliminated
▁Haemophilus
opsy
ondr
thase
▁12%
NAc
lowering
▁(30
▁grades
▁sustained
▁uterus
▁manifested
▁mobility
▁spectroscopy
▁Chronic
▁colonies
rous
concentration
idespread
6),
▁uptake
▁pigs
phine
▁280
▁repl
erver
▁ingestion
▁viability
▁59
▁lactation
▁coronary
▁presumed
▁collagen
lyc
odopa
▁GE
▁terat
▁departments
▁Prac
▁filaments
▁(39
iable
▁malabsorption
▁Phase
irub
athioprine
▁mening
.0
▁amo
▁inhibiting
▁Hypertension
olism
▁captopril
examin
oplasm
igible
eration
▁10,000
pH
▁cranial
ronate
▁3.0
▁GSH
ses
10.
▁gonorrh
▁hypothalamus
▁alteration
▁10,
▁antimic
otent
POA
▁phleb
▁HA
▁113
hemo
oyl
opecia
▁aureus
itro
▁eradication
▁Neuro
tronic
greater
ordial
▁readings
ipine
▁heterogene
onephritis
albumin
▁PMA
▁0.11
tioned
▁physiologic
▁fiber
▁presenting
▁uncomplicated
thal
▁CN
▁18.
orrh
▁definitive
▁oxytocin
▁tightly
orphine
▁potent
▁(1.3
200
68
▁glycoproteins
▁canc
gus
▁35
▁reductase
plen
ystitis
▁189
▁dietary
▁71%
▁congestion
romes
otyp
▁fluorescence
idating
▁dehydrated
▁21%
11
▁citrate
▁lifestyle
▁consciousness
▁tube
▁thromboxane
ohyd
▁targeted
▁54%
athyroid
▁intermedi
idol
▁responsiveness
▁presum
▁OD
▁enhance
▁FE
rogen
▁2.5,
▁adhered
▁exacerbations
sorption
▁SG
▁5%
▁summarized
00
▁6.9
▁reductions
▁traction
▁panic
▁(1.9
▁Increasing
18,
incubation
tant
-80
▁dysfunction
▁0.24
▁hir
▁inoc
▁0.05),
IH
▁marginal
▁undertaken
immuno
▁modality
GH
▁(18
idine
▁thrombus
▁deform
trover
▁nominal
gene
▁eradic
▁hypogonad
▁sulph
-52
▁Diabetic
▁activate
▁antib
▁fluc
▁calculi
▁postpartum
anking
growth
▁objec
plic
▁21
ethyl
acetic
4/
▁antagonists
▁awake
▁substances
thrombotic
▁116
▁39%
▁genomic
▁amput
inhib
testinal
aline
▁(10
▁28%
▁0.83
opi
▁crosso
▁exposures
.7
▁antiser
tetra
▁1,
▁medications
▁regurgitation
NK
▁hCG
▁4,
53
▁7,
▁vacu
oprost
ynthe
▁attenu
elvic
▁Criteria
▁microscopy
▁latent
▁requi
ventilation
▁quantitative
▁toxic
▁transit
▁dipyridamole
tency
atients
▁ionized
▁RNA
▁pituitary
▁nitrogen
▁Intr
▁caution
▁anae
threatening
▁perioperative
upus
▁declined
▁donors
operox
directed
▁stere
venous
eptide
ypass
▁rotavirus
butamol
inely
▁palp
▁endoscop
ferrin
▁attenuated
▁aggressive
▁nicotine
▁platelet
ealand
avir
-20%
2]
▁nonc
▁hemorrh
▁mature
▁infrequent
▁progressive
▁laser
▁lesions
ologous
▁endometr
78
▁phosphor
▁43,
▁Pregn
antibodies
▁Magnetic
▁recommendations
▁surf
▁contradictory
CRP
0%),
▁Inhib
ophore
▁levodopa
▁exag
▁salbutamol
▁84
ocated
Gly
conduc
▁12.0
semin
▁(89
▁polyacrylamide
▁ethn
▁endothelium
▁pyr
▁228
▁Computed
▁expiratory
teroids
▁114
▁acin
onstric
▁25
eight
▁preserving
▁cyclase
criptions
▁tes
▁excluded
▁bismuth
▁diz
▁determines
olus
+)-
▁insufficiency
▁83
▁cros
▁99
osage
▁4.8
Ni
piration
▁40.
▁pneumoniae
▁conges
IFN
▁lacking
tyl
▁artic
▁0.04
opes
▁4.2
▁4%
▁Afric
▁sensitivities
allium
titial
▁52
▁(79
LISA
▁endpoints
▁AI
▁stain
▁epilepsy
▁stimulated
terminal
▁109
atid
▁nondiabetic
▁utilized
▁disulfide
▁collagenase
▁presentations
otone
▁embolism
▁absorb
74
▁sedim
deriv
▁overt
▁weakness
▁40-
▁20
▁CCK
▁phe
▁chronic
▁favors
▁induces
20
tries
▁abruptly
oagulation
risk
▁absorptiometry
▁(75
▁0.43
ulates
▁pulse
▁cytokines
enyl
▁substrate
▁emphasized
▁(198
-22
▁precipit
9%)
rief
.5.
▁sensory
▁resection
▁bradycardia
▁amino
▁augmented
▁acco
lobin
▁tubes
▁microscop
▁60.
▁incubation
rection
▁tear
▁vitro
▁11.5
NH
edle
horm
orated
onine
stranded
CSF
▁nonsur
ubicin
infection
▁pati
▁bic
▁nervous
▁Subsequent
▁artery
▁66%
▁1.25
iasis
oride
▁assays
▁hypo
▁escal
▁isoform
▁disulf
ulum
▁axon
▁discharged
▁perception
▁lesion
▁toge
tectable
▁heterogeneous
osin
▁tryp
▁olig
▁VO
▁diame
acids
▁phi
▁nausea
▁psoriatic
rolog
▁enzymatic
▁characteris
antigen
▁abscesses
iotensin
▁enteric
▁53
▁cohort
orough
ophylline
▁formulation
opha
▁replication
induc
▁Tests
▁shar
omyces
IgM
orbid
▁embry
▁intest
▁ket
▁physicians
▁fluorescent
yridine
▁augmenting
▁posttreatment
▁voluntary
▁appetite
uvate
▁cysteine
▁saline
▁cholinesterase
▁urtic
▁synerg
oglobulin
▁immunoreactive
▁Vmax
hop
▁localization
▁nights
▁spas
diabetic
▁resonance
▁lymphadenopathy
▁resour
monary
inj
▁intractable
odium
ophag
▁tric
▁139
lamp
▁Cycl
9).
ortic
▁(10%
▁0.34
stin
tors
▁placent
▁comparative
amn
▁cervical
arbonate
▁(24
▁transcriptional
▁regar
▁vertebral
▁venti
5),
ocrine
▁68
yrib
DNA
ithelial
▁dox
atell
▁junction
▁0.001).
herent
▁11.6
-8)
troduction
▁substitu
ept
uestionnaire
▁Caucas
chol
▁TP
▁erythrocyte
ximum
umbers
tality
▁bronchodilator
▁leukocyte
▁1987
opathic
econd
▁condensed
▁isop
▁respiratory
diagn
methyl
inemia
ithromycin
▁2.8
▁hematuria
▁diarr
▁epitope
89
mokers
▁milder
▁Patient
▁31%
▁bactere
▁trauma
obenz
▁gains
▁177
▁disorder
▁ionophore
▁arachid
▁cytotoxic
▁serogroup
▁ocular
50)
▁microM
stem
▁irrig
▁serum
▁luminal
▁33
▁discon
▁pregnancy
▁remo
▁deem
▁concep
uscular
obarbital
-3,
▁weakly
▁bypass
aerobic
▁toxicity
▁immunobl
othiaz
▁hypox
▁69
▁splenectomy
amphen
▁fecal
▁2,
▁purified
▁VT
▁estimating
▁postprandial
▁suppressor
▁dementia
conver
▁punct
glutin
▁inflamed
▁genotype
arbox
▁aluminum
▁synthetase
▁0.9
aryl
▁radiolab
▁2.8%
ylchol
obal
ximide
irone
▁0.4%
▁herpes
TSH
ginine
▁tomography
▁enalapril
echan
▁atropine
▁catechol
1/
▁naproxen
▁reticulum
▁(46
unately
.4%
▁exceptionally
ithm
SMR
▁elec
olarization
▁70-
▁doubling
▁deficient
▁inward
tivity
▁molecular
▁[125
▁echocardi
gated
approximately
ecretory
▁RF
▁undergone
▁hypertensive
▁adjusting
▁350
patients
tested
ocarcinoma
71
▁theophylline
otomy
3-
1/2
tile
▁modulation
▁pregn
unting
▁pem
▁7
▁1%
▁tetrac
▁neutrop
▁tibia
attern
▁9
▁0.84
▁discontinued
▁eighth
▁(150
minal
▁endotracheal
▁poten
▁fixation
floxacin
ressive
▁bone
aminophen
▁effec
tential
dibular
▁propensity
cinolone
▁Replacement
▁Dental
NV
▁donor
▁(0.9
▁1.15
▁14.
▁0.48
▁calorie
▁bladder
▁sinusitis
▁vasodil
▁inters
▁GAD
ophys
▁41%
aminergic
▁injec
▁300-
6;
▁Dop
▁ison
8)
induced
esin
▁vaccination
▁glycine
▁neurones
▁ischemia
▁stimulus
unar
▁organisms
▁suscepti
▁recur
▁guan
thym
ulence
urations
-4.
▁mildly
rati
ercul
▁wors
▁(56
▁mIU
▁recruited
▁16.
▁hypocal
33
▁(8%)
7,000
uated
▁rehabil
▁histology
▁WHO
▁choline
eclamp
▁118
▁efficacy
▁chorionic
▁ulcers
pirone
chlorothiazide
trical
▁suprac
▁100%
▁morphological
▁90%.
apamil
▁systematic
ygen
▁AO
kage
▁perinatal
ymptomatic
▁colonoscopy
regn
▁tumor
turb
▁ramipril
65
▁interfer
1;
4;
divid
▁wee
iatric
ustained
▁focusing
▁cholest
▁backgrounds
▁Pain
▁termination
▁aneurys
▁persists
▁genes
▁incontin
▁cats
▁197
▁protr
▁110
▁54
▁indus
loro
oxif
▁lasted
36
▁pyel
▁187
brile
▁3000
▁rifampin
athered
ayers
▁meth
bility
ufficient
▁thereafter
▁nitroglycerin
▁excre
olecular
▁quantif
zation
▁40
▁scanning
tial
▁viruses
trained
5-
▁immunocompetent
ziness
▁Pneum
▁regimens
▁progest
partum
▁assessment
85
▁effector
▁tolerance
▁benzyl
▁(28%)
▁workplace
▁ATPase
istar
ymme
▁esophageal
phosphon
▁Specificity
▁TGF
arean
▁293
▁AFP
▁192
▁HPV
▁paired
mortem
▁Pretreatment
2%
▁hyperp
roscopic
▁titrated
▁hemodynamic
rogenic
mitted
▁Weight
▁aggregation
▁analyzed
▁-3
ruc
▁analgesics
▁comparisons
▁confounding
-12
aginal
saccharide
▁107
moking
▁impaired
▁bronchoscopy
overed
▁tubercle
▁labeled
▁cyclospor
▁anesthetic
▁microgram
▁tow
▁questionnai
▁diabetes
deficient
▁synthesis
▁bloc
▁adren
▁decisions
▁Physicians
okine
acetyl
▁transplantation
ocar
▁experim
▁noradrenaline
▁Caucasian
3)
▁fractions
▁nodules
▁anesthesia
▁126
▁injections
▁PSA
anad
ometrial
siological
ardized
▁0.06
▁nonresponders
▁capsaicin
▁penicillin
▁fibres
pyr
▁deletion
▁neurotrans
▁229
▁sulfonyl
▁sonography
ardias
4)
hap
▁0.27
▁medial
▁parental
nine
angiotensin
"-
▁17.
▁Fourteen
otoxicity
▁transcript
▁2.3%
▁hepatic
▁Clinical
▁133
indolol
▁BMI
4+
itin
▁Registry
▁casein
▁antich
▁(1
▁oss
▁mum
iatum
▁reas
▁fungus
apse
▁6.1
carbohydrate
▁malignant
-18
▁chec
ervations
parathyroidism
-1).
▁heme
▁specimens
▁wt
▁100-
ovastatin
▁hypers
bic
pir
▁carcinoma
▁60%.
roxen
▁acqui
▁unc
osamine
lated
▁cataly
ocyst
heres
▁direc
▁activator
▁Biol
▁239
0.7
▁elic
▁marginally
omies
etan
▁gp
yroid
cardi
▁208
amate
▁adjus
▁0.7%
kground
▁pyruvate
▁messenger
▁PI
▁reproduc
▁unfractionated
▁DS
tissue
▁3.6
▁renovascular
rological
▁LT
uminal
▁8.
illin
nRH
rophob
▁inconsistent
kers
▁200,
rectomy
▁myel
▁plex
/24
▁diagnosing
▁imipramine
restricted
-88
trates
▁amoxicillin
▁bronch
operative
▁transmitted
▁asthmatic
▁900
▁derangement
tism
▁ald
▁possi
▁cisplatin
▁calories
▁implic
▁105
▁compound
▁idiopathic
earing
▁theore
▁throm
▁constr
▁pep
▁lapa
quir
▁Hear
amol
▁dosing
▁8,
▁neurologic
▁classified
agonists
organism
▁crossover
▁emerg
▁cortical
mol
oconstric
▁paral
availability
▁obese
cemic
▁cessation
▁trache
rals
▁SPF
▁200
▁electromy
▁13.
▁perfusion
▁positives
olute
▁retard
▁dysplasia
3).
▁23%
iline
▁fulmin
▁micron
▁altered
▁nifedipine
▁perceived
lastic
▁activating
xate
▁SDS
romal
▁1.05
▁227
▁phage
▁overestimated
▁computerized
▁0.1%
vivors
adren
93
▁affects
avirus
▁abdomen
▁11.
▁ranging
▁painful
▁adenosine
acts
3/
▁bile
▁investigated
ostatic
▁micros
phosph
3),
ocor
containing
▁1986.
▁continuing
otri
▁cystic
-24
▁0.71
▁genotypes
sych
▁dialysis
▁biliary
▁hospitalization
weighted
▁epidemiological
▁outs
struc
▁splen
▁clind
▁antid
-5-
▁HSV
▁grain
bumin
oprim
▁tendency
▁16,
▁reveals
omized
▁Streptococcus
ipolar
▁6,
▁manipulation
▁allevi
▁facial
▁stained
▁behaviors
▁(1)
▁swabs
flamm
▁residue
▁injur
average
▁perfused
▁outpatient
-10
fraction
▁vaccinated
vian
▁0.78
▁25%
▁enti
▁incorporated
2318
individual
▁nmol
▁targeting
▁elevations
▁(400
astatic
▁immunore
▁pancreas
idazole
▁trunk
sensitivity
▁255
▁restr
▁mutation
ejection
metic
iloride
▁irrigation
▁Fifty
▁phenomenon
osteroid
▁survivors
▁monthly
▁orthoped
▁epsilon
▁effusion
ectomies
70)
▁5.3
▁cholesterol
▁benz
▁(23
▁unstable
▁steroid
▁newborns
itively
.9
▁ANF
olesterolemic
▁4.3
toc
▁subfractions
BMI
▁discontinu
.0)
▁26
▁drank
▁151
▁strom
▁endot
▁(3%)
posable
opressin
▁obstetric
opathology
anded
▁spikes
-14
▁11,
▁muscarinic
uris
▁(1000
▁routinely
▁prescriptions
antoin
tized
▁tracheal
Ba
fected
acet
Ep
▁natriuretic
neph
▁activated
endazole
▁diuretic
0).
▁randomization
carb
▁185
▁identifying
oplas
▁seizures
38
▁pharmacological
▁Rating
ausea
▁rectal
▁elong
initiated
plastic
opharynx
▁maintaining
▁Lys
tic
1,
▁abolished
▁ischemic
uresis
▁cellular
genital
cemia
▁mellitus
▁nM
gth
▁infants
mental
▁amyl
▁autoradi
▁contaminated
70
pli
▁distress
▁systematically
▁critically
rosy
esthe
▁buspirone
▁Whereas
▁8.8
▁longitudinal
phosphor
▁Statistical
thma
▁decade
▁regulation
▁kinase
▁qualitative
▁contrac
(2
▁diazepam
▁diverged
illation
▁quantitatively
▁lipid
▁hypog
▁supplemented
▁36%
▁6.3
ovine
▁insertion
▁poin
tually
▁carvedilol
▁suppres
uccess
▁1.6
▁52%
▁intrauterine
▁Viral
2),
▁phosphatidyl
▁selective
▁electrolyte
1.
▁baseline
iplinary
▁sutures
▁Serum
▁Prevention
▁lateral
▁skeletal
▁volunteers
▁decreasing
▁trend
▁methotrexate
▁plas
▁Lymph
expressed
▁islets
inating
occal
▁utilizing
▁hydrophob
▁1-
▁1990
▁inotropic
sA
▁parathyroid
▁blocker
▁reflects
algia
▁damaging
eliac
TG
▁caloric
▁candidiasis
▁(2%)
ipit
▁risks
▁asymmetric
tiveness
▁biopsies
glycoprotein
blood
▁presumably
▁rabbits
amycin
azole
▁avoiding
▁consis
▁vesic
▁ADP
▁DSM
MN
▁4.6
52
▁pregnancies
crib
▁adenomas
▁clones
nish
genic
:1
▁survival
▁164
uncture
▁shortening
0%).
▁bac
▁descending
▁76
▁intercourse
pig
▁balloon
60)
▁hydrox
+/
▁Measure
▁hairs
3%)
▁fibroblast
▁retinopathy
▁Alz
▁lymphocytes
▁56%
linked
▁83%
▁aberrant
▁duodenal
umented
▁800
▁27%
▁Extensive
▁blinded
ogenesis
lactam
▁carbohydrate
atrial
▁utilization
▁psychomotor
▁Sleep
▁saphen
▁peripheral
▁bp
▁manu
oresis
glutinin
Pen
yses
disc
▁minority
▁188
▁17,
▁superficial
jac
▁chamb
▁cereb
▁transcription
▁CABG
▁excit
▁PF
▁43
▁endoc
▁epiderm
▁enlargement
odiaz
▁derm
▁wean
▁coping
iability
▁bicarbonate
▁Hep
▁hepatotoxicity
▁PRL
▁Rats
▁eti
▁8.6
epti
toxic
1%
osterone
▁assessments
▁75%
▁Compared
0.4
ocomial
gesterone
▁neuroleptic
lodipine
fetoprotein
promazine
ulsive
▁42,
▁gland
olerance
000.
▁diversity
▁2
▁balanced
▁resemb
▁cerebral
▁providers
▁attitudes
▁catheter
▁phospholipase
▁degradation
▁amphetamine
▁ovary
▁upstream
▁coordination
tual
▁Invent
roxim
/6
▁onc
▁neoplasia
▁neomycin
iliary
▁bony
▁Increases
▁otitis
etent
nthe
▁11.8
osacral
odiazepine
▁cGMP
opathy
▁minimally
12-
50,
▁tach
▁MHC
▁doubled
.8
ypro
▁moiety
▁12
▁widespread
-35
▁diagnosis
▁1985
▁Recent
vated
▁disappearance
▁intervention
ternational
-6.
reast
▁aspirin
▁glomerular
▁overnight
atab
▁11
0.2
▁clon
lamy
silon
▁amiloride
▁allergen
sies
▁ethanol
▁hydrocortisone
▁25%.
▁renders
▁benzodiazepines
▁caudal
▁11-
7%)
▁39,
110
▁discus
▁infections
▁cutoff
▁lith
▁tape
urin
tum
▁eosin
▁Hg
-450
▁plantar
▁surrog
▁0.2-
botic
mobil
▁mug
▁14,
▁-2
hemat
▁linearly
▁desaturation
▁DBP
▁responsive
▁AVP
acer
plantation
▁exud
(5
ostic
aceous
DV
▁EBV
▁impairs
aryn
▁neutrophils
triglycerid
troph
▁clonidine
amino
▁fetuses
▁laboratory
fatal
▁0.18
▁granules
▁semen
▁anteced
▁simultaneous
▁enriched
▁chemicals
▁syphilis
▁aortic
tral
▁ongoing
5%,
▁acutely
▁ae
mia
▁hypothyroidism
▁breakdown
ateral
epithelial
▁hyponatremia
▁evoked
apride
-65
▁lidocaine
▁0.01).
▁teratogenic
timate
igaret
▁uniquely
▁juven
▁implicated
▁affinities
▁cited
1:
▁62
▁pulses
▁PP
▁frac
contrast
semb
2%)
▁sut
▁warr
▁Apgar
within
atment
PV
▁preterm
othal
▁phag
entan
▁29,
▁limb
▁3.
▁achie
▁lacked
▁infectious
▁conditioned
hormonal
▁(10.
opr
▁0%
▁(15
isol
▁Sixteen
▁(3.0
▁deterioration
usate
▁70
▁44
▁ipratropium
ifug
admill
▁tuber
arous
▁NMR
▁warfarin
▁carbachol
▁HL
▁replic
invasive
▁oes
76
▁anticoagulation
▁hydrolys
▁emergency
▁incis
treated
▁ouabain
tisone
▁implants
▁metastasis
▁7%
▁thrombocyt
▁HDL
oneph
▁organism
▁ultr
▁moderate
▁calmodulin
▁discrimin
▁promp
resis
orbent
▁glycemic
▁outlet
gely
▁PKC
▁NP
▁48
terone
▁ineffective
▁exten
▁4;
▁cephalosporins
▁rup
▁antim
▁recipients
▁physici
▁biosynthe
▁valve
vices
▁97
62
deoxy
▁15%
phil
orin
▁introduc
▁plasmid
tetr
feren
ofil
triglycer
▁individualized
▁melan
▁(50
▁microbi
▁electrodes
▁metabol
▁gluc
tine
ropathy
▁Elevated
▁anastom
HDL
ritish
glycer
▁parity
▁215
▁intestinal
mg
▁quoti
▁cortisol
▁33-
▁inflamm
00,
▁kidne
▁abrupt
exin
▁42%
oproterenol
▁acyclovir
▁400
onate
azoline
▁(62%)
▁Failure
eptic
▁94
▁Respiratory
▁100
▁antidepressant
azep
▁hamster
roin
osac
tocin
atation
▁wounds
▁Acad
▁monkey
erebral
▁thoracic
ifferenti
HN
▁inactiv
▁65
▁assayed
toph
▁3%
electro
▁specificity
▁excessive
▁HIV
▁naf
▁strand
▁electrolytes
▁bipolar
▁INH
adine
pendent
tam
▁90-
acerb
▁torsion
▁Nutrition
▁7%,
▁striatum
thyl
▁cefaclor
▁4.
▁PMS
▁stratified
▁3.5
▁exhaus
▁menopause
▁electr
onuclease
▁monoclonal
▁solely
▁capsule
▁interfere
▁cardiac
▁paradoxical
▁dissection
▁abr
▁50-
▁HI
olesterolemia
esity
▁susceptible
▁paren
phenyl
tric
▁11.0
▁(8
▁perone
▁cocaine
▁stools
▁paroxys
▁guidelines
anine
▁beats
▁chlamydial
▁adenocarcinoma
▁61%
-6
▁relieve
▁antagon
▁gradi
▁paternal
▁Reduc
▁550
▁ery
-1.2
▁mM
injection
▁isoproterenol
▁inadequ
▁loos
urine
ifed
▁stimulant
▁acquisition
tified
▁7-
▁(44
▁gonad
▁ACh
▁microscopic
▁UT
▁blin
lux
▁Sensitivity
mend
▁intolerance
▁indicators
▁syndromes
▁0.13
bular
▁Vitamin
▁confound
.5
ituitary
achid
▁radioimmuno
▁airflow
5%).
▁tuberc
otoxin
EMG
▁indomethacin
▁119
▁4)
▁dental
▁pharmacokinetic
▁amlodipine
henyl
▁alleles
▁therapies
▁cyclo
-16
▁ingu
▁induce
acr
▁molecules
▁onset
▁aspiration
▁alumin
oglyc
ellar
▁Meas
120
▁participating
▁(38
▁(4-
▁resistant
▁medically
▁exhibits
vus
tures
-2-
uded
mediated
▁surveys
▁COPD
▁AMP
▁2/
▁Wistar
▁provid
▁erythrocy
tur
▁comparable
▁accumulation
▁staging
▁indoor
▁ecological
omycin
▁pathway
▁pharmac
mature
▁Interestingly
▁CFU
▁127
▁79
▁sequentially
▁31
▁excretory
▁suspic
tening
assium
▁orthostatic
▁illnesses
entile
▁Comparing
▁retrospectively
▁CMV
polyacrylamide
ylon
▁23
▁caro
/1
▁oxy
illion
▁(32%)
▁stomach
spectrum
▁displacement
▁2.5-
▁endocrin
▁implications
▁determinants
▁Estimates
▁OC
▁lifest
▁prostatic
▁HC
▁recurrent
▁(13
reported
oustic
chlor
lycer
▁fmol
▁regulatory
▁sple
tosis
▁Ultras
▁Candida
arate
▁46%
▁putative
▁NADPH
▁acces
▁hairy
ifornia
agic
▁hepatotoxic
▁50,000
▁detectable
moderate
utyr
▁cytoplasm
ytoin
▁normotensive
▁defic
▁compares
▁lis
▁forsk
ducts
uterine
Cu
▁predominant
difference
ithium
96
▁35-
orec
▁pim
▁splenomegaly
ropriate
▁aorta
aicin
▁biased
jun
opausal
▁electrom
ylamide
▁thymocytes
▁deoxy
▁101
▁thiol
▁0.63
▁ESR
urgical
amyl
▁6%,
anat
iminary
onvul
27
▁glut
▁irr
glut
▁156
rogesterone
▁mucosa
▁sampl
▁8.1
yzed
romycin
▁graft
buterol
udin
1),
▁bilirubin
▁cyclosporine
ignificant
osyl
▁prescription
titutes
rophy
bacco
▁deterior
▁thrombo
49
▁DH
▁normalization
Ox
ozo
vac
▁medullary
▁73
▁pregnant
9),
ocellular
▁brady
TNF
tizing
▁tet
BM
▁lowered
▁mandatory
▁secretion
▁lob
▁serologically
10,
yro
resting
▁29
▁interacted
▁pathogenesis
▁134
▁proliferative
▁endometrium
▁reliability
▁longus
▁digestion
ocon
▁nonselective
chloro
▁exhibit
retro
▁depressive
▁undetected
ophil
▁MH
▁aggression
oprol
▁sensitivity
▁trypsin
tenance
▁glucocorticoid
▁inoculated
▁precursors
▁deviations
▁endotoxin
odipine
ochem
▁(49
▁ethyl
▁revised
caro
▁Benz
▁Protection
▁agonist
▁saphenous
▁BV
▁triglycer
▁supportive
spective
▁treating
▁unexplained
▁DT
▁availability
▁tended
omical
▁weighing
▁108
emin
▁2.1
▁prostagland
▁dete
▁Cyt
▁challen
▁132
▁latency
▁supple
▁Assessment
▁Injection
trin
▁mAb
▁adrenal
-78
osom
▁pancreatic
fec
▁nonsteroidal
ulph
▁enroll
▁nucleus
▁suspected
▁0.29
▁140
▁measurable
-36
▁soy
▁0.000
▁unselected
▁complaint
▁4.5%
sions
▁endogenous
onegative
▁abuse
▁luteinizing
-125
▁calor
fractions
▁80%,
▁preparation
▁weigh
▁orally
blind
▁cDNA
▁neonatal
▁interf
feron
being
▁75-
▁9.2
obronchial
teric
intensity
▁0.89
razole
▁coli
opath
▁filament
▁analogs
▁infil
▁stent
▁turnover
-1)
▁triad
▁folate
▁eradicated
▁arthritis
25
▁echocardiogram
▁aqueous
▁malignancy
▁stepwise
▁glyc
▁137
▁subpop
▁mite
itant
▁pulmon
ticularly
▁Lact
▁256
pregnant
▁leakage
▁expense
gol
elan
matic
▁ventricle
▁(24%)
▁20)
coronary
enec
▁37%
▁bilateral
orpor
▁genit
▁haem
umetanide
▁stimulates
quine
▁0%,
ialysis
▁sulfoxide
▁teen
▁ureter
▁protoc
▁behavi
pite
torchid
▁Nons
▁platelets
▁opioid
▁reactive
▁Feeding
-50
ylene
▁waking
Bs
blocker
naud
▁retrospective
▁colpos
▁microtub
▁triglycerides
astatin
-7.
▁titers
labeled
▁stimul
▁81%
ludes
▁suspicious
▁apne
▁Sodium
▁rhy
erox
▁adipocytes
▁revascular
▁logistic
▁10%,
lamin
vertebral
▁electrophoresis
tured
▁eliminating
▁theoretically
▁bioavailability
orbidity
onad
oglobin
▁amputation
0.5
▁(250
▁intermittent
▁mitochondrial
▁ceftriaxone
▁polysaccharide
▁mediated
▁0.12
tumor
▁(18%)
▁heavi
▁circulatory
▁depressed
▁Raynaud
▁Bacter
▁Recently
monstr
▁adop
sives
▁Impro
▁encephalopathy
FN
▁detrusor
otrexate
▁peripher
▁80
▁PPD
▁innervation
▁Patients
▁colic
61
▁inherent
tices
▁180
▁tol
▁supplements
▁heteroz
▁196
▁Eleven
1-
loxacin
▁screened
▁smears
▁allergic
ermal
▁adequ
▁rebound
reening
▁osteoporotic
▁correspondence
2+
▁tRNA
▁1200
ococcal
olated
▁mutants
▁(4
▁differentiated
▁vegetable
▁occlusion
trac
▁235
6)
▁examinations
▁encephal
essation
▁initiated
occus
▁cyst
traum
igl
▁hypocalcemia
ropath
▁75
▁endocrine
▁3.1
▁+/-
▁clom
amide
▁0.22
tially
▁insuff
▁feeding
ometh
▁adhesive
▁responded
▁suppressed
▁adduc
tious
▁superiority
▁norfloxacin
▁Calcium
▁SPL
-3
ipitation
BP
▁lute
acute
LDL
▁interventions
▁untreated
▁therapy
▁cloned
▁calcitonin
▁colony
▁40%,
▁predicting
▁28
▁metastases
oung
▁complication
▁mL
▁Golgi
▁reacted
▁granulomas
.9%)
▁nodule
ococci
▁methodological
▁reper
▁heavier
olved
127
olip
▁NADP
▁gonadotrophin
▁182
ensitization
▁amniotic
▁horm
11.
▁caud
▁176
heat
athetic
mitter
▁oxidative
/30
▁clinicians
cyst
▁glucagon
.1%
▁cream
▁immunoblot
▁58%
▁fibre
icated
ositi
▁Twelve
▁30%
▁37
oporotic
antial
odal
adication
▁cyto
▁admissions
embry
ications
▁trimester
▁elemental
ogeneic
▁(69
ancomycin
ritin
14)
uding
▁ACE
gative
.3.
▁acute
▁symptomatic
5%.
▁aging
ignific
oreceptor
emic
corrected
ociated
▁glomerul
▁3).
▁PV
▁noncom
habil
▁hepat
▁immunos
phasic
▁correlations
▁subf
oprotein
amid
HB
▁lithium
teral
▁indo
▁endemic
▁spacer
▁mim
▁Unlike
▁Trial
▁ascertain
▁postmortem
▁inges
▁progen
ystic
tise
▁Estim
▁PE
▁parat
▁warts
▁anion
olec
ministration
illary
utaneous
ograp
▁recurrence
▁cholec
adequ
▁ventric
▁infrared
▁99%
▁elicits
▁9-
rosine
▁deficiency
roma
▁Insulin
▁Conventional
▁kappa
amuscular
▁bleeding
600
▁tox
▁0.7
▁atyp
▁cephalosporin
▁histological
oxyl
rhy
▁0.67
alact
▁1)
19
atology
▁dehyd
▁exhibited
▁steroids
▁10(-5)
▁(14
▁10-
▁autoantibodies
▁amin
▁cerv
▁CHD
▁ECG
androgen
▁infec
▁adenylate
▁systolic
▁0.60
severe
▁40%.
arachnoid
itrate
▁Lipid
tropin
▁absorpti
▁cytochrome
▁scre
▁7.9
▁radiography
tinent
▁ND
▁phosph
-[
▁accelerated
▁leukocytosis
shaped
▁examination
vaccin
▁inositol
▁tetr
▁biop
tact
▁endometrial
olysis
▁(95
▁psychiatric
▁extracts
ximal
▁vitamin
▁introducing
▁rheum
▁abnormally
▁rhinitis
enol
ATPase
lytic
▁thyroidectomy
▁Rates
▁lutein
▁0.56
ported
ceptive
▁clinically
▁1.3
▁intestine
▁subgroups
hydr
actam
▁creatinine
illus
enteritis
acid
lamydia
▁ech
▁0.30
▁recons
diastolic
cancer
economic
▁neutrophil
▁nonf
▁clinics
]-
parathyroid
▁tas
▁competitive
▁cytoplasmic
dominal
▁recurred
tened
educ
▁Findings
▁specialized
▁deficit
ralfate
▁serotonergic
oselective
▁detergent
▁aerosolized
▁calcified
▁Nit
tent
▁suppor
hyd
▁uro
roxic
tagland
▁hepatitis
▁86
▁dehydration
▁hydrop
▁propranolol
luc
▁(90%)
▁perme
density
▁gastrin
4-
thel
▁occult
arent
▁collec
▁astrocy
▁inadequate
planted
pran
teine
▁interferon
▁transthoracic
ropyl
forming
unctional
omatosis
▁endoscopically
itudinal
▁unipolar
▁heal
▁(1.2
▁paroxysmal
olig
▁hygiene
▁0.10
▁angina
ocl
▁epidural
ching
▁posi
▁terminals
▁fetus
▁degen
▁leucine
▁nocturnal
▁interv
▁influenz
▁mood
▁(72
lude
▁mortality
enin
▁explored
▁fourteen
▁pneumon
▁1988
▁endoplasmic
inesterase
▁Abnormal
-79
▁tubercul
▁distinguishing
romised
imethyl
▁contex
▁conservative
▁modestly
esic
eroxide
▁regimen
▁tissue
▁microb
▁instruc
▁(9
0.00
▁attenuation
▁tiss
▁uncontrolled
athione
▁blockers
xyl
▁Caucasians
▁ligands
▁tymp
▁contamin
▁chronically
▁accid
▁varicella
▁50%,
-25
▁tricyclic
GI
kelihood
▁antibiotics
▁serological
motor
stim
ariate
▁bovine
▁benign
▁lipoproteins
0),
ocial
gesia
▁gangl
▁0.05
▁ligament
▁drugs
▁neurons
▁glutathione
erative
ipr
▁positioning
▁resear
▁intact
ropha
tussis
▁74%
▁retinal
asive
▁efflux
▁warrant
▁epidemiologic
▁compounds
▁ethical
▁1,25
▁accounting
aid
▁commercially
▁13.9
▁immunization
▁polyc
▁mesenteric
erents
▁8.5
▁(88%)
nitro
▁crom
plasty
ayed
Ra
▁demonstrates
gold
letion
valent
ofl
xual
▁molec
▁basement
▁.05)
tophan
itary
▁Increas
▁involvement
▁0.15
▁100,
0.8
taining
▁wound
▁favorably
phor
▁Tes
olesterol
▁-15
epam
sess
▁urinary
▁infusion
▁8.2
▁fluor
▁1.75
idis
▁mild
▁decreases
▁glycol
▁placental
▁coenzyme
▁bolus
▁musc
ucose
tation
▁fasting
▁concentrations
▁exhibiting
loon
▁antioxid
ulose
▁nylon
▁needle
urnal
▁cortisone
▁7.6
-5)
▁fever
▁elastic
urred
reactivity
fat
▁DMP
▁physiological
▁voiding
▁EGF
▁fibrosis
▁Significant
▁secretagogues
▁mec
owever
▁heparin
orption
urate
▁elu
otom
▁monitored
47
vul
otonic
renol
▁cardiovascular
▁64
▁colitis
▁PEG
500
▁postural
▁offspring
▁specialist
▁neuron
▁5.7
▁tac
▁awak
▁Mg
35
assessed
▁mU
▁zoster
▁incompetence
▁cavity
▁165
ensitive
▁autop
▁myopathy
cture
▁dose
leu
▁degeneration
▁fractional
▁mimic
▁erythema
▁deleterious
▁Subjects
▁inversion
▁expectations
4]
llate
▁pacing
▁drainage
ipheral
▁enhanced
▁pharm
▁controlling
▁Disease
▁glucocorticoids
▁envelop
ocytes
▁flora
▁13.2
▁persistently
RNA
▁necrosis
SBP
gestin
▁adolescents
▁chicken
▁laparoscopy
▁zinc
▁elevate
poor
(+)-
ervative
▁pmol
▁ile
itol
▁criterion
▁discre
▁insufficient
aldehyde
▁(26
▁myosin
omerular
▁osm
▁GA
▁metabolic
▁CDC
▁acetyl
▁adip
▁hypertension
ergic
adenosine
gluc
▁chick
▁throat
▁anxiety
▁iatrogenic
avail
▁Consequently
6%
ffec
FU
▁aggres
▁clinic
▁(2.5
▁nasopharyngeal
RB
endix
ophilic
▁reflex
▁enrol
▁fibronectin
▁maneuvers
▁MIC
▁excretion
▁0.0
▁lowers
▁27,
▁Bronch
▁preferen
▁asymme
2+.
40
▁4.7
▁Stro
▁albumin
▁diaz
▁epilep
▁0.49
venty
pressing
▁phenotype
▁lymphocyte
▁analges
▁oste
▁ethnic
22,
.9%
potential
▁nonpregnant
▁percentile
▁lact
▁171
istal
dehyde
▁identi
▁VA
ureus
▁recombin
-96
▁addic
▁nif
LN
▁aspec
idin
▁uncom
▁depolar
▁irradiation
tition
▁interleukin
▁formulations
PEG
▁rupture
▁pediatric
specificity
azepam
-7)
▁categorized
▁atten
▁reversible
▁rigor
acted
▁insoluble
entical
▁(4.0
-15
▁carbonate
▁Evidence
▁0.00
ophysical
▁159
▁indefinite
▁duoden
1).
icides
▁splic
inephrine
▁descriptive
▁IVC
▁counseling
▁cognitive
▁2.4%
▁hematologic
aryng
▁tracts
▁hetero
imazole
▁(45
angl
▁90
▁9.
▁inactivation
▁fatigue
▁histopath
lym
▁Clinic
2,000
adiol
▁phorbol
sibility
▁96%
hep
▁hyperplasia
endri
▁homogenates
▁reversal
▁unaffected
▁intravenous
▁deter
▁0.05).
▁viable
▁evacuation
ognition
▁-0.
▁differing
▁Cells
▁81
56
glyc
▁thickness
▁(71%)
▁survived
▁ANP
/9
▁Mild
7;
▁1980
▁chan
▁ejac
▁puncture
opause
2-
▁tension
▁headache
▁yr
▁47
59
trus
▁ey
▁peptides
▁streptococci
▁45
▁pts
77
▁wheat
▁transi
▁carcinomas
▁regulations
▁homology
dL
▁depletion
▁evac
ceived
▁77%
▁0.59
▁0.64
▁-10
▁adrenergic
▁continuation
lives
▁ulnar
▁4-5
clamp
▁(67
▁motone
odular
▁nons
▁GER
opar
▁0.17
tia
pecific
ometri
▁tachycardia
olones
▁duplex
cyt
▁elevation
etween
▁corpus
▁olive
▁inhibit
▁bathing
tructive
▁extracorporeal
▁Physical
lep
thoracic
▁nonex
▁surveyed
▁eluc
▁conflicting
▁(70
▁18,
▁chains
orphin
▁(4)
▁(300
▁ascorbic
▁agon
▁enhances
▁glycoprotein
9;
▁relaxation
yrid
pread
▁recombination
▁Medicare
indings
▁(94
▁prolactin
izine
▁esophagitis
▁intrap
▁initiating
▁verapamil
tle
▁discontinuation
▁bumetanide
▁coeff
400
-3.
▁chromat
▁oxid
ameters
▁victims
▁strokes
▁dodecyl
otox
▁anomal
tron
ilibr
▁metoprolol
encephal
sant
▁norepinephrine
▁selectivity
▁Diagn
▁enl
▁VV
▁Suc
▁reactions
oice
▁lowering
▁86%
ctive
▁triam
▁bacter
▁elas
▁1991.
▁Changes
sequent
▁optimum
rowing
heximide
/1000
▁cough
▁bacteria
▁crucial
prandial
trib
entral
▁TCR
titis
tensive
▁PT
▁neuropsych
▁(5.0
▁encouraging
▁ranged
▁1989
omes
▁strategies
ometr
▁4).
▁stom
▁stret
-1.5
▁guinea
▁(9%)
▁moderately
oligo
▁monit
▁prophylaxis
▁cooling
baseline
SAID
▁discharge
▁0.98
▁oxidation
▁filtration
▁sinus
▁occupational
cyte
▁ventil
▁emotional
ipro
osomal
▁acyl
▁250
erating
antibody
▁Milk
▁(92
▁phospholip
▁vaccine
▁35%
.0,
molality
▁repor
▁preven
onide
rosemide
▁favored
▁kit
▁infected
ociation
▁fati
ographically
dies
▁questionnaires
▁14.5
▁codon
Ds
▁extrap
estrogen
▁0.14
99
26
▁hydrophobic
oprostol
▁reversed
▁10.
▁Ace
▁sucrose
ullary
ocytosis
▁liver
farin
plete
▁irrit
IGF
▁0.58
▁defective
▁131
▁msec
▁cryp
,000
hydroxy
ocyt
83
ubiqu
▁psychiat
▁pathways
▁desm
pore
▁nipple
▁340
tracted
▁predic
▁phosphodies
▁restor
▁pronounced
▁emo
▁diphen
Cs
▁0.51
dural
▁supernatant
▁8%,
▁anticholinergic
▁accessory
timulus
▁85%
oes
▁inflammatory
▁cG
▁encouraged
zard
vitamin
stant
veolar
▁FEV
▁80-
▁locus
hospital
▁polycystic
oxin
pinal
diabe
▁2.
tif
▁muscul
▁adul
▁ultrasonography
▁adolescence
notic
8]
▁radiol
▁profound
▁healing
usive
▁EMA
ervical
▁poorer
▁pell
▁Examination
▁professionals
▁atenolol
taz
ycin
▁maturation
▁competent
▁corne
▁seb
▁postmenopausal
erin
▁potenti
▁tendon
▁0.52
▁19,
▁inver
▁hydrochloride
▁(86%)
▁neurom
▁spon
▁12-
▁rash
traction
ffer
▁209
▁0.61
▁-7
▁epit
labelled
▁suspicion
▁irradi
▁(0.
▁worsening
▁apparatus
trimester
▁prosthe
▁endothelial
▁cured
▁inh
▁triglyceride
▁analyses
▁sugars
▁hypotonic
▁Lyme
▁0.55
▁reser
.5%
▁symptom
▁fracture
▁33%
▁5)
▁cholinergic
▁regis
▁ml
▁functioning
▁automated
opam
vival
▁monol
▁0.38
oterol
▁thrombosis
▁persis
▁halves
0%.
taken
▁cortex
▁indication
opl
▁conformational
▁Sprague
ventional
▁metastatic
▁fulfilled
sulf
▁unil
▁rhin
▁Alzheimer
▁synap
▁isot
▁trials
▁substanti
▁unex
▁vesicles
▁osteoporosis
-3-
▁6%
41
▁EI
▁hemorrhages
▁ferritin
5.
▁kb
rague
▁Scale
ulatory
▁prolonged
▁cerebellar
▁uric
▁physician
▁conduc
▁alcoh
.8%
▁albuminuria
▁34%
40)
▁infar
▁pene
▁lipophilic
ordance
▁catecholamines
130
▁reasonably
pharmac
osine
iotic
▁construc
▁Factors
ycl
▁97%
▁advan
fts
-4
▁231
convul
▁factorial
ostomy
potassium
kets
▁24%
▁2.9
▁inactive
▁currents
▁iat
acrine
lipid
▁homogen
▁unm
▁.0
▁16%
▁rated
▁26%
▁examin
▁preferentially
▁questionnaire
75
▁ventilator
18)
▁immunofluores
-23
eeding
▁serolog
enem
▁erythrocytes
▁thromboembolism
uation
▁Bec
▁psor
▁conclusive
▁sha
▁durations
▁enrolled
cAMP
▁normalized
otoxic
▁antagonized
▁9%
▁reproductive
3%
▁relapses
▁10.7
ials
▁Cancer
3;
▁supra
▁0.95
▁postnatal
omegaly
carinic
tively
welling
ilol
▁20%.
▁messen
▁Swed
▁2-
▁neurogenic
▁spasm
oxyrib
▁melanomas
aminated
▁whee
▁thromboembolic
ofib
duced
▁colos
onit
ochemistry
▁dimer
otriene
▁tolerate
▁fric
▁10(
▁anaerobic
▁topical
▁endoscopy
30,
▁answ
▁88%
osid
▁0.2
glycerol
olol
▁cleavage
▁EG
▁Doppler
▁elevating
▁calves
idity
median
1.1
amily
▁angi
▁trich
▁fertil
anide
-20
▁keratin
▁phospholipid
▁32
▁instr
▁100%.
odop
▁satis
▁lacks
▁disseminated
▁reflec
▁athe
▁increments
▁airway
▁constipation
-1.1
▁impair
Hb
▁167
opril
▁tertiary
▁conserved
othi
▁descriptions
placement
▁threefold
acyl
▁kidneys
▁56,
▁androgenic
▁esterase
▁(93
▁(63%)
▁mutant
▁slic
iron
-0.
vail
acin
oretic
▁Veter
▁outbreaks
▁organic
▁synthetic
osts
▁progressively
ensities
oxic
▁GTP
▁symme
isal
-2)
▁antec
▁employment
▁monke
▁withdrawal
FEV
▁cultured
▁pressures
▁5.5
terol
▁63%
▁spermat
▁superf
▁axonal
▁synthesize
▁Thir
illance
▁alcoholic
▁neoplas
usal
▁cirrhosis
▁encodes
▁antibody
-1000
67
thyroid
▁cytology
▁autosomal
/2
/4
▁(0.5
▁comprising
▁molar
▁epithelial
▁illness
▁hypoglycemia
▁66
lys
ivary
-70%
▁muta
▁sclerotherapy
▁dendritic
ritic
▁brains
▁0.66
▁7.
▁hematoma
onatal
▁0.88
▁metabolite
▁-4
▁implanted
▁0.19
▁enlarge
▁granule
tib
ochondr
▁thromb
▁(45%)
▁sorb
▁examined
39
17
▁controversy
▁competi
itoneal
▁anemia
▁transaminase
▁NADH
ograms
compared
▁usefulness
(4
▁perc
▁sexually
▁pertussis
10-
▁labelled
▁preeclampsia
▁0.90
▁detecting
.1,
▁institutional
▁cyclic
▁transluminal
▁aspir
▁synaptic
▁3.9
▁80%.
inated
posure
▁Oral
topril
-5.
▁EE
▁243
▁diminished
herence
▁hippocampus
onidine
uates
▁adipose
▁Ninety
▁newborn
▁positional
partate
estive
▁0.6%
▁deformities
molecular
tory
▁compartment
otropic
▁digoxin
cessive
▁LD
apsulated
▁macropha
▁amn
▁vomiting
▁demonstrable
▁weighted
▁noc
▁resec
▁radiological
5'-
▁glutamate
TCA
itonin
entif
formin
▁initiation
▁wearing
▁dextrose
▁numb
▁1.2
▁NH
▁sepsis
▁(3)
▁154
5,
▁Neither
▁1500
▁palsy
rachial
orrhea
▁TM
ignant
▁precordial
▁hypothalamic
▁Identif
glucosidase
▁TD
▁Reduction
▁neoplasm
-50%
-30
▁spinal
5,000
incip
▁supplementation
▁membrane
▁3.8
▁diuretics
-2.0
oscop
plenic
▁contral
repres
▁copper
▁0.2,
▁Retrospective
▁conclu
trol
ysts
▁hypoxia
▁circulating
▁distorted
▁(3),
cephalic
oxone
azone
▁myc
truction
▁labelling
▁1.9
etaz
▁0.001)
NIDDM
▁Haem
sive
▁limbs
▁reliably
88
▁fibr
matched
▁elbow
▁hippocamp
▁accounted
hemical
▁8-
fiber
either
▁130
ystolic
Hg
▁melanoma
▁spine
ercise
▁allergens
▁fumarate
oxifen
▁Engl
▁establishing
▁4.1
▁hormone
▁40,000
▁complications
ereb
▁0.01
▁excised
gulation
icardi
▁constituted
▁brush
▁clindamycin
▁valpro
VT
▁leuc
echn
▁stratif
▁drip
▁(1/
ucl
▁0.3%
andida
derived
▁amenorrhea
▁gradual
▁overweight
▁postnatally
irds
yx
thromb
▁colonic
▁22%
ocyan
roat
▁pathology
▁progesterone
▁agonists
▁capillary
▁skinfold
:1)
▁irrever
▁51%
▁NSAID
▁carbohydrates
▁sperm
▁(21
▁stringent
releasing
▁strain
-2.5
▁hazard
▁antiarrhythmic
▁112
ritis
onset
▁Holter
▁(60%)
▁LH
▁limiting
▁mann
▁underg
▁identifiable
▁Seventeen
▁quotient
15
▁analysed
astric
▁5.4
5).
▁conservatively
hers
iaz
▁headaches
phrine
▁30%,
▁contributing
ilateral
▁1.16
razolam
▁gestational
otides
leukin
▁favorable
▁anomaly
▁264
▁cirrh
jec
▁apnea
cycl
▁(500
▁uteri
▁outflow
450
▁85
▁mineral
▁29%
Daw
▁80,
olipid
4%
▁compromise
unced
▁CAH
ionate
▁1.6-
▁attending
▁instrumented
▁dilution
▁90%,
▁contraception
uin
▁comprised
▁24-
oreactive
titution
portant
tituted
▁reti
▁sti
▁drops
▁relaxant
▁potency
yroxine
▁quinine
▁vasoconstric
assi
▁helical
inositol
▁characterized
▁(0.6
▁DVT
▁Centers
▁benzodiazepine
▁5.8
plies
elves
junction
ulmonary
ectomy
▁binds
▁NGF
1)
▁Prel
2).
stress
onyl
thre
▁angiogram
lymph
atched
▁440
▁fluores
4%)
▁symptoms
astolic
86
▁doxazosin
omiting
▁Optimal
6.
▁serotoninergic
▁flour
▁Thyroid
▁prevention
▁abnormality
▁fertility
▁curriculum
ticular
▁malignancies
▁750
▁shif
▁proportions
▁schiz
▁alanine
▁interpretations
▁Absolute
▁tablet
▁galact
▁perin
▁mammography
▁assessed
44,
▁alcohol
rocyte
▁saturation
▁disability
▁diabe
duc
▁344
0-
▁IgA
▁depres
▁benzo
▁hereditary
▁thems
▁0.
▁Sulf
▁(27
▁seronegative
ylate
essive
▁unsuitable
▁5%,
▁disorders
estis
▁respon
▁omega
▁HLA
▁concomitant
vular
▁serotonin
▁270
(3
▁(1).
ocardi
▁methionine
icine
cepti
▁LC
▁plac
atible
responding
mum
▁shortened
▁congestive
▁connec
▁dissociation
erum
vascular
asic
-34
▁immunocomp
ploy
▁drinking
▁205
▁vitamins
ifferen
orepinephrine
cg
▁MRI
▁tolerated
▁exceeded
▁heterozygous
▁gastro
orh
ytes
olution
▁radiographic
▁insignificant
▁clinical
▁statistically
hydroxyp
▁vein
▁ect
idne
lood
▁0,
▁gum
▁sedative
arity
▁exercising
72
▁jejun
▁psychosis
▁adjustment
MV
▁statis
▁0.02
▁1600
▁suggestive
▁hypnotic
ascular
▁102
▁Extr
▁oxidase
▁59%
▁Thirty
▁addiction
▁gynec
ocortic
▁olfactory
▁thymidine
▁Adverse
okinetic
ospitals
▁antibodies
▁intracellular
entricular
▁schizophrenia
▁RAS
▁normo
▁diagnoses
▁pyrid
ecu
▁Coronary
iph
▁amitriptyline
▁Barrett
▁(40
lycerol
▁(2),
▁improving
▁suppressive
▁cytologic
lact
0%,
bodies
▁assay
▁Educ
▁1983
teroidal
▁twofold
▁128
▁progres
▁correspondingly
▁raises
ields
▁progression
Phe
▁ratios
▁identically
sized
▁ionic
▁50%
▁decline
▁quinolones
isters
▁(15%)
▁homogeneity
▁predisposition
▁evid
▁vasopressin
ture
arge
▁antagonist
coup
trop
▁cen
▁CSF
iciently
alian
▁fibrillation
modulin
▁Cardiovascular
44
▁shifted
▁Seventy
▁ibuprofen
etine
odil
opamine
valvular
dine
▁distin
accharides
acental
chymal
tox
▁corticos
▁estrogenic
▁IgE
▁medulla
5%)
▁granuloma
ophen
vastatin
ureth
seven
meth
fine
iclovir
▁canine
▁prolif
▁bacteremia
▁establ
▁120
orbol
▁Angiotensin
▁abor
orable
acting
tering
▁(54
▁peroxide
imination
▁myelin
▁Previous
effec
▁multim
anin
▁follic
▁exert
▁0.4
▁hypot
▁beneficial
▁drinkers
▁ketoconazole
▁tibial
▁sput
▁centr
▁initiate
thmatic
exis
▁pretreated
▁isolation
cycline
▁Hyd
▁overl
▁hypercalcemia
▁deposition
ronch
▁oxygen
▁asthma
▁retardation
enters
▁endometri
▁20,
▁chromatography
sodium
affected
▁conditioning
▁carpal
▁antimicrobial
▁concentrated
▁10(-7)
▁Mortality
alsy
▁cathe
▁immunodef
rocy
ocin
▁struc
▁prol
▁cystitis
▁lens
aturia
▁dissemin
▁quantit
tinu
uprofen
otassium
vedilol
▁antis
▁basal
▁cran
gans
▁liposomes
▁CRF
▁rhe
▁prednis
▁PGE
odgkin
oactive
6,
▁prodrug
▁49,
peptide
ifugation
ATP
thrombin
▁withdrawn
▁157
(2+
virus
▁electrocardi
▁mell
▁complementary
▁spray
▁neuro
oxy
▁cutaneous
▁241
▁cuts
erge
14
▁dys
▁encomp
▁1:
cyclic
etence
treatment
uoden
yclo
▁thymus
▁ovarian
rofen
▁0.03
▁polymyxin
▁adjustments
aund
▁7.1
91
+,
comitant
▁SIDS
osocial
▁confirming
▁puls
▁hydrogen
zine
▁motility
▁reveal
tensives
▁mumol
▁hep
▁nonfatal
▁intraper
0.6
▁anoxic
▁60-
▁perox
▁daytime
▁reinforce
▁hepar
▁asymptomatic
▁1.4
estim
uble
rease
chool
▁yielding
%),
omal
▁transferrin
▁lectin
nisolone
▁(20%
▁therap
-1-
erad
bral
▁HB
▁pH
▁upright
▁assessing
▁intravenously
phosphate
olam
immun
▁transloc
Gs
▁failures
▁fatty
57
atical
▁adhesion
PSP
▁practic
existing
oside
▁postoperatively
▁sedation
▁91%
▁erythromycin
▁lam
▁receptors
activated
eptid
ygo
▁classify
▁-6
▁menopausal
atoid
▁ana
atase
▁blacks
▁foci
▁hyperb
lastoma
▁improves
▁5
ressed
▁irreversible
▁veins
▁confirmation
acycl
▁anat
▁Sout
▁Individ
▁reflux
▁nosocomial
▁chloramphenicol
▁carcin
▁outlined
▁wrist
▁212
promoting
sied
alb
▁coupled
1%)
▁cerebrovascular
▁soluble
▁76%
yel
albuminuria
▁CNS
▁lipoprotein
▁Incidence
▁7.5
▁incubated
mented
▁UTI
▁PMN
▁validated
▁practitioner
bloc
▁abstinence
WB
▁immobil
▁sulf
▁examining
dyn
▁osmotic
umerous
▁granul
▁prescribed
▁vesicle
epines
icep
▁reactivity
8+
vents
operated
700
▁preoperative
▁70%
▁1.4%
-100
radi
adjusted
▁92%
▁obstetr
▁yielded
▁perforation
phrag
▁68%
9,
▁dihydro
▁nadir
visc
▁spati
ochrom
▁ELISA
▁extrac
ulants
▁transcrip
▁(97
atibility
▁uter
▁consecu
▁13.3
▁MCV
ogenes
▁87%
vation
▁lymphoid
sue
▁mono
BT
significant
▁sph
▁yearly
34
▁circumference
esium
▁100,000
▁elderly
▁gradients
sensitive
ocarcin
64
plas
ceptions
▁strains
▁hams
tidine
▁affec
mediately
▁gases
myc
▁percutaneous
▁70.
atosis
▁surge
▁Combined
▁produc
PCR
cence
▁increas
vant
entified
/100
▁intran
45
▁comprehensive
66
-6,
hetamine
▁proteins
-90%
▁distal
▁thym
▁thyroxine
▁hybrid
▁72%
▁103
▁dihyd
osomes
effectiveness
▁alopecia
osus
▁urea
▁chemot
▁substantially
ortal
▁1.
▁quinacrine
▁carbohyd
tization
▁retur
▁hyperg
▁Epidemi
amus
▁antisera
▁preschool
plications
▁atopic
▁granulocyte
▁fluids
▁viewing
pinephrine
▁pulmonary
▁knee
▁shorten
▁TS
▁alterations
tabl
▁incompletely
▁thi
▁25-
▁loci
ellular
▁20%,
▁prognostic
▁progressed
▁0.001),
▁fulminant
▁2.5
▁1.0
▁sensi
▁0.1
▁subun
▁paralle
▁follicular
▁nontoxic
icillin
▁topically
tamine
ctomy
uric
▁diarrh
▁admission
▁detec
infected
ilized
ncy
▁continuously
▁lipids
▁6
oskeletal
▁OA
▁relap
▁hypothetical
▁lyso
▁nuclei
odds
▁hypothal
▁menstr
trogen
lyce
osal
▁carriers
▁wash
▁margins
▁Fifteen
▁coag
▁0.5,
▁Radi
▁smo
▁serotypes
kinin
▁9.7
▁circulation
▁accidents
▁capsules
bladder
ectomized
▁0.5%
▁cis
heum
asal
osteroids
▁exercises
92
▁compli
▁60
▁nonp
adily
early
▁secreted
cephal
▁coval
▁Leu
▁intrinsic
▁stu
▁poisoning
oste
▁conducting
retion
▁nebul
▁oligonucle
▁plasmids
▁volunteer
▁gels
▁5'
▁7.4
ication
69
▁cyc
▁effectiveness
▁inhib
ocalization
▁peptide
▁paras
▁barrier
16
▁abscess
actin
▁pig
▁reviewed
▁pooled
abain
arrhythmic
▁Approximately
▁(95%
▁14.8
▁14%,
▁decarboxylase
103
▁antigens
hydrox
▁10.5
▁10%.
▁multicenter
▁-5
▁contracep
aternal
▁attrib
▁glucosamine
▁grip
▁inhibits
usp
selec
▁necro
▁scarring
hist
natal
ographies
trypsin
oprote
gthen
▁variability
▁suction
▁multic
▁macrophage
hypertensive
otor
stimulated
hion
adm
▁biochemical
ejun
▁syndrome
▁0.76
▁arrhythm
timal
ectin
▁goiter
▁infused
▁TRH
iary
▁tubules
▁defec
87
rography
0.9
▁mononuclear
▁flashes
.4
ulin
.00
▁Dip
onin
▁electrode
▁buc
13
▁aden
▁aimed
tin
▁modalities
▁anaesthe
▁interstitial
▁Combin
stimulating
▁gyn
▁receptor
▁labeling
▁kinetics
ivered
degree
itr
▁Cd
▁centers
leuk
bacter
▁prophylactic
▁fathers
hyp
▁LMW
43
7),
▁199
▁undetermined
▁dendri
▁prenatal
▁(78%)
▁cate
omers
▁gluten
ometers
▁chest
aric
tative
▁invasive
▁prophyl
▁contralateral
lora
reactive
▁promoter
distal
grees
▁secretory
21
▁vivo
odynamic
▁metast
▁differentiation
30
▁exposure
▁ipsilateral
▁luteal
tiary
▁leukotri
-2.
idate
▁smoking
▁esophag
usively
▁irritant
dimethyl
▁mothers
▁ori
▁membranes
▁4-
▁fibros
▁qualit
ituit
▁trimethoprim
olgi
▁predomin
▁0.87
requency
-600
▁hypoxic
▁insom
▁seas
phragm
lec
▁pathophysiology
▁fibrinogen
ologic
▁investigators
▁aerobic
ighted
▁discriminant
▁13%
▁sequenced
▁suspension
hydro
▁estradiol
▁wk
ucle
reased
▁catab
molec
▁menstrual
▁socioeconomic
▁stool
▁carbam
AH
▁0.07
▁8.4
▁3/
erican
▁undergo
pharose
yclic
▁125
▁TI
arynx
929
robial
.7%
▁fec
▁(3
▁cephal
▁cryst
▁ascorb
▁mammalian
derly
meas
iatic
▁cardio
▁stab
▁MMS
atient
ilic
▁dendrites
years
▁monkeys
umbar
scherichia
fib
▁heterogeneity
▁Immun
▁hypokal
▁Symptom
▁152
▁promin
inum
▁congen
▁smear
▁optic
▁detects
athy
▁additionally
▁enhancement
ompan
▁attemp
▁87
▁stric
were
▁arrhy
▁0.25%
▁pyl
▁analogue
▁47%
clinical
▁plaques
▁Surgical
▁uv
▁glutamine
▁(12.5
▁(7%)
establ
temperature
▁55%
▁Preliminary
▁retrograde
▁oral
▁practitioners
▁160
▁pathological
▁quadrup
osidase
▁clamp
▁HPLC
▁218
▁immunogenicity
oxygenase
▁chemically
ller
Fs
rox
generation
▁prostaglandin
▁uterine
▁underst
coun
/20
ductive
▁bism
▁somat
▁tic
thymidine
merc
oric
▁IgM
▁chloro
6-
versely
▁outcomes
rele
▁ganglia
▁serologic
oidal
▁persisting
▁ppm
▁slowed
-4-
ergen
sul
▁1.2%
▁sputum
ancies
centr
stro
▁argues
▁affecting
▁dexamethasone
▁acad
▁117
ogenous
ulitis
ffinities
uestion
athe
rotal
erable
▁marrow
▁dermatitis
▁quantified
armac
▁membran
▁GABA
ylated
▁Experiments
▁4.0
▁-0.6
▁antifungal
ocamp
EA
piratory
▁immunological
▁naloxone
ths
hyde
0,000
osol
uled
▁Positive
▁Thy
▁mucosal
▁Histologic
tiz
oracic
galy
ioid
▁virtually
▁mediate
▁polypeptides
▁lupus
▁hap
▁psychotherapy
▁opioids
4).
ameter
▁complaints
razosin
▁hamsters
imodipine
▁arter
tense
ethylene
▁nonspecific
▁Neurop
▁(68%)
▁optimally
▁Additional
teria
▁0.3
▁discomfort
▁aerosol
▁healthy
▁connective
▁permeability
Nase
▁injuries
▁dairy
▁matur
AFP
▁suture
▁sugges
125
▁diagnostic
ocardial
▁childhood
▁LVH
▁intrac
▁unrelated
7)
ogenicity
uary
▁elective
epine
▁fluoride
rents
3]
▁ultra
▁murine
olamine
atinine
▁xyl
-66
inol
erated
toxin
▁psychological
tivities
oplasia
▁dele
▁describ
▁sonographic
tryp
▁intub
-40%
▁hipp
▁randomized
▁instrum
iotics
▁proce
▁8
▁previ
▁300
ingle
▁Comparison
predic
iper
Gl
▁2.4
▁deaths
▁perip
▁tooth
▁predis
▁hypothe
▁antibiotic
ipramine
▁antenatal
▁surviv
▁Secondary
atectomy
▁Atrial
gland
acetate
▁pate
▁systemic
▁oxide
siologic
inflammatory
3.
▁0.42
▁1/
▁RT
▁Nine
▁150-
iparous
▁desatur
▁mamm
GD
▁appendicitis
▁nutrition
▁allogra
▁30
▁(85%)
onam
idney
▁(100
▁27
▁interc
▁conjunction
▁uncommon
omat
▁biopsy
glucose
▁affinity
tically
▁dressing
physiological
▁etiology
▁nonsmokers
receptor
▁prevalence
▁5000
▁LDL
▁Tiss
▁mobilization
▁relie
othane
▁hydroly
▁44%
▁indications
▁Improvement
▁fluconazole
▁213
▁annually
ispanic
▁Diabetes
▁0.91
▁168
▁dilatation
▁polyclonal
▁determining
rates
▁probes
+-
positive
reness
▁Transient
▁necrotizing
entia
▁KCl
▁pneumonia
▁freeze
▁mutagen
mega
ositol
▁phon
▁glycosyl
CAP
▁complic
atches
▁compressive
▁febrile
▁androgen
ffinity
▁0.99
rologic
ovascular
viral
▁Relative
▁unexpectedly
▁prospective
opoietic
oxid
▁enamel
▁20.
olic
▁fluoxetine
agonist
▁exagger
kinase
▁congenital
mmol
▁medication
inoc
▁10.2
▁biphasic
▁esters
▁cumulative
▁unin
▁nucleotides
▁solub
icardial
amet
▁cation
▁cytoch
sibly
▁consumed
itriptyline
▁DCA
0.
▁elevated
▁visits
▁adequate
▁measuring
▁hypertro
▁interviewed
kine
plicated
enteric
cad
▁DF
▁hypokalemia
▁anticonvulsant
abd
▁VIP
▁unde
▁MT
▁afferents
oate
▁pressor
▁adi
▁Fc
▁bladders
▁mammary
▁glomer
▁histologic
▁(82
▁venous
etitive
▁satur
▁inducer
tice
▁hind
trate
roscopically
▁cigarette
▁Few
▁anxiolytic
▁radiotherapy
▁ultrason
▁idi
dihyd
stolic
▁esophagus
▁Overall
▁inhaled
▁166
imentation
eptides
▁650
▁cosmetic
▁acupuncture
▁preparations
.6%
Cer
tinguish
▁(31
▁jaund
tus
▁150
▁excl
-1,
uron
▁gonadotroph
atest
anic
▁cef
▁questioned
▁IFN
ycline
▁diffic
charged
estern
icients
▁consul
▁FT
▁(0.1
▁82%
namic
▁managing
▁anesthetized
tenti
mur
▁lovastatin
gressive
▁Chlamydia
▁Highly
adone
ocusing
▁additive
▁radioactive
▁demands
arms
▁phosphatase
▁inhibitory
▁0.5
▁exce
▁RR
-45
▁exogenous
Dawley
ylation
▁hypothesize
ecyl
ertion
▁hemorrhagic
oretically
▁amplification
▁centrifugation
▁ciprofloxacin
0.3
▁verbal
▁predominantly
▁arti
▁functionally
▁diarrhea
kely
uppression
duction
▁48-
▁endo
▁neutropenia
chers
▁3.3
▁glutamic
ranolol
10)
▁recor
xone
▁acet
▁trichloroacetic
tention
▁295
▁emulsion
▁synapses
▁projections
▁serine
▁frontal
▁cytotox
▁characterizes
vely
tionally
▁sediment
-7
iscal
▁porcine
▁Exercise
▁4.9
▁genome
▁differen
oceptor
▁nerves
▁toxin
▁viral
▁evaluations
▁azathioprine
responsive
▁obesity
▁slices
▁aspartate
▁lumbar
▁spont
▁practition
aturation
▁acetate
anol
▁solitary
ylcholine
▁tau
▁prospectively
otine
mittent
▁disturbances
8%)
▁colorectal
▁controver
ystag
ondon
.3
▁climb
▁arrhythmias
produc
▁depress
▁91
▁ambulatory
▁astro
▁(36%)
▁thyroid
hig
azol
responders
▁anticoagulant
98
▁7.5%
▁dex
▁Tolerance
▁(2
▁Individual
▁Tissue
inally
minis
▁Phen
iazide
usions
eptin
▁Hb
▁predictors
▁-0.7
▁carb
▁172
▁carp
▁correlated
▁couples
▁Assess
His
▁antipsych
▁doxycycline
▁(50%
▁ovari
▁reflecting
▁ulcer
▁glycogen
8.
▁77
▁coagulation
▁rhythm
▁extensor
▁protracted
▁Americ
ults
▁dyn
▁divertic
clusive
▁193
▁chol
▁carc
ressing
▁streptococcal
▁differed
PPP
▁encoun
▁sensitiz
▁ankle
oscopy
▁analogues
▁ultrastructural
▁mitogen
▁0.82
▁53%
▁spleens
▁methadone
onary
▁0.8
▁biological
cells
aryngeal
achial
▁chromosomal
ducing
dose
▁glycerol
▁inactivated
erop
.10
▁diagnos
▁clamping
idone
▁0.62
▁saturated
▁13-
reases
▁HR
urther
▁jaundice
▁233
▁shunt
HF
xiety
pregn
▁atr
28
▁protec
▁150,
25)
▁abortion
ophageal
icin
▁undergoing
arrhy
hydrop
▁fron
0/
▁-1
▁juice
▁adversely
luding
▁(31%)
▁Doses
▁pharmacists
▁proteoglyc
phosphamide
upuncture
eak
▁lax
/7
2.
▁lobe
oA
eprazole
▁nonsignificant
▁inhibitors
▁Abnormalities
emide
reement
▁nig
▁epidermal
▁Subsequently
▁GH
▁infection
▁respir
2,
ofluores
▁3.5%
▁Stress
▁135
(1
▁indeterminate
▁libr
▁(0
▁abdominal
helium
▁inconclusive
▁88
edema
▁intra
▁reass
respective
chym
tiv
▁Peak
▁peritoneal
▁fum
▁PAF
▁patches
▁dizziness
▁tenderness
▁diseases
▁antigenic
atally
▁PB
▁gastroenteritis
▁tablets
ipid
▁retin
▁40%
ovirus
chloride
thmic
olitis
geal
▁depolarization
▁20%
▁intracranial
▁ester
▁peaked
orotic
▁monomer
▁prevented
▁conductance
uvant
ially
▁transpor
▁heterosexual
▁(20
▁17-
independent
▁8%
.3%
▁intramuscular
▁Forty
▁carbamazepine
▁modulate
▁radicals
▁severely
▁deoxyrib
▁50,
▁5%.
▁inappropriate
▁(6
▁embryos
▁spontaneous
▁71
▁chemotherapy
▁acids
▁Kd
▁acetaminophen
▁pleural
▁lisinopril
▁insulin
▁subjected
▁relapse
Ps
linking
▁4
▁sarc
▁discriminate
▁ulc
▁hemat
iuria
resistant
▁cortic
▁pretreatment
▁3.4
▁reproducible
thickness
▁deox
▁eryth
▁308
▁HbA
▁Infants
coag
▁subclinical
reasing
▁TCA
eal
▁placement
▁lavage
amethasone
▁TC
▁MAP
▁hered
ulcer
▁BP
etoprotein
uclear
▁tobacco
▁cigaret
▁washout
▁Risk
000
8),
▁antigen
▁triceps
▁equivocal
▁arachidonic
▁dors
▁adulthood
-5
▁achievement
▁efficac
▁refr
orts
clerosis
▁1.7
odg
6%)
▁microv
fed
▁quin
▁monotherapy
▁synthase
▁dias
▁microvascular
▁immunotherapy
▁hypertrophy
▁pharmacy
▁221
unts
▁plaque
▁Therapy
▁transduction
▁-0.5
▁transient
▁(1.6
eptidase
odies
▁Grade
▁40,
▁neph
erance
ontal
oxygen
▁couns
▁43%
tens
▁choles
iagn
▁molecule
tipation
BV
▁elimination
muscle
▁negatively
▁ligation
▁Maximum
▁3.7
▁unre
increased
▁0.35
▁plastic
▁envelope
-11
▁caries
▁multiv
embran
ventil
▁severity
▁maternal
▁placenta
▁cesarean
tee
▁sulfate
oluble
idated
▁hybridization
▁virtu
▁rheumatic
oratory
▁specialty
medicated
tomy
▁adults
▁anesthe
▁techniqu
▁200-
▁0.80
▁GnRH
▁CAP
▁90%
▁1.00
pation
▁13,
▁thromboemb
minute
▁emboli
▁anemic
▁mRNA
▁Estrogen
strual
▁breathing
ergy
▁premenopausal
-1.
▁AIDS
▁-0.0
0%
tructural
▁217
▁Initi
▁endarterectomy
▁atypical
▁specificities
affinity
MDA
▁shor
▁vegetables
▁75%,
▁promo
rogenase
▁lethal
94
▁glucocortic
▁nerve
oxine
▁dischar
iant
galact
322
▁equilibr
▁adjuvant
▁15,
▁cartil
▁succin
▁intrav
aminase
▁(5%)
▁operative
▁morphine
omotor
rosis
▁(50%)
ogra
jug
gic
cys
▁perit
▁methodology
ficial
▁tryptophan
▁preventing
▁compliance
▁Bacterial
▁162
▁accel
ithi
omn
▁clues
opian
▁Twenty
▁TMP
▁Delayed
tead
▁duct
▁ventral
▁laminin
▁mice
▁irritation
ediatric
ypical
▁Severe
▁SHR
adrenergic
▁postinjection
▁linkage
▁creatine
▁labial
▁ECGs
▁averaged
▁synovial
▁accumulated
▁stenosis
▁20-
RR
articular
▁spor
ylephrine
▁vaginal
amous
otransferase
achnoid
ygous
▁celiac
umulative
ithin
▁13
▁inflammation
▁rigid
▁angiography
▁gamma
ophren
▁12.5
▁lumen
▁0.2%
▁myocardi
▁1991
-19
▁BALB
▁155
▁PEF
▁stimuli
▁thyro
▁incomp
tract
2/
▁hepatocellular
▁unusually
▁oils
▁dyspnea
▁proximal
▁favoring
arly
operatively
14,
transferase
▁elicited
▁CTL
measured
▁averaging
0.0
▁chlor
odic
▁Comparative
achn
▁microsomes
acchar
▁Statistically
▁prostate
▁placebo
cysteine
iciency
ymptom
GF
▁2.2
▁203
▁macrophages
olateral
▁radiolabeled
tage
▁cruc
▁innerv
athic
▁spind
▁93
▁NMDA
▁refractory
▁2.3
sus
▁cysts
amethoxazole
▁incorporation
▁immunity
tions
▁reinfection
onor
▁proton
▁subarachnoid
▁.00
▁bronchodil
▁chor
rine
▁kinases
dered
▁Complications
gag
▁conclusions
▁cytosolic
▁dysp
12.
▁vascular
▁147
apeutic
▁passive
ospor
00-
onomic
▁4000
▁decreased
▁thrombotic
▁serology
veness
▁subunits
▁cys
cents
▁edema
8,
▁hyperch
▁tumour
▁worsened
5%
▁10(-4)
anding
oxetine
▁behavioral
CoA
▁acetic
olipoprotein
54
▁analys
vaginal
▁46,
IU
rotid
tase
10
RH
▁axons
oriented
amole
▁correlates
▁epithelium
micro
▁gestation
▁oligos
▁postsynaptic
onucle
▁autologous
▁somatic
▁iso
▁facilit
▁(1.5
▁malformations
▁2.5%
▁referral
▁ejection
▁papill
surgical
▁corticosteroid
astom
▁inpatients
▁CsA
Ls
modified
▁0.25
kephal
uplex
▁enzyme
▁9.0
-9
▁juvenile
▁transmembrane
▁stren
Gy
▁Injury
▁Increased
▁lumbosacral
▁considerably
▁imaging
▁Plasma
oppler
▁thyroiditis
▁dopamine
▁intense
zyme
▁subjec
acking
▁nal
▁catecholamine
-70
glycerin
▁inhibitor
▁lasting
▁surgeon
▁prescribing
▁prescrib
▁iod
tection
atropium
▁imaged
▁19
histamine
athiop
▁1960
▁104
jected
▁beha
▁(33
▁noninvasive
aneously
sts
amisole
ocys
▁42
▁19%
▁grise
▁clomiphene
▁antithrombotic
▁peaks
▁SEM
▁vag
osome
▁cultures
-4)
▁173
▁ultras
▁95
ylic
▁suicide
crimin
luded
▁0.75
▁EB
▁polyp
dil
ensity
enh
▁mitochondria
▁contraceptive
▁Surgery
perature
▁eligible
RD
ampl
▁breaths
▁insurance
5)
omethacin
▁CIN
▁myocardium
▁1.5
▁Eight
prising
▁selectively
▁ampicillin
▁70%.
▁30%.
inopril
▁physiology
aning
▁158
▁residual
terase
sia
-72
▁cohorts
▁meperidine
CHD
▁incub
uppres
Ts
▁10.4
biotic
▁abl
▁Authors
▁1.8
▁14
hexidine
▁Screening
81
▁furosemide
▁[3
▁allergy
▁0.44
▁palpable
▁cartilage
▁mcg
▁mitral
▁mast
timulation
ochemical
onography
▁spontaneously
▁(0.0
▁absorption
▁polyethylene
▁Concentrations
4,
adder
ellum
37
▁erosion
▁causal
▁resting
▁targe
▁saliv
▁3,
▁estrogens
▁iden
erate
▁osteoarthritis
rever
ocomp
▁follicles
▁Subcutaneous
menopausal
▁neurop
▁corticosterone
▁multivariate
▁41
▁wards
▁foods
ocytic
0,
▁abduc
▁exon
▁thir
▁extracellular
▁gonococcal
controlled
▁cylinder
▁multis
▁structured
▁induc
▁fertile
▁lec
ovarian
▁pneum
▁inversely
▁intram
▁5-
roxicam
iplin
▁5'-
dition
titute
▁chorio
▁Escherichia
ergency
urium
7%
22
tance
▁9.9
▁aor
▁tachyc
urea
▁plateau
lected
teroid
▁approx
▁25,
roxy
▁(42
32
▁regained
▁corticosteroids
▁(62
▁FD
tro
acil
8).
dle
▁extraction
▁ruptured
hern
▁disclosed
▁incidence
ucas
▁precur
▁testicular
▁odds
▁rele
vaccinated
▁10.0
▁tyrosine
▁Higher
▁rhabdomy
▁195
ophy
▁ventilation
▁abnormal
▁methyl
▁24)
▁1986
▁Oste
▁subdural
▁9,
▁angio
▁PTH
▁difficul
▁audit
▁entero
drome
▁accessibility
▁198
▁Beta
▁PGA
▁tolerability
▁Infection
tran
▁95%
ocular
▁rejection
▁concordance
▁meals
MH
▁15.8
▁therapeu
▁muscle
bearing
aind
particularly
▁94%
sor
sors
▁ventricular
tives
adrenoceptor
▁proliferation
ominant
determined
asting
▁quanti
iated
▁subc
-2).
▁0.70
-8,
▁hypothyroid
▁consistency
▁decarbox
-400
▁potassium
otherapy
▁bacteriuria
▁reversing
58
▁oxygenation
▁tumours
▁ligand
▁ate
▁hyperlipid
▁decreas
▁nucleotide
uctose
▁simplex
▁secretagog
ostatin
opres
▁provoke
▁Staphylococcus
▁115
oxane
▁Laser
▁MRSA
ashing
amicin
tive
▁BCG
▁[14
▁stratification
DH
▁136
oids
▁(1.0
▁syncope
tents
▁urine
▁swit
▁antif
900
▁lys
▁apical
▁afferent
▁(76
800
▁arterial
▁islet
throm
/18
▁secrete
▁restraint
enicillin
aced
hest
opa
▁Myocardial
▁bacteri
▁Arter
drug
▁transfusion
90
siveness
▁colonization
▁spectroscop
▁(48
▁hypon
▁arousal
▁transplanted
▁markedly
duce
▁CAD
erent
bac
▁GM
▁aldosterone
9)
apanese
▁lymph
tir
▁phospholipids
▁TDI
kines
▁inhal
seud
spectively
asone
▁catalytic
tical
▁0.09
▁yiel
▁Survival
▁wake
▁prematurity
)],
-0
▁flexor
/10
▁fibroblasts
▁carboxyl
ineal
▁9.5
▁ductus
▁sorbitol
▁oxidized
▁infarction
▁smokers
ulous
weekly
▁reac
▁immunized
24
▁sympathetic
▁recurrences
itamin
▁epinephrine
▁Hz
lusion
▁dermat
▁differentiate
effects
placebo
▁anxio
▁shaft
ecre
▁supernat
▁singlet
▁6)
▁Functional
riched
▁confined
▁microsomal
/12
cine
▁omeprazole
▁Myc
strain
arrh
urgery
▁consistently
▁pharmacokine
▁700
▁8.0
▁phosphatid
▁adverse
▁121
eclampsia
▁indi
▁mEq
▁murmur
1-2
▁influenza
trated
orac
▁protease
▁myocardial
▁6.2
thi
▁treadmill
▁144
▁0.1,
▁masked
oag
90)
▁cAMP
icient
▁forskolin
hea
▁MI
▁lorazepam
▁80%
clonal
administration
▁subcutaneous
queous
▁TNF
▁0.81
acked
▁0.01)
▁amph
▁monocytes
▁emesis
▁urgent
▁rati
▁CAL
▁tracer
olytic
esting
▁Diagnostic
-1
▁testis
rated
▁natri
▁electroly
-8
▁homologous
plasia
yrox
▁nonin
electric
tradiol
▁neuronal
▁hemorrhage
tension
▁migraine
▁anhydrase
.6
▁adequately
▁cure
▁bab
atrop
▁ferrous
▁chromosome
▁infiltration
oscopic
coated
▁6.6
especially
wk
▁chlorhexidine
oreal
▁31,
1]
▁98
▁ure
unctions
▁dimethyl
-6)
▁supplement
▁organs
patient
▁challenges
pain
ysm
▁nitro
▁arteriosus
▁51
amines
▁impairment
▁50
▁reinforcement
▁dramatic
▁Braz
▁enteral
▁atrial
▁histamine
▁yeast
▁179
▁(4%)
▁morbidity
acrylamide
▁12%,
▁7.7
▁lumb
▁PGF
▁6.5
▁Finnish
▁determination
▁unres
▁projec
organisms
anate
▁retinoids
▁preval
▁TPA
▁vancomycin
▁phenyl
atitis
loid
▁screening
▁111
▁(47
▁Plas
itals
▁equivalents
24,
▁retic
▁postoperative
▁radionuclide
▁outpatients
lyl
reatine
▁vigorous
▁EEG
ronectin
▁recombinant
7,
▁reticulocyte
illar
▁dorsal
inic
▁(63
▁clot
▁commerc
▁glycer
▁thal
4),
▁meningitis
▁17
▁radiograph
▁2.7
nons
▁accep
▁temperatures
▁underestimated
tisol
▁achieving
▁20,000
▁habits
▁exclusively
▁nutritional
▁55-
2;
▁nip
aminop
▁57%
18
lovir
formations
platin
▁muscles
▁contiguous
29
asses
▁adherence
crip
▁Transi
proven
▁weekly
▁rostr
plication
adian
▁36
▁grafts
absorption
▁neurological
▁15
▁72
oplasty
spar
▁22
obl
▁69%
▁249
▁tissues
▁ultim
▁trends
▁PCO
salt
▁transverse
▁Exc
robic
▁unilateral
▁cuff
▁unpredictable
▁transcripts
▁leukocytes
regulation
educed
yste
otroph
transfer
▁17%
▁seropositive
▁Certain
▁NF
truc
▁63
oxicillin
▁specialists
▁administered
nai
avage
▁radioactivity
▁confers
ungal
azolam
▁Combination
3,
▁nursing
orsal
▁rheumatoid
▁tubule
▁modeling
▁mononucle
zymes
▁14-
