▁discharge
▁fentanyl
▁directional
estis
▁comparisons
▁glomerular
▁proteins
▁MH
atid
▁autosomal
19
▁regar
▁physiology
▁prolonged
tial
7%
▁anatomy
ths
▁geriatric
ulatory
▁hepar
▁topographic
▁SNP
▁histological
▁ket
monary
4)
agin
▁biop
loid
ocyt
▁pelvis
▁HG
▁haemorrh
▁splenectomy
CBF
mentation
▁HCMV
▁aerobic
▁6
▁atmosp
iary
▁audi
aceous
▁fractures
▁subtype
▁follic
menopausal
trop
icine
▁adenomas
▁geniculate
▁favourable
▁pelvic
hap
▁neurological
▁TB
▁abnormality
ullary
onary
-1,
illic
inic
alc
▁HL
▁inflamm
▁opioid
▁chor
▁radiological
▁bip
▁acad
ece
▁undergo
▁insertions
amet
▁immunological
asic
herence
▁maternal
prising
▁hemorrhagic
▁Multiple
▁abl
▁removes
▁sedentary
▁tuber
▁muscul
cious
▁irritation
ococci
filtration
▁disappearance
▁0
▁validated
▁randomized
▁measurable
▁simultaneous
▁manifestations
▁leakage
▁prevalence
oxic
▁adolescent
▁LN
▁abolishes
▁tolerated
▁cholecystectomy
▁aden
▁tas
▁Failure
76
idate
▁excre
sych
▁NB
BK
▁depressive
▁muc
.5
▁PCP
ctive
▁recor
urc
▁cholest
rogenic
cribed
▁microvascular
1,
▁resol
▁reproduction
tel
▁stenosis
▁sedation
umulative
cis
▁subf
▁MV
▁decreas
oradi
illary
▁adop
▁tumor
sible
▁laboratories
tam
▁thyroidectomy
atical
▁19
odial
▁AO
▁chloro
▁melatonin
▁35
reatine
▁glyc
identical
▁lipids
▁nig
▁shor
▁accumulation
sies
▁oss
nec
▁LC
▁MRI
udin
▁TA
▁Biochem
▁chemotherapy
▁PAS
▁ach
intestinal
▁underst
▁hemorrh
▁differing
▁LS
nee
ochem
mixed
ollicular
yroid
▁CI
tries
helial
▁eosin
abies
HB
▁calcification
▁physi
.8
▁cystic
tact
tent
tis
▁aureus
istal
▁adverse
resting
▁Alter
▁diluted
▁quantitative
▁Whereas
rested
▁juvenile
▁deterior
▁Considering
anish
lux
▁metastasis
ogens
▁hospitalization
▁atheros
lectomy
ceptual
▁ane
erine
▁pati
ortal
iferation
▁spinal
cus
▁prophylaxis
▁TC
▁zinc
▁smo
▁exer
▁proportional
▁kidney
ymp
▁reproducibility
urate
▁intra
▁comparative
▁melan
erable
▁socio
▁chl
▁ration
▁recessive
▁traum
▁depic
▁discus
▁Contrary
opausal
2/
vant
▁sequelae
▁pS
ygen
aemia
eal
▁interv
▁influenz
Phe
oscop
▁unde
▁cyst
lead
relevant
▁occl
▁anatomical
▁150
2%
▁somatostatin
▁endarte
▁correlations
illus
▁saline
▁tox
▁prostatectomy
ophilic
▁chan
▁dexamethasone
▁followup
otyp
onit
vation
▁heterogeneous
▁olig
▁Increased
orax
▁rCBF
TK
▁chol
bic
▁limb
▁ventil
▁superficial
licular
▁melanoma
▁indications
Ts
▁microbiological
▁diffic
▁undertaken
48
▁cervical
▁coex
olenic
▁pneumonia
occal
▁polym
▁efficacy
▁eosinophil
▁pathogenesis
▁complication
▁FV
▁practitioners
tyl
MIC
Cer
▁prostatic
ancre
GV
▁carbohydrates
eration
trast
▁sulf
▁Ket
▁linoleic
▁IU
oprote
onography
ectomy
nutrition
▁ceased
adic
▁IA
lated
xual
▁phenotype
▁compli
atories
mental
▁Adverse
ronchial
2,
osition
BW
▁hypog
79
heum
ustif
ayed
▁decreasing
lastic
▁kerat
▁OC
▁benign
▁Intravenous
▁molecule
▁biom
▁endoscop
▁tibial
▁genotypes
▁epidemic
.2%
ysm
▁anticoagulation
▁rhe
derly
tant
anyl
▁laparo
▁myo
olism
▁indicators
inol
▁workload
▁Alternatively
piration
osocial
anol
ocl
ulitis
▁occlusal
▁stu
ogra
▁edema
lymph
▁macrophage
▁verteb
▁malign
40
▁Streptococcus
▁201
atient
▁4
lym
▁obesity
otomy
athyroid
▁gly
▁endoc
-5
▁facilitated
▁confound
▁somat
▁athle
itin
phe
0.5
▁elevated
▁metabolism
▁palli
▁iso
▁remo
astric
onset
▁scre
ensory
▁corne
wk
tected
oung
8%
▁depr
▁proliferation
▁schiz
iotic
▁intrav
yses
▁empir
▁determinants
▁regis
▁fibers
▁counseling
▁operative
▁obese
▁requi
▁deficits
▁32
opi
▁glut
▁impairment
taining
mittent
▁congenital
▁pulmonary
▁enteral
anin
▁concentrations
renal
▁anatomic
▁leuk
tensive
gesia
activation
▁distinguishing
▁nosocomial
rophy
▁12
▁2.5
erally
▁provid
ulae
▁vascular
▁agonist
▁exce
dia
▁longitudinal
▁vitamins
▁monitored
▁modality
▁complemented
▁elevation
▁FS
▁nonc
▁underlie
▁peripheral
pine
▁suppressing
▁acqui
▁unex
ucle
▁differentiate
▁polyethylene
▁insufficiency
▁uncom
eclampsia
▁Dil
▁gland
▁SG
▁implicated
▁myocardial
▁dietary
▁Ear
▁consol
▁molar
▁ossification
▁discon
▁50
▁receptors
echan
▁rebound
BV
ilateral
▁IVF
▁correlated
▁phe
qui
▁enrol
ologic
osom
▁socioeconomic
▁embryo
oplasm
▁TGF
▁debr
▁fas
▁VO
▁systematically
▁APD
▁intrarenal
positive
▁heparin
49
luent
▁Clinical
▁rectal
▁CAM
bility
bac
▁inherent
reas
▁anemia
▁consequently
ventional
▁8
opro
▁disapp
▁1.7
oplastic
▁etiology
hyd
▁19%
▁15
oplasty
otor
▁COS
▁stimulation
▁Intra
▁overexpression
urrence
▁CMV
▁substances
tration
▁dex
▁nonadherent
dimer
▁headache
▁RB
▁antec
onol
helin
▁cerv
rox
▁transfusion
▁infiltration
itus
▁sclerosis
hospital
ressive
ocaine
FH
▁cytology
▁unexplained
tific
▁haem
ogenous
67
aemic
▁complications
▁contrib
▁ulcer
usp
gments
▁adenocarcinoma
tic
2.
▁therapies
▁syndromes
lysis
▁dissection
▁ascertained
ritish
▁vaginal
embr
opam
▁NH
▁acceleration
▁27
▁elu
▁birthweight
thre
▁Steady
▁Pregn
▁sepsis
▁exposures
isol
itance
▁adhere
▁hyperg
odal
▁femur
bly
57
▁somatic
▁divertic
oxid
▁resis
▁artery
▁unstable
▁colonization
Hu
▁cen
Tu
▁positioning
▁enl
▁dentists
▁allo
▁pneumon
▁fati
▁physicians
▁pla
▁uncontrolled
▁pancreatic
▁predictor
▁prophyl
odynamic
▁85%
tions
sul
▁79%
immune
▁microb
hep
ilic
▁Neu
▁porcine
▁Taken
vival
▁clinician
KD
.2%)
tens
▁apex
▁hypertrophied
▁TK
▁pyl
▁RA
▁glycoprotein
▁criter
▁venous
▁constitutes
clo
▁coeliac
seud
andard
▁psychosocial
▁juven
▁margins
opramide
▁pyram
ressing
pir
▁CPAP
alp
▁infants
▁pate
▁Trial
risk
▁inpatient
34
▁PEG
ithms
▁ventilatory
▁modif
alsy
hemical
▁uncommon
omal
tering
▁unexpl
▁antibodies
osts
▁exercised
▁1.6
▁epinephrine
atients
▁deficit
▁precedes
IgM
▁BP
ipolar
▁identifies
▁multic
▁follicle
blast
▁hygiene
▁newborns
▁comprehen
6.
tection
▁cochlear
▁cesarean
▁repaired
seal
78
thma
mia
▁renal
▁allergic
▁Cyt
▁gallst
▁pathologic
5%
▁metastas
aluation
ducts
▁catheters
▁tric
vail
▁Throm
hips
hea
▁definite
omical
▁musc
eliac
encl
▁unilateral
isqu
▁PCR
▁outpatient
OA
onate
▁bene
▁adenoma
▁induction
▁pigmented
▁identif
▁pathology
spectively
adily
▁Concomitant
▁salivary
ophag
▁NPC
▁immunode
-6
▁saliv
▁immunomod
▁gait
sus
▁inhibition
entan
▁Cushing
ochemistry
▁cutaneous
▁poten
▁estimating
▁recurrent
▁emerg
cardi
▁intramuscular
▁synthesis
▁regimens
▁VC
▁Thromb
▁40%,
iol
▁causative
▁lymph
▁Asp
▁concomitant
1-2
▁VL
spective
lesion
▁thresholds
▁11
▁atherosclerosis
▁soy
▁intrap
▁Bone
▁evolving
▁naltrexone
▁chewing
▁HN
entral
▁amp
omies
▁hypertensive
ration
dent
▁axillary
viron
▁neurologic
aneously
tec
97
▁Histologic
othermic
otropic
olated
▁drainage
▁perin
▁intraven
▁pharmacological
000
lective
▁intraoperative
omat
▁manipulations
▁Hb
namic
12.
▁overlapping
65
▁biopsies
▁RBC
▁4-
▁cohort
▁multifactorial
▁wee
omerular
▁preterm
treatment
stim
▁pH
▁extre
▁ethanol
ileptic
venth
▁Chemical
▁graft
▁resusc
▁limbs
▁retrospective
▁validity
▁prel
iplin
sess
▁Lys
0%,
oplas
atab
astatic
facial
▁detrimental
kele
▁HCC
-9,
▁auditory
▁chemo
▁gynec
▁hemisphere
▁uptake
▁aortic
▁anticoag
▁parame
▁opi
4).
▁inhibitory
31
▁sti
▁conceptual
▁subtraction
▁intrinsic
▁favorable
odon
carcin
▁moderately
▁periodon
cents
acet
▁pharmacy
▁surgical
▁discern
▁morb
▁pT
▁postmenopausal
15
urethral
▁evoked
▁tymp
▁chlor
duce
▁reagents
▁peri
orphic
▁perip
-2
etal
▁immig
▁80-
▁atrophy
▁AE
▁Magnetic
associated
5.
▁sequel
▁chemotactic
▁DSM
▁biochemistry
▁modestly
▁spati
RH
▁synov
epit
▁speculated
reast
▁blin
▁adequ
00
osomal
▁alp
▁needles
atural
▁occurrence
▁algor
▁30
▁PCO
▁gastric
▁ascer
▁cortisol
▁vitro
▁necro
▁cues
▁CSA
▁coexistence
▁intrag
▁enti
onomic
▁relap
▁GBS
omod
▁regimen
▁suppression
▁adjunct
genic
▁resection
▁Tum
▁segmental
▁chloroquine
▁rotational
▁wors
▁flexion
anding
3,
gely
ods
▁cigaret
gmental
▁adolescence
▁GFR
▁Bec
erating
▁sten
▁trophob
ivary
rents
feren
▁PET
comitant
▁anat
CMV
▁deficiencies
▁differenti
idation
▁Surgical
▁LVH
▁Hyp
▁2-
▁metastases
ropriately
▁chec
▁avail
ociated
▁circumferential
▁confir
▁Chronic
oxidation
▁versa
▁interacted
▁Ara
▁undergone
▁spi
kade
44
▁compressed
eak
▁platelet
▁morbidity
▁atres
▁phon
▁vomiting
▁palsy
▁pancre
keletal
▁traumatic
orrh
weighted
▁cla
▁2.
12
hers
▁gradi
▁aneurysm
asses
geal
▁hypothyroidism
occi
▁pedig
▁laparoscopic
▁osteoporosis
▁endometr
▁oxide
▁adhe
mend
▁cumulative
▁decreased
uvant
▁acetab
▁employing
lax
▁surgically
▁mann
▁Compared
▁chemot
sequent
▁phy
utions
1.
▁seizures
▁cardiac
▁psychiatric
▁tran
▁hemodynamics
▁tib
9-
▁13
▁apop
▁ultim
▁Engl
sive
▁testis
kely
▁ganglion
▁amyloid
atest
jun
▁ae
▁investigating
▁plantar
▁ablation
▁GVHD
▁vitamin
▁cate
ociation
▁Tran
▁masked
▁alterations
▁medial
▁dislocation
▁lumbar
▁15%
ilical
▁lobe
ergency
▁interventions
▁sph
▁schizophrenia
▁tol
▁practic
▁onset
gression
▁vaccines
ocytes
53
▁IIb
▁ESR
▁endemic
▁coronary
▁Comparisons
▁transient
▁mucosal
pendent
fusion
▁cava
▁synchronous
99
ailure
roin
ostic
ocar
vac
▁enhancing
▁occupational
▁manu
LF
tion
▁RAR
▁prednisone
erb
▁adequately
▁demonstrating
2).
▁ovari
▁Serum
▁colloid
▁7.
rone
54
▁hemodynamic
dose
▁exo
▁chond
▁beha
phen
▁ascertain
▁insertion
ignific
▁excision
▁neoplasm
▁collateral
oxia
2%)
▁alveolar
▁neo
gic
ectable
vul
▁hazard
▁histologic
▁Doppler
▁scin
-3
▁fetus
▁sci
acental
▁1-
▁deformity
▁injur
▁Patient
olones
iminary
▁detachment
▁susceptibility
▁repres
▁recom
▁alteration
▁vancomycin
▁ASA
lix
Pa
ithin
urgical
▁usefulness
▁valve
▁Findings
ithi
▁oste
▁effic
vely
dition
▁neph
onad
▁hepatocytes
econd
▁cereb
▁VD
adherent
▁reag
▁spontaneous
erations
▁intensive
ected
▁prospectively
dominal
▁systemic
▁adjustments
▁reper
▁HC
▁poisoning
▁glu
oride
ivation
irc
▁inhibit
physiologic
▁episodic
▁infections
▁propensity
▁sensory
lood
▁exis
▁resear
diagn
▁10-
▁symptomatic
entanyl
▁homogeneous
gia
▁sacr
sial
ceptive
cysteine
▁Afric
ediatric
▁cathe
▁screened
▁stimul
75
▁cyt
phosphonate
▁postoperatively
NB
uccess
▁Ig
▁corneal
▁summ
▁plaque
▁desirable
▁100%
▁inflammatory
▁ruptured
▁influenza
▁milieu
▁confined
farct
▁rheumatoid
ypical
▁ischem
ecre
ethyl
▁PRP
84
tum
▁cue
HF
▁bowel
▁polymorphism
▁anastomotic
uccessful
▁microc
▁mammography
▁synthe
arean
ophren
▁endothelial
▁iliac
owever
▁radiotherapy
▁ischemia
undibular
▁Removal
▁neutrophil
▁2
▁homogeneity
▁restenosis
leu
▁5.
▁MG
▁herpes
▁neon
ritis
▁shortened
▁scanning
uin
thle
vity
▁Chan
▁normo
▁elic
iferol
▁tertiary
MV
▁parap
▁detectable
▁inflammation
▁nutritional
onor
NH
▁analyses
erative
inemia
▁examin
utroph
ithm
▁isch
ronch
onin
▁pancreatitis
pH
lact
▁Contr
▁thromboemb
▁cervix
▁labeling
▁coh
ropriate
▁34
▁cocaine
▁amyl
▁selective
sia
▁reperfusion
▁predicting
▁pleomorphic
▁amput
▁studi
ustained
25
▁examinations
22
uran
omotor
32
cence
▁defic
▁implic
FV
▁sequential
▁appreciably
▁coronal
▁hypoxic
▁gluc
▁buc
ximum
ivocal
▁fragile
▁morphology
sue
▁perinatal
gm
aventricular
▁displacement
erican
▁prostate
▁diabetic
▁lesion
5-
▁subgroup
ivariate
▁epileptic
▁progn
▁acidosis
▁gallstones
ituitary
idis
▁curative
dor
▁reflux
▁tiss
oic
▁preventive
▁bipolar
▁tissues
▁characterize
▁parental
13
▁1.
sensitive
▁ultrasound
ialysis
▁Atropine
▁palliative
▁thromb
tein
▁toxicity
▁radiography
▁visually
▁hepatitis
▁receptor
▁pathogen
▁immun
▁exacerb
▁57
▁correlate
▁paradig
▁mucosa
rogra
essive
atectomy
mide
▁RM
▁reproduc
xia
▁restor
uscular
arous
luc
▁lipoprotein
iosis
▁rigidity
▁unrelated
▁ventilation
iatic
▁endpoints
▁biopsy
lep
▁chloride
▁cardi
erad
▁referral
▁thi
▁illustrate
ycin
▁distal
▁athe
▁pediatric
transplantation
omiting
▁tomography
responding
▁thir
▁impair
▁predic
-1
▁appropriately
▁challen
▁thromboembolic
▁hypothe
▁dysfunction
▁vena
▁linole
▁multicenter
▁stimulate
▁pressures
▁undes
fron
Ig
▁membrane
clin
▁postnatal
▁diagnose
sities
loro
oplasmic
▁inversely
trexone
rati
urin
▁implantation
▁Treatment
cine
ilized
otrop
▁PSA
gland
ariate
omized
▁worsened
erving
ergic
▁seb
din
▁prescrib
▁preferen
▁reductions
▁oxygenation
▁regulate
▁aspiration
asone
▁Phe
ectom
▁inver
MH
uted
Ka
cutaneous
▁atrial
▁Dopamine
cyst
▁endoscopy
▁acids
▁HSV
diol
▁aor
reness
▁multivariate
▁differentiation
▁microm
▁simult
ostal
lateral
▁mediated
▁interc
▁urinary
10
LV
▁valu
▁deli
▁necrosis
atell
▁inten
▁85
▁preoperatively
fos
▁umb
▁gluten
▁Accordingly
▁gradients
70
esity
▁improves
▁foc
▁5
▁vein
IIIa
atine
enic
▁hypertension
▁tidal
▁enlarged
▁atropine
▁torsion
moid
▁irradiated
vice
▁thoracic
▁streptococci
▁suggestive
atif
entif
▁mellitus
▁evaluations
ampl
▁75
▁sciatic
itro
▁circumferen
▁resonance
athe
.7
▁follicular
▁compartments
umulation
retion
occus
▁modulate
▁pter
antial
▁crest
aginal
eded
▁cerebral
▁highl
otent
asal
crimin
35
▁overex
▁eluc
▁empirical
▁assis
▁micron
tero
▁proce
▁heavi
acr
▁Acute
▁ageing
▁IgM
tig
▁polymorph
▁feasible
regulation
▁paradigm
quired
▁buccal
▁congen
erate
ostat
implantation
ospor
▁Pretreatment
▁7
▁distin
▁inadequate
phrine
▁deprivation
atheter
▁umbilical
▁substituted
▁Cox
TB
▁testicular
gth
▁tubes
▁evaluating
yro
85
DNA
▁leukocyte
omatic
▁exogenous
▁carcinoma
▁latent
▁evol
▁doses
idated
yel
veolar
▁subsp
▁hypot
▁WHO
▁asthma
▁localized
▁grouped
▁ambient
▁bir
▁utilization
▁statistically
▁peptic
▁sexes
▁instability
▁caro
idne
▁tec
▁questionnai
▁discontinued
jected
▁tracers
▁sphincter
economic
bladder
▁surgeon
▁endothelin
rophob
▁aort
echanical
▁connective
9%
▁endoscopic
ocarcinoma
ignant
▁carc
ilization
ioid
ocele
▁deliveries
▁memb
tro
▁anastomosis
▁CK
adication
Tc
▁morphologic
onatal
aryngeal
▁mL
rins
ocul
emia
▁lithotripsy
DG
▁tamoxifen
atrial
itoneum
enol
▁fulf
▁appendic
▁hazards
▁skeletal
▁infil
▁thyroid
▁physici
▁21-
▁50%
▁ADH
ditions
▁poorer
▁neutroph
▁carotid
▁79
▁enrolled
▁intercostal
▁DN
▁minimally
▁chori
▁Severe
uncture
▁cancers
▁heroin
▁60
ocardial
▁hernia
imens
▁dosing
opsy
▁percutaneous
▁anomal
▁HU
Hb
itone
lusion
▁specificity
controlled
▁ultrasonography
clinical
▁prognostic
▁abd
▁adhesions
bral
angl
▁rigorous
▁adherence
▁intrauterine
alian
▁BD
versely
▁7%
▁synovial
MN
▁arth
▁manifestation
▁impaired
.2
ocytic
▁creatine
▁perone
46
trative
▁tracer
opa
▁11,
▁intake
▁attrib
▁concurrently
▁onc
▁bronchoscopy
▁vulnerability
▁systolic
ropine
duced
▁establ
▁phagocytic
▁emphasizes
▁urine
▁repro
▁dilated
trol
gents
ternational
1)
▁septum
▁malignant
▁endometrial
nai
▁9
▁bloc
attern
▁arterial
1-
▁implant
versus
▁hep
%).
▁ventricular
▁readings
▁symptom
▁retention
ographically
odialysis
umably
▁Increas
▁selectively
▁esophagitis
▁contral
▁cardiomy
▁trough
▁correlates
▁VE
▁benz
▁cigarettes
ortic
▁bronchial
▁polyps
▁serum
urine
▁gallbladder
ithiasis
▁staging
▁unclear
▁preferable
▁HM
▁numb
▁initiating
▁contamin
▁perceptions
7.
▁unsuccessful
▁Comparison
gment
▁hypoxia
▁80
jug
ergy
KA
▁500
▁suture
▁bronch
▁NP
stress
▁neonatal
▁genotype
adequ
▁postoperative
monstr
▁abnormalities
lasting
▁multim
▁predicts
ture
▁preoperative
orac
Cu
▁abdominal
▁eosinophilic
▁RS
▁ovarian
oglyc
▁oligo
▁inapp
▁lesions
▁contex
oru
▁anastom
athy
▁MEP
▁menopausal
▁uncomplicated
▁progest
▁oils
▁10
▁20
▁fracture
ejun
▁ocul
▁withdrawn
▁contributes
tak
lob
▁recurrence
▁angi
▁PEEP
▁distinctly
totic
▁fatty
tate
▁atten
fir
roma
▁carriers
▁positively
▁linkages
▁5-
responders
mTc
DH
▁imaging
opia
▁21
eric
▁organisms
glyc
▁transplantation
▁arter
▁extensor
28
▁disadvantages
▁mell
▁reproducible
urgery
6%
▁Prospective
▁cann
▁injected
▁variants
▁lar
▁undetectable
chol
▁putative
Ia
cture
▁lith
▁respondents
▁intragastric
▁advan
▁deform
▁perc
lac
▁physiologic
▁previ
rants
▁develops
▁histopathology
56
▁poin
unctional
▁metabol
▁Significant
tation
ACS
olysis
▁verte
▁mono
▁alve
▁estrogen
▁combin
▁tumours
▁OT
▁angiography
echn
▁graf
onyl
ocusing
▁endarterectomy
▁pathological
quit
contrast
TG
▁excretion
▁reas
▁hypox
▁demographic
▁ultrason
▁ure
heal
entical
▁throm
▁Surgery
▁22
▁99
ept
▁inducer
▁progestin
▁neurop
▁Samples
▁periodontal
▁predictive
▁acyclovir
▁engraftment
▁abnormal
▁echocardi
▁placenta
▁abdomen
▁HLA
oracic
▁pituitary
▁antibiotic
▁rash
oskeletal
▁fluor
▁disruption
taken
▁reduc
trib
ministration
▁progression
atoid
-9
▁32%
▁tumour
ipient
ophil
vertebral
▁gangl
▁HI
▁paraventricular
erated
raine
▁40
▁200
50
▁OA
invasive
▁behavioral
othelial
▁nec
gative
versity
uterine
perfusion
▁markers
▁placent
amn
▁allevi
▁sampl
▁lumb
iasis
▁diminished
ints
▁ultras
▁variability
▁2,
▁amyloidosis
▁Kup
16
▁cuff
▁cardiovascular
▁elimin
▁prospective
▁metast
▁invasive
▁satur
▁responsiveness
tif
▁ile
▁TBI
▁nucleus
acerb
enin
romed
SCC
kage
HM
▁experim
▁persist
▁hepat
▁pneum
▁behavioural
▁stellate
Tn
xone
▁autoimmune
▁GV
▁Regarding
▁parotid
hern
▁mutations
duction
▁adolescents
▁surgeons
Ra
iciencies
▁ow
orin
▁secretion
ameth
▁aerob
-0
▁LDL
iably
phosphon
either
▁striated
▁radiographic
▁shif
▁undergoing
▁glands
▁Swed
▁31
▁gyn
▁fixation
▁insufficient
9,
▁vagal
rae
▁amines
▁LV
▁concurrent
sian
(5
idney
▁streptococcal
▁differentially
unar
regn
operatively
rectomy
▁Vitamin
▁agon
elan
▁homogene
▁Kupffer
urea
▁resour
▁hospitalized
odic
▁distrib
razole
oag
80
tomy
anic
▁consequent
aline
▁soybean
▁communic
▁pharmac
ograms
ocyte
▁tris
▁antic
▁migraine
▁locus
▁prognosis
ovascular
▁MCP
opamine
▁judged
TNF
▁eliciting
▁supple
▁assay
▁GI
▁causal
▁irradi
▁indicative
▁swelling
▁fetal
▁MN
▁infar
mature
▁immature
▁metabolic
urys
birth
ervations
▁amputation
▁AMI
▁sequentially
4.
▁prescribing
enzymatic
▁topical
tage
▁pulp
ureus
29
clerosis
tectable
iliac
fine
opulation
▁vasomotor
▁ambulatory
▁adjuvant
▁prenatal
▁reflecting
▁latency
▁mec
▁unil
▁comple
ficial
ighted
mig
iatric
▁vaccin
▁transi
▁overlying
▁TG
▁derange
▁ALT
stolic
itamin
utaneous
▁overweight
▁insulin
▁BMI
bacco
▁elimination
21
▁intravenous
rates
▁inheritance
▁familial
EG
▁bac
▁anomalies
oscopy
▁mitral
trip
ococcal
▁nasal
▁hemodialysis
▁stimuli
▁embry
quine
▁DG
▁stren
▁arthritis
▁thre
▁facilit
erin
injured
reported
▁saturated
rehen
▁spon
▁remission
▁contaminated
▁consolidation
▁pall
▁differen
rosis
▁underestimated
▁reactivation
▁bilateral
▁cerebrovascular
▁definitive
▁ischemic
.8%
▁PV
▁IgG
ipid
▁Tumor
urther
tical
▁feasibility
▁16
gulation
▁evid
oprotein
▁hormone
▁techniqu
▁ACE
eared
atonin
▁concordance
loride
▁pineal
▁predictors
acted
▁melanomas
0.
functional
▁nodules
astom
▁femoral
▁tes
▁mortality
▁3
regulated
▁esophageal
asive
▁adaptive
ervical
estig
▁mediation
acting
▁calcified
eces
▁underg
ontal
estion
certain
▁PB
▁LD
▁deterioration
ofol
▁deficiency
▁palp
▁compartment
esia
▁(5
▁microv
crib
▁clinics
▁SCH
▁rhy
▁predominantly
Ds
3-
▁sut
▁assays
orectal
ught
▁AMP
uting
▁rati
alues
ults
▁laparoscopy
entary
▁fatigue
coun
ineal
▁differentiated
▁tumors
▁relapse
▁preparations
▁Systolic
▁hypo
▁intermittent
▁supplementation
tual
ffer
cessive
ureth
Ba
sions
▁HS
ochemical
▁peroneal
▁desm
▁encoun
▁metoclopramide
▁clinically
fal
▁unres
▁colorectal
dle
imin
▁inserts
radi
▁laparotomy
phic
▁ana
itant
fat
▁PF
▁carcinogens
▁infusion
▁inhibin
▁turnover
▁adhesive
▁lis
▁elucidate
▁assessing
▁reagent
arate
omial
urrent
zard
graft
▁mediates
tors
▁uter
PV
▁Patients
0-
▁genic
▁arteries
▁vaccination
vated
▁APC
▁scintigraphy
2-
dic
▁provocation
▁synergistic
▁Continu
lip
onium
▁14
roph
▁unselected
▁inhibitors
▁hCG
atitis
▁complementary
▁inh
▁prol
▁RH
ostomy
itic
▁catheter
rine
▁adjustment
tinu
▁preliminary
▁MHC
20
tive
relations
▁1
▁8.
armac
▁silic
30
cele
▁phag
▁spikes
▁SLE
opathy
▁overe
▁Biochemical
▁resuscitation
▁carcin
▁cirrhotic
atment
▁infarction
eptin
▁uremia
▁carbohyd
11
▁CABG
ximal
▁thrombolysis
▁amin
▁births
▁canc
▁theore
▁physiological
adder
▁ventric
▁radiograph
▁100
▁clinicians
▁LF
chers
zation
▁inadequ
▁(54
2)
▁coel
stro
▁questionnaires
osin
▁substantially
▁metastatic
▁lipid
onc
mur
legia
aminated
▁Vac
▁investigations
▁injections
81
▁resected
▁48
▁restric
▁substitution
▁trac
Ki
▁therapeutic
▁strom
▁rationale
▁demonstrates
▁routinely
▁warranted
▁Phy
▁aorta
CRP
▁IB
-67
▁hypoglycaemia
odynam
noise
▁cardiomyopathy
▁disparity
diagnosed
genesis
vents
icin
▁oxy
imination
venous
cad
▁heavier
▁shorten
▁nal
0%
▁equivocal
▁glucose
AIDS
rele
▁reac
vascular
▁subgroups
▁modulates
inj
ameter
earance
opathological
▁ketamine
ococcus
▁concom
EGF
valence
teric
graftment
▁erg
heric
▁heterogene
mented
▁hormonal
▁glomer
lec
▁Estrogen
centr
trimental
oratory
▁monit
4-
▁Muc
toc
lyc
▁satis
▁thorac
▁pathway
14
tebral
operative
orative
sion
mL
▁FH
▁atresia
▁potency
▁premature
▁haemorrhage
vic
oagulation
▁quantit
▁Phen
▁heterogeneity
▁grading
ometr
▁cephal
estions
erance
▁cholestasis
▁intram
ventricular
▁utero
▁hygi
▁awa
▁exclusion
▁stratification
ucleation
tead
▁increas
▁implicate
immun
pation
othel
▁circumference
▁sickness
agit
▁inappropriate
▁ECG
▁pylori
▁synerg
oidal
▁Preoperative
▁rehabilitation
▁reliably
dial
▁assessments
quid
▁40%
▁hepatic
▁pyramidal
▁pulmon
oscopic
IU
▁migrated
▁preservation
odies
ctomy
▁specimens
▁mucos
MRI
▁esophag
▁diagnoses
▁cohorts
▁BV
▁pregnancies
▁ratios
tin
ostatin
▁airway
▁epi
▁3-
▁prophylactic
▁pathologically
▁cadaver
▁incidence
▁scans
▁cyclosporine
scop
▁discomfort
Ca
▁compart
▁RP
threatening
▁ultr
8.
ocular
ivoc
▁perfor
▁eradication
phal
plantation
lowering
▁molec
▁prevalent
▁microcirc
▁discom
induced
▁acute
igaret
▁drin
PAP
.6
▁silicone
69
tus
▁Addition
▁bypass
▁bronchi
▁multiv
romes
enhanced
▁DF
▁MM
tur
uptake
aryn
acil
osal
lys
▁HPV
▁oes
▁discrimin
▁bladder
years
▁subjected
▁thickening
▁omitted
▁perfusion
rene
▁contralateral
agic
▁CRP
aturated
27
▁severity
60
▁clus
▁mandibular
tained
▁hypers
▁thrombo
▁stroma
▁lithotrip
owel
oxif
natal
