▁seizure
▁0.10
PV
▁autoantibodies
itant
▁116
▁acids
roxicam
indolol
owever
▁uptake
▁750
▁bromide
▁classifications
▁transcripts
▁hypophys
▁Rout
▁Abnormalities
10)
terolog
2/
▁predicting
▁86%
▁5'-
▁noradrenaline
tral
▁kinetics
▁gingival
▁spectro
▁6.6
pirin
tophan
▁LAK
▁3.8
▁routinely
▁neurons
▁1987
▁synthesis
▁immunoblot
▁Morph
.9
▁endometrium
▁linole
▁calcium
▁VP
▁2)
▁fasted
▁dysp
▁Patient
▁tris
▁36%
▁triglyceride
▁15,
▁cytology
▁epit
▁surgeon
▁circadian
▁CHF
▁glomeruli
ulcer
▁ouabain
adiol
ritten
affinity
▁3,
▁132
▁infusions
trodotoxin
ections
retin
tus
▁0.13
olip
▁193
▁electrolytes
▁Adverse
▁viral
▁3.9
▁pS
▁terfenadine
lue
olgi
ellular
▁intrinsic
ziness
glucosidase
▁elicit
▁transduc
▁fluxes
▁postural
▁interventions
▁otitis
▁mediator
jug
ignificant
▁(63
▁rostr
▁equivocal
▁irrig
▁facilit
estions
entan
▁benz
▁amoxicillin
▁antitumor
athyroid
resis
▁Swed
▁capsule
▁slowing
titute
▁retic
ucine
25
▁5.2
▁inducer
▁aggregation
thle
▁stiffness
▁150
obacter
85
▁hepar
trib
▁suggestive
▁proximal
▁nitrate
▁titers
▁(78%)
roglobulin
▁sensitized
ectin
▁(1.9
▁1:
amid
▁0.45
1-2
▁substituted
▁derangement
▁dele
▁carcin
▁termed
▁0.0001).
▁2.0
achial
▁bilayer
▁bleomycin
▁combin
▁proliferation
▁oval
embry
umbar
FEV
Km
56
▁(300
▁tonic
▁glomerul
92
ypro
▁simplified
ctive
37
▁correlating
▁monkeys
▁RBC
oyl
romal
▁lipoproteins
duce
onuclease
omers
molecular
▁tertiary
▁(37
oxyrib
▁dosing
▁amputation
intestinal
▁0.05,
thickness
▁aorta
19
▁Previous
▁nephropathy
▁fibrillation
omegaly
▁1986.
▁CGRP
alasin
▁15.8
▁chemotherapy
▁disper
contrast
▁prol
ocated
▁factorial
idine
▁EMG
▁mutation
▁predic
▁Gly
▁symptomatic
▁prophyl
▁mannose
ocusing
▁antagonized
ofluores
▁Alz
▁114
6;
▁47
▁oximetry
▁compensatory
▁juven
▁6-
▁Measure
5%).
▁aneurysms
▁ELISA
▁163
▁irreversible
unsaturated
▁urtic
oderm
▁EEG
tissue
▁0.4%
▁uncommon
athiop
Tu
inj
ustained
▁ineffective
erence
phic
(2
▁(31
.0%
▁indo
sible
▁superf
opa
▁unnecess
ogenous
transferase
▁hormonal
onate
▁antigens
roscop
▁selenium
tism
▁thymus
RH
▁bundles
▁0.78
teria
▁crude
▁cerevis
mmol
▁aureus
▁levodopa
gesterone
▁3.6%
.4
anat
▁nig
5)
▁menopause
▁neph
▁potentiated
olesterolemia
▁filtration
orin
▁antiviral
▁albuminuria
▁asymmetric
teroidal
▁radiological
atif
otransferase
▁sperm
alanine
▁platelets
▁microv
imetidine
omegal
sparing
▁1986
▁Angiotensin
▁10.0
▁11.8
▁cyclic
tality
▁Holter
▁radiologic
▁peptides
▁0.21
▁(10%
▁CAP
roso
ulants
▁novo
▁weaker
Cs
endorphin
▁WK
ostomy
▁assis
▁underg
▁Statistical
tabl
accharide
agonist
▁omeprazole
▁75-
orh
▁opi
▁interfere
▁reinfor
▁133
▁surfactant
▁0.1
▁detectable
▁(2),
▁0.47
▁cystitis
▁10.4
▁antidepressant
arose
▁42
virus
▁300-
▁PSA
▁eczema
▁substrates
arum
▁pec
▁hemodialysis
pecially
atches
▁repetitive
asions
▁0.24
▁AMP
▁8%
▁1.00
ergen
obase
induc
▁crystals
arying
7%)
▁endoscopic
▁experim
▁adenoid
▁Increas
▁abstin
▁oligosaccharide
▁hypokalemia
▁choline
▁vagal
▁cholera
▁inhal
▁0.81
▁cic
insensitive
▁dextrose
ocin
relaxation
▁0.
▁SG
edding
.3%)
▁250
▁phosphodies
39
imolar
▁CSF
▁compartments
trone
▁postnatal
phrine
osyltransferase
sorb
▁confound
▁onc
▁postmenopausal
dominal
▁241
▁hypertrophy
deoxy
▁elution
▁0.01).
▁cohort
▁217
▁pharmacological
vae
▁20%,
▁dox
▁hypercal
azole
▁GMP
atum
▁ammon
▁unres
▁influenz
▁HBV
3/
▁cen
▁7
▁impaired
▁(=
▁82
▁atten
▁lactation
▁adolescence
DH
▁persis
▁interpre
▁granuloma
▁empir
▁reinfection
▁Registry
rogesterone
83
-3
▁psychotherapy
▁CNS
imodipine
▁0.025
▁ultrastructural
▁neutropenia
emak
▁sero
▁4.3
▁mening
▁osmolality
otri
uretics
▁endogenous
(2+
▁delaying
▁lavage
▁(97
▁ventil
▁3.
dotoxin
60
moking
▁regression
partic
▁Gluc
uled
▁chlorhexidine
▁([
▁diverged
▁neuropathy
▁acute
▁.05).
uria
▁PAI
▁invari
▁labelling
stolic
▁standardization
▁subcutaneously
lives
▁-15
ogenetic
cyte
▁tric
▁swabs
▁arousal
▁188
▁reproduc
trin
cis
▁indus
▁Taken
ordin
semin
▁leucine
▁hepatoma
▁reagents
▁1.06
lastic
▁26%
▁facilitated
▁surgically
▁asymptomatic
▁-1
▁differentially
adex
▁angi
▁shorten
▁TPA
ystolic
alas
pirone
▁hir
▁subpop
▁hydrocortisone
▁melan
▁mitotic
▁nondiabetic
operidol
▁123
▁spon
daily
▁asthma
demic
▁Lact
▁chewing
▁(79
▁homogenates
ositol
entical
▁atenolol
▁beats
▁PMS
hydro
▁ACE
magglutinin
ventilation
▁averaged
▁FD
uric
toid
▁elimination
alsy
▁pathways
▁accid
▁-5
diastolic
▁crom
▁tetan
▁decreasing
uterine
▁variability
▁benzo
olecular
▁undergoing
▁4.5
▁unexplained
▁unusually
▁inherent
rachial
▁adhesion
urban
eryth
onucle
lysine
▁predis
-8)
▁bladder
▁molar
▁angiotensin
▁PBL
▁SDS
▁psychomotor
keto
tures
▁79
▁ocular
▁nonspecific
▁wt
ilized
▁bipolar
▁vesic
▁[125
▁nonsmokers
▁33-
heum
▁cathepsin
▁degradation
CSF
▁stepwise
▁mM
cAMP
guan
inflammatory
taz
▁fibr
▁extensively
▁35-
▁varicella
iliac
otonic
▁indicative
▁-7
▁49
5,000
oprote
▁axial
olitis
▁prel
nai
▁selen
▁hypotensive
▁INH
ilic
operative
acyl
▁101
▁dischar
▁guanosine
vivors
opoly
▁cranial
▁83%
▁nitro
tine
▁valpro
▁evid
▁plots
2%
▁exhibited
▁graf
odialysis
▁hyperlipid
▁cycloheximide
▁aeruginosa
▁admissions
▁sput
ylate
▁vegetable
▁Electron
5%
▁placenta
▁epidemi
estive
atibility
▁carcinoma
▁matur
optic
▁abscess
▁traumatic
▁5%.
▁serotype
Ly
liters
▁BALB
▁evidenced
▁1.02
▁contradictory
▁exacerb
▁saliv
▁priming
ischem
-2)
▁transgenic
▁8.
▁0.12
otypic
▁somatostatin
▁plasmid
aline
turnal
▁GST
-25
▁linearly
▁sucralfate
onc
▁0.83
9).
▁arteriosus
▁(15%)
▁artery
uracy
▁Extensive
-20
▁Estim
▁stabilized
▁Various
anad
▁nutritional
▁injec
dered
omical
▁quinacrine
▁scaven
▁trich
pation
▁propensity
▁aerobic
ipid
rosy
▁102
potassium
▁phleb
▁subun
▁dendrites
▁metastatic
▁granular
▁Tiss
▁200,000
▁Tum
ozo
osine
exis
cence
ignific
▁microm
opian
▁utilization
▁strains
▁hamster
▁compart
acute
▁sple
omycin
▁noncom
receptors
▁chromatographic
▁arth
▁reversal
▁pyr
elvic
endazole
acyclin
therapeutic
oxone
ocarcin
▁follic
mia
▁3'
▁DBA
▁(48
▁(63%)
viruses
piratory
positive
▁68%
▁favored
ithine
▁diagnoses
illi
▁analogs
▁junctions
▁2.5,
▁lithium
▁warr
▁deformities
tory
ipr
▁epididym
▁compounds
▁carcinomas
▁sphincter
▁intermittent
aminophen
sia
▁granulomas
▁injected
▁sarcoma
▁synthe
▁Few
otassium
▁inhaled
▁struc
athe
▁impair
▁articular
formin
▁0.69
▁sulfate
▁8.0
ields
farin
rologic
razolam
▁chlorpromazine
▁5,
▁immunohist
odend
▁23
▁suicidal
▁intestinal
▁muscul
▁ciliary
▁histone
ipheral
▁kerat
▁BK
▁ventricular
▁retin
tility
ancomycin
▁nonsur
▁reas
▁swelling
▁pancreatic
ignant
▁carboxyl
facturing
▁fructose
onazole
ffeine
▁backgrounds
▁malign
▁0.3%
▁Computed
▁pylori
▁muscular
▁lectin
ifug
▁arrhy
▁8.5
▁comprised
vant
▁Thy
▁lipoprotein
▁acetylcholine
▁syndromes
▁0.02)
isomerase
▁0.72
38
lox
oglobulin
▁1.11
lytic
▁quantitative
ostasis
▁surveyed
arynx
oprol
▁immunode
tinu
treated
oxyl
36
▁Inhibition
.7%)
hyd
.3
▁duoden
ortic
▁3/
▁heteroz
▁addic
azone
▁CK
testinal
▁innervation
▁uterine
6)
▁colos
▁donors
▁alternating
▁LH
▁defective
▁CFU
▁aldosterone
▁164
▁200-
▁detrusor
yses
aneously
▁4.7
uretic
▁7.
glucuron
▁ureter
glycoprotein
.0
▁Glu
▁epithelial
▁prematurity
▁acinar
iplin
▁isoniazid
omatosis
▁vigorous
▁CRF
2,
▁dilated
▁hypothalamus
▁organism
▁adversely
gestin
▁rash
▁fluc
rein
atient
-198
▁endoscop
▁mitochondria
▁LDL
▁mathem
▁0.4
▁viscer
antoin
thma
▁weighing
traction
▁bumetanide
▁adducts
▁0.94
▁objec
▁24-
▁compares
▁absorp
▁epithelia
▁felodipine
▁competent
▁119
rosemide
▁62%
ervations
▁66
▁gland
.5.
evoked
▁ultrasonography
▁monocyte
umbens
molality
amole
tagland
▁skinfold
▁Duc
▁prosthesis
▁ruptured
▁antibiotics
▁Chlamydia
▁Fifteen
▁strom
AO
pharose
▁appendicitis
▁Approximately
▁freshly
▁gly
▁phenylalanine
▁contributes
sive
▁pertussis
▁6.4
▁Medicare
▁micros
▁compli
▁sinus
-200
jac
untary
▁paternal
robic
▁90.
▁CI
ults
▁HB
acial
▁valve
achnoid
mitter
▁embry
▁atrium
spar
scher
▁serological
▁mice
rography
▁consecu
▁residual
▁exons
sequent
-22
322
adrenoceptor
utions
▁fibrinogen
▁acco
▁bacteri
7)
▁17.
omial
▁fetal
utaneously
rotic
▁uteri
eptin
ophil
▁gonadotropin
▁organelles
▁rehabilitation
▁(15
▁scientif
▁ethanol
▁allo
▁opioids
pressing
▁(70
spective
▁cuff
▁7.6
62
adone
nec
▁aqueous
▁cardiac
▁hams
▁asymme
▁polypeptide
atchard
▁(75%)
▁colorectal
▁epiderm
▁succin
ogens
▁prolactin
▁avail
▁typh
▁myopathy
▁malformations
▁phenobarbital
▁(22
▁clarify
▁Oral
▁endothelin
▁benzyl
▁ORF
ints
▁headaches
▁proteolytic
▁substantially
▁localization
9.
▁blots
uplex
oplas
▁blot
▁oxide
▁incontinence
▁61
▁TA
▁vitamin
▁enhancing
▁scle
▁emulsion
alveolar
▁projections
ographically
utyric
▁stratif
ubs
▁Tissue
plastic
itro
▁prophylactic
amn
▁0.01
▁respiratory
32
▁nominal
▁TG
pH
tam
3+
▁ultrasound
▁PTCA
sodium
okinetic
▁antiv
incub
▁1200
oxia
▁cytologic
ylic
▁sulphate
▁(36%)
▁plasmin
orubicin
galact
▁occlusive
▁duct
▁0.04
▁MIC
▁valves
▁defic
▁metabol
▁histidine
▁Vmax
iae
▁ND
▁lambs
faction
▁satisfactory
▁agar
▁10.2
phage
▁Krebs
▁223
ohns
▁noradrenergic
ynaptic
▁dehyd
lobin
48
ognition
▁inconclusive
▁rearrangement
▁118
▁7.0
idney
▁granulosa
▁69
▁(31%)
▁glutamine
▁biologic
menopausal
▁duodenal
weighted
▁unexpectedly
▁weakly
▁heterogeneity
▁radioactive
▁40%
onidine
▁attenuation
▁contrib
▁(400
tro
osome
▁(9
ivation
▁Eco
repres
usively
▁throm
▁immunoprecipit
▁4
ocellular
▁validated
disc
▁exten
▁elucidate
▁(54
▁inser
ophyll
oprost
▁autop
▁demonstrable
▁reversed
▁(47
▁Rats
▁peptide
▁elastic
▁Vitamin
▁LD
titial
99
▁replication
▁retardation
phosphate
centr
▁angina
▁Significant
ivacaine
aterally
▁dismut
▁specificity
ionate
▁rearrangements
▁0.59
▁fixation
▁Seventy
▁(200
risk
adine
aptic
tillation
viron
▁fric
▁positivity
itamin
▁excision
▁hypothyroidism
▁doubling
erver
▁epitope
▁Haem
▁concordance
iuria
▁homology
iotensin
olateral
.3.
inic
▁immunity
buride
▁persisted
▁Fc
▁explants
▁preven
▁reactivity
▁SLE
▁cardiomyopathy
-125
▁penicillin
vail
▁blin
▁95%
▁(500
ubiqu
▁enlarged
▁discriminant
▁unlabeled
▁depolarizing
▁fumarate
otre
/100
opropyl
▁purification
alb
▁concurrently
emide
uminal
derly
▁nM
▁amplitudes
cholate
urnal
atology
▁-6
AFP
▁dimer
▁rheumatoid
▁35
800
▁singleton
▁gangli
NAc
junction
-52
▁basal
▁venous
▁16%
▁retinol
▁phentolamine
▁specificities
▁1
▁65%
▁cocaine
azepam
14)
▁sclerotherapy
▁increas
▁abdomen
▁catheter
▁1.7
▁subfractions
clonal
▁sham
fluoro
▁suppressed
▁intercourse
thick
▁fulf
kground
osylation
▁indomethacin
▁soluble
▁glutathione
▁keratinocytes
▁weaning
▁fibrils
bromo
▁131
imin
▁monotherapy
▁0.19
▁0.62
ociation
Ba
▁identifiable
▁impairs
▁antagon
▁Phen
▁proportions
▁protec
▁warts
tryp
.8%)
▁vesti
▁oxym
4+
▁glucocortic
2+.
hesus
▁pep
▁33
▁Dip
▁sut
▁myocardium
▁198
▁endotoxin
▁doxazosin
▁birthweight
▁genomic
angi
▁emptying
▁IgM
▁synthesized
▁92
ilin
▁expiratory
▁fibros
▁infec
pharyngeal
oxidation
▁microbi
▁sulph
▁anesthesia
▁polyc
ferrin
▁inactiv
▁caudate
▁intral
acholine
▁consis
▁datab
ethylene
▁evaluations
enem
modulin
▁14
colem
iciencies
▁12.
WB
▁tubercle
ophylline
otomy
▁subpopulation
▁perioperative
▁membrane
▁intub
▁hypox
▁3.2
hea
▁trache
▁vaccination
▁spike
▁cardiomy
▁inges
grees
▁6)
▁secretagogues
▁polys
▁Mn
quid
▁tib
▁colonization
▁irrigation
ifferen
▁+/-
.2
▁porcine
▁elicits
▁brid
aminidase
▁prophylaxis
itrate
▁aspirin
▁myocardial
▁galactose
tene
ficial
jec
▁adhesive
▁(86%)
gnetic
▁streptoc
0.0
▁conditioning
▁analyses
ocytopenia
fractions
▁infiltration
▁hyperplasia
▁polymer
roin
sively
▁nonselective
▁Pretreatment
tages
uctose
▁1.0
1.1
▁(28
▁salts
▁underwent
▁neurologic
▁94%
▁hydrolys
▁characterize
▁limb
▁hormones
PSPs
3).
ycin
▁reliably
opausal
leukin
▁29,
▁acupuncture
▁cryp
▁consul
▁gallbladder
ductase
baseline
▁fluids
▁fum
lec
▁sulfonyl
▁37%
ialysis
▁motility
▁IFN
▁(5)
omerular
▁compartment
▁investigator
pyr
▁cromoglycate
▁coronary
sensitivity
tig
▁pathway
▁paral
etitive
▁postulated
▁adrenal
▁similarity
▁cimetidine
)2
erate
▁dete
▁mAb
▁hemodynamics
sibly
▁molec
glycerin
▁recurrences
chlo
▁inguinal
▁triti
valent
▁4.9
din
asive
incubation
▁ascites
chymal
▁hypoth
▁complementary
▁10(-8)
▁Bmax
esthe
▁96%
thi
▁azathioprine
▁adenosine
osides
oprec
▁reabsorption
neu
▁LV
▁contraction
OH
natal
oil
atients
ocysteine
amuscular
▁adminis
▁ipratropium
▁unchanged
▁conduction
0,
▁uncom
ymethyl
azin
▁centrifugation
▁catalyzed
▁rhin
▁prednisone
▁nasopharyngeal
▁outbreaks
▁(94
▁esophageal
lodipine
▁(16
▁diffic
▁gentamicin
-70%
▁differing
trum
▁electrophoresis
▁0.2
▁Staphylococcus
▁1.15
▁bronchodilator
4.
▁manifested
▁Delayed
▁neuromuscular
▁flashes
bular
▁ipr
▁invasive
omonas
articular
ocrine
▁1.03
edema
oprotein
▁parox
▁psychiatric
lyb
coup
▁augmenting
▁neurolep
▁conductance
▁nebul
-88
▁12%
▁discharge
▁perfor
tability
welling
▁resonance
▁strand
▁solitary
specificity
▁overlapping
plantation
▁CHO
▁1.25
luores
▁thymic
▁adenine
▁pyram
thmia
tisol
▁Sixteen
pain
▁endoc
▁Myc
irds
▁BMI
▁uro
casein
IU
▁oestrogen
vating
▁sugges
▁elicited
▁anticonvulsant
▁tuberc
▁Optimal
▁1.16
HCO
stimulating
▁posttrans
erad
▁dodecyl
▁PN
▁Eighty
lamydia
ometers
▁zym
▁Subsequently
trol
▁pelvic
▁perfusion
▁6.2
▁ionic
tured
▁lymphoid
loon
▁alkaline
▁21
▁hyperlipidemia
▁clinicians
▁209
▁(44
illaries
▁radiotherapy
▁agon
▁oxidation
▁48%
▁foc
▁spermat
▁inhibiting
▁pars
▁modality
▁enzymatic
▁scin
acrylamide
▁-12
▁longitudinal
etent
bly
predic
ydig
▁newborn
▁(0.0
▁195
▁spind
▁DEAE
▁63
anide
▁0,
▁forskolin
▁VLDL
▁reductions
▁corticosteroid
lasses
zation
▁(30
▁doubled
imetry
gia
▁5.8
▁criter
▁measurable
LR
organism
▁ADA
ausea
▁kidney
ongest
etal
▁digestion
▁SEM
ubation
▁(19
ected
▁0.79
▁conditioned
▁surrog
blood
3;
▁catheters
▁induces
▁1.75
tors
▁Experiment
▁HS
▁sulfhydryl
▁pathophy
▁flanking
obronchial
acil
enal
glutin
iatum
▁1/
▁scalp
▁stroma
▁2-3
imus
▁progressed
▁theore
▁exceptionally
HB
▁kcal
▁subclinical
▁14,
▁20,000
▁-10
Ca
▁Milk
.8%
▁resul
▁conjunction
▁antioxidants
trus
/1000
▁7.7
▁0.93
▁transcript
▁hydroxy
ologic
ailure
vian
acylglycerol
▁pancre
▁organisms
▁osteoporotic
ellum
oracic
93
▁spectroscopy
▁atrial
▁suppor
▁nutrient
ysto
▁TI
▁characteris
polyacrylamide
▁systemic
▁(11
onor
▁ane
▁CEA
glycerol
▁(6
enzyme
▁velocities
▁liposomes
▁schizophrenia
▁collateral
▁ligament
conver
diabe
-28
▁kinases
▁NSAIDs
oxif
▁unin
▁standardized
average
▁neutrophils
▁85%
▁irradiation
▁axonal
▁homozygous
▁tumors
▁10.
▁45%
▁iodide
/1
▁esophag
▁100-
diabetic
▁Surgery
▁suture
▁progn
▁respiration
aryn
▁drin
tact
tual
siological
9%
▁amo
▁hydrophilic
▁haemat
▁NH
▁1,000
▁incision
▁erythropo
2,000
havioral
8,
▁cyto
▁confirming
cemic
▁regurg
(5
2).
▁CTL
isomer
17
electric
▁vaginal
▁vacu
▁cGMP
▁Plasma
8),
▁(0
▁ambulatory
▁emesis
▁phosphatidyl
effects
▁scl
▁phospholipids
▁attenuating
▁sonographic
administered
odal
▁(1.3
▁antis
▁MH
▁Stu
▁chan
▁LN
inhib
▁0.57
▁secretagog
2)
▁psor
▁hysterectomy
▁0.95
▁nuclei
▁sensi
cells
10,
▁145
▁179
▁attenuated
▁preceding
▁Cys
▁cDNA
▁decreas
NH
▁0.9%
▁dairy
▁150,
▁215
▁micrograms
▁0.66
▁exag
henyl
▁neurom
immunoreactive
ikary
-4
tiary
▁(198
▁testis
▁intestine
iversity
▁chel
▁ubiqu
▁unpredictable
▁confir
▁Addition
▁incis
▁63%
▁enrol
▁rabb
▁3;
MN
10.
▁edema
umably
tially
opulmonary
Rs
▁235
▁Viral
▁quies
▁coval
▁peroxide
LH
▁Ultras
Kd
carotene
▁lesion
▁100%.
▁mL
▁luteinizing
▁flas
▁hypertension
rosophila
brids
aturated
▁75
▁fibrob
DG
▁stimulates
00
odiaz
▁cephal
Gal
▁synap
▁KCl
ronch
▁agglutinin
▁Cardi
▁incompetence
▁catheterization
▁mep
▁Plate
▁NK
▁depletion
▁penile
omies
▁Injection
▁Staphyloc
▁serogroup
perature
▁febrile
▁sten
▁mitochondrial
▁Basal
▁implying
▁identically
lora
ropriate
▁exhaus
.5%
▁Hb
▁guanine
▁tenderness
▁Compared
▁Ure
▁assay
tensity
iteal
▁mutations
929
▁redox
▁blas
▁tubulin
▁juvenile
▁paradoxical
tituted
▁uniquely
▁physici
▁mmol
▁diaz
▁nonfatal
MH
▁lumen
▁thromboxane
▁interacted
▁nucleotides
HIV
apeu
▁inadequ
▁ammonium
oporosis
▁cardio
iodarone
▁optic
▁electroly
▁chloride
▁lys
▁monoclonal
myc
tak
▁10(6)
▁pools
▁physi
fec
ectomized
dose
▁147
muc
▁ketoconazole
-80
▁reactive
orsal
▁oxy
44
▁ison
▁extracellular
arbox
itone
▁progestin
▁methodological
titu
▁cerebrospinal
▁constitute
-36
▁transplant
▁incompletely
▁cAMP
▁reag
▁gonococcal
▁1.12
▁1000
▁corresponded
agonists
▁benign
▁LMW
▁24)
coun
rhy
▁incorporation
▁Tyr
▁larvae
▁acetate
▁neoplastic
▁differe
▁acutely
sorption
▁OA
▁descending
ylation
▁156
▁homeostasis
▁amin
-1),
▁motone
▁0.01),
▁8.8
ministration
▁neutrop
▁biopsied
▁cellul
▁lowers
▁ascending
tensive
▁BV
▁receptive
▁cessation
▁alcoh
▁dimethyl
▁pleural
0/
78
▁flora
▁unstimulated
▁noc
romes
▁Arter
▁cartil
▁emerg
▁ultrastruc
▁amplified
qui
difference
▁27%
▁66%
▁immunobl
▁24
otent
1,
▁electromy
dihydro
▁reversibly
▁endpoints
▁90
▁12-
30)
▁favorably
▁1960
▁vasoconstric
orbid
▁30%
▁0.05%
▁43
potential
▁56,
▁chromatin
obac
82
▁subjec
▁phenylephrine
Ti
▁moderately
▁0.87
ASA
75
▁atropine
enin
▁adsorption
▁fatigue
▁0.0001)
▁rigorous
▁microns
▁nonresponders
▁glucose
▁chol
000.
▁progest
▁diuretics
.10
▁pathogenic
ographs
▁2.5%
▁modulating
▁antimic
▁microvascular
eclampsia
▁fetuses
▁lysozyme
▁biopsy
▁4,
▁pmol
▁infrared
rocytes
race
▁ultras
▁bronchodil
▁80,
▁iod
apid
▁Apgar
fused
▁AML
72
(6
▁cleaved
/10
hemical
▁Invent
ginine
enyl
tran
▁inhibin
assessed
▁hep
▁unil
▁Lipid
ogenes
▁conformational
▁Regarding
▁damaging
iosis
▁15.
amilies
▁acceptor
orrh
regulated
▁sulf
ositi
ondr
rostenedione
▁ranged
▁keratin
▁discriminate
entricular
▁RI
▁deline
tice
alp
tiazem
▁symp
▁Investig
▁choles
▁zinc
osclerosis
▁Prevention
▁suppressor
▁spi
▁imaging
0-
▁Ig
▁puber
▁devoid
▁stent
▁injur
▁activates
lip
feren
tracted
yrid
POA
▁hazards
▁(4%)
tiguous
▁99
▁47,
MV
allikrein
phrag
▁(9%)
▁dysplasia
oscopy
▁hyponatremia
opre
▁clu
tations
▁multim
.6
▁chor
▁detecting
▁heme
diagn
▁glycemic
▁shor
vice
▁solids
tional
▁Hg
▁9,
▁pregnancies
▁swit
▁anomalies
▁thems
+)-
▁lumbar
▁transfected
▁stimul
▁10(-3)
▁(1
▁cerebro
▁sorbitol
inally
-1.
▁bilateral
▁4)
wann
▁hyperglycemia
▁PRA
turb
▁postoperative
orotic
▁diagnosing
▁lability
helium
▁Histologic
▁tablets
▁fecal
▁exaggerated
▁polyclonal
▁promp
obenz
chemical
orepinephrine
▁assessed
▁hippocampus
▁(-)-
▁9-
initi
▁depres
▁prono
▁cochle
poor
▁contractility
▁COPD
▁72%
exposed
0.2
▁transpor
▁toge
ylated
▁nonf
ranged
▁inpatients
▁depleted
▁modulated
▁200
▁viruses
▁12.5
tection
▁ulc
▁morphologic
dL
▁discrep
ulose
▁Hyd
▁nodal
▁thyroidectomy
estrogen
pended
▁Raynaud
▁88%
avir
dimethyl
▁adolescent
▁epidural
▁substitu
lep
▁phospholipase
▁endoplasmic
fatal
▁tricyclic
▁microsp
▁900
osom
namic
icin
▁39%
▁opioid
clamp
treatment
▁agonist
nish
▁facilitation
olesterole
▁marrow
▁1,
▁cyclase
▁tonsillar
enteritis
▁fec
ucle
kage
estig
▁1,25
▁reticular
▁transplants
▁tic
ffe
▁Cells
vertebral
▁comparative
▁labeling
40)
porting
▁50
▁antithrombotic
▁exceeded
prol
oten
▁fron
▁granule
▁neurogenic
▁spontaneously
orption
mittent
▁Levels
▁Hyp
▁calves
▁Kd
olipoprotein
▁Thyroid
nthe
▁anesthetic
▁appreciable
▁61%
Phe
▁diameters
▁0.2%
leu
▁infancy
▁(43
amphetamine
▁41
▁(33
▁(50%
Glc
▁implants
▁75%
▁coated
clin
▁compositions
▁evoked
▁Assessment
▁positives
▁disseminated
ostic
▁Escherichia
yclo
▁6.3
▁splic
▁rIL
▁Exercise
inol
▁immunoassay
▁Evidence
▁remission
▁Diabetic
ylase
▁LDH
18)
▁CAH
▁logistic
stranded
▁103
▁146
▁correlates
▁ovulation
▁daytime
lob
▁cis
▁(1.2
▁epilepsy
▁promoters
rospor
▁mutagenesis
kinson
▁quantit
ypass
-72
fos
incubated
▁microtubule
▁subgroups
▁antimicrobial
SMR
▁unclear
amphenicol
trical
▁bypass
▁neurop
effec
▁regis
▁(3)
▁paralleled
9%)
▁mutants
▁ow
▁ascorbic
tructural
stin
▁TT
ypical
▁Binding
▁0.1%
▁placebo
uncture
▁Cd
▁kb
tally
▁17,
▁subtilis
▁LVH
▁prostatic
queous
47
hydration
▁lymphomas
▁fasting
▁intubation
rox
-1.5
creatinine
hyde
uantitative
ospor
▁3.4
odynamic
▁peroxidation
▁perip
▁normalization
▁triad
▁LPS
▁overestimated
▁nodule
▁HbA
▁PEF
▁arising
rague
▁hyperb
▁gonadotroph
▁reflux
▁carriers
▁6.
▁discomfort
▁124
▁Cardiac
▁40-
▁replic
▁libitum
ithium
▁extensor
▁caudal
▁scars
▁deem
.1%
roxy
▁enti
▁Streptococcus
controlled
▁dors
▁cisplatin
▁(67
prandial
▁21,
ranolol
oradi
▁phospho
▁dextran
endix
▁fulminant
▁polymorph
▁70-
iotics
▁regeneration
▁pathogenesis
▁300
▁1980
▁20)
trast
▁9
▁cesarean
▁substanti
▁carcinogenesis
▁orthostatic
moderate
▁alp
ervical
▁KD
0.5
aminases
reatine
▁vacuoles
emia
▁tumours
▁estimating
▁catechol
▁adenocarcinoma
▁64
▁conserved
lipid
▁PKC
▁Stro
▁bioassay
▁anaesthe
▁contamination
▁complexes
▁bladders
▁dilatation
▁insuff
▁preservation
iceptive
growth
▁apnea
amethasone
▁lateral
naud
▁10(9)
▁analogous
▁helix
▁BP
opecia
▁poisoning
▁98
▁sequencing
▁(1.4
quine
▁summ
HRP
▁Thir
tivity
▁analgesia
▁Coronary
▁immunostaining
▁clind
thood
saccharide
neumon
▁Reduc
affec
oxicillin
▁brach
▁9.0
went
▁isot
tum
▁immobilized
▁theoretically
▁cohorts
▁indications
▁ionophore
▁-0.8
▁indi
▁1.2%
aminob
▁HeLa
▁titration
▁13-
ongue
ocytosis
plen
▁accep
tence
▁humoral
yridamole
▁zoster
▁oxid
turally
chrom
▁pneumonia
▁lymphadenopathy
idym
▁Simult
▁Concentr
▁postprandial
▁RV
▁calf
▁genotypes
bumin
▁unselected
▁obese
▁ventric
ullary
stim
▁SRIF
▁strips
▁plex
▁100%
adders
▁systematically
▁Ib
▁seb
▁243
▁lethal
500
Leu
▁chym
1%)
▁(1.0
▁melatonin
tically
▁resto
▁conjugates
▁81
▁antisera
/20
ologous
▁chlamydial
infection
10
+.
▁insensitive
71
▁thrombo
▁mammary
▁minimally
onine
▁100,000
▁cured
▁cortic
esthetized
▁PCR
▁0.27
125
▁induc
▁topo
▁2).
▁mcg
▁pacemaker
eak
atical
▁mitogenic
-10.
▁antif
-2.5
▁aor
▁electrically
▁exerts
catal
▁births
▁(2
ograms
▁mumol
ovine
IgG
▁55-
▁anion
▁venti
▁intrap
inamide
▁71%
inesterase
▁[14
ocor
▁suppres
▁regulated
ruc
▁margins
▁demonstrating
▁bouts
▁dizziness
▁Growth
▁couns
teric
▁lipids
thanol
▁kain
▁adherent
▁filaments
ichloro
▁donor
▁113
▁concentrations
notic
▁exhaustion
▁attemp
▁reproducible
3)
▁Replacement
▁confined
▁Acet
ynthe
floxacin
▁terminals
▁53%
rents
▁pts
▁filament
ocomp
▁11,
deriv
▁primed
▁denat
▁monomer
otom
▁tibia
-4.
ocrom
▁disulf
establ
▁hypog
renal
▁lacks
azoline
▁Rates
▁hyperch
▁benzodiaz
▁inhibition
▁perikary
oprostol
▁mutagen
▁bradyc
▁elas
▁cystic
▁stimulatory
usually
▁endings
▁1.6-
▁disrup
▁(85%)
sectional
ographies
▁30%,
91
tinguish
▁Pneum
nucle
▁therapeutic
▁theophylline
▁protoc
urred
▁10(-6)
1;
▁undetectable
2),
▁discon
albumin
▁abr
▁mIU
fected
uality
▁stratum
osarcoma
erents
osac
restric
▁excretory
▁untreated
▁0.11
testosterone
▁macrom
blockers
orectal
-6,
▁pneumon
▁excre
▁establ
▁isop
▁ileal
▁receptor
abies
toc
▁vasodil
ectomy
▁placent
acetate
2+-
ociated
▁drip
▁ATP
tivated
-34
▁questionnaires
vity
▁arginine
▁Examination
▁markedly
▁projec
▁IA
▁excitation
▁allevi
trated
▁Combination
▁Dental
tussis
minal
▁occlusion
plate
partum
tocin
▁postpartum
▁cerebellar
benz
▁forsk
▁phenyl
▁posttreatment
▁hydrogen
ceptive
crimin
▁progression
terminus
individual
▁androgen
surgical
butamol
elves
atid
▁96
otrypsin
▁averaging
▁162
▁fibroblasts
atitis
▁halothane
yro
▁TM
-400
▁macromolec
▁glycos
▁pyro
amethoxazole
▁serotonin
▁dias
teral
-96
ylchol
▁6
otropin
▁osteoporosis
▁7%
igaret
+]
▁Transient
▁syncope
▁20
▁50,000
▁discharges
physiological
▁57
.7
▁resusc
▁endothelium
▁77
▁5%,
▁angiographic
▁(5%)
CHD
▁0.34
▁arterial
▁polym
rophenyl
▁tendons
▁rehabil
otrexate
▁diminished
▁lymphatic
▁spas
buterol
▁Surgical
thyl
apride
▁reticulum
▁0.99
▁aortic
▁triam
▁Fifty
alate
viral
▁concanavalin
tigo
▁dosage
▁endoscopically
12-
▁pigs
▁59%
:1)
izin
▁vasopressin
ropo
▁anaesthetized
▁tolerated
▁(20%
entanyl
bodies
hene
adication
pharmac
▁analysed
ture
▁subdural
5]
dies
▁ole
0%
sion
ureas
▁perme
▁induction
▁amlodipine
▁appropriately
▁Maximum
glutamate
ergic
oride
▁isoelectric
kinase
▁sensory
▁voiding
▁8.1
chym
▁predictive
43
▁Sodium
▁10%,
▁homocysteine
▁43%
▁resolving
▁induce
▁disturbances
rospinal
Ta
deficient
▁Symptom
▁transverse
tivation
▁pulsed
▁hsp
ucose
▁astrocy
▁34%
▁oestradiol
▁transplanted
▁descriptive
lymer
ervated
xyl
ipolar
strual
meth
▁interleukin
▁(69
5%),
scherichia
astatin
.2%
▁quotient
▁efficac
▁methylation
▁lax
.5%)
ysts
▁agonists
▁hypoglycemic
▁(62
▁54
▁4.1
sives
nee
41
▁CCK
diagnosis
▁preexisting
▁homologous
▁supernat
sorbed
▁circulating
▁maneuvers
▁renal
▁negligible
▁Infection
chloride
utin
takes
▁direc
▁prednis
▁activator
▁menstrual
BMI
▁(99
▁microsomal
▁viscosity
▁18.
▁presumed
▁74%
▁tac
▁cholest
▁estrogens
▁Incubation
vac
▁sarc
▁retard
▁irrespective
▁repor
vices
▁clamp
▁9.
▁positional
LU
roat
▁lipid
▁(39
otting
hydrox
▁0.54
▁cyclospor
imentin
▁chorion
assi
▁fmol
▁digoxin
aturation
▁tracheal
▁microtubules
▁25-
▁biliary
▁positioning
▁undetermined
▁graded
▁bacterial
(2-
iary
gressive
▁RNA
▁quantified
▁acros
parathyroid
▁microsomes
▁sedim
1/2
▁(71%)
▁2%
▁denti
▁outpatients
▁tox
▁[(
▁turnover
oxine
▁0.25%
▁249
tilis
▁Ear
60)
▁hemorrhages
▁ventricles
▁hydrophob
▁Interestingly
▁hap
▁phenotypic
allium
▁23%
oporotic
▁seropositive
gestation
▁splenic
▁lymphocyte
▁Veterans
IgM
▁acyl
roprus
tipation
▁persists
▁affec
▁170
▁psycho
▁syngeneic
▁pooled
entif
▁99%
aceous
atosis
33
agin
issive
▁94
▁etiology
jury
▁somat
▁Calcium
▁800
Ra
▁acidosis
SDS
▁morbidity
abec
▁Complications
▁thromb
▁prostaglandin
▁diphen
▁demonstrates
parous
▁plexus
sistent
▁computerized
▁fathers
▁splen
ilibr
▁isch
diagnosed
▁infarctions
oung
▁qualitatively
▁56
▁assayed
▁immunological
siology
otroph
▁caregi
00-
▁dentate
lys
▁antagonists
▁abolished
▁dB
oretic
cinolone
macropha
▁smo
▁fractionated
▁16
mented
earance
▁acqui
▁64%
▁bursts
▁transmitter
▁erythrocy
▁causal
▁(32%)
▁Comparison
idium
lyc
▁therapies
▁stimulant
▁latency
edic
▁palmit
▁rebound
ophilic
▁(1),
reduced
sul
▁segmental
▁hapl
xual
▁bFGF
▁regulate
▁gonad
▁(18%)
▁elec
▁verbal
▁0.05),
▁(20
▁pene
yroid
▁vesicles
determined
oresis
▁(45%)
▁multin
▁acet
▁fibre
tens
▁nec
azep
rophob
▁multis
ipramine
▁transcription
lysis
▁Alzheimer
▁immobil
▁conservatively
▁Successful
▁adequately
▁radiography
▁cholec
▁Renal
▁gluc
▁0.71
▁connec
thyroid
▁transferrin
▁immunocomp
▁monolayers
▁ventilation
▁emphasized
acetic
300
▁neutroph
▁parenchym
▁Highly
▁PV
ACh
neph
atase
▁thyroxine
otyp
etoprotein
▁cholinesterase
ediatric
73
▁Serum
2+]
▁Sephadex
▁70.
odg
▁thyro
radi
▁hydrolysis
pecific
arachnoid
osensory
▁spectrometry
rene
▁mucosa
▁contraceptive
▁scans
olus
▁mRNAs
▁7.9
▁(62%)
lycemia
▁heterologous
▁comprehen
▁overt
ertion
oxid
▁intraepithelial
▁pancreatitis
▁intracellular
▁splicing
5).
-1.0
▁tet
odies
▁PMN
intensity
▁lymphocytes
▁Biol
▁hexa
▁stric
▁TS
uanti
▁50%
▁ducts
ygdal
▁twofold
▁plantar
▁Steroid
▁maturation
gans
▁cerebral
-1.2
selective
▁asthmatic
▁inoc
▁adjuvant
▁loos
otypes
▁Estrogen
▁stres
▁50-
▁modulation
-10(
aric
▁surfact
atally
ergenic
64
▁Statistically
crip
▁11.2
▁3000
▁succes
ecyl
▁Twelve
obarb
uestionnaire
▁lymph
ampl
▁cytosolic
▁HRP
dT
spectrum
▁Factors
▁49,
54
▁Cs
▁supplemented
transformed
amines
mental
▁sequelae
kely
▁leuk
▁adenoma
▁perce
▁amphetamine
associated
▁carbohydrates
▁deoxy
retro
ochemical
rogenase
▁HPV
▁synthesize
▁leukemic
▁triceps
elic
98
600
/30
▁confers
▁deviation
uling
▁0.22
pore
▁sciatic
▁contractions
▁CAT
▁arrhythm
aldehyde
▁succinate
▁ischemia
▁55
▁sonography
odular
▁synaptic
▁(8
PTH
▁administered
▁testicular
.6%)
▁rhy
▁(14
uran
▁0.98
▁embryos
▁.01)
▁amp
cys
▁2.8
▁intra
elec
-9)
▁grouped
▁perin
▁incom
▁tended
▁allele
▁viability
tension
ffec
▁Likewise
proven
▁(3),
▁envelop
esia
▁biopsies
▁antid
▁Barrett
▁Assess
▁treadmill
▁subjected
oblastic
olipids
▁unstable
tamine
▁histologic
trates
▁epidermal
▁abstinence
▁sequential
▁mug
ucl
▁fla
▁lymphocytic
▁110
▁steroids
▁potentiation
▁3.1
▁methionine
rostened
▁sarcoplasmic
rane
aind
▁contraception
31
oxal
▁107
▁50,
▁bradykinin
oreceptor
▁cardi
▁dementia
▁16.
▁Epidemi
▁ovaries
▁5.1
▁Effic
▁hypothyroid
▁autopsy
▁examinations
riton
triglycer
inase
▁Experiments
lyl
▁thalamic
:3
▁15-
7),
-17
▁nigra
▁elevations
▁tRNA
▁endometrial
▁yr
▁recordings
▁expectancy
lasting
▁permits
▁ppm
▁equivalents
0).
tyl
LTS
▁permeability
itoneally
gative
▁evacuation
▁12%,
ifferenti
▁hypo
veness
▁1-
▁TMP
rease
▁1983
▁msec
ocyst
▁strepto
▁lineage
onegative
echan
▁(50
rocy
iplinary
▁intron
algia
lym
▁cytos
subunit
▁diabe
▁binds
tensin
▁9%
▁wors
5;
▁ramipril
▁prescriptions
kines
▁unresponsive
▁128
▁obstructive
▁miti
3%
ducts
obarbital
▁dibutyryl
▁1970
▁hydrochloride
▁90%,
astatic
tructed
▁IVC
▁(95
▁repro
ithi
hion
▁immunoglobulins
▁metastases
▁nonin
siologic
120
▁generalized
▁(4)
▁proline
▁anemia
rals
▁pH
horm
NB
▁focal
▁biologically
puts
aldosterone
▁colic
▁poin
ecan
▁anae
▁statistically
▁maturity
▁presynaptic
esity
▁radiolab
▁122
5%.
▁vege
▁displaced
▁oes
terone
▁euthyroid
▁congen
stab
▁80%.
▁vasoconstrictor
▁ischem
▁grafts
administration
▁PLP
▁tremor
responders
▁dopaminergic
▁arter
▁weighed
melan
hexidine
▁goiter
▁undergo
sA
24,
apsulated
gm
teine
▁olig
▁techniqu
▁phosphatase
topril
▁hematologic
attern
▁mixtures
botic
▁rifampin
protein
▁spre
▁clonal
▁0.80
▁Ps
▁immunosuppres
▁Diagn
anav
adren
▁thre
▁topically
ncies
▁0.18
1]
▁infections
▁cann
▁Mg
glutinin
occi
▁lidocaine
▁subunit
▁ribosomal
nitro
▁questionnaire
rine
▁cros
▁chronically
▁muscarinic
▁Sixty
▁constituted
oreceptors
▁lowering
▁nal
▁serotypes
▁0.56
▁progressively
▁carboxy
▁2.1
▁cataly
▁AH
▁85
▁5.6
▁EE
▁resin
urea
▁diacylglycerol
▁radiol
▁pK
retion
imination
▁urinary
▁hospitalization
amol
▁practitioners
▁occupational
▁(18
▁phyto
ytes
▁atrophy
▁roset
oventricular
▁supr
Ki
renol
▁(0.6
▁commercially
umulative
▁0.60
Ig
▁vascular
▁physiologic
uspid
ilateral
▁-4
▁16-
▁conclusive
▁transformations
▁mA
ercul
osteroid
▁(80
▁morphological
▁EDTA
▁steroid
▁BW
tronic
▁carpal
.3%
▁collagen
▁Tryp
▁5.7
entral
terin
▁granules
-7)
hers
▁Stress
xiety
▁predisposition
▁lactate
▁parathyroid
▁46%
▁differed
NIDDM
▁colchicine
mokers
enia
▁niacin
▁IB
IFN
▁awak
▁exhibiting
atectomy
▁myocytes
ithromycin
unctions
posable
▁dermatitis
▁characterizes
▁hypnotic
▁placental
▁experimentally
▁anomaly
▁CMV
▁saturable
▁hypocal
gic
athic
▁TCDD
67
▁CBF
▁serotoninergic
▁macrophages
▁peaked
echn
▁urea
phosphatase
▁paralle
temperature
▁Concentrations
▁autoantibody
▁thym
uridine
▁asymp
antibody
▁Bec
oxic
▁vertebral
▁60%
ithin
▁airflow
▁monomeric
▁reciprocal
plenic
enkephalin
▁relapses
thym
▁Combin
quisition
phila
▁cruc
8).
2-
independent
oplastic
▁NADPH
▁streptococcal
/2
▁ultr
▁genome
MHC
▁14-
▁pneumoniae
▁regen
▁(3.8
▁microorganisms
NK
▁0.40
▁iden
▁(88%)
▁hypertro
▁brainstem
▁0.58
▁endocrine
200
▁intake
▁Ventricular
▁15%
▁diets
▁persisting
tomy
▁lacked
▁immunoreactive
eroxide
/18
70)
▁37
▁Nine
▁frog
erule
▁315
▁subjective
▁blocker
▁relieve
throm
▁manu
oscopic
▁134
rophy
▁231
▁osmotic
▁resol
ported
riamycin
:1
▁indis
▁pulses
▁arrhythmia
▁0.74
tential
▁0.28
105
ometh
ophore
▁radiographic
000,
▁obesity
tebral
▁verapamil
7;
tochem
▁ganglion
▁rabbit
-1).
▁upstream
▁diuretic
PSP
▁classify
▁aromatic
▁innervated
▁eliminating
erating
-[
▁caro
▁angio
▁2.1%
▁159
▁tetra
-6-
/24
▁6.9
0%).
▁modeled
94
enol
▁hairs
▁remarkably
▁nucleic
▁lar
▁exploratory
▁vomiting
▁metabolism
3]
▁subarachnoid
8-
ocytes
opharynx
▁bacteriuria
▁cerv
127
▁leuc
▁magnesium
kine
omat
▁variants
clerotic
▁bronch
▁atherosclerotic
▁corne
monstr
▁(1:
▁-3
▁carvedilol
▁sacrificed
▁phosph
▁deple
oproteins
▁1.3
▁cirrh
median
▁oss
▁crosso
tionally
▁locomotor
▁discontinu
▁(0.
jun
▁3%
▁34
psych
▁hippocampal
atine
▁sputum
▁87%
89
tioned
▁electrodes
0.00
▁voluntary
leural
▁tissues
▁hypoxia
▁relaxant
▁employing
▁1.4
▁chlor
▁attenu
▁tachycardia
▁(50%)
orrhea
▁epinephrine
unced
▁inactivated
▁degraded
▁0.005).
▁sialic
-8
▁urine
lact
▁(8%)
cture
▁euth
▁parie
ffinities
▁121
LDL
▁Experim
▁hypers
▁0.61
▁relap
▁underestimated
▁PTH
arone
▁0.9
▁Candida
divid
▁parasites
▁offspring
accharides
▁dosages
chid
▁1.8
ytoin
athioprine
▁pell
▁amiloride
▁mEq
▁tubercul
▁venom
▁haemodynamic
sants
▁elective
-18
▁fertil
▁metformin
convul
▁morphine
▁Epid
▁biased
▁denervation
etidine
▁0.00
▁subc
▁pressor
SAID
ropath
-5
nons
▁unfractionated
▁palpable
▁dexamethasone
▁epilep
▁wk
CoA
▁HI
enil
producing
lamy
▁ery
▁1.7%
riched
▁vestibular
oxygen
8+
struc
▁isotope
▁157
atropium
▁RNAs
▁oxidative
▁milder
ometr
▁analgesic
▁Identif
uppres
▁insignificant
▁0.05).
▁striatum
▁interne
▁psychosis
otone
timulation
.1,
▁28%
Gi
▁Cumulative
▁subpopulations
▁fluoxetine
▁arrhythmias
meas
▁127
9;
▁parental
▁phosphoinositi
▁unreliable
oside
▁expec
iotic
▁Meth
arrhythmic
globulin
▁(+/-
LISA
tified
▁CHD
keletal
▁perfusate
▁erythroid
▁hypotension
▁intram
▁126
▁MRI
▁continuation
▁preoperative
▁myof
▁inadequate
▁intest
▁thal
fat
▁hemat
▁quinine
opoietic
sibility
▁(10
▁0.23
limb
▁(250
ocytochemistry
▁(25%)
onatal
▁0.6%
▁mildly
▁27
▁pigment
▁gyn
▁symptomatology
abdominal
▁proportional
▁120
▁saphen
4).
▁44
▁tubes
▁conception
▁SPF
▁mmHg
▁dipyridamole
▁Exposure
▁31
▁nitrogen
▁0.65
maximal
▁7.4
▁40,
▁nucleus
lac
timate
ocular
▁ureth
▁exchan
▁readings
▁LTB
amicin
▁.00
ylene
20
▁(45
▁contraceptives
▁deleterious
69
▁Whereas
▁circulatory
▁RAS
odeoxy
otox
▁fibers
▁secretion
▁assessing
osomal
▁premature
irubin
▁teratogenic
▁retina
phragm
▁67
ycline
▁guinea
EI
▁PCO
▁rheum
▁Gyn
lofen
▁colpos
▁biosynthe
▁Estimates
oreactive
▁cytotoxicity
roscopic
▁paroxysmal
▁questionnai
▁Nineteen
100
▁ips
▁lec
▁dor
▁myocardi
tial
1)
▁8,
▁stained
othane
nRH
▁warfarin
▁superficial
ithm
▁econ
-6)
▁subgroup
▁prognostic
alc
▁(2.6
▁denervated
▁cervical
bloc
▁regar
tis
ressing
▁fulfilled
urons
▁adhering
'-
▁0%
▁PHA
57
▁lapa
▁Prospective
▁papill
▁recombin
▁pyramidal
▁sphing
-1-
▁Eleven
▁4-
▁80-
▁1.2,
▁anemic
▁bac
olysis
-(1
ituit
-6.
▁18,
keratin
▁Secondary
adic
okine
▁NF
rocal
Glu
-6
▁ceftriaxone
ilep
▁Diabetes
▁smokers
tisone
▁(1.5
▁serolog
havi
▁desaturation
orbol
▁pathogens
▁hypertonic
▁pretreated
▁supple
onuclear
gated
▁eighth
adily
-23
ulatory
PGF
▁PEG
▁isoforms
▁surrogate
tracellular
▁kidneys
leuk
olet
▁plasm
▁afferent
tin
35
▁ingu
▁devi
▁uncontrolled
▁enzyme
▁144
▁dehydrated
3,
itre
▁heterogene
▁fluorescence
▁rhesus
▁hydroxyl
▁endot
▁(60%)
ystitis
▁Disease
▁orally
▁vivo
pinal
▁radiograph
tte
phorbol
▁650
ophen
activation
muscle
ronchial
trient
▁caud
▁pem
▁analgesics
eprazole
▁SHR
▁thrombus
tia
▁rupture
oidal
000
▁8.3
-78
▁decreased
▁complications
▁cyst
▁individualized
ept
oterol
▁transi
▁enlar
▁bolus
▁actin
▁1.9%
phil
ineal
▁prostagland
▁75%,
eclamp
▁vasodilation
yrox
▁tachyc
▁stoichi
iferative
▁4.0
plasty
▁dentures
taining
astric
glycer
▁resembled
elan
▁operative
PaO
ranial
-450
▁incidence
▁RS
erving
▁sinusitis
▁GV
▁fluor
▁ure
histamine
bladder
▁abnormal
trial
▁ratios
▁1990
orac
▁Inventory
hydroxyp
epti
▁atria
ducing
▁Ade
-66
▁contex
ochondr
▁pall
ulph
tions
▁hypothalamic
▁constipation
rogenic
▁tomography
2+,
▁transiently
▁depended
▁discontinuation
crib
responsive
activating
▁(77%)
▁propranolol
▁Comparative
parative
▁effec
▁avid
9-
apeptide
▁investigators
▁cancers
▁recom
▁immunogenicity
▁metabolized
▁gout
reactivity
▁coping
▁depr
▁augmentation
▁129
▁Cyt
59
▁heterogeneous
▁hypertensive
▁formulations
▁unrelated
▁graft
tidine
▁livers
▁Respon
immune
▁nif
▁Scatchard
andard
▁intensive
▁refractory
▁medulla
cyst
essive
▁deviations
ortal
▁analogues
▁fluconazole
3),
▁Atrial
epine
oblasts
▁BCG
sied
▁117
▁psoriatic
▁clues
erop
tise
▁aggregates
rectomy
▁Hypertension
gely
5.
▁virul
7%
▁inhibits
▁hybrids
▁rota
▁responsiveness
▁adduc
▁cys
ocytic
17,
▁immunofluores
kephalin
▁152
▁electrophoretic
▁60%.
▁0.07
4/
amet
▁48-
▁penetration
84
-3-
▁(60
tox
▁solvent
▁EGF
▁HDL
▁PMA
▁operon
etence
▁cortisol
platin
Dawley
▁gyr
▁introduc
utyr
▁sensitization
7,000
▁176
▁methadone
▁incontin
▁papillary
▁Nit
ovastatin
▁erythematosus
▁interpretations
osan
coag
ocl
▁tetracycline
22,
▁airways
otor
▁89%
▁vein
atible
▁preeclampsia
+,
▁exon
▁acetaminophen
reast
threatening
▁40.
▁49%
atural
▁mono
▁adenomas
▁norepinephrine
▁20%
0.1
▁apprec
▁1989
▁proteoglyc
▁paired
▁10(-9)
-40
▁FEV
▁conges
▁excised
idespread
icep
▁adolescents
▁coag
42
▁follicular
▁-0.
hypertensive
▁Conversely
,000
olerance
▁167
▁efficacy
▁influx
▁(0.1
▁inhibitor
▁adap
▁oriented
▁repres
inoc
bacter
Tyr
▁autoradiography
-9
phthal
CAT
urin
thymidine
400
▁(68%)
▁1966
▁chorionic
▁stool
gus
▁19,
▁100
▁.05)
dil
▁nodules
▁29
▁3.3
▁standardi
▁cyclooxygenase
▁87
▁39,
▁micron
toph
▁bismuth
▁mammals
▁NMR
.6,
▁Phosph
oplasty
▁staging
▁[35
osomes
depleted
▁0.01)
▁calcitonin
▁(2%)
▁5.4
▁112
▁aneurys
greater
opril
▁8)
ipine
vitamin
responding
▁loci
▁inh
▁0.5
▁dendri
tium
▁scanning
▁competi
▁DP
▁umb
9),
amide
sych
DV
▁trigeminal
▁precursor
▁microtub
▁parietal
esting
▁infertility
▁0.52
FU
▁serology
▁enamel
razosin
oconazole
6-
▁Mast
▁ipsilateral
till
▁unaltered
▁GAD
▁92%
▁paradox
▁sodium
▁favors
▁membran
▁jejun
▁deterior
▁68
▁radioimmuno
-2.
▁osteoc
othal
▁lyso
itidine
itriptyline
onset
LN
▁leukotri
1),
geneic
▁hipp
▁OKT
▁Hear
▁pellets
▁diffuse
isters
osclerotic
▁epidemiologic
▁lymphoma
▁assemb
▁(4
▁contralateral
▁accumulate
▁218
▁contractile
vastatin
▁stu
▁transcrip
▁ribosomes
▁requi
▁13%
▁jaundice
25)
▁serologically
ATP
▁duc
ticle
▁tyrosine
▁increments
▁cerevisiae
▁lorazepam
▁bronchoscopy
▁shif
▁yiel
▁titr
▁255
▁analogue
examin
▁Effec
ocyte
▁chamb
oreal
-2,
ANF
▁ventilatory
▁develops
▁Survival
xanthine
▁kinetic
▁hyperactivity
▁proteoglycans
(1
1/
-1.1
▁periphery
▁metabolite
40
ifferentiated
▁reac
brain
▁173
▁48
ejection
▁condens
▁cutaneous
▁practic
▁cep
▁Inhib
ocul
ifedipine
▁ascertain
▁unrecognized
▁400
▁preparations
venous
▁serologic
▁construc
Pa
aminop
▁terminus
iably
▁obstetric
▁revised
▁mesang
ighted
▁amph
thase
▁diabetics
▁exposures
ximum
▁208
▁benzodiazepines
▁amyloid
▁mite
▁antero
▁oligonucleotide
▁tetr
▁HC
▁constitutive
▁14.8
▁reticulocyte
▁monolayer
▁104
▁comparisons
▁restraint
▁nosocomial
▁percentages
▁0.5%
acrine
econd
▁diltiazem
▁lute
▁sti
yzed
clo
▁athe
ochemistry
▁mitogen
▁laboratories
vedilol
▁spasm
athy
▁recurred
imidine
▁reflecting
▁anticoag
▁inhibitors
▁20-
trop
▁susceptibility
▁11%
▁oxytocin
tron
isole
idone
▁cerebrovascular
▁LM
▁celiac
▁attain
▁nonp
cancer
▁Elec
▁ultim
secre
▁mimic
▁methotrexate
▁ingestion
▁coh
▁harves
opam
▁grading
erant
▁Urine
▁peri
▁postnatally
▁Protein
thanolamine
▁perit
▁amitriptyline
initiated
ochrome
▁antec
▁proliferating
▁septic
▁cardiople
tric
compared
kDa
converting
▁hepatic
-100
ogenicity
23187
4%)
tub
▁antiserum
▁diethyl
)],
▁ileum
▁immunodef
▁encompassing
▁monitored
▁electroph
▁evaluable
absorption
▁markers
▁anesthetized
▁infusion
▁Thirteen
▁2.4%
antibodies
▁5000
▁estrogenic
arcoma
▁thymocytes
iphene
▁neoplasia
▁allogeneic
tion
▁chorio
▁(0.3
▁laparoscopy
▁pretreatment
vaginal
oplasia
▁ovine
▁epitopes
▁transduction
ventricular
ectable
▁antioxid
▁212
▁whee
▁(+)-
ordial
lycer
▁rostral
▁endotracheal
▁oocyte
▁10(3)
stress
tif
▁phospholipid
▁21%
▁supplementation
▁tetrodotoxin
▁immature
▁distal
pran
terol
tiz
electro
▁rodent
▁communic
▁bromocriptine
odopa
▁nasal
▁10%.
deple
IgA
lamp
arterial
▁posi
DNA
▁105
▁brady
▁furosemide
iol
▁catalytic
▁vulgaris
TCA
gene
▁pyl
▁distin
thio
▁pneum
ucleotide
thoracic
▁(3
idate
▁inoculated
-5)
▁Progesterone
istar
▁modif
illin
micro
▁effector
▁stimulants
▁outward
eptic
▁tolerability
▁205
▁differen
oluble
▁NI
opro
imide
▁elevation
▁heterosexual
▁assessments
▁carp
▁citrate
▁canine
▁supplements
operatively
lastoma
▁striatal
▁25%
▁lamin
tually
▁Schwann
▁sampl
▁ventricle
rophic
ammon
▁quoti
▁serum
▁natri
▁insec
▁alkal
▁reliability
▁pyrid
▁18-
cardi
charomyces
lood
onit
▁Antibodies
▁1.13
▁(49
▁7.5
▁bowel
▁imaged
▁thereafter
%).
ejun
▁10.8
11.
▁40,000
▁1.05
▁550
tosis
▁.0
uppression
▁95
ymptomatic
▁differentiate
▁polymerase
▁Bacterial
taken
▁BMD
▁retrospective
omized
▁certainty
▁glycosylated
▁adi
acchar
▁IgA
▁monophosphate
▁inver
otoxic
▁ICU
▁9.2
igl
otoxicity
siveness
▁neuros
▁AO
itoring
ochem
ilical
▁Benz
yste
tening
▁arthritis
▁protracted
▁shedding
▁Findings
ofil
68
aminergic
ffinity
atrop
umbers
antial
▁synapt
▁trophob
▁modalities
▁tachy
ensi
▁latex
▁(4.8
▁phosphorylase
osus
▁TDI
▁nonsteroidal
ygo
▁electrode
8%
ophila
▁exogenous
▁residue
▁triphosphate
▁glutamic
▁metastasis
▁microscopic
erb
▁estradiol
ubicin
▁Depending
▁gastrin
injected
mobil
▁pate
reas
▁grise
▁2.
▁2-
▁pyridoxine
▁phospholip
▁hematocrit
▁socio
▁predictors
▁antigen
▁ANG
posure
▁oils
▁inorganic
(+)-
▁antide
12.
▁neurones
81
folate
▁Meas
▁diffus
▁potassium
arial
▁acin
GH
▁phy
iciently
uris
uoden
uvate
macrophage
▁constituents
▁fused
▁polymorphism
▁percutaneous
▁(75
rological
etine
▁2.7%
nitine
▁conjugate
tent
▁surgeons
▁symptom
ifed
zymes
▁dissemin
▁phorbol
▁ovariectomized
geal
▁accumulation
IH
restingly
caro
▁anhydrase
-0.
▁identi
▁visc
▁Clinic
▁gangl
▁EF
▁correlations
▁abdominal
▁tes
▁intolerance
ipitation
abin
▁alcoholics
ivac
▁sucrose
▁colonoscopy
▁7.1
▁90-
▁anticoagulant
▁evaluating
ophy
ticularly
▁40%.
▁puncture
injection
▁27,
loride
ocarcinoma
romised
▁elevate
▁TGF
▁inoculation
▁catab
cyt
▁synerg
▁5.5
▁staining
▁deletions
▁intracranial
ocalization
▁Diagnostic
12
sian
resistant
ovarian
▁murmur
▁potencies
▁(3%)
▁171
▁mesen
▁phe
▁diabetic
▁65
49
▁194
-0
oplasm
▁158
▁gradients
▁Strep
▁incid
▁uncomplicated
▁amplification
▁CDC
▁pyel
▁rotavirus
▁2.6%
▁55%
▁promin
tropine
▁gonorrh
▁expon
itic
hep
tizing
ostatic
▁solub
▁outlet
omyel
▁antin
prisingly
cemia
uronal
▁superiority
▁PDGF
idating
▁subcellular
▁blockade
▁acces
cyclic
ensitization
dial
▁prosthetic
rays
osage
▁triglycer
▁Multiple
▁xyl
rangements
▁diploid
▁leukocytes
▁screened
▁valu
trating
▁ethn
▁phosphor
otopic
medicated
▁salbutamol
▁kits
▁tryptophan
tropin
▁homogene
BH
▁repeats
▁Retrospective
▁hemodynamic
valine
▁vimentin
▁megakary
▁carbohydrate
edle
▁insertion
▁inability
▁angioplasty
"-
▁thi
trous
▁adren
glut
▁calculi
tryptamine
▁Increased
▁3.5
▁residues
▁carbonate
▁dendritic
OA
phyloc
▁polypeptides
▁percentile
angl
▁preliminary
▁53
▁schedules
eal
phor
▁medullary
▁2.8%
▁medically
▁hamsters
isol
(2)
▁dihydro
▁intran
30
▁Wistar
▁Ace
▁protr
▁Stimulation
.0)
olec
▁epidermis
▁ATPase
▁libr
▁radionucl
▁Therapy
tead
▁hyal
▁80%,
▁3.0
30,
▁phosphorylation
▁glycosyl
oscop
▁PGE
▁erythrocytes
▁prospectively
▁distorted
▁[3
▁yearly
▁isoprenaline
▁ovary
▁adip
-7
▁Prac
▁allergens
▁excretion
▁enteric
▁progen
jected
▁accel
▁ether
onam
▁tubules
▁stimulus
▁pulmonary
dibular
▁shunt
▁phosphatid
lude
-15
▁worsening
▁conformation
▁distinguishing
▁peritoneal
gol
▁91
▁sutures
▁PGA
▁apparatus
tiv
▁25,
▁simplex
lycerol
uitable
5'-
▁embryo
exercise
azem
.6%
orbent
▁specialty
▁0.89
▁cytometry
▁11.5
▁simulated
▁Dys
▁tryp
enters
▁irritant
▁discharged
▁inactive
▁quantif
odon
genital
▁responders
uccin
▁abnormally
▁Absolute
▁thresholds
▁adherence
▁47%
truc
opeptidase
ressive
]-
▁DSM
2(+)-
▁sexes
▁estrogen
▁concurrent
etan
erin
▁TNF
▁0.33
▁neon
luent
assays
▁aneurysm
▁successive
▁stromal
▁tau
cutaneous
▁Improvement
▁exce
▁supine
▁subcl
▁inhibit
keleton
▁TSH
▁triazolam
▁thrombocyt
▁lesions
reactive
▁salivary
▁0.75
▁soleus
osacral
iflu
▁7.5%
▁olfactory
anking
FSH
▁inconsistent
essel
eration
▁challen
bral
anding
▁1.5-
opolysaccharide
▁mucus
▁229
▁investigations
-3.
▁sickness
▁piroxicam
▁Cardiovascular
▁meningitis
raine
Ni
▁atypical
▁0.03
▁hydroly
▁neutralizing
▁1/2
graphy
rotid
▁IGFBP
vular
▁inducing
opo
yel
▁malabsorption
▁ferritin
tabol
ximide
▁deduced
▁phosphates
▁(5.0
icidal
isal
imazole
▁hemisphere
erum
▁homogeneity
immun
▁distrib
▁incubation
▁epidemiological
ococcal
▁13.
▁ADP
▁implicated
▁innerv
▁kidne
dip
▁intravenously
erance
▁46,
odop
▁currents
olesterolemic
oprim
▁glyc
▁strep
▁infused
osts
monary
Daw
tic
▁20.
▁parac
▁Subjec
▁gastr
▁inflammatory
▁eti
▁reperfusion
▁naf
▁nitroglycerin
▁fertile
▁hypop
▁renders
cents
▁lutein
▁10.7
▁incomp
▁antibodies
▁restenosis
▁embryonic
▁menopausal
turition
dividual
▁gestational
androgen
▁9.9
tering
abain
▁Asp
▁cortisone
▁prosthe
vated
▁hypogonad
▁MAP
▁PAF
▁kinase
▁carbamazepine
▁dissociated
▁ampicillin
▁bronchial
leb
▁arachid
vation
▁weighted
▁0.7%
▁phosphate
▁13,
hyp
▁CsA
onad
▁DMP
idase
▁predictor
ischemic
▁affinity
▁Behavioral
▁sacr
admill
▁secrete
▁15%.
orphine
▁168
▁(3.0
▁inversely
assay
-12
alian
▁psychosocial
▁untrained
ygen
▁ablation
▁220
▁isoflurane
ocortical
▁hydroph
▁HSV
orec
▁83
▁ganglia
▁specifying
ituitary
ylcholine
▁irradi
▁antipsych
▁definitive
▁antich
▁headache
▁sedative
▁malaria
▁embolism
▁187
oate
▁eosinophils
▁xanthine
▁negatively
▁hepatocellular
▁ovarian
irradiated
rotal
▁neuroblastoma
▁eluted
▁Pseud
▁sensitivities
▁summarized
oxifen
▁recons
▁cysteine
ietic
▁Nons
▁regained
PGE
▁-2
▁thio
▁echocardi
▁neoplasms
serine
fiber
▁180
uracil
▁hydroxylase
▁hyperthermia
▁histologically
▁etiologies
▁leu
▁kallikrein
ergy
▁fibrin
vaccin
▁46
toli
▁qualit
5%)
▁synovial
roma
▁bir
ADP
▁chimeric
/9
imid
.9%)
zard
▁1.4%
▁25
-2
▁thrombin
▁oxidase
▁ligands
▁postinjection
▁NGF
zot
▁attributable
▁pharmacokine
▁thromboemb
▁guan
▁Immuno
▁progres
portant
▁aeros
▁0.17
-50%
▁neuropeptide
▁inflammation
significant
titutes
onide
angiotensin
▁prolif
▁Trial
ocortic
olestero
▁fetus
sess
approximately
zyme
osamine
▁erosion
▁0.86
ulsive
odium
ophageal
omotor
▁categorized
(1,
▁7)
ophysical
utyryl
0.8
either
▁carcinogenic
/4
24
▁NADH
16
▁(46
▁GSH
▁(150
gression
▁4.6
▁metabolites
▁antagonism
▁dispersed
▁trimester
▁centr
anavalin
▁sensitiz
▁hybridized
dens
▁1600
hydroxylase
▁(82
▁(5
▁hazard
ofl
▁bile
▁canc
▁fluoride
▁trypsin
▁IDDM
tRNA
▁ovari
itus
3%)
▁triglycerides
ophosphate
▁inappropriate
▁0.51
▁eluc
disciplinary
▁mating
▁14%
opr
ternational
-3)
TNF
▁indirectly
▁recurrence
▁thir
Hb
▁alterations
estim
yroxine
aund
albuminuria
▁(40
▁osteoarthritis
▁gonadotrop
▁PPD
deficiency
▁haem
fib
▁atheros
▁pulsatile
▁Forty
uestion
▁necrotizing
▁23,
▁ascorb
▁apne
▁microM
▁antim
rowth
▁dissociation
▁pharmac
▁encephal
ivered
▁OC
udin
irone
▁preferentially
▁erythromycin
▁58%
▁(76
▁xen
▁wee
▁HBs
odipine
▁rectal
77
▁neurotrans
▁Effects
▁2.5
0%.
iclovir
▁1988
osition
▁immunosorbent
performance
aryotic
tency
▁monocytes
ereb
phosph
orpor
▁seroton
quit
▁HBsAg
RNA
allik
▁memb
▁nephro
▁mediate
PPP
izine
orbidity
0%)
▁covari
▁203
▁immuno
▁0.000
▁0.88
acterial
jective
▁81%
aminoglyc
essation
▁endometr
▁progenitor
▁antidepress
oproterenol
olytic
▁reduc
▁inward
iscal
▁perforation
▁Groups
estradiol
▁embol
▁aerosol
▁trac
olarization
▁infrequently
▁positively
▁enroll
▁84%
brile
▁reticul
▁38%
amisole
▁daltons
▁fung
▁ligand
▁intrad
▁autonomic
▁2.5-
pecies
▁quantitatively
▁perinatal
-7.
▁extracts
▁1,2-
lobulin
▁HPLC
▁70
urgery
▁adipose
dine
▁ventral
▁wheezing
opar
▁palp
▁dehydration
▁supernatants
▁Tc
▁cadmium
▁nmol
▁cultured
yx
Hg
▁Elevated
▁carotid
▁commerc
▁2.6
▁Immun
2%)
operated
▁inters
▁unrel
▁influenza
▁patency
▁peripheral
eptid
epithelial
▁duplex
▁extraction
▁EGTA
▁hematopoietic
▁altering
▁plasminogen
45
▁Physicians
scop
▁fentanyl
▁tubule
▁insulin
▁gum
▁attainment
▁fibrosis
▁rigor
▁entero
carinic
▁1-3
▁antifungal
▁phage
▁ionized
▁homoz
▁dioxide
ulence
▁(67%)
illary
acin
▁proliferative
▁prazosin
▁detects
▁hemoglobin
reasing
▁21.
▁clinics
▁plaques
▁latencies
▁reti
▁manipulation
▁cycling
▁puberty
luc
TSH
▁166
▁LR
smokers
-1000
▁discontinued
olism
ods
otine
▁bovine
▁1.08
700
▁mitral
▁ana
tious
odgkin
acetyl
▁4.5%
▁(2)
▁anomal
▁Positive
ylyl
▁incub
▁bicarbonate
ulant
▁dopamine
▁hypother
▁resection
vents
▁precipitation
▁Nutrition
hig
loxacin
▁verte
▁modestly
▁(90%)
ocardial
ritin
▁deficits
▁deficit
umented
▁phenotype
▁clonidine
▁chond
ulla
ysm
▁extrap
▁resuscitated
itoneal
▁intraperitoneal
▁glands
rowing
▁30-
▁30
▁thoracic
▁behavioral
▁indicators
▁uninfected
ispanic
irradi
▁tibial
▁aspec
▁saturated
▁expressing
▁mutagenic
▁40%,
▁0.70
▁3
ioid
usp
athione
gluc
▁testes
4,
▁(72
5%,
occal
▁genital
▁22
adrenoceptors
onin
▁lupus
▁psychophysical
▁incubated
▁intraven
▁fas
▁iatrogenic
ungal
▁laminin
hips
▁0.97
mediately
▁carbox
▁intraper
▁NSAID
▁prostacyclin
▁glucocorticoids
▁DCA
GTP
▁pati
▁Relative
▁prothrombin
LPS
▁neonatal
▁islets
▁206
▁inositol
▁(16%)
▁(42
▁receptors
cephalic
▁ANF
dition
21)
utaneous
ocamp
▁aberr
luding
▁PGI
carbohydrate
▁alveolar
reening
▁inversion
infected
oglyc
▁relapse
▁0.15
▁panc
▁capillaries
2318
▁localized
tense
rocyte
gment
▁diazepam
▁encoun
ellar
▁mRNA
▁(7
▁Ninety
▁optimum
torchid
▁quin
▁messenger
/3
robial
0,000
▁axons
80
▁0.91
▁7.2
phosphorylation
▁adenovirus
▁outpatient
/12
▁cytoplasm
▁exercising
▁amn
▁hyperpolar
▁ligation
▁0.43
rance
▁sequentially
▁clom
▁plasmids
▁sial
illation
▁dietary
▁abd
▁CN
▁intracerebral
▁toxin
▁fluorescein
▁accessibility
▁adduct
▁occl
ronate
othelial
6).
▁anastomosis
▁extrav
▁0.7,
igenic
▁amenorrhea
gthen
▁cytochrome
▁quadrup
▁desensitization
limiting
osol
▁blotting
▁beha
▁mU
▁cofactor
organisms
▁MG
▁(38
▁washout
▁restric
▁(95%
▁anesthe
razole
▁polyacrylamide
▁amyl
▁lymphokine
oea
▁38
feron
▁NR
▁subtype
▁TP
▁bran
▁selective
apeutic
adrenergic
▁TCR
eradish
timal
heximide
▁0.29
▁resear
▁spontaneous
uccess
▁precipit
▁colonic
▁alteration
18,
anol
endi
0%),
▁neonates
▁Neuro
▁139
lyce
▁necrosis
ococcus
▁cefaclor
▁ewes
▁acad
uscular
otrop
▁ranitidine
6/
▁Caucas
ocardi
/10(
▁illus
▁unipolar
▁endocrin
▁hormone
▁serotonergic
▁suspensions
▁glucuron
quired
▁pancreas
icillin
▁granulocytes
▁retur
CRP
▁methyl
▁multivariate
▁selectively
tization
▁predominantly
-2-
▁Seventeen
erox
▁congestive
▁histology
▁1969
▁EBV
▁prescribed
oag
ystag
▁specimen
gA
▁displacement
meter
traumatic
▁prolongation
▁42%
▁adhe
prin
▁stools
▁discus
flammatory
inopril
▁immunoprec
▁CRP
eptides
▁isoproterenol
▁advan
roph
▁crossover
ermal
icardi
▁casein
▁normotensive
▁regimens
▁3.6
▁60.
visc
clerosis
▁connective
▁immunore
▁Chan
antigen
▁151
▁79%
▁postin
▁mucin
▁11.
▁mellitus
anin
▁periodontal
hydryl
▁caries
▁catecholamines
▁hepatocyte
▁disulfide
▁Higher
oA
imeth
▁142
▁epsilon
aicin
prising
▁hyperbil
▁homogen
▁astro
65
dural
▁wards
uted
▁Tolerance
▁hypothesized
▁20,
▁labelled
▁adjus
▁5.
▁malignant
Cy
▁transloc
▁respec
upuncture
▁adulthood
▁prostatectomy
▁TC
▁codeine
itudinal
▁oscillations
monella
▁Insulin
▁silic
▁ile
onium
▁curric
PAP
▁fluo
▁0.8%
iatric
▁suppressive
illus
ococci
ietin
▁pla
▁264
▁7,
▁endonuclease
▁deletion
▁20%.
▁0.44
▁enrolled
amycin
salt
phen
fir
titution
▁contrac
▁221
▁deform
▁insufficient
▁Subcutaneous
rotein
▁immunos
▁endothelial
MW
HDL
▁213
▁arrhythmic
▁ejac
cortisone
mediated
▁brom
▁Severe
▁definite
▁segreg
roximately
▁poten
▁prolongs
▁adipocytes
expressed
▁protons
▁dissec
▁Afric
▁identif
▁mortality
plementation
▁alk
uin
▁oste
▁50%,
▁disturbance
▁coordination
▁cows
70
▁statis
olipid
▁5.0
▁discom
letion
astolic
▁pituitary
▁ABR
▁trachea
▁doxorubicin
dihydroxy
▁preserving
▁apolipoprotein
▁hepatotoxicity
alic
embran
imethyl
8)
▁gels
▁spermatozo
ystokinin
▁clearance
conduc
21
▁demonstration
▁Hep
▁nicotinic
dent
teryl
▁nadir
acting
onas
▁previ
▁cytoplasmic
▁muc
▁Cul
tested
/7
▁carbohyd
▁moiety
certain
▁diarrhea
▁halves
▁33%
▁tumour
trogen
xime
.7%
▁sati
▁IGF
▁hypertrophic
ritish
▁horseradish
▁linkage
▁audi
▁hepatitis
▁lysosomes
rinary
▁calcified
▁microb
▁angiography
▁ammonia
▁10%
lies
olig
▁necro
udation
reases
▁hypercalcemia
tumor
▁Neurop
▁oxygenation
.00
azepine
▁specimens
▁disruption
▁Inte
▁accelerated
wes
opathological
▁mammalian
▁allogra
▁taurine
▁196
▁forebrain
90)
▁(24
ochle
▁defec
▁MCF
▁hetero
▁thrombotic
▁pressures
hern
▁dysfunction
▁rhinitis
eminal
▁thrombosis
mend
ayers
cellent
▁corpus
▁45
helin
thre
▁reserpine
▁0.001
propyl
oretically
trig
▁multicenter
▁rhabdomy
pregnant
▁GER
▁chec
▁echocardiogram
carbox
▁corticosterone
▁glomerular
epines
▁scarring
▁Plas
▁precordial
activated
▁refrac
bility
▁nucleotide
▁lep
▁cef
▁ae
95
▁10(
▁nonc
66
▁monol
▁32%
▁57%
▁3-
▁internally
▁Sprague
chlorothiazide
▁overweight
3-
▁Differences
▁intermedi
▁bene
▁(13
▁ach
▁yielding
▁indefinite
▁remo
▁sorb
▁stationary
Gly
-50
▁atri
omn
ameth
▁adop
esti
▁accumulated
▁154
▁30.
trac
▁thyroiditis
IGF
1).
▁60
arous
▁crystall
ulae
motor
▁proteoglycan
▁spectroscop
▁messen
▁chicks
▁musculoskeletal
▁antigenic
130
▁polymyxin
▁hCG
▁supernatant
odiazepine
TPA
▁pectin
armac
▁(1.6
heat
▁Calc
▁hydrox
▁persistence
indings
acental
▁115
▁cathe
▁hemorrhage
▁determinations
▁excluding
Ts
▁lumb
tide
uble
yclic
▁secretory
▁autosomal
-70
▁endoscopy
4%
▁HM
▁reversible
▁41%
▁transmembrane
▁80%
▁promptly
▁17
▁limbs
▁2.3
/8
▁Tran
hepatic
▁pacemak
tural
kelet
-8,
labelled
peak
ocomial
▁epithel
▁ulcer
ogenesis
▁grains
▁5.3
FGF
ration
▁(23
oagulation
▁glial
▁constric
chlor
▁30,
▁provoke
▁vitro
▁molecule
▁esters
▁unaffected
tolerated
▁chromosome
▁ANP
cellular
▁tamoxifen
ropine
▁resistant
urane
aminase
▁degeneration
▁glucocorticoid
▁aro
▁irrever
Nase
▁densities
▁recombination
xate
▁reconstituted
▁secreted
▁NIH
pressure
▁OD
pregn
obl
▁1.5
stro
1%
▁myeloma
▁redistribution
▁urticaria
▁clon
▁(5-
ardized
▁acyclovir
▁glomer
▁scre
▁converting
▁cellular
▁accessory
▁DBP
▁uncoup
▁mesangial
6,
imens
▁desatur
EGF
▁Animals
▁cyclosporine
▁dissection
▁augmented
▁congenital
▁19
parathyroidism
tomas
▁hepat
▁sphinc
▁implanted
▁trabec
▁subtypes
itum
duction
vul
▁doses
▁4.4
▁fractionation
olol
▁keto
▁ect
▁pM
▁MBP
heres
▁Maximal
loid
▁Phy
▁fractions
▁gm
▁hypothesize
acted
aturity
imentation
▁[1
▁circumference
ocaine
-3.0
opha
▁Km
▁NP
▁44%
▁semen
▁saline
assium
▁(5%
phot
▁reper
ichia
▁foci
▁4.2
▁Evid
▁bup
▁overe
▁31,
subs
▁terat
▁marginally
▁alleles
▁amygdal
xone
▁actu
▁ascer
▁Significantly
▁enalapril
▁arti
▁Systolic
calor
▁acceleration
▁undetected
▁chromosomal
▁hematuria
▁(1000
IIIa
blocker
rometry
▁occurrence
▁cortical
moid
▁8.4
romycin
▁Lym
▁hairy
ganglionic
0.3
▁130
bacco
.8
▁6,
oneph
▁stimulating
▁Leydig
▁topoisomerase
▁rati
▁preschool
particularly
isolated
▁11.0
▁spermatozoa
▁3'-
▁homolog
▁titer
-2).
actin
▁coli
▁particulate
tinguishable
▁initiate
SOD
▁respir
▁HF
▁solit
▁14.
▁reflex
lated
hydroxy
▁baro
-3,
8.
▁possi
▁(92
▁superoxide
oxetine
esophageal
▁collagenase
▁spikes
▁glut
▁7.8
▁scinti
uron
4)
86
▁600
▁MM
▁naloxone
▁traum
wk
osylated
▁59
▁inhibited
orphin
▁frontal
▁0.2-
▁Consequently
alact
peptide
▁dialysis
▁10(-7)
anesthetized
stem
▁Pseudomonas
▁4000
ATPase
ylephrine
rozen
▁elic
▁uter
bred
▁185
▁stimulation
.0,
dipine
▁vascul
▁potenti
▁confounding
▁thromboembolic
containing
▁diarrh
▁implantation
▁0.016
▁ciprofloxacin
romyces
▁thalamus
epam
▁200,
▁ischaemic
ductive
▁exclusion
▁nucleoside
▁anticholinergic
▁yeast
▁visualized
asic
ardias
▁MAbs
▁divalent
▁transthoracic
▁biop
▁transluminal
▁1991.
▁Prol
▁Intracellular
55
▁prognosis
▁purine
▁268
▁renin
▁collic
18
enic
▁52%
▁inflamm
ulitis
▁trigg
▁conclu
▁electrolyte
▁paren
▁formulation
▁carbam
estion
▁physiological
▁depolarization
▁PRL
▁0.49
enriched
▁exer
▁(10.
▁infrequent
▁kDa
▁308
▁Triton
▁preincubation
▁Intra
asses
▁(1,
Lys
oblast
▁fertilization
ffer
TG
▁exud
ohyd
6%
▁luteal
toxicity
▁alopecia
gangl
▁esterase
▁VIP
▁anat
▁clinically
▁clinician
▁substitutions
▁orthoped
concentration
oglobin
▁hypot
produc
tir
▁abduc
▁Breast
▁enhances
▁prostaglandins
▁neomycin
toxin
regn
▁infectious
▁contral
opause
▁vertebr
fibr
biotic
▁cephalosporins
▁defects
usate
140
tative
▁hybridization
▁fluores
tration
▁afferents
▁hippocamp
▁88
▁chickens
▁1%
▁0.63
▁conjug
reness
thirds
itonin
▁clomiphene
▁256
▁histological
strain
13
opi
ronectin
▁isolate
▁internalization
▁Smoking
▁musc
thrombin
▁leukocyte
▁intrav
▁(93
▁caffeine
kinje
achn
▁anteced
aminated
▁neurological
▁stenosis
▁mell
▁cumulative
EG
pendent
▁carcinogen
ths
▁undere
▁58
▁lifest
▁synthetase
▁peroxidase
▁28
Gs
1-1
▁homogeneous
▁provid
luded
▁reinforcement
dor
▁apo
▁pentobarbital
feeding
lamin
▁dilution
▁1991
leucine
ecal
▁Bacter
▁mediated
▁emo
roscopically
▁Prevalence
▁autoradi
▁sequenced
▁deposits
▁ibuprofen
▁SIDS
▁neuron
▁anatomic
▁TCA
▁immunologic
IDDM
ompan
▁aggres
urther
▁iodine
promoting
▁183
dR
ystic
▁structurally
▁1.5%
▁derivatives
ulators
corrected
▁complication
▁neuronal
▁herni
andida
▁initiation
ogenic
▁minus
uates
▁squamous
osteroids
▁(26
▁abnormalities
▁0.001).
▁exis
▁elast
▁adjustment
▁monit
▁septum
▁Centers
esium
▁tas
▁diagnos
▁ischaemia
▁erythema
inergic
phosphon
▁usefulness
perfusion
restricted
7-
merc
ventive
icardial
ocar
rected
▁UT
▁cotrans
tant
▁enal
▁yohimbine
5-
ygous
▁Intr
▁degrad
▁leukocytosis
▁polycystic
▁84
▁venography
4;
▁239
omyces
▁excreted
tries
▁ventilator
▁granul
Cu
-45
58
BV
entia
▁fenoterol
▁immunoglobulin
▁docum
ilol
▁0.3
▁calor
▁mediating
receptor
▁follicle
▁5
▁Lactobacillus
▁waking
venty
esin
34
urk
▁gases
▁8.6
▁pI
▁absorpti
▁abnormality
▁coenzyme
▁relevance
▁inspiratory
▁junctional
▁14.5
▁Beta
omethacin
▁pacing
1:
▁locus
roitin
▁hyperg
▁prenatal
omann
motic
▁cytokine
▁pHi
▁progesterone
▁subsets
▁ICP
▁3.5%
▁effic
▁diagnose
▁ions
oxane
▁bony
tinent
▁whey
carbon
tribution
▁spirometry
ionine
opathic
▁surgical
▁26
▁tracts
▁ecological
▁oligos
CDD
▁glycer
▁judged
induced
nine
▁paroxys
▁newborns
▁retrospectively
▁10-
▁substantia
▁follicles
lusion
renaline
▁prescrib
ibrate
▁Fourteen
▁diges
▁toxicity
▁2.7
tivities
HF
himbine
▁WHO
kephal
▁soy
ogra
▁24,
othiaz
▁0.8
▁Golgi
▁Incidence
▁Infants
amental
▁trichloroacetic
obacterium
methionine
bic
▁ket
xia
0)
▁cate
▁postsynaptic
cein
▁hypoglycemia
▁(197
▁aids
▁bip
iparous
tized
▁cigaret
4.1
▁luminal
▁motoneurons
▁182
▁veins
▁saturation
▁recruited
▁randomized
▁atyp
etaz
▁tran
▁000
▁165
ventil
erge
▁algor
▁1,25(
dic
anserin
▁Phe
▁perc
▁Drosophila
▁hereditary
▁(84
▁precur
▁hepatotoxic
ometrial
▁leukemia
▁schizophren
▁phi
▁modifying
terologous
▁cleavage
ardia
▁arteries
conjug
▁10
▁cations
kelihood
roxen
▁isolates
▁satis
idation
▁ferrous
occus
▁0.14
consuming
embrane
▁transcriptional
▁functionally
▁smears
ogeneic
▁NMDA
thrombotic
gulation
-1)
cus
generation
▁abor
▁disadvantage
▁Comparing
▁Radi
▁LC
▁amylase
▁herpes
acet
Fs
▁0.09
charged
oinositi
5),
▁adrenoceptor
ospasm
▁staphyloc
▁colonies
▁granulocyte
phadex
silon
uprofen
▁transplantation
chicine
▁tiss
ygotes
▁hered
▁antic
▁Reduction
nary
/-
▁dyspnea
▁horiz
▁56%
▁78
(3
▁Neu
coronary
-65
tib
lowering
▁capillary
tance
▁amino
▁hemo
▁substances
▁monos
▁0.2,
▁pathologic
oskeletal
▁trimethoprim
▁10)
▁233
atinine
▁1)
▁293
amel
tened
▁bif
▁macrophage
bran
▁symme
▁exhibits
▁heparin
odds
ominant
rested
▁eryth
▁chloro
▁microscope
▁reflec
icides
▁AChE
years
▁mammography
yocardial
▁unex
pli
▁(28%)
▁bioavailability
▁interv
▁VO
▁durations
▁iso
-4)
gestrel
▁ECGs
-100%
▁anxiolytic
▁developmental
▁mucosal
2]
▁0.36
(2+)-
8%)
▁onset
▁covalent
▁corneal
▁persist
▁produc
▁avoidance
piration
▁motif
▁elong
▁cloning
oic
63
▁0.77
▁stringent
▁menstr
▁amygdala
urrent
▁22%
▁synergistic
▁retinal
traum
▁polyethylene
▁7%,
▁Feeding
6.
▁(0.9
istal
-11
▁Scale
▁Surve
ocyan
▁lysates
▁adjusting
▁decayed
▁dorsal
▁pathology
▁270
▁accounted
▁nylon
▁cirrhosis
▁78%
▁monkey
5,
▁gastroenteritis
blind
▁fibronectin
altered
plemented
▁-0.6
▁determinants
▁AII
▁confirms
▁depolar
▁varic
itance
▁hypocalcemia
▁comple
▁0%,
measured
0),
▁(17
cad
enoic
▁Tumor
partate
▁progeny
▁eccentric
▁resis
ucas
irc
▁Gonad
▁NaCl
▁15
hetamine
▁reproductive
adm
▁pathological
uvant
arrh
▁gluten
▁suppression
▁AIDS
athered
87
▁acne
▁73
▁fractures
▁cyan
operoxidase
▁sampled
educed
▁69%
▁methodology
▁kD
▁Haemophilus
▁strokes
cholesterol
▁corticos
-4,
▁cytokines
▁1.1
omatous
iasis
▁hyperther
▁7.3
▁appendic
imurium
▁(41%)
▁10(5)
▁adjustments
▁susceptible
90
▁promo
idis
▁97%
formations
▁inflamed
▁43,
▁Salmonella
▁hemorrh
organic
▁82%
▁13.3
reased
astom
glucose
▁genotype
▁lytic
rophen
▁1.
▁intermediates
oreg
▁thiol
▁axon
▁satisfactorily
▁albumin
▁immun
atoid
onstric
ophys
molec
▁Subjects
osyl
▁solubilized
▁umbilical
▁RA
▁aerosolized
▁73%
▁crest
▁sugars
yrib
▁retention
▁Tn
-16
▁0.41
apanese
opamine
operox
▁epithelium
▁HTLV
adjusted
▁endo
▁.1
▁Ia
▁fibroblast
▁intranasal
▁106
▁colitis
ontal
▁pharmacy
▁candidiasis
▁0.46
9)
▁32
▁dyst
▁arterioles
utable
76
▁forearm
▁propor
▁0.06
▁synov
comitant
▁Recurrent
.4%)
▁500
▁Indi
▁39
ocrit
otides
yronine
▁ODC
▁breaths
iazide
carb
▁aberrant
erable
dihyd
encephal
illar
▁biochemical
toxic
▁cardiopulmonary
▁8.2
▁premenopausal
▁microscopy
▁detrimental
versely
-30
▁differentiated
gag
ecu
▁enl
.9%
▁smear
▁pyruvate
▁189
▁stimulate
▁transported
▁cyclo
plants
▁eosin
▁metabolic
sial
▁bic
▁biosynthesis
hemo
▁IU
olesterol
▁gastric
▁18
▁cyclical
▁potentials
pinephrine
▁135
▁targe
resting
9,
▁prolonged
othi
▁transforming
▁muta
▁hypothetical
▁(1)
▁3)
▁duplic
▁dye
oppler
▁omega
oceptor
pA
▁MAb
▁Initi
▁eicos
haled
▁intrac
▁0.1,
zine
▁Electro
hydrop
▁30%.
purified
▁isomer
▁preferen
▁attitu
▁111
▁endocardi
▁fibrous
▁abundant
▁6.8
▁torsion
amino
▁13.9
ovis
iline
▁adhered
▁(56
▁naproxen
▁3',
▁parat
ureth
uclear
▁proteinase
▁instrumented
▁ACTH
▁Purkinje
▁promoter
▁-0.7
ritic
450
▁observational
▁Screening
oste
46
▁440
esides
▁mercury
Ds
▁polyp
▁anaesthesia
▁deliveries
actam
▁0.05)
▁tryptic
▁competence
▁cloned
agic
HV
odil
▁clus
1-
▁fluctu
ariate
▁(12
0.6
2.
11
▁bism
stimulated
▁qualitative
▁24%
0.
▁nontoxic
ditions
▁ischemic
rever
▁prednisolone
▁antibiotic
-90%
▁excitatory
▁100,
▁tolerate
▁prevalence
▁chemically
▁favorable
▁lor
▁12.0
▁shear
▁metoclopramide
▁enzym
▁counseling
▁extrac
▁sheath
▁aspartate
▁gastro
▁myo
adequ
▁stren
900
enicillin
▁cardiovascular
▁undertaken
▁infar
▁tubular
▁hypothal
cribed
ospitals
▁EI
fetoprotein
▁nude
emetic
▁correlated
odic
phasic
▁abrup
ensory
▁wean
▁2.9
hap
▁(10(
kinin
▁maternal
▁-0.5
▁glucosamine
▁condensed
▁genetically
▁schem
▁lith
▁covariates
▁junction
▁280
ximal
▁chromat
▁femoral
atest
▁enriched
52
nisolone
▁5.9
▁artifact
PRL
▁nm
Sepharose
▁socioeconomic
▁allergic
▁lisinopril
▁chemot
ovalent
▁resec
vival
▁cyt
eeding
▁5%
▁ori
▁beads
▁retrograde
▁quanti
▁uv
fusion
▁CIN
chers
▁myel
▁13
▁plateau
planted
▁lamina
anate
▁resour
▁avian
▁joints
▁metoprolol
▁undergone
cysteine
tase
▁0.64
▁decarboxylase
▁0.02
▁80.
▁argues
▁perfused
labeled
etus
▁suscepti
▁VV
umping
▁spati
▁lumbosacral
ameters
selec
ropyl
tices
▁Factor
respective
▁intramuscular
clinical
arcin
urys
ylamide
▁ofloxacin
▁threefold
▁hygi
▁reductase
atonin
▁deoxyrib
patients
▁atopic
pir
▁studi
▁thromboembolism
▁Engl
anthine
▁arterio
▁Kine
▁0.48
acerb
79
▁chromosomes
▁192
▁shortened
ustif
-20%
iagn
iological
seud
TGF
▁splenomegaly
▁0.001)
▁drainage
eric
▁duodenum
▁parasite
▁Hz
▁cosmetic
▁ulnar
▁spor
▁4-5
psin
▁136
▁0.7
mTc
▁nuclease
▁precursors
▁0.42
▁resorption
▁Oste
tec
▁maneu
omiting
4]
apine
▁8%,
herence
▁lis
▁downstream
▁attained
▁constriction
▁enzymes
▁11-
arean
▁reacted
olamine
osocial
▁3.7
aemia
erally
roscopy
▁antenatal
▁cholinergic
▁lysine
mum
▁6%,
opathy
▁(0.4
0%,
ffin
▁eradication
▁pharmacists
▁streptococci
▁CAD
▁slices
▁rup
▁airway
-]
▁CABG
▁LT
▁mediators
▁137
thmias
▁(27
▁35%
▁subcutaneous
1);
urium
▁sca
▁exponential
promazine
▁Increases
▁simultaneous
▁preceded
▁72
▁fati
▁quantitated
invasive
▁melanomas
▁amel
▁Measurements
tococcus
▁leakage
rosis
thel
▁nonsignificant
▁Evaluation
oconstric
▁extre
▁compressive
odopsin
▁42,
▁translocation
▁globulin
▁yielded
▁62
▁hyperp
▁heavier
▁EA
eces
▁improves
7).
sors
▁lamb
▁5)
ympathetic
▁metast
iability
▁cytotoxic
50)
▁infertile
▁stratification
▁109
▁captopril
▁worsened
cine
▁0.55
cellulose
fts
urate
rostagland
▁350
▁assays
▁androgenic
▁Prel
indol
▁CG
▁hematoma
▁rats
▁folate
entile
▁pneumococcal
▁thiazide
▁radiolabeled
▁phagocytic
▁potent
▁2000
▁cran
▁immunotherapy
▁NADP
▁10.5
Tc
exchange
▁angiogram
ecre
▁36
aginal
.4%
▁(100
▁Leu
▁suction
▁Sensitivity
7,
▁Clinical
▁cereb
▁spinal
strand
0.9
▁compe
▁impairment
▁phon
.5
▁Thirty
▁preventive
6),
distal
onyl
ergency
osid
tigu
ipit
▁prescribing
▁catecholamine
▁histochemical
▁pineal
oactive
arginine
▁cutoff
▁imipramine
othyronine
▁diaphragm
▁fertility
▁desm
inephrine
vely
SBP
▁physiology
▁hyperthyroidism
trate
▁isometric
▁coordin
▁RR
▁correspondingly
▁0.50
▁twitch
fine
▁intercellular
▁propionate
erent
▁termination
▁coagulation
2;
▁selectivity
▁deficient
owel
▁expres
erative
▁numb
▁immunocyt
▁NAD
oalveolar
▁mandibular
▁efflux
tives
▁proceeded
▁critically
▁anxio
▁myosin
▁covalently
ymptom
▁elongation
▁phosphorus
▁schiz
eptidase
▁illnesses
inemia
sue
▁Specifically
▁intrauterine
▁lam
▁sexually
▁conflicting
adder
▁4%
▁spindle
resist
glutamyl
troph
▁electrom
continu
▁euk
eptide
▁seronegative
▁enrollment
▁340
overed
▁atherosclerosis
lax
▁kine
ocyt
▁mucos
▁tuberculosis
aryngeal
tation
▁recruitment
regulation
1.
azolam
▁antipsychotic
echanical
▁transmitted
Bs
▁creatine
▁saphenous
▁unde
▁0.25
▁Risk
▁genit
▁adequ
▁mec
urrence
▁AFP
▁98%
▁Sertoli
▁neurob
uting
drug
▁transfusion
▁cyc
▁amput
▁0.30
inyl
molar
▁ethyl
▁aspiration
vic
chol
EAE
▁encomp
athetic
▁anhydr
14
avage
▁virtu
RIF
▁noninvasive
▁depressive
urine
adecanoyl
▁arteri
▁sci
▁GFR
titis
▁convul
▁parity
25,
▁mimicked
▁contracep
▁rabbits
chool
▁outflow
▁responsive
tite
▁occult
▁bronchitis
▁bactere
▁vancomycin
▁6.5
▁withdrawn
▁contiguous
▁mutant
▁emboli
atories
▁reser
olam
▁inactivation
▁Hodgkin
▁10,000
▁adrenaline
obut
▁flexor
▁parame
▁comprising
conjugated
tetra
EMG
fate
ropha
gth
▁glycine
▁paraffin
Mg
iloride
▁155
▁extracorporeal
april
▁calorie
gents
▁encephalopathy
▁morb
▁ester
lycemic
▁apical
▁lovastatin
▁amine
hydr
▁justif
▁17-
▁differenti
▁pea
plas
erican
▁aluminum
▁buspirone
▁immunized
▁pector
-60
▁0.6
phosphor
▁93
effectiveness
acycl
▁DD
▁rRNA
▁89
olated
▁predominant
umetanide
▁thickening
▁ductus
inum
▁fulmin
cessive
ureus
▁attrib
▁modulate
▁nitroprusside
▁neuropsych
▁carc
-600
clic
▁radionuclide
-32
▁enteral
▁eosinophil
▁encodes
▁10(-4)
dle
osin
▁DF
▁insom
▁plaque
severe
▁irradiated
ntolamine
▁enlargement
▁pups
lymph
▁mV
loidy
▁institu
▁satur
▁dermal
▁14%,
▁197
▁protease
▁carbachol
▁preferential
flamm
PCR
▁skeletal
▁interferon
cious
▁FSH
▁9.7
ectom
minis
▁spleen
▁ribonucle
▁randomization
ophilus
-90
▁buc
▁EG
triphosphate
▁hydrophobic
▁septal
ophren
▁anaerobic
unar
▁derange
amyl
(+)
▁ESR
rele
▁injections
▁enlarge
ipril
▁intractable
▁mononuclear
▁tracer
dU
▁periv
oxazole
▁recurrent
▁glycol
aryng
sies
oplasmic
▁heavi
anic
▁frac
▁instrum
▁additive
▁pulmon
▁cerebellum
olones
▁denaturation
opramide
▁ultrason
▁inten
atation
▁71
acquired
▁Acute
▁237
▁nore
▁phagocytosis
mentation
▁hepatomegaly
▁2.3%
▁0.90
▁bathing
▁capsules
▁lysis
▁microscop
▁sympathetic
aternal
▁cartilage
3.
▁vasodilator
ordance
▁5-
▁76
▁retinopathy
96
▁interfer
▁isoform
▁degen
rates
ulmonary
74
vus
osidase
▁hypotonic
▁51
▁congestion
▁typhimurium
idic
llate
trover
▁54%
▁carbonic
▁infarction
availability
▁immunogenic
▁targeting
▁3).
▁Pt
▁vaccinated
oprolol
▁Mild
▁probes
nitros
icine
▁clindamycin
▁proce
▁Mortality
▁transient
opsy
▁0
▁Increasing
▁polysaccharide
omatic
-35
onary
thromb
▁posth
immuno
-5.
sus
▁Respiratory
▁quiescent
ropathy
▁hydrop
▁cG
▁deprivation
▁appra
ivary
▁natriuretic
▁(2.5
▁caloric
▁multic
galy
ecretory
▁mobilization
achid
▁histopath
▁10,
adrenaline
▁adenocarcin
ostr
▁deli
▁90%.
▁(7%)
▁selec
▁dihyd
ameter
▁thymidine
tics
▁0.26
22
systolic
iesis
▁13.2
atell
mide
▁199
▁syphilis
▁occluded
coated
linking
▁2.4
▁inducible
▁transferase
▁referrals
▁TRH
▁clamping
▁regulating
-5-
igand
idne
oclonal
exin
▁elu
▁glycerol
▁haloperidol
abd
▁hepatocytes
▁oocytes
umerous
-1
▁EMA
placebo
▁60-
▁normo
spectively
osterone
▁reversing
ncy
▁0.67
terase
▁arose
▁infants
yridine
▁nonex
▁Laser
▁postmortem
adenosine
Ep
.1
▁2/
derived
ritis
▁reflexes
▁deox
ofib
admium
▁Ringer
▁similarities
anine
otoxin
-14
apamil
▁1985
▁reagent
▁4.8
▁phenotypes
▁RNase
▁76%
▁pim
▁chromatography
▁severity
▁stimuli
▁morphologically
▁infarc
27
Cer
valvular
▁Subsequent
▁malignancies
▁stratified
▁latent
▁retinoids
▁elevating
▁2.2
▁esophagitis
▁nifedipine
onvul
trypsin
▁inhalation
▁0.0
▁labial
edocromil
▁meperidine
oflurane
▁uniformly
upus
coh
14,
▁exert
▁visualization
▁favoring
▁125
29
osynthe
▁phenomena
▁29%
teroid
▁Doppler
Hyp
▁10(-5)
enteric
tition
▁singlet
▁glycoprotein
▁252
eared
atab
opres
▁transporter
▁amniotic
▁uric
▁splenectomy
asone
▁seizures
▁Preliminary
tructive
▁aden
▁ald
▁grafting
▁jaund
15
103
▁0.76
▁allergen
▁0.08
ochrom
.2%)
▁17%
▁UDP
sities
▁leukotriene
2.2
tein
▁19.
▁disappearance
ticular
▁parenteral
▁elastase
▁21-
▁arous
▁sepsis
choles
aemic
▁51%
▁recombinant
▁0.005)
uresis
resid
▁alanine
▁manifestations
erated
▁referral
▁affinities
▁outgrowth
▁allograft
▁bloc
▁Specificity
ipro
▁alkyl
▁ulcers
▁sclerosis
odine
acids
▁diarr
lix
itively
-40%
ophils
▁AUC
▁ECG
polar
duced
▁sedimentation
tingu
▁uterus
ethanol
▁gp
early
▁overlapped
▁instruc
otin
hospital
▁PB
▁electrocardi
▁catalase
▁tumor
▁hypoxic
adin
▁underst
▁Differen
-4-
uginosa
▁endometri
▁differentiation
vaccinated
▁cholesterol
▁172
▁5'
▁adrenergic
51
Ala
▁PBMC
oligo
▁traction
▁enhancer
oxide
▁encompass
▁auditory
atrial
▁aerob
4),
yron
▁colectomy
▁basolateral
▁concomitant
rosine
▁prevalences
pine
releasing
▁fibres
▁synapses
yrate
dehyde
▁dus
▁malignancy
97
ovirus
urgical
▁synthase
▁longus
▁analges
affin
▁9.5
▁kary
endocrine
▁bilirubin
▁quinolones
wenty
ifugation
▁TB
▁19%
▁Bac
00,
▁metronidazole
▁autoanti
▁divertic
▁anticoagulation
▁anatomical
▁proteins
▁stimulated
8]
ingers
▁GnRH
▁(1).
▁topical
plasia
▁228
ionic
▁galact
rolase
▁acr
▁86
▁obstetr
▁gamma
▁(12.5
▁disapp
▁melanoma
▁antibody
▁deficiency
vix
roline
▁70%
▁chondroitin
▁Injury
▁0.5,
▁Pregn
▁intensities
▁purified
tive
▁186
▁diclofenac
phosphamide
▁organs
▁immunocompetent
tively
fraction
▁lipase
himb
▁postoperatively
idin
amus
▁90%
▁(21
▁instability
roxim
achol
sAg
▁histamine
▁physicians
▁peroxis
estis
tetr
(4
arate
▁parenchymal
mol
▁putative
▁activating
ughter
▁0.001),
ller
▁calmodulin
chloro
▁oligonucle
onomic
▁circumst
▁radicals
ensitivity
▁neutrophil
ecia
iminary
▁creatinine
▁transcribed
▁67%
▁mitochondr
epsia
▁exerted
▁bulb
▁trig
phenyl
farction
▁drinkers
otriene
ventional
▁Caucasians
▁incomplete
economic
▁Caucasian
▁nicot
▁(0.5
▁oncogene
acr
▁70%.
Gy
uccessful
▁recor
eded
▁pediatric
53
hydramine
▁12.5%
▁criterion
▁25%.
▁GH
▁glycosylation
▁erg
▁influenzae
▁molecules
▁psoriasis
▁concom
ithelial
▁chl
▁chloramphenicol
▁unsuitable
▁prospective
▁sph
▁obser
▁myeloid
lux
▁substrate
▁12,
timulus
▁tymp
sulf
valence
▁CVD
▁UTI
▁antiser
▁phosphorylated
tenti
▁cephalosporin
GABA
▁0.82
▁alb
▁implic
ensities
▁2
mur
▁transfection
23
▁(58%)
▁16,
▁contamin
▁enrich
▁PGF
▁absorptiometry
▁capsaicin
mortem
ometri
▁intraoperative
▁antidepressants
tenolol
▁osm
troduction
▁prostate
▁6.7
▁ankle
enopus
▁(25
▁murine
soluble
▁0.84
▁recipients
gland
▁proteinuria
▁thirds
▁cysts
▁unilateral
▁80
aryl
vaccination
reported
akary
tage
▁ech
▁hygiene
HN
tonic
-13
weekly
▁irregular
rangement
▁344
ogenously
110
▁nip
ANP
esic
▁HCO
heal
▁rejection
▁abl
phal
idol
roprusside
▁dextro
brom
vascular
-24
▁difficul
2+
helial
▁vitamins
rofen
LV
physe
▁endarterectomy
▁regurgitation
▁DH
▁hypon
opressin
▁migraine
sant
▁glutamate
opulation
▁18%
onucl
▁91%
▁vaccin
50,
▁RIA
▁1.6
▁monke
▁interrup
▁sigma
▁RP
▁1500
▁sediment
▁contras
▁(89
▁tendon
▁benzodiazepine
▁esophagus
openia
▁truncated
-19
▁1-2
▁52
▁MMS
▁derm
▁proteolysis
▁77%
▁erythrocyte
thmatic
idated
▁hemisp
▁MV
inositol
kD
phine
4-
▁infarct
▁proton
▁diame
glyc
▁bacteremia
▁kappa
▁Treatment
▁restor
▁helical
▁GABA
▁vaccines
▁Americ
▁adenylate
4,5-
veolar
orated
▁spacer
▁collec
▁astrocytes
tur
▁blockers
▁renovascular
+)
-1,
▁systolic
▁bp
oselective
▁nicotine
▁fractional
▁efficacious
▁opiate
azol
ocys
▁inotropic
▁(4.0
▁equilibr
▁dehydrogenase
▁177
▁CAL
26
▁1984
▁hemorrhagic
ectomies
methyl
ymme
plast
ylline
arrhy
▁eradic
▁vasoactive
dyle
▁108
cycline
▁microliters
▁sulfoxide
bilities
▁idiopathic
▁140
▁elimin
▁rhe
amilton
▁glycoproteins
88
▁Doses
▁fluorescent
▁10(4)
▁testosterone
▁sedation
▁persistently
▁97
galactosidase
▁8
▁Conventional
▁implant
Ox
▁hypothe
bac
▁0.02).
enec
tochemistry
▁titrated
▁prodrug
▁1,25-(
▁Transi
▁hospitalized
▁8-
aturia
▁clot
10-
tate
▁evaluates
▁visceral
▁11.6
▁autoimmune
versity
▁ecz
▁lobe
▁MHC
▁0.20
▁lact
ervative
violet
▁pharmacologic
lasts
▁therapeu
amate
▁thyroid
otide
▁immunoblotting
▁neoplasm
▁lipophilic
dia
encephalic
lier
▁resemb
ocompatibility
eliac
▁abscesses
ayed
▁HLA
phyl
▁Combined
▁differs
▁calcification
opus
▁norfloxacin
▁simult
▁700
▁muM
▁infil
▁balloon
▁oxidized
glutination
▁obstruction
▁substitution
tents
▁4;
trition
▁recr
▁Depression
bearing
▁spleens
▁perox
▁fossa
▁Magnetic
▁decarbox
▁evol
▁deterioration
▁Lys
amphen
▁heterozygous
osal
▁analytical
omal
rati
unctional
▁insoluble
▁platelet
▁pharmacokinetic
▁tetrac
▁160
▁40
▁doxycycline
▁275
otropic
▁maximally
▁concep
triglycerid
ALT
▁examining
▁cytoskeletal
aspartate
-2.0
ethyl
▁unid
mitters
▁aggression
▁intravascular
gesia
kets
▁medial
▁multiv
▁irritation
▁initiating
▁examin
tical
▁myc
▁revascular
▁membranes
▁Patients
trimester
▁electr
mature
▁clones
▁mesenteric
cepti
erebral
▁anoxic
▁(32
▁glucagon
▁myelin
anuary
▁Fib
▁biphasic
▁acetyl
▁(1/
▁(4-
▁cDNAs
▁-0.0
directed
asal
▁12
▁nonpregnant
▁HL
▁elevated
oxygenase
▁shortening
▁corticosteroids
within
fal
roxyprogesterone
idazole
▁Abnormal
thmic
▁regimen
▁cation
▁serine
phosphatid
-10)
▁masked
/6
▁AVP
▁palsy
▁mediast
▁22)
▁cortex
▁11
▁Failure
atment
lactam
▁macropha
▁pathophysiology
▁controver
0.7
▁plas
arbonate
▁6.0
▁295
▁bradycardia
▁microgram
▁morphology
▁detergent
onephritis
▁0.38
ochemically
▁presentations
male
▁subf
▁elemental
▁interf
▁cavity
▁indeterminate
ralfate
8;
▁Hyper
acid
▁0.05
▁240
itin
▁arachidonic
▁gonadotrophin
▁Extr
▁IgG
▁Urinary
▁islet
▁nipple
▁tol
roxic
propanol
▁4.
▁interstitial
▁practitioner
mL
▁immunization
▁athle
tenosis
▁interc
tero
▁ank
▁saliva
▁181
▁mann
▁nocturnal
▁familial
▁74
▁diastolic
▁fungus
hydropyridine
▁efferent
▁cyanide
▁potency
▁fracture
adian
▁150-
genic
▁Chronic
▁conduc
▁effusion
metabol
-10
▁exacerbations
▁7-
▁vesicle
▁proteases
entified
▁neuroleptic
tained
ctomy
▁dib
▁MK
▁agglutination
▁hyperthyroid
▁tuber
▁gynec
▁contaminated
tensives
▁insufficiency
tectable
▁retinoic
▁chemotactic
▁Suc
▁acetic
rences
▁SPL
▁correlate
cephal
▁cytoch
▁4).
▁PF
▁Exc
irub
▁31%
iatic
▁stabilization
▁supra
▁fluoro
ositive
MDA
▁nausea
61
▁perone
▁dismutase
-79
▁gradi
▁1.9
0.4
▁neoplas
▁adul
ymp
adecan
▁suprac
affected
phyrin
grams
▁protocols
sions
%),
sensitive
▁radioactivity
oxin
▁endemic
▁ejection
▁Lymph
ludes
▁biotin
etween
▁allergy
onography
7.
▁cylinder
▁ectopic
▁93%
▁Individuals
44,
▁cytosol
▁227
▁gradual
▁hypokal
tel
▁Leuk
endri
▁addi
▁rheumatic
emin
▁GTP
▁Lyme
ilization
avail
mega
▁somatic
▁iat
▁cla
▁preterm
▁antiarrhythmic
odia
▁6.1
olone
▁1.2
▁EB
▁MCV
hormonal
▁detec
opathology
ilus
▁gestation
▁6%
▁Bronch
▁(24%)
▁cytotox
ovascular
retic
▁tach
50
▁autologous
+/-
kele
28
▁DVT
▁LHRH
▁adverse
rehen
▁intravenous
▁tec
▁GE
ophag
truction
▁MRSA
▁lysosomal
tradiol
▁BAL
6%)
▁Sulf
loro
terminal
▁determinant
▁Acad
▁0.35
edded
▁1.6%
▁phag
▁fatty
▁Hib
romy
▁mononucle
+/
▁eradicated
▁poorer
oratory
▁Finnish
▁validity
▁optimally
tention
▁glycogen
▁anastom
▁deposition
teroids
▁inhibitory
▁dermat
insulin
▁conjugated
▁blinded
▁ACh
▁disclosed
tiveness
▁Functional
▁acidic
ostatin
Ls
▁discrimin
▁codon
▁decreases
lovir
drome
▁alcoholic
pig
▁2,
▁antagonist
▁dex
increased
▁subunits
aerobic
▁transaminase
▁gon
ealand
ogl
▁IgE
▁Myocardial
