▁hypoxia
▁cohort
▁compounds
▁150
34
▁gradients
itamin
ymme
▁urea
2+-
▁secreted
▁exten
▁seizures
▁benign
idne
ncy
▁GABA
▁tox
▁molar
▁Biol
▁enhance
▁defects
▁concomitant
urine
▁pyram
▁assay
▁tiss
▁bacteria
resting
olarization
▁laboratory
▁tryp
1).
▁consis
▁ester
▁exce
okine
5%
.2
▁restric
produc
▁platelets
▁neutrophil
amine
-5)
renal
▁polymorph
ocor
▁TCR
ially
▁sequential
▁vesic
iol
derived
ethyl
imens
▁.00
▁intensive
acr
▁laser
▁elec
itrate
idated
▁refrac
▁chloride
odium
▁sympathetic
▁perfused
tryp
▁extraction
▁RP
▁experi
▁cardiomy
▁healthy
omethacin
▁cyt
▁dysfunction
acchar
arb
▁ipsilateral
▁beats
▁2.0
31
ceptive
▁chemotactic
▁somatostatin
▁shor
▁tumour
tenance
osity
▁asthma
▁[3
▁simultaneous
▁alterations
▁precur
helin
otor
▁40%
▁embryo
▁discre
saccharide
▁assays
▁prophyl
▁adequ
▁impaired
▁yiel
▁hemodynamic
opl
▁sperm
▁10(
mL
▁chol
uoden
▁replic
45
▁phosphatidyl
▁Bec
▁characteris
▁randomized
oresis
.5%
▁interf
▁mutagen
▁msec
fts
▁accel
▁evaluating
▁practition
▁identif
▁coli
▁interc
▁inflamm
▁radioactivity
▁filtration
▁granules
ygen
▁relap
tents
crimin
tagland
apse
oxygenase
terol
ipit
2/
▁nicot
▁infusion
▁arachidonic
ometr
-4)
kers
▁vasoconstric
▁(5
▁deaths
▁transplantation
▁glycoproteins
▁Mn
reast
▁lens
▁incub
trogen
▁radiol
osin
▁ejection
sion
▁phosphate
▁aerobic
vents
▁MRI
.5
amate
oluble
▁potency
▁hind
▁toge
throm
▁28
▁cardiac
▁TNF
▁mortality
▁inoc
▁TPA
▁ligand
▁congen
▁undergoing
▁antisera
▁presum
5).
▁dehyd
jec
▁4
▁dendri
▁reviewed
▁dexamethasone
▁ultras
tively
▁plasmin
▁pyramidal
▁aspec
▁specificity
▁ACTH
▁lacking
▁1.1
tamine
ensitive
▁chor
▁femoral
▁5
▁lact
▁volunteers
tance
▁63
ropha
incubation
sA
igaret
▁retinal
▁placenta
▁distin
▁therapy
▁cys
▁synthesized
▁nonc
echn
hemical
phosph
▁collec
▁premature
▁DS
▁embryos
oride
▁antigens
▁fluorescence
1-
▁HSV
truction
/2
▁exposure
spectively
10
▁hypertro
20
▁HIV
37
▁cortical
▁stimulating
atients
19
urther
oplastic
kDa
▁contraction
▁embryonic
plic
▁monoclonal
▁preval
acrylamide
entif
(2+
jected
fusion
kines
▁dissociation
▁fibrosis
rele
▁cultures
▁aorta
ginine
▁monol
ullary
-450
▁CMV
itin
▁involvement
▁forsk
▁chond
▁implic
▁caud
▁subgroups
▁excluded
▁ANP
▁fatigue
▁isoproterenol
▁excision
ploy
▁perip
▁stab
▁57
29
dition
▁dopamine
▁surgery
▁acqui
eric
ipine
▁anxiety
iotics
veness
jug
▁7-
▁diseases
▁granul
erence
-1
▁angina
▁excitatory
▁induce
▁glucocortic
▁discharge
apeutic
▁PG
▁trypsin
▁beha
tidine
▁exclusively
▁glomer
▁1:
▁(1
carinic
▁symptoms
2-
▁transcripts
tub
▁hepatic
▁reagents
▁antagon
▁stimulated
phrine
2,
rogenase
▁0.3
(+)-
▁admission
asic
▁aggregation
▁descending
▁fibronectin
ogenetic
▁preliminary
▁infec
▁LPS
▁septum
derly
▁55
▁Increased
▁reflex
oplas
plied
ynaptic
▁heal
duced
▁rhe
▁dorsal
-[
▁proce
adren
3%
amous
▁cirrhosis
▁actin
TNF
▁substance
▁barrier
▁polypeptide
25
▁90%
piration
ynthe
▁spectro
▁conductance
▁antib
▁33
▁albumin
tention
▁monit
testinal
▁67
bular
▁inhibitor
▁differe
▁physician
oscop
▁micros
▁replication
▁genomic
▁corne
▁rectal
▁reacted
▁ischem
▁schiz
▁marrow
▁IGF
▁susceptibility
orption
▁ulcer
▁TG
▁vasodil
trib
obarb
▁surround
▁markedly
▁expressing
0%
▁sucrose
▁manifestations
▁vaccin
ardia
▁estradiol
▁latent
▁(9
forming
▁chicken
▁RT
▁PMA
ture
▁Overall
▁antagonist
oxid
▁50%
▁perc
tained
▁remo
▁ELISA
▁displacement
▁mitochondr
▁cervical
▁synap
▁immunoreactive
terase
zard
thmias
.3
▁encoun
oconstric
▁Km
.9
▁fatty
rosis
idin
▁Escherichia
enteric
▁decreased
▁hybridization
▁prol
▁adults
bumin
inemia
▁IgM
▁outs
▁sial
▁subunits
▁gastric
amines
▁neurological
-2,
▁39
▁cere
urons
9)
tive
▁reper
ophilic
▁(11
thmic
6%
▁(3)
effective
RNA
MV
▁fiber
tent
▁prospectively
▁fractions
▁insertion
lood
▁hypertension
▁1.0
▁disorder
▁olig
▁Addition
▁mellitus
lycerol
-5
▁stenosis
itol
▁mRNAs
gative
etitive
entical
▁pronounced
unced
oproterenol
▁thrombin
idase
sor
▁pharmacological
hion
▁prevalence
▁atten
▁8.
▁CK
44
▁dissec
BP
sess
▁125
mong
▁regulatory
henyl
▁LC
duction
▁positively
roximately
trus
6,
▁ADP
▁Plas
queous
▁cystic
▁grafts
30
▁poorly
▁nucleotide
▁residue
ields
lyc
tensive
▁genes
antial
▁VO
▁5'-
▁arrhy
0.5
▁healing
tial
illin
▁depressed
apeu
idate
tries
▁serine
▁frac
ilic
ensory
rangement
▁cloned
▁oxy
▁saline
▁neutroph
▁peptides
▁hemoglobin
oside
educ
-3)
▁assis
LISA
▁sodium
▁adenocarcinoma
emic
▁nervous
aneously
▁10(-6)
▁ionic
▁labeling
▁endometrial
tox
lycemia
▁cyst
embrane
rever
▁permeability
positive
till
ochemistry
independent
▁fibroblasts
▁AIDS
orpor
▁1.4
athe
▁neurones
adrenoceptor
regulated
▁immunobl
▁fluorescent
▁somatic
▁epithelial
▁pati
▁cytoplasmic
insulin
▁Tum
▁abolished
▁mamm
▁TRH
ATP
▁urinary
2%)
urys
▁inters
▁proliferation
dominal
▁yr
▁progres
▁differentiate
▁brains
▁filaments
▁diagnosed
▁46
▁0.01).
▁lectin
rophy
▁CM
▁1%
▁amin
orrh
▁reduc
▁acidosis
▁infiltration
▁microscop
▁HR
▁0.
ogenous
▁hydrophob
Phe
▁symptomatic
oyl
▁glomerular
▁26
▁secretion
▁95%
hep
▁micron
▁64
▁catechol
kely
▁inhibit
ifed
▁auditory
mature
▁antibody
adder
▁250
▁forskolin
tious
▁molec
loro
▁binds
▁clamp
▁pharmacokine
▁subtype
coh
▁9
tructural
▁arthritis
▁regis
▁dyn
▁bac
ariate
▁analogue
▁25
▁microgram
▁cate
▁thal
▁predic
▁longitudinal
oglobin
ropyl
▁stimulation
▁attemp
amus
▁IFN
▁antibiotic
▁remission
▁antibodies
xia
▁transient
▁spon
▁ventric
▁transplant
otherapy
▁prostatic
▁PF
▁1.3
▁numb
▁hams
immun
▁acetyl
▁cytosol
▁balloon
amide
▁oocytes
▁peptide
+-
-13
▁tooth
▁bone
▁coupled
▁tomography
▁obese
.2%
icardi
adm
▁defec
▁chick
▁organic
▁reductions
▁glycoprotein
▁Thir
▁decreasing
odil
▁sepsis
dle
▁Vmax
rents
▁lumbar
▁Elec
▁nasal
ayed
▁chromatography
▁duoden
▁muc
▁phosph
▁muscles
▁6-
ylcholine
▁antigenic
ialysis
▁occlusion
tum
oclonal
5%)
▁mild
ffec
▁pancreas
olateral
▁cartilage
▁alteration
assi
▁shortening
▁stained
virus
18
idation
▁Fc
zyme
▁anatomical
▁impair
▁uter
▁phenyl
▁plas
▁gestation
Hg
▁catheters
usive
▁bic
menopausal
▁hypertensive
▁quantif
▁porcine
▁protective
ergen
tics
aryn
▁0.05).
▁disappearance
respon
olated
▁ultrasound
27
▁concer
▁testosterone
glutinin
tic
otides
otox
▁incidence
▁pathologic
pH
ses
meth
▁deterioration
▁drainage
1.
▁spontaneous
▁infected
▁amyloid
assium
▁Treatment
▁mmol
▁dialysis
iable
▁terminals
protein
ranial
▁lam
cyt
otypic
patient
-8)
▁physici
▁fetus
orac
▁(6
tetr
▁rhythm
▁196
▁structural
ositol
rated
▁1.6
▁diastolic
8,
▁cyclo
-1-
▁techniqu
▁Patients
ocardi
▁neurons
▁lys
onomic
▁1.
ctomy
▁morphine
yro
▁slices
▁3-
▁inhib
bac
▁reticul
▁inhibiting
▁transfusion
ergency
LDL
▁scans
▁bloc
▁screened
stolic
▁athe
pir
eroxide
gic
▁inflammation
▁lipid
astolic
▁erythrocy
▁analges
▁irradiation
▁alveolar
▁dosage
▁differing
eled
▁muscarinic
▁accep
▁immunode
4,
▁gluc
▁metabol
ophren
99
4).
▁75%
▁aspir
▁measuring
▁angiotensin
▁diet
▁exhibited
-12
▁IgA
▁microv
▁competitive
icient
▁resemb
dine
▁substances
phosphate
▁myocardi
▁GA
▁neon
alian
▁ATPase
▁immunoprec
▁LT
▁0.01),
▁pathology
▁vitro
▁IgG
▁qualit
▁injuries
▁classified
▁6.
▁pneumon
oag
ocarcin
▁perfusion
▁HP
▁histological
▁suppressed
-100
▁centr
▁perme
-6)
▁lowered
athetic
▁thromb
▁oxide
,000
▁leukemia
▁cyto
receptor
rocy
oscopy
▁reticulum
▁fasting
heal
▁membranes
pecific
▁10
acetic
▁excl
▁(1)
▁60%
▁precursors
2+
▁anastom
▁prevention
▁bacterial
lyce
▁liver
▁clinic
▁Thirty
▁0.05
▁disrup
▁concentrations
ilep
rected
▁increas
▁kb
occi
blind
▁20
▁physiologic
linked
esium
dehyde
▁electrical
eptide
ecu
amic
▁sph
▁198
anding
athione
▁locus
▁7
▁gamma
teroids
▁progressively
▁swelling
aline
ietic
▁correspon
▁agon
quid
▁effectiveness
▁exposures
ypical
teine
apamil
▁phy
▁molecule
bloc
aryngeal
ejun
▁astrocy
▁behavioral
1)
▁sulph
▁CSF
▁proximal
▁trials
▁belie
▁indication
▁homology
▁stimulus
▁strategies
thal
DNA
ospor
▁intestinal
romes
endri
▁kDa
onuclear
8-
▁17
tional
▁identifying
▁pancreatic
▁arth
▁plasmid
▁strep
▁cardi
▁199
▁15%
▁metabolism
semb
▁cerv
▁elic
▁preparations
▁erythrocytes
▁nitrogen
▁unaffected
lym
▁suppression
▁kidney
luores
▁traum
▁renin
kephal
▁BP
cephal
▁scin
▁absorb
▁myocardial
ymp
icine
▁extracellular
▁responsiveness
sy
olic
▁GnRH
▁radiolab
▁rejection
▁ratios
▁phosphor
ficial
▁prospective
sions
TG
▁GV
bic
▁participate
▁clearance
▁underwent
▁tric
tral
▁portions
echan
▁mumol
ostatin
▁elucidate
8.
atid
iatric
oprec
▁30
▁regulation
▁peroxidase
▁hippocampus
▁adherence
illary
.3%
▁characterize
▁detectable
▁seroton
ensi
▁latency
▁infarction
▁gangl
tin
▁exogenous
▁etiology
▁300
▁Increas
▁BAL
ercise
▁degradation
▁efficacy
mia
-17
RH
rief
▁mobility
▁3,
▁initiation
▁considerably
▁carcin
▁creatine
ascular
▁adren
▁lymphoid
▁facilit
▁attenuated
enic
▁restor
▁amo
▁trauma
iotic
▁quin
asone
mobil
▁atrophy
▁favorable
▁phenotype
▁agonists
methyl
▁hemorrhage
000
associated
▁fibrin
▁strain
70
oxide
-60
▁perox
▁irradi
▁GM
▁PRL
▁fibrob
▁probes
▁reac
▁produc
3,
athy
erin
▁(20
▁residues
▁Comparison
▁lactate
▁66
-10
▁0
2),
▁questionnai
▁atheros
ymptom
▁stimulatory
▁inhibitory
▁trache
matched
▁0.001)
▁6,
▁influx
▁500
▁herpes
avage
▁suppres
▁cathe
▁Doppler
regulation
▁0.6
cAMP
nucle
▁thym
▁GTP
▁absorption
▁satur
▁atherosclerosis
monstr
inally
4%
feren
▁characterized
▁inges
ocellular
▁31
▁struc
▁assessing
▁fron
▁(4
terminal
▁pregn
mitter
ocar
herent
▁mitochondria
natal
▁wound
▁determination
▁bladder
▁describ
▁atropine
▁renal
▁1000
▁TA
▁carcinoma
achid
▁exhibit
▁hepatocytes
▁vaccination
onucle
▁immuno
▁MV
▁infections
▁ganglia
▁18
▁Serum
▁nerves
▁pancreatitis
MG
tradiol
▁(0.
▁exchan
▁microscopic
▁transpor
▁correlations
tension
▁60
omotor
▁quantitative
ivation
duce
luded
)2
▁receptors
▁supple
sively
▁deletion
▁ranged
▁attrib
▁verapamil
▁1)
oxic
▁syndrome
▁0.05),
onary
▁phospholipid
itoneal
▁43
▁allergic
leukin
▁predictive
▁dehydrogenase
cardi
▁diabe
▁hypers
▁collateral
▁PKC
gluc
▁modest
ropine
2+]
▁anat
tage
▁SDS
.4%
▁Afric
▁blot
▁hypox
ateral
tron
▁benz
alact
▁differed
▁reproduc
▁oxygen
▁regulated
▁incubation
▁hydrolysis
coun
ulates
▁lesion
▁melanoma
▁prophylaxis
▁retina
acting
14
▁hydrogen
iably
oplasmic
▁pathway
▁(14
▁postoperative
▁reveals
▁contral
▁endogenous
▁LH
▁newborn
▁anesthetized
▁biological
▁exis
▁mediated
▁contamin
3)
▁70
▁adverse
▁lumen
thyl
▁murine
fused
▁Whereas
▁variability
▁tissues
fos
tile
▁20%
asal
▁administered
oprote
0-
▁pneum
aced
-30
▁80
odialysis
-3
▁synaptic
▁modulate
32
▁serum
ighted
▁polymerase
▁ischemia
▁discrimin
▁inadequ
▁sour
▁intravenously
▁valve
iciently
osome
▁NP
▁bronchial
▁intake
robic
▁5'
▁cyclosporine
iminary
▁leukocytes
otassium
▁implant
▁cholesterol
▁spontaneously
▁reveal
▁metastasis
▁soy
▁mum
▁ventral
lec
iaz
▁dental
▁cytotoxicity
▁vaccine
obacter
125
aemia
mitted
▁(8
▁depletion
▁autologous
▁enzymatic
▁myocardium
trum
▁equilibr
▁prolactin
▁ana
▁Pretreatment
lymph
▁interleukin
▁complications
▁40
▁nitro
▁putative
-20
▁wash
▁UV
6-
ylation
▁analys
▁panc
bodies
▁guan
utaneous
tice
▁hap
▁conclusions
invasive
▁radiotherapy
▁pregnant
clin
▁(16
▁analysed
▁analyzed
▁implications
▁urine
▁peripheral
labelled
12
lycer
▁inositol
urea
deficient
▁(30
▁mutant
▁correlated
▁adhe
▁follicles
▁endothelin
cence
yroid
▁acetate
tro
▁deterior
▁hormone
maximal
aints
▁projec
▁discontinu
▁kinetics
▁graft
sorption
▁Twenty
▁challen
labeled
6)
▁retention
▁HLA
▁mg
glut
▁kidne
▁vein
4+
6.
▁overl
▁5.
▁smo
olec
▁36
▁pump
▁medication
opha
▁extracts
taken
scherichia
usp
▁12
vices
pyr
▁HDL
▁stren
▁analogues
▁optic
▁afferent
▁contrac
ellular
olgi
illation
▁intraven
▁arti
otroph
▁excretion
affec
▁ovari
loon
otone
mg
▁mutants
▁0.9
idity
▁reconstruction
siveness
ichia
4-
ylate
▁nM
omical
rogen
▁gradi
tein
▁0.7
▁polymer
▁testis
▁surviv
▁56
usal
tomy
▁focal
▁echocardi
▁biop
▁selectively
oplasty
▁mucosal
plantation
▁adenylate
%),
▁unex
▁hep
▁vasopressin
▁fractures
▁pall
nthe
▁hypothalamus
▁intact
▁Acute
▁thi
▁72
▁tachyc
▁reversible
▁influences
▁accurately
▁lamin
▁substrate
ophageal
▁phosphorylation
kground
▁synthetic
▁400
▁inversely
▁mechanisms
▁glyc
▁hybrid
▁estrogen
▁myosin
anded
▁pmol
▁detec
▁oral
▁malignant
icin
anthine
-16
tages
▁findings
inhib
lox
▁endot
ocytosis
gely
LV
inated
atories
amethasone
mend
▁200
opressin
aturation
riched
+,
▁meal
▁localization
▁tyrosine
tak
occal
▁indications
▁moderate
▁nodules
▁PGE
▁pelvic
treated
▁implantation
▁horm
▁.0
▁neonatal
▁interstitial
▁injected
▁cumulative
▁ACE
▁enti
rates
tural
▁mammary
▁epidemi
▁diagnostic
▁oste
▁nuclei
pig
▁perin
ochemical
▁antic
▁competi
ulose
▁labeled
▁uptake
▁Previous
▁facial
▁prosthe
▁arterial
lusion
▁enl
▁induc
▁subunit
▁phospholipids
▁consensus
rox
▁wt
sial
rine
oradi
▁incubated
▁spermat
ocular
▁therapeutic
▁diminished
otting
ifedipine
▁phorbol
itr
▁reductase
▁96
▁metabolite
▁mothers
▁progen
▁chest
▁carbohyd
inergic
ancies
▁rheumatoid
teroid
.0
▁triglycer
atment
embran
▁intrap
▁umb
▁cellular
▁abnormalities
orbol
▁fibrinogen
▁emerg
▁viruses
▁esophageal
▁normalized
21
ulph
▁intram
▁PT
oA
▁sero
otoxin
eak
▁fluores
amino
▁Cyt
▁periodontal
▁thickness
▁MI
omal
/3
minal
▁secretory
▁biosynthe
▁Compared
▁proteins
▁chains
▁(2)
▁interv
▁stimul
▁implanted
▁adenosine
▁sten
▁arter
▁inflammatory
ocl
▁hemo
▁HB
▁suppressor
▁immunological
▁unrelated
▁anticoag
▁decreas
▁discon
▁induces
▁abdominal
▁epit
▁FSH
▁aging
▁illness
illus
▁follicular
▁lobe
▁surge
ventricular
35
sies
iasis
▁spont
▁ery
▁muta
ometh
▁peripher
▁vascular
astom
▁metastases
ditions
▁recons
onography
▁provid
▁proliferative
7)
▁diame
▁epithelium
▁seiz
ranolol
▁1.8
▁degeneration
sors
lated
▁investigations
▁pH
iatum
pendent
▁toxin
▁mineral
▁responded
▁cereb
▁tas
▁23
ompan
.6
▁polypeptides
▁presenting
▁toxicity
hea
80
▁prono
▁EGF
helial
roxim
greater
9%
▁feeding
sych
▁SHR
53
omized
ifug
atient
▁stu
▁kidneys
▁previ
ohyd
▁lesions
turb
▁unilateral
▁potent
▁adrenal
50
affected
amination
cine
▁compartments
tensin
▁lymph
▁propranolol
tumor
GH
▁enzym
▁IgE
▁mRNA
obl
▁usefulness
▁lipoprotein
opa
tality
▁mitochondrial
▁rhy
▁synov
▁resection
▁acco
▁cDNA
arbox
rosine
uvate
hyp
▁injur
▁bile
▁adoles
▁biopsies
5-
▁conformational
▁moderately
▁hypertrophy
▁thymus
▁vesicles
▁stom
.4
▁vaginal
plas
▁32
▁orally
osom
▁lymphocytes
▁fibr
occus
▁chromat
▁Hg
▁hig
.7
lue
▁ey
▁elevation
azole
▁angi
▁nerve
▁abnormal
▁surgical
56
▁phosphatase
▁fibroblast
▁0.1
activated
pite
intestinal
▁determining
▁microsomal
ignificant
osal
▁lymphoma
▁alcoh
▁intraper
▁mice
fed
▁limbs
ortic
opoietic
trop
ectomized
▁immunore
▁haem
▁Dop
eight
RF
▁upstream
▁confined
oxy
actin
▁adminis
▁deprivation
▁advan
▁0.5
▁regulate
uscular
▁cardiovascular
-1)
inephrine
ectomy
▁tended
▁mature
▁0.001),
rolog
5.
▁correlates
▁86
luent
▁hydrophobic
▁excit
tured
ophil
▁oes
/100
phenyl
▁47
▁cytos
crib
▁axons
▁lec
ffinity
▁assessment
▁glucose
▁NH
▁90
▁wk
▁homogeneous
ication
2)
▁carb
▁spinal
▁objec
▁excre
▁cortic
▁1.9
▁100%
tabol
ffin
▁sham
▁prevented
▁ions
▁Significant
▁10-
osynthe
▁muscle
oplasm
▁stimuli
▁inhibitors
▁BM
▁interferon
▁idi
▁metabolites
tially
▁salivary
nai
▁plasma
▁44
ycin
arent
8)
tact
▁drin
▁HPV
tase
▁tubercul
▁reperfusion
▁resting
▁0.001).
▁apical
tisol
▁epidermal
ressed
▁tubular
1,
▁colony
▁adenocarcin
tation
▁reflux
rease
lastic
▁intrav
-3-
mented
▁conserved
/6
▁lob
▁collagen
platin
ifugation
ications
▁ventricular
▁nig
erad
▁120
▁phag
▁sti
ropriate
▁trend
▁3.
▁suspension
▁enhanced
immuno
mental
esthe
oids
▁30%
▁cG
▁glands
▁contributes
ubation
▁NADP
▁ECG
▁entero
▁1
.6%
ologous
▁54
▁predominant
▁relapse
▁adrenergic
▁24-
48
▁alkaline
▁neurop
88
seud
▁systemic
▁substantially
▁acids
inositol
.8%
▁prolif
▁(3
ylchol
olol
rogenic
▁preoperative
▁displ
ograms
omycin
oes
2).
▁bowel
▁intest
▁85%
450
▁physicians
▁electrophoresis
▁natri
▁3)
▁injec
▁inactivation
▁acet
▁adjusted
▁ethanol
▁hyperp
NH
▁scanning
▁TGF
ilical
▁coag
▁stimulate
esic
▁follic
▁pigs
▁altered
elec
▁untreated
▁Hb
▁respiratory
▁diagnosis
7,
▁phenomenon
trac
▁contractions
unts
▁hetero
ocortic
▁biosynthesis
DH
▁Eight
dose
▁receptor
▁cef
▁reactions
▁infection
▁0.000
hist
▁heparin
▁severely
tric
▁congenital
-4
▁endotoxin
▁LD
▁hepar
▁4.
▁Immun
▁49
activation
▁isolates
ylase
arge
▁0.01)
▁autoimmune
17
▁unde
encephal
tical
▁(19
▁fold
▁dosing
rophob
▁13
lobulin
titial
siological
accharides
renol
▁sugges
ocial
chlor
▁LDL
▁substitu
▁diffuse
onate
▁42
erated
▁maturation
ostic
▁aden
▁hypothe
lasts
lux
▁activator
▁RNA
▁bacter
ymptomatic
▁immune
minis
▁constr
▁consistently
leu
▁isoform
ayers
lysis
▁tobacco
iotensin
▁tension
▁immunos
▁cholinergic
▁drain
90
onstric
▁currents
▁eluc
entric
▁10(6)
▁activated
galact
▁enhancement
▁alcohol
▁99
▁chemotherapy
odynamic
▁turnover
▁62
cepti
carb
nRH
sive
▁0.05)
▁ouabain
▁synthesis
▁diffic
▁prel
▁reversed
▁parame
iant
▁pathways
▁recurrence
BV
▁intrac
▁RBC
▁genetic
▁beneficial
▁infar
▁neuro
owever
tingu
erating
obarbital
▁ane
▁intracellular
truc
unctions
entricular
erent
▁immunodef
ologically
▁undertaken
ept
atine
▁disruption
▁mononuclear
▁obesity
omes
▁tumor
ipitation
-6-
ovascular
75
▁immunization
▁arginine
rotid
▁autoradi
▁leukocyte
▁investigated
▁34
28
▁cyclase
▁affects
▁vitamin
▁anaesthe
▁sexes
othelial
▁lith
▁197
▁neuronal
▁electrocardi
▁4-
▁iso
▁hemat
▁comparable
roup
▁cartil
wenty
▁undergo
▁0.01
24
▁eti
▁poten
▁treatments
▁mono
epam
tration
chol
▁lateral
▁ips
▁infectious
ilateral
▁virtu
▁labelled
▁norepinephrine
▁demonstrating
ifferen
Tc
▁tumours
oxin
anol
▁anesthe
inic
▁pene
▁biochemical
▁maintaining
▁airway
▁superoxide
uron
▁resonance
▁hepatitis
▁biopsy
ogens
rological
▁carrier
▁saliv
earing
▁elderly
overed
▁BALB
itus
estern
▁rati
ocamp
▁70%
▁Plasma
▁aneurysm
resistant
pinephrine
ectom
▁progression
glucose
▁pig
▁oxidase
▁4)
▁complexes
▁yeast
▁molecular
▁regimen
11
▁NT
▁percutaneous
osterone
▁ppm
ecyl
8+
▁tracer
rection
itic
▁ech
toph
▁Tran
▁esophag
▁hypot
▁(13
▁facilitate
▁accumulation
▁0.03
▁electr
▁soluble
phic
▁dele
▁aor
▁organs
▁influenza
ovirus
▁noradrenaline
▁(10(
ologic
▁cyclic
▁natriuretic
▁sulfate
▁HA
lobin
▁membran
ilized
▁catheter
opamine
stimulated
▁resec
▁phosphorylated
▁placebo
▁ventricle
▁intervention
olone
jun
titu
▁ammon
▁conformation
▁fati
▁microscopy
▁intrinsic
▁sustained
▁5-
▁monitored
▁2,
▁lipids
amycin
▁canine
▁smoking
▁passive
▁substanti
▁hippocamp
▁arrhythmias
▁mV
15
▁pulse
ergy
▁opi
▁clon
▁affecting
▁creatinine
modulin
▁homogen
▁infants
esity
assay
▁brady
▁gonad
oceptor
tead
ctive
▁8
adiol
itone
▁mucosa
▁promo
▁decline
▁TSH
▁lute
umerous
▁cephal
▁preven
opausal
▁comparative
ensitivity
idine
▁resistant
/1
▁8-
▁overe
▁rabbits
▁catalytic
adrenergic
▁viral
▁strains
▁mAb
▁PE
▁microM
operatively
▁elimination
4)
kine
▁depres
▁hyperg
7%
57
▁carbohydrate
risk
dial
▁sarc
▁carcinomas
▁atr
▁physiological
▁spine
▁endothelial
▁ile
▁silic
▁contralateral
▁prognostic
▁2.5
genic
▁nons
▁(15
▁assessed
▁subjec
otype
benz
▁Golgi
▁underst
▁cognitive
▁prognosis
▁childhood
▁theore
▁artery
3.
▁docum
3-
sia
duc
aptic
▁substituted
▁indi
▁cann
▁contractile
tiz
opres
▁insulin
▁3.5
▁hipp
orectal
EA
▁psychiatric
trate
▁injections
▁2-
olus
tif
▁58
▁sensitivity
▁accounted
▁transcription
▁macrophage
-6
odies
▁efflux
▁membrane
▁respec
▁peritoneal
▁chemot
centr
▁subun
▁striatum
▁15
.1
-1,
▁epitope
phil
▁multiv
itro
▁hormones
▁thyroid
hern
▁vivo
▁staining
mentation
affinity
▁effector
HB
▁endothelium
▁knee
▁normo
▁purified
ministration
▁atrial
▁vagal
▁75
aminergic
▁CCK
▁gon
▁PB
▁embry
▁connective
CSF
▁hypothal
▁saturation
-19
▁plac
▁nal
▁mell
▁judged
▁ultim
ATPase
tus
▁rele
▁behavi
▁sampl
ogra
▁nutritional
▁7,
▁80%
lact
ronectin
▁vag
▁ambulatory
▁reproducible
▁micrograms
▁hCG
▁systolic
▁macrophages
chym
▁circulating
▁chan
▁kappa
▁adhesion
▁strom
▁pathogenesis
ovine
acyl
▁fetuses
sulf
thrombin
terone
▁transcrip
▁depolarization
▁chloro
▁lesser
1),
▁monkeys
angl
tabl
▁irradiated
▁homogene
▁1.5
▁umbilical
CoA
▁disorders
gans
▁protoc
▁morphologic
▁histologic
mittent
16
▁examin
tition
▁GH
▁depr
▁nursing
▁acute
0.
▁nucleotides
▁bovine
abain
ocyt
▁pharmac
▁sensory
▁paras
cessive
▁hypoxic
requ
ochrome
▁Intra
▁Hep
▁clones
▁depolar
estis
oracic
▁infil
▁basal
rowth
▁38
▁nifedipine
▁85
▁selective
▁sensi
kinin
▁tube
▁preferen
trition
▁enzyme
▁inhibits
veolar
mediately
▁EEG
▁ET
▁pyr
ilibr
▁antiser
otyp
▁retur
▁lumb
olution
▁statis
▁MT
▁conduc
olute
yel
▁1.7
▁pate
tinu
▁quanti
▁PTH
▁radioimmuno
lytic
▁deficit
▁(198
▁solub
0%)
▁eryth
▁activate
hyd
▁Mg
▁protease
▁blockade
▁SEM
▁diabetes
▁glucagon
ignific
▁27
▁modulation
▁scre
▁distal
ochondr
ondr
orts
acetate
▁mammalian
ylated
▁spleen
▁tissue
sis
7-
▁cytotox
helium
2%
/10
▁analyses
▁spectra
▁PD
▁reas
▁(100
▁pregnancy
▁cows
iability
▁instr
▁canc
osomal
physiological
▁antagonists
▁polyp
erox
▁epid
opic
▁electroph
▁necrosis
▁pregnancies
▁10,
▁requi
▁diabetic
rous
▁colorectal
▁glycos
▁immunohist
▁inactive
▁impairment
▁surf
bly
-15
partate
▁(18
accharide
▁diets
fected
resist
▁recor
▁relaxation
▁microtub
▁ventil
▁endoscop
▁cAMP
▁oxidation
went
atinine
▁monocytes
▁tach
▁chromosomes
▁targe
▁residual
+)-
ectin
▁complic
tivity
tivation
geal
▁pulmonary
acin
▁synthase
▁ventilation
▁[125
▁repl
toc
▁dose
▁opioid
▁pyl
▁transloc
▁differentiated
operative
▁arteri
8%
ocardial
▁recipients
▁examination
▁sulf
ophag
▁adequate
olip
roscop
49
▁incorporation
thma
▁reflec
otropin
▁melan
▁deficits
▁rabbit
▁lymphocyte
▁cataly
▁100
uretic
effec
▁methyl
▁reag
▁10.
▁prostaglandin
tec
otide
▁immunoglobulin
▁ACh
▁cytoplasm
▁+/-
bladder
bacco
▁HC
itary
▁progesterone
tophan
spective
▁hamster
▁cancers
ellar
▁suscepti
-2
▁glutathione
▁immunofluores
▁adop
▁screening
▁glycogen
▁coeff
▁aortic
toxin
▁hypog
▁adjuvant
▁dodecyl
▁somat
22
▁symptom
▁ket
oxygen
▁degrad
osomes
atoid
▁plasm
▁endometr
▁cytotoxic
ximum
▁localized
▁superficial
uvant
▁innerv
asive
▁3
ucine
incip
lys
▁drugs
ocrine
▁53
▁isot
-1.
▁maternal
▁ligands
▁pathological
▁dissection
▁0.00
ecal
ximal
4.
▁nmol
erative
▁histamine
▁dys
▁lungs
mediated
EGF
crip
▁junction
▁mitral
containing
erate
thase
▁conduction
▁AI
▁45
5,
▁adap
▁donor
▁epitopes
60
eptides
▁ischemic
▁edema
piratory
▁reactive
▁carbox
▁pacing
▁24
▁cerebral
▁emergency
▁isolation
versely
▁68
▁prostagland
▁dors
trin
▁hypothalamic
▁PCR
▁16
alc
▁viable
▁agonist
ameth
▁conclu
▁homologous
▁Lys
▁ANF
▁dilated
ocytic
▁metast
ituitary
glutin
▁(2
-14
▁48
ographically
▁androgen
▁potentials
▁shif
▁retic
▁asymptomatic
bility
▁gastro
opes
▁tes
▁sinus
ercul
▁calcium
▁clinically
tiv
▁cultured
▁compound
acil
▁1,25
▁compli
▁hepat
▁mutations
▁assayed
▁contex
▁arteries
▁(12
▁bilateral
▁examinations
acetyl
feron
▁respon
▁repor
▁synerg
▁fixation
▁discus
▁astro
▁temperatures
▁cigaret
▁clinical
▁59
▁compartment
40
▁fibers
▁defic
▁thoracic
▁toxic
ensity
bral
▁keratin
▁microsomes
▁morb
▁deter
▁41
osyl
▁4,
▁promin
oidal
orepinephrine
mol
▁infused
▁dietary
▁decreases
▁severity
▁bp
▁phe
ulin
rhy
ingle
▁possi
▁fetal
▁ure
▁0.0
lasses
loid
tituted
▁slic
vul
transfer
▁recombin
tility
▁amino
▁lamb
▁1.2
▁CNS
vation
generation
▁pediatric
stim
ritis
▁guinea
iciency
radi
▁cation
▁declined
phasic
treatment
▁throm
▁yielded
iary
9,
controlled
▁thir
olysis
tions
▁circulation
▁oxid
▁corneal
▁drinking
▁neutrophils
omers
otomy
athyroid
▁postnatal
▁complementary
▁obstruction
▁polyclonal
odal
▁29
acement
▁(0.1
eration
▁14
▁incorporated
▁tetr
▁risks
▁deficiency
▁microns
▁Experim
▁acidic
▁unstable
▁HL
-2-
▁glutamate
monary
▁medial
olved
▁peaks
▁hydrox
▁onc
ochem
reased
otypes
vely
▁MHC
aturated
▁inactiv
thym
▁Nine
▁occurring
▁availability
▁acetylcholine
oreceptor
▁attenu
▁serotonin
IFN
uppres
▁suppor
▁malign
00
entan
▁experim
▁pretreatment
ocytes
▁metabolic
taining
▁inhibition
▁subc
▁mug
▁biliary
▁PMN
▁compliance
▁iod
▁rats
▁epiderm
agic
▁antigen
▁subjected
▁ae
keletal
▁brom
▁spectroscop
▁Neither
hyde
▁(+/-
▁hemorrh
▁survival
phosphor
▁nec
▁kine
▁angiography
▁influenz
-9
▁carotid
▁extre
armac
▁selec
▁deple
▁cardiomyopathy
▁phosphatid
▁utilization
▁wee
▁Taken
eptid
▁implicated
▁affinity
▁ganglion
tence
ulmonary
▁morphology
▁phospholip
▁19
▁heterogene
▁nucleus
▁intestine
▁7.
otropic
5)
▁paren
▁10%
▁PAF
▁cats
▁initiated
▁insufficiency
▁transcriptional
atest
▁complication
plasia
▁immature
▁arachid
ucle
▁25%
unctional
▁venti
▁specimens
▁1987
ocaine
▁Clin
rotic
▁65
▁37
atitis
▁NaCl
utyr
▁duct
▁presumably
▁connec
0,000
brain
▁progressive
▁platelet
▁22
vascular
▁retrospective
ylamide
-4-
alanine
▁skeletal
▁2
▁1988
▁adi
▁[14
▁Sout
ergic
▁5%
▁supplementation
erents
LH
plete
▁digestion
▁indomethacin
▁inhibited
aired
▁0.8
oreactive
▁heterogeneous
olesterol
FU
plants
glycerol
hydro
trol
tors
▁susceptible
▁bab
▁predominantly
▁supernat
astric
titution
▁pressures
▁hydroly
▁aldosterone
▁venous
▁angioplasty
ronch
▁demonstrates
▁6
nec
eptidase
▁coval
▁spati
▁bleeding
▁promoter
▁tolerated
▁PI
▁abnormality
tiveness
oic
▁leuk
acted
itant
acts
▁pulses
▁fever
adequ
▁satis
▁eliminated
▁dex
▁pretreated
ycl
▁intravenous
rectomy
▁posi
▁reactivity
tectable
▁cen
▁(0.0
▁oxidative
fec
ogenesis
ineal
MN
▁Hz
ogenic
▁uncom
▁resul
▁uterine
▁21
▁invasive
onin
▁hormonal
olytic
▁regimens
enzyme
▁genome
hydrox
▁chamb
▁adduc
▁bip
gland
arly
▁molecules
▁comparisons
▁ml
▁probe
▁mmHg
▁elu
▁extrac
▁eosin
▁survived
▁elevated
versity
▁bronch
▁evid
▁amyl
opathy
▁operative
atase
▁aneurys
▁limb
▁melatonin
▁mM
▁persis
ticular
ophore
▁differen
▁nm
ulatory
1%
▁progn
▁tolerance
▁treating
23
▁bolus
ociated
▁PP
▁effec
▁developmental
tur
ching
ocyte
▁(7
▁myel
▁testicular
gth
▁meth
tized
ithi
▁tachycardia
tically
▁anemia
▁inh
▁prostate
BG
▁examined
▁practic
phyloc
▁mast
▁ovarian
omat
▁quantit
▁hypo
▁statistically
▁baseline
clonal
▁mutation
▁aureus
adily
gesterone
▁cleavage
▁intermittent
siologic
2.
▁0.4
infected
▁(10
▁ranging
▁isch
atonin
▁morbidity
▁52
▁functioning
▁stere
▁tumors
▁unchanged
planted
sized
urgical
adrenaline
▁onset
▁substrates
▁synthe
-8
▁profound
▁carriers
▁doses
▁monke
hest
▁50
13
glyc
▁ald
▁multic
▁cis
▁stomach
▁heterogeneity
▁gp
▁glut
▁antiserum
tle
0,
▁shorten
▁recur
plication
▁51
▁synergistic
ration
▁pancre
▁underg
▁TC
immune
▁Clinical
BM
▁phospholipase
▁proton
▁chronic
aemic
▁cutaneous
▁discrimination
▁zinc
▁(50
osine
▁kinetic
▁epinephrine
-7)
▁bypass
tory
▁preservation
RP
opath
dies
▁mann
tures
▁3'
clerosis
▁construc
▁intra
▁potenti
▁fibres
▁depression
oprotein
entral
hydroxy
hydr
▁chlor
▁predomin
▁lysis
▁elicited
▁Additional
venous
▁capillary
▁consecu
▁cytosolic
▁dete
▁concom
orphin
▁2.
olism
phyl
gene
▁macropha
lix
eces
istar
▁cortisol
oglyc
acet
uble
▁donors
▁pineal
▁organisms
grees
▁0.2
▁achie
.8
sts
reactive
▁gland
▁symp
▁fracture
▁prolonged
▁recipient
▁follicle
▁saturated
▁differentiation
ureus
▁recombinant
anine
▁postoperatively
ontal
▁erythrocyte
▁preparation
▁cytochrome
▁imaging
▁sple
▁precursor
▁plaque
▁paralle
]-
.7%
transferase
oglobulin
▁steroid
ociation
ofluores
▁immun
▁transi
▁neph
▁35
tization
ionine
▁undetectable
▁pneumonia
▁2)
MDA
deoxy
▁compe
▁kinase
▁potassium
▁anomal
namic
▁coronary
▁establ
▁recordings
selec
▁-0.
▁cocaine
▁retin
▁PV
▁chromosome
▁evoked
osts
▁mL
▁metastatic
GF
▁11
sensitive
ylline
▁controlling
▁12-
▁5,
▁7%
▁AMP
-7
▁affec
▁neoplas
▁morphological
▁parental
▁79
▁enzymes
▁cortex
▁determinants
▁recurrent
onium
▁anesthesia
▁pituitary
▁cirrh
ults
▁synthetase
▁regar
▁LV
▁nutrition
▁intense
FN
kinase
induced
▁cryst
▁1-
▁clus
tual
epti
▁subpop
▁1,
▁insuff
onyl
2+,
