arrh
▁glucose
▁exten
▁experim
▁2
▁Elevated
▁allogra
▁GV
▁LH
▁modulation
Ins
▁ketoconazole
▁preliminary
▁ribonucle
▁placenta
▁Myocardial
hydro
▁carbamazepine
keto
▁8.8
▁diffuse
▁radiography
icep
▁PBMC
▁stab
▁statistically
▁awareness
▁discriminate
orbidity
thel
2-
▁perioperative
phyl
▁dial
▁contributes
▁intervention
▁reduc
inergic
▁visceral
▁immunocyt
▁ACE
▁balanced
(3
-12
▁prolif
▁diarrhea
▁glycosyl
▁cytoplasm
anded
▁7
teroidal
ifedipine
erating
roprus
parathyroid
▁3.
▁sha
5%
▁molecules
98
▁77%
▁Alzheimer
geneic
terologous
▁cochle
▁Angiotensin
▁1.75
molecular
▁diagnosing
tence
▁proteases
▁intravenously
▁(32
▁viewing
▁ferrous
▁cystitis
▁successive
abin
▁11
▁resis
FGF
▁heterogene
▁breakdown
▁bactere
esthetized
"-
-45
▁(400
tition
▁smo
▁20%.
▁shifted
▁catheter
▁asthma
▁standardized
▁devoid
▁inhibitor
0).
▁Tran
ectin
acid
▁halothane
▁bacteriuria
▁186
embran
▁uterine
▁deaths
▁TMP
ventilation
▁emesis
▁intact
oag
ifug
▁motivation
▁clinical
▁attenu
▁synthetase
▁naproxen
encephal
▁lactation
etine
▁prazosin
▁33-
▁Animals
-(1
▁Sensitivity
/20
▁clamp
tase
▁phenylalanine
atase
plication
azin
-11
▁nonsur
apeutic
hyde
127
iasis
sies
▁Twelve
▁bab
▁spermatozoa
▁angi
▁respiration
▁densities
▁5.7
▁autoantibody
▁74
▁bleeding
▁tas
▁accumulate
▁Gly
▁carbox
▁PRL
▁graft
tryp
2318
hospital
▁diuretics
hig
▁possi
-450
▁radiolabeled
-30
▁28%
▁enl
obut
▁recombinant
ervical
▁discharges
His
hep
▁(197
amphenicol
▁titrated
atment
▁73%
▁hypoglycemia
▁oligos
▁stabilization
▁gon
▁ineffective
▁serine
5%.
rophob
▁lowers
itum
feron
▁0.01
▁coronary
limiting
initiated
oprotein
▁mmHg
▁mammals
vival
NAc
%),
▁Ventricular
glutination
9),
dial
-10
▁(56
erin
▁mucin
▁700
▁poorly
upus
▁interv
▁bronchitis
jun
▁kidneys
▁antim
▁smokers
hest
▁overe
ikary
▁adul
▁indo
aldehyde
etan
▁epsilon
▁neurop
7),
sors
CDD
apanese
▁inhibitory
chool
▁yiel
ilization
▁168
dine
▁nitrate
▁Chronic
▁trache
aicin
uminal
▁adren
Ds
▁6.7
aryn
▁crystals
▁110
▁TRH
opha
▁pulse
ivary
roup
idol
▁restor
▁acco
▁enalapril
azep
IU
▁screening
oxic
▁Organization
▁Cys
uprofen
▁fibr
▁1.3
amisole
▁endocrin
▁phage
▁pneumon
IFN
▁slic
1/2
▁accumulated
0-
▁assessed
▁crucial
onad
-9)
▁thymus
jected
▁calcified
ocin
omatous
▁ileum
▁4%
▁elbow
olesterole
ardized
▁RNase
▁oocyte
▁ulcer
0.9
▁symptom
▁valpro
▁Retrospective
▁Tryp
▁supplemented
0.3
▁lec
renaline
▁dyn
▁pathological
▁(92
▁parasites
▁0.01).
▁mediating
▁overlapped
olic
▁exhaus
▁lethal
▁17%
▁controlling
▁colchicine
▁secreted
ogens
▁Sequ
tral
▁LPS
▁ultrastruc
▁mammary
▁ovaries
▁monocyte
▁hormone
▁interfere
nine
taz
▁substituted
▁bouts
▁38
coated
▁Sixteen
▁25%.
▁5%.
▁warts
arity
rection
▁transplanted
tact
▁prolonged
cycl
▁hippocamp
▁antibiotic
▁decreases
▁aggregates
▁approx
eptides
▁blockade
▁mortality
▁Systolic
▁sialic
blockers
▁gangli
▁paren
urium
ication
▁gyr
▁rIL
▁aneurys
hern
▁inoculated
folate
oprote
▁endoscopy
▁aden
▁healthy
▁quinacrine
▁0.33
▁iat
rocyte
▁CsA
▁90%.
rogen
tite
▁penetration
tention
gA
▁diethyl
▁intraoperative
gluc
▁21%
▁sedimentation
▁motility
▁hysterectomy
▁acquisition
▁denervated
▁stained
▁pathology
olism
oyl
▁predisposition
yrate
olus
robic
▁mec
rotal
▁4.5
ygo
▁Staphyloc
▁resorption
▁muscle
▁parame
▁255
▁abdomen
▁elicited
rocy
▁lysates
▁spasm
▁113
▁immunity
▁secretagogues
▁synerg
▁phenobarbital
▁PTCA
▁caro
▁Impro
▁(70
▁schiz
lymer
▁Phosph
▁premature
▁Intra
▁conditioning
▁(78%)
2(+)-
▁stimulatory
secre
▁predic
▁Measure
▁16.
▁alcoholics
▁cyc
▁receptive
ositol
vac
cein
▁CRP
▁39,
68
ognition
toid
achn
tages
▁anticholinergic
▁bFGF
▁Eighty
▁exploratory
▁nitroglycerin
▁86%
▁evac
bacco
▁yielded
▁opioid
roxic
99
▁114
▁reinforcement
▁Phen
tors
cyt
▁functioning
dR
ispanic
▁transitions
▁reagents
oproteins
▁eliminated
CAM
▁isoflurane
▁9.5
▁nebul
▁70%
nisolone
▁supr
▁RBC
▁conditioned
▁bolus
▁flanking
▁paralleled
trogen
ovastatin
tonic
▁dexamethasone
▁ramipril
▁infrequently
either
▁74%
▁alcoholic
▁oriented
-6-
▁awak
ulin
▁aneurysm
▁109
-198
ighteen
▁catabolism
neph
▁Exc
▁kidney
▁fluorescence
▁varic
fts
▁theore
inase
AFP
Rs
▁responding
▁ACh
▁nodal
▁awake
▁allografts
ancies
▁strongest
▁197
▁VIP
▁sial
ignant
▁follicular
yzed
▁granule
irradi
▁Alz
olecular
79
oric
▁determines
acyl
opharynx
▁positively
▁intolerance
▁anaerobic
▁1.
ffer
▁saliv
▁340
▁contral
utin
▁0.4
reased
enriched
▁anesthetized
▁inducing
Daw
▁discrep
▁reliability
▁ethanol
onine
prin
94
▁normalized
▁bumetanide
-6,
▁dilatation
loid
▁distress
▁ppm
oplasm
▁ACTH
▁NSAIDs
bular
▁traction
umerous
▁1
▁suscepti
lyce
▁87
▁polymer
ancomycin
▁cerv
▁ket
▁RIA
fos
▁harves
▁Dip
▁fluoro
▁inability
ropo
roprusside
▁hypertensive
▁febrile
▁134
tigo
▁7.1
-3-
▁livers
▁(100
25)
BM
▁hypertrophy
▁aor
▁libr
amic
▁Nine
▁subunit
▁immunobl
▁dihyd
otypic
▁synovial
▁gonadotrop
▁sciatic
▁researchers
trib
▁0.4%
▁Additional
▁1985
oinositi
▁unrelated
▁LMW
oxicillin
▁cephal
▁excessive
▁mep
adenosine
phil
▁decreasing
▁pylori
opi
▁cAMP
▁voluntary
85
clamp
▁67
osage
▁kit
▁thresholds
▁tamoxifen
▁visc
ocrine
DNA
▁fron
idine
▁bronchodilator
▁interfer
minal
▁viability
takes
sus
▁hypokalemia
00
▁achieving
▁addi
▁tRNA
odium
▁Plas
responsive
▁10(5)
odds
▁Recent
ogenously
itary
▁mandibular
uitable
ymptom
ituit
distal
igenic
5;
▁Streptococcus
trated
400
▁10(6)
thi
▁prescriptions
olesterolemic
▁identically
▁Exercise
▁10%.
▁progesterone
▁pneumococcal
▁testicular
Kd
ureas
▁ORF
▁glycoprotein
▁HbA
▁automated
▁marginally
2+]
.5%
▁professionals
fec
obal
▁masked
amel
▁elong
▁Screening
▁corticosteroids
ochemical
▁institu
▁stain
PV
▁mast
▁elevated
▁triad
otriene
▁hamster
▁inactivated
▁reinfor
alb
▁(33
▁cohort
▁inhibit
ycline
▁elevations
▁Abnormal
electric
▁NaCl
▁223
▁consis
▁96
▁phon
bic
▁lymph
▁radioactivity
▁gland
▁thyroiditis
▁osm
▁unre
▁lamin
▁arrhythmia
▁RAS
osom
▁14%,
▁blots
▁0.09
cysteine
▁amyloid
▁nip
▁82
▁8.0
▁infarctions
ovalent
tics
▁yeast
▁antigenic
▁probes
▁DT
▁decreas
orpor
▁wrist
▁plates
▁ventral
▁abl
▁(0.6
▁identif
▁11.6
▁adenocarcin
agonist
vices
▁Km
▁electrolyte
▁165
▁4.2
▁dispersed
▁profound
▁gout
▁88
▁infancy
▁astrocytes
▁cancers
▁mRNAs
▁(198
▁trigg
▁adulthood
ejun
▁practic
idate
▁aneurysms
▁perone
▁aerob
▁promoter
▁1,2-
atched
▁involvement
▁attitu
▁cytotoxicity
rostened
phrag
trous
▁hematuria
density
▁complementary
▁underst
achnoid
opausal
lives
▁hemo
IGF
gic
-34
adily
-14
ximal
▁196
▁recombination
▁injections
razole
▁muscarinic
▁contractility
▁emptying
ercul
▁potassium
▁colos
ocular
▁Rats
▁(300
▁arteri
-32
abec
plied
tioned
▁6.5
▁(1.4
▁AMI
▁enlar
▁folate
▁aldosterone
▁phleb
▁Eco
▁retinoic
roline
ygdal
▁BV
▁pati
▁0.63
onate
ionate
namic
▁analgesic
▁(37
cessive
pharmac
▁RNA
▁potency
▁contras
▁Higher
▁TCDD
mL
▁90.
▁Invent
ectable
▁metabolites
▁chlamydial
▁ascites
▁unusually
▁transduction
amet
▁mediate
▁methotrexate
▁spine
▁beneficial
▁physici
▁1,25-(
▁Groups
▁polys
▁psycho
▁mite
▁leuc
▁muta
34
pregn
▁-0.5
▁evaluating
teryl
onstric
▁developmental
▁1.5-
▁oss
olol
brile
▁accounted
himb
▁Measurements
eclampsia
▁cleavage
▁suppressed
▁antagonist
▁cholinesterase
0%),
12.
+]
▁pathogenic
-4.
specificity
▁Doses
myc
chloride
▁interc
▁uterus
▁analgesia
ietic
▁lute
▁hyponatremia
▁follic
ilin
▁Mg
enec
▁stool
▁181
▁CHD
▁neuropsych
▁recurrence
▁angina
▁oxygen
oriented
▁differing
▁parental
▁viral
▁prostaglandins
urgical
containing
crimin
erver
▁LT
▁herpes
▁77
▁79%
▁cyst
▁paired
▁acidosis
700
onidine
tructive
ailure
▁immunogenic
daily
▁elevate
▁clomiphene
omat
▁unstable
▁40%
▁comprehensive
▁longus
▁quantitative
usions
▁optimally
▁pharmacological
▁measurable
▁tryptophan
▁morb
▁actively
ziness
▁Immuno
▁glycol
erent
19
mend
▁hepat
▁innervation
▁carcinogenic
PGE
osteroid
▁bp
▁attenuated
amyl
▁induce
▁monophosphate
rinary
▁antif
tality
▁palmit
opoly
▁immunogenicity
▁moderately
apine
▁evid
▁phag
crib
predic
▁stere
80
jec
retion
esity
▁strand
▁transduc
▁0.17
turally
▁experi
tening
▁mell
▁saturation
▁satur
▁tomography
▁phe
▁superf
mitter
▁washed
tee
▁25,
24,
74
00,
▁muscular
essive
▁Cd
2%
▁comprised
ituitary
▁peroxis
acholine
▁21-
resting
▁graded
▁tet
sts
chol
NIDDM
▁homogene
▁oximetry
▁molecule
prisingly
▁corticosteroid
▁activator
ophore
▁heating
ocalization
▁potentials
Ep
▁prevalence
▁4.0
▁duodenum
▁microM
▁capsaicin
▁termed
▁(3.8
▁estradiol
▁pyram
▁quantified
▁mamm
tory
▁Doppler
▁septum
▁1.2
insensitive
▁UTI
▁enrol
14)
/4
▁urgent
▁dehydrogenase
▁hemodynamic
▁inositol
athy
▁seronegative
ominant
▁hepatotoxic
▁resonance
▁adhe
-7
▁readings
▁lys
▁Kine
▁calculi
geal
▁medulla
▁BMD
arous
▁selen
▁definitive
▁76%
▁rhabdomy
▁Effects
tic
▁hydrophobic
▁glycine
tiazem
▁diarrh
tility
▁Addition
ystitis
▁fasting
▁absorpti
▁sexes
risk
avage
▁(8
▁postmenopausal
ecal
▁58%
▁enteric
Hyp
trate
▁preferentially
articular
-40
▁diaz
▁spectroscop
▁classified
ichia
▁phenylephrine
electro
tisol
gus
▁phentolamine
▁helix
▁assessments
reening
▁ori
rase
Hb
▁trich
▁titr
▁alteration
▁glycosylated
▁intense
icient
▁solely
thrombotic
▁provoke
tif
naud
▁intake
▁unm
▁dendrites
▁blinded
icated
▁exce
adine
▁comparisons
▁intramuscular
olerance
▁cataly
▁pineal
ollen
▁transported
▁oligonucle
▁behavioral
▁introducing
▁questionnaires
edema
▁infants
▁43,
▁Urine
maximal
uris
▁fibronectin
-35
▁irritant
▁calf
etween
▁prosthesis
▁accumulation
▁lysozyme
▁insom
▁rearrangement
uated
3+
▁lambs
▁cytoplasmic
▁195
abies
▁1.6%
▁determinants
utaneous
aspartate
▁immunostaining
ionine
▁deform
zot
▁ischaemic
▁captopril
▁235
kets
▁(54
ostic
regulation
▁elic
▁TI
▁extensively
▁(50%)
▁orthoped
▁contamin
▁incis
▁resemble
▁lasted
▁libitum
uppres
▁artery
▁substantia
cence
▁routinely
▁(5%)
▁anion
▁seizure
tives
▁resection
▁compares
seven
▁covalent
▁stimulates
▁cefaclor
▁transfected
▁102
▁vulgaris
▁endotracheal
▁indefinite
▁0.15
hormonal
▁fluc
▁grading
40
)],
▁cyanide
▁249
▁nifedipine
▁(80
imazole
▁deem
▁socio
▁atropine
osts
▁cavity
oprostol
▁ane
▁supine
▁noninvasive
▁quiescent
▁cured
▁cyclosporine
▁24)
▁reflux
▁excluded
▁depolar
▁infarc
▁singlet
▁EBV
▁electrical
oprost
▁TGF
▁prescribed
▁serotoninergic
▁antibody
▁saliva
uled
▁EGF
chym
▁phospholipid
▁chamb
▁caudate
▁diuretic
ylamide
▁fluores
▁neurolep
▁serologic
sives
▁135
heximide
▁encephalopathy
▁cyclooxygenase
individual
zine
▁0.18
ondon
▁diltiazem
▁39%
ulmonary
▁infertility
▁embolism
embry
▁BAL
▁2.8%
cancer
titial
▁preferential
▁neurotrans
tivated
▁elastase
▁newborns
▁pretreated
othelial
▁carbohydrate
iciency
▁deleterious
▁adoption
thood
▁nuclei
cardi
▁Incubation
▁infarct
▁unfractionated
▁diabetes
▁sensitivities
iliac
guan
▁pts
ethanol
▁alcohol
▁sinusitis
▁irradi
oselective
ospor
▁vomiting
▁socioeconomic
loro
rangement
▁cardi
▁2.5%
ximum
▁exacerb
▁MH
Ev
▁AII
▁schizophrenia
▁rabbit
▁60%
ogenetic
▁magnesium
▁(1.6
▁instrumented
dibular
▁granulomas
▁55
topril
▁+/-
▁101
nitro
▁medications
▁chromat
▁stom
infected
▁newborn
▁glycer
▁TNF
▁outpatient
▁revised
▁clonal
ralfate
osal
▁restr
▁augmentation
▁99
▁tachy
▁90%,
-2
▁affec
▁2-
▁reas
▁0.8%
▁neutropenia
▁encodes
inely
▁suspicion
▁iodide
▁jaund
▁blockers
▁sampl
▁succinate
▁enriched
▁erythematosus
▁audit
iclovir
posure
▁ciprofloxacin
▁Laser
▁inflamed
epti
1-
▁childhood
49
▁forskolin
▁Transient
▁8%
▁postprandial
oventricular
▁averaged
▁bromocriptine
▁PCO
▁acqui
▁6%,
▁bilayer
▁(10
▁aggres
uary
▁reser
▁resear
▁encouraged
tual
atine
▁disorder
unts
▁conclusions
porting
reactive
▁duct
▁calcification
▁congestive
▁infection
▁(49
▁bif
▁sclerosis
▁gastro
▁illnesses
▁modif
truction
▁sequencing
cyclic
ysto
▁cartilage
▁8.3
▁derangement
▁revascular
▁pigs
▁ultim
▁biotin
ipid
▁RI
rogenic
esides
▁serotype
▁intracellular
▁corneal
▁metast
▁deficient
▁antiv
gene
▁brainstem
▁suction
▁promoters
▁proce
▁carc
▁RP
opathy
▁Viral
▁promptly
▁Cumulative
▁cGMP
▁0.025
▁lipids
▁affects
colem
▁contiguous
▁codeine
▁microscope
vae
▁aimed
oprim
▁subpopulations
▁59%
▁pathways
▁lymphoma
arbox
▁amputation
oplasia
▁(68%)
▁venti
▁radiograph
▁ischemic
ventricular
▁scalp
-5)
restingly
▁coping
clerosis
imus
▁dietary
▁oestradiol
▁inorganic
▁8)
obacterium
turnal
enkephalin
opsy
▁amput
yocardial
▁therap
▁abscess
HF
▁consultation
thase
▁HBsAg
endorphin
▁concentrated
▁thymic
▁82%
▁arterioles
▁collecting
cellular
▁polyethylene
traum
androgen
▁15,
▁256
xanthine
ynaptic
▁500
aints
▁cDNA
▁vulnerable
7.
▁intest
▁antich
▁gangl
kinin
▁erosion
▁concordance
▁biologically
▁monit
▁analgesics
havi
▁68%
turition
▁Calcium
▁Cancer
tamine
▁diame
10
onephritis
▁suppression
▁appreciable
▁prosthe
▁rhin
-6.
▁NMDA
ffin
▁15-
ncy
▁5,
odil
▁89
arate
junction
▁reconstituted
▁(62
▁molar
plicated
lep
venous
▁93%
▁7.5
▁46
▁(250
▁LDL
▁thromb
ergency
idated
▁intrinsic
▁CM
Glu
▁600
▁9.7
being
amino
Tc
▁deduced
▁mesen
triglycerid
athioprine
▁microscopy
▁TT
▁carbohydrates
▁coated
reast
▁filaments
itro
▁ischaemia
▁flour
▁(38
▁phospholipids
▁17.
poor
ocyt
▁HTLV
▁transiently
▁(0.5
▁(4-
▁antifungal
xiety
tened
▁parasite
▁strokes
▁Estimates
▁substances
▁shedding
umbers
▁Evaluation
▁100,
▁adrenal
▁IgM
acquired
▁mmol
▁Wistar
▁thi
▁PV
▁corticos
cemia
▁superiority
▁lavage
▁extracts
▁mucus
▁kappa
13
▁cann
▁GMP
▁reliably
▁calorie
▁plaques
mature
▁resour
▁ligament
63
▁GER
▁foci
▁alterations
▁(1),
Leu
Ra
▁Thyroid
▁rati
▁ips
▁8-
▁transit
▁preserving
▁antiser
onor
▁prophylaxis
▁subdural
11
itudinal
▁nif
▁nucleotides
▁10(
▁calmodulin
▁carcinogen
entral
ported
rolase
examin
otine
iaz
within
▁anoxic
▁defic
▁myo
coronary
3]
▁nicot
▁apolipoprotein
▁axial
otropic
▁plasminogen
▁reti
▁myeloma
▁cirrhosis
▁impairs
olesterol
▁enhancer
▁manifested
0.4
▁pharmacokinetic
▁119
▁precipitation
▁lovastatin
▁stimul
▁bronch
placebo
oxyrib
▁atrium
GABA
▁detrusor
ascular
▁0.49
▁diacylglycerol
▁cis
▁PDGF
concentration
luc
▁activators
▁canine
▁progression
▁evolved
▁diagnostic
gulation
▁describ
-400
▁symptomatology
▁plasmid
▁relapse
▁Comparative
tile
▁causal
▁0.94
▁inoculation
▁subcl
▁0.99
▁24,
▁seminal
▁benzodiaz
▁supplement
▁repl
osity
▁neuro
▁retardation
▁rated
▁introduc
▁postmortem
▁Tum
▁phasic
okinetic
uates
▁Nineteen
▁depletion
▁worm
▁calories
▁4.7
▁pregnancy
pharose
azolam
▁occl
▁doxazosin
▁fecal
ighted
▁1987
▁amplified
▁rhesus
▁institutional
▁inguinal
▁proliferative
▁iatrogenic
▁umb
thickness
▁Renal
▁tuber
▁Tolerance
quid
▁LDH
echn
▁islet
▁hemodialysis
▁reticulocyte
imethyl
▁oxidative
itals
usate
▁guinea
▁osmolality
arms
Cer
arum
▁30
▁schedules
tia
▁sleeping
▁fibrin
immunoreactive
▁PT
▁inpatients
▁fibrob
▁fractionated
▁50,
▁differentiate
bral
ioid
▁3.3
▁glutamate
▁curriculum
▁ethn
▁argues
▁dendri
▁DMP
▁algor
▁SDS
▁encoun
▁suppressor
oreactive
▁breathing
▁latent
▁differed
Gy
Glc
roscopically
▁promp
itively
▁contralateral
▁pene
ocytes
centr
0),
▁uro
▁transcripts
▁60.
▁correspondingly
▁methodological
▁HR
erican
ogra
▁5'-
▁IA
oporotic
orectal
▁Leu
(2+)-
ifferentiated
▁survival
▁cardiomy
▁depressed
▁MK
▁encompass
▁persis
hea
kDa
ronate
▁organic
▁centrifugation
▁3.9
ritish
-5-
amily
▁minority
▁13.9
ecre
ochondr
▁prospective
molar
timulation
asone
▁63%
promazine
▁lymphomas
valvular
itonin
▁depr
▁Abnormalities
▁38%
retic
▁nerves
▁.05).
▁diminished
▁opioids
zard
-3)
▁mIU
▁recru
▁flashes
▁Diff
gesia
akary
▁amniotic
▁impairment
▁fasted
▁fibros
▁lobe
▁extensor
▁celiac
▁amygdal
▁arrhy
▁systemic
▁synapses
▁raises
▁purified
▁Clinical
▁10%,
▁dosage
▁coli
tering
orrh
▁transmembrane
▁numb
▁proline
1-1
bred
0/
mTc
.0%
▁motone
▁24-
▁antiviral
tine
▁Triton
zyme
▁strips
▁suicide
▁nylon
usp
▁mononucle
▁HF
(1
▁steroids
-1-
amate
gents
▁dete
▁unresponsive
selec
▁Lym
▁cholera
osid
▁disruption
▁portions
▁recruited
▁13.2
urin
▁uninfected
plasty
▁mutagenic
ongest
▁spinal
increased
▁erythrocy
▁300
tivation
opropyl
▁influx
000.
▁thyroxine
▁2-3
oblastic
ginine
eptic
idym
▁133
▁torsion
▁severely
▁140
▁Infection
▁marrow
▁carcinogenesis
▁surrog
33
▁worsening
iuria
compared
▁nasopharyngeal
▁-5
▁000
▁polyp
▁confounding
▁maneu
▁abscesses
▁carcinoma
▁smear
ocytopenia
▁intractable
tein
▁sputum
roxy
tebral
▁1:
▁caution
▁cutaneous
opathological
▁globulin
▁infectious
▁digestion
▁0.88
▁pathophy
▁polypeptides
▁myocardium
▁messen
▁0.9
agonists
▁islets
▁cathe
esium
▁percutaneous
▁caries
▁typh
▁catechol
▁monomer
ocon
effec
glyc
▁inactiv
usive
▁descriptive
▁9.2
▁syphilis
ipril
▁metabolite
roscopic
endix
▁chloro
▁hypothal
▁tubulin
entricular
▁parac
▁ELISA
otonic
▁allogeneic
▁unpredictable
▁unchanged
ystolic
ctomy
▁stimulated
▁translocation
▁carboxyl
▁nontoxic
phadex
muc
▁assay
osome
▁suprac
▁sclerotherapy
▁distal
edded
ylene
▁Hodgkin
▁75%,
endri
▁confined
▁surviv
versity
▁continuing
▁regurgitation
▁Tissue
hCG
terol
ylate
rati
▁antigens
▁implicated
▁[35
▁RR
tenance
icardial
▁dopaminergic
conjugated
▁ischemia
▁perip
▁3'-
▁wors
▁nmol
▁thromboembolic
7,000
epam
▁295
▁mothers
rophen
▁Simult
▁ovine
transferase
▁nm
▁acute
▁compartments
▁bacteria
▁Secondary
gesterone
osacral
caro
▁(2.5
▁0.001).
▁0.82
▁hypertro
tigu
▁rehabilitation
44,
aryngeal
oceptor
ranial
ogeneic
▁resting
▁transferase
▁bronchoscopy
▁10(3)
▁187
▁2.6
▁11,
▁supernat
rotic
▁ureth
▁mathem
▁vesti
oplasty
sorption
▁-10
opa
-100
▁cytosolic
tRNA
idazole
motor
-17
▁pancreas
thanol
invasive
▁bull
▁apical
▁1.7
▁179
51
ayed
▁blas
▁dehyd
▁conducting
▁challenges
▁vertebral
elan
thma
▁218
testinal
▁Levels
▁hypothesize
▁births
▁15%.
▁rup
▁47
▁(4%)
▁sarcolem
▁genetic
tions
▁esophagitis
idin
▁(28
glutamyl
▁scans
▁Bacter
▁amine
▁Breast
▁NSAID
rocytes
▁monolayer
▁hemisphere
8;
razolam
▁dissociated
ifornia
▁phosphoinositi
▁cytology
▁inconsistent
inesterase
atical
45
22
▁arteries
▁macrom
▁retrospective
▁hydroxyl
HN
seud
▁modalities
▁heavier
▁estimating
oxygenase
▁protracted
-0.
▁admission
reported
▁vaccin
▁(48
▁wards
▁spacer
osin
xone
ocul
romes
▁40,
▁mildly
▁dex
ometh
▁immunosuppres
umented
▁glyc
▁ureter
▁injected
sorb
iatum
▁irritation
▁4
▁excl
▁lumbar
▁evaluates
27
▁ovari
▁0.91
▁sulfate
▁tobacco
polar
ometers
▁intra
▁daltons
ATPase
▁(39
5%)
▁exercising
▁phosphate
▁presum
▁2.1%
▁basolateral
▁recognizes
effective
▁lor
▁protoc
ocrit
▁(95%
ausea
▁144
▁Cardiovascular
▁enrolled
ses
▁(0.4
erad
purified
▁(1).
▁pyruvate
▁molecular
▁receptor
roglobulin
▁AVP
▁subclinical
▁analyzed
rected
lipid
▁preeclampsia
omies
▁identifying
▁allele
▁transmitted
▁heterologous
▁Centers
perfusion
4%)
▁hypertonic
▁6.0
-8,
▁transcript
oglyc
fatal
▁autoradiography
▁HC
▁100
39
▁IFN
uation
▁enteral
▁physi
▁pharm
▁discontinu
▁chains
adjusted
herent
rosophila
illus
▁renin
▁papilloma
alian
▁swine
▁Barrett
▁Delayed
yses
▁unilateral
amycin
▁positivity
▁qualitative
.5
adiol
lact
acting
▁axon
-23
erox
▁buc
▁20,
▁refr
obronchial
piratory
+,
▁morphologic
emic
▁COPD
▁11.8
oice
▁postoperative
▁eliminating
itant
▁(60%)
▁influenzae
▁intravenous
▁hypercal
▁shel
▁soy
ocarcin
ivation
0.6
oligo
▁eosin
▁fluxes
trop
▁casein
▁psychosis
▁histologic
▁Pseudomonas
▁dys
▁suspected
▁surgeons
▁laboratory
▁Gluc
▁HeLa
▁flexion
▁facilitated
▁biopsies
tradiol
weighted
orin
▁catalase
▁CAD
▁streptococcal
▁exhibit
▁18%
nitine
▁anticonvulsant
▁TB
▁adhesion
▁adenine
expressed
▁bovine
▁substanti
availability
amol
▁horseradish
▁focusing
▁obstructive
opathology
▁transgenic
▁hydroxylase
30
tical
▁neoplastic
▁650
aneously
▁Neuro
▁Stress
▁contraceptive
▁cDNAs
receptor
▁hydrogen
▁tended
▁recurrences
▁3).
iferative
▁poorer
▁doxorubicin
▁lapa
stem
oxine
uded
▁asymme
▁104
arginine
lysine
hist
▁hamsters
▁ranged
▁lymphocyte
▁quinolones
tam
enil
▁angiotensin
▁9%
ipr
iciently
▁Eff
▁immobilized
▁adjusting
▁obstetr
onomic
▁reconstruction
▁SHR
▁fixation
▁(1.2
450
HDL
▁periv
▁quies
▁Educ
lora
▁accumbens
▁stimulate
▁intestinal
ellular
▁atr
duction
▁2000
▁denaturation
▁hypothermia
▁summarized
▁chorio
▁irrespective
▁attained
▁115
▁prevalences
otoxicity
▁35
opath
▁investigator
antoin
▁poten
▁proton
▁lactate
▁0.43
4)
▁thrombotic
▁mononuclear
▁behavi
oactive
fusion
phyrin
▁Recurrent
rocal
0.0
▁132
MH
▁addic
▁enti
▁precur
▁4)
▁atria
nons
▁recurrent
▁phyto
enoic
▁16%
▁referral
▁122
▁titration
effects
▁preschool
▁overlapping
▁AChE
▁malignancies
▁metronidazole
WB
insulin
▁tube
ohns
▁joints
▁consumed
▁suggestive
▁Disease
▁LVH
omized
▁uncoup
▁standardization
▁wean
▁16-
▁pound
directed
iatric
▁shifts
▁aspiration
▁damaging
▁chec
adecan
matched
▁Factor
▁hydroxy
▁80%
adication
▁widespread
▁overnight
IDDM
oscop
▁ib
▁PMN
▁terminus
ochrom
irubin
▁stepwise
.3%)
▁87%
▁0.20
▁aspirin
▁PEF
TCA
▁carcinomas
▁ovariectomized
▁fluorescein
▁58
0%
▁elicits
erable
▁implantation
emide
ANF
acchar
▁aggression
aemic
000,
azem
▁benzyl
▁dysp
▁neoplas
▁simulated
▁DBA
▁plasmin
rophic
14,
▁phosphorus
▁hypertension
▁7.3
▁imaged
▁depressive
aline
▁chorionic
pli
▁irradiated
▁192
atients
▁41
▁therapies
lovir
idium
3/
gp
▁0.001)
▁phosphatase
Gl
▁nal
anic
▁biop
▁potencies
▁constipation
▁183
▁microscopic
Bs
▁chemotactic
phosphon
lobin
▁21,
entical
▁DL
illar
▁immunoblotting
yel
+/
88
▁elucidate
▁amyl
▁insulin
▁degen
▁addiction
▁CMV
ophen
▁Combination
ruc
▁Approximately
imentin
▁treadmill
▁Clinic
▁deformities
▁17
transfer
erate
-1.1
▁anesthetic
▁epithelium
throm
▁154
120
▁attrib
astric
2%)
▁elevating
▁lupus
▁peritoneal
▁therapeutic
▁Computed
▁degrad
RP
▁hypoxia
▁deletions
▁117
▁1980
▁abnormal
▁citrate
▁enhance
4+
▁inactive
▁0.04
▁complexes
▁regulating
iliary
95
▁166
dered
▁dendritic
▁10(-9)
8)
▁shortened
▁splic
▁cys
▁warrant
▁undetectable
▁viscer
▁substance
▁Surgery
▁20
▁immunization
▁colorectal
acil
▁retrospectively
▁oncogene
aminergic
▁immunoassay
61
▁muscul
▁hyperthermia
▁striatal
acts
▁rhythm
▁wk
▁subf
▁biased
▁disturbances
▁elec
▁optimum
▁phagocytic
▁progn
▁clind
▁direc
▁deple
▁doxycycline
▁yohimbine
▁oxidation
-0
ATP
▁Raynaud
moid
▁expectations
▁peaked
.1%
.3
▁1.2%
▁initiating
▁antimic
1%)
▁malabsorption
▁cen
▁Extr
ejection
▁symme
▁virtually
▁Americ
26
osyl
▁quantitated
▁41%
DH
methionine
▁microsomal
-3.
significant
▁substrate
▁30%.
▁radioimmuno
▁DSM
reases
sants
eal
▁rheum
Ga
▁ongoing
▁cadmium
▁hepatotoxicity
▁(1.5
ygous
▁risks
▁Differences
▁Almost
▁tumour
▁Inventory
▁outward
▁incontin
▁inges
▁DS
▁radioactive
olute
ociation
iceptive
▁findings
▁scarring
▁Subcutaneous
▁downstream
▁excretory
glycer
▁electrocardi
6-
piration
17,
early
▁exon
▁adrenoceptor
▁(2.6
▁rebound
▁(75
4),
roscopy
▁infections
illary
partate
▁correspon
enzymes
▁dehydration
▁relieved
▁15.
▁Plate
▁111
abd
hydropyridine
Ly
ococcus
▁palp
▁PGF
▁overestimated
acylglycerol
▁13.3
tens
▁reveals
▁10,
▁apnea
2+
▁cervical
cells
▁lens
olution
▁hypoxic
yroid
▁admissions
▁recons
▁conduction
▁acr
inic
▁substitutions
▁prophyl
▁hyal
ologous
▁axonal
buterol
economic
50,
▁auditory
rangements
▁competent
▁DNAs
▁supernatants
▁evacuation
ovarian
9;
▁intermediates
▁MT
▁anaesthesia
▁attributable
▁fulminant
idone
▁macropha
heres
▁bicarbonate
inated
▁mum
▁challen
ordance
▁galactose
ucl
▁dihydro
▁lith
▁infil
▁granul
ophilus
▁AI
/12
sensitivity
oride
2.
▁0.41
▁selectivity
aginal
operated
sibly
-2.0
hyd
▁PKC
pite
▁placement
▁trigeminal
▁rotavirus
ncies
▁ovarian
▁margins
▁measuring
▁plasm
utyryl
▁avoidance
▁monos
▁Ringer
exposed
yro
ocaine
▁0.000
fluoro
▁duplex
▁Pretreatment
▁0.0001)
▁(20%
▁discom
uran
▁229
hexidine
▁concep
▁(62%)
▁mumol
▁6.4
▁88%
▁Seventeen
72
▁damaged
aterally
turb
zation
▁multim
▁markedly
▁PMA
▁pyr
▁neuroleptic
▁cardio
timal
ethylene
▁abstin
▁protons
▁vacuoles
tabol
▁adduc
▁maintaining
ygotes
▁medullary
scherichia
▁[125
▁helical
oste
tle
▁coordination
▁survived
treated
▁epiderm
▁nigra
▁postsynaptic
▁pancreatitis
ylase
▁lisinopril
▁0,
▁Physical
▁liver
▁supportive
▁0.10
▁Caucasian
smokers
pirone
▁kinase
▁Registry
tomy
▁stimulant
▁nons
▁prevented
▁glut
▁15.8
▁concer
▁postoperatively
▁27,
heal
▁Rating
▁posttreatment
IgA
tract
▁nonp
▁(42
PPP
arrhy
ropriate
▁contracep
▁quanti
yroxine
accharide
▁EB
rehen
▁polymorphism
▁20%,
carbohydrate
▁otitis
▁amiloride
rine
▁grain
▁ile
chicine
omotor
▁infusion
▁resul
▁RT
tyl
▁uncom
▁enlargement
▁cytoch
▁eicos
▁renders
▁hemoglobin
▁0.12
▁Hg
▁ventricular
omes
▁hepatocyte
▁(+/-
▁TCR
olipid
ceptive
▁histidine
▁regulatory
▁intram
▁UV
▁outgrowth
▁Indi
butamol
irub
▁histamine
▁-0.6
▁decisions
▁knee
▁propensity
▁spectro
mitters
▁natri
ialysis
▁Sixty
▁clom
▁catalytic
▁(93
asting
▁encour
.6
▁tymp
▁autonomic
▁discon
▁induc
rein
▁31,
triglycer
0.7
▁naloxone
coup
▁fracture
ocomp
▁20.
siveness
▁NP
▁180
▁45
▁69%
▁(69
uctose
▁efficacious
▁demonstrates
▁proximal
tration
▁phorbol
▁streptoc
▁fetal
9,
herence
35
ostomy
▁olfactory
tituted
▁Combin
oxyl
ariate
▁couns
ofl
▁produc
▁(14
▁0.3
▁macrophages
oretically
4%
▁0.13
▁regulate
▁infusions
luent
physe
acental
vaccin
▁rupture
▁(3%)
▁emulsion
▁assis
cys
▁pressures
atid
▁glial
▁163
▁ions
▁MAP
tro
▁benzodiazepine
▁yielding
▁allergens
▁responders
▁neoplasia
pig
▁immunode
PSP
ecu
▁thrombocyt
▁physiologic
▁71
▁60-
▁CAL
▁hypothalamus
▁dysfunction
▁reactive
▁techniqu
yste
▁visualized
thym
PAP
robial
▁bladders
tochem
▁mug
▁ect
tub
PAGE
cholesterol
occus
30,
▁33
▁potent
vating
unting
assessed
titu
plenic
▁0.44
▁reproducible
fibr
▁peroxidase
traumatic
IIIa
urane
▁hep
SAID
iron
▁diagnoses
▁HLA
▁polyc
antigen
▁chewing
▁10(-8)
ipolar
LV
tructural
▁anesthesia
dyn
▁fatigue
ipine
▁146
▁Preliminary
ometri
tically
athe
kelet
lym
▁0.05
▁spor
Gal
flamm
▁decreased
cycline
▁selective
lasses
▁postpartum
▁puncture
▁kerat
▁Treatment
▁Exposure
▁needle
▁recombin
▁immunized
▁transi
▁10.8
▁exposure
5,
othiaz
▁0.2%
ameters
5%,
▁neuropathy
▁avian
▁imaging
▁overweight
▁spleens
▁hypophys
▁aerobic
bodies
▁14-
echan
▁0.05),
ecretory
▁psoriatic
▁backgrounds
yron
▁serogroup
overed
▁neuron
tent
▁prescribing
bacter
▁(40
-20%
onyl
TPA
▁granular
▁glomeruli
▁seropositive
▁interference
+)-
▁exclusively
ensitization
▁Therapy
▁ventilation
▁unde
eight
▁0%,
▁glucocorticoids
toc
▁insufficiency
▁170
ofib
▁sulph
▁congenital
▁IVC
antial
chlorothiazide
▁Likewise
▁histologically
▁toge
▁sepsis
tropin
▁augmented
▁struc
-5.
tiguous
▁renovascular
▁subc
▁0.02
incub
▁intensive
linking
▁intraepithelial
valine
plete
erum
erence
▁bromide
▁retard
▁Patient
▁33%
▁10,000
opulation
▁0.46
▁menopausal
▁anatomic
odopa
illion
▁phosphor
▁hypoglycemic
▁stimuli
▁Progesterone
▁wheat
▁PPD
▁clu
vaccinated
▁osteoporosis
12
▁cystic
▁(32%)
vul
▁gases
NK
▁frontal
▁persistence
▁isoelectric
moking
▁genome
▁atrial
▁[1
▁electroph
rague
iary
▁7.8
▁Diagnostic
labeled
▁cyan
magglutinin
administered
▁quadrup
▁(63%)
hydr
▁3.4
lec
▁depolarization
▁hyperpolar
▁HIV
titis
▁psychotherapy
▁extrap
osol
▁Protection
▁collateral
▁pyrid
▁unex
▁enamel
▁serologically
5]
aemia
▁chlorhexidine
▁Acad
▁moderate
otherapy
▁spleen
▁monomeric
▁intercourse
▁RS
▁isozymes
▁Weight
▁sinus
operoxidase
▁prel
rox
▁hypot
▁1989
▁OD
▁categorized
3),
▁implanted
▁osteoc
/18
▁100,000
NV
▁kits
pregnant
▁adhesive
▁monolayers
▁Assessment
adren
▁classify
▁noradrenaline
▁vasodilation
▁89%
▁albuminuria
▁fibroblasts
▁differen
▁SPF
ellum
▁reper
▁.00
▁nervous
▁yearly
▁pooled
▁granulocyte
▁placental
mentation
69
▁prematurity
▁restoration
103
▁tetra
▁amlodipine
▁Consequently
▁-3
▁meals
25,
emin
▁tach
▁perikary
▁priming
▁hybridized
posable
eradish
▁bloc
▁100-
8),
▁[14
▁aneup
▁reproduc
6)
arbonate
▁umbilical
▁37
▁msec
oidal
▁sensitization
▁Surgical
FSH
-13
▁pretreatment
41
gated
▁6)
▁extre
▁persisting
acet
▁anxio
1.1
contrast
▁sulfhydryl
▁ciliary
▁4.5%
▁trophob
orated
▁negatively
▁leukemic
▁29
▁predictive
oreceptors
kD
ensitive
▁edema
cellulose
-22
▁vitamins
▁preven
oate
▁neurologic
apse
years
▁grafting
▁acetylcholine
▁cardiople
▁uteri
▁0.07
▁reflects
▁0.78
pinal
sensitive
▁organisms
▁androgenic
induced
convul
▁clamping
▁-4
▁oes
▁34%
▁reactions
▁1,25(
apamil
▁irrig
▁viscosity
▁(10.
ergy
Ts
allikrein
▁attain
oderm
▁considerably
▁RV
phrine
.10
ilol
.3%
▁statis
▁CB
▁tendon
▁tibial
dihyd
▁vasoconstrictor
▁ech
▁pump
▁bursts
▁beads
▁efferent
▁transplantation
▁prostate
tally
ughter
▁coupled
▁babies
ystic
▁correspondence
ardias
▁inactivation
▁xanthine
oratory
▁HCO
▁Protein
▁4).
keletal
▁14,
▁56%
▁feeding
atation
▁characterize
▁3/
▁sut
physiological
▁compe
▁azathioprine
▁vegetable
▁carbachol
▁electrophoretic
▁preoperative
▁arterio
▁62%
▁73
thirds
▁hemisp
▁bundles
endocrine
bran
▁(31%)
ameth
▁107
▁transcriptional
dotoxin
▁caloric
▁cartil
grams
tiary
▁gyn
▁inducible
▁GTP
▁labial
oic
▁fractional
▁homogeneity
inemia
53
▁norepinephrine
▁neutrophils
▁0.67
▁pK
▁ure
▁70-
▁deter
▁bacterial
▁tablets
▁nodules
▁embryo
▁articular
-72
▁LN
▁indication
▁heteroz
▁alcoh
▁supplementation
OA
▁metastatic
▁identifiable
▁0.1
▁detects
vitamin
▁persisted
▁SG
.9
▁neonates
▁healing
▁vibr
▁morbidity
prandial
ocompatibility
econd
▁triglycerides
▁(43
▁mAb
▁spindle
kephal
glucosidase
▁cultured
olated
▁immunodef
▁sero
▁4.3
▁diphen
▁Absolute
▁irr
▁encouraging
oflurane
inopril
neumon
▁GnRH
erule
▁Swed
▁toxic
▁Haem
▁demonstration
▁baro
▁relapses
▁structured
vian
alsy
▁Patients
▁(26
▁repeats
▁mild
▁discomfort
ifed
aning
▁workplace
BP
▁medial
▁modeled
osynthe
▁VT
▁Lipid
rested
perature
▁inhalation
amine
▁entero
59
FU
▁cerebro
phor
▁modulate
anide
▁endothelial
aminophen
trast
▁forebrain
▁elast
▁contamination
▁twofold
▁noncom
▁35%
▁Acute
otype
ophosphate
MHC
▁ald
▁vascular
▁nerve
▁radiotherapy
hypertensive
▁failures
epine
▁ATPase
▁hapl
iper
▁glycerol
-19
▁NADH
oalveolar
hydroxy
▁gestational
ophren
▁basement
▁perfusion
71
-7)
▁sodium
iotics
▁RU
▁cats
▁soluble
▁heme
tur
▁57
ysm
▁162
▁evoked
▁kb
▁endoscop
.6%)
unced
▁epitope
▁presynaptic
▁inters
▁90-
▁lorazepam
-70
macrophage
▁aberr
▁(-)-
tures
▁haemat
▁cysts
▁31
weekly
omycin
jac
▁20,000
▁hipp
romycin
▁histology
▁euth
▁marginal
▁0.83
▁angiographic
▁uncommon
▁esophag
▁physician
▁prostatic
▁gp
▁differentiated
▁relaxant
▁221
▁0.95
gely
▁loos
▁bup
▁prognostic
▁candidiasis
/1000
(+)
orbid
▁fibrosis
▁protease
ologists
▁1.00
▁abnormalities
ocl
▁endo
▁81%
▁91
▁blot
▁prospectively
▁inhibiting
stin
hop
▁toxin
▁thrombosis
▁preparations
iparous
psin
ogenes
lusion
▁hematologic
00-
▁construc
fed
▁Pt
▁Thir
:1
▁aortic
▁stimulating
▁Certain
▁4,
olam
▁mercury
▁fibrous
▁consistently
▁overview
▁194
thymidine
mide
uterine
▁abolished
▁instability
▁valve
clinical
trus
▁undere
▁Improvement
▁adolescent
tir
organic
▁epithel
▁3.0
▁cytologic
▁IGF
phine
▁adenoma
icin
▁analogue
dle
aturated
▁duplic
▁contribut
▁HB
▁compositions
▁astro
▁8,
bly
▁Bec
▁isotope
ministration
▁Examination
▁HSV
oustic
▁relaxation
erop
ludes
cture
▁hemorrhage
anesthetized
ichloro
coag
▁Sout
accharides
▁shif
▁kary
▁MAb
trin
▁compli
usively
▁GE
▁inflammatory
65
▁unexpectedly
▁papill
azole
▁dosing
mg
▁ascorb
▁51
stim
▁focuses
▁ABR
unctional
▁hemorrhages
▁grades
▁AH
▁dental
▁4000
adrenergic
ilibr
▁PTH
▁DP
▁14
saccharide
▁(86%)
▁0.34
▁189
▁clonidine
▁158
tively
lycemia
odine
▁bony
incubation
▁caudal
▁microsp
▁segmental
▁deposition
Dawley
▁proportions
▁grains
▁TS
patients
▁abnormally
▁108
immuno
▁fertilization
▁gains
▁angiography
▁preval
ocyte
▁voiding
▁evaluable
▁outlined
sor
▁Extensive
ylated
educ
▁electromy
-200
rospor
▁0.0
ochemistry
agic
▁44%
▁psor
aminated
bromo
▁(25
thyroid
disciplinary
42
2]
plast
▁acyl
▁endpoints
-6)
▁predomin
▁proteolysis
aminase
5-
▁Sprague
▁HRP
-52
▁chest
▁allergy
▁pep
Gs
uclear
icidal
activating
93
▁40,000
violet
▁hepatoma
riamycin
▁Prospective
8+
+.
-40%
▁128
rachial
azoline
▁mice
otroph
▁hig
▁Pregn
▁posttrans
▁typhimurium
▁Depression
▁11-
omatosis
phyloc
▁multic
7%)
▁resolving
▁postural
▁clinics
▁SLE
▁injec
▁contraceptives
▁Beta
aminoglyc
▁vancomycin
▁hydrochloride
▁climb
▁cuff
▁subun
▁tracheal
yridamole
▁hemorrhagic
genital
▁acros
-1)
▁thoracic
▁2.
▁exud
▁cephalosporin
▁heal
uantitative
▁54%
entanyl
▁reinforce
▁139
ller
▁chicks
rometry
▁flora
cAMP
▁dairy
▁verapamil
▁17,
▁quin
vant
▁199
▁disrup
▁epidural
▁regurg
▁canc
imination
▁replic
▁55%
▁correlates
phasic
3;
▁rigid
▁limb
acin
inyl
▁experts
vedilol
▁endarterectomy
▁synthetic
▁chicken
▁carbam
▁polypeptide
▁cytokines
ASA
ducing
▁Subjects
▁1.05
azepine
▁utilizing
▁157
GH
▁mim
92
▁Nutrition
▁histone
umbar
86
tec
loon
▁conjugate
▁dyspnea
▁adenosine
triphosphate
roat
▁hind
aturia
▁encephal
elic
ilic
▁AO
igaret
▁organs
▁ovulation
▁whey
1.
aceous
lue
atchard
▁degradation
▁transforming
▁lipid
enteritis
▁1500
▁simultaneous
▁alveolar
9.
▁FSH
▁perception
2,
▁0.1%
▁ingestion
oxif
▁182
xyl
▁hazard
▁21.
▁lysine
tryptamine
▁OKT
▁endoscopic
▁0.65
▁silic
mortem
imodipine
▁VV
antibody
hydration
rief
trig
otre
▁habits
▁infarction
▁7.
▁DBP
▁BK
▁CNS
▁trunk
Hg
▁potentiation
apeptide
▁DVT
ACh
▁oscillations
▁0.5
quir
ylchol
chlo
▁albumin
reatine
nucle
▁3,
▁adults
vascular
lox
▁unselected
▁forsk
▁prosthetic
▁0.62
/10
▁0.28
▁retention
▁angiogram
▁reagent
irradiated
tency
orts
▁antagonists
drome
ervative
limb
▁undergone
tative
imentation
▁ammonium
habil
▁compromise
▁(95
125
roin
▁stimulus
▁indoor
▁airways
▁0.25
SMR
ycin
▁deficiency
▁kD
osyltransferase
▁plexus
▁0.60
▁catecholamines
▁12,
▁difficul
▁94%
▁sheath
▁endometr
▁probe
ductase
▁(3)
▁currents
▁oligosaccharide
-3,
▁0.03
▁gelatin
vular
▁monocytes
▁subtype
▁conserved
▁imipramine
adrenaline
▁0.90
▁frac
▁Evidence
▁retinol
▁internalization
▁glandular
▁recordings
▁autop
21
▁questioned
toph
▁(24%)
▁250
induc
▁symp
sities
Lys
▁Transi
▁junctional
▁Oral
▁440
▁infected
▁exis
▁glycos
▁GA
▁demonstrating
-50
hydroxyp
▁1.06
iciencies
▁pHi
▁arachid
▁retinopathy
phosphamide
▁Hep
▁optic
etent
▁spati
ochem
▁erythema
▁BW
▁palpable
▁exaggerated
neu
ploy
▁facial
▁punct
▁hybrid
▁irrigation
▁amplitudes
▁tic
:3
▁excluding
ocyst
▁cyt
▁nonin
▁solub
▁birthweight
▁tetrodotoxin
▁10.7
ectomies
▁succin
▁immunological
▁projections
▁unil
olved
obacter
surgical
▁complaints
▁26
▁agglutinin
▁likelihood
pA
▁transaminase
▁justif
▁kinetics
▁0.71
▁jejun
avirus
▁worsened
▁insoluble
plasia
▁electrom
▁juice
▁predominant
albuminuria
uppression
▁concanavalin
▁Ia
▁intrauterine
▁65
▁aspartate
▁116
itance
atoid
optic
ochle
plas
imurium
▁arthritis
▁1/2
hyp
▁irreversible
▁20%
hemo
▁ectopic
▁facilitation
lude
▁(44
900
▁239
imetry
▁bowel
▁athletes
formations
▁GM
▁panc
▁maximally
▁hybrids
tetr
2,000
.8
▁thromboxane
▁reinfection
eptid
▁follicles
▁sonographic
▁isolation
ensitivity
▁tiss
▁atyp
▁BP
oside
osarcoma
▁anticoagulant
▁123
gthen
ocardial
▁pancre
-2.
▁dias
▁exhaustion
entile
▁protective
▁lep
▁nicotine
▁analys
▁alopecia
ropyl
usal
▁proteolytic
▁incom
▁152
resid
▁concentrations
▁providers
▁pulsed
▁Cardi
anine
▁arous
▁0.01)
▁hyperglycemia
atories
▁ducts
-4,
MG
ergen
plications
ysts
▁larvae
butyl
ticle
▁30%,
▁agonists
▁positional
▁dilated
osan
salt
onography
58
osylated
▁flexor
▁fibroblast
enh
▁circumference
▁cerebellum
▁catecholamine
▁hepatocytes
▁estrogen
▁(23
▁anat
▁deficits
▁EMG
▁horiz
▁paroxys
hydryl
▁morphological
▁lob
▁examining
tectable
▁sugges
▁Diabetic
timate
23187
▁truncated
sess
tivities
▁13
▁Eight
▁asthmatic
▁Meas
▁cohorts
▁enlarged
rowth
▁WK
▁VP
▁employment
▁subcutaneously
imeth
▁tau
▁exhibited
irds
▁autosomal
▁projec
▁codon
sions
▁enzym
▁ventil
▁sple
▁(12
otypes
▁drugs
fiber
▁14.5
▁8%,
▁certainty
▁hospitals
▁throm
▁elu
▁sequelae
-90%
▁13%
38
▁chel
ortal
▁sigma
▁compensatory
letion
▁cardiovascular
▁Purkinje
▁eosinophils
▁fathers
▁thal
▁cosmetic
▁ligation
teroid
▁elastic
tate
uplex
▁ecological
▁hydrophilic
▁anae
▁deoxyrib
▁presumably
+-
Ti
tin
oscopy
▁efficacy
▁0.36
fate
icide
stro
▁Increased
athiop
astolic
▁ESR
▁prol
81
▁4.8
▁derange
▁HP
▁afferent
aptic
▁alumin
▁milder
▁61
untary
▁36
▁0.89
▁fatty
oxetine
▁reversing
ogenesis
▁dizziness
4,
▁Symptom
▁ocular
onin
encephalic
▁chlor
rowing
FN
▁0.2
▁22
▁CVD
onium
▁epithelia
allium
▁Grade
▁Chlamydia
▁mutant
83
▁lacks
▁specialists
initi
▁30,
▁pneumoniae
▁detecting
uresis
▁Ultras
▁excision
▁Increasing
▁circulation
▁blocker
▁simplex
▁influenz
arachnoid
▁Subjec
pyr
▁peptide
▁cryp
▁catheters
▁GSH
▁triam
olarization
▁57%
tensive
roitin
▁menstrual
▁rigorous
▁pressor
▁5%
▁vasoconstric
▁65%
▁(+)-
▁Phy
▁Fifty
▁syngeneic
lyc
glucuron
actam
mental
▁tetan
acyclin
▁(28%)
▁nominal
▁Finnish
▁antiarrhythmic
▁cough
osclerosis
umetanide
▁urinary
▁randomized
▁Adverse
.5%)
derly
▁employing
▁ouabain
omn
albumin
-125
▁205
▁exert
▁strep
▁exons
▁hams
trol
uretic
▁prostacyclin
terin
inating
icine
▁incid
▁varicella
▁preventing
▁hypnotic
▁Comparison
▁haem
▁therapy
aturity
anthine
severe
▁refractory
thal
▁3%
▁46,
▁basal
▁differentiation
lysis
▁keratin
plemented
▁placebo
▁trends
▁188
▁(5
ceived
▁sati
▁deviations
▁myelin
▁morphine
▁preterm
▁Phase
▁neonatal
rophy
▁LTB
incubated
▁crystal
▁thir
▁underg
▁haemodynamic
.2%
▁neon
▁inversion
▁herni
▁rele
▁(50
▁prodrug
▁progenitor
sparing
▁vivo
eak
estim
▁Tiss
▁dissociation
9).
feren
▁therapeu
6;
▁exclusion
▁0.9%
▁cros
helium
▁calves
▁slowed
(1,
notic
▁requi
▁anesthe
▁oestrogen
oxal
▁carb
▁cep
mitted
▁Individ
▁uric
▁275
-4
▁hypox
▁glutamic
▁glycoproteins
▁(85%)
▁crest
▁persistently
▁amoxicillin
▁mutagen
tinguish
▁gum
▁activated
rays
positive
▁behaviors
▁descriptions
5),
▁xen
▁synthesis
▁continuation
▁shortening
operidol
▁(500
establ
▁cran
▁sham
yx
▁11.
creatinine
▁cytochrome
▁thrombin
▁ascertain
▁synapt
otassium
▁stren
glutamate
▁immunoglobulins
▁tox
96
idic
▁parenteral
▁leukocytosis
▁Electro
ureus
▁(6
▁anomalies
▁screened
▁4-
3%)
▁erythrocyte
enal
▁2%
▁foods
acycl
▁synthase
loidy
▁TD
tak
▁aggressive
▁14.
▁synergistic
▁gluc
▁labelling
▁overt
▁ewes
▁locus
▁annually
pread
▁1991
inositol
tries
▁10(-6)
▁4.
▁regen
roso
▁PP
▁inhibits
▁triglyceride
▁isot
▁Cells
▁weighed
▁accessory
▁chondroitin
▁connec
▁pregnancies
▁defects
▁126
▁intral
5%),
▁14%
▁distinguishing
▁pellets
▁subfractions
▁impair
uronal
organisms
sy
osine
orh
▁controversial
nec
▁clearance
▁LC
▁induces
▁striatum
▁favoring
▁rodent
▁discontinued
▁descending
▁responsive
▁18
vated
▁appropriately
▁isomer
▁multicenter
▁centers
4,5-
imolar
▁expec
▁antagonism
▁initiated
▁antidepress
▁243
ept
▁(21
particularly
▁scaven
▁pem
RIF
▁emerg
▁complication
▁outflow
20
▁exacerbations
▁hydrop
ufficient
▁disappearance
▁1988
▁(75%)
Nase
▁erythroid
urons
▁interacts
▁Differen
▁Diagn
▁dressing
▁(0.0
chymal
▁ADA
-16
▁metabolized
▁proteinase
▁osteoporotic
▁twitch
▁contraction
▁PGA
▁ipr
▁explored
▁identi
▁.0
▁inhibition
▁competitive
▁fertile
sodium
▁Statistical
arose
▁nucleotide
▁alkaline
▁mineral
▁drin
▁5
▁calcium
athyroid
luding
.0,
exis
▁Reduc
rosis
▁polymyxin
▁Growth
▁characterizes
▁lifest
-1000
▁vegetables
▁lumbosacral
ocardi
ucine
▁reductions
▁topically
▁confers
▁Intracellular
anad
▁(10%
▁incub
▁peroxide
▁staging
▁NAD
phosphor
▁restenosis
▁extracorporeal
ventional
▁underwent
▁unres
▁anemia
0,000
truc
▁agglutination
olamine
▁hazards
otri
ilateral
rological
▁progressed
difference
etaz
▁predictor
▁immunologic
▁Antibodies
▁Relative
▁improving
▁crude
▁epilepsy
▁endemic
ucle
▁stoichi
▁serological
▁controver
▁cyto
▁12
PEG
▁BCG
tus
▁emergency
▁supplements
▁(19
▁sequentially
▁ammon
▁ammonia
▁anastom
▁phenotypic
▁49
▁kcal
▁mutagenesis
▁corpus
▁residual
▁appendicitis
▁12.5
▁duodenal
thyl
▁300-
▁2.4
▁epinephrine
responding
▁extrac
surface
▁necrotizing
▁accidents
operatively
0,
lytic
▁transluminal
0)
▁ana
▁inducer
▁rostr
▁IGFBP
gans
▁respiratory
▁cranial
onit
▁withdrawn
antibodies
▁lymphatic
genic
▁NGF
▁Lyme
▁Neurop
▁0.29
vaccination
▁fumarate
ropine
▁ether
▁spas
▁[3
▁mitral
▁212
▁encomp
istal
▁0.05).
▁endocrine
▁syndromes
ocusing
▁aorta
▁0.06
ithin
odend
▁fulmin
▁drops
lys
iesis
▁lateral
▁1,000
▁49,
thromb
▁vagal
▁teratogenic
atrop
▁horm
siology
acute
▁creatinine
▁vesicle
▁Intr
gland
resis
▁decline
▁TC
thmatic
▁acetyl
ithi
▁lymphokine
▁rabbits
▁progeny
▁specialty
iotic
▁5.0
▁chromosome
▁cervix
ietin
organism
ths
▁hypon
spective
▁transplants
▁somatic
▁acceptor
conjug
▁lifestyle
56
indings
andard
▁cerebrovascular
▁cocaine
helial
▁endometrium
ections
▁0.2-
rostagland
ducts
▁diets
▁perfusate
▁logistic
▁vacu
▁CTL
▁epidemiological
adrenoceptors
itriptyline
▁PRA
▁computerized
▁mesenteric
otent
benz
▁pneumonia
▁scanning
omorphine
.1,
▁weighted
onset
▁trimester
▁tachycardia
oglobulin
▁regulation
tinguishable
▁immunoreactive
▁topo
▁microbi
▁gingival
▁varies
▁zym
▁rhe
lodipine
▁42%
▁Kd
medicated
▁cortic
exc
acted
▁(97
▁parity
adder
attern
▁CHO
▁medication
▁MG
▁mL
▁dosages
▁histological
▁appra
▁isch
▁fibrils
▁insignificant
▁0.55
▁lipase
▁normotensive
▁wake
▁paral
onazole
enyl
▁athe
3)
ithine
.9%)
322
4).
▁inotropic
charged
omiting
▁electrolytes
▁abr
▁eradicated
▁diet
ineal
▁headache
22,
▁embry
ondr
▁macrophage
hydrox
cg
resistant
▁0.05)
▁virtu
▁practitioners
IgM
▁fentanyl
▁5000
urnal
ongue
▁1,25
osamine
▁catab
produc
▁mV
rolog
arly
▁1000
▁inoc
▁decarbox
▁platelet
▁antithrombotic
▁solubilized
metabol
▁bladder
isolated
▁indis
tene
▁Plasma
ytoin
▁aspec
▁methadone
▁objec
28
▁anxiolytic
acrylamide
▁putative
▁Morph
▁methylation
▁tryp
fractions
23
▁excitatory
▁20-
▁thyroid
▁cooling
opamine
▁clinically
▁mutation
▁cholec
HV
tructed
▁Dys
▁vesic
▁0.47
▁selec
▁sour
▁intub
potassium
▁qualit
▁mM
▁unid
sibility
▁validated
▁Bronch
acetic
otoxic
▁prednis
▁acupuncture
▁teen
iodarone
▁bonds
sion
▁medically
▁intrav
▁monthly
▁nights
▁(46
▁centr
▁pathologic
▁covalently
▁PSA
▁promin
osylation
▁fluorescent
orable
▁quoti
2+-
diabetic
▁chemot
anav
▁240
▁27
ositi
ubiqu
▁carriers
▁traumatic
ereb
▁phosph
▁duoden
▁FD
▁29,
▁incontinence
▁carrier
▁inhib
▁mandatory
osus
▁eradication
ulae
▁monkey
▁fossa
ecan
quinone
▁theoretically
▁40%,
▁parietal
-1.
▁warr
olysis
▁mood
ologically
▁estrogens
▁congen
tocin
▁constriction
alp
▁insensitive
tenosis
▁increments
▁Estim
▁obesity
▁abnormality
▁laser
▁accid
formin
▁conges
▁40
,000
▁throat
▁inhibited
ostr
▁accelerated
▁0.0001).
▁cation
▁2.8
▁344
▁(50%
▁necrosis
ulph
17
aminop
otransferase
omical
60
▁complic
▁3.1
▁neuronal
▁periodontal
▁adolescence
▁3.5%
peak
▁0
▁insufficient
▁0.93
▁circadian
▁micrograms
▁osteoarthritis
▁DD
▁6-
▁ECGs
▁tumor
MN
▁0.59
tensives
▁surgery
▁threefold
oretic
▁sorb
▁relevance
▁173
▁ventricle
▁17-
▁abortion
▁exag
istribution
▁compressive
▁uv
▁inherent
idase
▁subtilis
RF
▁intestine
▁affinity
welling
amn
▁mitochondr
▁-6
▁HBV
▁septal
▁Conversely
▁ascorbic
▁elevation
sistent
▁meal
dT
▁microorganisms
▁nutrition
esophageal
▁surgically
▁carbonate
▁fulfilled
eryth
▁1.5
▁undergoing
▁efficac
ographies
oprec
▁1983
-8
▁evidenced
▁examinations
▁7)
3).
▁(1
lowering
ficial
▁persists
.4
▁remo
ulose
peptide
▁irrever
▁tertiary
▁(45
▁amenorrhea
▁tablet
.00
▁onset
▁unsuitable
▁attemp
rofen
▁divalent
▁menopause
▁managing
▁belie
▁reabsorption
▁cotrans
respective
▁phenyl
▁opiate
▁18.
yrib
▁cG
▁diges
▁6.6
▁traum
▁0%
▁metabolism
-2)
▁preceded
▁treating
▁vag
▁nutritional
aminidase
CAP
▁lytic
CRP
▁posth
orepinephrine
▁interleukin
▁genit
▁tubule
▁localized
▁bronchial
puts
aerobic
uvant
▁scre
▁perfor
amphetamine
▁750
romised
aund
▁epilep
▁hap
▁illus
uble
▁preexisting
▁visualization
▁oxytocin
▁pacing
biotic
▁aeruginosa
phosphatase
planted
▁pharmacy
▁concurrently
rozen
▁PGI
urther
▁transmitter
▁elderly
average
▁levodopa
phosphorylation
▁bone
ashing
▁3)
▁dermal
▁0.005)
▁oste
▁90
▁isoniazid
.7%)
carbon
▁thickening
▁mU
▁questionnaire
▁dysplasia
▁hospitalized
▁ND
NH
ovine
▁0.97
▁16
-5
▁11.5
▁CFU
tural
yclo
▁strom
▁gradients
teric
sulf
▁myc
▁EI
▁reciprocal
atches
converting
200
tussis
▁antic
▁secretion
rever
ration
aternal
▁humoral
▁peptides
▁sperm
▁18-
▁headaches
▁6,
▁55-
omonas
▁(17
▁declined
▁Sulf
▁seizures
▁taurine
▁sedation
▁reveal
siologic
TNF
gth
▁94
▁limiting
toxic
hap
eprazole
▁sca
▁increasingly
▁pulsatile
▁perinatal
▁regar
cemic
▁Twenty
▁264
14
▁conclusive
▁drain
▁31%
▁discharged
lycemic
astatin
8%)
▁favored
▁shunt
77
▁215
▁5-
▁(90%)
atonin
▁antipsychotic
▁9.9
▁ejection
rophenyl
orphin
4]
▁pathway
▁chromosomes
algia
▁manipulation
▁surfactant
▁antibodies
cyst
stress
atest
▁facilitate
ameter
▁adenovirus
glycoprotein
▁recruit
▁dissec
▁illness
▁recipients
▁antibiotics
▁maternal
▁offspring
DV
anuary
grees
▁unc
llate
▁conflicting
▁sphincter
ecyl
▁mimicked
adone
illance
gestin
▁severity
▁analyses
▁fluoride
▁diabetic
▁nuclease
▁negligible
▁0.75
▁86
ults
▁syndrome
▁hospitalization
▁esophageal
▁hematoma
▁fever
▁Thirteen
▁(84
▁schem
▁25%
assi
▁pituitary
▁cholest
uridine
▁matur
▁PG
▁concomitant
▁metall
▁acad
▁synaptic
▁laboratories
▁0.11
achid
▁ionized
▁splenomegaly
▁cigarette
▁cardiopulmonary
▁electrophoresis
▁frog
▁bulb
atinine
▁elective
ronchial
▁avoiding
▁metastases
▁saturated
glut
▁acin
▁precipit
▁sucralfate
▁Hyd
tinu
▁favorably
unar
duc
▁acetaminophen
7;
▁lamb
eclamp
RNA
▁thiol
▁galact
ammon
oneph
ucas
armac
/3
▁achievement
▁plex
kelihood
▁mEq
serine
▁aggregation
heum
▁66%
▁ICP
nee
▁PEG
▁ultrastructural
tinent
bearing
▁105
anserin
▁acidic
approximately
▁Optimal
▁bypass
▁1.25
dies
omers
▁modulated
▁swelling
▁thymidine
▁Engl
▁targeting
▁ventilator
▁immunoblot
130
▁depress
▁pate
▁upstream
▁solitary
▁Bmax
asal
estrogen
▁schizophren
▁ingu
▁deoxy
▁VO
▁assessing
atitis
▁beliefs
100
keratin
▁19,
▁initiate
▁renal
▁penicillin
reactivity
▁Subsequent
imetidine
11.
▁practition
▁elemental
▁Basal
othal
0.8
▁congestion
▁32
1]
pressing
▁fluctu
▁immunotherapy
▁MCV
spar
▁precordial
tional
▁serology
▁hydroly
▁stric
lyb
▁sph
▁MMS
▁OC
altered
elec
▁sti
▁follicle
PGF
▁intracranial
▁53%
deriv
▁2,
▁heterozygous
▁labeling
▁hypothesized
athered
▁focal
▁jaundice
ulants
▁cultures
ypass
GI
▁capsules
▁cytokine
▁validity
▁operative
▁Unlike
▁PI
0.
ochrome
▁5.
:1)
▁demonstrable
▁amn
▁scin
▁kallikrein
▁nitro
omegalovirus
▁INH
imidine
▁Functional
▁deterior
▁exceptionally
▁ey
ocytic
odal
retin
▁lacked
.8%)
▁liposomes
▁pulmon
▁undetermined
affin
▁intrad
▁12.0
glucose
▁infertile
▁substrates
▁antioxid
▁68
erebral
▁arterial
▁stent
▁ae
62
tillation
cholate
-600
▁subpopulation
galy
▁acyclovir
trypsin
▁nephro
ystokinin
obarbital
ertion
-2).
terone
▁bip
CSF
▁regulated
▁(0.1
▁hepatic
▁natriuretic
isomerase
ropathy
▁100%.
ensi
vix
▁Tumor
adequ
iably
▁deox
▁myel
otone
romy
▁electrically
▁ulc
itrate
tious
▁atherosclerotic
▁90%
ipramine
▁recruitment
▁pneum
ductive
▁spray
▁paroxysmal
epithelial
tidine
uncture
▁53
▁1986
▁Thy
▁drinking
▁fulf
ranolol
▁Inte
▁NI
▁microtubules
▁hippocampal
▁UDP
64
-10)
measured
▁Cul
determined
iteal
▁purification
tensity
occal
▁caffeine
▁esterase
▁fractures
metic
▁mimic
▁0.001
▁isop
▁competence
portant
▁chromatographic
▁cesarean
▁femoral
RB
▁KD
lactam
carbox
▁227
▁crosso
▁effusion
▁practitioner
▁Tests
▁aerosolized
▁(27
▁extracellular
kinje
▁900
▁interne
▁unexplained
omatic
▁chor
▁heterogeneity
▁0.38
▁Nons
▁constituents
edle
▁incorporation
-79
intestinal
▁cortex
acr
▁spermatozo
▁ambulatory
virus
▁chond
umulative
▁reductase
▁propionate
▁docum
▁guanine
▁repetitive
ffeine
2/
▁retin
▁resembled
▁staphyloc
▁Risk
▁Respiratory
▁pell
▁dioxide
▁mesang
▁subjective
▁effectiveness
▁effec
▁7%
▁infec
dose
▁intraperitoneal
Ls
▁purine
▁vein
▁viable
ischemic
tents
▁fibrinogen
obac
▁antitumor
▁(0.9
tisone
▁NIH
▁1)
7)
oes
▁modestly
▁hyperactivity
▁glucosamine
▁CK
▁Candida
▁anticoagulation
▁titer
▁depression
6),
▁antenatal
▁pigment
eptide
▁chromatin
▁9,
utyric
▁estrogenic
odic
▁39
▁transplant
▁TCA
▁envelope
▁neoplasms
▁haloperidol
▁19
▁cysteine
GD
Phe
utyr
issive
▁48%
▁papillary
▁postulated
▁thrombo
▁glomerul
oids
▁PD
▁cytos
▁accep
teroids
▁indirectly
performance
▁aspir
▁triti
nai
▁granulosa
▁capillary
▁perforation
assays
▁collec
▁exceeded
leukin
atrial
▁atri
ovirus
▁91%
casein
▁mitogenic
▁superoxide
▁prednisolone
▁ischem
▁Inhib
oea
▁lowering
▁maturity
▁gallbladder
▁7,
phage
rectomy
protein
▁distorted
▁regeneration
▁Tc
▁1600
▁gastric
erance
▁membran
ications
▁instr
acetyl
reasing
▁brom
bac
▁immunoglobulin
oluble
opoietic
▁interventions
Pen
▁IgG
▁Oste
▁ate
▁chl
restric
(5
▁arising
▁106
▁diverged
▁Prol
3%
ercise
▁benz
▁gly
▁0.23
8,
tochemistry
otides
▁71%
ylcholine
▁infused
▁elongation
▁determining
▁spon
timulus
▁multin
▁(20
▁adherence
▁calor
▁neutroph
▁relap
▁sampled
orphine
▁colitis
▁corresponded
▁tetrac
proven
▁repor
sAg
▁adap
(2-
▁stationary
▁abruptly
▁anaesthetized
▁Myc
▁2.5-
▁permits
▁rash
▁pig
itoring
▁Mn
ardia
-80
.7
ulitis
ofluores
▁hypogonad
mediated
▁homogenates
▁challenged
▁susceptibility
▁MAbs
rates
▁malaria
▁fibres
▁sequenced
AH
▁inhibitors
1,
▁15%
▁5.5
▁formulations
ungal
▁chronically
▁exploration
▁respon
carotene
entric
▁staining
▁mammalian
▁poin
tumor
▁scl
▁ribosomal
tance
▁stratif
▁immunos
▁52%
▁0.69
0%.
▁discriminant
▁benzo
▁9.0
▁67%
▁phospholipase
▁rota
▁afferents
amid
ophil
iloride
▁physiology
▁EGTA
▁sulf
▁10(-3)
▁adequ
▁Eleven
spectively
ilized
troph
▁vigorous
▁80.
▁(10(
-100%
▁eryth
amuscular
udin
▁1.8
▁buspirone
▁Evid
/7
otting
EGF
glutin
posal
enic
opres
▁polycystic
amous
▁cycloheximide
angiotensin
sive
▁antid
asions
▁mitogen
▁metabol
▁septic
▁200
▁dye
▁establ
▁implic
ydig
ocks
▁ANG
▁ADH
temperature
rologic
itin
▁tubes
▁metastasis
▁fmol
▁paraffin
thio
▁tetracycline
▁serum
▁relie
▁hypo
▁spectroscopy
▁tumours
terolog
▁counseling
▁obese
▁leukocytes
ocytochemistry
▁choles
▁multiv
▁avid
▁Increases
actin
▁nodule
▁volunteer
ograms
▁analogous
▁nondiabetic
▁confirming
▁HL
cutaneous
opic
▁iodine
▁nausea
▁Estrogen
▁latex
ectomized
▁hemorrh
▁previ
ypical
▁incidence
rosemide
▁granulocytes
▁11.0
activated
blocker
▁crystall
18,
▁adjustment
ophys
galact
▁stret
▁cylinder
uron
▁0.86
▁vaccines
▁methodology
5,000
▁kDa
▁granules
▁6.8
89
romyces
▁3.5
LDL
▁incubated
unsaturated
▁mitochondrial
▁seas
hion
echanical
▁degraded
▁VLDL
▁Significant
▁eradic
psych
▁confound
globulin
▁8.5
▁96%
lycerol
derived
▁immunoprec
▁-15
▁killer
openia
▁ibuprofen
▁psychomotor
▁adminis
▁mitotic
▁scinti
spectrum
▁lumb
▁Highly
▁qualitatively
unctions
ritin
▁75
▁6%
▁Tn
▁reversibly
ventil
▁bic
▁hyperther
okine
▁muM
▁circulating
BT
ospasm
arcoma
▁atten
▁decayed
rease
amus
SOD
▁bilateral
500
▁inhibin
viral
▁testis
▁mucos
iplinary
▁ductus
▁recurred
inol
▁intrap
tiv
phic
▁Vitamin
▁lungs
▁brush
odular
▁spontaneously
▁oxide
▁CAT
▁esophagus
clusive
ofil
eminal
▁diagnosed
▁polymerase
▁lamina
▁(7%)
ANP
▁isoproterenol
▁heterosexual
▁elimination
▁noc
▁Histologic
▁MRSA
▁intermittent
▁tol
▁50-
hetamine
▁inadequate
▁accounting
▁Conventional
▁1-3
▁hypotonic
▁lipoproteins
8.
▁recr
cepti
lastic
ostatin
▁5.4
tilis
▁Suc
▁thrombus
apride
▁enzymes
▁periphery
glycerol
▁nurses
▁Milk
▁blotting
▁insertion
mediately
▁hypotensive
ogenicity
tant
▁carboxy
▁noradrenergic
uric
producing
▁(16%)
▁displ
lux
▁complaint
ystag
▁tendency
▁fungus
▁urea
▁171
ediatric
▁regis
▁Diabetes
▁Veter
diagn
▁reperfusion
▁0.02)
▁colony
▁antis
hydrop
▁400
phosph
uin
▁muc
▁5.2
▁Statistically
tized
Ala
vaginal
▁donors
▁nonfatal
▁interacted
iflu
▁junctions
rought
▁accompanying
▁sphing
▁10-
▁onc
tabl
▁stiff
▁specimens
ithm
idne
▁disulfide
▁adip
▁neuroblastoma
iol
▁leuk
crip
▁displaced
▁-0.
asic
▁shor
▁7.2
▁arachidonic
▁6
olec
▁.01)
▁pI
▁salbutamol
▁23%
▁transc
▁stratification
▁Seventy
▁hydrolys
▁plantar
▁Tes
▁TG
▁abrup
▁plac
▁0.74
▁fertil
▁sorbitol
/100
▁systolic
orbol
▁doubled
▁irradiation
▁(18
▁thereafter
▁proteoglycans
▁Significantly
▁vasoactive
▁polyclonal
sorbed
ocarcinoma
▁stres
oA
▁70
sA
ture
▁contractions
▁musculoskeletal
selective
▁epidermis
▁14.8
▁8.2
▁unrecognized
▁elution
▁cows
affec
clonal
▁rigor
▁suspension
nish
▁ole
▁axons
ivacaine
▁influenza
▁systematically
▁abd
▁immunocomp
▁dB
▁pertussis
▁outs
amination
igand
▁immunoprecipit
▁comprising
▁squamous
▁monotherapy
▁1986.
▁endometri
flammatory
iatic
▁excretion
▁chemically
▁MCF
▁myeloid
▁coenzyme
▁desm
tise
▁fluconazole
▁51%
olipids
▁knees
▁sexually
▁1200
tizing
iazide
▁(0.3
▁ester
▁conservative
▁instrum
▁indomethacin
molec
-1.2
▁anomaly
▁Stro
-1
cortisone
▁PH
▁augmenting
luores
ulum
ffinities
fine
▁eczema
▁attending
▁sphinc
oclonal
▁increas
▁antec
67
toli
▁succes
oxane
otin
▁participate
▁217
rostenedione
▁volunteers
▁Krebs
esic
▁peripher
urred
tability
▁alternating
▁CAP
▁corticosterone
generation
▁homozygous
▁baseline
▁thio
▁(15
▁adhered
vail
▁selectively
▁spike
▁rats
ganglionic
▁TM
▁denti
▁0.7%
▁demands
▁metoprolol
▁7.9
aldosterone
▁occlusive
▁intracerebral
▁EA
lofen
ylephrine
▁convul
uccin
TSH
▁diastolic
ymptomatic
roxicam
▁diagnose
▁97
▁5%,
opeptidase
▁bipolar
▁mening
plantation
▁dodecyl
▁rhinitis
▁nonex
▁30%
▁PAI
▁blin
▁phy
▁calcitonin
▁electroly
▁cigaret
▁micros
minute
▁136
▁40.
▁ipsilateral
57
▁sensitivity
▁fist
▁haemorrh
▁tape
▁Benz
aryng
otide
▁explants
tetra
exin
GF
▁puber
▁dentate
mum
▁synthesize
▁hippocampus
▁ultrasound
▁Salmonella
urea
orubicin
clin
▁9-
ivered
▁(16
▁ulnar
▁TA
▁hypercalcemia
▁gm
▁patches
▁cyclase
-20
▁elicit
▁1.4
▁lesser
edding
testosterone
▁nitroprusside
10,
▁pyl
arterial
queous
82
▁radicals
▁tissue
lamy
athic
▁homologous
effectiveness
▁hir
▁45%
▁ml
▁paralle
▁Sertoli
ostatic
▁mucosal
lastoma
▁(1,
▁vaccinated
▁1.4%
▁swit
▁proliferating
▁213
ervated
▁antib
▁echocardi
▁outpatients
▁sput
▁malignancy
▁SIDS
▁dementia
▁137
tial
▁colonies
uracil
▁viruses
▁recommendations
▁hygiene
▁ultras
pation
reness
▁parie
▁develops
▁ferric
▁parat
▁112
▁malformations
▁perox
000
▁50%
▁hydrolysis
▁dismutase
▁amygdala
▁0.52
▁endotoxin
▁sensitiz
deoxy
▁destro
▁Hz
▁reflexes
nary
▁wound
deple
olitis
▁lysosomes
▁potentiated
▁mediator
▁peroxidation
▁examination
▁4.6
▁locomotor
▁variability
ylic
▁Respon
▁glucocorticoid
▁idiopathic
abdominal
▁(8%)
▁polymorph
clerotic
tran
▁Hypertension
▁Lact
▁trimethoprim
▁infrared
acrine
omyces
▁progest
▁dialysis
▁unaffected
opramide
▁adversely
galactosidase
▁secretory
▁indus
reed
▁adjusted
▁adoles
▁83
▁secretagog
▁PGE
trient
▁resin
▁forearm
visc
forming
▁Golgi
▁tris
ulators
]-
evoked
▁66
uestion
ocortical
▁rheumatic
▁ascending
▁Drosophila
▁retic
▁MRI
▁trials
▁clones
PB
ayers
intensity
▁susceptible
▁Cardiac
1-2
▁plas
RR
▁immunohist
hemat
lasts
▁expectancy
▁verbal
▁serotonergic
atibility
▁fused
▁evaluations
▁transient
Gly
▁compounds
▁neutralizing
▁formulation
▁0.27
▁ET
▁suspensions
▁microm
arent
retro
▁attenuation
matic
opr
▁organelles
3,
▁connective
▁RNAs
-10(
▁270
▁scars
▁cuts
iph
▁endonuclease
▁inversely
▁(1)
epines
▁NF
▁redox
▁Previous
▁redistribution
▁investigators
▁7.7
dipine
assay
pirin
▁1.6-
gnetic
▁47%
▁chick
▁terminals
prol
lated
ocamp
▁bioassay
▁nig
rated
▁cumulative
gag
▁restric
amphen
▁cisplatin
leucine
asive
▁epit
respon
▁seiz
1).
-88
▁(12.5
▁chemotherapy
▁10)
73
▁Positive
disc
▁pea
▁autoantibodies
▁curric
▁endothelium
otrypsin
97
▁pharmacists
lymph
▁parenchyma
▁transloc
▁occluded
▁underestimated
▁assays
▁nonc
▁MIC
▁vitro
▁airway
▁determinations
▁hybridization
▁desensitization
▁operon
▁10(4)
PRL
▁pregnant
46
▁surfact
sian
thoracic
▁4;
▁excitation
portun
▁shear
▁analytical
▁Physicians
▁chromosomal
▁valves
▁231
ocellular
▁flas
▁Calc
▁endocardi
▁3.2
▁amino
▁subcellular
▁discontinuation
▁presumed
dimethyl
Km
▁18,
▁seroton
▁CN
▁dyst
▁thalamic
▁skinfold
onvul
▁monke
▁survivors
▁mellitus
▁occupational
▁accurately
▁12.
▁quotient
▁amplification
▁ruptured
▁Mild
▁tetr
titution
▁osmotic
ographs
▁plateau
▁veins
floxacin
▁smoking
▁cerebellar
odeoxy
silon
▁panic
▁laparoscopy
▁0.5,
potential
ivac
▁(11
amines
▁3',
▁oxygenation
obl
tained
▁bradycardia
ceptions
angi
▁208
phosphate
▁norfloxacin
oconazole
▁tracts
▁Lymph
▁antagon
▁indi
▁42
▁inhaled
inum
▁proteoglyc
10.
▁(88%)
▁diabe
▁primed
operox
admium
4.
▁parox
▁carbonic
▁arrhythm
▁Overall
▁2.0
▁1970
stimulating
▁(76
-8)
▁disclosed
amethasone
▁esters
▁somat
▁precursors
▁altered
▁coeff
rents
▁Serum
▁dilution
▁expressing
▁analges
▁Dental
ithelial
▁couples
▁FT
▁immun
▁clot
▁nephropathy
▁arter
▁nadir
▁confirmation
▁BM
▁absorptiometry
▁550
oung
rogenase
imide
▁pS
▁airflow
▁(94
▁adrenaline
cephalic
▁autopsy
2)
▁murine
▁hygi
onatal
▁digoxin
olestero
▁sulphate
ensory
▁junction
-70%
estern
ograp
▁adi
ithromycin
lasting
▁hCG
▁tubules
dL
▁harmful
unately
▁(63
6%
xual
idation
▁1.6
▁85
▁155
(2)
▁occult
▁juvenile
▁0.51
▁172
▁transthoracic
requ
entified
▁superficial
▁diseases
.2
▁280
▁alkyl
▁cessation
▁phosphorylase
▁differe
15
90
▁retur
▁cephalosporins
CHD
▁chemicals
▁embryos
Ox
-2,
tured
trodotoxin
▁prostagland
dihydro
▁Hib
▁trypsin
4/
prising
▁AIDS
▁0.50
▁transferrin
brom
▁ODC
tron
▁favors
▁incomp
▁neutrophil
▁5)
▁structural
strand
▁correlated
yrox
▁pharmacologic
▁76
▁phenomenon
▁stratum
▁acces
▁streptococci
▁capillaries
▁progestin
▁caud
.3.
▁abundance
▁mediated
lood
criptions
onegative
▁phosphates
toxicity
▁(4.0
▁rectal
olig
tested
quine
▁30.
semb
oppler
▁tes
motic
▁3
▁trachea
▁surround
▁spectrometry
▁modality
8).
▁pmol
tism
▁198
▁surgeon
▁hyperp
thanolamine
▁PCR
▁pathogenesis
▁envelop
▁spikes
▁ferritin
▁ventric
▁contractile
▁79
▁gonadotrophin
▁48
▁GFR
▁Fourteen
subunit
▁IgE
▁transverse
independent
propyl
+/-
especially
▁atherosclerosis
roxen
ocar
▁coagulation
acement
-18
▁inh
▁cytometry
▁tremor
▁2.2
▁nutrient
▁.1
▁myopathy
alact
▁30-
▁prono
▁shaft
▁phospholip
▁OA
▁fetus
▁paradoxical
▁150,
alate
▁48-
▁angio
▁cloned
itoneally
igible
▁ubiqu
▁0.42
▁adenylate
▁acetic
▁diazepam
kely
▁CDC
tox
▁49%
▁hetero
henyl
▁vascul
▁ranging
▁-1
tracellular
▁233
▁uptake
▁thickness
translated
carb
romal
teral
till
mia
ternational
phenyl
▁ultrasonography
▁confirms
acids
6,
▁antide
eled
absorption
▁DEAE
vertebral
▁spontaneous
arone
▁sequential
▁membrane
▁2)
▁endoplasmic
▁Caucasians
molality
▁experiencing
plic
▁maturation
ilical
aturation
▁160
▁excised
▁parathyroid
▁16,
parathyroidism
▁denat
▁resec
▁anteced
▁synthe
acial
tronic
▁protec
treatment
▁CIN
ophilic
▁(5.0
▁fluo
-1),
▁conformation
ymethyl
-1.5
▁rehabil
▁colonic
educed
indolol
▁mammography
▁acinar
dominal
84
▁(30
xia
plies
orac
-]
▁saphen
opl
50)
▁unin
feeding
.6%
sequent
▁spirometry
olipoprotein
▁Maximal
atab
ostasis
▁compound
ubicin
duced
▁brady
▁HPV
oxifen
▁cytotoxic
▁(67%)
▁resistant
-60
himbine
▁-0.7
▁NH
▁Cycl
▁(200
▁epididym
▁rifampin
lected
ontal
tiz
onam
orsal
▁collagen
▁Scatchard
▁improves
▁10.0
▁triglycer
rosy
onuclease
▁somatostatin
▁labelled
-78
▁appetite
▁targeted
▁(58%)
▁sucrose
▁70.
▁steroid
▁poisoning
300
▁Fc
▁mitochondria
onide
▁tric
▁gastroenteritis
▁34
▁pentobarbital
▁127
▁physicians
▁atheros
▁splen
▁DF
▁genes
andida
▁residue
▁nosocomial
natal
▁Thirty
otomy
▁mediast
1/
▁42,
macropha
▁Schwann
▁EMA
▁lidocaine
▁0.14
leu
▁CCK
oporosis
▁subtypes
upuncture
itre
▁methionine
▁detergent
admill
▁HI
▁nonsignificant
▁alleles
▁hydroph
▁hyperplasia
▁fec
▁1990
▁lam
▁0.61
▁inconclusive
▁kine
▁leakage
▁consensus
Cu
▁percentages
▁BALB
▁tricyclic
were
▁(89
▁consistency
▁cholinergic
▁0.80
▁0.1,
▁neutrop
LPS
▁clinician
phorbol
oreceptor
▁hyperlipid
▁fiber
▁classifications
▁0.58
▁permeability
affected
uspid
▁retinal
iminary
renol
▁salts
ociated
▁SEM
▁chloride
▁swabs
▁stimulants
43
reement
orrhea
▁multis
▁plasmids
uccessful
muscle
▁proliferation
▁durations
▁1969
tenolol
▁bism
▁Prac
ervations
otrexate
▁thymocytes
▁correlations
▁125
▁accessibility
▁GH
kinson
▁56,
▁myocytes
▁1-2
▁mating
24
dehyde
▁rheumatoid
▁creatine
▁80,
-6
▁hematopoietic
eration
odipine
▁84
▁Effec
▁cutoff
eroxide
▁thym
-90
▁MN
▁carp
idis
▁venom
▁criterion
dyle
▁echocardiogram
▁Trial
alas
▁glucuron
▁TDI
▁LV
conver
▁grafts
enin
fected
▁histopath
▁collagenase
▁adduct
▁dipyridamole
▁241
▁quantitatively
▁randomization
▁pathogens
▁attainment
▁carotid
▁correlating
▁phosphorylated
phosphatid
▁splicing
▁5.3
(2+
▁28
▁bacter
▁glucocortic
▁reflex
7,
▁amphetamine
▁gastrin
ulcer
▁implying
▁analysed
▁relieve
0.1
▁solvent
▁transmural
▁ganglion
▁LHRH
▁acet
▁29%
▁diversity
70)
▁standardi
▁divertic
▁MV
▁assessment
▁denervation
▁diameters
▁satis
▁emo
▁resultant
▁outbreak
▁25-
semin
▁150
▁oxy
▁Smoking
▁1-
▁FE
▁ligand
▁endothelin
▁23
sively
▁10
▁trichloroacetic
▁colpos
▁postin
▁disability
▁reflecting
pran
bladder
▁suppres
▁contex
razosin
-96
vus
▁sarc
▁fructose
oxide
▁derm
▁particulate
▁GHRH
▁conjunction
leuk
resist
▁leukocyte
▁dehydrated
HRP
▁32%
reduced
achol
▁bile
threatening
▁responsiveness
ritis
▁murmur
▁waking
▁interf
teine
▁disturbance
▁puberty
▁80-
▁additionally
▁eligible
▁cyclic
▁rostral
iphene
roximately
▁autoradi
▁Braz
venty
▁nM
▁lymphoid
▁lis
ocortic
etence
SDS
▁adhering
▁isozyme
▁stimulation
▁fluids
FEV
▁Forty
▁neurom
▁gamma
opressin
▁-0.0
▁ethyl
▁Peak
▁deterioration
▁130
▁xyl
▁3;
▁tachyc
monella
▁lysosomal
cinolone
▁nipple
infection
icides
▁vesicles
▁subunits
▁synthesized
▁80
ealand
▁omega
▁BMI
blood
thle
▁ICU
1:
tomas
▁phenomena
▁193
▁0.48
▁gynec
▁supple
existing
gm
▁Experiments
▁cations
▁colic
▁Mortality
▁mRNA
oblast
▁titers
▁wee
.0
aryl
▁pups
aid
ateral
▁conductance
▁Prel
▁postnatally
mega
▁symptoms
▁cure
▁wt
polyacrylamide
ignificant
▁characteris
▁2.5
▁remission
▁Maximum
keleton
▁acids
▁Compared
▁aerosol
▁mechanisms
▁ethnic
▁exogenous
▁mobility
▁malignant
ylline
atite
olesterolemia
75
▁interpretations
▁unaltered
▁covari
growth
partum
▁defec
▁gradi
brids
▁positives
▁3.8
▁hypother
▁loci
▁6.9
12-
▁competi
oxia
uity
▁anaesthe
▁92
injected
▁monol
▁reversed
hers
▁erythrocytes
dihydroxy
▁62
▁(9
▁prolongation
▁regimens
▁crossover
▁6.3
▁84%
tization
▁glycogen
▁electr
▁atypical
▁6.
viruses
tation
ogenic
▁indicators
regn
izine
▁chol
jug
systolic
▁minimally
▁antin
comitant
olone
▁weakly
▁eluc
▁220
repres
▁11.2
▁0.40
lyl
▁43%
▁structurally
▁12.5%
▁adipose
Ki
luded
▁conformational
yrid
▁luteinizing
▁hyperb
▁oocytes
roscop
▁progressive
yridine
ifers
.9%
▁fibrillation
-1).
taining
▁64
▁121
▁achie
odop
110
-2.5
▁Complications
▁incompletely
/30
ticularly
▁electrodes
▁inhal
▁juven
divid
ochemically
25
▁commercially
▁neurones
odopsin
▁implant
▁weigh
ressing
isomer
ococci
▁0.70
▁ipratropium
urys
▁microns
▁27%
ygen
chemical
stranded
▁influences
pore
▁symptomatic
▁0.25%
▁1960
▁Atrial
ordial
tiveness
0%).
▁Dop
▁aberrant
▁ery
oxy
▁normo
modified
▁euthyroid
▁spont
emak
▁Staphylococcus
trover
degree
▁iden
▁reticulum
▁DCA
▁bradyc
phragm
methyl
▁neph
▁homogeneous
RH
diabe
9%)
▁amo
▁TPA
▁Criteria
olip
▁wash
▁laminin
abain
▁prevalent
▁monkeys
▁granuloma
tential
itol
▁vitamin
▁nonf
roxyprogesterone
rospinal
ropath
HCO
▁residues
eeding
▁1.16
▁latency
lamp
▁aluminum
▁familial
veness
▁0.24
▁abduc
▁displacement
▁oligonucleotide
▁crom
mobil
iability
▁suppor
▁shorten
aind
enters
▁menstr
140
▁cream
▁HPLC
▁pacemak
Cs
platin
▁eighth
▁normalization
▁PB
erents
▁depolarizing
▁pregn
▁oils
▁1.7%
LH
▁phosphatidyl
▁immunocompetent
▁instruc
renal
astom
▁autoanti
▁IgA
▁warfarin
▁stiffness
▁cholesterol
Fs
▁(79
▁ceftriaxone
▁unstimulated
sized
opar
▁24
▁reviewed
▁eccentric
▁0.6%
opam
52
pendent
▁tear
▁diarr
▁92%
▁2.3
▁glycosylation
erated
▁venous
eliac
kage
dip
lycer
▁(2%)
▁clus
urations
▁judged
▁splenic
▁1,
ctive
▁fati
▁drank
▁utilized
▁microtub
▁abstinence
▁undetected
▁Taken
▁PLP
▁LR
ithium
▁0.57
▁chickens
▁hyperg
▁interstitial
▁isoprenaline
▁sonography
▁splenectomy
▁releasing
▁gentamicin
▁hyperch
fetoprotein
▁doses
▁lithium
endazole
▁decade
▁Combined
▁excre
▁perfused
esin
ocated
ocyan
▁adipocytes
▁fibre
▁CBF
▁sacrificed
▁hypocalcemia
ermal
▁LM
stant
EMG
chloro
▁HDL
▁CHF
▁hemodynamics
▁whee
uccess
76
▁velocities
drug
merc
▁TP
▁bioavailability
▁hormones
▁hydrox
▁mixtures
april
▁homeostasis
osidase
▁reproductive
▁(22
teria
gold
▁rhy
▁Fib
▁subcutaneous
▁atrophy
▁AML
▁Cyt
▁hypothalamic
▁chronic
▁MBP
▁insec
▁conjugated
▁progres
▁effector
assium
▁favorable
stimulated
▁advan
▁aids
-2-
oprolol
▁filtration
olgi
▁linole
▁enhanced
/2
ntolamine
▁penile
0.2
roxim
▁biliary
▁diabetics
icients
▁pools
▁131
▁1984
▁weaker
▁surveys
▁sensitized
▁autologous
▁mann
▁Infants
▁epidermal
▁epithelial
MV
▁patency
▁HA
▁gels
▁3.7
▁concom
▁amph
▁0.76
▁hyperlipidemia
44
▁implants
▁cited
▁Incidence
▁emboli
▁consecu
itamin
▁replication
▁porcine
terase
liters
▁ejac
/9
▁ascer
▁10.4
▁strategies
riton
▁fum
▁examin
▁prothrombin
erally
▁mutations
▁blast
essation
azone
2).
▁Successful
tagland
▁binds
▁0.001),
▁deline
amicin
▁genital
depleted
▁ratios
▁prenatal
▁angioplasty
▁chimeric
▁ankle
▁(4)
18
▁0.77
▁refrac
diastolic
(+)-
illin
▁MHC
▁7.6
▁NADP
iscal
9-
▁bismuth
▁strepto
▁inflamm
▁incorporated
ymp
▁kinases
ritic
occi
18)
▁anastomosis
▁nucleoside
▁visits
▁intraper
40)
▁resemb
▁preventive
tum
▁(9%)
▁pulses
gangl
▁Identif
▁diagnosis
▁metabolic
▁85%
isole
▁drainage
▁1.0
▁10(-7)
▁suspic
thmic
▁gonadotroph
▁microscop
▁multivariate
▁enhancement
▁0.26
kinase
owever
opolysaccharide
▁terat
odg
▁37%
▁absorp
UV
▁22)
▁145
▁lumen
▁tuberculosis
/8
▁luminal
▁quantif
sue
▁endometrial
48
▁pleural
▁13,
oxone
igl
▁exagger
▁pim
2+.
taken
horm
▁PAF
▁antimicrobial
uvate
▁hypotension
ometrial
▁brains
rences
▁oval
▁clindamycin
deficiency
▁paradox
etoprotein
▁benign
55
▁goiter
uginosa
▁prognosis
▁7%,
▁attitudes
erge
▁5'
▁164
amethoxazole
trial
astatic
pir
uretics
▁0.54
▁indeterminate
tified
▁ionophore
olet
▁fractions
atosis
▁124
subs
▁factorial
terminus
umbens
▁topical
dural
▁tibia
▁Experim
▁microv
▁prophylactic
▁pathophysiology
▁1991.
▁pM
▁Sodium
itic
▁lineage
▁preincubation
angl
pH
orbent
▁insuff
8-
▁prescrib
▁adop
▁homolog
ohyd
▁15
▁responded
▁freeze
▁heavi
partic
.4%
▁enzymatic
eptidase
osteroids
▁colonization
▁fibers
▁nucleus
▁mediators
▁limbs
▁59
▁guidelines
▁transporter
ustif
▁Ace
▁spi
▁Specificity
▁cortisone
▁PF
▁10(-4)
▁transcrip
▁pH
▁glands
cad
▁78
▁Reduction
▁LAK
▁nec
▁200,
▁Arter
▁biosynthesis
modulin
▁sutures
▁regimen
▁actin
ogl
atally
adm
thmias
-25
▁retinoids
nitros
anin
▁350
▁biological
▁(150
Asp
oproterenol
▁stringent
immune
▁sarcoma
▁potenti
▁psychological
▁Neither
osocial
▁dissection
jury
▁adverse
▁neuropeptide
▁cleaved
▁80%.
▁allograft
▁NT
▁intraven
▁103
regulated
apid
▁1.1
ortic
▁Tyr
▁pelvic
-1.0
eptin
PCR
▁unlabeled
inflammatory
▁determination
titute
HIV
▁Injury
tric
associated
▁parenchymal
inj
▁0.79
▁modeling
pinephrine
riched
▁enhancing
▁deliveries
exercise
▁intron
▁agon
▁cef
▁interrup
▁infrequent
▁radionucl
anavalin
oreg
▁critically
▁altering
▁isoform
▁bac
pecific
oblasts
▁phospho
▁amitriptyline
0%)
▁ofloxacin
▁comparable
stolic
▁cloning
▁pector
ophy
▁(0
▁95%
omegaly
▁protr
▁respir
▁PN
ronectin
▁72
esting
▁glutathione
▁Clin
icardi
▁dramatically
▁BA
sant
Ni
faction
.5.
▁brach
▁metoclopramide
avail
onary
▁AFP
▁genetically
▁homoz
▁(36%)
ocial
ocys
graphy
▁200-
▁hormonal
▁8.4
odialysis
ergic
▁blacks
▁RF
▁diffic
▁oxid
onucle
▁participating
▁gonorrh
▁recipient
▁dischar
▁hypers
▁(18%)
kground
31
▁nonsmokers
ingle
▁159
▁amel
▁lectin
▁subgroups
▁Inhibition
rogesterone
▁98%
ylon
charomyces
▁26%
oxidation
meas
trical
ipheral
wenty
▁228
▁biosynthe
▁remarkably
promoting
▁experimentally
▁discrimin
▁arth
▁plaque
▁consul
▁EDTA
pain
responders
elves
▁tissues
▁120
▁paternal
LISA
▁0.45
▁preparation
trum
▁immobil
▁bacteremia
▁reac
▁allevi
▁sugars
▁intox
▁sedim
▁establishing
oradi
▁dox
▁Various
xate
▁arginine
▁adolescents
iline
600
▁acetate
oskeletal
▁proteinuria
▁MI
▁hepatitis
▁fold
ylyl
obenz
▁adjuvant
▁incision
ocytosis
esthe
▁shar
▁156
▁2.4%
▁chan
▁fourteen
cine
▁cerevisiae
▁saphenous
iplin
▁epidemiologic
▁freshly
▁wounds
▁exercises
▁compartment
▁affecting
hesus
ulsive
-4)
▁hypokal
▁zinc
▁ison
▁spermat
entif
▁hyperthyroidism
▁nicotinic
▁breaths
▁dimethyl
▁deficit
▁overl
▁preservation
▁bathing
▁adenocarcinoma
▁acutely
▁investigated
odies
▁recor
▁micron
▁93
isters
▁microb
▁Prevention
▁specimen
▁308
siological
ophylline
▁cereb
87
lamin
▁untreated
tension
idity
rhy
▁passive
sial
▁cycling
▁virul
▁homology
▁Phe
vivors
▁surf
5.
▁ank
▁1%
▁81
▁177
conduc
▁proteins
▁aromatic
▁SRIF
BH
osides
▁PE
▁60
▁LD
1;
▁mannose
▁conservatively
▁colonoscopy
▁TF
ffec
▁tolerance
oterol
diagnosed
▁withdrawal
▁hairs
orption
ilep
▁tubular
fat
▁abundant
▁pyramidal
patient
▁androgen
▁rRNA
toxin
▁9
▁UT
ranged
▁22%
went
ditions
▁keto
▁70%.
▁Rates
▁dextrose
ferrin
.7%
gative
▁fluor
orotic
kine
▁mature
▁2).
▁cellul
mong
▁desaturation
▁lesion
▁fractionation
4;
▁cerebral
entan
▁hepatocellular
▁PMS
opril
▁histochemical
▁isolates
▁-7
-36
▁sulfoxide
▁asbest
▁intranasal
▁cate
▁(3
91
▁118
DG
▁cellular
iant
▁inward
▁depleted
▁seb
▁chlorpromazine
▁concentrate
-4-
▁reactivity
▁dermatitis
tially
ampl
▁10(-5)
immun
▁dermat
▁accel
▁resc
kers
acking
illation
▁reserpine
▁(31
▁depres
▁Graves
▁uncontrolled
▁filament
▁neuromuscular
▁0.05,
chlor
▁proteoglycan
iotensin
▁EEG
ticular
tococcus
enicillin
▁cerevis
▁intercellular
▁presenting
▁Severe
imid
▁permanently
ffinity
ischem
▁(1.0
▁mcg
▁Initi
▁antero
▁tonic
osomes
▁labeled
▁Lys
▁Caucas
▁peripheral
▁expense
▁stools
▁regulations
▁athle
▁ultr
▁Hear
inephrine
▁cortisol
ogenous
▁glutamine
▁eti
▁tow
incip
▁7.0
▁Recently
▁perin
▁(24
▁olig
oresis
mol
▁54
itus
chid
idating
azepam
▁atenolol
▁manifestations
omethacin
▁tolerated
▁abuse
▁clinic
▁Biol
▁dors
acked
▁heterogeneous
arge
▁retina
BMI
▁placent
▁ranitidine
▁arteriosus
▁subpop
▁bradykinin
iosis
▁testosterone
▁musc
ymme
restricted
▁daytime
Mu
▁negl
▁tenderness
▁AUC
▁disadvantage
▁vasodil
▁impaired
▁pars
▁extraction
6.
▁cytotox
▁transcribed
▁inadequ
▁tolerate
▁pyro
▁recur
▁aging
▁(71%)
▁premenopausal
istar
▁exerts
▁motif
▁predicting
▁(3.0
▁800
▁6.2
▁inappropriate
▁biochemical
requency
▁adducts
▁diaphragm
▁apne
▁sarcoplasmic
rals
▁necro
▁hypothyroidism
dil
▁meaningful
▁(4
▁(1/
▁thromboemb
▁Epid
▁exerted
tivity
lix
▁chym
▁prednisone
gressive
▁98
ompan
▁lyso
▁hsp
ronch
acterial
▁extrav
▁adherent
▁excit
▁neuros
▁Few
ectom
▁commerc
▁Feeding
▁painful
▁gonad
▁hydrophob
▁biopsied
trac
ospitals
▁cyclospor
▁emissions
▁AMP
(6
)2
fused
▁propranolol
enopus
▁guanosine
ophageal
ields
atient
▁antidepressants
▁novo
▁conduc
▁drinkers
▁tryptic
▁malign
anol
▁prescription
anding
▁hepar
▁soleus
tense
▁perceived
▁asymmetric
7%
▁trauma
▁percentile
▁paras
▁fluctuations
ially
▁ethical
atropium
▁similarities
▁ovary
labelled
▁neomycin
torchid
tracted
rosine
▁balloon
▁stromal
▁allergic
36
opes
▁deletion
▁leucine
▁transpor
▁0.72
▁Fifteen
▁Strep
▁lasting
MDA
▁phosphodies
▁specialist
▁69
▁glucagon
▁lact
oracic
atology
▁Authors
78
rography
othi
▁parenchym
coh
farction
sia
ocysteine
▁decarboxylase
▁Failure
plastic
rotid
▁72%
▁97%
tig
▁substitu
▁99%
atible
▁0.8
▁PHA
▁7.5%
▁isolate
▁uter
▁smears
▁0.56
tection
entia
▁contaminated
▁0.19
▁ward
6%)
▁50%,
▁contributing
▁quinine
▁linkage
▁pharmac
▁conjugates
▁mobilization
ching
32
▁2.1
▁endot
utaneously
elvic
▁contraception
▁invasive
▁puls
▁molec
ADP
▁barrier
osterone
▁subarachnoid
▁12%
▁Bacterial
▁0.64
lobulin
▁enzyme
▁complications
▁muscles
▁46%
Tyr
monstr
itoneal
▁dextran
▁microliters
xime
▁0.
▁postinjection
▁cardiac
bilities
▁organism
aced
▁293
▁aqueous
▁GABA
▁antigen
▁mono
adian
▁macromolec
POA
▁carvedilol
▁142
▁perme
▁(47
▁supernatant
▁cimetidine
▁glomerular
▁4.9
▁pediatric
fraction
▁(5)
eric
▁syncope
loride
▁subjec
▁Increas
▁phenotypes
▁Interestingly
▁methyl
▁questionnai
placement
▁(72
▁ultra
▁mucosa
terminal
illaries
▁exchan
valent
▁yr
▁oxidase
omal
▁Individual
.2%)
▁functionally
▁nonselective
0%,
strain
▁transfection
▁expiratory
ipro
▁8.
▁Comparing
▁thems
▁ligands
▁intensities
▁NADPH
▁hypothetical
▁adjustments
▁Concentr
▁Survival
▁disorders
arb
-24
▁reacted
▁ablation
▁KCl
▁weekly
▁antiserum
ecia
tipation
▁ANF
▁triceps
▁temperatures
▁(5-
▁maneuvers
▁0.5%
▁surge
▁homogen
▁occurring
injection
meth
▁(99
▁cerebrospinal
alveolar
▁vaginal
▁8
▁doubling
▁0.66
plants
▁psychiat
isal
▁uncomplicated
1%
▁SPL
▁Hb
bumin
▁acidification
▁60%.
olateral
aryotic
▁grise
▁differs
▁facilit
▁peaks
▁progressively
▁carpal
800
▁monitored
▁2.9
3-
▁44
oprol
▁corne
▁unrel
▁victims
▁ionic
RD
9%
sych
idney
▁compliance
corrected
enem
▁Injection
▁reversible
▁distin
azol
▁slices
▁coag
embrane
▁lysis
▁condens
▁3000
▁discus
▁transcription
▁insurance
▁equilibr
▁promo
▁interviewed
dition
▁meth
0.00
▁perc
▁genotypes
29
kines
▁secrete
PTH
▁nonpregnant
odiazepine
HB
▁pronounced
tage
▁suspicious
▁pall
imens
▁antipsych
▁etiology
atell
▁0.3%
▁activate
▁megakary
▁motoneurons
tenti
opathic
▁psychosocial
/6
▁keratinocytes
inoc
▁pyel
2;
▁intravascular
▁myocardial
▁absorption
▁phi
▁Changes
ureth
tices
▁lymphadenopathy
5'-
▁benzodiazepines
▁specialized
othane
▁40%.
▁constric
-66
etitive
▁determinant
▁EE
▁triphosphate
▁atopic
▁diploid
▁sedative
botic
farin
ympathetic
▁Experiment
▁sulfonyl
▁discre
BG
▁reasonably
▁consciousness
▁mesangial
shaped
▁neurogenic
▁zoster
▁activates
▁immature
▁washout
▁2.3%
▁Replacement
▁scle
▁2/
▁78%
▁chromatography
▁0.84
66
▁(1.9
▁fistula
▁thyro
▁polymorphic
▁Holter
▁dimer
olones
▁vertebr
uoden
▁vimentin
▁melanomas
▁lacking
▁WHO
▁35-
/1
otropin
▁modulating
▁indicative
▁61%
▁Scale
▁0.01),
oxid
▁1.9
▁suture
▁exposures
uscular
oconstric
▁tumors
phthal
1),
▁bronchodil
▁endoc
▁(2)
▁furosemide
▁resuscitation
▁choline
▁immunosorbent
▁Leuk
uanti
▁Concentrations
tribution
ials
▁prostaglandin
▁5.9
ressed
▁contrac
allik
▁surveyed
▁phosphorylation
▁cathepsin
▁nude
▁CSF
loxacin
▁amin
obase
ulatory
phila
▁1/
▁surviving
lamydia
glutinin
.8%
▁kidne
▁scientif
▁protocols
▁enhances
▁ribosomes
▁halves
▁lymphocytes
aired
▁thyroidectomy
consuming
erative
▁carbohyd
▁exhibiting
▁luteal
▁0.21
▁receptors
▁segreg
▁serolog
▁turnover
enteric
▁209
▁intran
▁analogues
▁topoisomerase
▁arti
▁occlusion
(4
obarb
▁10.5
GTP
osac
▁monoclonal
iable
▁(45%)
▁telephone
47
▁0.7
▁equivocal
▁apprec
ifferen
▁injur
ulence
tropine
▁grip
phot
▁(60
▁(0.
▁radiological
▁roset
▁localization
thre
▁adsorption
▁adequate
▁microvascular
micro
▁activating
▁CEA
▁resusc
▁stu
▁stratified
onucl
▁reticul
▁gradual
-3
▁adenomas
-1,
linked
▁deposits
▁psoriasis
▁satisfactory
-9
administration
▁13.
▁Escherichia
▁sten
ovascular
▁GAD
▁suppressive
▁vaccine
estradiol
▁Afric
▁bones
▁comparative
inamide
929
ytes
▁11%
cephal
/24
otom
▁anomal
▁equivalents
▁neurological
▁indications
▁heparin
▁4-5
▁vege
▁Elec
ustained
▁leukotri
▁preferen
▁infiltration
▁genomic
▁glycemic
▁detectable
▁lax
▁Prevalence
ozo
▁homogenate
▁immunofluores
▁ANP
vastatin
atectomy
▁80%,
▁cere
▁aeros
▁gonadotropin
▁clon
▁regained
▁messenger
urate
▁immuno
▁naf
▁lipoprotein
▁euk
▁0.22
▁50
aric
▁abrupt
▁(29
5)
▁outlet
Ps
osomal
bility
▁pharmacokine
Rb
▁progen
▁radiol
▁frozen
7).
vents
ucose
▁epidemi
▁upright
trained
cents
▁administered
▁75%
▁pacemaker
5%).
▁specificities
▁constituted
▁morphology
▁depended
wann
▁anhydr
ipit
minis
▁129
▁enlarge
▁slowing
transformed
▁psychiatric
▁satisfactorily
▁genotype
▁cirrh
▁myof
▁HM
IgG
▁guan
acerb
▁exhibits
▁erythropo
▁tooth
▁anhydrase
▁uniquely
▁isoforms
▁swim
oxin
▁initiation
▁Subsequently
▁conclu
apsulated
▁coval
▁DH
▁isometric
▁spind
.4%)
▁endogenous
arrhythmic
▁supra
▁sickness
▁75-
ucleotide
▁10.2
▁2.7
▁10.
tually
▁VA
anat
▁(13
▁endoscopically
ologic
▁agonist
▁150-
▁idi
▁GST
▁Whereas
plen
ulant
brain
▁tolerability
trates
ressive
▁alp
▁gestation
▁catheterization
▁hematocrit
▁surgical
oagulation
ensity
▁tubercle
▁1.5%
ifferenti
asses
▁hyperthyroid
▁(82
▁spectra
▁cytoskeletal
▁polyacrylamide
▁83%
kling
▁cruc
▁(15%)
ectomy
ynthe
0.5
▁saline
▁oral
olytic
▁thalamus
▁leukotriene
▁13-
▁biphasic
▁lipophilic
glycerin
titutes
▁wearing
mittent
▁vasopressin
anking
▁(7
oscopic
oxazole
▁95
athione
▁retrograde
itone
▁Activation
▁restraint
▁2.5,
▁continuously
▁Radi
▁agar
▁1.15
▁predominantly
strual
mber
▁dramatic
▁OB
▁phosphatid
▁(3),
odiaz
radi
▁Pneum
▁beats
▁hered
▁characterized
▁0.87
▁amylase
▁termination
▁predis
▁implications
37
-65
▁donor
▁saturable
▁serotypes
▁Haemophilus
1)
▁salivary
amide
▁36%
▁incompetence
▁PBL
duce
EA
otoxin
cyte
coun
▁intrac
▁prostatectomy
▁opi
▁5.6
▁irrit
ximide
▁surveillance
▁intermedi
ullary
▁Medicare
▁microgram
▁capsule
▁5.8
▁quantit
tensin
oplasmic
▁systematic
▁sustain
osensory
▁epid
▁injuries
-7.
tissue
▁meningitis
▁203
▁enroll
adrenoceptor
2+,
▁adrenergic
▁weighing
▁0.2,
thmia
dividual
▁predictors
nthe
▁excreted
▁glomer
othyronine
▁synap
▁Leydig
▁constitutive
trating
▁0.00
4-
▁seated
ubation
▁10(9)
▁19%
▁subjected
▁cognitive
▁biopsy
▁promoting
▁palsy
▁controversy
▁mg
enol
ellar
irone
deficient
▁escal
mur
▁Sephadex
ignific
▁neurons
▁arom
▁dismut
ographically
thrombin
▁collic
hemical
▁cytosol
90)
sectional
▁0.08
TGF
ifugation
10)
▁9.
▁stenosis
▁alanine
▁arrhythmias
▁efflux
adecanoyl
▁Glu
▁nonresponders
▁clinicians
▁gluten
▁infar
▁enrich
▁nonspecific
▁undertaken
▁thromboembolism
16
▁urine
SBP
▁stabilized
60)
▁omeprazole
ylation
3.
sis
▁kain
odynamic
versely
▁CAH
▁IDDM
oplastic
6).
alc
alasin
▁-2
ometr
▁clues
blind
▁.05)
▁intim
▁ampicillin
▁iod
▁elas
rous
uding
hene
oxygen
achial
▁hypocal
Ba
▁degeneration
▁electrode
trimester
▁CRF
orec
▁outcomes
▁discharge
mented
▁rejection
tium
▁fluoxetine
▁Nit
▁151
▁50,000
zymes
▁(2),
ophila
▁reass
▁innerv
▁nonsteroidal
▁moiety
▁urtic
CoA
odgkin
▁sustained
▁HS
▁eosinophil
▁iso
idespread
onuclear
▁3.6
roma
30)
▁0.30
▁antidepressant
▁12-
▁adjus
▁myocardi
ophag
anate
▁7.4
▁nitrogen
▁Sleep
▁(1000
▁theophylline
▁vestibular
▁kinetic
▁nasal
▁Epidemi
▁ECG
▁bacteri
▁nursing
▁migraine
fem
▁appendic
▁artic
▁pancreatic
▁incubation
▁precursor
▁64%
iated
▁inflammation
▁phagocytosis
▁comprehen
▁FEV
▁immune
▁inspiratory
icillin
▁TSH
▁radionuclide
5).
▁dorsal
▁respec
▁Ninety
▁Factors
▁astrocy
▁innervated
▁Assess
bloc
▁pulmonary
(2
▁anxiety
▁dissemin
ropha
▁latencies
▁defective
▁myosin
▁fric
▁43
▁hypothe
enzyme
▁ventilated
Hu
▁biologic
baseline
▁52
otox
yronine
▁56
▁stroma
ositive
▁reticular
▁endings
▁emphasized
▁206
▁ultrason
▁disseminated
▁10%
ulates
▁outbreaks
▁EG
▁6.1
▁assayed
TG
▁substantially
▁lowered
▁tuberc
carinic
acer
amole
▁treatments
ycl
histamine
▁185
struc
▁hydrocortisone
▁analogs
8]
▁40-
▁0.05%
▁detrimental
-[
▁averaging
▁felodipine
helin
EAE
opause
pressure
▁radiologic
▁stomach
▁targe
▁ulcers
▁physiological
tations
receptors
▁circulatory
orough
athetic
▁5.1
ipitation
▁perit
▁prolactin
▁drip
hydroxylase
▁strain
▁encompassing
ypro
uestionnaire
otopic
arynx
▁Insulin
▁antioxidants
▁25
▁Findings
▁gonococcal
▁manu
▁diz
▁immunore
▁carcin
BV
▁desatur
veolar
▁abor
▁specificity
▁vaccination
wes
-15
▁abdominal
wk
▁0.81
▁reag
▁obstruction
▁hemat
mokers
activation
▁Apgar
▁63
▁reversal
ocomial
▁CABG
▁mA
▁hypertrophic
▁7-
▁copper
▁12%,
▁weakness
▁tendons
▁trend
▁cofactor
▁dose
menopausal
2),
affinity
▁antagonized
▁3-
mmol
▁serotonin
opulmonary
▁neurob
▁undergo
▁hypothyroid
▁availability
▁hereditary
▁ecz
▁investigations
▁cortical
▁melatonin
sul
moderate
▁tyrosine
▁CGRP
melan
▁23,
etidine
▁anemic
▁olive
▁posi
ulous
▁lutein
▁cryst
▁intubation
▁Acet
▁apparatus
▁rearrangements
▁tubercul
▁NMR
▁diagnos
▁dele
tophan
▁nocturnal
trone
▁tracer
▁platelets
▁positioning
apeu
▁asymptomatic
▁affinities
▁dibutyryl
▁emotional
▁differentially
VT
▁untrained
-50%
tide
▁0.35
vation
▁deprivation
vely
▁discrimination
▁detec
▁morphologically
valence
▁individualized
oil
ocor
▁(1.3
chers
▁antisera
▁neoplasm
▁dopamine
▁Magnetic
▁sensory
▁fetuses
monary
▁Coronary
▁answ
gol
isol
-28
▁Urinary
oreal
kephalin
rele
▁membranes
▁disulf
ococcal
▁3'
▁microtubule
▁ganglia
▁nucleic
▁obstetric
▁bilirubin
▁interferon
▁polysaccharide
▁arousal
inally
frequency
▁phenotype
▁radiographic
▁24%
▁examined
54
▁semen
▁inver
ophysical
▁hairy
itr
▁anatomical
.6,
▁Vmax
▁alkal
controlled
▁tac
▁sympathetic
▁Stimulation
dU
tingu
traction
▁linearly
▁cyclo
▁ileal
▁transfusion
▁ADP
▁leukemia
▁embryonic
▁176
operative
greater
opian
▁ventilatory
50
pended
▁eluted
▁utilization
▁strains
▁tension
▁(25%)
▁microsomes
yclic
hepatic
▁additive
ophils
▁ventricles
▁postnatal
▁chloramphenicol
LN
▁hypog
▁erythromycin
▁provid
arean
▁orally
▁testes
tib
tionally
▁0.005).
▁unipolar
▁bleomycin
▁presentations
▁beha
inhib
▁(2
fib
urine
eces
▁plastic
heat
alanine
▁0.02).
▁odds
ethyl
otyp
9)
70
Sepharose
urgery
▁fertility
tosis
tice
acetate
▁oxidized
7-
▁allergen
▁thirds
opecia
▁cardiomyopathy
nRH
▁catalyzed
▁8.6
.0)
sied
erant
▁departments
▁lymphocytic
▁20)
▁Immun
ensities
▁melanoma
8%
trition
/10(
▁4.4
lational
▁dib
avir
▁anticoag
▁condensed
▁gastr
aminob
▁Pain
otor
▁8.1
▁absorbed
▁adequately
omerular
tive
▁21
earing
▁sediment
▁meperidine
▁sensi
estis
▁skeletal
▁vasodilator
▁synov
▁aureus
▁167
▁enal
▁toxicity
adders
▁contradictory
▁147
▁absorb
▁longitudinal
10-
▁orthostatic
▁modest
oplas
▁100%
iagn
estive
▁(67
oglobin
▁tightly
▁weaning
releasing
▁lesions
median
IH
.1
▁melan
troduction
▁usefulness
▁trabec
omegal
▁constr
▁reflec
▁constitute
▁Meth
itidine
▁dextro
▁plasma
omyel
soluble
▁(35
adex
▁mutants
▁disper
▁autoimmune
PSPs
▁0.98
▁savings
tead
▁0.6
Mg
▁4.1
▁radiolab
▁prevention
▁epitopes
