hydr
▁ovarian
▁somatic
▁Fourteen
erance
trogen
▁explored
▁aluminum
▁GA
▁warfarin
▁questionnaire
▁uncom
▁accep
▁suscepti
▁intracerebral
▁ascorb
▁psychiatric
▁gly
erent
genic
frequency
▁interventions
▁slowed
ectin
▁disorder
▁elastic
▁PH
odal
▁transaminase
▁arous
adequ
▁reversible
▁hyperch
▁confound
▁rupture
▁augmentation
▁choles
rowth
▁contraceptives
▁pyr
ithelial
▁TC
▁Concentrations
▁emo
▁adjus
▁visits
▁histopath
▁measuring
▁asthma
ytoin
idase
ophysical
▁nocturnal
▁dias
▁efficacious
ogenous
▁pneumon
kets
▁pooled
▁adolescent
▁conjunction
▁randomized
▁infertility
▁surge
▁manifested
▁inges
▁excretory
▁antibiotics
▁EE
▁leukotriene
▁incub
▁Evidence
otyp
▁mmol
retic
elec
▁cryp
otor
▁blin
▁exposures
▁bone
intensity
opathy
urnal
▁polysaccharide
ture
▁raises
▁deficiency
trum
▁differen
▁thickness
▁acids
▁pneumonia
lysis
inoc
▁dosages
veness
▁responsiveness
teral
inated
▁GAD
▁preventing
▁HPV
▁lacks
▁revascular
▁statistically
▁desm
ampl
▁mitral
ovastatin
okinetic
▁quinine
▁plac
▁ventilation
tein
ithin
▁ciprofloxacin
▁amput
▁mobilization
terin
gm
▁cerebro
▁tremor
requ
▁lasted
▁Approximately
▁hormone
kage
generation
▁dysplasia
ergy
▁resection
▁eliminating
idation
▁survived
▁vesicles
gth
▁biopsy
▁twofold
amphen
lactam
▁Unlike
▁oxy
▁nonf
▁unrelated
▁clamping
atitis
▁demonstrating
▁operative
▁initiating
▁exagger
▁awareness
▁metast
anat
▁ib
▁deleterious
▁gon
▁immunoglobulin
▁inhib
▁pregnancy
▁stimul
▁bronchitis
▁resis
▁progressed
▁stres
▁interviewed
▁inhibit
▁intrac
atell
lux
▁exposure
▁allergens
itidine
▁Fifty
hydro
ositi
▁pathophysiology
ximum
▁gonadotropin
▁regurgitation
▁injections
LH
▁Myocardial
methyl
▁characteris
▁microbi
▁electrolytes
ospasm
▁bronch
apsulated
ococcal
▁produc
cents
▁metoprolol
▁hep
▁meals
arean
▁inflammatory
smokers
elves
urine
ograp
▁covari
itro
▁crosso
▁optimum
▁subcutaneous
ruc
ochemical
▁remission
▁smoking
butamol
▁predis
IgM
seud
▁restr
▁endo
▁mothers
▁Disease
▁symptomatology
▁febrile
ulum
partum
▁aqueous
thre
▁contribut
tors
ogenicity
tosis
trates
▁physiology
oxic
corrected
duction
uncture
▁Nine
▁capillary
▁anomal
linked
ronchial
tified
▁recurrences
oxyl
enem
teroid
▁Twelve
zyme
▁gains
▁tablets
▁rhinitis
▁aerosol
olism
▁relie
cence
sions
glycer
effective
▁demonstrates
▁hepatitis
plants
▁lactation
▁muscul
tions
taz
▁establ
uation
▁interc
▁traum
admill
▁transit
▁hydrox
within
▁enl
▁anticonvulsant
NH
▁cruc
abies
▁atherosclerotic
▁probes
▁cystic
▁euthyroid
▁chemicals
▁Clinic
▁contracep
▁screening
▁injuries
ensitivity
ipine
gesterone
mented
▁abnormalities
herence
osocial
▁rebound
▁disturbance
▁sulf
▁considerably
early
tively
fib
▁absorp
▁angioplasty
▁immunization
▁accounted
oplasia
▁impaired
oscopy
▁fracture
▁incid
▁titration
oxid
odds
▁improving
aturated
▁compartments
eration
▁nutrition
▁terat
clinical
▁medication
▁benz
▁postmortem
▁spray
hion
▁DS
▁inflamed
▁imipramine
▁Increas
▁inhibitors
▁weighted
arly
tur
▁extensor
▁persisting
▁stratif
opi
ygen
▁obstetric
▁carriers
▁Clinical
chloride
stimulating
inally
▁agglutination
▁decisions
plicated
gus
bac
▁hypothyroidism
▁detectable
▁aging
ifedipine
▁transluminal
▁favored
▁syncope
▁uptake
measured
▁stom
▁uncontrolled
▁Myc
amines
▁margins
▁automated
▁MRI
ilateral
trin
▁intrauterine
▁assessment
▁uncomplicated
▁Haem
ducing
▁cohort
tissue
▁symptomatic
oglobulin
rowing
▁reactivity
▁aggressive
▁elderly
iaz
iplin
▁comparative
olec
▁pneumoniae
▁exud
angl
▁relapse
▁hepatocellular
▁citrate
▁objec
resist
▁Afric
ximal
▁urea
oxide
▁initiated
administered
▁receptor
▁adhesive
SDS
▁spon
▁restraint
otype
▁elimination
ylic
ocys
orrhea
▁stab
▁plasm
▁cognitive
▁lavage
▁donors
▁Subsequently
reactive
▁vaginal
stim
▁spleens
olone
▁cyst
athiop
▁multic
ylated
epam
▁mellitus
letion
▁verbal
▁transplant
ifed
▁answ
azolam
▁supplements
▁RR
▁enteral
▁seroton
▁achieving
▁Abnormal
rolog
eliac
▁fatigue
vaccin
▁beats
esin
▁Sixty
▁histamine
▁sequelae
▁depressed
▁normotensive
iant
erable
▁expiratory
▁aspirin
romes
▁synthesized
▁sensitivities
▁unfractionated
▁targeting
▁predic
▁specialized
▁modality
tituted
utaneous
▁Leu
▁sour
formations
▁infancy
merc
▁regulate
▁perforation
apid
▁infants
sia
▁brom
▁clinician
▁juice
▁multis
▁exhibiting
▁deaths
▁COPD
controlled
▁deliveries
▁diazepam
lytic
athioprine
▁PD
attern
oxin
▁prenatal
▁structural
tivity
▁retur
▁hemorrhagic
coated
▁pediatric
▁Urine
▁overl
▁strains
▁socioeconomic
▁ejection
▁acros
▁thirds
▁eryth
thirds
▁atropine
▁thems
idone
oconstric
lude
▁Individual
▁reass
▁calf
▁Few
onary
▁aerobic
▁toge
bodies
▁antimicrobial
▁occl
▁allevi
▁glomer
▁administered
sied
▁alcoh
▁tobacco
▁assis
wes
▁sedation
▁defic
ipramine
eryth
erge
bacter
teroidal
▁chronic
oprolol
responsive
▁edema
▁pulse
▁tension
▁discom
lym
▁adjusted
▁predictor
▁seronegative
▁inhibitor
▁LMW
▁disability
▁ESR
▁ranitidine
▁abdominal
▁vitro
urin
▁direc
▁splenic
orac
▁Ninety
▁epidemiological
▁kinase
▁tube
▁promp
▁puls
▁bypass
phic
lycemia
ingle
ported
▁euth
oric
▁dehyd
▁neutrophil
ept
▁cigarette
▁bolus
▁blacks
▁retinoids
▁comprising
▁panc
▁Complications
▁oxygenation
▁schizophrenia
phosphon
arrh
hypertensive
▁tuber
ylase
itary
▁yielding
eptic
▁standardized
ermal
▁Beta
▁hematologic
▁discharged
oxygen
prandial
▁saturation
▁deoxy
▁carbonic
atrial
thyroid
▁supplement
▁TD
▁Atrial
rosis
▁concurrently
▁cardi
▁diagnostic
olytic
▁telephone
farin
▁prophylactic
ching
▁contraceptive
sies
arent
ospitals
▁conges
▁expressing
▁tissue
▁resec
▁affec
asses
orough
onate
onor
▁secrete
▁smokers
▁caffeine
etan
amination
tents
▁HI
▁counseling
▁toxic
▁toxicity
▁retic
▁termination
ediatric
▁antagon
▁depression
yroxine
ophen
▁mg
▁confounding
rocy
nec
▁asthmatic
▁sple
▁juvenile
▁tomography
▁blocker
▁glyc
▁dosing
▁linearly
antibody
▁Chronic
▁transcription
▁altered
▁complication
▁infarctions
ophilic
▁drain
▁symptoms
▁lupus
▁Rates
▁ablation
▁fluoro
▁plateau
▁rhe
▁hypotension
ophag
▁chloride
ocl
▁longitudinal
▁thi
▁ferritin
▁alternating
▁vitamins
aceous
▁polyp
▁basal
▁furosemide
roscop
assi
▁Epid
▁multim
dL
estis
yste
▁positively
achn
▁antagonists
trop
▁postnatal
▁anat
azole
▁instrum
▁atrial
▁measurable
▁depres
▁indication
▁suppressed
▁encompass
▁intact
▁fractions
establ
▁weakly
amol
▁HbA
aicin
FSH
▁subclinical
▁Serum
▁gastric
▁Nineteen
▁menopause
▁discus
▁sti
▁Bacter
ondon
▁quantitative
uccess
▁assays
▁wee
▁exploration
tic
▁poten
▁Assessment
▁mec
▁identifying
▁sequenced
▁confirmation
▁cartil
responding
▁cys
▁crossover
▁proportions
▁mood
olesterol
tro
chol
▁indus
▁constr
ycl
keletal
ressed
▁dys
▁undergo
hydrox
ateral
rous
▁markedly
▁postoperative
▁inhaled
▁biological
pite
▁absorb
▁pregn
▁lowering
ensitive
eptide
▁vag
▁promin
▁diets
▁experimentally
▁encour
▁bab
▁doses
▁inconsistent
▁glucocortic
▁lacking
▁consecu
▁evaluating
▁extracorporeal
imeth
▁occult
▁increments
▁offspring
▁incorporated
▁colorectal
▁PSA
▁idi
▁diabetic
▁evaluations
▁diastolic
▁rhy
oretic
▁flexor
▁incision
▁identif
▁topical
▁dose
▁qualitatively
▁enal
fem
chlor
▁eti
▁targeted
▁concentrations
▁alcoholics
▁vein
ycin
▁tymp
omatic
oride
▁intolerance
▁anticoagulant
tyl
▁placent
▁hypothesize
▁diz
vitamin
idine
▁retin
vian
▁bactere
▁dorsal
▁disturbances
▁enti
molec
tine
ecu
▁prostaglandin
fiber
▁idiopathic
rease
▁unre
TG
▁nonc
▁severity
▁mildly
▁Almost
▁epidural
▁dementia
menopausal
▁cohorts
▁cereb
▁CAP
anine
▁isch
arous
▁agonists
ventilation
regulation
▁determination
▁coordination
peptide
▁paroxysmal
odil
▁nonspecific
ealand
elan
▁mell
▁Statistical
plied
▁capsule
▁ovulation
▁disorders
▁placental
osts
salt
▁benzodiazepines
articular
aind
icillin
▁weighed
▁lipids
amphenicol
▁pellets
feron
▁differentiate
▁hypog
terone
▁coag
nai
▁inherent
▁sten
oids
olved
Ds
▁cholest
▁DBP
atical
xone
▁lymphocytes
▁coated
▁thyroid
▁referral
IU
moking
dine
▁concomitant
▁distal
ulose
▁casein
educ
tomy
▁acutely
▁hypercal
sion
▁moderately
▁acqui
▁tox
irub
▁titers
luding
aund
tron
olution
▁babies
▁interf
tigo
cepti
ocyst
▁oste
▁behavi
▁urine
▁malignancies
▁aden
▁rhythm
acterial
▁modeling
osity
caro
▁yeast
▁aureus
▁painful
▁preexisting
▁beneficial
tenance
osus
ospor
▁progn
▁advan
ffinities
upus
▁abnormal
▁embolism
▁ate
▁victims
▁manipulation
olol
▁suture
ocrine
▁creatinine
▁adherence
▁heterogeneity
▁vulgaris
▁bacteremia
▁transmitted
▁benign
▁birthweight
▁CHD
▁accidents
injection
phosph
▁irrig
▁sexually
▁atten
▁caloric
resistant
▁Meas
anol
ocardial
▁suppression
vant
▁spi
▁discontinu
trical
romy
▁uro
▁vaccination
itus
▁enzymes
▁corticosteroids
DH
▁latent
▁comprehensive
▁anhydrase
omal
otox
▁abrupt
▁colonic
ophys
▁glucocorticoids
▁commerc
usp
being
▁nicot
ystag
▁tolerated
lec
▁reproduc
▁chest
▁Factors
▁uter
▁coagulation
▁recurrence
rogen
▁rhin
▁disclosed
▁fetal
▁conditioning
lox
▁complic
tric
trial
▁pts
▁ech
▁marginal
associated
▁infusions
atology
▁predicting
emic
▁Phase
▁anomalies
tisol
▁medications
eprazole
▁Swed
▁progressive
▁eccentric
ologic
yro
tory
▁AFP
▁Measure
▁bip
▁shortened
omatosis
omiting
▁anxiety
agic
ronch
▁prol
sue
▁blot
▁PP
icin
▁inversely
▁olive
▁Cancer
▁Engl
atible
reased
ication
▁hydrophilic
▁Twenty
molality
▁imaging
oxazole
▁reas
HDL
▁caries
epti
▁weigh
▁fossa
▁secretagogues
▁chor
▁enlargement
enzyme
▁treadmill
itone
lobulin
welling
▁precursors
sess
aric
ceptive
▁testis
▁volunteers
▁duplex
▁retention
▁absorption
elic
▁adi
▁nutritional
▁physician
ecal
▁tas
▁readings
GD
▁analyses
illin
▁neuropathy
▁parental
ffer
▁circumference
icient
▁oxytocin
rase
▁ester
▁thrombotic
▁virtually
tenti
▁pharm
▁preoperative
plen
▁outpatients
otherapy
▁fluids
ipheral
▁consciousness
▁sero
tral
dition
▁endocrine
iteal
insulin
▁lith
odine
urations
▁carcin
▁receptors
▁agon
modified
▁chemically
▁quantified
▁invasive
▁controlling
▁trials
loro
esic
▁Significant
otropin
▁reversed
molar
▁autoantibody
▁perioperative
▁heavi
avage
▁electroly
coh
▁paradox
spective
▁elic
bumin
▁antid
▁healthy
▁reproductive
▁laboratory
▁Holter
▁bilateral
▁perfusion
▁atopic
▁canc
enicillin
▁uv
antial
▁responsive
ostomy
▁pronounced
▁reductions
thmia
drug
▁survival
okine
▁monotherapy
▁paired
▁Sixteen
▁heterozygous
▁sensitivity
▁spacer
disc
▁neurogenic
▁wors
▁erythromycin
ressive
tening
yrib
ivary
▁angiography
▁lymph
ipit
▁correlated
iotics
opr
▁glucocorticoid
onidine
▁adop
bacco
▁saphenous
▁alanine
▁fetuses
▁transverse
▁rehabilitation
▁acute
▁concordance
llate
▁carotid
angiotensin
▁rated
arynx
▁melanomas
assium
▁viral
oconazole
▁pituitary
tec
▁reliability
otri
asone
▁underg
▁hypertrophy
▁fixation
▁prednis
▁spontaneous
▁uterine
▁syndromes
▁angiotensin
otoxic
idic
▁antibody
▁electrical
▁potenti
▁spikes
plies
▁alcohol
▁micros
tensives
▁reser
adication
▁bony
▁opioid
▁outcomes
olute
▁brainstem
lycer
▁psor
▁ibuprofen
▁grain
▁PCO
▁excre
▁BMD
▁bic
▁Exc
ophil
▁phosphate
▁VA
▁professionals
▁differed
▁anatomic
adily
▁consumed
▁genital
▁Combined
▁regulation
▁CHF
CAM
▁hemorrhage
ocial
▁influenzae
▁swit
cysteine
▁serologically
▁radionuclide
indolol
usate
▁cate
▁femoral
▁duodenal
▁weekly
▁childhood
▁dex
▁feeding
ogens
▁achie
▁abstin
▁Survival
▁commercially
lep
iline
▁favorably
▁nasal
▁vertebral
▁progres
lamp
▁eradication
sensitivity
▁NSAID
▁interleukin
▁crucial
cyt
ritish
▁persists
▁thrombus
gthen
▁satis
▁manifestations
oice
ticularly
▁experi
▁artic
▁microscopic
uterine
▁articular
oprim
idated
▁Combin
▁Overall
xate
leukin
▁usefulness
oste
▁cough
▁elas
▁challen
lusion
▁maneu
▁goiter
ovascular
psych
amycin
▁cesarean
osomal
▁complications
BH
▁Oral
umerous
flamm
▁methyl
thyl
▁HL
▁awake
opathology
▁cure
▁ultras
existing
▁radiological
▁shorten
lated
▁localized
entile
▁prognostic
▁reflects
▁hypercalcemia
▁MI
▁supple
▁unresponsive
acetic
▁adren
▁ascer
▁strain
yses
piration
▁stric
cholesterol
▁multicenter
▁BM
▁jaundice
▁clot
▁stimulation
ethylene
▁potassium
IgA
ipolar
▁Tiss
ignific
▁examinations
patients
iatric
▁intracranial
▁concentrated
roscopy
▁anesthetic
▁homogeneity
▁abscesses
▁placement
immune
▁ELISA
unately
hyd
▁compounds
▁appropriately
▁cytoch
▁untreated
▁carb
hydrop
mentation
▁Peak
▁satur
▁nitroglycerin
romycin
▁testicular
▁Clin
▁Bec
▁amiloride
irubin
▁Fib
▁recurrent
arb
▁substances
acid
ereb
VT
▁impair
achol
▁subgroups
▁thromb
▁Higher
▁dermal
sA
▁prevalence
amine
▁regulating
▁PPD
▁surveys
▁pressures
▁multivariate
ocytosis
▁lact
▁paral
▁immun
RP
▁secreted
▁schiz
▁dysfunction
▁cysts
▁varies
operative
otroph
▁inducing
▁intest
▁validated
▁initiation
Cs
treatment
▁nephropathy
▁adults
▁anhydr
▁radiologic
▁sorbitol
illar
effec
▁immunobl
ayed
thma
▁valve
▁cartilage
▁lipophilic
▁inflammation
▁surgeons
sy
▁hyperg
tracted
▁Increasing
▁Lymph
▁drainage
aturation
atab
▁neuropsych
hep
▁percutaneous
▁outpatient
▁autoimmune
▁dopamine
tance
▁percentages
▁moderate
▁tablet
▁modest
▁compartment
▁subjec
tingu
went
ureus
▁parox
▁contractions
▁immunized
▁couns
▁recruited
olated
▁likelihood
▁increas
▁withdrawal
▁dipyridamole
perature
leuk
odium
▁progression
▁resc
▁ison
▁unchanged
othi
▁comprised
olam
▁neonates
▁competence
▁provid
▁malformations
inj
▁salivary
▁fluoride
▁mandatory
▁yielded
▁ae
notic
▁discriminant
itol
▁aspir
omerular
▁statis
tained
▁exce
▁discontinued
▁structured
▁malignancy
ocon
▁Risk
▁arti
▁permanently
▁persistently
▁anesthesia
▁dental
▁placebo
▁nervous
▁infar
▁exag
orsal
▁islet
▁spine
▁intense
▁succin
▁surf
trib
▁renal
▁manu
▁Subjects
rometry
▁estradiol
▁Tissue
▁antidepress
icide
▁Exercise
aturity
individual
▁Pregn
deficient
▁perinatal
▁bipolar
intestinal
▁demonstrable
▁sodium
iability
▁Recently
kely
ergen
▁decarboxylase
▁heal
induced
poor
▁horiz
tiary
rated
▁biochemical
ocor
▁suppressive
▁infusion
▁Interestingly
matic
▁formulations
▁analogue
acer
▁balanced
▁Recent
▁injected
▁hemo
▁syndrome
▁overnight
esium
anad
▁substanti
ophilus
▁salbutamol
▁adenomas
▁ischemic
▁Surgery
floxacin
▁rheumatic
▁duoden
sis
▁recor
onad
converting
▁examined
atients
▁comparisons
▁adversely
▁tes
▁failures
▁Additional
▁chronically
effects
anding
kine
▁TM
omes
oag
▁Neither
hospital
▁Elevated
▁theore
▁saphen
▁obstructive
▁unexplained
▁pelvic
▁arteri
▁congen
▁urinary
otassium
▁penicillin
▁exacerb
▁nondiabetic
▁pep
▁adap
tene
imodipine
▁newborn
▁nebul
tig
▁buc
atched
▁poorly
▁subf
▁probe
▁mEq
▁logistic
▁hemoglobin
▁hysterectomy
▁exhaustion
▁carc
▁pathologic
oreal
▁predictors
▁TS
aid
▁fati
▁assessments
apse
plas
acchar
▁methodology
▁airflow
▁surgical
▁acidic
tivation
▁traumatic
▁successive
▁familial
ressing
▁sputum
▁trends
▁suction
tensity
▁sequentially
zymes
▁proce
▁wk
▁glands
▁atyp
tional
otoxicity
▁erythema
▁phenyl
▁multin
determined
epine
▁leuk
▁monthly
▁tightly
ranolol
years
▁Ace
▁Seventy
enteric
valence
▁assessed
vival
▁diagnoses
orated
▁vascular
▁undergone
mend
partic
ilization
tee
▁fibros
pir
▁solitary
▁junction
▁validity
jec
▁biphasic
▁marginally
▁nons
▁dosage
▁asymmetric
▁cyclosporine
▁adolescents
▁prednisone
▁pH
avail
▁LT
onvul
androgen
▁adoles
▁plasminogen
onin
▁visualization
▁detecting
osclerosis
ses
urea
▁characterized
▁diuretic
pran
▁cyclooxygenase
▁obesity
osterone
▁intra
inergic
▁Arter
▁vigorous
tative
sives
▁transient
▁exhibited
onyl
onegative
▁stomach
▁practitioner
opause
▁histological
▁glycos
treated
▁bioavailability
ergency
▁bleeding
▁surveillance
ritin
irds
gold
▁voluntary
dominal
▁Staphylococcus
▁gum
hea
venous
▁seropositive
mong
▁AO
adjusted
rays
▁compli
▁postpartum
promoting
▁metabolism
▁Gluc
encephal
▁IgA
renal
▁PEG
meas
sibility
▁qualit
▁predominantly
eak
▁screened
▁bloc
▁oxygen
▁lesions
aminop
acycl
▁declined
▁deox
▁variability
▁Whereas
kers
▁cortisol
▁gradual
ochrome
▁suspected
tically
▁amin
▁cultured
▁thrombo
▁foods
▁competent
versity
▁lidocaine
▁indomethacin
acental
▁doubling
topril
▁glomerular
adder
▁ruptured
▁perceived
horm
owever
▁analys
▁normo
▁duct
radi
▁rats
▁adrenal
mur
▁drugs
▁Eight
ocomp
▁systolic
▁averaging
orh
▁drin
▁dextrose
induc
olig
jun
ancies
ylon
apamil
▁supplemented
opres
▁neurop
▁benzo
▁colonization
▁RS
▁thresholds
roup
▁undergoing
▁monit
▁HSV
pli
▁posi
▁resour
▁behaviors
▁acet
▁Hear
▁electr
▁unm
feren
▁frac
ensi
▁criterion
▁ethnic
acute
ypro
▁squamous
mittent
ochrom
pation
ications
▁dehydration
▁summarized
▁enalapril
▁enhanced
RR
▁glycol
▁corticosteroid
▁muscle
▁cerv
▁attenuation
▁guidelines
▁cutaneous
▁evid
▁reticulocyte
▁dextro
▁exceeded
▁protr
▁hydrocortisone
▁HP
ceptions
▁neonatal
otonic
limb
▁fluor
▁postural
▁knees
▁scanning
▁Dop
pregnant
▁guinea
ocyte
▁transc
▁incontinence
▁autoantibodies
▁EB
▁membran
▁Sensitivity
▁diffic
▁fecal
epines
▁grades
▁concep
entia
ipro
idne
▁uncommon
▁diagnose
▁preterm
▁analges
concentration
▁CB
inely
tact
▁routinely
vul
▁adul
▁anemia
▁nodules
▁elec
▁deviations
▁supplementation
▁adjustment
athyroid
▁peaked
▁plasma
▁confirming
ucas
▁interferon
estern
jected
TSH
ucose
orbent
▁attending
▁tibial
osyl
tus
tensive
▁departments
▁encomp
▁wheat
amn
▁intake
▁sepsis
▁Streptococcus
▁proteinuria
▁ECG
responders
▁Ultras
▁hospitals
bic
▁Haemophilus
▁protective
▁folate
▁immunotherapy
▁widespread
robial
▁semen
piratory
▁psychological
sus
▁treating
▁improves
entif
lipid
▁ascorbic
tens
▁involvement
▁sheath
▁implicated
▁polyethylene
nine
▁evolved
▁azathioprine
▁SG
▁arousal
edema
oprol
embry
blocker
▁amniotic
terase
otent
▁membranes
▁gestation
titute
prising
entricular
▁Factor
▁ionized
gluc
amole
omies
▁spinal
▁cerebral
itant
ameter
▁irr
▁injur
▁establishing
uble
▁spor
▁lipid
▁Thyroid
▁progesterone
▁excretion
DNA
▁incontin
▁estrogen
▁unilateral
sant
▁excluding
lact
▁reticul
regn
fat
▁prognosis
ropath
▁surveyed
alc
▁luteinizing
▁Acet
▁ICU
terol
sulf
▁smears
▁bacterial
▁Thirteen
▁serologic
▁attributable
occal
mokers
▁blinded
▁reflux
fetoprotein
▁peritoneal
arity
habil
▁ineffective
▁activator
▁prophylaxis
▁steroids
ocomial
BP
▁admission
▁melanoma
▁antagonist
vents
▁uric
▁genetic
▁accessibility
oplasty
▁classified
uretics
▁algor
▁patches
▁kinases
ecre
▁injec
▁immunity
▁albumin
▁ejac
hetamine
ionate
▁severely
▁Severe
▁wrist
placement
▁labeled
▁amphetamine
▁eligible
▁epidemiologic
▁Patients
▁abscess
▁postoperatively
▁examination
▁relapses
monary
▁pig
▁instrumented
▁cortic
ypical
▁thir
▁responded
▁kidney
▁hypothal
▁immune
▁LD
▁antimic
▁preparations
▁fasting
▁Chlamydia
▁enrol
▁Pneum
icep
▁congenital
▁favorable
opam
▁cervical
▁occlusive
▁vaccinated
▁HS
▁propionate
▁efficac
▁poisoning
▁neurologic
amide
▁myocardial
▁influenza
▁ligation
▁medically
▁maintaining
▁capsules
▁categorized
▁facial
orption
▁antib
▁ket
▁amn
▁peripheral
▁nurses
echn
vastatin
ymp
olerance
onomic
▁immunogenicity
▁elicits
▁temperatures
ensity
▁retrospective
tant
▁radiographic
iable
▁occurring
▁musc
▁suppres
promazine
avirus
▁affecting
▁atypical
▁acquisition
▁weakness
CAP
▁perip
▁sediment
▁stren
carotene
▁hypocal
odop
▁cumulative
ausea
yrox
▁nodule
▁knee
thromb
aternal
geal
yzed
mL
enh
timal
▁streptococcal
▁gland
▁potent
▁Scale
▁chan
amid
▁incis
▁stratified
plasty
▁undere
▁cardiac
rocyte
▁enzyme
▁tooth
inflammatory
▁glut
▁modif
▁cholinesterase
sequent
oluble
▁reliably
▁hypothalamic
rele
▁hyperthyroidism
▁benzodiazepine
▁calcification
▁soy
▁esophageal
ascular
▁tach
▁dietary
▁Phen
▁allergy
olamine
meth
▁discon
▁preval
▁bicarbonate
▁psychosocial
ethyl
▁fertility
inesterase
▁diagnosis
▁decade
▁neph
duced
iazide
tice
▁nosocomial
ardia
tration
usive
▁Lact
azep
▁epidemi
tential
▁strategies
ophageal
▁respiratory
yroid
▁bacter
▁overt
▁pharmacologic
▁quanti
▁ery
▁defects
▁lesser
▁tubes
tious
▁bradycardia
▁stain
▁decreas
▁accurately
▁Calcium
▁cuff
▁LR
▁omeprazole
opath
▁fibrillation
ffin
▁cyt
▁pancre
▁differentiated
▁Preliminary
urther
▁polys
▁systematically
▁mineral
▁correlates
▁NP
mitted
▁plaques
▁bathing
cine
opathic
oidal
▁investigators
aning
▁unstable
atectomy
▁CDC
▁keto
▁decreasing
rogenic
oic
▁copper
tin
▁derm
▁Significantly
▁relaxant
tizing
▁reveal
▁inver
▁encouraging
▁daytime
queous
chid
trac
pig
▁discomfort
▁poin
▁ureter
▁computerized
▁suppor
▁expense
▁pertussis
etine
ycline
▁Reduc
▁allele
▁reflecting
acted
▁parathyroid
▁vulnerable
traction
▁Relative
lamydia
▁ascertain
▁tetracycline
roma
▁supra
pirone
▁tac
idney
▁hydrochloride
blind
acr
ogl
▁attenu
exercise
partate
▁hir
▁addic
▁Estim
▁hypers
▁requi
pressing
▁subfractions
▁adulthood
▁MIC
▁instruc
tiz
▁Replacement
iminary
▁acces
▁numb
gestin
▁persisted
▁hypo
eces
▁hematoma
astolic
trated
▁IgM
▁enlarged
▁irrit
othiaz
opa
▁resting
▁slowing
▁rele
▁consensus
▁contamin
▁analyzed
▁choline
ococcus
▁luteal
▁steroid
▁Ventricular
ranial
▁transferrin
omotor
▁precur
matched
blood
fusion
▁antic
▁kit
illance
▁retardation
▁testosterone
illus
▁glycoprotein
▁harmful
▁placenta
▁suspicion
▁graded
▁metastatic
▁nausea
▁intravenous
▁superf
rents
▁diarrhea
ysm
▁lutein
▁Initi
brile
▁examin
▁morb
▁gestational
tensin
▁persis
▁exten
wk
▁osmotic
▁resonance
▁extre
▁infected
▁rotavirus
▁CIN
▁retinopathy
▁lowers
▁cere
▁inadequate
▁regurg
▁Hg
▁functionally
▁freeze
▁esophagus
▁neutropenia
▁unc
▁cooling
▁esophag
▁antibodies
▁HBsAg
olus
▁HDL
▁surgery
▁rheumatoid
reduced
▁refr
▁ADA
tations
ocated
▁neoplasm
▁Increases
cyclic
ctive
onazole
tisone
▁IgG
▁arterial
muscle
▁chorionic
▁endogenous
trast
ostic
▁comparable
micro
ologists
sors
▁healing
▁vancomycin
▁focal
▁nig
▁anaerobic
▁zinc
tical
▁postmenopausal
pregn
oxifen
infection
▁treatments
▁insertion
coun
ituit
opic
oretically
ritis
teroids
▁insurance
tives
▁limiting
▁employment
▁disseminated
▁critically
▁wound
▁rigid
▁serotonergic
organic
▁indicators
ifferen
▁Positive
▁mann
ithm
tivities
▁recipients
▁retrospectively
▁synovial
ials
▁latency
▁pharmac
▁exhaus
releasing
▁ventricular
tebral
▁rheum
lyc
▁elevate
▁findings
EMG
▁normalization
▁ultrasound
▁colos
conver
▁diseases
▁attitudes
▁opioids
▁subarachnoid
ignificant
risk
▁assessing
▁lapa
▁rectal
oustic
cemia
▁ofloxacin
▁insoluble
idin
▁intensive
▁sedimentation
▁aspec
▁elevated
tual
▁PCR
mortem
entral
ercise
threatening
othal
erating
▁phenomenon
▁fractures
▁neutralizing
▁extrap
PCR
▁hepatic
▁conducting
▁extrac
▁antidepressant
▁perin
trol
▁insulin
▁PLP
▁experim
▁ori
iatic
▁postprandial
▁filtration
▁endometrial
▁PT
▁Impro
▁decline
ulant
zard
▁poorer
▁saturated
acrine
▁nursing
▁prospective
▁conservative
▁hepat
plemented
FEV
▁fatty
▁oral
▁fiber
arate
sibly
▁gynec
▁tibia
feeding
▁juven
oxif
▁biopsies
▁insufficient
essive
atation
▁avoidance
brom
▁transi
▁leakage
▁liver
▁Transi
▁wounds
▁prednisolone
glycoprotein
▁respec
▁Evaluation
▁tolerance
tured
▁suggestive
▁colitis
▁scans
▁ductus
izine
▁maturity
▁serolog
reast
▁excised
▁exis
▁dexamethasone
MH
▁intramuscular
opramide
▁multiv
▁glomerul
▁auditory
▁consistently
taining
▁Intr
glycerin
sistent
▁behavioral
▁kidne
zation
▁receptive
▁specificities
entric
▁hyperplasia
▁ane
▁fever
▁unusually
▁pleural
▁tendon
diabetic
▁pylori
▁Comparison
▁consultation
ventil
▁intervention
acet
▁Tran
tive
▁pump
tiveness
▁specificity
▁hygi
▁restric
respon
thrombotic
▁extracts
▁judged
▁exclusively
▁circulatory
▁congestive
ancomycin
▁DMP
reness
▁menstrual
▁abuse
▁ischemia
▁clamp
▁accid
▁methionine
▁CAD
▁onset
farction
▁lasting
invasive
ontal
▁granul
iagn
▁breathing
▁rati
▁ulc
tering
▁HLA
▁recommendations
▁synthetic
ropathy
▁resul
erebral
adone
▁bronchial
havi
▁suicide
▁headache
tent
aginal
vascular
▁VT
ferrin
aminase
▁herpes
▁antis
▁amph
▁parac
▁compositions
▁allergic
▁smo
asting
amethasone
▁clinicians
▁risks
containing
▁adequately
▁endoscopy
▁stimulus
osal
lected
▁stenosis
median
▁adequate
▁renovascular
▁excl
▁prospectively
▁utilizing
▁regimen
onset
▁epilepsy
gative
▁excluded
▁challenges
▁esters
gely
tention
blockers
▁cancers
▁clinic
▁gyn
tigu
▁mU
▁Mortality
▁reactions
▁paroxys
▁heavier
▁arthritis
xual
▁verapamil
▁decreases
▁fetus
▁detec
metic
tures
ration
▁sampled
titution
adders
arachnoid
eric
▁Calc
▁incom
adrenergic
▁carbohydrates
▁intermedi
▁DF
▁discharge
▁Respiratory
rief
▁endometrium
▁contaminated
▁describ
▁iso
▁psoriasis
odic
▁pigment
▁hyperb
▁cef
uded
▁cyclo
▁recordings
▁participating
▁PI
▁maternal
ulatory
pecific
▁endoc
▁viruses
vation
▁tuberculosis
▁hospitalized
▁Caucas
▁hetero
▁transfusion
▁ankle
▁discriminate
▁angi
▁glucose
▁intran
▁PE
▁discontinuation
directed
▁ppm
ischemic
omized
▁serotypes
mol
oprotein
▁Subsequent
ditions
▁occupational
atient
▁outlined
ithi
▁Histologic
▁apnea
▁creatine
iplinary
accharide
▁inadequ
▁horm
azepam
athy
▁fluc
▁quantit
▁elective
molecular
toc
▁pneum
▁Functional
centr
▁prevented
▁subjective
roscopic
erence
▁meningitis
▁TP
▁newborns
▁flora
▁actin
▁affects
ergic
▁illnesses
▁Thirty
▁histologic
▁instr
▁tertiary
▁clinics
oscop
▁infrequent
▁prolactin
idity
▁reveals
▁doubled
comitant
ighted
▁neoplasia
▁fulf
▁cerebrovascular
sectional
▁Lipid
▁cis
▁trend
reatine
throm
▁endoscop
▁perc
▁wash
▁cardiovascular
▁effusion
▁excessive
▁incidence
▁outflow
▁controversy
ocellular
▁infectious
▁prescription
▁hered
▁endemic
▁malignant
onatal
examin
▁Certain
▁antidepressants
▁Compared
▁impairment
eal
▁histology
▁hypertensive
▁epid
orts
omycin
▁tric
▁simplex
xime
albuminuria
▁ure
▁deoxyrib
▁pati
lys
till
agonist
▁atenolol
▁superficial
▁intram
▁Likewise
▁gentamicin
▁coli
▁electrodes
▁unaffected
▁neon
▁schedules
▁predictive
ongest
rofen
▁deter
▁Acad
▁nadir
▁mamm
clusive
mature
▁acetate
▁thyroiditis
▁Consequently
▁retinal
▁deterioration
▁eliminated
▁percentile
teric
rography
arbox
▁dermatitis
▁spont
▁deterior
tension
enic
greater
▁elevations
▁tended
idazole
▁inversion
▁leukocyte
▁practition
▁malign
▁consistency
▁continuously
▁kidneys
▁DSM
▁efficacy
▁glycemic
april
▁blockers
▁sustained
▁Cycl
▁cholesterol
▁aspiration
armac
orable
▁sulfate
hist
▁lep
▁compromise
▁palsy
urate
▁ligament
▁bromocriptine
▁melan
ominant
thmic
average
bility
▁Increased
▁isolates
▁Thy
mia
▁Transient
▁vomiting
▁artery
▁hypoxic
▁antibiotic
▁indi
▁calcitonin
▁perception
ureth
▁dihydro
uprofen
iasis
nisolone
▁estimating
▁symptom
ostatic
inemia
▁immunosorbent
▁adenocarcinoma
▁monitored
▁esterase
abdominal
idate
▁physiological
▁threefold
▁Treatment
amic
▁rehabil
erate
ventional
▁arter
▁Thir
▁abd
onucle
▁bup
plete
▁cultures
▁effec
▁therapeutic
▁analgesic
▁cavity
▁pyl
▁polyc
▁LDL
▁uterus
▁differe
arge
eclamp
▁bacteri
▁infections
▁defec
▁angina
orphine
produc
▁otitis
ulin
▁diabetes
▁underst
▁estrogens
▁minority
▁cessation
odies
▁ovaries
▁sham
▁renin
▁neuroleptic
▁plas
▁peroxide
▁enrolled
▁detrimental
▁Eighty
initi
fed
▁centers
▁preventive
sych
PV
▁overweight
▁implants
▁preparation
▁sensi
▁cran
cessive
▁inhibitory
▁practitioners
▁ultim
▁bowel
▁cytology
▁protoc
▁grains
▁graft
amicin
▁CRP
olic
▁dairy
▁Escherichia
esity
LDL
▁ventil
tle
▁respon
ometh
▁Diagn
▁concom
▁gels
▁Eff
uled
▁reac
erally
mega
cture
▁migraine
▁bronchodil
▁dye
▁WHO
thi
▁hyperglycemia
▁elevation
▁HIV
▁subc
lyl
▁thyroxine
resis
▁splen
▁antiarrhythmic
▁restenosis
▁enteric
▁neurolep
▁nitrogen
ervical
▁calories
versely
▁parity
▁prescribed
▁smear
▁infrared
tics
ially
acts
▁suspic
▁aimed
minute
▁underwent
▁succes
▁therapies
▁FT
▁coronary
▁Neuro
orrh
eled
▁gases
▁neomycin
▁dox
▁streptococci
▁sulfoxide
daily
▁bilirubin
▁reinforcement
uscular
▁enamel
arbonate
ocytes
▁hydrop
yclic
oung
▁clonidine
tiv
▁organic
▁adverse
▁alumin
▁noc
hemat
▁solely
▁investigated
▁identifiable
▁infarct
ritic
oporosis
lood
▁Surgical
oprost
▁pulmonary
ociation
▁alcoholic
▁orally
retin
tif
thmias
▁chloramphenicol
tial
opamine
▁trich
▁acetaminophen
▁durations
dial
▁diversity
▁cephal
density
▁Hb
▁inappropriate
▁scre
itamin
ocyt
▁PMS
▁formulation
yx
▁practic
viral
▁Addition
seven
▁relaxation
▁Reduction
ignant
▁throm
▁contex
▁electrolyte
orpor
▁conclusions
▁phosph
▁EG
▁enlarge
loxacin
hydroxyp
anin
adren
▁ey
▁attemp
▁conflicting
▁socio
▁initiate
vely
▁prevention
▁inducer
▁chlorpromazine
▁stool
opril
▁metastases
▁needle
▁hig
▁biop
tiguous
▁emphasized
▁equivalents
plasia
▁calcium
▁morbidity
▁antigen
tox
iotensin
dle
▁trunk
vac
thmatic
▁torsion
▁limb
▁benzyl
▁supportive
▁meth
▁staging
▁lateral
▁myc
▁captopril
imens
▁cros
aryng
▁puncture
itrate
orectal
strain
▁TI
▁possi
▁examining
▁conduc
▁anomaly
▁Seventeen
loid
omegaly
▁capsaicin
▁nonsmokers
▁neutrop
▁sedim
▁supr
▁latex
▁dyspnea
▁shor
▁clinically
▁abor
exc
▁presum
▁investigations
predic
amily
▁inspiratory
▁meaningful
▁hypotonic
▁sustain
▁assay
▁enhances
▁odds
▁amputation
▁osm
▁radiography
▁presumably
▁lacked
▁acetic
▁reactive
▁oss
▁Symptom
ucl
▁remo
▁outbreak
▁insufficiency
▁serum
duce
▁pregnant
▁sugars
▁dissemin
weighted
▁perox
ochem
▁exaggerated
adm
economic
ordance
▁normalized
usions
▁LM
▁hypot
ovirus
cortisone
▁TSH
▁plasmin
▁resistant
▁simultaneous
▁morphine
▁chewing
▁upright
▁withdrawn
istar
▁bacteria
▁autosomal
▁couples
iloride
▁dissection
▁vaccine
exposed
ocaine
▁shedding
▁synthesize
▁emergency
▁concentrate
▁therapy
▁lis
▁induce
yrid
▁agonist
ocin
▁ward
inyl
tation
▁coenzyme
▁lumen
▁diet
▁embry
▁fibr
eight
▁omega
ffec
▁susceptibility
ughter
▁adjusting
▁sugges
oneph
▁mortality
tency
▁abnormally
▁obese
▁magnesium
▁dimethyl
aired
OA
thoracic
tially
▁minimally
▁nifedipine
▁surgeon
▁affinities
albumin
toxic
tionally
▁aneurysms
pain
tinu
▁physici
▁therap
▁diaz
▁methadone
▁abdomen
▁ulcer
▁compliance
sive
▁vesicle
ortic
▁glutamic
amphetamine
azol
ystic
▁obstruction
astric
ifornia
▁pregnancies
▁methotrexate
aryngeal
▁pancreatitis
iotic
▁residual
acerb
▁chol
lamin
siveness
▁thereafter
▁hospitalization
▁demands
▁caution
shaped
▁lute
▁hypothe
▁neuro
phor
▁clus
atoid
▁insignificant
▁adipocytes
forming
▁hemat
▁lumbar
▁PV
▁strongest
igible
plication
odipine
amus
▁nerve
rein
▁concer
hene
▁selec
▁dramatic
organisms
bladder
▁DT
▁modalities
▁menstr
▁weighing
▁tetrac
reactivity
▁continuing
▁ingestion
▁distress
▁lipoprotein
▁infection
▁immunos
▁pretreatment
▁contraction
▁tracts
▁ratios
razole
sian
▁regimens
sodium
▁Fifteen
▁sampl
ariate
▁genotypes
selec
▁reflex
▁loos
▁diagnosed
▁Doppler
▁preven
▁crom
▁hydrogen
▁deposition
▁intrav
▁relap
ilic
turb
▁physi
▁premenopausal
tility
▁diuretics
icated
▁athletes
onstric
▁intestinal
▁sonography
▁pathology
▁diarrh
▁chlor
▁Candida
yclo
▁ultrasonography
▁admissions
vular
▁gonadotrophin
allium
oyl
▁mening
tition
▁amplification
▁cytologic
▁Eleven
▁Hyd
ipr
▁reflec
▁skeletal
▁Maximum
▁effectiveness
oxy
igaret
▁carcinoma
▁mucosa
▁chemotherapy
▁Examination
▁bladder
ecretory
▁vitamin
obenz
isol
atosis
▁births
ceived
▁deform
▁digoxin
▁Patient
▁LV
orec
▁asymptomatic
▁etiology
▁abortion
▁thromboemb
▁glycosylated
▁paren
leu
▁dors
oscopic
▁erythrocyte
▁limbs
▁determining
lobin
▁confirms
▁Infection
▁molecule
▁conductance
▁propranolol
▁ampicillin
rosy
ocysteine
▁balloon
ionine
▁clinical
▁Levels
▁clon
▁indo
▁Alzheimer
ogenic
▁veins
▁nonex
▁baseline
▁refractory
▁dysp
▁Insulin
arrhy
otypes
▁diabe
▁hereditary
onephritis
rologic
▁focusing
▁Tes
▁hazard
▁surgically
▁implications
▁ocular
▁selective
▁atrophy
▁pyel
tection
osamine
▁intermittent
natal
▁hypoglycemia
LISA
▁distinguishing
▁infarction
SAID
▁sorb
▁ranging
tropin
▁beha
▁arrhythmia
▁struc
uminal
▁genotype
▁questionnaires
▁dilatation
▁pretreated
▁Leuk
▁BCG
openia
▁determines
▁triglyceride
andida
▁pancreatic
▁triglycerides
ectomy
struc
▁Subjec
tally
▁Injection
etent
ameth
▁HR
ocar
crib
embran
▁nicotine
illary
crip
▁Systolic
▁carcinomas
▁laser
▁tumors
stin
tate
▁drops
▁illness
earing
▁ongoing
traum
tural
▁constituted
inic
▁caro
▁causal
lives
▁Americ
ller
astatin
onography
▁triglycer
ologically
fraction
▁muc
▁compares
▁emerg
alsy
▁proton
▁gonad
▁ultr
▁noninvasive
oglobin
▁OC
rine
▁erythematosus
ymptom
aline
▁lithium
rosemide
▁cured
▁fibrosis
▁depressive
vail
▁HB
▁immunoblot
expressed
▁endotracheal
▁presumed
BT
▁washout
tronic
▁developmental
▁emulsion
▁contiguous
▁lymphadenopathy
▁emotional
▁proximal
▁premature
abd
▁helical
▁accounting
▁stimulant
▁aspartate
▁pulsed
▁paradoxical
▁arrhythmias
▁sput
otrexate
amuscular
vices
ofl
ometri
▁microvascular
▁osteoporosis
▁approx
otting
opl
▁reproducible
actin
▁gluc
▁ambulatory
apanese
▁mast
▁resear
ucle
▁physicians
▁mice
▁indications
▁heparin
▁repl
iciency
▁tol
▁scalp
immun
hyp
duc
bearing
▁complaints
▁pulses
echan
▁habits
▁trauma
▁identi
acting
RB
▁xyl
▁techniqu
▁excision
▁lumb
iph
▁suspension
▁mL
▁stepwise
▁diminished
▁thrombosis
▁quin
▁Forty
▁meal
azepine
tinguish
▁microorganisms
istal
▁mild
▁Alz
▁perit
▁LVH
bral
▁perfor
▁pharmacokinetic
▁decreased
tioned
▁averaged
▁tumor
▁inh
▁tamoxifen
▁Grade
gressive
quine
▁definitive
protein
▁prophyl
▁quantif
▁recur
ticular
ophy
▁Sodium
▁BMI
cellular
retion
▁airway
asal
tussis
aminophen
▁dermat
▁deficit
trained
LV
▁contributing
▁aberrant
iated
amous
uran
oracic
▁trimester
▁nonselective
dose
osom
▁tiss
▁inflamm
▁analgesia
▁postin
ffeine
▁Prel
▁cytochrome
▁presenting
▁hazards
▁progestin
▁nitro
titis
▁abnormality
▁brush
▁differing
▁hypox
estrogen
▁Coronary
hers
▁pyrid
▁functioning
▁additionally
▁tear
▁lesion
▁reduc
▁arth
▁lowered
acin
▁systemic
▁FE
ithromycin
▁tuberc
▁prostatic
▁nonpregnant
▁Angiotensin
▁exclusion
inum
▁soluble
uretic
▁androgen
▁prolonged
▁hyperactivity
▁grading
rected
▁hypothyroid
▁hygiene
▁adip
▁carbohydrate
aryn
▁vaccin
xia
▁diagnosing
ichia
andard
▁hemorrh
▁reviewed
epithelial
erad
▁inhal
▁systematic
▁ulcers
▁palp
▁bac
▁HA
ults
rox
galy
atally
iol
luded
opausal
▁repor
▁jaund
▁encephalopathy
▁consis
ilin
▁metabolic
▁cranial
▁unex
▁venous
econd
aturia
▁ranged
▁substantially
▁intrap
▁gradi
degree
urgery
itonin
mg
▁sut
kelihood
urgical
▁hypertension
▁rhabdomy
▁Prospective
uresis
▁endoscopic
tile
▁scientif
▁nec
amel
▁gastro
mental
cys
▁implying
omethacin
otre
▁recr
▁stu
yridine
▁FEV
▁phenotype
inamide
Ps
olysis
uric
odiaz
positive
▁intraepithelial
olones
