55
▁forearm
▁occlusion
ondr
▁HI
▁doctors
▁enrolled
▁fracture
.2%
▁inhalation
transformed
▁Cells
SAP
▁600
▁immobilized
▁lungs
ticular
▁drinking
▁vasodilator
▁depress
lectomy
▁rotated
▁Animals
▁subtype
▁proximal
ochem
▁numb
▁mucosa
▁pathologic
▁cocaine
▁unre
▁manu
agal
▁uniformity
▁pharmacological
2(+)-
orotic
▁140
onium
▁dentists
▁residues
▁atmosp
iciencies
▁potent
▁pathological
▁caud
trodotoxin
▁cohorts
29
▁tracer
▁larvae
▁referral
▁behavioral
▁identifying
▁mutation
▁3.3
▁striated
▁estradiol
▁implantation
lastoma
▁refractory
▁nal
▁lesser
▁stillbirth
roma
▁inactive
tidine
▁oligos
valent
▁chloride
▁SCH
▁saturation
▁dissec
▁overd
▁superoxide
▁screened
crimin
ynthe
▁aneurys
▁gon
▁Biol
▁dox
▁remin
anish
▁reflects
▁organelles
▁preoperative
▁nosocomial
trac
robic
▁5
▁monitored
▁(22
▁spermat
tenance
▁verteb
▁urea
ayers
+,
▁poorer
▁immunofluores
▁quantitatively
▁Denmark
▁gonadotropin
oes
▁0.
aryotic
▁prolactin
▁gout
▁envelop
▁chamb
▁Nine
▁graded
▁mothers
▁canine
olectomy
▁immunoprecipit
tec
▁chick
hest
atrial
itoneum
▁presumed
ocele
olum
gic
opa
unts
▁oste
▁dimethyl
▁blocker
▁surfactant
▁Recurrence
olysis
▁interferon
▁athletes
▁3.4
vating
▁nucleus
▁decisive
▁fractions
▁centr
▁alleles
▁10(-4)
ellum
oblasts
▁retrospective
▁spectra
HCO
pendent
7%)
▁Greater
ysm
▁prognosis
patient
▁40%,
EA
osine
▁68
ropathy
▁intrag
plies
▁aeruginosa
omiting
tific
▁paralle
▁sial
arly
tant
▁tymp
▁reposition
operoxidase
stranded
▁granulocytes
▁thromboemb
orts
▁groin
tryptamine
ressive
(2+)-
▁desm
▁antagonized
▁CCK
bic
ylate
▁Recent
▁projections
▁agon
▁hydroxyl
▁drin
▁55
▁phenotypic
tage
RH
tures
▁0.05)
▁Incubation
▁thal
▁Accordingly
▁Exposure
ubtedly
reast
▁VO
ovirus
▁autoimmune
▁thymus
▁utilizing
▁tubercul
▁commerc
▁Sixty
▁pulse
tility
lytic
▁0.0001).
▁vancomycin
bearing
▁198
▁inhibits
▁colonies
deficient
▁85
▁Chest
plas
effectiveness
ilization
▁colonic
▁1-2
▁accel
▁backs
discharge
urons
toli
▁immunodef
▁classified
gluc
alact
▁12-
▁linearly
▁prevention
cessive
▁reac
diagnosed
▁androgen
ustif
▁triti
▁explored
▁cervical
▁salivary
▁pyro
▁12%
▁OA
AO
HN
▁inh
▁conservatively
▁synov
+]
muc
aminated
▁overl
▁intramuscular
▁analysed
▁Stroke
olytic
diabe
▁predomin
sively
▁nm
▁adenylate
▁glucose
▁strains
inactivation
▁subjec
▁rhythm
ometr
66
▁analges
▁warranted
mend
selective
▁catheterization
▁utilized
▁accumulate
ture
▁Dopamine
▁restenosis
▁chromosome
▁yiel
▁aggregation
▁preferential
iated
▁airways
▁encoun
▁intraperitoneal
ecal
▁sickness
▁kinases
omethacin
▁previ
.2
▁respec
▁VLDL
▁harmful
▁therapist
urethral
▁secretory
▁pharmacokine
▁ALT
▁addi
asal
▁contribut
▁thrombo
tality
Rs
▁polymorph
▁Lym
toph
▁chromatin
▁ewes
▁meaningful
▁16
itively
▁diminished
▁4.8
▁hypotension
▁junction
thmias
rocal
hap
▁biopsies
▁neurob
▁20%
▁rehabilitation
▁manufacturers
▁wee
▁stren
▁microscopy
▁fibroblasts
90
tium
▁glucocortic
▁syndrome
obase
omes
▁cholest
▁sten
▁biosynthe
▁peroxidase
thym
isqu
▁accumulation
semb
▁surgeon
▁episodic
erad
▁causative
▁radioactivity
tran
81
▁53
ustained
▁developmental
▁calcified
▁cholec
▁vagin
▁FSH
sis
onary
▁shif
trate
sy
▁immunohist
▁CRP
▁routinely
▁35
divid
▁Phosph
▁ganglia
▁antagonist
▁tRNA
lys
arate
▁4)
▁10(
▁insurance
▁tau
▁asthma
▁FS
trimental
pir
▁stimulated
▁thromboxane
▁motoneurons
▁analogs
▁Bone
▁MRC
▁0.001).
▁unin
ervative
fected
▁duplic
▁suppression
vae
▁atypical
▁oligonucle
teroid
▁HL
▁causal
▁GABA
PAP
▁invasive
▁cadaver
▁affecting
▁uncovered
▁fetuses
▁10(-8)
▁physi
▁sensitivity
TN
yrox
▁procedural
▁5.6
▁(14
opathic
▁PCR
deoxy
▁accessory
▁attemp
▁lymphadenectomy
otropic
▁evac
▁edema
▁acetylcholine
▁indicators
▁LD
▁corticosterone
▁suspicion
entan
▁screw
▁inducer
ceptibility
▁sediment
▁glands
▁pretreated
▁tracheal
▁accurately
▁32
▁examin
▁smokers
FU
▁activating
oate
▁empirically
▁contamin
▁Tests
zymes
▁lact
▁suture
▁cortex
▁collagenase
▁congen
uin
4-
▁ect
▁evoked
▁annulus
▁physically
▁susceptible
ocomp
▁exo
▁asymme
▁CHO
▁alcohol
estive
brom
ocon
▁conclusions
▁hypog
▁surveys
▁40%
▁WK
▁implications
▁angina
▁functionally
▁syngeneic
tophan
atheter
▁pharmacy
EGF
▁tissue
virus
▁symptoms
▁6.2
BG
▁lethal
▁aspec
▁nurse
▁severity
▁autoanti
limb
▁insufficiency
ochlear
▁theore
▁aerob
monella
▁carcin
atible
▁seropositivity
▁genes
▁diagnostic
gth
rozen
alp
▁PF
roin
▁tubule
▁decades
EAE
▁receptive
▁monkey
▁gonad
rehen
,000
▁cytotoxicity
▁unilateral
5.
▁digestion
erper
▁bonds
physe
▁paradigm
▁PHA
▁100%
▁spon
▁glutamine
▁progressive
▁alveolar
reatine
ositi
lusion
▁perone
▁organisms
▁rupture
lasting
lep
▁lectin
▁parie
▁ward
▁epid
▁satis
trin
▁needle
▁indeterminate
▁inhibit
icine
▁RBC
▁consensus
▁adenosine
▁elastase
▁cG
▁sulfate
▁volumetric
▁AI
adrenergic
▁ineffective
▁pene
idin
selec
▁neonatal
▁adhesion
epine
▁intestinal
Ins
▁epidural
▁BA
duc
▁[125
veolar
terol
-9
▁psychotic
fed
▁solubilized
-8
▁chest
apamil
▁brainstem
▁mutagenesis
▁overweight
▁adrenergic
ivation
▁pathology
onuclease
▁81
▁isch
icidal
ucle
▁stom
sized
embrane
▁restorative
▁20,
▁selen
▁valve
▁initiating
▁epsilon
esthetized
▁insertion
▁molecule
▁seb
carbon
partate
mobil
▁DN
▁exposure
▁phosphatid
▁AGE
▁colonoscopy
▁Dop
▁92
piratory
imental
otomy
▁deficiencies
gthen
▁+/-
wk
▁hyperther
alsy
TK
▁cutaneous
ohyd
ituitary
▁deple
imens
▁thir
onit
▁lumb
▁standardized
▁RF
riched
▁slic
aminob
▁differs
hicle
▁receptor
▁repetitive
▁unco
▁chemotactic
▁IgA
▁instr
▁acetate
▁atrium
▁unexplained
iotensin
▁chor
DH
▁seventh
▁adequate
-1,
sus
▁molar
amous
ometrial
▁paralleled
chlor
atine
glutinin
plasia
loxacin
isture
▁cryp
▁adip
▁reflux
sych
▁utero
▁anticoagulation
clerotic
▁tympan
▁phage
arrhythmic
▁ablation
▁82
▁nutr
▁morphology
▁satur
▁cancell
-1),
Ga
terminal
liters
rates
▁5,
▁pleural
floxacin
▁tibial
▁70%
alas
▁GFR
▁awa
▁AE
▁extracts
atectomy
▁calf
▁ventilatory
urther
moid
▁illus
▁perc
▁saline
▁RB
ithm
vate
reased
atation
▁ischemic
▁antigens
▁selectivity
▁ossification
oxone
▁granul
▁Experiments
▁prol
heric
▁angioplasty
adherent
▁subunit
▁homogeneous
uble
▁characteris
▁investigations
▁reactive
▁supernatants
ranged
onine
ece
ranial
▁endemic
▁donor
tach
▁sut
▁kinetic
athione
▁compe
▁lavage
▁epilep
▁organic
▁oligonucleotide
tif
▁venous
ffs
▁RV
tisone
▁postnatal
ochondral
▁quin
▁(15
▁resorption
▁transplants
▁Experiment
▁apex
3%
▁PKC
▁promo
▁3.2
▁Compared
27
ovascular
30
▁NF
modified
▁(50
▁undergone
rological
iant
▁neph
olec
▁Triton
▁vascular
▁increasingly
NM
ducts
▁multic
▁Hz
▁intense
micro
▁ultrason
ulcer
osyn
▁gangrene
oA
▁transi
▁99
yroxine
▁latent
▁vesicles
▁glycine
▁diaphragm
-80
ulfonyl
▁inositol
▁recur
▁mesenteric
▁hepatic
▁residue
▁suggestive
▁keratinocytes
▁Pt
▁Sout
▁contributes
sul
olipid
▁96
titial
▁radiolab
▁interstitial
▁unaltered
chym
iosis
stress
▁rhe
onography
▁lithotrip
▁compounds
▁glial
chloride
▁pM
tinguish
▁3.0
▁treadmill
7).
testinal
emic
3+
▁Clin
orubicin
omedullary
▁ongoing
▁cAMP
▁menstr
▁fibers
▁anxiety
▁pter
▁venti
amic
▁collagen
▁nerves
treated
▁brains
opic
▁neutroph
▁65
iotics
▁stimuli
pation
▁respiratory
▁TRH
veness
cyt
▁deletions
yel
IU
7-
-0
▁CsA
▁CRF
▁striatum
siological
▁ischaemia
▁phenyl
iciency
▁0.005).
ivocal
▁socio
▁pate
▁progressively
mitted
▁AVP
ograms
avail
▁transcribed
siologic
▁2.9
uric
utyr
▁versa
▁regulating
▁ligation
aspartate
▁substantia
▁100-
ially
▁IGF
▁Kup
▁abilities
ogenous
▁NH
-1
▁micrograms
▁PG
▁gp
▁inability
phosphatase
▁etiology
▁depression
uminal
dimethyl
▁dors
95
▁cerevisiae
thel
tam
▁cysteine
injured
PB
▁pressures
▁HIV
operated
45
bred
▁replic
▁lobe
▁oral
▁motone
▁tes
▁correlations
▁hematopoietic
▁interpersonal
▁wean
ophore
▁currents
▁tertiary
maximal
▁practically
owever
▁ambulatory
▁eluc
▁anticipated
▁raises
▁unchanged
ophren
▁Findings
.1%
imetidine
▁Intra
▁Contr
▁fulf
arean
▁irrit
▁ANF
▁chec
▁saturable
▁5)
▁Fifty
nine
%),
▁fibres
▁metabolic
▁diabetes
ocyt
▁belie
rometry
▁questionnai
▁newborns
ameters
Ly
▁0.01),
▁differentiated
▁undertaken
▁underwent
▁inward
acchar
▁suspicious
▁phospholipid
▁Increas
inemia
pinephrine
▁myof
▁thromb
hern
0.0
▁allogra
▁Effective
2.
rection
-30
▁analogues
▁heal
▁kidneys
▁-0.
▁epidemi
osyl
▁EMS
▁debr
▁agonist
▁pyr
▁IgE
Ra
▁Hg
genes
erance
grees
▁7.
▁recipients
▁88
aminase
osocial
▁cartil
47
▁suicide
▁Steady
4),
quine
▁phi
▁mitochondria
▁diagnose
▁locus
▁hyperthyroid
▁brom
oratory
▁ruptured
▁labeling
▁dysfunction
▁barrier
▁disparate
amily
▁ovulation
▁concanavalin
▁(0.5
▁bolus
▁scin
▁endoscopic
▁flexion
▁mediation
▁complications
anol
phth
▁palsy
ospor
othelial
kines
ylic
▁PAS
ulmonary
ithiasis
▁[3
pharose
employ
▁barriers
40
▁effector
▁transfected
diabetic
▁(0.
▁freshly
hemo
▁pharmacokinetic
▁rati
▁5.5
▁nodules
ellar
BM
▁racial
▁allergen
▁retardation
▁aspiration
estis
▁ascending
amines
edded
▁inoculation
idium
▁plateau
▁69
▁pyl
▁trials
▁tachy
46
HIV
▁coag
▁microm
▁immunized
itally
▁splenic
ensitization
▁elastic
▁spikes
ostasis
▁haemorrhage
▁microv
ifedipine
▁inflammation
▁tuberculosis
atonin
ogeneic
▁relapse
▁cataly
▁MHC
amn
trol
▁FD
atched
▁spontaneous
cholesterol
ileptic
birth
iminary
ncy
aminergic
▁papillary
▁50%
▁trauma
▁satisfactory
▁pT
-9)
▁coronary
resistant
▁antigenic
▁excitation
▁parietal
ardless
▁anat
▁Immun
▁immunos
▁pathway
urally
ampl
wenty
▁elicit
▁IGFBP
▁obese
▁phosphorylated
econd
yridine
▁anastomotic
leucine
▁73
etan
▁cryst
▁similarities
▁unaware
ococcal
▁ageing
▁ae
phragm
▁5'
▁resear
admium
coh
▁hern
openia
▁resistant
▁granule
essment
tingu
▁enhancing
▁mamm
▁speculated
▁outflow
1-2
▁bloc
▁vomiting
▁responders
undibular
operidol
▁phosphorylation
▁(95%
▁precur
▁infiltration
▁Vmax
avage
oradi
▁secretion
5),
▁LOS
tured
roximately
▁nude
▁circadian
▁potency
allikrein
▁evaluations
fec
▁isot
versity
/100
odial
▁fibrob
▁(200
▁ips
▁ancestor
tensin
▁deem
▁facilitated
▁dete
▁hemat
▁constric
-24
▁synthesis
▁histopath
▁GSH
lesion
▁abuse
▁10,
▁Roux
▁tissues
▁postoperative
▁brady
▁Respon
▁5.
▁variability
rophenyl
▁ovariectomized
▁inadequ
▁clinical
oag
▁deposits
▁supine
▁reactivity
-11
ynaptic
▁chronically
▁physiological
▁lipoprotein
▁undes
▁cytotox
▁0.25
-6)
▁uncom
▁MIC
responding
acental
▁hippocamp
▁Pseudomonas
▁galactose
▁DH
3.
tory
▁80%
▁neutrophils
▁PAN
threatening
trast
affected
▁medullary
▁Large
▁engraftment
▁ischem
▁reproduc
vitamin
urc
▁Glu
MRI
RF
▁immunity
tradiol
▁Tes
▁striatal
▁arachidonic
▁specimens
▁keratin
▁deficient
sies
8,
sia
seud
▁eosinophilic
rof
1-3
▁cysts
ipid
17
roso
▁atri
leu
▁endoscop
▁fluoroquin
▁Hear
turally
▁treatments
▁pulmon
▁olig
galact
▁presumably
▁elucidate
▁needles
▁affinity
▁dissemin
-40
▁EBV
▁embryo
▁mum
▁dischar
▁zinc
▁elimination
▁cyto
ATP
▁cochle
▁plates
▁HTLV
▁deemed
▁reviewed
▁0.06
uresis
▁cereb
▁gels
▁necro
▁Twenty
▁elevated
▁bic
3,
eptin
assium
▁intercostal
▁worsened
▁pituitary
taining
▁approx
▁placental
▁pump
▁iatrogenic
▁catalyzed
▁79%
truc
▁bicarbonate
▁myeloid
▁mediators
▁resis
icep
▁ET
▁sensi
▁kcal
▁malign
▁Experim
retro
▁amplification
▁vivo
urys
antigen
▁0.02
roup
▁corrections
onyl
▁76
patients
adrenoceptors
▁substances
omatous
▁cholestasis
▁urinary
gland
helial
▁guinea
▁1.1
▁noncom
▁Ket
thyroid
effec
▁80
▁63
▁catheters
ensitive
▁sore
▁(6
▁financ
ulph
▁displ
▁analyzed
▁biliary
▁suppor
▁breakdown
▁proteolytic
ximide
▁substantially
▁axillary
▁cerebellum
radi
▁chym
▁noc
▁substance
▁hemis
bular
adren
tact
anyl
▁discrimin
▁influenz
▁anatomic
▁patency
2%)
ardia
▁hydrogen
▁GnRH
▁4.
▁capsaicin
▁Mn
tin
▁Operative
▁87
▁reproduction
28
▁mg
idine
▁discom
▁98
▁lacking
▁Acute
▁ventricular
▁achie
▁autoradi
▁adrenaline
▁Patients
▁sensorineural
▁negligible
▁10.
▁efferent
enhanced
otoxic
▁TF
▁aorta
enteric
▁thymidine
▁(10
▁mA
▁anae
▁perip
▁affinities
▁contraction
▁resection
▁cartilage
▁adolescent
▁micros
itr
▁erroneous
▁vulnerable
-10
▁Analy
▁emerg
ACh
eight
ocarcin
▁glycol
▁prevented
tioned
▁ETS
▁effec
▁admission
idney
▁radiolabeled
▁uncomplicated
hered
▁degeneration
rolog
▁aeros
olesterol
▁advancement
▁caro
▁Pregn
▁antegrade
▁retin
ilibr
ophy
whe
▁amyloid
▁unemploy
VL
▁bipolar
▁FH
▁ester
eminal
▁58
▁ovarian
▁excit
▁opi
▁heterogeneous
▁periodon
sive
▁lasting
phosphonate
▁axons
▁conductance
aired
unting
▁upstream
▁pregnancy
▁regulation
responder
neumon
▁25
▁epithelial
▁GH
ventional
▁auditory
astolic
▁synthase
▁IBD
acet
hyp
ipit
20
▁affec
oxia
▁tooth
▁theophylline
▁10(-7)
▁(-)-
▁bladder
thase
3).
▁cDNA
▁exon
▁ure
▁corpus
induced
▁Biochemical
▁algor
Tyr
▁correlated
▁fluc
▁immunosuppres
usate
▁collateral
▁conduc
tate
▁palpation
▁usefulness
▁erythrocy
uvant
▁HCM
▁heroin
ervations
▁vasomotor
▁APC
fine
▁Tn
diagn
▁pathologists
▁myel
independent
▁distal
▁thresholds
▁posi
amphen
▁burden
rosine
▁Intravenous
iciently
esity
▁AVR
▁perox
▁emotional
-4
ereb
tituted
▁BAL
irrh
-8)
▁hypoglycaemia
▁clinician
▁cerv
▁disturbance
▁periodontal
▁mechanisms
onstric
▁cytochrome
▁comprehensive
▁musc
VT
▁Cys
alveolar
ducing
▁expiratory
▁ventral
dominal
mittent
▁disper
▁conditioning
rested
▁MT
APC
modulin
▁intermediates
▁molec
receptor
lec
▁implant
▁30
▁carbohyd
▁polymer
KD
▁incidence
flamm
▁20-
▁coeliac
79
identical
▁extracellular
2+]
▁concentrated
▁elast
▁eyel
▁precursors
phosphamide
oleic
ceptual
rease
▁testes
▁plasmid
▁intestine
▁[35
▁Phe
ACS
hydroxyp
Leu
▁thickness
▁unevent
▁questionnaire
▁olfactory
sectional
▁encouraged
▁41
▁sciatic
tric
▁8-
▁ventil
phosphor
▁connective
eradish
entary
▁osmotic
▁hospitalized
▁substitu
▁detergent
hydrop
▁fructose
terase
adenosine
ipramine
▁cardiovascular
sities
▁Thirty
▁adherent
▁histopathology
▁electrodes
▁residual
▁opportunities
minis
▁musculoskeletal
▁Paget
▁consis
phos
▁nurses
▁silicone
▁discrimination
▁adults
▁10(5)
▁leukotriene
▁perme
▁objec
▁dendri
▁plaques
▁respondents
▁amput
rophob
▁resonance
▁surgery
▁potentials
▁withdrawal
▁traumatic
▁Removal
himb
▁stellate
▁1/
▁precursor
tomy
rocytes
rowth
▁nifedipine
▁0.0
ophylline
▁isolate
abies
ficial
▁microscopic
▁adjunct
▁competi
▁diges
▁reas
▁HCO
▁depletion
kD
▁diabetics
▁adduc
▁linkage
▁bip
Ki
▁amylase
▁motility
facial
▁conclu
traction
MDA
▁cruc
▁expenditures
▁TPA
tral
minal
▁meals
▁utilisation
meth
thymidine
▁phospholip
▁reactivation
oventricular
▁gradi
electro
ensory
uated
▁chains
heres
herence
▁LVH
▁healthy
▁contralateral
▁loosening
▁4,
▁93
▁nicotine
▁organs
dotoxin
lastic
-13
▁docum
uclear
▁depleted
oracic
rhy
▁GMP
▁agar
▁mortality
▁OSA
▁macropha
ylcholine
ifed
exposed
▁lobectomy
▁substrate
▁clinicians
▁hamsters
▁deterior
▁colloid
inflammatory
▁unid
▁cyclase
4+
▁reflecting
BK
▁preparation
ymptom
nucle
ensi
▁socioeconomic
erals
▁hernia
▁interp
ocardial
stro
lobin
ufficient
▁tumour
acts
▁sham
▁stratification
▁surrogate
2;
olenic
▁Inhibition
trypsin
bloc
▁assessments
▁neoplas
nutrition
linking
yro
▁toxicity
▁vein
▁directional
tetr
▁72
oplastic
▁radicals
▁35%
▁infusions
▁retinal
▁protoc
ydig
▁myosin
▁confron
hort
▁specialty
▁phosphatase
▁43
otassium
brain
▁malignant
▁.00
ervical
queous
▁inflammatory
▁(1
nai
▁adhe
▁identi
▁tumor
▁puls
▁infar
▁nitrogen
▁rele
etitive
CoA
▁lax
▁LC
▁torsion
ogra
▁compressed
rever
sial
▁enzymes
ositol
ogenicity
fos
ymme
anded
▁prostatectomy
▁epidemic
▁conserved
ections
▁5.0
▁13-
▁progest
▁CNS
▁unselected
ocytes
▁sampl
▁esophag
▁myelin
▁37
▁radiological
azol
▁ubiqu
▁fever
▁(3)
▁polyethylene
▁murine
▁gynec
▁electr
▁degrad
▁150
-14
▁59
▁BW
000.
▁acetyl
diol
▁oes
▁quantitative
▁crystal
▁CBF
▁(4
▁mening
acement
▁microtubules
▁methionine
▁60
▁(19
oscop
▁visc
▁eryth
▁gradients
▁mug
▁hydroxy
▁30,
toid
▁morbidity
▁epithelium
▁progres
▁construc
hetamine
ognition
▁intramedullary
nowled
▁protocols
▁steroid
▁immature
▁specificity
▁investigated
stim
phasic
pite
▁Measure
lox
tabl
molecular
-1).
▁childhood
atients
rotein
▁Increased
▁intracranial
-3-
▁(0
▁2.5
ifol
▁bacterial
2),
▁immigrants
▁cere
▁ultrasound
▁everyday
▁erythrocytes
▁glu
▁termination
▁discusses
▁transported
▁activate
▁neuron
▁magnesium
esic
▁muta
▁problematic
oblastic
▁rostral
▁adenocarcinoma
▁19
9%)
▁lis
▁distinguishing
▁EDTA
▁chemicals
throm
▁symme
ronch
44
genic
helium
▁altered
oglobulin
25
bladder
▁Mucosal
clusive
hemical
▁0.2
▁washed
▁participate
▁5'-
gative
inol
▁sequencing
▁axon
blind
▁myocytes
orpor
▁interventions
▁progression
atient
▁excre
▁discern
ineal
▁197
▁conduction
▁blockade
▁carb
ffec
PV
▁physiology
▁conditioned
▁horseradish
▁renin
LU
▁positively
siveness
▁pmol
ught
graft
▁halothane
▁alkal
▁pig
▁inhib
▁irreversible
▁antiser
▁RM
▁acceptor
▁chond
thyl
etus
PSP
▁SDS
▁steroids
▁recombin
▁2-3
ials
▁(4)
▁Chemical
▁muscles
▁prognostic
ilateral
▁impairment
immunization
uran
▁implantable
▁virul
▁immun
4)
iferative
trop
-(1
▁paired
▁bronchial
▁1.5
▁sinus
▁cerevis
▁bronchi
▁ovari
▁carbohydrates
▁thalamus
▁overestimated
▁follic
otent
▁activated
entif
ocyan
▁frozen
▁FEV
oderm
luc
▁endoc
▁laparotomy
▁psychosocial
rous
▁frontal
▁6.5
trient
sors
ceptions
▁EGF
▁symptom
rated
▁peptic
RP
ostat
▁appropriately
▁1986
urin
ylephrine
▁decreas
23187
▁endothelium
▁TNF
▁TT
unctional
phosphate
▁PMN
amethasone
titution
▁predominantly
containing
crib
ffinities
▁thrombosis
tions
-4)
rae
▁MBC
gene
▁unil
orrh
ostomy
ritis
▁BALB
oluble
▁cuff
▁susceptibility
▁epidermis
▁mesen
▁modulate
orax
▁100
formations
▁deletion
▁instability
▁tear
▁nucleotide
▁membran
▁Educ
▁normalized
▁ultra
▁pharmacists
▁postsynaptic
▁Drosophila
▁80-
▁chlor
▁withdrawn
▁microsomal
▁metastatic
▁tubulin
ectable
▁broader
▁muscarinic
▁anesthe
▁0,
▁tomography
azole
▁inoculated
omyel
▁polypeptides
astric
10
▁mim
▁GTP
.0
gm
osidase
natal
geal
ffinity
38
▁lamina
▁restoration
▁luminal
▁tracing
olol
▁HBV
▁decarbox
▁sigma
▁immunological
oxy
pregn
erts
▁HA
▁allergic
▁modestly
▁neurological
otone
monstr
▁phospho
ofol
▁intrauterine
▁antic
rants
▁calcification
opha
▁acin
▁negl
▁epidermal
▁aqueous
▁chemo
joy
▁involvement
▁MEP
growth
▁titers
▁Routine
▁BMI
▁detecting
▁microc
terone
risk
atid
▁cytometry
▁PAF
▁phosphatidyl
utyryl
▁IVF
▁pathways
▁exerted
▁attendance
ayed
▁selec
atical
legia
overall
iol
aning
▁infected
5%)
▁lens
▁parotid
▁conclusive
▁optimum
▁mutant
aventricular
▁quantit
▁transmitter
▁biochemistry
▁2.7
▁hydroxylase
▁prenatal
▁influences
▁unprotected
▁decisions
CBF
▁linkages
▁negatively
▁AII
▁disruption
▁rated
▁cation
▁ionophore
ipient
▁uncommon
▁adjustment
▁indus
ourable
▁1.6%
▁1.4
▁2-
▁paraventricular
acrine
▁experi
▁beverages
partum
▁advised
▁preparations
tinu
iferol
▁utilization
-19
▁supernat
imide
▁cyt
▁EG
orable
▁isoforms
terologous
▁intravenous
fts
▁endothelin
oprol
▁heparinized
▁202
▁hepatocellular
▁demands
▁amplified
▁stab
▁insec
RIF
▁preventive
odies
entral
tase
▁2.4
▁sedation
▁elong
lobulin
▁releasing
2)
▁spike
▁continence
angi
▁crystall
alate
▁attitu
▁physiologic
▁PGE
▁3.8
▁Randomized
▁helix
hyd
3-
FN
▁surgeons
▁morphological
▁HPLC
▁predis
▁strain
onomic
Gal
▁reversible
▁abl
▁atm
▁therapy
5,
▁immunoprec
▁fibrosis
ollicular
▁adop
▁enl
osity
▁deserves
ecyl
evoked
were
▁isoform
acin
dition
▁RP
valence
▁depar
▁arrhy
▁fist
▁Effec
▁repl
▁decreased
▁inters
▁homogenates
▁extensor
mTc
▁carbachol
median
▁indicative
▁volunteers
▁CSF
▁prono
.9%
▁densities
▁advisable
▁ulcer
▁uremia
▁resec
UV
▁genotype
▁Sprague
tially
omal
▁presenting
▁shifts
▁endos
▁messen
▁glutamate
chers
▁Comparison
▁thymic
▁thromboembolic
▁alteration
omies
▁twitch
▁HCC
adiol
oreactive
tivation
▁congenitally
▁guan
guided
mixed
▁schiz
oretic
olism
ropriate
▁Cushing
▁galact
▁migraine
▁deduced
dimer
▁deformity
▁wash
▁ESR
▁vagal
▁reduc
▁targe
chond
▁birthweight
abin
aemia
▁90%
▁artic
▁soybean
▁gallstones
osides
inesterase
▁leukocytes
▁misleading
▁mU
▁ACE
HG
▁iso
▁ANP
onance
LH
ygen
▁transiently
▁pharmac
▁aging
▁MCP
▁promoting
▁74
▁turnover
▁metabolites
▁Chronic
▁latency
▁1.7
▁nicot
▁comparable
▁occurring
increased
▁naloxone
idis
▁UTI
▁hematocrit
▁Delayed
tained
portun
kinson
ositive
▁phospholipase
▁zym
elvic
▁intra
▁sustain
heal
▁ana
▁struc
▁prospectively
▁septal
▁HDL
copic
▁monke
▁thickening
▁prednisone
VH
anic
enin
5,000
▁myocardial
97
▁Calc
▁undergo
▁acetabular
▁injections
▁superficial
]-
▁46
▁0.01
▁illness
▁(40
▁AMI
▁influx
▁GER
▁actin
▁glomerular
▁allele
ochrome
▁coronal
▁carboxy
▁PCT
▁viral
▁analyses
achol
▁laparo
itro
▁telephone
▁IFN
▁indis
▁THA
orepinephrine
▁aberr
enzyme
▁Fc
▁individualized
▁SNP
▁syndromes
▁focal
▁scanning
▁retrograde
▁creatinine
▁acces
▁IIb
▁synthetic
▁pigment
educ
thi
jejun
▁isometric
7.
▁innervation
▁hypo
ohy
cein
13
▁pregnancies
▁gallbladder
achid
dents
ucine
▁erythrocyte
▁implicated
▁phosphodies
▁regeneration
▁blast
▁interfere
echanical
1%
Fs
▁surgical
▁Cyt
▁hemodynamics
5).
weighted
▁Surgical
▁conservative
▁verapamil
acclim
ectom
oxygenase
fluoro
conjug
encl
▁oestradiol
gulation
▁RNase
ighted
eptidase
sions
itals
sequent
ditional
▁reproducibility
erating
HB
luores
▁irradi
▁septum
▁spati
ogenic
tiazem
3),
▁saliv
arose
▁4.6
1)
▁diagnosed
utaneous
ulum
2/
▁1987
trogen
ompan
▁adolescents
▁preferably
▁differentiation
▁cholecystectomy
ocompatibility
▁divalent
▁overdose
▁carcinoma
Glu
▁pups
drome
▁kinase
▁prophylactic
ograp
opl
▁heterogene
▁eosinophil
orin
▁retur
+/
graphy
plantation
▁polymerase
.2%)
ranolol
▁lymphoid
▁disagreement
▁enti
85
▁postin
▁depressive
▁waist
▁biochemical
▁prazosin
tle
▁osteoporosis
▁successive
▁suscepti
▁implic
ocarcinoma
IgG
▁ventricle
▁DST
elong
▁Tran
▁activator
▁overlaps
▁fibrinogen
(5
▁diabetic
▁4
▁atten
▁adhere
▁adequately
▁thiol
▁DP
▁.0
▁abundance
plastic
▁kerat
▁surviving
▁0.8
▁discharge
▁cytotoxic
gmental
tructive
▁unres
▁rationale
▁confound
▁22
▁cardiac
▁sensory
▁progestin
▁NT
tensive
▁30%
▁inspection
essation
▁reticul
edle
producing
▁multivariate
▁behavi
8.
▁placebo
tagland
▁palp
▁relevance
taken
▁1988
▁hCG
▁laparoscopy
▁Americ
chemical
reactivity
▁42
▁adenocarcin
▁LS
▁23
▁spermatozoa
▁reagents
▁substrates
LDL
▁vibr
▁metastases
olus
▁challenges
▁calcium
hydroxylase
▁follicular
▁Prospective
▁TCR
▁morphologic
▁Blockade
orec
▁thrombolysis
▁(13
▁poorly
▁contributory
▁supra
▁COS
▁describ
herent
▁cytos
▁endarterectomy
▁fold
▁amines
keto
mur
▁Radi
▁15,
6%
WL
dered
▁31-
ureus
▁monocytes
ritish
retion
phot
▁postmenopausal
▁intermedi
▁PI
▁births
▁disks
▁femoral
▁Plas
▁epit
▁sph
hydryl
▁deprivation
-20
elves
▁TAA
▁outpatient
▁deficit
erop
▁renal
▁toxin
▁foci
kinin
▁dimer
▁transfusion
▁exercised
rosophila
▁DS
▁DL
phyl
▁pathologically
adily
▁Samples
trated
▁standardi
ocaine
▁hypoxic
▁prospective
▁amo
▁PTH
▁transplanted
▁3.9
▁consequent
▁mediated
▁eliciting
▁Evid
adequ
versely
prising
▁inhibitor
erebral
ensitivity
▁atropine
▁6)
▁definitive
▁medial
▁duodenal
▁prostatic
▁incubated
▁discre
39
▁hep
mega
Phe
▁bile
▁practitioners
▁neuro
▁gly
▁pigs
▁regen
▁contractile
▁ASA
100
▁Inte
▁CPAP
▁hemodialysis
▁20.
.5%
roprus
lateral
▁phe
NK
▁monolayers
ologists
ascular
loon
▁evacuation
▁infection
▁implants
▁proportions
▁adrenal
▁allevi
▁dopaminergic
totic
▁cows
iotic
opia
▁membranes
▁cesarean
▁SGA
▁hippocampal
rosemide
49
▁intrinsic
lysis
▁sulph
pS
▁excised
▁pathogen
osynthe
▁nulliparous
▁tyrosine
▁pneumonia
trial
inositol
▁hepatocytes
astatic
▁KCl
▁menopausal
▁0.000
▁UT
▁encourage
▁idi
▁-3
▁nigra
▁pyram
▁conjugated
▁tolerated
▁autop
▁consol
trous
otypic
▁indirectly
carbox
HDL
▁antagon
udin
▁exchan
▁discon
▁0-1
▁incubation
▁proteinase
hypertensive
ologically
▁tympanic
▁correcting
▁antagonists
▁MAP
▁Patient
gents
respon
lapping
▁56
▁glucagon
derived
▁inoc
gans
▁synovial
▁homology
▁pneum
▁plaque
▁recr
sue
tition
▁tetr
▁tol
urement
eptides
plete
▁staging
▁fluids
▁proliferative
arcin
▁myo
▁secreted
urse
centr
rotid
▁infectious
▁parathyroid
▁inversely
Mg
zard
▁histamine
▁pleomorphic
▁49
▁vacu
▁1
▁alterations
directed
▁transforming
▁3.5
IIIa
▁Whereas
0%,
vated
responsive
gesia
▁Alternative
ANP
ureth
▁21-
ADP
▁EA
24
adder
▁choline
▁lactate
Tc
▁complemented
▁CMV
▁synapses
erus
ceived
illation
▁messenger
▁subf
▁surveillance
ercise
▁efficacy
▁hypertrophy
▁naltrexone
▁testosterone
▁granulocyte
▁excessive
ondral
7%
▁apparatus
▁Doppler
▁PD
▁LPS
ubation
▁ipsilateral
dibular
▁amyl
▁forskolin
▁practiced
▁lowering
▁cadmium
▁AGA
ococci
methionine
▁potentiation
▁pelvis
▁strepto
▁designing
▁avascular
arent
▁detectable
▁97
▁complication
seal
▁degraded
phthal
▁molecular
▁eating
SPECT
erin
▁hygiene
odic
activating
▁allerg
orbent
▁clonal
▁polypeptide
placement
▁chori
▁antibody
▁umb
▁basolateral
▁regurgitation
amicin
▁TA
▁Escherichia
▁2.6
▁50
▁schizophren
▁somatic
▁conges
erine
ipr
▁muc
ographs
32
tyl
▁reconstruction
▁subcutaneous
▁corticos
injected
▁14
receptors
▁NMDA
icients
▁Subjects
assi
▁pancreatitis
▁tow
▁merit
▁Dil
▁endothelial
ylated
▁adhesive
ofluores
romes
▁19%
▁500
▁subcl
iferation
▁velocities
▁horiz
▁contaminated
▁labeled
rague
▁gastrin
noise
viral
lact
itone
oprec
accharide
▁phenylephrine
▁gad
arb
fused
▁diffuse
mol
▁antec
▁24
ifugation
▁plantar
▁familial
▁endometrial
▁peripher
hers
▁remission
aneously
▁guanosine
▁Adverse
CDD
okine
▁therapies
▁10(-6)
aldehyde
▁validated
restingly
▁conceptual
▁microsp
▁tolerance
HM
▁4-
▁2)
86
TPA
▁HS
▁frog
regn
▁promising
▁spectroscop
▁eliminated
▁rotational
▁microbiological
▁inges
▁Subjec
tering
-17
▁dendrites
▁strom
▁statistically
▁prophyl
36
▁organism
▁gynecological
stem
▁gangli
▁reveal
▁compound
▁decreases
▁infusion
▁abnormal
opolysaccharide
▁Severe
▁Streptococcus
▁genic
▁acids
▁exclusion
athe
▁phorbol
.8%
hydr
▁nons
▁recordings
otyp
invasive
▁leukemia
6-
verages
▁lithotripsy
▁1%
deple
-3)
cine
▁cue
▁Vac
▁tube
▁(198
▁vag
▁pneumon
fusion
12
esium
formin
▁rectal
▁indications
alian
trover
▁interleukin
▁ELISA
lore
eptide
Ev
▁propensity
rectal
▁amin
secre
Nase
3)
▁inhibitory
▁cirrh
▁anticoag
pyr
erent
▁infused
▁subpopulations
▁1.3
▁catecholamines
8).
amide
asting
.8
▁(54
▁reagent
▁bilayer
▁oxid
▁aldosterone
enicillin
▁supernatant
▁conjugate
ecre
▁hams
altered
▁hypothyroid
▁phy
▁immunocyt
▁squamous
▁insult
bility
phosphorylation
myc
▁heavier
▁analgesia
▁reflec
glumine
▁aggregates
▁specimen
▁iodine
yroid
▁ionic
unar
▁reser
orac
ifferentiated
tectable
▁Staphylococcus
uctose
urium
8%
ergic
▁laparoscopic
▁fentanyl
oride
▁electrical
▁fron
▁Initi
coated
mL
ocked
opres
▁(17
▁improves
▁retard
cephal
▁attrib
cysteine
leukin
▁transverse
▁epitopes
GF
taz
phosph
▁extrac
▁heterologous
hepatic
▁averaged
enh
irubin
▁acad
▁discontinu
▁temporarily
glutin
▁refrac
▁kDa
▁2.3
▁technically
▁rigor
▁stimulus
▁dialysis
▁ery
rologic
▁sperm
▁intermittent
otype
▁Wistar
tracellular
odal
▁acyclovir
ometh
▁slowed
▁dendritic
▁pools
▁localized
▁immune
posure
▁silic
▁radiography
▁sple
▁cytoplasm
esting
▁WHO
▁examined
▁smoking
▁improving
▁proteins
▁circumference
labelled
▁metabolite
▁cerebral
▁vitro
▁HR
endri
.5
▁evid
▁filtration
▁airway
▁synthe
▁TD
LB
▁providers
▁canc
▁palli
planted
olestero
ctive
▁dyn
▁malaria
dial
Dawley
▁reproductive
▁lymphomas
▁dosage
▁poin
teine
▁endotoxin
▁cats
▁cirrhotic
▁hippocampus
▁junctions
topril
▁drain
▁alcoh
▁amputation
▁sensitized
▁cathe
▁RI
▁subsp
▁binds
▁failures
▁thyroid
▁sequelae
iliac
▁ileum
▁cancellous
▁mature
▁sebaceous
▁lysine
▁lipoproteins
▁appendic
ectomy
▁concom
▁augmented
ancies
▁26
▁jejun
▁cations
rine
tors
.4%
▁ket
▁hind
geneic
adm
▁PRP
jected
habil
▁acupuncture
▁circumferential
iatic
▁nig
-5-
sor
▁Addition
▁preceded
▁surrog
▁54
▁nonadherent
4%
coun
▁delivering
▁lutein
▁bronch
▁0.4
▁streptococcal
uron
▁depressed
▁probe
▁degen
▁Eight
tivities
▁abundant
▁predominant
▁Histologic
18
▁obesity
▁constr
▁cancers
▁250
▁dietary
omical
▁protease
-5)
▁titer
60
estern
rele
gain
▁donors
6%)
▁cessation
▁autoradiography
▁amyloidosis
anserin
▁disorders
▁forebrain
31
▁PET
▁regar
ylase
▁suspected
flux
tus
2%
▁granular
immune
▁acqui
▁insulin
operatively
▁overlapping
▁4.1
▁tachycardia
▁3.
▁cigarette
▁7.2
▁(11
▁traum
▁afferents
▁labelled
▁endometr
jec
xiety
▁inspiratory
ocytic
▁calcitonin
▁radiol
clinical
▁nucleotides
▁sev
▁exce
▁36
isomer
consuming
ostal
▁suppres
▁covalent
idespread
▁hemisphere
.3
cyst
enzymatic
▁PP
urane
▁peaks
▁respiration
▁radiograph
▁scl
▁supplement
▁adenomas
▁multicenter
rone
▁monos
▁DG
▁professionals
▁PGI
▁atheros
▁adduct
faction
▁survivors
anding
▁monolayer
▁decline
▁Twelve
ensit
▁preclude
▁pertussis
▁exons
▁underst
▁ultras
▁lamin
▁neurom
▁elevation
rins
▁errone
35
▁risks
▁ATPase
▁rRNA
▁comparative
▁intraoperative
000
▁hospitalization
▁pelvic
▁biologically
▁Cytoplasmic
▁electroph
▁grading
▁reliably
▁atrophy
▁secrete
▁depolarizing
▁protective
april
▁fibrin
osterone
-16
▁ethyl
▁vaginal
▁1.
atase
▁elic
oside
▁continuing
▁CM
▁confined
namic
▁frac
▁0.02).
▁efflux
glutination
▁minimally
▁PMA
iological
▁vaccination
actin
pT
mentation
▁PEEP
▁HPV
▁exis
osal
▁prostagland
▁enhances
stolic
▁disulf
▁hazard
▁Preoperative
CGP
ameth
▁subjective
trates
▁influenza
cyclic
oric
generation
▁splic
lycemic
▁homogene
umerous
▁impair
▁untreated
▁unex
▁Rats
▁lipid
siology
urred
▁leukocyte
▁packing
▁exhibiting
▁homoz
▁chel
▁treating
vian
genesis
▁cyst
▁GVHD
▁radioactive
▁cef
▁qualit
glut
▁forsk
entists
ejun
lected
11
▁prostate
tened
▁9,
aminidase
tococcus
/10
ocial
functional
▁lidocaine
▁oils
▁TBI
▁bab
▁favorable
ocin
▁diastolic
roxim
▁proteolysis
▁clipping
odil
▁Evidence
▁ascertain
▁erythropo
▁patellar
overed
▁fluoride
▁ey
▁reag
▁challenged
otin
▁preconditioning
▁9
ognitive
genital
▁glut
▁injec
▁Eff
▁normotensive
onor
nthe
▁seizures
▁induc
embran
tect
▁osteoporotic
▁mobilization
phosphon
uvate
▁25-
▁diagnos
uation
▁elec
▁RS
▁neuronal
iper
-6
▁78
psin
▁enucleation
▁extraction
▁epileptic
asive
▁ventric
▁Insulin
epam
▁parame
ilic
▁DSM
▁postoperatively
▁Overall
osts
NH
tics
▁Sertoli
sts
▁67
▁adap
▁discriminative
rolase
▁morphologically
▁Systolic
▁ganglion
▁heme
▁stenosis
▁considerably
▁supplemented
▁Salmonella
▁tox
▁adducts
▁anesthesia
▁bundles
▁bleeding
▁differentiate
▁extensively
otides
▁practition
accharides
ostic
▁39
▁interference
▁compli
tig
▁intervertebral
inic
▁eluted
▁structural
▁mitochondr
▁gestational
▁abnormality
▁incorporation
▁intercellular
luent
▁diabe
▁6.
▁clonidine
▁cigarettes
▁undoubtedly
▁anastom
-18
▁mice
▁haem
▁disability
▁translocation
▁aggres
▁7
▁indi
▁predicting
▁arteries
▁omega
ximum
▁enteral
▁substituted
▁0.6
▁PT
tocin
ithine
▁mitochondrial
▁gland
▁hyperp
▁neutrophil
▁hemodynamic
▁weekly
53
▁amn
▁guidelines
BP
astom
▁hormones
henyl
arental
itamin
▁nursing
▁achievement
▁interrup
▁nuclei
▁synap
usp
ylline
:1
▁IHD
▁exposures
resses
▁oocytes
▁glycaemic
▁HB
sAg
▁Protein
▁acidic
▁splen
▁tubules
trexone
opathological
▁adjuvant
orative
▁unsuccessful
kers
ystolic
▁Muc
▁cephal
▁Clinical
▁depended
▁subun
▁shor
▁1:
kage
▁electroly
6).
mg
plemented
▁ECG
ertion
▁rabbits
▁denervation
years
otherapy
▁differing
neal
▁Medicaid
▁paren
▁examination
▁audit
▁kD
ulatory
▁outs
▁hypertensive
▁rIL
▁uterine
▁enamel
▁athle
▁kappa
▁determinant
.4
▁monit
▁antib
▁oxidation
occus
▁(30
▁subjected
mediately
8)
iable
▁recombination
FV
sess
▁rheumatoid
▁microsomes
aline
▁bilateral
125
▁irrespective
▁exceeded
rosis
▁fibrillation
▁8%
▁cultured
▁irr
▁expressing
▁epitope
▁adipose
chicine
ffer
otoxicity
▁Additional
▁coagulation
trical
▁meth
▁mucin
▁3.6
▁graft
orphic
▁tachyc
▁RT
▁carriers
0.5
opulation
releasing
▁calor
▁adaptive
idym
▁resour
▁solely
tative
▁perfor
▁undergoing
▁3,
▁depolar
ociation
▁catechol
▁predicts
otactic
▁angi
▁granules
▁12
▁develops
▁modulates
▁diagnosis
▁mM
▁Magnetic
▁illustrates
▁immig
▁insensitive
▁metoclopramide
▁sclerosis
plic
▁termed
▁leuk
▁Phen
▁diversity
versus
▁carbox
▁moles
▁vege
▁coincidence
▁Larger
▁minority
▁managing
▁oxidative
▁clinic
elec
69
▁7-
▁unaffected
▁retinoic
▁ether
▁measurable
▁10(6)
▁safer
▁200
CMV
▁remo
FG
forming
▁respon
tized
ministration
▁mammary
▁muscle
▁balloon
▁macrophage
carcin
obl
▁vitamins
▁ulcers
▁cleavage
reated
GD
matched
riamycin
platin
▁SG
istically
▁propranolol
plants
▁unde
▁immunoglobulin
▁enal
attern
▁Golgi
lix
occi
▁exhibited
tively
8%)
▁apoptotic
▁phenotypes
otomies
▁VA
▁hyperg
▁hyperplasia
▁copper
▁spinal
etidine
9-
▁vascul
issive
▁tric
nary
▁concordance
albumin
▁validity
▁chan
▁(20
athy
▁endpoints
-100
(+)-
▁3)
tries
▁0.1
ocusing
▁chromat
igible
uscular
▁preventing
▁thymocytes
tub
Daw
arers
ogenesis
▁PSA
▁potentiated
oyl
▁irradiation
amel
▁insertions
ophil
oprote
▁veins
▁1000
Ti
▁cotrans
physiologic
▁horm
▁hepar
48
▁prostaglandin
▁pall
▁profound
▁Thir
3%)
▁spectroscopy
▁0.04
▁moiety
▁pharm
23
▁lesions
▁sympathetic
▁modif
▁resting
▁captopril
anav
DG
▁depic
▁HMO
eration
▁poisoning
▁discordant
▁uro
▁TB
oretical
hering
▁surgically
nosis
▁doses
mide
▁seiz
▁plac
▁lymphocytes
▁ultim
RD
▁mL
▁10-
▁pep
went
ipine
▁HCMV
cells
pinal
ostatin
gments
ivary
positive
hydro
tives
▁NAD
▁repor
▁94
▁catecholamine
▁gluc
▁pressor
▁ech
▁babies
▁retention
▁examinations
▁tet
▁inadequate
▁therapeutic
▁adjusted
linolenic
▁strips
opi
lymph
▁vulnerability
▁resul
▁aimed
oxin
ercul
▁NN
esides
▁glomerul
rophyl
▁comprised
▁oxygenation
ximal
oplasmic
▁prolif
itus
▁distinctly
rapid
▁hydrophob
▁regimens
▁0.15
thal
mig
.0%
▁FV
▁controver
▁mononuclear
▁perinatal
▁fibre
aid
▁pancreatic
umbar
angl
▁endoscopy
▁declined
▁exert
▁coval
ulose
tection
▁proposes
▁coexistence
▁neoplastic
▁suppressing
▁slices
▁artery
oids
▁TS
▁Medicare
▁hypothyroidism
▁gains
obal
▁habits
▁leu
-12
lycer
▁focusing
▁molecules
▁hypothe
▁undo
erative
▁HN
crip
▁percutaneous
▁affects
▁casein
CSF
irub
▁phosphor
▁40
▁percentages
comitant
incubation
▁chicken
PTH
450
▁kine
clim
▁chole
+-
▁persisted
▁differe
▁excluded
▁cytoplasmic
▁mmHg
lux
farct
▁panc
▁strep
opsy
▁compartment
▁precedes
▁appropriateness
16
▁autopsy
ypical
phenyl
anad
▁transpor
▁alve
▁metformin
▁cholesterol
▁nonc
▁neurolog
globulin
▁arrhythmias
▁dismut
idol
▁hormone
ociated
▁7%
▁dib
▁counseling
▁benz
▁nasal
▁8.
▁carc
▁avoiding
renal
▁transduction
▁125
protective
▁melanoma
illus
▁moderate
▁(5
fication
ubiqu
acetic
▁structurally
▁3%
▁lumbar
▁aden
ceptive
ithin
▁wk
▁Plasma
▁physician
rents
oskeletal
▁anastomosis
▁lateral
sensitive
sorption
▁indetermin
▁chromosomes
▁buccal
▁Purkinje
▁diffic
▁6-
▁immunoreactive
▁fmol
▁poten
▁Lys
▁correlates
▁tryp
arcoma
2+
ergen
▁1,25
oscopic
▁5.4
anin
ipher
▁cisplatin
sibly
▁Slow
75
▁covalently
▁18
ths
▁cytoch
admill
uccessful
amphenicol
▁2%
▁MI
19
odialysis
▁neoplasm
▁wrist
▁Tum
▁shortened
▁cros
▁erythroid
▁LH
4%)
istribution
▁preferen
▁unrelated
ylation
▁rCBF
▁microM
▁infarct
ipro
▁gallst
robial
▁congestive
oping
▁elu
▁enlarge
▁tiss
ication
▁muscular
▁17
▁interv
▁excreted
▁pyruvate
arbox
antial
ocrit
▁stimulating
associated
osamine
▁intake
▁subgroups
▁tended
resid
bacco
▁Considering
▁21
cellulose
▁heparin
tically
▁rabbit
TNF
▁cortic
9)
▁0.01)
▁inev
▁pS
▁divertic
▁sarc
▁52
ration
▁fractionation
aicin
erum
ritin
▁thyroidectomy
▁11
▁exacerb
43
▁colony
-2)
▁VC
itum
▁CTL
▁enriched
▁peris
gely
▁disrupt
▁atherosclerosis
adication
▁prostates
▁Cd
▁HLA
▁limb
▁immunoblotting
otre
▁spermatozo
RB
▁mammography
opamine
▁abolished
andard
▁occl
tious
▁hydrophobic
reactive
▁HG
▁glycos
▁segmental
▁DFS
▁intrarenal
▁Mg
▁antibiotics
▁lineage
ygdal
nitine
▁agonists
tetra
88
▁accumulated
inephrine
▁institutional
▁homogeneity
ochemically
MIC
arterial
▁analogous
alc
ocular
▁stimulates
ulin
▁inorganic
atchard
otide
activated
▁retina
lasts
itary
▁fetus
▁heterogeneity
immunoreactive
kephalin
WB
▁unexpl
phic
▁77
▁kb
atibility
otrexate
▁nephropathy
▁surge
▁assays
▁reticular
▁arter
▁preferable
grams
uality
hion
▁vaccin
▁immunode
▁VP
▁attenu
transferase
vely
▁trypsin
▁85%
▁Taken
trus
2,
protein
▁employing
teral
▁elicited
▁cohort
▁diluted
clin
▁hormonal
▁porcine
▁ketamine
▁38
▁transplant
▁fibronectin
tiz
▁HU
glyc
▁disrup
sA
▁recipient
▁morbid
▁Km
orest
▁derange
▁overexpression
ochondr
6)
▁premature
vail
lycerol
▁swelling
urgical
▁encour
▁myocardi
▁eyelid
▁wheat
▁psychiatric
▁subcellular
iflu
▁10(-5)
▁counteract
ressing
▁coel
▁vasopressin
▁ureth
▁MH
▁VT
▁vesicle
ucleation
hyde
▁pacemak
▁supple
piration
▁scre
kine
▁(100
▁LDL
ointing
orrhagic
▁paraplegia
▁neurones
▁75%
▁spindle
tial
▁Bec
▁baro
▁desirable
▁hybrid
▁replication
4.
▁Improved
MH
erox
▁constitute
▁vasoactive
icide
▁UL
tice
▁microscope
▁2.1
▁reveals
thma
acyl
▁knee
▁31
▁cure
phosphatid
carinic
▁beats
▁plasmids
tages
▁islet
▁fati
▁synthesized
▁rese
▁000
▁Engl
▁cytosolic
▁excitatory
▁allogeneic
▁descending
▁rash
vul
plo
▁0.001),
▁maturation
▁macrophages
▁assay
▁70
▁tamoxifen
▁Kd
menopausal
▁bradykinin
polyacrylamide
ateral
▁neurons
▁retic
▁physici
ofl
oresis
▁cortical
▁injur
ellular
oscopy
Ts
▁abnormalities
▁reperfusion
▁abolishes
▁sustained
▁mucosal
oung
sistent
▁ethanol
▁Elec
▁solvent
▁Neurop
trating
▁saturated
lymer
thio
icardi
▁envelope
Hu
eak
▁0
7)
otoxin
▁inactivation
▁lam
▁OT
▁pregn
▁sphincter
ifferenti
▁acetab
▁specificities
ingle
▁paras
enol
reement
▁(25
▁1,000
▁papill
▁scoliosis
5-
bac
▁complic
▁inhal
itures
▁stric
acial
azem
brids
IgM
▁adhering
▁macrom
imination
▁biom
ocytosis
enic
▁hydroly
▁lamb
▁48
▁cyan
▁pylori
▁-0.5
▁intensive
▁atr
▁recurrent
1).
▁carcinogens
▁dysplasia
▁occlusal
cele
▁mammalian
CAM
ocar
▁enzymatic
▁estimating
▁lymph
▁techniqu
utroph
▁Impro
thle
shaped
▁tendency
▁attributable
▁cloning
▁leucine
▁199
ethylene
▁predictor
wes
▁acute
▁plasmin
▁cholinergic
▁tobacco
▁ulc
▁(2)
▁ppm
treatment
▁anemia
▁atres
ipitation
teric
▁EB
▁Contrary
thre
rophy
▁contrac
▁plasminogen
80
istal
▁juvenile
ialysis
▁behaviors
kground
urine
▁viewing
roprusside
▁(197
implantation
▁SHR
▁plas
▁differentially
▁segreg
▁purified
▁assayed
▁deterioration
ifferen
▁monol
▁possi
eric
▁natriuretic
▁subtraction
▁thrombin
asses
erate
▁NADP
kephal
▁61
▁vasoconstric
▁consultations
▁amph
xate
ophils
▁insuff
▁clon
immun
▁concomitant
▁disturbances
▁epi
5%
▁adenoma
odiaz
tation
amino
▁throm
▁toxic
itness
▁ile
▁passive
▁esophagitis
▁baseline
depleted
tive
istrib
▁arginine
▁sour
mong
21
▁inver
▁labelling
▁pylorus
▁inserts
▁ocul
ullary
ternational
▁reacted
▁blockers
ocor
ophageal
▁endogenous
▁1990
quid
arous
incidence
0%)
▁inactivated
▁PDGF
olarization
▁rup
-450
▁awareness
ocardi
loid
▁6
titu
▁correspon
▁32%
▁capillary
▁discrep
Tn
▁(7
▁cavity
▁normo
idated
▁oxy
greater
idase
zyme
▁cardiopulmonary
ocul
▁fatty
▁synerg
▁quanti
tead
▁NADH
▁feasibility
▁defects
ivered
▁thigh
▁breathing
xual
▁encodes
▁schizophrenia
▁biological
▁cochlear
▁attenuated
▁cortisol
▁AH
▁spind
▁ACL
teroids
amyl
ortic
▁consistently
▁citrate
RM
▁femur
▁caregi
bilities
jun
opramide
▁9-
feren
▁mAb
6.
/3
saccharide
osomal
omonas
▁bowel
▁intrac
hydrox
ovine
▁peroxide
tivity
▁28
▁bacteria
0,
razosin
▁uninjured
▁supplementation
▁appreciably
▁enalapril
organic
▁Swed
▁19-9
carb
iatric
▁innerv
opathy
ordance
▁isop
▁disappearance
▁AO
▁reversal
▁0.001
▁chromatographic
▁favourable
▁superv
regulation
icardial
▁angiography
stant
WBC
▁connec
▁79
▁lymphocyte
apeu
tro
timulation
-50
▁sequel
▁dehyd
fron
optic
▁dex
▁nmol
itonin
▁incom
▁echocardi
▁testicular
▁devoid
▁microgram
▁Strep
▁excision
▁apical
lated
▁stromal
4).
▁induces
trained
▁glucocorticoid
lead
▁proteinuria
aceous
▁65%
epithelial
▁enzym
acylglycerol
oxidation
spective
▁enlarged
▁asymptomatic
▁widespread
▁Cox
arrhy
flammatory
▁lowered
▁selectively
▁irradiated
▁hybrids
▁identif
▁NADPH
▁aortic
athyroid
▁dilated
▁dele
▁GM
licular
▁basement
▁Differen
▁supervision
ectomized
▁preterm
▁Older
▁parental
▁penetration
tiv
▁Inclusion
▁rejection
▁CFU
▁0.7
▁corne
▁absorb
emory
▁hazards
▁severely
▁chemically
▁polyacrylamide
▁disappointing
▁phenomena
▁transplantation
dine
PAGE
ichia
▁recombinant
▁iliac
▁7.4
ensities
▁Poor
▁tach
oreceptors
▁ligands
▁6.8
▁schem
MV
tron
▁BS
▁morb
▁trache
▁33
▁manifestations
oxygen
▁GA
▁lys
▁digoxin
stimulated
keletal
▁preservation
▁rats
▁endocrine
▁acquire
▁RR
▁pregnant
▁hypertrophied
▁leukotri
idation
▁stret
▁adverse
▁mucos
▁parasite
glycerol
(2+
▁quantified
▁duoden
▁Vaccin
▁chloroquine
0,000
▁reper
perfusion
Gl
ATPase
▁inhibin
▁adi
electric
▁cyclic
▁migrated
▁47
▁pulp
opoietic
uncture
▁periphery
lecting
trition
▁GI
otom
▁abortion
lyl
atories
▁timely
-9,
earing
vaginal
oxic
▁monoclonal
physiological
▁uter
▁PH
1,
▁sequentially
ithi
tamine
▁islets
▁distin
opes
▁insufficient
0.
armac
▁clinically
▁MK
aemic
▁blotting
▁muscul
▁mediating
▁adoles
▁grafts
kade
▁laboratories
onate
▁exten
▁obstruction
itant
▁SEM
athetic
▁ADP
▁FT
Cu
▁referrals
gnetic
▁Changes
▁10%
derly
▁immunore
▁BV
nec
▁oxidized
illance
▁progen
▁mandibular
▁DF
urgery
idazole
▁demonstration
ectin
luded
tical
Ka
▁mimic
▁1985
▁NPC
▁transcript
▁adequ
tur
sulf
▁dilatation
▁metastasis
1.
▁discer
▁bedside
▁83
toxicity
▁implanted
SCC
rangement
acetylcysteine
▁hemo
▁glyc
oglobin
▁particulate
▁intracellular
▁extre
▁inhibited
▁discomfort
▁polyp
amus
▁MG
retin
▁establ
elan
▁regis
▁soluble
tent
▁MRI
▁randomized
▁presynaptic
yste
.5%)
ycin
▁killer
hea
-7)
▁orally
oidal
oplasm
▁microb
epit
omotor
diastolic
▁transferrin
▁lep
sian
▁phagocytosis
BV
▁(12
enal
▁epididym
▁aureus
▁herpes
▁95%
▁Improvement
▁initiated
bral
itol
anese
acil
▁rostr
▁drugs
truction
▁mutagen
▁86
2+,
▁mellitus
odynamic
▁metastas
onuclear
idement
▁anion
▁HRP
arginine
▁phagocytic
1-
▁ejection
▁maternal
▁(2
▁dislocation
eal
ochemical
▁immunization
feron
requency
icin
65
▁epinephrine
plication
tisol
▁interf
▁excimer
▁DT
▁ischemia
amet
▁peptides
▁predic
ronchial
▁diltiazem
▁cerebrospinal
glum
geons
ulant
▁capsule
amycin
atest
oea
▁phagocy
▁stained
▁electrophoretic
▁fluor
▁expertise
▁tension
▁depolarization
▁psychotropic
plied
▁Cardi
▁triglycer
Hb
▁wt
ields
1/
▁.05)
▁180
▁radiographic
▁Sequ
▁GBS
▁mixtures
▁coli
▁intram
▁calmodulin
lue
▁(0.0
▁HC
otypes
▁Concomitant
▁moderately
ecan
yrate
ubicin
▁indomethacin
▁reasonably
▁injected
▁investigating
▁histological
Glc
▁metabolism
▁clus
anavalin
▁ligand
▁UV
bumin
ygo
▁Alz
▁histologic
hep
▁centers
▁parenteral
▁mitogen
▁sodium
(1
▁medication
▁debridement
ariate
▁neon
erable
uded
▁elderly
▁diabet
▁viruses
dose
ineural
▁sedimentation
tinguishable
▁malignancy
▁mec
-2
▁ratios
▁RIA
▁autonomic
▁tumors
▁proteoglycan
▁diazepam
▁cues
▁enhancement
▁assessment
oagulation
restric
▁terminals
fat
▁somat
transplantation
acting
▁promoters
▁questionnaires
rotic
▁cava
▁leakage
▁viability
amine
ulitis
▁crude
lycemia
▁NaCl
toxin
ontal
▁compartments
lym
▁synthetase
▁aort
▁quantif
▁84
ching
▁discontinued
▁resusc
versal
▁microcirc
▁adjustments
▁irrever
ulae
▁endarte
tum
▁polyclonal
aric
ntolamine
▁congenital
▁anaesthesia
▁GF
▁LN
opam
▁2.2
▁pancreas
▁51
ffin
▁judged
elfare
▁contral
immuno
▁cultures
isol
▁maximally
▁sulphate
tib
▁25%
Ala
▁toge
responders
▁mumol
▁difficul
eptid
▁trough
▁dorsal
▁dramatically
ectomies
▁complexes
▁prophylaxis
hospital
acrylamide
▁phosphate
-2.
▁trophob
onatal
▁highl
hemia
▁beha
▁tidal
▁fetal
▁hap
▁alumin
▁healing
▁exclusively
▁resuscitation
▁EO
▁hypertension
▁permeability
▁functioning
▁duplex
/6
▁inapp
▁aggravation
iplin
▁linole
▁diame
▁prescrib
ostatic
▁CABG
▁0.001)
▁immunomod
▁fluorescence
Kd
ivoc
▁consolidation
incip
▁integrating
▁multiv
▁coupled
icillin
▁ADH
▁outcomes
▁Significant
endorphin
coup
ailure
oice
▁recessive
amination
othane
titis
olateral
▁expend
▁fibroblast
▁trend
▁ultrasonography
▁microvascular
cAMP
▁oxidase
▁nutrition
▁sulfonyl
▁0.00
▁hypot
▁15%
▁followup
▁microtub
▁reinfor
▁75
uppression
▁sexes
▁hypothalamus
▁stimul
▁peripheral
ensity
venous
.7%
▁sulf
▁diaz
▁proteoglyc
ibi
▁Ia
▁lysis
▁gait
▁immunobl
▁SB
▁behavioural
▁110
▁preoperatively
▁transcription
▁(9
▁tryptophan
▁hypox
▁1989
▁phag
▁glycosylation
▁reconstituted
oproterenol
▁sarcoma
▁induce
▁infarction
umulative
olgi
oplas
▁regimen
ancre
Cs
atinine
▁regulatory
▁BP
▁nerve
ithms
▁cardio
density
▁LTB
▁benign
▁characterize
▁hypother
▁biopsy
▁detachment
2+.
illaries
rectomy
▁3'-
▁inhibitors
tents
morph
duced
thmia
▁perforations
▁stimulation
▁subpop
tability
▁Pregnancy
approximately
▁isolates
▁8
▁carbohydrate
rief
▁projec
▁synergistic
▁corresponded
34
▁sca
NAc
LF
▁attenuation
ixation
▁bp
mutant
▁dexamethasone
▁preven
▁tubular
▁IH
▁IA
▁intact
odg
▁positioning
▁absorbed
aints
▁embryonic
scherichia
▁degradation
exis
▁6.0
-25
▁hig
▁subunits
1),
rati
▁MAb
▁contamination
macropha
phyloc
▁uterus
▁parap
▁intragastric
▁HP
▁cate
▁12,
▁acet
▁characterized
▁attending
14
fentanyl
▁manifestation
phorbol
uptake
rophic
-15
▁provocation
obarbital
insulin
▁imaging
atment
kely
IGF
▁1.9
▁mediates
▁repeats
▁vaccines
▁deform
▁tuber
▁determinations
phila
▁lyso
ediatric
▁GV
inated
▁dehydrogenase
iatum
▁hemorrhage
▁laminin
▁intrap
▁lesion
OA
subunit
▁Kupffer
itre
▁drops
▁preferences
▁intervention
▁HeLa
▁GD
rox
▁vertebr
olated
▁systolic
▁inpatient
ospitals
▁PGF
tally
keleton
26
▁-2
▁synapt
▁preincubation
▁sphinc
▁hepatoma
▁monocyte
▁asthmatic
▁catheter
▁somatostatin
▁fractional
▁arteri
▁pathogenesis
Ba
▁EEG
phrag
▁offspring
▁twofold
ortal
▁7.5
▁CSA
▁neonates
enopus
rein
ervice
▁methyl
▁sequential
▁0.5
▁circumferen
parative
▁glomer
cardi
▁leuc
▁hapl
▁pathologies
▁inflamm
▁concer
▁collec
Ps
▁constitutional
eces
▁66
mediated
▁Hb
▁Stimulation
▁survived
▁urine
ewish
▁hydrolysis
▁deter
▁overlying
▁reabsorption
ploy
▁limbs
▁resemb
arge
▁mRNAs
transfer
▁Weight
▁1.6
▁serine
▁aerobic
lyc
arer
essive
renaline
00
▁apolipoprotein
▁undetectable
▁codon
▁dosing
▁ACh
▁facilitate
▁precipit
▁(21
▁circulation
▁APD
igel
▁hypothesized
▁fractures
▁emissions
▁inequ
▁11,
▁interc
▁glutathione
▁vegetable
▁(+/-
▁visually
oxane
oinositi
▁Cycl
104
▁seas
rospinal
▁stu
tebral
▁homogen
▁glycoproteins
▁Neither
illic
▁fitness
tructural
4,
▁tetan
▁relating
aturated
nRH
▁gluten
▁Serum
▁6%
▁PE
especially
ococcus
▁Thromb
tox
apse
tration
▁perfusate
▁selective
▁beneficial
▁Continu
▁hypothalamic
▁Phy
▁adherence
9,
▁placenta
▁10
▁neurologic
mia
thmatic
▁ambul
▁diet
▁localization
usive
hei
▁epiderm
▁electrode
▁1/2
▁PB
semin
▁electrocardi
▁topographic
22
▁5%
▁1)
kinase
▁NP
▁availability
▁analys
▁responsive
▁detec
▁anaerobic
odium
-3,
▁fulfill
▁LF
▁HM
▁athe
▁marginal
▁CK
▁antitumor
▁evolving
▁TK
▁responded
stimulating
▁chromatography
▁arom
resting
▁Percutaneous
▁compliance
idne
ineph
▁ions
▁(8
▁PV
▁clamp
-1.
▁prescribing
▁PCO
▁assessed
▁saliva
▁Atropine
regulated
▁likelihood
aterally
▁stere
▁viable
▁reductase
orphin
-2-
monary
▁fasting
▁spi
▁prosthe
+)-
▁electrophoresis
pecific
urea
▁hypers
▁2.
▁deliveries
idem
otropin
▁tonic
BW
▁underlie
Ta
▁cen
vascular
▁accounted
apeutic
▁rigorous
▁dextran
▁cumulative
70
tryp
▁catalytic
▁marrow
▁120
opulmonary
TG
cad
ocortical
Gly
▁technologies
▁demonstrates
▁exogenous
acetate
▁increas
▁monkeys
▁ramus
▁irritation
▁MN
▁responding
Hg
▁deposition
▁substitutions
odynam
▁unlabeled
▁moisture
▁defective
▁shortening
▁circulating
timal
▁AIDS
▁Trial
▁cardiomy
entical
hesive
▁acco
.2%).
▁gestation
▁metabol
clonal
▁tas
tein
▁palliative
omain
▁eradication
enkephalin
otor
▁genome
▁abdomen
▁systematically
▁intraven
▁eosinophils
tens
▁specialist
▁gyr
lood
▁Afric
▁dilution
▁60%
▁amygdal
uppres
▁monomer
AH
▁metabolized
▁shifted
-5
▁gradual
▁elevations
▁aromatic
otox
▁noradrenaline
HF
54
▁preliminary
▁depres
assay
▁attained
▁sugges
ropine
▁pedigree
▁disadvantages
oreceptor
cents
ropo
▁restric
▁diseases
▁cerebrovascular
33
▁bulb
reed
His
▁surfact
▁uneventful
▁29
▁fluorescent
▁experts
▁4.4
▁oss
▁laser
▁(3
angli
asic
▁peptide
▁grafting
▁margins
▁alcoholic
▁sliding
unctions
▁HAM
▁contex
▁neurop
▁0.01).
thrombin
motic
▁axial
amate
▁20
oplasty
degree
▁cyclo
▁controversial
▁manipulations
▁readings
▁consecu
aryngeal
▁antiserum
▁(0.1
5)
ubted
ignific
affinity
heximide
ogenes
▁diameters
▁genetically
▁hepatitis
▁persis
▁unm
▁RNAs
▁colonization
▁lob
Mu
rogen
aced
▁determination
ionine
▁callus
▁placent
▁embry
▁2.0
chymal
▁intron
▁absorption
▁incorporated
▁practic
▁LAK
▁biosynthesis
▁membrane
▁undetected
▁emergency
nee
▁cGMP
IFN
▁unc
tension
molec
▁scinti
▁regulate
▁surround
▁serotonin
▁accep
▁ribosomal
alanine
operox
ocys
▁suppressor
ropha
▁soy
▁markedly
▁nail
▁SBA
ilep
obacter
▁hemorrhagic
mented
▁carboxyl
▁nutritional
erally
▁strategies
▁LT
▁stimulate
▁Recently
▁succin
▁staining
ellosis
▁abor
▁desensitization
▁cleaved
ymp
▁mann
▁smo
aryn
▁immobil
icated
jug
FH
aginal
▁promoter
▁depr
▁transient
▁conformation
▁0.05
▁morphine
▁LHRH
▁plur
▁arachid
▁3.7
▁solub
▁acutely
▁suppressed
▁parag
▁centrifugation
vant
▁incub
▁hemoglobin
estim
▁streptoc
▁spine
▁GE
▁advances
ographically
▁VIP
▁biologic
▁enhance
▁cellular
▁justified
artum
▁pretreatment
▁diarr
▁4.3
venty
▁aspir
▁exhibits
▁natri
▁direc
▁triglycerides
▁mild
ogenetic
.7
-1)
opoly
▁restor
▁liver
ulates
▁potenti
▁terminus
▁62
▁TGF
▁additive
▁kinetics
▁apprec
loro
eled
▁disulfide
▁hypoxia
bly
▁overex
▁globulin
▁relaxation
ults
▁thoracic
▁revealing
agic
▁neo
▁ventilation
▁overe
onol
▁proliferation
▁medulla
▁brush
▁endoplasmic
▁ocular
▁mineral
oceptor
▁competitive
▁haemorrh
▁cannulae
▁umbilical
▁atrial
▁shunt
▁carotid
erator
▁granulosa
▁300
CRP
ergy
▁perfusion
effective
▁evidenced
itrate
Cer
▁empirical
tumor
▁histidine
▁astrocy
▁biop
▁hospitals
onset
uretic
▁ammonia
▁seroton
▁decreasing
▁chewing
7,
dle
phil
▁laboratory
▁Vitamin
ocamp
▁myocardium
reported
NAP
orectal
inhib
▁perception
erican
▁hamster
.6%
orbol
▁anesthetized
▁leukemic
▁succinate
▁haemat
ologic
tected
▁idiopathic
▁antero
▁genomic
▁27
▁phosphorus
▁transcrip
▁inclin
▁isomer
▁inhibiting
tine
hop
▁0.05),
▁cardi
helin
▁establishing
▁encephal
▁requi
▁mutations
olip
▁infect
▁trigg
pies
▁clinics
▁AMP
▁scintigraphy
▁cervix
▁prevalences
embr
ffeine
▁simplex
heum
▁fertil
▁Leydig
▁emphasizes
chol
▁pineal
▁cytokines
ultural
cold
▁coex
▁ald
▁differed
-67
▁lysosomal
▁anatomical
▁infections
▁vaccine
ioid
▁14,
▁shorten
▁conformational
▁proce
▁puber
▁appendicitis
▁NB
▁Comparisons
filtration
glucose
▁eosin
▁psychological
benz
▁5-
fib
tribution
▁34
Ds
iability
▁Emergency
rangements
tussis
aminop
▁Measurements
mental
▁[14
lyce
▁follicles
loride
▁deaths
▁proton
omat
▁lymphoma
allik
frequency
phrine
▁spontaneously
duction
olones
▁caudal
atoid
▁glomeruli
pread
8-
▁fluctu
▁thorac
▁facilit
seven
ginine
▁infec
▁aspirin
▁masked
▁ACTH
▁mast
oactive
hig
▁pancre
▁1.0
absorption
.6
▁testis
aluation
▁produc
▁dial
▁tracers
ocyte
▁ethnic
▁3
▁gamma
▁facial
LV
▁adenine
▁pyramidal
▁atmospheric
iron
▁perfused
opausal
▁clones
irradi
▁coated
▁immunosorbent
▁calves
usal
uary
dividual
▁PCP
▁probes
▁microscop
▁160
tance
rogenic
▁resected
▁ammonium
▁agglutinin
vertebral
▁intraper
▁ascorb
reness
▁Forty
▁capillaries
matic
▁corrective
▁NGF
terolog
▁shar
asone
▁ori
▁hemorrh
▁Failure
.1
itoneal
▁warrant
▁libr
▁enhancer
▁regurg
▁Alcohol
▁antiarrhythmic
▁modulation
▁autosomal
▁modulated
▁administered
olone
lowering
▁IgG
omerular
educed
epti
▁15
▁mobility
ergency
▁PRL
ocellular
▁bacter
romed
▁biphasic
▁dose
▁responsiveness
▁Treatments
pH
▁vena
▁physicians
▁opioid
▁(10(
▁NI
▁bone
▁widening
▁TC
▁mandatory
otting
cepti
▁(18
▁substanti
occal
▁multim
ropyl
infected
▁novo
▁vitamin
olute
silon
▁TP
tolerated
▁pH
▁qualitative
15
▁5.2
▁neuromuscular
▁impaired
▁RH
igaret
▁homologous
▁rhy
▁minerals
▁EMG
2).
▁conjunction
omycin
tile
▁HSV
▁intrav
▁warrants
zation
▁rigidity
▁operative
▁assurance
▁-1
▁stroma
affec
▁fixation
▁pigmented
kDa
▁myc
acted
▁1.8
▁bac
renol
▁inherent
▁suspensions
▁inotropic
osin
▁44
RNA
olamine
rement
▁temperatures
▁maintaining
▁discus
lasses
▁adolescence
▁thereafter
respective
produc
▁dihydro
olved
▁3-
▁synchronous
▁stain
▁detrimental
▁carcinomas
otri
▁blot
▁peroneal
0)
▁xen
emak
puts
▁neoplasms
▁chemot
▁subc
vation
▁15-
▁polymorphism
tonic
▁effectiveness
▁complementary
oic
▁predictors
▁stimulatory
▁BM
▁postulated
ivariate
anthine
omers
▁msec
▁PTCA
▁1,
▁amplitudes
2-
obarb
▁estrogen
ilized
rC
rogenase
▁adrenoceptor
▁coeff
etween
-6-
clamp
▁rebound
▁newborn
67
▁vasodil
▁mRNA
osome
▁duct
▁nec
▁systematic
▁preferentially
▁surviv
▁ascites
▁hydrox
▁guided
▁transcripts
▁presum
turb
apanese
▁identifies
▁neutrophilic
▁blin
-7
▁breasts
▁Estrogen
mber
entricular
DNA
▁melanomas
▁kidney
rected
uginosa
istar
eliac
ditions
acerb
▁paradig
▁dys
▁7,
hydroxy
▁(16
/1
▁histologically
▁hemisp
itance
-4-
▁scans
drug
yrid
acr
▁13
▁lambs
▁spleen
▁mono
▁amiloride
▁nitro
ept
▁eti
▁bilirubin
razole
▁dissection
▁amino
▁autologous
37
▁polyps
▁enrol
ilical
▁progesterone
▁thems
▁sero
▁corneal
▁cholera
controlled
▁(5-
▁peroxidation
▁sequenced
oxif
▁norepinephrine
▁chol
▁aor
bacter
idate
restricted
ustment
▁dramatic
▁tonsil
▁hypothal
▁MV
atell
▁varies
▁plasma
▁enhanced
▁prevalent
ignant
▁melatonin
▁modest
▁ortho
▁pediatric
12.
▁benzodiaz
▁epidemiological
alues
▁dissociated
▁4.0
▁reactions
▁71
▁measuring
▁105
0%
venth
oves
▁mitral
economic
▁oxygen
rogra
▁hybridization
▁OC
▁synthesize
ochle
▁cystic
▁CGRP
ygous
▁obstructive
▁catab
▁pati
idity
rength
▁nervous
▁4.2
▁Tumour
rocy
ozo
ipolar
▁gastro
▁7.0
ventricular
KI
▁thyro
▁axonal
▁oxide
▁merits
▁hipp
vents
uding
▁potassium
▁astrocytes
ronectin
▁phospholipids
▁arti
▁balanced
▁transmembrane
▁lumen
▁injuries
▁infil
others
▁ane
oglyc
▁pK
subs
▁apop
mature
arity
-3
▁NMR
▁coexist
illary
▁comparisons
trib
▁guanine
roglobulin
ucl
▁systemic
illar
riton
▁3'
▁spont
▁amy
▁juven
adian
▁underg
sorb
▁methylation
▁arthritis
▁entero
erated
▁longitudinal
cutaneous
▁tubes
▁cytosol
▁luteal
▁Previous
▁0.05).
▁typh
itin
▁intravenously
▁plasm
▁Throm
▁CB
▁radioimmuno
ylamide
activation
.3%
itudinal
onad
olution
2318
▁heavi
▁ration
▁iod
▁alp
▁assessing
▁pronounced
▁excretion
either
alities
osus
▁interacted
▁tert
▁4%
romycin
▁lipids
ocl
iliary
▁IgM
▁transloc
▁antigen
▁45%
othermic
▁ranging
▁reversed
iloride
▁rheum
▁alkyl
▁topical
mitter
▁ruptures
▁ICS
entanyl
▁deformities
GH
▁RAR
evaluated
▁heating
▁antibodies
▁continuously
▁motif
▁Thy
▁esters
▁recurrence
adex
pig
▁Therapeutic
▁anatomy
▁residency
ctomy
VR
▁seizure
▁inducing
▁dissociation
▁fatigue
sion
▁perin
▁modality
▁liposomes
▁nomenclature
▁BD
▁researchers
ocrine
arbonate
▁oxytocin
+/-
rying
methyl
▁headache
▁Physicians
▁buc
▁hetero
osomes
eroxide
▁lactation
▁oligo
▁inhibition
▁mammals
encephal
▁dye
contrast
▁0.9
▁geriatric
▁ingestion
▁1.2
▁chl
▁antisera
KA
▁uptake
▁sustaining
Au
echan
▁filament
viruses
oxide
▁fragility
olic
oxid
▁fluores
▁platelets
ietic
edullary
▁deficits
dU
▁steroidal
ipar
▁melan
78
▁loci
▁nonspecific
▁infants
atab
uccess
cretion
xone
▁onc
▁comprehension
▁wors
▁microns
▁instrum
)2
▁VD
till
▁anomalies
▁experim
▁cirrhosis
umulation
dehyde
▁pacing
uterine
▁gangl
▁APTT
thmic
▁cardiomyopathy
ylchol
▁VE
tic
▁putative
HV
Ns
sibility
▁24-
.9
ophilic
▁diarrhea
▁exacerbations
▁dental
anking
duce
ocom
▁identically
▁hygi
▁histone
▁CEA
▁ultr
▁cerebellar
vival
urate
▁controlling
▁evaluating
▁regulated
▁isoproterenol
6,
▁intub
▁autoantibodies
▁(1)
▁contractility
▁embryos
LN
-[
84
▁4.5
▁skeletal
▁meal
57
▁RNA
gesterone
▁unrel
▁receptors
cycl
▁pulses
▁progn
▁acquisition
▁prolonged
thanol
▁indication
▁epithel
▁relap
▁repaired
▁fatality
▁follicle
▁ammon
eclampsia
▁thym
▁streptococci
▁Surgery
▁130
intestinal
knee
▁arth
▁Leu
▁nM
oprotein
▁analogue
▁89
▁downstream
▁challen
ocortic
olipoprotein
▁aggressive
▁hepat
▁chromosomal
▁bovine
▁dodecyl
▁alkaline
▁cann
▁targeted
▁feeding
▁gyn
▁basal
▁Pretreatment
▁CAM
▁endot
▁Tumor
▁constitutes
trative
▁phenotype
▁symp
▁concentrate
▁ouabain
▁orthopaedic
▁pulmonary
▁equilibr
▁serum
▁cys
▁chloro
▁methotrexate
▁adren
▁reproducible
relevant
▁ferritin
▁afferent
tiveness
▁filaments
labeled
▁unstable
▁determinants
dies
uoden
▁cyclospor
▁spor
oclonal
▁cigaret
adrenaline
▁survival
lective
▁1-
▁ascertained
▁30-
othel
▁abdominal
▁demonstrating
Ia
ethyl
▁sarcoplasmic
inergic
▁Treatment
▁400
inely
▁vesic
/2
▁cranial
amuscular
▁0.03
▁findings
arotid
▁colorectal
▁albumin
▁LV
▁adminis
▁challenging
romy
anine
99
▁disparity
▁screening
▁curative
▁introduces
yses
▁prel
omod
▁caution
▁57
FGF
▁proct
▁VL
▁yr
56
▁ovary
▁linoleic
unced
2+-
▁201
tak
▁TG
▁cited
▁91
▁outward
▁virtually
cence
▁deficiency
▁statis
▁concurrently
IH
onucle
▁penicillin
▁Meas
▁genetic
xia
kinje
▁inducible
▁promin
▁splenectomy
IDDM
▁intest
oplast
saturated
▁cycloheximide
relations
▁immunisation
ophys
▁encouraging
▁plastic
ochemistry
▁strand
AIDS
▁implicate
▁mV
▁Tyr
▁3.1
▁bronchoscopy
luding
▁gastric
▁weigh
nitro
graftment
onin
▁sti
otroph
▁Biochem
ses
ecu
MN
▁virtu
8+
9).
echn
▁symptomatic
tention
▁prednis
▁cyclosporine
▁diets
▁subtypes
abain
▁predictive
iaz
▁abd
▁workload
toc
▁clearance
▁chorio
0-
▁mitotic
▁inactiv
▁monophosphate
MG
▁thi
ifug
uanti
▁cytokine
▁2,
erents
▁glycerol
▁isoelectric
500
▁caffeine
9%
-60
▁necrosis
▁PEG
▁initiation
▁ultrastructural
▁transurethral
▁diagnoses
▁VAS
▁glycoprotein
▁conjugates
osom
rals
ameter
1%)
odgkin
usions
peptide
▁experimentally
▁mitogenic
tracted
▁synaptic
▁recor
▁creatine
aturation
▁multifactorial
aptic
▁tumours
▁cloned
▁consequently
▁Inhib
requ
▁anaesthe
▁isolation
▁chemotherapy
▁neurotrans
▁genotypes
▁95
uridine
▁fractured
evaluation
▁enzyme
atitis
▁lute
ogl
▁decarboxylase
▁warr
clerosis
▁mutants
-2,
▁lipase
▁transcriptional
▁lec
▁elongation
▁reductions
ithelial
operative
tabol
tional
tization
esthe
▁crest
inj
▁plexus
himbine
LISA
▁Certain
iary
roscopic
▁prevalence
▁plex
▁comprehen
severe
illin
▁recess
utin
stages
acetyl
▁yielded
▁derm
anuary
▁uncontrolled
▁optic
spectively
▁sedentary
▁simultaneous
▁TSH
▁Hep
▁reticulum
▁peritoneal
▁lysosomes
cored
▁wound
▁triv
▁fiber
▁kidne
ycl
omatic
toxic
linked
GI
▁underestimated
Sepharose
tual
▁micron
vac
utaneously
▁phosph
▁prolongation
▁angiotensin
▁anesthetic
▁onset
▁bacteri
▁surf
ventive
ications
▁provid
▁chronic
▁myoepithelial
▁deoxy
▁mediate
1/2
▁(24
▁suspension
▁fibr
▁disorder
▁aneurysm
▁determining
▁lith
5'-
▁livers
▁glycogen
▁shallow
▁defec
▁gaps
▁ml
▁adhesions
olecular
essential
▁exhibit
vices
ymptomatic
▁UF
▁2
▁platelet
▁45
hist
▁alanine
▁dyst
trip
▁suspic
▁6,
BH
▁immunologic
▁inappropriate
▁acidosis
▁yeast
orption
acking
▁conducting
-1-
▁allograft
▁reflex
50
▁metast
▁portions
▁0.3
▁histology
icient
▁stomach
▁demographic
ophag
oneph
▁Staphyloc
acer
▁patches
▁tris
▁radiotherapy
▁perceptions
▁phon
▁humoral
▁mell
▁accelerated
▁derangement
iably
▁polyc
▁therap
resist
▁astro
▁esophageal
▁defic
76
▁196
▁ole
tural
▁carrier
iasis
▁occupational
chloro
▁pHi
entric
erence
opressin
▁spectro
▁minimize
▁acyl
phadex
▁sucrose
▁complaints
▁cognitive
▁bypass
▁ascer
▁triglyceride
▁cytology
▁sepsis
▁Conversely
▁phenomenon
▁vesti
▁aspartate
▁geniculate
inally
cture
ignificant
▁dismutase
omized
▁hypertro
▁contractions
arthritis
+.
▁excl
▁immuno
▁prostaglandins
▁sulfonylurea
oconstric
▁weakly
▁atresia
▁differen
ropriately
opath
▁mmol
▁anomal
roscop
▁hydrochloride
▁feasible
ogens
erations
▁Tc
▁preval
▁Scatchard
▁catalase
▁unresectable
▁assis
▁recons
▁beating
bodies
trum
tence
acid
ucose
▁displacement
▁64
▁concentrations
▁purification
ologous
▁ranged
▁labial
▁contracep
▁2.8
▁90
kelet
▁SLE
▁advan
▁equivocal
▁8,
adrenoceptor
▁drainage
itic
▁dopamine
dihydroxy
▁discussions
▁trophoblastic
riend
ressed
▁antibiotic
▁fragile
▁limiting
▁arterial
▁cis
▁PVR
▁heteroz
