▁immune
His
▁criterion
ologically
▁peroxidase
lives
▁278
▁Prac
▁umbilical
▁erythrocytes
▁dimethyl
odgkin
▁PSA
ogenic
LV
oblasts
▁sphing
planch
▁immunofluores
ophag
isoxazole
▁185
▁excitatory
▁labelling
▁washed
acin
tinent
ulum
▁aneurys
uppression
▁nonpregnant
heres
▁rostr
▁mediators
▁infertility
▁amino
▁deletions
▁Lp
▁murmur
lobulin
▁0.02)
nee
brile
thre
▁spleen
▁microelectro
▁Recommend
▁triphosphate
▁objec
ults
14.
▁specialists
▁incision
▁diaphragm
▁0.95
▁vaccination
ofib
▁ison
▁6%
obac
▁prospectively
▁247
ectomies
▁Extensive
olization
ometers
▁alanine
ctive
▁alteration
rogenic
▁slic
sorption
▁surgery
▁cytomegalovirus
▁83
▁15.8
▁98%
▁ligation
▁8%,
▁consistently
april
▁aorta
irubinemia
▁prostagland
▁intramuscular
▁appetite
▁dips
hemo
▁46
▁mammography
inum
▁44
▁CAL
uation
ighted
▁dissection
▁enrollment
▁labeling
▁spectra
▁205
▁corticosteroids
▁400
▁exacerbate
▁(1).
▁144
▁sucralfate
mokers
▁8%
tact
▁inguinal
▁10%
moderate
carbox
trin
▁fluoride
▁5'-
ostomy
▁inhibitors
▁adduct
▁intravascular
▁albicans
▁intraepithelial
▁adrenergic
▁negl
▁molecules
asive
▁metic
▁presumed
▁lapa
kilobase
▁guanine
onit
▁subclinical
onium
▁cuff
▁clinical
▁therapists
conduc
▁platelet
▁valproate
▁TS
▁incompetence
▁4.5
▁subun
.1%
alact
▁basolateral
▁0.8%
▁phospholipids
▁cyclooxygenase
immun
▁imipramine
bromo
▁noradrenaline
▁administered
▁4.0
▁juice
ocomial
orin
▁cutoff
▁glomer
eryth
upus
▁Mortality
▁automated
▁apparatus
▁immunore
▁recurrence
▁calories
veness
iesis
▁myocardial
NK
▁fibrosis
▁transitions
▁Stroke
either
▁protoc
▁13-
lowering
▁Phase
▁transmitter
▁Neuro
▁bradykinin
▁7.3
▁chorio
▁0.28
motor
▁experim
tructural
▁utilized
ADP
▁consul
▁contributes
▁polymerase
▁Tumor
▁emissions
iloride
▁abolished
▁appendicitis
chers
tite
acetyl
▁228
Cu
galactosidase
estradiol
2%)
▁3.0
▁atherosclerosis
oxal
▁caries
▁preoptic
▁conjugates
▁rigorous
assays
▁recr
▁Physicians
▁radiographic
▁atherosclerotic
▁sputum
fraction
▁recombin
▁seroton
romycin
gestational
▁anesthesia
▁harb
▁punct
tic
jac
▁PH
▁pyram
▁diuretic
otamine
iazide
reness
69
▁NI
▁socioeconomic
▁Indi
▁activated
▁velocities
▁pea
tance
▁crystal
▁faecal
jug
▁nevi
-22
▁200-
.6,
▁receptive
tus
plantation
aced
ynaptic
▁4.4
▁lumb
▁Experiment
▁hyperactivity
arcoma
▁1.9
▁(40%
▁familial
▁nipple
▁chemically
-16
▁unipolar
▁forebrain
▁glut
trone
▁validity
▁Gonad
▁17.3
▁EGF
▁0.09
▁AI
▁attenuated
▁Few
▁nonfatal
▁psychophysical
▁SIDS
▁500
ygotes
▁plexus
▁correlations
▁0.001).
▁lamina
eradish
▁achievement
▁myel
▁inhibit
iparous
▁mA
▁Grade
timulation
tiazem
associated
▁Recurrent
▁protective
▁direc
▁aerosol
▁evoked
▁thal
▁resting
▁covalently
ncies
▁monitored
▁monthly
tRNA
alene
▁41
▁tendon
ecretory
▁tRNA
▁86%
▁SDS
▁chromatin
▁leuk
▁RV
▁uteri
injected
iph
▁Failure
▁prevention
▁nodal
oglobulin
▁Lact
tics
▁genotypes
▁unres
orbol
▁stoichi
▁benzodiazepines
▁Recent
fication
▁hormonal
onography
▁1.05
▁(10%
▁follic
▁resemb
▁phospholipid
29
▁proteolytic
gestation
▁embry
ymptomatic
▁candidiasis
▁blot
thyroid
cytochrome
▁lysis
▁headaches
▁stimulates
▁denervation
EA
▁22)
-79
▁molecular
▁parame
okinetic
▁porcine
▁initiate
.4%
tran
.3
opre
▁divalent
▁46,
▁subunit
▁vascular
▁Oral
▁5,
▁Vitamin
roscopic
icide
adiol
▁(37
piper
▁refractory
▁1.11
▁(10(
/20
▁leukaemia
▁multis
▁diltiazem
▁arti
▁swit
▁7%
▁Subjec
▁Elevated
sies
00)
titial
▁oxide
partic
ensity
▁ane
▁VAS
▁165
▁264
menopausal
stranded
▁kD
▁INH
▁vulgaris
67
▁adhesive
▁17,
▁0.20
thrombotic
PPP
▁anticonvulsant
hap
▁indefinite
oselective
▁ovariectomized
▁reflecting
arate
▁46%
▁filament
▁voiding
▁epitopes
▁globulin
oblast
ses
▁recombination
▁78
oxid
▁urodynamic
▁sinusitis
.4
▁177
▁0.14
adm
edema
▁elongation
▁modality
▁retardation
folate
▁Americ
▁(3)
▁protons
▁genetically
▁ruptured
▁Cumulative
▁precursor
▁solub
▁amlodipine
quam
trip
tive
▁223
▁dimers
iable
▁Ultras
phosphorylated
ologous
▁potentials
▁urine
▁morphologically
▁0.78
▁glycoproteins
▁Risk
▁segmental
▁Electro
▁RU
utaneous
▁1986.
▁zoster
iciently
▁94%
▁encomp
▁progest
TPA
▁homozygous
▁vasoconstrictor
▁schizophren
▁cytokine
▁Peak
▁TB
osynthe
▁immunoassay
ocyt
-2.
▁immunocyt
▁hemo
▁Tes
▁155
▁Phen
-81
48
▁UT
▁noncom
ophageal
▁indeterminate
▁prosthesis
▁neuropeptide
▁32
▁regulating
▁penicillin
corrected
urys
fractions
tivated
▁42%
▁conjunctivitis
▁Levels
uble
▁Hispanic
▁hypophys
▁glycerol
tence
▁vaccin
▁homologous
izine
articular
contrast
▁myopathy
▁cessation
thanol
ugular
▁vegetables
▁abstinence
▁thromboembolic
▁vagal
fortable
▁(62
▁dilation
▁validated
▁affinities
▁antibiotic
▁immobilized
▁carbonate
▁11.6
obl
▁surveyed
▁pmol
▁Weight
▁hospitals
-198
▁LDL
▁myc
▁inhalation
▁Evidence
▁cyclical
▁angioplasty
helium
▁syndromes
▁ect
▁benz
onuclear
▁neurogenic
88
virus
osterone
teine
enteric
anserin
▁spp
▁0.9
▁transmural
)2
▁enhancing
▁conservatively
Ds
▁suicidal
▁outpatients
▁-2
▁monol
▁methodological
▁fibres
PAP
,000
raconazole
▁permanently
onyl
▁diversity
▁paralleled
▁Kine
otide
Ly
turally
▁foci
retion
▁wash
▁cholinesterase
▁perin
amous
exy
▁addiction
opoietic
▁oestrogen
▁(82
lofen
linking
▁complication
▁-7
▁endoscopically
▁endocrin
▁38
▁peroxis
▁acet
▁granulocyte
▁10(-8)
▁pentobarbital
▁hygiene
▁(41%)
oxic
▁migraine
yro
▁ascer
▁Screening
produc
inyl
▁(95
▁HCC
▁prophylaxis
▁14%
▁transcripts
patients
▁mesen
tization
▁distor
imolar
▁Approximately
000)
▁autoanti
8.
▁peaks
▁analogues
▁expectancy
▁30,
posable
▁sphinc
oratory
▁1.3
▁distorted
▁chromosome
psych
▁centers
75
-9
▁placent
ocytes
▁administer
▁survived
wes
▁relevance
0.0
▁supportive
▁(38
▁pene
▁Organization
▁ratios
▁rash
▁olive
LH
ensitivity
▁assis
▁-10
▁overt
▁experi
▁neurologic
significant
▁abl
▁depression
▁seated
aemia
infected
▁effector
▁monos
ipramine
▁excre
▁portions
lycemia
3+
iper
▁hospitalized
▁4.3
▁activates
▁fluxes
embran
omatous
▁(5.0
▁phagocytosis
▁prosthe
▁mediates
▁compromise
▁activators
CABG
ortic
▁modif
Trp
▁albic
▁cytokines
▁stimulatory
▁allogra
▁discrimination
▁Adverse
0%,
▁136
▁macrophages
▁platelets
▁heme
▁molec
▁ultim
thrombin
phrag
▁proteinase
▁cyclic
HIV
▁166
▁babo
▁Antim
▁strom
▁limb
▁99%
8),
▁rupture
▁mobility
▁volunteers
.2%)
▁uncomplicated
▁carcin
▁microtubules
rostenedione
ammonium
▁Computed
▁perioperative
▁Sout
ilin
▁inactive
▁shar
ressive
-6,
▁discontinuation
mol
▁endothelial
▁psoriatic
▁antidepressants
waves
▁28
pyruvate
23
erating
▁activate
▁histology
sia
▁diets
▁contribut
▁innerv
nisolone
▁reti
▁preservation
▁3000
eight
▁gallbladder
▁flexion
▁pretreated
xiety
▁percentages
▁arteries
mide
arum
oxyrib
▁237
▁postoperatively
PMN
66
▁0.6
▁90
oidal
▁Ure
▁cann
alian
▁conclusive
chicine
▁13.3
PGF
▁resin
▁inhib
timal
▁(3%)
-100%
▁TG
omerular
▁mood
▁duodenal
▁gynecological
▁phosphorylation
▁(1.4
▁(76
▁cytoplasmic
▁thalamus
amine
▁0.11
uppres
▁recognizes
ingle
▁hep
▁caution
oxy
▁surgeons
athiop
▁actively
▁ulc
▁myof
glutamyl
▁Leydig
▁histidine
▁(1:
▁oxy
aldehyde
entanil
▁abdominal
▁basal
▁pharmacy
ionate
▁emphasized
▁bundles
(2+
▁abruptly
▁inflammatory
▁Bec
portant
65
▁fibrin
▁EG
▁ovary
▁competent
rection
▁clues
ocortic
▁tumor
▁characterized
▁Optimal
▁catar
▁diethyl
▁CAD
aric
▁mimicked
▁Activation
-90%
▁NSAIDs
▁neuro
▁surgically
▁vasoactive
acet
anazol
omegal
neph
olitis
▁releasing
▁progenitor
▁incom
▁emotional
arcin
▁acidosis
ocycline
▁survival
▁vertebrate
▁distal
▁prophyl
▁COPD
▁ate
▁stain
▁controversial
▁birthweight
▁acne
▁irradi
▁anxiety
lyb
▁lymphokine
▁lasted
olipoprotein
▁felodipine
lipid
geneic
▁(10
sor
▁enrolled
▁0.4%
▁pollic
▁Cyt
▁Inte
▁protec
ventive
atches
Rs
▁ELISA
▁monocyte
▁45
▁diffic
ilical
urgical
▁eliminating
▁immobil
hea
▁sigma
▁unexplained
▁nonc
▁24)
▁naproxen
▁diverged
teroids
▁isch
▁exhaustion
omal
▁57
▁suprac
▁clinically
iotics
oxif
▁discharges
▁perfusate
oconazole
▁Conventional
years
ystag
responsiveness
asone
▁decreas
dihydro
▁Viral
▁protease
▁electromy
▁antecedent
▁advan
atation
▁astrocy
▁unstimulated
▁contex
nthe
▁decisions
▁thymocytes
▁genit
puts
▁TNF
▁fluoroquin
▁compartments
keleton
▁Immun
▁nude
▁10.8
▁exceeded
aund
drug
▁taurine
▁91
umping
▁suction
▁satur
erts
▁10(-4)
▁alcoholic
▁(86%)
rotic
tophan
▁clinicians
▁35-
respon
▁7.2
▁sial
▁pHi
within
moking
▁adverse
olab
ubation
▁controversy
▁proteolysis
▁unlabeled
▁cartil
glycerol
▁descriptions
▁sedimentation
rogen
▁bilateral
▁epithelia
32
aerobic
▁transported
▁distress
▁promising
▁28%
ucas
▁reversible
▁mixtures
macropha
RV
roscopy
▁pharmacologic
▁workplace
lational
.7
▁proximal
vated
▁hig
obut
▁cohorts
▁outpatient
▁hypothesized
▁Histologic
seud
orrheic
othane
▁crystall
▁facilitate
▁29
▁280
lated
▁ejaculation
arginine
▁cys
electron
▁aor
entia
▁severely
▁synthesized
▁septic
▁WHO
233
amuscular
ulates
▁Significant
fibr
▁ethanol
▁tetr
▁10(-9)
▁pell
▁tox
HDL
▁0.91
▁reac
ffinities
▁secretory
zotocin
anadate
PGE
(4
▁normalized
▁hematoma
28
Gs
▁hypertensive
▁triglycer
▁providers
oplastic
erally
▁questioned
▁hazards
▁25%.
▁HF
fused
pinephrine
cellent
Rb
estern
▁capability
▁hybridized
ionine
▁subtilis
oxia
▁urtic
▁(28%)
tices
▁vaginal
tense
▁carpal
▁IFN
▁Salmonella
▁antiserum
▁17%
▁monkey
▁1.15
▁thyro
▁shunt
▁saliva
Ace
systolic
▁glucagon
▁toxicity
▁spermat
thma
▁biphasic
▁isolates
▁60%
▁gyr
▁rearrangement
▁addressing
▁11,
▁propionate
ithium
Ala
oxidation
immunoreactive
arrhy
ixation
ortal
▁monomer
adecan
▁weaning
▁babies
baseline
▁hippocamp
▁lymphatic
▁Eff
▁prognostic
▁Pharmac
tidine
▁depletion
▁mann
▁frontal
▁23%
▁(0.5
-28
dip
sities
idone
opropyl
phorbol
LISA
.5.
▁termination
dered
5'-
algia
▁breakthrough
▁adipos
▁pigment
▁152
▁referrals
▁fractionated
▁lesions
▁isoprenaline
▁(84
▁keratinocytes
ipid
▁Rates
▁salts
▁desaturation
▁positioning
▁proline
▁analysed
iciencies
▁graft
▁edema
anine
▁rheumatoid
▁methadone
▁uncovered
▁180
60
▁92
▁tobacco
▁institu
0%)
bic
▁solids
paired
▁belie
▁interventions
▁awareness
▁demonstrates
▁0.77
▁additionally
▁wound
▁elicit
skin
▁Overall
arynx
GABA
▁lowering
▁sensory
▁-0.4
ergency
pended
▁Reduc
uspid
schem
▁pools
▁traumatic
▁ulcer
ration
▁hemisp
lline
▁docum
▁anticonvulsants
▁infused
▁controlling
3;
▁(60%
cycline
▁30
▁piglets
▁deviations
▁cancers
▁microscop
2-
acute
▁antim
▁promp
▁cardiopulmonary
enin
▁plaques
tition
atest
-7
▁eti
▁antifungal
▁gonadotrophin
▁negligible
onset
▁succes
VT
bac
▁reticulum
▁hypogonad
▁(80
▁ureth
▁0.2,
loro
orrh
▁uterine
inic
▁inadequ
▁immunocomp
▁hemat
esic
▁contralateral
▁guanosine
keratin
▁cation
phosphamide
▁frog
91
ocamp
45
▁enalapril
amic
oxine
▁silic
▁bowel
▁Relative
▁suspicion
▁intron
▁transfection
▁cros
▁mamm
125
astom
Kd
▁60
▁parietal
▁virulence
▁organs
▁multivariate
▁antiarrhythmic
menstrual
unctions
verages
tetra
▁pallid
otomy
▁24%,
▁aspirin
idespread
▁27%,
▁analys
siologic
▁impair
▁disruption
▁densities
▁stroma
▁epiderm
▁14.
roxic
▁PAI
▁undergoing
rangements
▁fibronectin
▁6,
iagn
tia
effec
▁alkyl
▁2.7
▁endometri
ypass
▁negatives
▁ejection
amide
adine
▁lymphocytes
▁placenta
▁euk
venous
▁ascorb
▁bacteriuria
▁bronchodilators
onance
ycline
ivation
▁chewing
97
▁electr
▁myeloid
▁cryp
▁cere
▁Higher
▁Retrospective
▁autonomic
iaz
olerance
glycerin
▁22
▁linkage
mitters
otine
89
▁thickening
oreg
ubiqu
resid
▁lep
▁CK
▁classified
▁viruses
▁tachy
lood
▁supplements
▁1.10
▁drinking
partate
Ba
▁influenz
▁0.38
▁1.25
▁parasites
▁yolk
▁glyburide
inemia
daily
▁neurob
ofluores
▁hypothyroidism
rophob
▁catab
mental
▁41%
▁uncoup
▁hybridization
oreactive
patient
▁antec
▁enrichment
▁diagnosed
oxane
▁detrusor
▁azathioprine
▁9,
versal
▁interstitial
▁ibuprofen
administration
0%).
terone
▁substitu
trients
otonic
▁antipsych
osin
▁mutations
▁odds
▁-0.5
▁correlates
▁1:1
immuno
▁leuc
vus
▁concer
▁enteric
▁0.81
invasive
grees
▁bacteria
▁soybean
▁96%
anesthetized
▁Intensive
▁20,
▁aneurysm
▁intractable
ocin
▁favorable
▁hydrox
▁exclusion
▁inactivation
▁11.5
▁excit
▁isot
▁moiety
▁particulate
▁129
▁Phe
▁Statistical
minal
▁ascites
struc
▁homogene
▁91%
arent
▁2/
▁confound
▁epidemiologic
▁Aden
▁covari
▁feeding
▁plex
aminophen
▁secretions
▁5.5
▁regulation
▁reagent
-60
▁9.2
▁iod
▁anemia
▁admission
▁noradrenergic
mia
▁paradig
▁digesti
ostic
▁achie
▁mercury
▁evolutionary
aline
▁resuscitation
▁compares
phadex
▁6.1
embry
rophen
▁Adequate
▁childhood
yclo
▁allograft
Au
oprolol
▁ET
▁dilatation
BH
▁rehabil
▁nurse
tryptamine
▁antiser
lycer
aternal
▁ascorbic
▁cruc
▁dopaminergic
▁dexamethasone
1:
umulative
▁laparoscopy
▁nonsur
▁150,
▁hyperthyroid
▁indirectly
▁61%
▁PDE
orbid
▁cholinergic
▁HB
ATPase
▁amygdala
▁isoniazid
▁resemble
ariate
%),
▁hemorrhage
omorphine
64
▁mediast
▁scars
▁CIN
▁4.9
▁scle
vedilol
▁acids
▁(1
-2
pir
▁absorption
anide
▁gradual
ntolamine
▁1.1
▁TF
▁Myc
oventricular
▁Gly
▁antidepressant
vul
▁underst
umetanide
▁reacted
tead
▁mild
azin
▁colitis
onin
▁inward
▁conclu
▁Laser
guan
▁fulfilled
acholine
electric
▁hepar
▁unwanted
▁oxym
convul
▁expense
▁Plas
▁0.36
▁exacerbations
▁titres
especially
ittac
▁androgens
oste
renal
acrylamide
▁BP
▁OB
▁immunohist
▁encoun
Lac
▁(1%)
▁2.6
▁bloc
ocytosis
trib
▁enrol
▁reconstituted
▁puber
rosis
▁cirrh
SBP
▁Abdominal
▁allogeneic
▁3-4
otriene
▁autoradiography
▁lumbar
placement
▁nicotine
▁1/2
▁examined
▁androgen
▁contractions
▁231
inated
▁quies
▁crossover
▁0.05
▁quantitative
ovine
▁calves
dle
abec
▁HDL
▁Lactobacillus
▁differentiate
▁phy
IFN
▁mortality
▁(31%)
orphine
▁anticholinergic
measured
▁membrane
olipids
emide
▁ionized
tually
▁motone
▁(28
▁osteoporotic
itic
30
▁ACI
▁carboxy
1,
plast
▁179
▁haemorrh
triglycerid
1).
▁dyspnea
▁92%
▁implantation
▁transduction
▁perception
▁2.9%
uclear
immune
▁radiologists
ocyte
▁Meth
▁0.00
8-
clerosis
▁congenital
zymes
▁quantified
proved
hest
▁cG
▁homology
▁(250
▁cartilage
▁parity
▁(198
▁Eco
topril
▁75%
▁disclosed
▁0.94
-10
abies
▁concomitant
▁Transient
▁newborn
eak
▁uric
▁15,
olig
excluding
▁enzym
apeptide
thromb
▁2.8
▁catalyzed
openhagen
▁articular
▁raises
▁lymphoma
▁accessibility
▁numb
-50%
▁ODC
ophila
amphenicol
needle
▁lactation
etine
▁135
▁(1.2
▁ribosomes
▁36
▁24,
▁167
▁measurable
▁affecting
▁VT
▁specialized
▁cohort
ontal
orotic
▁adjustment
ministration
▁unresponsive
irds
▁cholecystokinin
▁herb
▁Surgical
▁gonadotropin
▁VA
▁ultra
▁lymphocytic
apine
▁restric
icine
0,000
▁continuation
▁RBC
▁staging
trover
ompan
ositol
▁clinician
▁3.6%
▁corpus
▁pathologic
tiveness
▁phos
▁potentiated
▁analogous
▁depressed
ithm
▁abduc
▁thromboembolism
▁0.75,
▁monoclonal
▁kine
▁arrhy
orbent
▁anesthe
ethylene
▁behaviors
yrid
conversion
▁analyses
▁1.2%
▁21,
▁similarities
▁170
▁varies
FSH
ochromatosis
▁(5.3
akary
▁DCA
▁initiation
▁hypertrophic
MDA
rine
▁ceftriaxone
tential
▁savings
▁correspondingly
omical
examin
▁receptor
900
olesterol
▁decreasing
Ta
▁morphological
▁dehydrogenase
▁shifted
▁collagenase
▁comprising
▁162
SMR
arterial
DG
subunit
▁clus
▁ipr
▁discriminate
▁poisoning
▁25-
▁sero
▁8.2
▁GSH
havioral
▁Urinary
▁contras
▁emboli
▁79
▁0,
atinine
deriv
▁hypertrophy
▁knees
▁NMR
▁impaired
▁rhy
▁LM
▁progestin
ospitals
▁20%.
parative
sively
plication
▁organelles
▁(400
▁seropositive
▁69%
▁chan
▁complementary
roxicam
ipril
opathological
▁fluconazole
orectal
▁48
-1.
▁melanomas
▁superoxide
imetry
hydroxyp
▁(84%)
▁163
▁immunostaining
▁hypog
▁methylation
▁equivocal
▁pancreatitis
isolated
▁KD
glut
▁predictor
0)
▁200,
▁conges
▁2,
ranolol
matched
▁identi
hexidine
▁56%
eptic
▁AMP
▁synaptic
▁spectrometry
▁enrich
ocardial
erican
tolerated
▁supernat
▁ranged
ASA
ecal
ventil
▁dental
admill
▁(31
▁7.7
21
▁1.7
▁melan
▁tendencies
atell
▁6.8
idium
tious
▁donor
▁8.6
▁8)
▁flashes
▁modulating
3).
▁irritant
▁PBL
velength
▁embolism
PKC
▁ole
0),
▁requi
▁295
translated
▁mitogenic
▁adjuvant
22
cinolone
effectiveness
▁labial
▁incorporation
▁elu
▁mononucle
▁infrequently
▁tas
trogen
▁168
▁hemodynamics
sorb
fos
▁alprazolam
-88
▁monotherapy
▁spine
▁prognosis
promoting
▁ventricle
ocortical
▁actin
▁ANP
opa
CRP
gestin
▁transfected
aryng
▁manipulation
eptin
▁1-2
ilized
▁healing
▁hyperch
1-1
▁negatively
▁6.6
▁progression
oA
▁obstruction
uminal
▁10(
armac
-24
▁possi
thymidine
▁stabilized
▁trabec
▁antibody
▁thromboemb
▁encompassing
▁Evaluation
▁obstetric
erative
fts
chid
▁substitutions
50).
ydig
▁supra
▁tendons
adecanoyl
63
onephritis
▁21
▁autopsy
▁PCR
▁eligible
tryp
ographs
▁27
▁titrated
▁glycemic
▁2.4
▁sulfonylurea
apse
▁TC
▁inoc
▁crucial
▁pector
▁dyst
▁HS
ulence
61
organic
.8%
EAE
▁acinar
▁90%
▁18
erence
ositive
▁ward
▁gon
lactam
ignant
orh
▁cytolytic
▁71%
▁attitudes
GD
erant
▁ile
▁invasive
▁246
▁antigen
HF
rehen
osts
▁172
▁124
▁mep
▁sham
▁neurom
1]
poor
▁(15
.10
▁10.0
▁subfractions
▁gyn
-1.4
▁deleterious
physe
estim
▁exudation
iary
▁cardiople
tening
▁intraven
irone
secondary
itively
▁(47
▁HAM
▁substance
▁extraction
▁plasmids
mediately
▁employing
▁nervous
▁Abnormalities
itant
▁glial
▁duplic
cretion
gative
▁0.15
▁myocardi
▁metall
▁cis
▁superv
-8,
▁nonf
▁Pneum
▁outcomes
▁injections
toph
▁1000
▁(32%)
▁percentile
▁cream
entif
odiazepine
▁electrolytes
▁Epidemiologic
▁supernatants
▁recipient
ludes
▁inhibits
▁astrocytes
rhea
ventional
▁Doppler
▁paradoxical
▁Sephadex
▁heterologous
esity
▁proteinuria
▁sugars
▁arterioles
▁auditory
62
orough
▁106
▁pharmacokine
▁fluoro
▁cortex
▁intakes
▁chl
▁PF
▁2)
derly
macrophage
▁10(4)
▁artic
restric
mature
-20
▁99
▁spreading
0.7
▁placental
▁upright
▁49,
▁uterus
illion
4).
▁sugges
▁tau
cg
pharyngeal
albumin
▁catalytic
▁palmit
pran
▁AChE
▁150
amines
▁adults
▁tes
▁cysts
▁thrombocyt
gene
▁precipitation
pretation
parathyroidism
▁0.05,
opulation
▁0.62
▁lamin
▁cathe
▁eicos
2+]
▁71
▁forearm
cein
▁Crohn
▁mammals
obacterium
utin
enzymes
▁0.57
▁appra
ilep
▁tibial
globulin
accharides
▁1.56
lactating
▁Engl
▁supplement
▁angiogram
▁suspic
4/
▁6
-90
ystolic
▁spectroscopy
urane
▁treadmill
spective
▁reiter
▁0%,
▁chromatography
6)
▁fluor
▁androgenic
▁saturable
urin
incubation
▁eliminated
ystic
roprusside
spar
▁85%
▁2.3%
▁autoantibodies
dibular
▁postnatal
ociated
▁alveolar
-5
▁brainstem
▁osmolality
chlorothiazide
▁interfere
▁phosphatase
▁glucocorticoids
atonin
▁dehydration
▁ultrastruc
▁Fc
▁Stress
▁peroxidation
positive
▁Groups
▁Therapy
ocompatibility
adication
▁tymp
▁heterosexual
▁technologies
▁promoting
oscop
▁transc
tency
oblastic
▁infarc
▁Cys
▁hypercalciuria
▁TA
▁membran
terologous
▁grafting
0.2
POA
▁clon
PCR
▁deform
▁10(-6)
▁electroly
▁factorial
▁endemic
▁enhancement
alasin
coh
ergenic
▁resected
▁chemot
abin
oconstric
choles
▁spikes
tial
▁solitary
hion
uated
▁degeneration
▁suppres
▁prevalences
coag
ysm
/1
▁chicks
▁prol
▁transverse
▁myot
▁HP
▁85%,
▁Afric
derived
▁(140
iprofloxacin
oflurane
▁phe
acking
Mu
9.
▁stained
▁75-
▁questionnaire
▁cloning
▁transluminal
▁detrimental
▁(9
▁15%.
▁managing
elves
▁alginate
▁posed
▁PGF
▁(2%)
▁adherent
▁Measurements
ietic
▁adolescence
▁fentanyl
▁(45%)
▁sleeping
▁phorbol
▁diameters
▁acr
▁gum
▁cuts
lected
mg
▁initiating
▁suicide
regulation
toxic
▁modulate
rosal
▁sensitivity
▁strongest
▁relating
brain
1-2
/10(
degree
▁seas
▁risks
avir
▁buspirone
▁induces
▁7.0
faction
polyacrylamide
▁metr
▁frozen
▁Lym
orbidity
▁drinks
▁bacter
▁35
▁glycol
▁pediatric
▁Maximal
▁cereal
▁endarterectomy
▁tubular
▁comprehen
▁RF
(6
Daw
▁8,
▁immunogenicity
▁decarbox
therapeutic
▁12.0
▁crosso
800
▁aortic
-200
▁cardi
ferrin
▁dextrose
▁borderline
▁reservoir
enicillin
opolysaccharide
▁strand
▁0.26
onegative
▁sulfon
▁Protection
▁pancreas
▁0%
IAA
▁RAS
thickness
plas
▁marginally
▁difficul
▁haemoglobin
9%
▁0.19
▁surveys
▁veins
ympathetic
eration
▁uncom
vix
▁surfact
00
▁antisecretory
▁40,
▁Ade
ochle
▁(0.3
▁nitroglycerin
ibrate
▁propranolol
smokers
▁hypothe
amycin
8)
▁cromoglycate
▁quantif
▁vitro
▁dB
98
▁deliveries
▁heifers
arity
▁Examination
plications
▁encour
▁menopause
loon
▁pig
oligo
▁8.
rocy
▁nal
▁ensuring
▁neuroleptic
100
vertebral
▁oste
opres
▁dissociation
▁Rats
▁consensus
▁tear
▁respondents
tations
yzed
▁anat
imethyl
-10)
usate
▁lifestyle
▁BMD
biased
iant
parous
▁digestion
oblas
▁clinics
▁accelerated
osan
▁0.03
acental
▁PEF
▁243
6/
▁topoisomerase
▁malabsorption
▁passive
▁dehyd
▁CM
▁hematuria
▁selec
▁stepwise
5,000
▁7.6
▁chlor
-7)
▁glutamine
adrenoceptor
▁(2),
2;
▁haem
fusion
▁62
▁chromat
▁SEM
▁26
▁Tiss
lasts
▁1.24
▁PD
▁fatty
▁dizziness
▁radiol
atrial
geons
.1%)
▁intox
▁retention
xone
▁Escherichia
▁replication
surface
▁albuminuria
▁ana
idate
feeding
▁fric
▁isoproterenol
▁corresponded
▁retinopathy
:1)
▁retard
▁isolation
▁progestogen
▁optic
▁responders
▁nonsurgical
0.4
▁phenyl
Dawley
cells
▁intim
prandial
▁NaCl
astine
▁cortisol
▁prostaglandins
▁neurones
▁hyperthyroidism
▁backgrounds
unts
▁reper
▁excised
rological
▁neutrophil
ilateral
2+-
▁iat
▁unstable
▁encephalopathy
▁DP
▁Biopsy
▁muc
▁voluntary
▁displ
▁chickens
▁13.9
▁polycystic
▁oligonucleotide
16
▁leukocytes
▁genetic
▁locomotor
ophilic
▁enlargement
3),
▁vasoconstric
▁augmentation
▁conducting
▁dichro
transformed
unately
▁ery
▁libitum
▁hemisphere
alic
▁serologically
▁physicians
▁reflux
▁anaesthe
▁assayed
▁genome
▁thi
MG
ziness
▁16
▁modeled
▁suggestive
uracy
▁confirming
▁(78%)
▁dosing
▁0.50
▁unusually
otone
▁-0.8
▁vitamins
▁isomer
polar
ancomycin
▁inters
▁theophylline
▁apnea
4-
traum
▁gains
ranged
▁retinol
▁posttreatment
kage
itrate
▁Combin
▁fumarate
322
▁lact
▁3.4
▁glycosylated
osteroids
9).
tensity
▁tol
▁respir
yronine
omotion
▁.1
▁oestradiol
▁postural
essive
▁3.5,
ikary
▁Consid
▁microspheres
▁asymp
▁disorders
epithelial
odopa
opeptidase
▁OD
▁epithel
▁modalities
oterol
▁clot
▁Impro
▁3%.
ulinemia
▁spectroscop
▁prel
▁estrogen
yclic
▁antenatal
▁hypotonic
rals
▁72
▁1.2-
▁inducing
▁microtub
trial
▁hydrophilic
ycardia
▁acetylcholine
▁practition
▁awake
abd
olarization
fat
▁Thyroid
▁102
LG
▁10(5)
plete
▁junctions
▁lymphocyte
othyronine
▁emergency
▁remo
▁allevi
ethanol
romed
▁mitral
obronchial
▁kit
otyp
cence
tained
▁0.43
▁habits
▁translocation
▁bacterial
▁hypotensive
▁presum
▁puberty
▁3.8%
▁Arter
valine
▁superficial
▁occurring
▁1.4
▁masked
endix
▁1200
▁follicle
▁Additional
otherapeutic
utyr
enopus
▁chondroitin
▁recurrences
propanol
lycemic
▁vimentin
arge
▁constriction
1/
lasting
examination
▁biop
▁equi
▁HSP
tipation
▁cerebrospinal
erance
▁haloperidol
▁synerg
▁deterioration
▁203
ysts
▁diagnostic
▁heterogeneous
▁analyzed
ignific
▁endonuclease
▁arousal
▁107
omatic
▁reas
▁Specificity
▁symptoms
▁proton
▁Gluc
▁contral
▁epinephrine
aturation
quinone
▁omega
▁carbonic
atment
▁bleeding
▁Estimates
▁GE
adjusted
osocial
zinc
▁Purkinje
usively
▁progen
▁symme
▁insom
imbr
/6
▁vertigo
▁0.6%
▁attenuating
▁rectal
▁lec
reases
ching
▁swab
▁Diagnostic
▁intact
+/-
▁23
▁calcium
81
95%
▁assessments
▁cardiovascular
▁absorptiometry
▁44-
▁indication
▁dodecyl
▁synthase
glutination
▁0.05%
itidine
▁weekly
▁fibroblasts
essation
▁glomeruli
▁lactose
▁unchanged
troduction
▁amygdal
-23
▁tracheal
▁ischaemic
▁remin
▁addi
▁titration
▁establ
▁comprised
▁82%
▁reticular
▁conditioning
▁0.1%
▁sarcolem
▁chimer
▁fron
▁collecting
overall
ausea
▁dietary
▁reductions
▁excision
▁sequential
▁quanti
▁atri
rogesterone
▁nodules
▁kDa
ocrit
▁tonic
roxim
horm
▁gonadotroph
▁mRNA
6,
Gly
▁preparation
▁psychiat
▁allele
▁-0.
▁paral
▁demonstrable
▁medullary
▁concurrently
▁Significantly
itary
oxamine
1;
requ
57
▁immunocompetent
▁NIH
illaries
▁sulphate
▁LH
nosis
heavy
▁ionophore
pectively
▁ewes
▁unfractionated
▁thickness
▁muscarinic
▁subend
hern
▁soy
▁latencies
nowled
▁construc
▁progressive
producing
▁hypercalcemia
▁Tn
iliac
▁pyr
▁dermal
▁overnight
ivary
▁radiological
▁Inventory
.3%
▁mothers
LTS
▁bacteri
▁preincubation
▁20%,
acked
flammatory
▁cesarean
tide
dural
▁amphetamine
lep
▁microsomal
▁Cul
▁endotoxin
▁gluc
▁208
▁(94
onatal
▁hypoglycemic
▁PTH
▁substrate
24
▁Modified
▁4-
▁7.5%
▁TI
▁146
▁ank
gic
▁juvenile
▁screening
▁shifts
▁isoflurane
▁coag
▁prazosin
plied
▁brady
tized
▁accep
▁inhibitor
▁79%
▁(200
▁10.7
HN
olum
FEV
▁Newly
adren
incubated
▁mitochondrial
▁activating
▁phosph
▁nore
▁calcification
▁29,
kine
▁stool
▁presentations
▁acupuncture
oves
76
tigo
▁104
▁gp
tric
trating
▁pharmacokinetic
blind
▁implicated
▁surfactant
▁sati
2+
▁chemotactic
▁adrenoceptor
▁corticos
roxy
▁nuclei
▁interference
▁unc
▁NADH
chloride
rought
▁confirmatory
▁acyl
▁myeloma
▁sickness
▁preferential
▁54
▁Dip
▁metformin
▁Eight
▁latent
plies
▁bronchospasm
otox
▁TGF
ffin
osity
individual
▁reinforcement
▁fluorescent
asthmatic
▁ambulation
▁hirsutism
▁integrin
▁practic
▁febrile
▁unil
▁testes
▁needle
▁behavioral
ocar
▁microsomes
▁LHRH
▁abd
▁parat
▁(7%)
▁horseradish
▁prono
▁glucocorticoid
terase
▁preliminary
▁surround
▁splicing
roup
/4
▁inhaled
CHD
▁melatonin
▁agglutinin
9%)
▁preschool
▁60.
44
▁granulocytes
▁subgroups
reactive
gans
▁1,25-(
▁doxycycline
odipine
selec
▁cryst
igaret
ichloro
▁(2.5
▁endpoints
hist
▁3%
▁132
▁28.
imide
osid
▁AH
ymme
dependently
▁metoclopramide
uality
▁dibutyryl
▁crest
▁hydrolysate
▁235
vian
othi
went
▁intensities
▁18.3
▁cefaclor
▁fungus
▁minority
▁provid
▁26%
93
▁pressures
nons
▁perforation
▁phenylalanine
▁damaging
oactive
▁specificity
▁neuromuscular
▁calmodulin
cellular
tradiol
▁luminal
▁synap
▁Intracellular
▁DBA
▁Compared
▁IA
▁demonstration
urine
▁otitis
▁Mild
administered
,000)
▁constituents
▁0.12
incub
▁apne
▁213
▁14,
▁PN
otransferase
▁distin
vae
formations
▁150-
▁residue
▁lumbosacral
▁conjugated
weekly
▁sour
▁lowered
▁1500
▁inconsistent
▁compressive
▁ascertain
▁fasting
▁87%
▁CGRP
icillin
▁indicators
▁adherence
▁tracts
▁paroxysmal
5-
ogra
▁irritation
▁lysates
▁15-
▁nitroprusside
▁pyramidal
▁pancre
▁hepatic
tisol
idol
▁microm
opoiesis
▁athletes
▁18-
▁degrad
▁diz
▁Tyr
terolog
▁angio
▁prednis
▁manufacturer
emetic
thi
▁Braz
▁nasopharynx
▁antioxidants
▁poten
▁residual
▁deoxyrib
▁aspec
▁lysosomal
havi
othyroid
uded
▁BK
▁specialty
▁Seventy
▁emptying
cristine
▁preventive
▁advised
▁sequelae
galy
▁intracerebral
feren
▁extracts
▁AVP
RIF
▁decayed
▁PCO
-1-
▁(+/-
▁hypother
otrypsin
▁algor
▁confers
▁delaying
▁0.0001).
▁supple
▁IgA
▁microtubule
▁hyste
▁malignancy
▁mandatory
▁motif
▁salbutamol
▁transi
31
▁covalent
▁ethical
ereb
▁plasmid
omain
▁prostatectomy
phil
▁NADP
▁vesti
retro
▁(89%)
▁descending
▁thereafter
keto
eptide
▁chemotherapy
▁5.2
▁Extr
sistent
2318
ronchial
aminob
icated
▁-12
▁amo
▁longus
pH
truc
▁Fifty
onazole
▁cofactor
▁colorectal
tions
▁1990
rated
▁analgesics
▁enzyme
injury
▁DL
▁septum
▁CU
idney
▁glucosamine
▁neomycin
sufficient
-70
llate
▁0.
1.1
dominal
BV
alanine
▁lovastatin
▁homogen
▁previ
▁mell
istal
1%
▁Phy
▁hetero
.2
cholesterol
atally
▁Sixty
▁chromosomal
isomer
▁0.75
lli
▁trache
IU
▁diagnos
▁glomerul
7%)
▁12-
▁8-
▁isometric
▁locus
acycl
▁findings
▁Concentrations
▁viscer
WB
▁127
itals
▁shaft
▁immunoreactive
▁drinkers
▁islet
150
phenyl
▁mite
terminal
tage
▁(79
disc
▁coated
phragm
-52
▁vasopressin
▁arous
▁esterase
▁warfarin
▁cate
rof
chloro
▁unrelated
olamine
▁tumors
bilities
▁isozyme
▁subdural
odds
▁replic
▁arising
▁tric
▁dihyd
soluble
▁infarction
carbon
▁CNS
plasia
▁establishing
▁59%
▁tandem
neumon
▁tendency
oxyl
▁yeast
anat
ogenes
cyclic
▁Recently
phot
▁ionic
▁verification
▁glycosylation
-18
inositol
▁nucleotides
toxin
erus
▁ribosomal
idity
▁overl
▁intrinsic
▁0.55
▁drin
4+
▁alumin
▁polymerization
▁forskolin
osyltransferase
▁cosmetic
▁infected
TSH
▁instruc
▁lipoproteins
▁hemorrhagic
▁CEA
▁24-
▁chorion
▁neutroph
ulline
▁tritiated
▁preeclampsia
▁exag
odend
chemical
enyl
▁warrant
▁structural
▁constitutive
ologic
▁1600
▁homogenates
▁amenorrhea
▁alcohol
▁Effec
▁extrap
specified
▁formulation
vely
▁valproic
▁implications
▁bile
▁tonsillar
▁1966
▁angi
ercul
hyd
▁leukocytosis
110
▁EA
AH
igarette
ifedipine
▁thio
▁1.12
▁SRIF
▁cereb
:1
-13
▁infrared
▁spon
▁0.64
▁0.99
▁rotavirus
botic
▁endoc
▁ester
-5-
▁ganglion
Ox
18
▁strategies
15
oag
▁CAH
Bs
▁hydrolysis
▁circulating
▁epithelial
▁inversely
lastic
▁experts
2).
▁perip
▁1,2-
▁SHR
BSA
-14
hydr
▁disturbance
0.5
▁reinfor
antigen
.2%
▁aerobic
conver
▁154
▁Prevalence
▁neurolep
▁chances
testosterone
▁(39
▁therapist
iotensin
0-
▁uninfected
▁194
ranean
▁diazepam
▁concentrate
▁17.7
ethyl
19.
▁(16
▁oligosaccharide
aicin
existing
▁19.
▁5.5,
▁83%
▁90%,
▁responsive
▁repor
▁Veterans
▁blockers
▁pathophysiology
▁metabolite
▁resorption
irradiated
▁Calc
▁beads
▁(20%
▁stimulate
.6%
▁fused
tise
ropha
▁substanti
indings
ocated
▁95%.
yste
▁ovaries
▁Lys
▁typhimurium
▁regurgitation
▁membranes
▁pneumon
ocul
▁horiz
▁1.2
▁chronic
▁sedative
▁Breast
▁carbohyd
▁3).
▁colonic
▁melanoma
▁ABR
placebo
▁infarctions
▁corticosteroid
▁leucine
▁regulations
isal
▁hypercal
▁protracted
▁Assess
▁PRA
▁milder
(1
lycerol
▁(36
▁occult
▁corticosterone
▁.05).
▁pathogens
TN
obacter
▁93%
▁lytic
▁characteris
ture
hydropyridine
▁Angiotensin
RD
▁bromocriptine
▁glycine
urgery
▁DBP
▁focal
vant
▁0.76
▁adipocytes
osomes
▁2.5
▁preferen
▁utilization
▁immun
vascular
▁paradox
▁nitrate
ondr
▁dye
▁comparative
▁inconclusive
▁pem
▁2.
▁(60%)
▁flora
▁contrac
tocin
13.
pecific
opian
▁subcellular
▁MCF
.6%)
herence
tococcus
monary
▁specimen
metic
▁aspiration
umented
sych
▁folate
▁congen
▁(24
▁neoplas
▁antagonized
▁endocervical
ronectin
▁1.03
▁bioavailability
rele
▁irrig
▁withdrawn
▁reproductive
▁cholesteryl
▁visualization
▁magnesium
▁smokers
▁paternal
▁dias
▁fractions
otom
bearing
kle
▁pars
aminergic
otropin
phosphon
▁lupus
▁IgM
▁1.04
uitable
▁semen
depend
Nase
▁Schwann
▁Parameters
▁40%
▁ingredients
▁bactere
▁myocardium
GTP
ganglionic
ervoir
▁Haem
▁respec
orphin
▁ADP
▁biopsied
tability
.0)
▁IgG
occus
8,
tituted
▁123
trated
▁240
▁Mg
▁inactiv
rolog
reated
▁contributing
▁DS
ayers
ialysis
▁80
▁immunization
▁digoxin
ascular
onide
▁precursors
▁doubled
▁potenti
▁coli
▁absorp
▁revised
▁inositol
▁EGTA
▁putative
▁151
▁vascul
eal
▁nadir
mum
▁hapl
▁125
urred
▁lipophilic
ximide
▁131
▁Eleven
▁Efficacy
uled
▁0.06
▁0.41
▁90-
igible
ejun
▁transplants
ergy
▁(5
roids
▁clu
▁inadequate
-6-
ameth
-600
ifferenti
▁patent
▁keto
▁continuously
▁archite
▁abundant
cine
▁abrup
▁inges
▁determinations
▁successive
▁Asi
osteroid
▁expend
▁dendrites
▁TD
▁pleural
▁valve
resistant
ognition
▁hydrolyzed
▁12%
▁5.4
selective
▁Complications
oalveolar
▁89%
▁abscesses
bral
lec
▁interpretations
▁abnormally
▁chloro
▁drain
stem
▁Trial
▁-0.6
▁amn
amethoxazole
25)
▁recor
▁bacteremia
receptor
▁13.2
mber
17,
▁16.1
▁terminus
kground
▁endocrine
▁extensor
▁186
IgG
limb
▁Measure
▁shorten
ophren
▁27,
atible
▁exhibits
▁mU
▁discrep
▁morphine
▁thiol
depleted
othelial
lyte
▁dermat
▁Bronch
▁phenotypic
ficial
▁retina
▁visc
▁sarc
▁respiratory
▁hipp
BT
▁Incidence
▁adenosine
▁chond
▁interne
▁facet
▁triglyceride
▁repeats
ateral
42
▁rup
95
▁perone
▁carbox
▁gastr
▁dramatic
▁traits
▁relapse
"-
▁specificities
etence
▁valves
▁plasmin
taz
adex
tebral
▁utero
tronic
buride
44,
▁resonance
nec
▁cholera
▁elbow
▁(5%
▁dischar
▁enhances
arachnoid
▁mucosa
▁subpop
alveolar
▁LMWH
▁25%
▁subtypes
▁Geor
▁interviewed
▁breeding
▁lens
▁projec
tro
▁neuroblastoma
▁viability
▁58%
▁8.3
▁phon
▁induc
▁cyanide
▁quinacrine
31,
Lys
▁115
molar
▁abnormality
adox
wenty
▁thresholds
▁electroph
DV
▁aden
uginosa
chymal
▁0.30
11
oporosis
achn
arrh
▁daytime
▁micrograms
24,
▁intraoperative
▁facilitation
ovastatin
▁Leu
170
▁pulmon
▁fluores
▁(10(-6)
▁sucrose
▁enteral
▁halothane
▁deterior
echn
iatic
alues
▁bronchoscopy
▁100,
tate
gthen
▁(1.25
▁corpuscular
▁phosphatid
thal
brom
nai
neu
▁cardiomyopathy
▁megakary
▁modulated
41
▁collic
▁immunotherapy
▁pyruvate
▁monolayers
▁16%
▁suspensions
▁Preliminary
fem
▁iso
▁218
25,
PAC
▁50%,
▁mechanisms
▁harves
▁cognitive
▁microscopic
▁ATPase
▁impairs
iological
odies
▁BCG
ordial
21)
▁prolongation
▁syphilis
pharmac
▁skeletal
▁constric
▁119
▁fertilization
▁quantitatively
NSAID
▁neurop
▁epidermis
▁endocytosis
▁peritoneal
▁extremities
sion
opoly
▁concanavalin
▁FT
▁cisplatin
▁trimethoprim
-3
▁(93
▁abstin
▁attemp
arose
▁Hodgkin
lymphocyte
acti
tinguishable
▁obstetr
▁antimicrobial
▁aldosterone
▁elevation
▁breasts
icient
▁accumulation
▁diabetic
▁hematocrit
odil
▁jejunum
▁polymorphism
8;
▁progn
▁255
▁Symptom
▁reserpine
▁ultrasonography
▁Injury
▁critically
▁157
▁TCA
thase
▁emo
▁tac
82
glutamate
▁1,25
▁trunk
oprol
▁mV
▁3.4%
▁worsening
acchar
▁(0.1
▁galactose
▁empiric
▁deficiency
▁halves
opamine
reening
anad
imental
▁bip
▁clamp
kephal
Tc
▁GER
▁Urine
/30
▁1.2,
loid
▁Veter
▁8.0
▁streptococci
-19
geal
▁collateral
▁myo
▁sheath
▁muscul
isole
▁Neurop
▁fluo
MV
▁carcinogenesis
▁grafts
▁precipitated
▁MCA
ticular
7,
SAID
▁competitive
▁4.7%
▁TSH
opam
▁biologic
37
▁thir
cad
▁pM
kephalin
▁Highly
▁decline
▁LT
issive
omn
▁washing
▁pyel
▁20%
.7.
▁unre
▁Golgi
▁ORF
▁periodontal
▁cycling
▁airflow
▁follicular
epine
▁receptors
▁derm
orpor
iliary
▁Nineteen
idase
▁affinity
▁balanced
ancies
▁ACh
ecutive
leukin
▁couples
▁241
▁DF
▁(40
▁cephalosporin
▁2.5,
▁(45
roma
chond
▁centr
timum
▁synthesis
▁surrog
mitted
▁longitudinal
▁Depression
▁ecological
/5
itone
▁2.2
▁0.24
▁positional
▁warr
▁sustain
▁favorably
▁breakdown
▁GM
▁arterial
physiological
etaz
▁judged
▁10)
▁tryptic
▁impedance
▁7.5
entanyl
▁Localization
▁conserved
namic
▁thrombosis
▁HCO
▁GH
▁89
opar
razolam
anthine
▁recipients
▁neurons
/24
alb
2,
▁cyan
▁cystic
alp
▁epilepsy
▁dismutase
▁Sequ
spectively
▁CDC
▁benzyl
tioned
▁oxid
▁compensatory
2+,
▁45%
omyel
olateral
▁axonal
stim
▁HM
-1.2
▁Aspirin
convulsive
bacter
odiaz
▁HPLC
▁presumably
▁contractile
.8
traction
▁reass
opath
dial
ectable
▁radiotherapy
yrate
▁Biol
▁stools
▁practitioner
▁indoor
ductase
orec
ophor
▁vasodil
ococci
▁hexa
▁outlet
▁cough
▁curric
uary
▁fluorescence
▁Cardi
cellulose
▁antiv
tensives
olates
rosine
HB
riched
▁MG
▁morphology
▁throat
▁mediator
▁3;
▁aggregates
▁malaria
absorption
▁exerts
himb
▁0.65
▁cellular
▁treating
▁carvedilol
▁capsule
▁0.82
▁transaminase
▁ib
▁dimer
ellular
▁stimulation
▁homogeneous
otri
▁visceral
▁0.86
ellum
aminoglyc
127
phyloc
▁destro
▁tow
▁phosphodies
▁avoidance
▁regis
▁gluten
rever
odip
▁musculoskeletal
▁Sulf
VH
▁enhancer
inergic
▁tumours
eled
▁carcinogens
inesterase
▁270
▁coupled
▁bromide
itin
▁splen
▁1.19
5.
▁contraception
▁(92
▁investigator
▁gonorrh
▁Apgar
▁emesis
▁islets
▁95%
iteal
▁conformational
▁Animals
▁biotin
tur
antoin
▁interrup
▁stric
▁unreliable
▁1.8
.9%)
etus
▁comparisons
▁predictors
6).
▁Caucasians
urate
aminop
atient
▁palli
omethacin
▁(49
▁1.9%
▁dressing
▁14-
▁immature
▁(46
▁(0
compared
lox
▁Large
▁cystitis
▁hepatocellular
▁incid
▁diame
▁EMG
▁iodine
▁cran
▁peripheral
▁neon
▁ultraviolet
▁augmenting
▁flap
▁pups
▁(62%)
▁rebound
▁azithromycin
▁appreciable
▁helic
tetradecanoyl
▁rehabilitation
▁tubules
rocal
orubicin
productive
vaginal
▁ventricul
▁cutaneous
methyl
▁Estrogen
▁chest
-2)
▁(18%)
dU
▁evid
▁psychosocial
▁cep
▁methodology
▁scinti
-1.1
▁epit
▁mAb
▁intracranial
▁Magnetic
astric
▁arrhythm
uantitative
▁resistant
▁instr
▁parac
ylline
▁kain
ulose
▁curet
arthritis
▁beverages
▁turnover
▁catheters
▁cathepsin
▁(9%)
1-
▁symptomatology
▁weakly
▁4.
▁esophagitis
8]
phic
▁buc
90
▁laparo
▁cyc
▁nuclease
▁(197
▁(1),
▁catheterization
/8
▁5-
▁Diets
▁problematic
▁AGA
▁4-5
unting
▁Combinations
▁slowing
▁conduc
▁sensitization
vastatin
-1.3
erated
▁63%
tak
▁spontaneous
▁Respiratory
▁transcription
▁galact
▁identif
siveness
centered
▁52
evoked
▁assessed
▁159
osom
▁outlined
▁arachidonic
▁lobe
▁Experiments
.1,
lamydia
uplex
ivac
▁axial
eptid
▁surgical
▁titer
▁vacuoles
▁regulate
otting
▁xen
▁weighed
▁42
+-
irradi
▁ischaemia
▁lute
▁panc
violet
tir
▁adrenaline
▁onset
▁normalization
13
azone
▁HTLV
▁stratified
▁subunits
▁PGI
▁mitochondria
▁2.7%
▁pneumonia
rocytes
74
▁pacemak
▁implants
▁65%,
modulin
sis
exposed
pressure
hydramine
▁(150
▁fluids
▁Cooperative
▁fertil
hydro
▁UTI
▁kidne
▁6.4
acterial
▁scalp
▁RNA
▁lowers
achial
0).
▁oss
▁evaluations
▁scans
▁fractionation
▁FSH
▁mesang
oscopic
▁erythrocy
tumor
▁elective
▁137
▁vibr
▁Tolerance
▁calorie
12
▁vitamin
▁Dys
tally
LU
liters
▁(32
▁killer
▁BMI
▁clinic
▁bronch
-8)
iably
▁behavi
▁0.3
▁cement
Fs
▁sulfonyl
▁implanted
chym
▁periv
▁deter
▁progeny
▁bronchodil
inely
acrine
▁tricyclic
Leu
▁Gyn
▁submaximal
opi
▁recruitment
▁gestation
▁examination
diagnosis
aterally
▁Differences
▁jejunal
regn
▁Cycl
ochondrial
▁ampicillin
ximum
▁pancreatic
tub
▁retic
▁transduc
▁profound
▁priming
▁Individual
▁connec
visc
46
▁erythropo
▁nights
▁symp
▁apolipoprotein
▁hepat
▁imaging
▁ANG
viral
▁biochemical
▁commercially
▁limiting
▁Bacter
▁Diagn
▁Comparative
▁rickets
▁saturated
serine
▁(5.1
itoring
▁radioligand
▁unpredictable
TNF
-]
ongue
▁Incubation
▁targe
▁refrac
▁suppor
▁localized
Pu
▁cotrans
▁laminin
ially
oplasty
ervations
▁stab
itamin
▁deposits
▁cleavage
uris
▁37%
▁hyperb
LN
▁regen
▁1.75
uates
▁(14
minute
otre
trimester
iterranean
▁acco
▁4.6
▁embryos
▁neuron
were
▁5%,
firmed
vate
34
▁subjected
▁excretion
▁30%.
▁proteins
▁rhesus
▁incub
nitine
▁bilayer
▁smears
▁70
▁incontinence
▁discre
▁HI
entric
iatum
▁dairy
▁differen
alities
▁eradic
30,
pain
▁excreted
▁dilution
▁correspon
Gal
treated
▁promo
▁ADH
▁harvested
▁156
▁questionnaires
▁fibre
▁113
valvular
▁unsuitable
▁etretin
▁recalled
▁cardiomegaly
merc
▁preval
▁tissues
reast
▁hydrochloride
phyrin
▁headache
▁premenopausal
▁Pain
▁transmembrane
▁cavity
▁Ninety
▁spontaneously
▁menstrual
▁gm
▁ambulatory
5%),
▁FN
trast
700
trop
▁stren
nate
subs
▁prolongs
▁injuries
▁Testing
38
▁retur
eptidase
▁elicits
▁conditioned
▁frac
iminary
79
-3)
▁Cells
▁bleomycin
opped
▁gelatin
▁promoter
▁evaluates
▁anastomosis
▁minimally
▁examinations
▁0.49
okine
▁elevated
▁ocular
▁evac
▁comprehensive
▁nonselective
▁colic
vaccinated
ohyd
-3,
▁tissue
▁euth
dividual
▁eryth
leural
▁10.2
▁Swed
riamycin
▁intral
▁(1)
electro
▁contraceptives
▁6.0
▁insoluble
▁unrestricted
▁reveal
aturia
▁myelin
▁physiology
-96
▁manifested
▁psoriasis
▁0.025
ditions
fied
▁streptococcal
▁EE
▁striatum
▁pneumococcal
▁Thin
BMI
▁slows
▁209
▁Adh
▁NP
▁(12
26
▁1.5%
▁118
▁multiparous
▁pharmacists
▁poin
▁0.05),
ritic
-1.6
▁microb
▁Sleep
ypro
▁0.01),
adily
▁termed
otin
tracellular
anuary
▁acetate
▁urinary
▁glycosyl
▁menstr
benefit
▁amph
▁TPA
▁vag
▁logistic
▁noc
▁grading
▁radicals
▁Beta
▁lungs
1%)
▁hydrop
stolic
▁crude
▁derange
▁(50%)
ceptive
ogenesis
achol
▁hematopoietic
▁bone
▁homogeneity
▁spind
▁gloves
▁(30
▁optimally
trate
brids
▁pathological
tivity
▁pound
▁Identif
sian
▁1988
owever
DH
▁evolved
-4
trition
▁mammary
▁choles
sparing
▁ack
(2
▁substituted
lovir
▁quin
▁inflamm
5]
▁GMP
▁ethn
ohnson
tiz
▁spasm
tribution
opeptide
▁hormones
▁gingival
opsy
otherapy
odone
▁nucleus
▁Infants
▁18.
ipitation
▁0.42
▁anaerobic
▁29%
▁MCV
▁fibrinogen
▁spray
▁counterparts
▁HBsAg
▁adren
▁polysomn
▁10,
▁irreversible
8+
▁airway
standardized
▁envelop
▁calculi
▁universally
erebral
▁pituitary
oriented
▁harmful
ochem
activation
/100
ituitary
▁dissec
▁colonoscopy
chlor
▁ventral
▁larvae
▁gangli
▁pregn
▁triad
▁antigenic
encephal
iodarone
▁focusing
▁contracep
roline
▁precur
▁1.17
▁78%
sied
▁hydrogen
▁biopsy
▁-0.0
▁swabs
anav
▁Secondary
▁CABG
▁reversal
▁quantit
▁tympan
▁70%
▁endurance
ithelial
Ls
PMA
▁biosynthesis
86
roat
▁distinguishing
▁audit
▁fossa
▁173
▁CMV
inating
▁plotting
▁deficits
▁yiel
-)-
▁terminals
▁exert
olute
▁shortened
▁adenocarcinomas
oxygen
▁anxiolytic
▁Hig
allium
▁0.22
▁epsilon
▁aggres
portun
pig
▁RP
▁3.7
onucle
▁accumulate
▁potassium
▁neutrop
▁comparable
▁126
▁Intr
▁ischemic
▁practitioners
Barr
▁CBF
▁hypon
▁posi
▁repl
▁oxidation
IDDM
▁viral
lact
▁anxio
incip
ygdal
tructed
▁accidents
▁adduc
iron
▁(18
ymal
itness
▁observational
▁13.
▁predic
▁28%,
▁renders
▁EB
▁reser
triglycer
▁MAb
induc
▁(4.0
▁radiography
vac
▁whey
▁ornithine
▁hybrids
▁skinfold
olones
▁Forty
▁calcified
mmol
▁reflects
helix
ocyst
thanolamine
▁ulcers
▁ranitidine
emory
▁declined
▁285
▁postinjection
roglobulin
▁illness
Ni
▁expressing
▁Indo
▁nylon
▁mM
▁obstructive
▁failures
▁regar
gressive
ongest
duced
organisms
▁3.7%
▁chromosomes
▁postprandial
sensitivity
▁revascular
▁systemic
▁disposable
ANF
▁nonsmokers
▁concentrations
▁sequenced
▁polymorphic
ocys
▁Krebs
▁enzymes
▁(71%)
▁recommendations
▁rheumatic
exc
itre
Ps
▁averaged
▁0.79
▁nodule
▁PPD
▁Severe
▁(50%
▁dismut
▁leu
-70%
▁recordings
▁parenchymal
▁sepsis
inol
tensive
▁66%
▁1.06
ochemical
▁antis
▁chol
blood
▁pefloxacin
▁predis
olam
▁plates
ymethyl
▁nutrient
▁recur
▁fever
▁Ace
rement
▁(0.4
▁acros
▁Haemophilus
▁ald
▁4.2%
▁satis
ivered
▁crystals
apride
▁exceeding
▁predominant
▁cultures
▁0.4
▁vaccine
▁immunological
estis
tically
/18
▁-3
▁750
▁0.90
▁vesicle
▁50,
PAGE
▁elution
▁WK
▁conflicting
▁Intravenous
▁excluded
cessive
▁dorsal
▁preexisting
▁(1.9
▁lactulose
ominant
▁oximetry
▁inversion
▁VV
illar
▁spindle
▁(3.0
▁thrombin
▁endometrium
▁cardio
▁0.000
▁suppressive
▁swim
▁strips
▁meal
▁plantar
pirone
▁virul
▁normotensive
(1,
▁6.2
▁fibrob
▁congestive
▁indications
ochrome
▁epic
▁adenovirus
GFR
0,
▁dramatically
▁ointment
▁10%.
1);
ratic
aminase
KD
ositi
▁thyroiditis
▁throm
▁subjective
-[
▁Clinical
▁[1
kers
▁efficacious
▁glutamate
gangl
▁hydrolys
▁deformities
▁doses
linked
▁34%
▁0.5%
▁electrical
▁cooling
▁ammon
▁adenocarcinoma
▁medial
▁inducible
5)
▁cultured
tism
rotid
▁circulation
EMG
ensory
▁(10.
▁unexpectedly
those
▁bac
▁dextro
▁decarboxylase
▁benzodiazepine
▁Replacement
▁expiratory
▁characterize
▁accumulated
▁matur
rofen
▁RI
▁attending
▁ANF
tenance
pore
▁monomeric
blinded
▁PMA
▁molecule
▁Vmax
▁endocardi
acetic
▁Simult
5%).
▁scaven
▁optimum
▁caro
▁DSM
eroxide
incidence
▁benzo
▁0.66
▁Cardiac
omann
▁simulated
▁77
▁HA
ilol
▁Chronic
▁discom
uretics
▁macromolec
▁rabbit
▁desensitization
▁shedding
oprostol
▁0.25
▁irradiated
▁substantia
▁neutralization
oplasm
▁1.7%
▁Calcium
▁graded
ylic
▁tubule
▁acceptor
▁denaturation
▁accompanying
▁Tx
▁139
▁112
ipar
ufficient
toxicity
▁amplified
▁sarcoma
▁reflexes
▁adequately
▁isoform
▁1969
▁Bmax
consuming
rogenase
▁eradication
tant
▁ovari
ximal
▁stromal
▁alkaline
▁nonex
adder
▁cotinine
▁synthesize
seven
▁BV
▁relie
resis
▁lutein
▁painful
▁hydrophobic
▁cistern
▁embol
▁tuberc
ifornia
▁pylori
odopsin
▁adhesion
atosis
erents
opharynx
ocial
▁psychomotor
▁fructose
ifugation
▁ECGs
▁[14
odeoxy
phage
▁DNAs
▁immunogenic
▁pyrid
▁transforming
▁Sertoli
▁effectiveness
vaccination
▁vagin
lobin
keletal
haled
▁myosin
iruses
4,5)
▁irregularities
▁54%
responders
21.
RM
▁undergone
atite
▁warts
▁1964
▁interferon
▁adenocarcin
▁vancomycin
92
-3.0
▁hypocalcemia
tetr
▁Almost
imination
ALT
▁complaints
9]
▁55
▁206
▁predisposition
▁vaccinated
eclampsia
diabetic
▁84%
▁ganglia
▁percutaneous
▁resultant
▁antigens
▁mum
obarbital
▁expulsion
ocytopenia
▁bronchodilator
▁purine
esthe
▁allergen
▁dentate
▁Initi
luc
▁dyspepsia
anate
▁titr
▁Alz
▁abnormal
▁(8%)
otypic
rangement
oea
▁reactive
untary
▁cerebro
atified
▁multic
▁103
▁16%,
▁hepatitis
ucle
▁phosphorus
enol
exercise
molality
▁helical
tured
▁cyclosporine
▁1.00
lymer
atrop
153
otoxicity
purified
crib
▁pathway
osylated
histamine
▁survivors
-17
▁4.1
▁infrequent
▁methotrexate
▁rectif
planted
▁widespread
etoprotein
▁escal
▁hemorrh
▁9.5
▁duct
▁inflamed
▁gland
▁mitochondr
▁Inhibition
▁maneu
▁catecholamine
retic
▁smoking
predic
▁chec
▁heterodim
hetamine
▁MF
scherichia
bloc
▁regimens
▁hered
▁ciprofloxacin
matic
astolic
▁0.2%
onomic
▁4;
CDC
uoden
thmia
▁recruit
▁retrospective
▁poorly
▁choline
etween
▁anae
▁clomiphene
▁Maximum
▁phosphate
▁elast
▁PMS
▁erythroid
▁polys
▁disturbances
▁Infection
lyc
▁mutagenesis
▁0.2
▁inpatients
▁recessive
▁positively
ytoin
▁adjusted
▁pregnant
▁105
▁regurg
asions
▁effusion
pyr
mur
▁drank
osol
▁(56
ocaine
arly
0.
▁volunteer
ocyan
▁3.9
▁persis
▁answ
▁glycosaminoglyc
▁1991
wann
Glu
alazine
Km
▁145
▁solely
▁Raynaud
▁0.01
▁inhibiting
▁uptake
▁increas
avail
emin
▁anhydrase
7]
▁drugs
tissue
Phe
▁displacement
▁adipose
▁rati
▁proteoglycan
▁gonad
▁mitogens
▁dex
▁brom
teryl
iol
▁5.6
icep
odg
EGF
0.8
▁iodide
(3
▁urea
▁hyperlipid
oproterenol
▁cholest
▁antin
▁epidemiological
▁merit
omeric
▁1.09
gestrel
▁5%.
cepti
gents
▁monke
87
▁disappearance
▁ovine
tral
▁mutation
urther
▁deficient
myc
▁arachid
▁contamination
▁weakness
▁exagger
▁0.07
▁heterogene
▁messen
▁abrupt
▁anaesthetized
▁chronically
▁3.2
▁subpopulations
▁abr
rested
▁7.1
bA
▁antithrombotic
teroidal
▁220
illance
▁EBV
▁evaluating
difference
▁determines
▁preserving
▁aluminum
▁1960
▁vacu
▁PMNs
▁nondiabetic
▁anesthetized
▁fluorescein
specificity
▁suspicious
▁108
:3
▁NAD
loidy
▁availability
▁encompass
intensity
phosphor
▁monolayer
▁300-
▁meningococcal
▁discus
▁olig
PTH
▁0.98
▁Clin
tration
gesia
SOD
▁pathogenesis
tened
9,
▁withdrawal
romy
600
▁targeted
▁depolarizing
▁subcutaneously
▁(68%)
luores
utyryl
40)
istar
▁nM
▁antagon
▁sympathetic
▁wearing
eliac
▁26.5
▁ICU
apanese
▁nitro
▁polyclonal
strand
▁emulsion
▁laboratories
imid
▁phenomenon
▁prophylactic
▁favoring
▁certainty
▁excessive
otent
▁resc
▁(42
lym
▁Tran
itum
▁vena
▁4000
▁drip
▁pall
omotor
▁7.9
phthal
▁AK
temperature
icidal
Asp
▁antacids
▁readings
urnal
▁influenza
▁intensive
▁(69%)
▁transferase
tigmine
unsaturated
▁252
cAMP
▁altered
tingu
▁synov
▁analogue
oscopy
▁inherent
▁provoke
▁scl
▁Taken
zine
atched
tin
▁96
▁enroll
▁depolarized
▁acqui
▁nulliparous
▁cDNA
▁BW
charged
▁fulmin
▁phenotype
▁retrograde
ofl
odium
▁ovulation
▁(2-
▁cure
▁insignificant
salt
▁salivary
▁sarcoplasmic
▁Staphylococcus
▁exerted
restingly
▁lipid
▁chemicals
glutin
2/
▁38%
▁SOD
▁256
▁resear
▁facial
▁biased
osm
▁Progesterone
▁renovascular
▁phosphoinositi
▁0.001
▁systematic
▁lith
▁whee
omies
▁parox
teroid
▁accessory
▁acin
tectable
▁40%.
▁OC
▁singlet
reased
▁6.9
▁Hib
▁fecal
▁(90%
conventional
ocytic
tisone
▁obstetrical
urium
amino
assay
▁23,
▁intravenously
pation
oxazole
▁ischem
▁beneficial
▁neoplasia
▁underestimated
▁BAL
atid
dose
▁ovulated
prising
▁ileum
▁equilibr
▁reag
▁intense
▁cDNAs
▁0.08
▁degen
▁2.9
▁mobilization
73
▁muscle
/10
▁1.
450
▁Hypertension
HRP
performance
butyl
riton
▁infancy
▁stratum
▁tetra
▁212
molec
▁intubation
▁beats
▁100%
▁onc
▁61
ternational
nish
▁(17
▁3',
▁rigor
▁detec
▁defic
▁commerc
▁adjustments
▁Combined
ejection
▁natri
▁convul
▁sonography
TCA
00-
▁100,000
RNA
ozo
▁Combination
▁Subjects
ocular
▁hormone
▁0.71
▁psor
▁intracellular
ilization
▁vivo
▁nedocromil
▁Copenhagen
ostr
sants
▁Hz
imodipine
▁(4)
crip
astases
▁asymptomatic
▁chlamydial
iability
▁steroid
▁histologically
▁biopsies
0.9
▁Pregn
▁diagnoses
-35
▁counseling
▁tryp
▁contaminated
▁electrically
tile
tified
▁caudal
ylamide
heximide
▁indis
▁dilated
▁72%
▁sterol
gol
50,
▁functionally
▁retinoids
▁cones
2%
▁imaged
erose
▁pretreatment
-100
omod
▁121
▁chorionic
▁congestion
▁targeting
LDL
▁adversely
rospor
▁polarity
▁striatal
▁interf
▁18,
▁redox
▁HbA
▁gestational
▁VO
blockers
asting
▁cataly
guing
▁0.01).
ocalization
▁micron
▁cerevisiae
stin
▁newborns
educ
ields
▁staining
avirus
▁perox
▁instrumented
lamin
▁phenobarbital
▁zym
▁corne
▁colectomy
▁257
59
▁273
thmatic
▁Radi
▁neoplastic
▁contraction
▁physi
▁80%
ruc
▁detergent
toid
▁zinc
▁caudate
oyl
oprec
▁semin
▁macrophage
RP
▁infiltration
▁antidepress
▁oxidative
▁produc
▁trachea
▁Drug
▁ferric
roscop
▁CCK
MHC
▁adenomas
▁31,
tiary
▁theore
/3
▁100%.
▁Dex
▁RS
▁efflux
▁12,
▁HSV
▁heating
▁antisera
▁fetal
▁alleles
▁80,
▁PGA
.1
ections
▁palp
▁2.8%
tron
uncture
▁parie
▁metastatic
▁Feeding
▁2%
▁synovial
average
acetate
▁discon
iferative
▁transit
96
▁medulla
▁serology
▁17.
▁lisinopril
kling
▁350
▁Holter
▁1.6-
▁uncommon
butamol
acting
▁agonist
▁LVH
affinity
▁restor
▁abdomen
▁0.1
▁prescription
rolase
▁prednisone
▁menses
▁donors
meas
▁linearly
▁hyperther
ietin
▁colonization
ensitized
▁ventricles
▁ineffective
▁indi
47
▁testosterone
ginine
cephalic
▁sti
ocarcinoma
▁folding
flurane
▁carp
▁cAMP
obacillus
▁estrogenic
mitter
▁purification
esting
▁coronary
▁transplanted
perature
1)
▁1983
▁incontin
▁truncated
ilibr
▁respon
asic
▁colleagues
▁Pretreatment
roso
vents
rospinal
ials
▁Hep
▁parasite
▁desm
diagn
▁thiaz
▁scarring
▁diacylglycerol
fibrozil
oxone
-25
▁conjunction
▁computerized
▁redistribution
▁trigeminal
▁chel
▁171
▁kinetics
▁mutants
▁libr
▁colchicine
natal
ervical
▁decade
exis
▁occluded
20.
▁reinfection
▁succinate
▁elucidate
14
▁blast
▁cytometry
▁coenzyme
▁Statistically
▁glomerular
▁exploration
▁extracellular
-12
ucine
▁leakage
▁88%
ralfate
rae
▁ureter
▁0.8
uccessful
.5%
▁2.4%
▁unex
▁terfenadine
▁inver
▁ipsilateral
▁Diabetes
▁cortic
▁clamping
▁7-
▁vasodilation
hep
onstric
▁hydrophob
▁perfused
▁(27
▁monkeys
▁Factor
▁Hg
▁transporter
▁decreases
▁SLE
▁accumbens
romic
▁nonsteroidal
elec
▁visualized
3/
transferase
▁8.8
kelihood
▁stratif
▁metast
▁accid
▁participating
LPS
▁11%
vices
glucosidase
▁regulated
helin
▁histochemical
▁shel
▁prolonged
▁0.05)
▁researchers
▁1.4%
▁12
▁grain
casein
oxin
▁Diabetic
▁1.0
▁hamster
▁caffeine
▁15
▁glycoprotein
ogeneic
▁Streptococcus
controlled
▁elastic
105
▁penile
▁7.4
▁lacks
▁239
▁TIA
▁0.7,
▁unrecognized
▁differentiation
▁polysaccharide
▁reticul
▁nifedipine
ressing
▁helix
▁transmitted
operatively
▁arrhythmias
▁(-)-
▁10.
▁hepatomegaly
▁3.3
caro
▁0.27
platin
▁antic
▁NMDA
▁(63
opathy
gesic
glyc
2),
▁sensitivities
▁steroids
400
▁symptom
▁scintigraphy
othal
▁physiologic
inj
▁cervical
▁adap
▁femur
▁selective
▁vesicular
▁barrier
oplasia
peptide
▁vaccines
amel
Sepharose
tox
tent
▁originating
▁dysfunction
▁standardized
▁bic
▁133
romatosis
▁activator
▁197
▁papill
▁mannose
9;
▁fathers
atical
▁recurrent
▁titers
BMD
▁classifications
▁0.61
▁assay
▁disper
▁Pt
rein
▁undere
▁2%.
▁pts
▁adenine
▁1.02
▁unco
▁incubation
▁10(-3)
oric
-11
▁infants
▁40-
odine
▁pathology
▁verbal
rhy
▁albuterol
▁1.4-
opl
▁188
▁depressive
▁exaggerated
▁cerebellum
▁stres
▁pharmacological
▁circulatory
▁angl
ovalent
ctomy
▁Benz
▁stabilization
meg
ophosphate
+)-
▁grafted
▁postpartum
carbohydrate
4)
3.
▁creatinine
indolol
▁aberr
▁detectable
angi
lective
ept
▁meth
▁invasiveness
resist
duc
▁lipase
galact
osensory
▁mening
▁cGy
▁pulses
▁pacemaker
▁relieved
PB
▁alters
.9
▁anes
▁catabolism
▁yielding
▁fourteen
isol
▁blas
atab
tual
10.
▁76
tosis
-1.5
resting
10-
glycoprotein
osac
▁orthostatic
oxifen
oustic
▁fist
alate
▁intercellular
▁diploid
▁bedtime
▁experiencing
oretic
gian
ograms
maximal
▁electrocardi
▁potencies
▁randomization
▁heavi
▁308
▁implic
grams
clusive
▁10.4
▁strains
idym
diastolic
ffec
mentation
echan
▁leukemia
▁Nons
▁overe
aning
coronary
▁indus
▁inoculation
▁nicotinic
tabl
▁disrupted
▁doubling
▁Abnormal
-80
▁bovine
dies
▁homolog
▁esophagus
rected
▁GF
edded
▁arthritis
othiaz
▁allergens
▁(2.6
▁ipratropium
85
▁(25%
-40%
potassium
idation
▁enlarged
▁morphologic
▁freshly
oproteins
▁polypeptide
posure
▁possesses
▁3.5
▁3.1
▁rhin
▁electrode
▁unselected
▁Individ
iosis
HV
osides
▁morbid
effects
▁EMA
hexyl
▁21%
▁conservative
-78
▁simplex
tants
alc
▁reflex
▁1.5-
▁0.01)
▁incompletely
iplinary
ithi
roprus
▁soleus
▁FFA
.8%)
▁Biochem
jury
▁glyc
▁radionucl
▁pate
▁nasal
▁femoral
▁lacking
duction
osacral
▁supr
▁(1,
▁HCl
▁amylase
▁0.84
▁64%
▁128
CAM
ipolar
▁hairs
▁bumetanide
▁nip
17
▁formulations
▁clearance
▁3.
▁anomalies
▁suppression
▁bism
▁palpable
▁cations
hCG
▁trigg
▁(11
myocardial
▁triamcinolone
▁arrhythmic
tum
▁hamsters
▁oral
usions
▁arteriosus
trical
trous
▁tablets
▁adolescents
5%)
oic
azepam
▁thalamic
▁mammalian
cancer
ermal
▁4.8
Cer
▁Nit
diagnosed
rography
▁0.89
5%.
▁GAD
dipine
▁bp
54
specifically
greater
luent
▁anemic
▁asbest
▁illus
▁vulnerable
atients
▁heparan
▁angina
▁183
▁impairment
▁etiology
throm
luding
▁arth
▁prematurity
▁carrier
iscal
49
oprotein
▁qualit
▁pulmonary
▁examin
totic
encephalon
▁horm
▁19
▁hypocal
▁PDGF
▁osm
▁paralle
▁relaxation
58
▁bilirubin
▁proteoglycans
ducing
▁adenylate
▁centrifugation
▁heterozygous
cardi
▁mg
▁neoplasm
▁13,
▁exhibited
▁abor
▁Alzheimer
▁Biopsies
50)
▁phospholipase
adian
▁attitu
strain
▁controver
56
7;
▁Oste
▁estimating
▁(70
▁cephal
reasts
▁nucleoside
▁9.0
-5.
2.
fib
wk
▁Fib
▁tubercul
▁erythrocyte
▁gradi
mega
imentation
10,
▁multim
▁UDP
(2-
ondon
▁perc
arbonate
▁97
olism
14)
▁nicot
▁alcoholics
▁consumed
▁MMS
/2
▁accounted
▁bolus
▁0.7
-50
.3.
clonal
▁tubes
60)
▁RII
▁diabe
000
▁extracorporeal
himbine
▁dele
▁sensitized
▁predominantly
▁durations
▁TCDD
▁mice
tagland
▁1986
pinal
▁therapy
▁antif
assessed
▁abortion
▁deple
WBC
▁10(9)
▁cytotoxicity
▁OKT
-1
ophysical
ygen
▁microns
median
▁(15%)
▁stripe
▁bradyc
amily
ductive
▁glioma
▁coeff
▁Steroid
▁improves
angiotensin
▁blister
romes
▁650
▁phasic
▁choro
azole
olgi
▁adip
ovirus
▁involvement
1/2
▁(97
tam
lycero
▁starvation
▁dox
▁inapp
lux
rosophila
receptors
▁reactions
▁serotype
classified
flamm
criptions
altered
▁4%
onuclease
▁hippocampal
ohns
▁intestinal
▁injec
▁VP
▁acidic
hers
▁overload
trient
84
▁discharged
gold
▁lys
methoxy
anking
▁trend
trac
quid
▁deduced
otype
emias
fiber
anol
▁linole
▁efficacy
Ga
▁(300
▁cysteine
▁disulfide
PSPs
▁33%
▁adequate
▁62%
▁110
▁responded
ticle
idis
▁diagnose
▁VH
▁Treatment
▁(5%)
ths
xanthine
▁hematologic
opathology
▁abortive
▁differing
▁Graves
▁solubilized
▁Basal
▁2-3
lodipine
▁LD
▁recons
▁calor
▁intravenous
83
▁mucos
▁kidney
▁75%,
clin
oceptor
-1).
orenal
▁49
dihydroxy
▁tracer
teric
6;
tors
▁restoration
gland
▁reductase
▁precipit
yrox
▁2.6%
tering
tracted
▁Unlike
▁colpos
▁serolog
▁tic
stimulating
▁dissociated
hydryl
▁blots
▁postinjury
deficiency
▁histological
▁mmHg
▁cytoch
▁(69
▁5
oxetine
▁scrotal
moid
▁spleens
8%)
▁carb
essment
▁IGFBP
▁hydroxylase
▁kinetic
▁embryo
▁50
▁RIA
▁160
olytic
Cs
▁epididym
▁117
8%
romised
▁inducer
▁olfactory
▁182
▁Surve
▁ESR
▁plasminogen
▁mec
▁canine
▁5)
valent
radi
▁Protein
aind
▁nig
▁creatine
omycin
53
▁succin
▁daltons
4]
▁methacholine
▁tachycardia
▁anticoagulation
▁275
▁instrum
▁radiolabeled
fluoro
▁isoelectric
rays
yx
▁Melan
▁(16%)
copic
27
▁gentamicin
14,
etitive
trypsin
▁topically
▁filaments
erable
▁echocardi
▁(58%)
▁0.33
▁therapeutic
athy
thyl
onvul
▁stere
monella
▁haplotype
ogenous
▁12.5%
▁ACTH
▁margins
▁carriers
adequ
▁isozymes
▁superiority
▁56
olated
stant
▁phagocytic
▁kits
▁phosphatidyl
ioid
▁hypertro
▁promptly
▁yohimbine
▁electrophoresis
▁Tissue
aginal
ospor
▁0.9%
▁CsA
▁somat
▁identifiable
jected
omyces
idated
▁affects
▁slowed
▁kary
▁localization
▁syngeneic
acyclin
odular
▁injected
▁lateral
▁exploratory
▁flour
ncy
▁fenoterol
▁1970
osum
▁approx
propyl
▁perfor
globin
onam
lyce
▁blocker
▁kinases
▁cortisone
▁215
▁facilitated
▁Rating
dR
▁hyperg
▁(21
actin
ACh
▁mating
▁analogs
▁immunoglobulins
▁genital
▁sexes
-34
phrine
▁glands
▁10(6)
▁pathways
▁mutagenic
▁hyal
▁curriculum
-2).
▁regulatory
▁efficac
▁(26
osal
▁adenoid
▁1989
▁(1.5
▁fulminant
▁500,
▁192
▁CVD
▁233
▁1%.
▁93
ureus
▁joints
▁mcg
▁0.02).
▁enti
▁identically
Hg
▁263
▁muscular
▁ions
sives
uterine
otassium
▁radioactivity
thoracic
▁defective
initiated
▁58
▁ips
▁serotonin
opic
▁beha
PV
▁consecu
▁messenger
▁meperidine
▁penetration
vation
▁35%
▁Exc
▁clonidine
phyl
ineal
▁descriptive
etan
▁benzoyl
▁neuros
▁challenges
▁Subcutaneous
▁humoral
▁GHRH
▁DMP
▁promoters
30)
MH
▁constituted
lora
▁Antibodies
▁50%
▁erythromycin
▁carboxyl
▁1985
▁sca
▁knee
▁menopausal
▁ure
▁guidelines
▁uro
▁neph
▁postmenopausal
hypertensive
▁clindamycin
▁ey
▁hypothyroid
▁22%,
▁81
▁motility
labeled
▁TT
▁opiate
▁carbohydrates
▁pigs
whe
▁VIP
PRL
▁ventilation
▁regain
▁lineage
planchnic
▁hir
▁stationary
kinje
▁amiloride
ardias
▁277
▁Drosophila
ostatin
▁hepatocyte
▁ketoconazole
▁Km
atoma
▁simvastatin
▁conduction
carinic
▁plateau
▁healthy
antibody
▁disadvantage
5%
▁aggression
▁amplitudes
▁4.3%
▁FDA
▁gastrin
RB
▁parenchym
51
approximately
robic
▁Proc
▁xyl
▁53%
modified
▁infusion
allikrein
ropine
▁underwent
▁18%,
releasing
▁eosinophils
▁amoxicillin
▁bronchi
▁Plasma
▁shor
itudinal
▁midbrain
▁instability
▁peroxide
▁outbreaks
▁stiffness
▁fibrill
▁acutely
hyde
▁dosages
▁serotonergic
▁SPL
▁Factors
oxan
▁emerg
ailure
genic
igl
▁isotonic
erum
upuncture
azoline
Glc
▁pyro
▁exacerb
▁0.17
amole
hemat
▁.0
▁luteal
ylation
▁8.4
apamil
farction
oxygenase
▁births
posal
sibly
▁dentures
▁40%,
▁hysterectomy
▁IDDM
▁ketoacid
▁NSAID
zoster
▁6.5
▁serological
▁morb
▁(25%)
▁iatrogenic
omonas
▁dioxide
perme
ipine
-1),
▁phi
rences
gmental
▁cytos
▁cephalosporins
▁ultrason
taken
▁probes
▁FEV
ographies
▁lis
▁(0.2
▁2.0
▁peaked
▁denervated
renaline
▁resembling
ogens
▁1.07
▁smo
▁dithi
insensitive
Hep
ampl
prin
BG
▁norepinephrine
trained
▁TDI
▁gastroenteritis
▁wee
▁5.3
▁nebul
fec
oplas
▁LC
▁metabolism
lysine
opressin
▁protr
▁swine
▁surveillance
▁tiss
▁234
▁ruptures
▁(4.8
▁opioids
68
FGF
▁venom
▁venti
▁nurses
▁abrog
.7%
fine
epines
▁heterogeneity
dine
▁athle
▁4).
▁tetan
▁aeros
▁contamin
▁rheum
mediated
/7
yridamole
▁Dental
osylation
▁complaint
ochondr
▁intervention
▁diarrh
4;
▁80%,
▁0.87
▁diges
▁connective
▁atrial
lysis
▁Injection
erent
▁intermittent
kinson
▁abscess
▁ligands
▁lob
▁projections
▁cats
▁overlapping
▁1987
▁starch
▁cardiac
▁breathing
▁exudates
▁CTL
opha
▁discharge
EI
▁Phosph
▁25,
▁genitourinary
▁vertebral
▁transient
▁virtu
▁metastasis
▁AIDS
▁thallium
▁rhythm
▁suppressed
▁thyroidectomy
▁laser
AO
▁flas
▁tension
lyl
ylene
predominant
arrhythmic
▁improving
▁stimulants
▁[125
lix
▁unm
▁181
▁tape
▁preceded
▁122
▁ophthal
troph
▁disability
▁polyacrylamide
▁Individuals
▁hypox
▁hydroxyl
▁Triton
atitis
ignificant
▁persisting
▁(44
▁seiz
ulators
▁(4.6
▁rated
▁visits
ordance
▁dissoci
▁Exposure
▁PGE
▁tibia
micro
9)
▁strands
▁prescrib
ysto
tives
▁Evid
▁Centers
sized
▁asymmetric
▁detects
unar
▁74
spectrum
▁vesic
▁diaz
▁NGF
▁inoculated
othre
▁avian
▁tomography
therapy
▁349
protein
▁outflow
▁progesterone
▁spirometry
ochemically
▁mucin
▁balloon
erate
tec
aturated
veolar
▁equivalents
▁440
▁attrib
▁immunobl
▁recruited
ocrine
▁Nutrition
sac
oprost
eminal
▁glutamic
charomyces
ogenicity
▁Thirty
▁weakened
NV
▁GnRH
acted
sodium
▁seroconverted
▁umb
▁qualitatively
▁(43
enh
osarcoma
▁resul
▁accordance
▁disabling
36
▁vegetable
▁ultrasound
iodine
▁rele
tection
roscopically
▁leukotriene
Hyp
▁BALB
▁clom
▁37.5
▁pepsin
▁ingested
▁0.67
▁immunodef
BP
▁colos
traumatic
▁preparations
atibility
▁macropha
▁pH
athic
▁prostaglandin
▁.05)
▁51
▁lectin
▁phosphates
entified
▁amel
razole
▁tremor
▁TCR
▁actuarial
▁resembles
roximately
▁TM
▁screened
▁nursing
▁duoden
▁challenged
▁neuropsych
▁0.46
▁insufficient
▁diuretics
▁inhibition
▁primiparous
ostasis
▁hypertonic
trus
▁hypot
▁experimentally
▁investigators
▁9
▁ductus
▁repetitive
▁Leuk
▁pK
▁irrit
availability
endazole
itance
-72
▁somatic
embrane
▁164
ceived
ociation
▁novo
tures
▁RNAs
▁perinatal
▁stratification
allik
phosphatid
ofil
▁granular
▁reagents
ophen
▁immunos
oporotic
▁phenomena
ipr
▁227
▁kidneys
▁markedly
▁absorb
ipher
BM
▁develops
▁consultation
▁exercising
▁Elec
ischem
▁infection
120
tice
-1000
ighteen
tonic
▁mineral
▁transgenic
▁severity
▁68
quir
▁antid
▁14.5
limiting
▁(1/
diabe
olip
yrib
olol
▁polypeptides
expressed
gluc
▁anteced
▁granule
▁sodium
▁Caucas
rosemide
▁perikary
apular
▁anesthetic
idine
ispanic
▁occl
▁PV
amisole
▁0.72
pA
elan
hospital
▁CRP
▁intermedi
▁Assessment
ronch
▁focuses
RH
trophin
▁medically
clinical
▁fmol
treatment
▁correspondence
osus
▁anticoagulant
roxyprogesterone
▁hypere
94
▁nonp
▁xylitol
Ev
atectomy
▁diseases
attered
▁quoti
▁ori
-6
▁nitrogen
▁pyridoxine
▁junction
▁suspension
▁neutrophils
7.
▁achieving
organism
tabol
▁immunoblotting
▁scientif
▁7.
dihyd
.5%)
▁soluble
▁Medicare
▁psychiatric
▁37
▁limbs
oglyc
▁varic
▁(85%)
▁pharmac
filtration
primed
▁ablation
▁85
▁obesity
orption
▁5000
otoxin
▁chamb
ochemistry
2)
assi
▁triam
▁scre
▁Thir
rents
▁extrav
▁spas
ecyl
6-
▁avoiding
▁retrospectively
ulant
▁electrom
▁astro
▁oocytes
▁fluctuations
▁triceps
iclovir
ocor
coup
habil
▁poorer
hydration
▁determining
▁adjusting
50
▁eighth
▁ethyl
olone
▁ejac
uctose
heal
▁32%
ipro
▁0.18
pendence
▁msec
▁stimulus
▁oval
entricular
99
▁deline
▁electrophoretic
▁questionnai
▁pneumoniae
▁Tests
▁epithelium
▁obese
tation
▁enamel
▁cycloheximide
tenolol
embr
▁10(3)
▁satisfactory
creatinine
▁sutures
▁95
oradi
otor
16)
onor
icients
ervated
emak
▁glucuron
19
▁cows
ocon
▁tumour
cessively
12-
▁ferritin
admium
utaneously
▁abuse
▁depolarization
▁deaths
▁enox
▁asthmatic
economic
rox
▁worm
jec
▁sclerosis
▁outgrowth
▁endothelium
accharide
▁exogenous
pite
▁Prospective
▁Combining
ynthe
▁responsiveness
▁incorporated
▁GST
10
gp
ropyl
▁aureus
▁Routine
bladder
▁simultaneous
▁CB
operox
2,000
▁subarachnoid
▁2).
▁metabolites
▁fulf
▁tubulin
▁74%
▁peptides
▁fibrils
sant
▁microbial
▁identifying
7)
▁diary
▁nephropathy
▁trends
ylcholinesterase
▁gastric
iasis
▁1.3-
icides
rophic
▁mandibular
▁6.7
▁44%
ensi
▁teratogenic
▁introduc
▁IGF
▁phentolamine
▁cerv
onary
▁paren
tality
aceous
23187
ronate
▁inbred
▁granules
comitant
conjugated
▁reduc
▁1%
▁7.8
▁intraper
▁ascending
▁ultr
+/
ubicin
tomy
athione
▁stiff
Ki
generation
▁unid
▁1.01
▁aneup
▁discontinu
▁preferentially
lue
▁opi
▁endoplasmic
▁appendix
junction
eric
▁LMW
▁(50
▁derangement
motic
▁Tryp
rometry
▁oxygenation
▁rGH
4.
▁tris
▁261
oneph
▁yr
bly
▁coordination
▁cranial
▁0.83
▁morbidity
▁chains
▁0.001),
▁thromb
▁reviewed
▁radioimmuno
▁epid
▁47
▁tube
queous
▁seizures
▁(75
inflammatory
▁anion
.5
venty
▁stimulant
▁aids
▁Addition
▁agonists
▁luteinizing
▁radioactive
titis
apeutic
▁tyrosine
lastoma
▁Fewer
rotein
▁phenotypes
▁HeLa
cys
▁secrete
▁enzymatic
-0
▁vege
▁trials
▁Kd
▁9.9
kinin
▁sorbitol
▁1980
quamous
▁perme
▁aided
▁Comparison
▁papilloma
▁196
Ep
▁24
▁Subsequent
thel
▁PT
AFP
▁allografts
lusion
▁classify
▁absorpti
▁Eighty
▁denti
▁3'
arms
▁30.
▁complications
▁fati
▁efferent
ophils
▁Behavioral
tested
▁homogenate
achid
aryngeal
opathic
responsive
icin
muc
▁pellets
▁11
cemia
▁lability
acer
ectom
hesus
▁5.1
▁rejection
▁UV
▁cylinder
▁genic
▁16-
▁10
▁gonococcal
▁compli
▁diarrhea
▁nonresponders
▁preoperative
plants
▁examining
▁3)
▁categorized
▁gemfibrozil
▁metabol
cutaneous
▁TP
orated
-5)
▁dermatitis
▁routinely
urement
▁Changes
▁oxidized
bile
ercise
forming
ticularly
▁persistence
▁peric
transfer
▁prostate
0%.
▁saliv
▁elevating
▁differe
trig
otopic
▁implant
tium
▁13%
oplasmic
▁bipolar
amination
▁reveals
▁suppos
33
▁hydrocortisone
▁postnatally
determined
▁peptide
▁gases
▁phospholip
]-
▁13
▁(88%)
▁angiography
▁reticulocyte
▁48%
uric
hicle
ustained
siology
▁LN
▁resour
▁manifestations
▁bicarbonate
▁microM
▁assays
▁tended
▁erythema
▁suture
▁afferent
▁marginal
▁treatments
atropium
▁synthetic
▁copper
▁wk
▁lymphadenopathy
oprote
▁undertaken
▁additive
filament
▁presenting
sibility
▁(48
▁histamine
-45
▁Whereas
▁antagonism
▁47,
▁manu
▁chimeric
▁0.35
gus
reported
▁modestly
▁6-
ulsive
agic
▁unin
entan
▁depres
vail
epam
▁maintaining
atchard
ipit
▁urgent
▁regained
▁Enal
▁waking
▁59
▁discontinued
semb
▁vestibular
TGF
olestero
▁carcinomas
optic
IH
clerotic
▁Cd
▁33%,
▁innervation
▁enal
▁immunity
econd
edle
▁compliance
amphen
hemical
▁Wistar
▁neuroendocrine
▁Hyd
IgA
▁phag
hepatitis
▁elec
elic
▁Milk
pregnant
unced
▁attenuation
▁metastases
roxen
mostly
▁Fifteen
▁utilizing
▁0.001)
astatic
▁atypical
yocardial
testinal
500
▁brach
▁reperfusion
azolam
25).
▁selectively
▁immunoprec
apid
▁CFU
▁placement
iotic
▁flanking
opausal
▁cytosol
▁victims
▁trimester
▁SMR
▁MN
dition
▁50,000
reasing
▁deprivation
▁synthe
sue
▁hydroxy
operoxidase
▁professionals
▁diminished
▁100-
oung
echanical
▁MK
▁rats
timulus
▁lymphocytosis
▁0.1,
▁stomach
▁51%
▁undergo
▁residues
OA
300
▁kerat
-3-
odialysis
▁Doses
-66
▁ingu
▁calf
▁lavage
▁sorb
▁16,
▁reasonably
▁herni
▁hyperlipidemia
ocks
affected
eprazole
▁explants
ellar
▁naloxone
▁functioning
▁underg
▁spacer
▁constitutively
▁undetectable
▁patches
▁compounds
▁atheros
ourinary
lymph
▁142
▁adi
▁Previous
▁occlusive
indol
ocysteine
ylcholine
▁interc
achnoid
▁0.51
▁subjec
▁probe
▁standardization
▁insufficiency
▁subpopulation
zot
centr
▁psychotherapy
ycl
oretically
▁AUC
▁wounds
▁worsened
rase
▁NIDDM
▁citrate
▁endoscopic
▁sonographic
▁5.5%
▁lobes
uronal
▁.00
▁posth
leucine
▁carcinogenic
▁septal
▁overview
▁24%
▁spermatozoa
sors
▁remarkably
▁lam
▁entero
▁surge
▁trauma
▁800
ungal
▁degraded
▁typh
aryotic
▁-4
fatal
oskeletal
▁axons
ploy
▁2
▁denat
▁8.1
▁microscopy
▁permits
▁rearrangements
▁attenu
onidine
▁positives
▁cytosolic
▁endometr
▁venous
▁freeze
▁Increasing
▁omeprazole
iplin
enzyme
6%)
ardized
thle
▁ambul
tional
▁101
adrenaline
▁DVT
▁1,
fetoprotein
▁0.2-
4,
▁189
▁seb
▁fetuses
alkyl
▁baseline
plenic
osome
▁thrombus
▁BA
52
turb
▁PAP
linded
▁antiviral
▁transplant
▁triglycerides
FN
▁thym
onical
▁Twenty
▁osteoarthritis
ensitive
▁pim
▁30%
potential
▁breaths
naud
▁sialic
▁endoscopy
esthetized
▁mucus
▁abnormalities
35
▁therapeu
▁ligament
▁complic
▁castrated
▁glutathione
▁encodes
-3.
▁extrac
▁PE
▁inhibited
▁(19
omes
▁Antic
▁560
▁progressively
▁parathyroid
ammon
▁genes
▁duodenum
▁PAF
▁hypotheses
▁mug
Hu
▁(2)
▁thirds
▁36%
inally
▁insec
▁Bacillus
▁characterizes
ughter
▁squamous
▁1.18
▁muscles
▁EI
▁argues
▁Improvement
▁enriched
▁Neither
rotal
▁20.
▁weighing
amet
▁amin
▁tryptophan
▁variability
▁encouraged
▁(0.
▁5'
tectomy
herent
▁1984
▁pronounced
▁acces
(2)
▁physici
▁ramipril
aminidase
oxide
▁0.3%
ventricular
RF
Ins
-10(
▁cardiomy
▁expectations
ocrom
ocl
▁ongoing
▁immunoprecipit
▁phospho
▁(8
(+)-
▁practiced
▁mitotic
umerous
▁kb
▁twofold
-4,
▁pregnancy
▁GA
▁lactate
▁Intra
▁constitute
▁glycer
oresis
▁MI
tural
▁269
terin
▁65
ditional
▁pati
▁theoretically
▁stom
antibodies
▁secreted
▁exposure
▁4.2
▁hyponatremia
▁0.05).
▁9.
▁249
▁147
▁ribs
▁resusc
▁CHD
rophenyl
90)
▁bronchial
mortem
uprofen
▁concep
uding
▁osteoc
▁misoprostol
▁Consequently
feron
▁sebaceous
phosph
▁metronidazole
-2-
▁10(-7)
▁enhance
▁(22
vitamin
▁investigations
▁-9
▁trypsin
▁blacks
▁periphery
▁roset
encephalic
▁seminal
▁0.5
▁artery
▁kappa
▁98
▁endings
▁pyl
▁-5
▁reliably
▁enlarge
▁sph
▁esters
▁CHF
ocomp
▁ouabain
▁electrodes
▁serogroup
▁schiz
▁radionuclide
▁satisfactorily
lys
omegalovirus
▁hypothesize
▁unaltered
tamine
letion
andard
▁splenic
▁cytotoxic
▁hypokalemia
▁superf
orts
▁microorganisms
11.
▁Certain
▁ADA
▁mimic
▁mumol
▁nm
antagon
▁speculation
ixime
ensities
iceptive
▁interfer
▁esophag
osamine
▁baro
▁6%,
▁pulse
▁antib
ifed
▁(90%)
▁deficit
▁inappropriate
helial
▁papillary
▁occlusion
facturing
occi
▁coping
enteritis
3,
▁PTCA
buterol
▁Pertussis
▁oligos
▁infections
UV
▁Dop
ergic
▁raphe
▁14%,
▁determinants
▁subtype
heum
ophys
ystitis
ococcal
rozen
▁potentiation
▁PBMC
▁(0.0
▁metatar
▁discriminant
▁nonin
▁epidemi
▁8
meth
▁hypoglycemia
▁mildly
▁secretagog
▁catechol
▁maternal
▁fasted
tomas
tents
▁116
▁waveform
yel
▁arteri
▁lorazepam
rostagland
▁19,
▁diarr
usive
▁5.
▁amine
azol
▁prothrombin
▁hypogonadism
▁esophageal
▁176
▁Transi
▁inhibin
▁nephro
▁ACE
parathyroid
olysis
▁capsaicin
Ci
▁collec
atories
▁jaund
▁favored
▁yearly
▁stimuli
▁Statis
▁splenomegaly
.3%)
▁fold
▁PP
-450
▁postsynaptic
▁LTB
androgen
▁Effic
earing
▁lesser
tiguous
▁antide
▁explored
▁2.3
apsulated
)],
▁0.01,
▁Renal
▁chor
-125
ergen
oclonal
myr
▁institutional
uating
▁LPS
▁benign
▁proliferation
▁17-
CSF
▁erythematosus
▁reversibly
▁SG
bran
amus
▁transcrip
▁myocytes
▁displaced
▁competi
▁cerebrovascular
▁compositions
plasty
▁renin
5),
▁bottle
smoking
▁axon
.6
▁hybrid
ritical
erad
tention
▁6.7%
▁progres
▁0.5,
▁5%
▁Seventeen
tropine
▁fertility
▁ventilatory
▁Caucasian
▁1/
▁susceptible
▁differs
dotoxin
▁topo
reduced
ichia
▁Epidemi
▁0.74
▁86
▁moderately
▁monit
▁syndrome
tropin
termined
romyces
henyl
▁patency
ordination
▁regimen
-65
imeth
00,
▁NF
CDD
▁maturation
▁5.8
▁discomfort
▁stent
thood
▁700
▁53
▁0.69
▁methionine
▁acetic
▁serum
▁wt
▁dipyridamole
ulants
▁varicella
opr
▁polymorph
Tyr
▁Absolute
▁angiographic
ocytochemistry
▁3.8
▁hydroph
oride
▁interleukin
ometr
-9)
▁ICP
▁CAP
▁normals
uvant
reflex
▁uv
affec
▁damaged
ropriate
anded
▁splic
▁mathem
enching
▁attainment
phine
▁slices
▁217
▁phyto
▁Increases
▁disulf
▁oligodend
▁epidural
▁mediating
▁terat
▁histopath
▁prodrug
▁staphyloc
▁64
▁aro
▁0.45
▁operative
▁granuloma
▁exis
▁corneal
▁ubiqu
▁eczema
amilies
▁cytoskeleton
ervative
4%)
▁subf
▁0.52
▁tet
▁gyrus
ograp
▁0.005)
retin
pressing
ischemic
ylon
▁hairy
▁(67%)
▁liposomes
▁streptoc
▁mesenchymal
▁temperatures
▁interacted
yses
▁fruits
▁fibrillation
▁telephone
▁1,25(
▁Increased
dyle
▁osteoporosis
▁EEG
kines
metabol
secre
▁oils
▁thrombotic
▁monocytes
▁depleted
ocyanate
▁1-
mittent
ediatric
▁primed
▁digestive
▁hypothal
alsy
▁sput
▁20.5
uccess
ications
▁hepatotoxicity
▁Lymph
▁10(-5)
▁1,000
inopril
▁apprec
▁nucleic
▁199
▁CRF
clamp
▁NN
aemic
▁nmol
▁anaesthesia
SEM
▁neuropathic
teria
▁depress
saccharide
▁sacrificed
sched
hormonal
▁21.
dT
▁dementia
▁adequ
▁asthma
▁metabolic
0.00
6%
▁methodologies
bility
▁sulbactam
ulph
▁nonlinear
▁responding
ollen
reed
PSP
pli
▁reactivity
▁Invent
icardi
▁relaxants
▁lipoprotein
▁(3),
▁sulfhydryl
▁(12.5
▁fibr
IgM
▁oocyte
▁pulsed
▁rodent
▁appendic
ANP
▁strain
▁electrolyte
▁suscepti
TG
▁COOH
▁43%
▁microvascular
▁cerevis
▁Increas
▁6.3
▁supine
ophilus
▁undetermined
▁demonstrating
ocellular
hydrop
▁LR
oprim
trates
ithine
aryl
▁glucose
▁rabbits
▁immunized
terol
▁fractional
ithin
gm
torchid
▁selen
▁hind
▁adul
▁nontoxic
▁preventing
▁surgeon
4,5-
▁77%
▁1.21
▁hsp
▁adaptive
▁malignant
tens
elvic
ycin
▁lining
▁plas
▁hypothermia
▁diagnosis
-20%
ocom
▁granulomas
▁natriuretic
effective
▁randomized
floxacin
imazole
usually
▁0.44
ometri
▁nigra
▁ventil
▁ECG
ameter
▁SPF
▁appropriately
▁selectivity
relations
90,
▁0.04
ovascular
▁infec
▁muM
/12
▁polymyxin
▁dissemin
▁investigated
▁tetrodotoxin
-1,
▁sampled
aints
thmic
▁4)
▁hepatocytes
▁favors
arous
vivors
▁statistic
▁concentrated
▁remission
obal
▁influencing
8).
▁homocysteine
▁nondis
▁antitumor
▁IgE
▁structured
▁eosin
▁confirms
xate
▁colony
▁synthetase
▁hypoxic
▁intrav
▁guinea
▁uniquely
▁Sprague
▁brains
genital
▁triazolam
▁lethal
▁intran
reatine
▁Diff
ardia
▁Delayed
▁Ventricular
▁poli
-(1
▁cytoskeletal
(+)
▁(0.6
▁resection
ovarian
▁lax
▁molar
▁celiac
▁cochle
▁nasopharyngeal
onucl
tussis
sulf
opyr
80
000.
▁physician
▁(1.3
▁moderate
▁mature
▁40,000
▁Mn
uestionnaire
▁AML
▁gamma
▁3,
▁eradicated
mined
▁bonds
tilis
mobil
fed
hort
arean
▁analytical
▁envelope
dyn
iated
20
triphosphate
ication
▁(36%)
▁transfusion
▁SCC
▁-15
▁cytotox
▁suppressor
respective
▁supplemented
9-
atidyle
▁overlapped
▁angiotensin
▁determination
ypical
▁84
▁Immuno
▁indicative
▁itraconazole
▁hypoxia
▁assessment
ygous
▁pI
▁neurological
▁fatigue
▁68%
▁augmented
▁histone
▁trophob
▁hypertension
otroph
ashing
▁NH
valence
responding
-6.
▁mellitus
▁detecting
stimulated
itonin
140
▁insertion
▁hypothetical
▁malign
▁cen
oping
▁circadian
5).
Pen
▁0.47
amicin
rease
▁modest
shaped
▁cyst
▁0.56
1.0
nutrition
▁autoantibody
▁obstructions
▁ovarian
roin
lamyd
▁PLP
pendent
▁carcinogen
molecular
ffer
▁biosynthe
2]
▁pacing
▁20-
▁pS
▁lymphomas
▁torsion
gth
▁39%
▁200,000
Gy
▁chym
▁pectin
▁ventilator
▁Neph
▁afferents
▁Stro
▁ventricular
▁dose
▁sensi
otoxic
▁describ
itr
ogl
▁topical
▁systolic
albuminuria
▁63
tries
▁antero
▁hyperpolar
▁amplification
acil
▁Trp
enic
▁RR
▁GV
▁(60
▁thromboxane
▁depr
▁embryonic
▁isolate
▁(75%)
▁spinal
▁mononuclear
0.3
▁transthoracic
▁Bacterial
▁hospitalization
▁disseminated
▁maximally
RR
.0%
▁sulf
▁urticaria
odal
uestion
-1)
odic
▁niacin
-5,
▁overex
▁outbreak
▁jaundice
-8.
ophy
▁virtually
4),
▁parenteral
▁influx
ipheral
▁prospective
ffeine
oreceptors
▁nocturnal
▁reproducible
▁spermatozo
▁oxidase
▁Findings
▁gels
▁8.5
▁adenoma
▁macrom
▁juven
▁effec
▁adiposity
esarean
▁compe
▁ammonium
▁88
▁lesion
▁4,
enem
▁proteases
idne
▁dyn
▁(95%
tivation
▁lumen
oes
▁[3
methionine
▁vein
▁ducts
omers
▁hypothalamus
idic
▁testicular
cemic
reement
rief
▁1.08
▁mRNAs
▁fluctu
▁Morph
.7%)
ylyl
ymp
▁3'-
▁mmol
iuria
▁17.8
▁sedation
▁neonates
ATP
▁epicardial
▁sequencing
▁restraint
▁9-
▁junctional
rectomy
▁Educ
▁undetected
▁tubercle
▁wards
▁mEq
▁schizophrenia
▁0.016
requency
▁participate
▁accurately
▁prevalent
▁splenectomy
▁pregnancies
▁ml
▁influences
▁RT
▁PHA
▁7
▁tetracycline
▁nonsignificant
▁polymer
NAc
sequent
10)
tenti
▁Insulin
odop
▁loos
itro
sul
▁221
▁prednisolone
increased
▁segreg
▁viscosity
rophy
▁intra
▁spont
▁substrates
gulation
▁paroxys
ylchol
▁apoB
-36
▁0.88
▁nerve
arental
colem
▁methyl
▁vesicles
▁sphincter
▁cigaret
▁leukemic
▁CSF
▁22%
nRH
oracic
▁Ringer
▁mL
▁hypothalamic
5%,
kDa
irubin
50.
vaccin
▁sciatic
▁AFP
▁adhe
▁mutagen
▁33-
▁alp
▁195
fected
▁2.5%
▁drainage
▁pathogenic
▁transferrin
▁anomaly
▁intake
ameters
▁relapses
xime
▁discrimin
aturity
ytes
adenomas
directed
▁binds
▁unde
▁subcl
▁unaffected
18,
▁amyl
rowing
3)
orsal
erin
restricted
igenic
▁summarized
▁nonspecific
▁atropine
▁arginine
thin
▁genomic
dimethyl
otherap
romal
▁codon
▁catecholamines
▁fistula
tene
phor
ureas
▁viable
loxacin
density
22,
▁NADPH
▁evidenced
gA
▁.01)
▁aimed
ifferen
▁3/
tenosis
deple
cyte
▁clones
▁cocaine
▁VLDL
▁prenatal
▁Candida
▁maturity
ocarcin
▁(500
threatening
▁rigid
▁radiograph
inoc
usp
olesterolemic
▁labelled
▁acidification
▁intram
▁312
▁gonadotrop
▁keratin
▁aromatic
▁uter
uresis
-4-
▁irritable
▁subc
atine
▁contiguous
▁elas
nithine
3%)
▁recurred
▁antich
▁blin
▁4.8%
▁subcutaneous
illary
PaO
▁prescriptions
epsia
tee
overed
▁OA
leu
onad
▁97%
▁granulosa
risk
▁MAbs
▁agon
nitros
▁atm
aneously
▁confirmation
▁crom
tigu
▁carbamazepine
18)
▁heavier
▁intercal
▁(33
▁radiographs
▁anhydr
▁intranasal
usal
▁Cardiovascular
▁aryl
43
▁labeled
astatin
enters
▁potency
inamide
▁multicenter
▁adhered
ylated
▁absorbed
▁PEG
hyp
▁surrogate
▁MHC
▁GFR
▁cervix
otropic
▁hemodynamic
▁endo
▁pineal
▁(80%
▁cholesterol
▁(100
▁preven
▁bFGF
▁dial
▁malformations
▁900
plemented
▁28)
▁autosomal
orable
▁pentoxifylline
929
yron
▁seizure
▁lyso
Gl
▁plasm
▁atyp
103
▁leukocyte
repres
urea
▁Prol
▁phage
▁normo
ococcus
rati
.00
▁ppm
-2.5
▁altering
▁incis
urations
hydroxy
▁saturation
▁12.5
▁spor
▁309
ulous
25
aminated
▁hydroly
▁0.40
osyl
▁addic
occal
▁Physical
72
▁statistically
olved
ocrin
▁55%
concentration
farin
▁MBP
▁rhabdomy
▁55-
▁plastic
▁weaker
▁+/-
esium
▁kinase
15.
▁Experim
azep
oagulation
▁irrespective
6.
▁sut
▁nonsmoking
enoid
▁fluoxetine
▁BM
▁extre
quine
▁heel
▁carbachol
▁quadrup
78
▁Twelve
▁reinforce
▁chlorhexidine
▁ech
omat
oglobin
▁competence
thmias
▁tightly
▁pharm
cortisone
▁guan
▁kcal
lytic
▁Cancer
▁Strep
▁caud
▁HPV
▁determinant
▁nec
-30
3.1
▁defec
▁diastolic
▁AMI
▁concordance
▁interacts
▁prolif
▁epidemic
MN
▁4.5%
▁incubated
▁ventilated
▁Positive
▁315
hig
▁incidence
rocyte
-2,
▁insensitive
▁Reduction
ifferentiated
▁cited
glutinin
▁irradiation
▁developmental
▁Suc
▁aberrant
▁LV
porting
▁pathophy
▁transiently
▁haemat
6),
▁metoprolol
yroid
ported
▁blu
arone
▁symptomatic
▁0.25%
iciency
▁specimens
▁0.48
▁catalase
amyl
▁endothelin
▁15.
5/
ceptions
▁depolar
esides
Ti
actam
▁bulb
▁enanti
ulin
▁Subsequently
lamy
▁Various
▁wors
▁(20
▁fulfill
▁262
oate
iflu
heat
▁sampl
▁stringent
▁arom
▁differentially
▁27%
▁pneum
versely
▁transcript
uretic
▁internalization
▁secretion
▁perceived
▁ingestion
▁elemental
▁tertiary
▁Coronary
▁organism
agonists
▁lasting
(5
imetidine
0/
IGF
leuk
▁hygi
ystokinin
imus
yridine
oluble
▁contractility
▁2-
▁340
▁atopic
▁rhinitis
▁NT
ogenetic
▁increments
respectively
▁proteoglyc
▁70.
▁cochlear
▁(99
▁ferrous
viruses
aptic
▁aggregation
▁excitation
▁stenosis
Mg
▁microscope
ropath
▁incomp
▁chloride
▁90%.
▁Acad
▁sinus
erule
adders
▁-0.7
▁antioxid
▁depended
▁endos
▁cytoplasm
▁rifampin
adequate
▁resuscitated
▁capillary
▁cerebral
▁phleb
▁agglutination
ulitis
▁prescribing
▁levodopa
▁thyroxine
▁0.23
azem
aid
▁GABA
disciplinary
▁109
▁Hear
▁strepto
▁antagonist
▁motoneurons
▁teen
▁doxazosin
▁adjus
▁captopril
▁microliters
▁sulfate
titu
▁67
ventilation
▁PG
▁qualitative
▁isop
gely
▁(6
▁mediated
phasic
▁hypnotic
▁confined
▁cholec
tle
ospasm
▁surviving
▁quantitated
opause
▁progenitors
▁beliefs
sions
chol
enterolog
▁000
▁resembled
▁wedge
▁infusions
▁sensitiz
▁prostacyclin
▁Surgery
▁48-
▁climb
▁0
▁(3.8
▁187
▁Barrett
▁1-3
▁retinal
affin
▁dys
▁-6
▁atr
▁ecz
▁postmortem
▁yielded
▁aqueous
umbar
▁Myocardial
▁HR
▁exchan
irub
dehyde
▁3-
▁diphen
sial
cephal
▁11.8
▁resec
▁expec
+,
▁quiescent
athe
atoid
80)
▁glandular
phosphorylation
oderm
opril
▁remod
atology
▁fibers
▁3.5%
▁phosphor
▁excretory
adrenergic
▁(1000
onine
minis
▁shear
acr
▁epilep
▁nosocomial
▁schem
▁10%,
operative
9),
erox
melan
▁benzodiaz
▁miti
▁granul
▁12.
▁bladder
bronchial
iline
ller
▁antihist
▁caloric
isomerase
opramide
▁430
fate
▁tolerate
tiv
▁blockade
▁4
▁preterm
▁pelvic
ecia
▁relaxant
omegaly
▁Epid
▁devoid
esophageal
▁4.7
▁anoxic
▁assessing
acids
▁individualized
▁293
▁5.9
▁Lipid
▁fluc
.4%)
gain
▁correlating
▁eukaryotic
eptides
▁2.1%
▁exons
▁thems
▁oxygen
▁initiated
tivities
▁bony
▁Epidemiological
▁solvent
5;
estive
▁ultras
▁0.10
3-
▁vertebr
▁peripher
▁quinine
1.
▁averaging
▁norfloxacin
▁loci
▁overestimated
amn
duce
▁(72%)
▁ether
▁vigorous
▁capillaries
agonist
plo
ostatic
urons
▁hazard
notic
▁progressed
ureth
▁allyl
▁microgram
▁50-
▁brush
▁strokes
▁endoscop
sA
calor
orrhea
▁illnesses
▁tachyc
▁atrophy
▁diet
▁thoracic
▁Patient
olecular
▁wean
0.6
.0
▁structurally
▁ammonia
timate
/1000
▁justif
▁nucleotide
amate
illin
▁idiopathic
▁insurance
▁acyclovir
idem
▁traum
arying
▁lipids
▁clind
▁Likewise
▁differed
educed
▁Respon
▁glycos
▁brevis
▁interp
olesterole
▁344
▁exten
rosy
▁cerebellar
iodothyronine
▁hypo
▁1.6
▁Tum
uin
▁CN
▁sustained
▁psychosis
▁alopecia
omized
▁sha
athyroid
▁42,
▁Comparing
CAP
yroxine
erge
omatosis
▁IVC
▁medications
▁(1.6
▁elong
roth
▁usefulness
tase
▁outward
antial
▁orally
▁interventional
tep
carotene
▁diabetics
▁perit
▁microv
roitin
▁allerg
tib
bumin
▁hyperthermia
▁surviv
early
▁rhe
▁neuronal
▁coval
▁postin
ustif
▁prosthetic
▁FE
hene
▁(4%)
sy
▁multiv
▁prostatitis
▁renal
▁0.80
▁0.58
olesterolemia
inhib
enkephalin
▁DD
▁laminae
siological
aortic
▁Survival
▁puncture
▁anastom
xual
▁condens
40
alas
▁Scatchard
▁albumin
+.
partum
anin
▁trichloroacetic
▁0.59
▁10-
epti
▁AO
▁pant
▁Randomized
▁pertussis
▁11-
eeding
tizing
▁21-
▁mono
▁fixation
▁PI
.0,
▁relap
chool
jun
▁12%,
ertion
▁prevalence
▁bioassay
uity
▁substantially
osyn
carb
▁outs
ochrom
▁cloned
▁diabetes
entral
▁carotid
tochem
▁49%
▁methimazole
osine
chlo
rologic
▁sediment
2.2
▁capsules
▁choleste
▁phosphorylase
▁substances
renol
▁carbam
ucl
▁surf
▁oscillations
▁mitogen
ealand
opulmonary
etidine
▁epidermal
▁predicting
▁cumulative
▁livers
▁grades
▁exce
▁metabolized
imidine
crist
athioprine
▁conformation
▁198
▁exercises
▁ae
▁jejun
▁toxic
▁tolerability
▁disorder
▁0.21
▁34
tension
▁HER
▁cyclospor
▁MRI
▁oligonucle
▁thymus
olem
GH
apeu
▁erosion
▁cadmium
▁inhal
▁induce
▁hyperp
tages
▁reversing
abain
▁HC
▁immunologic
▁mesangial
▁measuring
▁cleaved
deoxy
▁11.0
▁forsk
▁neutropenia
athetic
bular
▁attained
▁transloc
▁70%.
▁phenylephrine
mRNA
▁120
▁triti
▁amitriptyline
thirds
▁infertile
▁athe
1.2
▁allergic
▁stimulating
▁meningitis
perfusion
takes
▁inspiratory
▁parenchyma
▁Atrial
▁bilaterally
▁193
▁5.0
▁hap
▁monophosphate
▁serine
▁ventric
▁contradictory
oretical
sive
▁lor
orepinephrine
▁Sixteen
▁psychological
▁constipation
▁deemed
induced
▁motivation
▁arter
▁(4.3
▁irrigation
▁grise
▁downstream
openia
▁dopamine
▁tuberculosis
▁necro
ometrial
taining
▁tricuspid
▁31
dil
▁0.34
▁fetus
▁80%.
▁6.5%
ectin
▁tablet
▁ligand
▁occupational
pharose
uran
▁psycho
▁11.2
ubertal
gesterone
arbox
▁43,
▁epitope
▁avid
7).
▁ofloxacin
▁desatur
▁nominal
▁iden
▁scin
▁somatostatin
▁pep
oids
▁deox
omethyl
▁adulthood
icardial
▁meals
▁20,000
ropathy
▁158
▁proce
▁proliferative
-40
▁nif
▁spike
▁inflammation
▁agar
▁ribonucle
▁nonm
▁ND
▁(76%)
-1.0
▁1.13
▁tach
artum
▁Patients
tical
entile
PEG
▁endot
▁nausea
▁10.5
loride
imentin
diol
razosin
ilic
▁weighted
surgical
▁cef
-29
otypes
▁bull
▁fibrous
▁heal
onate
7%
bodies
▁contraceptive
blocker
▁RNase
terminus
▁dams
▁prevented
tory
injection
▁elevations
▁fibros
▁pooled
▁HLA
▁cyclase
▁glycogen
▁sore
▁(70%
▁departments
tine
▁endometrial
▁114
▁journals
▁blotting
▁eosinophil
▁haemodynamic
Hb
nals
proven
3]
Ra
▁protocols
aldosterone
elong
plic
▁necrosis
▁neuropathy
▁compartment
▁chick
▁lysosomes
others
▁HL
▁33
▁modulation
-4.
▁GS
▁diagnosing
iatric
▁opioid
▁glucocortic
▁transcribed
▁proliferating
▁gangl
▁40
▁30%,
udation
▁spi
oxicillin
▁ket
▁111
▁organisms
utyric
enec
▁shortening
▁0.93
▁biologically
▁ethnic
▁30-
sAg
▁hypotension
▁65%
▁precordial
itoneally
▁concom
zation
▁adoption
drome
monstr
▁meaningful
▁0.54
▁0.63
-4)
▁agarose
operated
▁Successful
uridine
▁7)
▁heparin
▁awa
▁600
▁(5)
▁indomethacin
▁90.
▁genotype
▁premature
▁airways
7),
▁hemorrhages
▁Thi
insulin
weighted
▁postoperative
▁intrac
ectomy
▁lithium
▁specialist
▁carbohydrate
▁(0.9
▁Serum
▁Growth
▁reciprocal
▁MIC
athered
▁Differen
▁autoimmune
▁mannitol
hydroxylase
▁malignancies
▁fiber
▁KCl
▁extensively
▁alterations
pirin
anic
▁irrever
▁osmotic
▁colonies
▁quinolones
uanti
▁dors
▁LTC
▁rIL
▁Smoking
▁stripping
▁dysp
ucose
▁0.70
▁biological
plicated
▁predomin
▁6)
▁synapt
-32
▁tamoxifen
omiting
ulcer
▁Prevention
lamp
▁mutant
▁20)
stro
70)
entical
▁paraffin
tein
3%
▁anatomic
itol
▁untreated
enriched
till
▁bones
▁myofibr
▁reflec
arb
▁acquisition
▁deposition
competitive
▁adoles
graphy
amol
▁susceptibility
0%
anding
▁ischemia
▁(13
▁tenderness
▁intimal
▁cGMP
inase
edocromil
▁5.6%
▁(63%)
▁allergenic
prol
tochemistry
▁spati
▁twitch
glycer
idin
erop
▁adrenal
tionally
luded
ulatory
ressed
▁amputation
▁levamisole
▁cirrhosis
▁endotracheal
▁degenerative
phosphate
▁multin
▁lacked
▁psychopathology
endri
▁EDTA
▁acetyl
▁8-12
▁elic
▁immunoglobulin
osomal
▁prolactin
▁reviewing
▁couns
anavalin
itus
▁Thirteen
▁antipsychotic
▁syncope
▁employment
▁Acute
uracil
NM
▁interv
▁sperm
▁(25
olic
▁bronchitis
▁Sodium
▁empirically
▁80.
0.1
▁dendritic
▁sexually
▁Outcome
▁indo
angl
▁cimetidine
▁550
▁filtration
isters
▁19%
▁quotient
robial
▁gradients
0%),
▁consciousness
▁Thy
lude
▁FD
-8
▁durable
▁inhibitory
orac
▁infil
▁HIV
▁casein
▁130
▁illumin
▁atten
▁palsy
trol
▁positivity
tinguish
▁follicles
▁antibodies
▁Acet
▁venography
particularly
▁aggressive
▁10,000
▁nutrition
▁(67
▁innervated
▁hemoglobin
▁nutritional
ithromycin
ophil
▁drops
▁eccentric
▁aspartate
▁insulin
▁diffuse
▁predictive
sectional
▁analgesia
umbens
activated
titutes
▁arterio
-2.0
▁viewing
istribution
▁respiration
▁placebo
▁purified
glucuron
▁Chlamydia
▁etiologies
▁0.29
▁16.
▁229
▁Glu
▁dextran
▁atrium
▁microsp
▁intest
▁AII
▁exhibit
▁acute
▁alternating
imurium
▁39,
▁degradation
rinary
130
ylate
▁polyethylene
▁chicken
▁threefold
enal
7-
▁leth
▁secretagogues
▁Exercise
▁presynaptic
▁pyraz
▁echocardiogram
▁encephal
▁tolerance
pregn
imens
umbers
▁insomnia
▁adolescent
▁CHO
▁saline
▁intrad
▁translational
ulae
▁radiologic
▁Enalapril
▁15%
▁relieve
▁homeostasis
▁thorac
oreal
▁82
reactivity
▁elastase
15)
-7.
▁stu
19)
GI
▁7%,
▁Tc
▁18%
rague
▁pulsatile
vular
▁orthoped
rowth
▁7,
endocrine
▁exhaus
nine
▁autop
▁MAP
▁hepatoma
▁asymme
▁thymic
frequency
▁HRP
▁deoxy
▁consis
▁1991.
sess
▁3
▁plasma
▁14
▁accel
GlcNAc
▁goiter
▁organic
7/
itriptyline
otides
▁DEAE
▁parental
▁differentiated
osclerotic
▁standardi
▁gastro
tially
▁verapamil
ygo
▁supernatant
gnetic
ometh
200
▁95%,
▁(15%
▁Lyme
▁piroxicam
▁adhering
▁cobal
▁DH
▁retin
welling
▁hepatotoxic
▁bathing
▁noninvasive
zyme
▁hCG
▁saphenous
▁cyt
▁14.8
▁transaminases
▁ciliary
▁fracture
▁marrow
prisingly
▁1.5
▁dosage
adrenoceptors
5,
titution
▁Chlamyd
edding
▁Criteria
▁caregi
▁17
pread
coun
▁60-
▁100
▁thiazide
▁demands
▁Meas
▁6.
▁danazol
ituit
▁statis
▁retinoic
opes
uccin
▁resolving
▁currents
tig
endorphin
▁oriented
▁81%
▁traction
▁PKC
uron
▁1
trum
ROS
formin
▁intrauterine
acylglycerol
trodotoxin
▁admissions
mL
▁Kinetic
▁excl
▁alcoh
▁synergistic
▁10(7)
▁deem
▁prescribed
(2+)-
▁0.5-
▁dib
▁systematically
▁enhanced
▁valpro
▁gynec
ucleotide
▁40.
vival
▁300
acerb
▁serotypes
▁reversed
▁blinded
strual
acquired
SDS
▁apical
▁musc
plastic
muscle
000,
▁immunode
converting
▁seques
-400
acyl
mTc
▁reconstruction
mented
exin
▁Estim
▁67%
▁aneurysms
▁latex
▁hyperbil
▁immunosuppres
▁bif
tility
▁immunologically
4%
▁clonal
▁divertic
▁basement
enoic
▁potent
▁hereditary
being
▁colliculus
oppler
IIIa
▁exclusively
▁swelling
▁shif
▁chlorpromazine
ophore
▁immunoblot
▁rota
silon
osidase
▁Disease
▁MRSA
eces
▁cytochrome
▁supplementation
▁plac
▁fibroblast
ectomized
▁hemodialysis
▁idi
gated
▁postulated
▁Older
bacco
▁Accordingly
▁wheezing
▁duplex
▁0.0001)
▁attain
▁lambs
▁276
uscular
▁PB
▁MV
▁250
▁succinyl
▁therapies
▁sulph
medicated
▁[35
cture
▁gly
▁propensity
▁seronegative
▁posttrans
▁inactivated
▁ulnar
▁(4-
turition
▁mIU
▁physiological
▁decreased
▁polyp
▁60%.
▁cac
divid
▁inability
obase
▁pharyng
▁aeruginosa
▁hippocampus
▁naf
▁wheat
▁66
▁TRH
▁intolerance
▁Ia
▁(24%)
igand
cholate
▁1.16
▁micros
tyl
▁sprin
hered
▁94
▁oint
▁200
▁tolerated
▁condensed
yster
▁carc
▁ultrastructural
▁inotropic
▁actinomycin
▁(1.0
▁exhibiting
▁causal
▁maneuvers
▁awak
infection
▁cyto
cycl
▁fractures
▁sple
▁140
▁DNase
▁grip
▁chloramphenicol
▁bouts
▁evaluable
▁serotoninergic
▁cigarette
▁microbi
▁abundance
▁feasible
▁foods
-6)
▁hypop
cyclo
distal
▁exon
▁suspected
▁perfusion
initi
▁leukotri
▁strep
▁kallikrein
▁aspir
versity
andida
truction
▁0.005).
▁enlar
▁HBV
▁9%
▁69
▁Pseudomonas
▁adminis
hepatic
▁continuing
▁tetrac
olus
oside
inephrine
▁laboratory
idating
▁hypers
GF
phosphatase
70
▁dialys
tively
aspartate
▁MH
▁biliary
▁adducts
ylase
tillation
▁definitive
▁antagonists
illus
▁Inhib
ayed
mong
▁nerves
▁eluc
▁analges
▁covariates
▁macromolecules
▁regeneration
promazine
▁mediate
▁nons
▁saphen
estrogen
▁circumference
ivacaine
teral
▁(+)-
▁pump
▁Mast
▁smear
asses
▁constr
▁latency
12.
ymptom
▁thymidine
39
▁ranging
▁interim
▁sten
▁mucosal
ophylline
▁autologous
tative
▁CAT
plen
▁Plate
▁0.97
deficient
kelet
peak
▁medication
▁coagulation
▁dialysis
▁80-
▁unilateral
esin
▁pollicis
▁synapses
▁annually
ffinity
▁acetaminophen
DNA
▁inorganic
▁attributable
▁euthyroid
▁fum
opharm
▁acad
biotic
▁alkal
▁transplantation
▁socio
▁permeability
▁76%
▁furosemide
▁thyroid
kD
▁Sensitivity
▁canc
nary
▁trich
ritis
▁flexor
▁paired
▁70-
▁ectopic
acial
▁0.13
▁weigh
▁homoz
▁Staphyloc
▁histologic
▁persistently
ELISA
ecan
▁elimination
▁heteroz
▁refr
▁1.26
amid
▁Saccharomyces
-0.
▁0.60
▁(7
▁39
▁persists
▁Systolic
▁lymphoid
ullary
ensitization
▁bursts
▁sulfoxide
▁DT
crimin
oice
▁1.35
acement
▁sclerotherapy
▁fertile
▁(23
tilage
vating
tensin
▁Decreases
▁bismuth
▁amyloid
▁anomal
coated
▁bup
▁ankle
enan
▁catheter
▁intestine
▁Functional
enil
▁codeine
▁thrombolytic
▁rostral
▁31%
▁hyperglycemia
lasses
+]
▁Concentr
▁PRL
▁infarct
azepine
▁atria
▁serologic
▁gout
-13-
2+.
▁Changing
CoA
▁phosphorylated
asal
▁challen
FU
ervo
▁grains
▁1:
rometer
▁dispersed
▁elevate
dL
▁47%
▁antimic
▁stret
▁Finnish
▁compete
▁mast
▁lectins
▁dehydrated
containing
titute
▁bab
▁intraperitoneal
▁consistency
magglutinin
kely
▁57%
▁87
stress
▁amput
Ts
▁2.5-
▁2000
▁scanning
▁herpes
▁thrombo
itoneal
▁chromatographic
▁eluted
▁LDH
tif
kinase
cyst
▁proportions
▁9.7
▁confounding
▁excluding
acts
▁enl
▁lysozyme
▁oncogene
▁autoradi
▁restenosis
71
▁compound
▁inh
-10.
▁microorganism
▁GDP
secreting
.9%
ecu
▁estrogens
▁56,
▁wrist
▁accounting
▁encouraging
▁20
idazole
▁hypokal
▁complexes
▁stimul
▁schedules
▁hyperplasia
ophyll
▁(77%)
▁3.6
regulated
▁vomiting
▁cured
ranial
▁mesenteric
ogenously
▁atelectasis
ecre
▁elicited
▁exposures
▁intermediates
▁cytology
▁diclofenac
CBF
osclerosis
▁doxorubicin
▁untrained
▁aerosolized
▁likelihood
▁rRNA
adenosine
udin
▁MT
illation
piratory
▁isoforms
▁recombinant
▁Scale
▁plaque
▁conclusions
atching
-800
▁Effects
▁-1
▁transcriptional
▁immunosorbent
▁Nine
▁polyc
▁lamb
▁intrap
▁collagen
phila
abdominal
obenz
▁operon
▁influenzae
kets
thym
▁toxin
▁75
▁prostatic
zard
2(+)-
▁(2
▁correlated
▁sedim
tract
▁allergy
rachial
tructive
▁pressor
activating
sus
▁GTP
▁therap
iphene
▁hams
aryn
odynamic
▁cyclo
▁infectious
▁acquiring
▁flunarizine
▁oxytocin
▁paras
▁(35
▁referral
acid
ologists
▁resis
erver
▁0.7%
obarb
hop
▁17.1
▁antibiotics
▁reliability
▁Topical
eclamp
adone
▁calcitonin
▁134
aminases
oil
▁neonatal
▁Authors
unctional
▁Clinic
sulfamethoxazole
HCO
▁(5-
▁offspring
piration
▁1.6%
▁insuff
▁52%
▁TMP
▁techniqu
▁overweight
ritish
▁infar
olution
▁sequentially
▁268
otrexate
▁intercourse
▁43
▁2.1
▁aerob
▁puls
▁tuber
▁reproduc
▁washout
▁conductance
▁evacuation
▁dete
▁Stimulation
4.1
RCA
ylephrine
olec
psin
▁11.
▁(5.8
▁dysplasia
amethasone
▁isotope
▁conjugate
▁adop
▁injur
sts
▁toge
▁implying
2.1
hydrox
▁anticoag
oreceptor
▁adsorption
olet
▁liver
▁lifest
▁affec
rostened
ographically
toli
▁xanthine
▁struc
sorbed
▁cellul
▁neurotrans
▁Prel
severe
▁promin
operidol
▁increasingly
▁testis
▁considerably
▁biosynthetic
▁atenolol
▁immuno
cysteine
▁amniotic
toc
▁stimulated
conjug
▁ileal
▁abbrevi
uvate
▁0.0
ducts
1),
nitro
tinu
rous
▁introducing
▁elderly
bred
▁uncontrolled
relaxation
▁spectro
benz
▁(3
▁reabsorption
atase
glucose
independent
emic
semin
aired
thio
-15
▁exud
▁Improved
77
amphetamine
▁1)
▁lidocaine
▁dihydro
▁bradycardia
ognitive
attern
▁(54
▁erythro
uronium
intestinal
▁uninter
▁disrup
▁bypass
▁73%
▁carcinoma
▁Caps
▁aging
▁(29
▁Conversely
gag
cyt
▁modeling
▁(4
NIDDM
▁muta
/9
▁HBs
▁lymph
▁defects
ritin
▁(72
▁necrotizing
▁anatomical
▁cortical
cents
ocusing
opecia
oinositi
▁vasodilator
▁bladders
▁oes
ifug
▁restr
labelled
▁radiolab
▁panic
▁intub
▁fec
etent
sensitive
▁neutralizing
ocardi
▁recru
mend
▁73
55
▁5.7
▁cytologic
▁upstream
▁mim
NH
▁Fourteen
osage
▁irr
olipid
turnal
▁budesonide
rates
▁sequel
▁facilit
assium
▁murine
▁analgesic
▁atopy
xyl
anese
▁PMN
/90
rength
growth
▁tooth
▁deletion
▁Registry
xia
▁0.02
▁transpor
acies
avage
ropo
▁unrel
▁Interestingly
▁dendri
▁LAK
▁GD
▁exceptionally
▁estradiol
▁Hb
▁endogenous
▁3.2%
establ
nucle
▁lysine
▁neoplasms
▁25
▁wake
▁(89
ifers
7,000
ulmonary
▁persisted
▁arrhythmia
