acyl
▁chemicals
▁perceived
▁48
▁Cycl
▁antigen
▁retrospective
-90
▁ultr
▁symptomatic
oretically
▁failures
▁orally
▁kD
phila
▁0.3%
▁overt
▁resc
ventional
▁reac
▁peritoneal
▁junction
▁proportions
duce
59
immunoreactive
▁methadone
▁femoral
▁pulses
earing
▁immune
▁86
▁estrogens
ophysical
▁exud
▁tuberculosis
▁Fifty
lycer
tro
▁lumen
▁aberr
▁underwent
▁-5
▁smear
▁0.70
▁conjugate
▁6-
brids
avage
▁amyl
sAg
deoxy
▁(38
▁postmortem
▁Streptococcus
IgA
ulates
▁Respiratory
▁(28
▁0.01)
▁motif
iaz
ercise
obal
BP
lastic
▁5.3
▁fetus
siology
▁aneurysms
▁enlarge
ocyt
▁pleural
embran
▁glutamate
▁IgG
ucine
▁hyperlipid
▁passive
iatic
▁1.1
▁proliferative
▁elution
▁antigens
▁substitu
▁transforming
linking
▁peaks
rought
▁occlusive
▁0.0001).
▁Certain
▁fibre
ller
▁extracellular
▁permanently
▁demonstration
▁erythromycin
▁esters
▁implications
▁1987
▁chemot
ymme
▁elicited
▁(100
▁airway
▁esterase
▁metastases
▁fibres
▁phosphatid
▁79%
▁surfact
▁responding
patients
▁50,
▁57%
ficial
requ
amel
ses
eration
forming
▁diffuse
planted
akary
▁needle
▁strongest
oprost
▁attitu
▁outpatients
▁identi
olic
onin
tilis
effec
▁questioned
▁sensory
▁osmotic
▁67%
▁164
▁judged
▁CN
▁2.5%
▁dissociated
ocompatibility
▁1%
▁elastase
▁cardiopulmonary
▁utilization
▁PBMC
dihydroxy
assay
▁posi
42
▁biosynthesis
▁livers
▁innervation
kers
▁squamous
immune
antibody
▁plasmin
▁lesion
▁vestibular
asone
▁EMG
mur
▁(33
ruc
ypro
▁concep
▁monotherapy
▁modality
producing
acrylamide
tingu
▁tolerated
▁dors
opar
▁responded
clusive
▁covalent
▁spi
▁downstream
opoietic
▁600
▁reass
actam
▁Clinical
▁EI
▁phosphates
▁deficits
▁perin
orable
▁BM
▁thrombocyt
▁cholera
itant
▁placebo
tus
▁bilateral
▁0.4%
▁baseline
amily
▁nervous
▁frontal
incubation
▁parity
sy
electric
otide
▁HF
▁moderate
▁frac
TNF
▁adip
tivity
Ki
▁adjus
▁40,
▁7.4
▁rabbits
79
▁fractionated
▁accessory
4-
▁synapt
▁1.0
▁AVP
3/
▁cardiac
▁107
▁cereb
▁basement
otype
▁tryptophan
▁40-
early
▁necrosis
▁Comparison
▁circumference
▁irradi
hern
▁20,000
▁Acad
▁allergy
▁histologic
▁causal
▁MAbs
▁105
▁4.8
▁gradients
▁pneumococcal
▁palp
▁nifedipine
▁Ultras
▁dissec
▁gland
trus
▁8.2
▁labeling
▁acetylcholine
▁joints
▁gluc
▁2-3
▁deform
▁continuing
Glc
▁abnormal
▁100,
kinin
okinetic
metic
tified
▁Abnormal
▁infusions
▁equivalents
▁atenolol
▁shunt
▁nephro
cutaneous
illary
angl
operated
tum
▁diffic
▁chicken
omonas
▁negl
9).
ration
▁24,
▁toxic
▁immunotherapy
onidine
▁thromb
years
▁synerg
ropine
.00
▁19,
▁Increased
▁withdrawn
aturia
▁sympathetic
▁arteriosus
▁28%
▁mechanisms
▁postpartum
▁glycogen
▁fluor
▁therapy
fine
▁clinics
▁10(4)
▁collateral
▁diastolic
▁hydrocortisone
0.8
ulum
ticular
▁preincubation
▁Growth
atment
▁hypothe
▁GM
▁stoichi
odgkin
-1-
▁kinetics
▁preceded
▁Impro
▁hypotonic
tenance
▁substitutions
obl
▁hypoglycemia
▁dete
mental
▁hippocampus
.6
▁polymer
invasive
▁mell
.5%
▁ATPase
▁pyram
FSH
▁48-
▁reser
▁Scatchard
▁eradic
▁eosin
▁prostaglandins
▁oss
treated
▁RBC
▁questionnai
▁pathologic
▁weighed
▁excluding
IFN
▁syncope
▁symptom
erver
▁alveolar
phasic
▁reinfor
teroids
jug
▁agonists
▁alkaline
▁gp
▁0.001),
liters
ensity
▁gonadotroph
▁cerebrospinal
roxim
▁ascorb
▁ranitidine
▁Twelve
▁idiopathic
▁160
▁relapse
▁solely
▁patency
▁(95%
▁lipid
▁antiserum
ulants
ociated
▁catalyzed
▁dex
▁30,
ervated
usive
▁measurable
Cu
▁motoneurons
▁uterine
sis
vac
romy
▁electrode
▁monolayers
▁diaphragm
▁moiety
▁introducing
uvant
traum
▁excitatory
ifornia
myc
▁47
▁intracerebral
▁100%.
▁hematologic
igand
▁(10.
▁resection
▁64
bred
ytoin
RP
▁subcutaneous
9-
oag
▁ionic
▁platelets
▁melatonin
▁pts
8]
▁postin
▁0.4
▁thalamic
▁Experiment
▁phenomenon
otherapy
orts
▁sulphate
anine
56
▁extensor
3,
▁steroids
tub
▁31,
cad
600
▁0.2%
▁immunosorbent
trained
linked
▁12,
Daw
▁oligonucle
tussis
mediated
▁regulate
▁88
tox
ophils
▁shortening
GD
sor
occi
erally
▁drinking
amate
▁demands
coun
54
▁unrelated
stranded
trum
radi
▁(50%)
echn
▁glycoproteins
3)
▁118
feren
▁physici
▁thyroidectomy
▁termination
▁PCO
▁aids
▁SG
▁isop
▁superficial
▁neoplasms
▁quantif
moid
otoxicity
▁CHD
▁20%
▁200,
inase
▁copper
▁nal
turally
▁Thirty
▁doses
▁deoxy
olones
enyl
hydroxy
3+
▁regimen
110
▁tryp
iflu
▁Km
tabl
▁neurotrans
oric
▁myo
▁hypertro
tine
▁septum
meas
▁muscarinic
▁apparatus
▁descriptive
icardial
▁intraepithelial
▁colorectal
▁7.7
▁nonresponders
▁plaques
▁competitive
▁facilitated
▁divalent
▁48%
leu
▁isoprenaline
▁caudate
▁abnormality
▁discre
▁conduction
▁allergens
-5-
▁adrenal
▁examin
▁xen
▁nephropathy
▁glycos
▁80,
▁Surgery
ocytochemistry
▁biologically
▁screened
▁yeast
▁approx
▁intravascular
▁neutropenia
▁ovariectomized
▁adminis
▁plasmids
▁calcified
0.0
▁successive
▁allogeneic
▁35
▁adherence
▁probe
▁compartments
▁reflecting
▁enzymes
otine
▁sequencing
gestin
alanine
arly
▁hydroly
▁bFGF
▁adolescents
iminary
▁Cd
▁Salmonella
0)
▁topically
▁cardi
▁bacteri
ignant
/2
▁Ia
▁prevention
▁erythematosus
muc
▁pharmacokine
▁PTCA
stimulating
-2).
aneously
ophen
▁18-
▁tris
oside
▁Estimates
▁helix
▁HTLV
▁antis
▁choles
▁PMA
▁46
▁assis
▁chickens
▁instruc
▁stroma
▁8.0
tiv
▁enlarged
▁axons
tophan
▁airflow
tries
arrhy
oxif
▁admission
ophylline
butamol
▁currents
▁uncontrolled
8)
▁0.29
rowing
molar
▁counseling
-2-
ergy
▁unresponsive
tract
▁repeats
▁ppm
erican
▁confined
hydro
ospor
▁increas
▁Drosophila
onucl
edema
▁11,
▁differentiate
lamp
▁Arter
▁Measure
▁prosthe
▁CTL
HV
▁oligonucleotide
▁duodenum
ositol
▁resis
transfer
▁forearm
rophy
hydration
▁lact
urgical
▁operative
▁hypertensive
▁0.21
▁uv
▁exposure
▁washout
.1
▁enhances
idated
▁pM
rowth
▁ouabain
▁confirms
▁1.3
▁LAK
▁insulin
osocial
▁glucocorticoid
versity
▁.05)
risk
▁regulatory
minute
▁antiv
estradiol
▁hypers
▁adjustments
▁cortical
▁1985
▁rheumatoid
athy
▁symme
▁donors
xual
▁immuno
▁coli
▁radionuclide
▁92%
reening
vastatin
lix
▁exten
-45
otrypsin
▁providers
▁projections
▁157
ochemistry
odeoxy
▁promoter
▁0.36
modulin
otor
ignific
▁vasoactive
▁pancreatic
▁19
▁affects
▁cows
▁ventricular
9)
antigen
irradi
▁amn
▁regurgitation
atine
▁infection
15
oic
acerb
▁phosphorylase
▁angiotensin
blood
▁pentobarbital
▁ventricles
▁lymphoma
▁catab
▁concentrate
▁yiel
▁quantified
▁caloric
▁wt
▁ADA
aicin
▁CRP
mitted
▁perme
▁sequentially
▁SLE
rine
▁recommendations
▁pyr
▁Levels
▁ventilatory
▁GnRH
▁hyperplasia
tabol
farin
▁intracranial
▁metabolized
▁relie
▁membran
istar
▁Significant
ventil
irub
▁encouraging
erated
▁urgent
▁repor
7%)
▁outpatient
▁researchers
▁dosing
dil
pation
▁1989
▁71%
ocomp
▁parac
rosy
▁segmental
yronine
▁oncogene
▁enrolled
▁elderly
▁allogra
▁grading
chlorothiazide
▁syndrome
oxy
▁7.8
ranial
▁infec
imentation
▁inhibited
▁cytoplasmic
PCR
▁decreas
▁Caucasian
ifferen
▁ank
▁0.2
▁perioperative
▁depres
sorb
olus
ximum
▁SEM
▁cesarean
cholesterol
athione
▁gonadotropin
ashing
bly
▁adjuvant
▁antibodies
▁gestational
ophageal
▁considerably
▁therap
▁56%
▁mannose
▁analogues
▁ventil
prol
ophosphate
▁contribut
tosis
renol
62
3;
▁venous
PV
crip
▁hemoglobin
▁respiration
▁diazepam
ovine
▁gum
resistant
methionine
gnetic
▁phospholipids
othane
▁infected
▁mild
centr
▁glomer
▁crucial
oprote
▁insensitive
▁comprehen
reed
▁abundant
▁sensitized
piration
▁Tes
▁neuronal
▁paras
▁genital
▁arterio
▁nonex
▁85
kets
▁sulfate
▁Rats
GI
rogenase
▁4,
▁asthma
/9
terminal
▁titration
▁substituted
▁poten
▁0%
roma
▁Ninety
▁stimulates
▁ingu
ocusing
▁altered
▁leukotri
▁9.0
▁weekly
ulsive
▁2.6
▁68%
ithine
rogen
▁Estim
▁irradiated
▁4
▁wounds
▁10(-6)
▁LVH
▁Factor
uation
ocytosis
▁bactere
opulation
injected
▁DT
▁Higher
chicine
▁threefold
olitis
sibly
▁behavioral
▁4.2
▁differing
▁toge
▁adenine
bral
aric
▁endoc
▁disorders
▁exceeded
▁canine
90
▁valves
▁consultation
9.
▁recurrences
▁ascer
tee
▁irradiation
▁acute
absorption
▁relevance
9%)
▁144
cence
▁300
▁perfusion
agonists
rents
▁(24
▁prospectively
▁immunized
▁cytokines
▁Chronic
▁-3
▁electrically
▁122
5%).
▁cutoff
fec
aminophen
▁proteolytic
dies
▁collagen
▁implant
▁pylori
▁organic
▁libr
▁selen
▁Pretreatment
▁withdrawal
▁nitroglycerin
5).
gic
▁(4)
▁vaccin
▁cis
▁horseradish
▁beats
▁cimetidine
▁2.8
hest
▁3%
▁responsive
seven
▁membrane
▁chick
▁newborns
entral
▁chest
▁clamp
▁glucagon
▁underg
▁erythrocy
▁newborn
▁EE
▁BAL
-11
ritish
▁spleen
▁splenomegaly
▁cros
▁invasive
igenic
▁8.8
▁lacked
▁antiarrhythmic
▁ether
EMG
(3
120
▁differs
▁Concentr
Cer
▁constitutive
▁dermatitis
▁cranial
iatum
▁6.4
▁HLA
lyce
thym
iferative
inergic
▁incubated
▁isolation
▁admissions
▁opioids
loon
-3.
estis
▁Systolic
▁arterial
▁volunteer
▁spontaneously
yroid
▁VLDL
amethasone
▁turnover
trial
14)
zymes
(+)-
▁Intra
▁hypothesized
▁195
▁stab
intensity
odipine
lected
▁esophag
▁synthesize
▁truncated
▁synthesized
2-
plantation
tious
▁pertussis
▁cumulative
hospital
measured
▁(69
50,
▁173
.2
▁5'-
▁olfactory
▁protease
▁10.0
▁36%
▁atherosclerotic
micro
▁unfractionated
▁diagnosed
▁accel
▁RNase
▁PEG
▁abuse
oflurane
▁predominantly
amphetamine
onegative
▁transplanted
▁refr
▁159
▁accid
▁institu
▁endoplasmic
▁diagnosis
▁15-
▁dischar
uminal
opropyl
psych
loro
▁oils
phadex
▁peripheral
eeding
▁aggression
cortisone
▁132
▁influenzae
abec
▁potentiation
▁latent
▁angioplasty
loride
siologic
▁drin
▁cerevisiae
chymal
▁protec
trient
▁carcinogenesis
▁haem
▁febrile
titu
apeu
▁biological
▁supplement
▁thrombin
10
▁arginine
▁Dop
oxazole
administered
▁Fifteen
quine
lux
▁carbohyd
▁fractionation
tations
100
▁consumed
▁effector
▁cytotox
gene
▁pneumon
spectively
tability
pig
▁rabbit
▁immunological
▁GMP
tering
▁neoplasia
▁contributes
▁balanced
▁cate
▁81%
roprus
▁LR
blind
▁exclusion
▁3.1
▁abstin
▁IFN
educed
▁survival
atid
adjusted
▁39%
36
▁putative
alate
▁lymphocytes
▁163
ivary
▁10.8
cephal
▁phenylephrine
ducts
uplex
▁tumours
▁1-
▁0.005).
rosophila
▁7.2
▁121
▁encompass
atally
▁hydroxylase
▁plexus
▁crystal
xate
▁Pneum
.7%)
▁complaints
▁compound
ivered
limb
▁acceptor
▁3,
itoring
atonin
▁retrospectively
▁0.02
▁ribosomes
▁viruses
▁microvascular
▁severely
▁diarrh
▁agon
onatal
▁thymic
uary
▁vagal
-65
▁0.01
▁167
2]
vular
▁negligible
tention
▁reconstituted
▁resemb
▁mononuclear
▁cochle
▁99%
▁experi
▁evolved
ameth
▁HRP
▁immunos
iph
amole
0%.
▁spinal
▁kappa
1/2
▁astrocy
▁inh
▁kinase
▁parasite
benz
himb
▁Sprague
▁bronchodil
shaped
otre
▁ducts
rox
erable
▁tightly
depleted
▁climb
▁MIC
▁0.11
atical
-8
▁0.
▁Myc
▁intraven
▁HA
▁rigid
▁162
▁protr
cAMP
osin
▁115
Leu
▁16,
▁therapeutic
▁neuropathy
oglyc
▁treating
▁biopsy
▁initiation
▁restraint
▁microscopic
▁strepto
▁135
▁myel
▁dilution
-5)
51
DG
▁Mg
duction
▁nicotine
▁subarachnoid
▁vege
tivities
ecretory
▁sequelae
▁69
▁diagnosing
▁pyl
drug
lymph
amphenicol
▁124
▁pretreatment
▁laparoscopy
-125
▁sial
ethanol
stim
▁repl
▁adhesion
▁2.4
▁sensitivities
▁inges
▁standardi
▁findings
orin
▁abolished
▁phosphatidyl
▁thromboembolism
iteal
▁catechol
thrombotic
anol
brom
▁cessation
4/
▁enl
▁Cul
▁tended
▁+/-
astric
tradiol
▁enalapril
-1.
uran
▁20%.
▁2000
▁duoden
▁malabsorption
tection
glutinin
▁54%
▁radiolabeled
iciencies
12.
▁(1)
▁900
ographs
▁(25
▁stres
▁70%
▁progressively
▁formulations
▁employing
▁Purkinje
odopa
selec
▁3).
▁dehydration
▁epid
otomy
▁13%
▁vitro
elec
▁edema
▁chec
osome
inephrine
▁tendons
vents
ximal
acetyl
approximately
tead
▁cytotoxic
▁polyacrylamide
▁acco
ervical
▁prono
▁DMP
▁transduction
tensives
▁hepatotoxicity
entia
Ps
▁15
18,
opa
▁GAD
▁epididym
▁antipsych
1).
▁128
▁25
▁scaven
▁establ
imeth
▁bronch
▁lithium
sia
opathy
tening
ylcholine
▁refractory
tryptamine
74
▁corticosterone
▁Sertoli
9,
▁perfor
▁insertion
▁endo
▁ultim
▁MHC
hyd
▁viability
▁NF
adiol
▁chewing
opressin
▁Registry
▁progn
▁22%
▁organelles
urther
ressed
▁coeff
▁HR
▁Assessment
▁encephalopathy
▁anaesthesia
▁hepatic
trition
▁anoxic
▁0.23
▁perox
cture
leuk
ysm
arose
▁protons
adication
▁NP
▁resembled
carbon
deficient
▁pediatric
▁adequate
▁veins
oride
▁diarrhea
▁(15
lasts
▁glomerular
▁consistently
▁uter
▁visualized
▁staging
▁renal
▁adrenoceptor
▁weigh
ophilic
terol
7),
▁fatigue
tension
▁Hodgkin
trover
monary
▁juice
▁proteinuria
▁modeling
disc
itrate
▁bursts
▁supplemented
▁paroxysmal
▁(30
epine
ovirus
crimin
▁800
▁practition
uppres
▁foci
▁oxidase
▁51
▁clonal
▁specimens
▁prevalence
▁interferon
37
opsy
6,
▁chains
▁offspring
▁enamel
▁streptococci
▁mmHg
acts
▁adulthood
▁augmentation
transformed
oustic
▁Fourteen
▁densities
▁examining
▁preoperative
▁carp
▁catheters
▁commercially
▁chlorpromazine
▁perc
▁accumulate
▁lamina
▁angi
atation
▁cytos
independent
▁(0.0
▁Complications
▁sphincter
▁3.6
▁supernatants
▁sedative
▁brainstem
▁indus
ronchial
▁contraction
tics
urium
▁synovial
wes
ications
roup
▁radiolab
▁intolerance
▁priming
▁PRL
▁(79
ronch
▁26
▁tobacco
orh
inum
aptic
▁synergistic
▁catalase
istribution
acental
prising
tectable
abies
▁centr
▁isometric
GTP
▁washed
▁modulated
▁homozygous
0.9
chemical
taining
▁Experiments
▁myocytes
▁anemia
▁mM
▁haloperidol
▁sugges
▁isoelectric
▁sutures
▁Fc
▁anticonvulsant
▁dysp
▁transfusion
▁cytochrome
46
mTc
▁luminal
▁bicarbonate
▁collagenase
▁hypothalamic
▁155
▁ovaries
sych
▁ethical
4,
▁atypical
▁evid
▁desaturation
responsive
▁amylase
▁Groups
▁unid
▁heal
aldosterone
▁epithelium
▁gonorrh
▁theophylline
▁struc
trogen
▁apprec
MN
ropath
idis
feron
incip
ometri
azepine
ipit
▁selective
▁meaningful
▁Inhib
▁thromboembolic
▁gastro
▁resear
▁surround
▁glycer
▁regulated
▁muM
▁interstitial
lysine
▁95%
▁leuk
8,
▁Meth
▁1,25(
▁endothelium
▁endarterectomy
▁vasodilator
stant
▁autoantibodies
▁intramuscular
▁embryo
aginal
lobulin
▁predictive
▁(76
▁myelin
▁antitumor
▁electr
▁sequential
oxin
sue
▁obstructive
▁circulation
plasty
▁0.05
▁(5
▁recurrence
▁decreases
▁predicting
▁64%
ials
▁Interestingly
▁20-
▁immobilized
ycline
▁exacerb
▁synaptic
thanol
pain
essation
▁prostatic
mia
iated
68
▁unc
▁enlargement
▁abundance
▁hyperthermia
▁injec
tively
▁usefulness
▁investigated
▁promp
▁31
oretic
▁(1,
▁1.25
38
sulf
▁lacks
▁ANF
▁persistence
▁homogeneous
rophob
▁contractions
▁1.6
▁morb
ubicin
▁KCl
▁colitis
4%
ergic
▁iod
%),
▁dendritic
▁secretagogues
rophic
▁sexes
duced
▁erythroid
▁lob
▁tubes
tate
▁bladder
amyl
▁myocardi
▁celiac
▁68
▁91
▁outbreak
▁pHi
tochemistry
isol
▁denervation
66
▁esophagus
▁phleb
▁infused
uterine
▁hydrophob
aminidase
▁adduct
▁telephone
leucine
flammatory
endorphin
menopausal
▁23
tisone
▁30.
▁receptors
rein
▁metronidazole
▁52
▁antagonist
▁preval
▁psoriatic
▁deposits
▁0.10
▁deterior
3-
▁Addition
▁4).
wann
▁nasal
▁elevate
1)
▁sialic
PAGE
▁exerted
▁HSV
▁IgE
opril
itro
clamp
HF
▁(21
lymer
▁outcomes
▁mutations
▁depended
▁homogeneity
truc
▁smo
▁cerebrovascular
atest
idespread
▁focal
determined
▁6.2
▁61%
▁eti
aminergic
▁antioxid
▁atri
▁(13
kground
ministration
ialysis
urine
▁paralleled
-5
▁transaminase
▁residue
▁formulation
▁350
erative
▁mobility
▁0.9%
▁ovulation
▁puber
▁trimester
▁spikes
opres
▁qualitative
rays
▁musc
▁cancers
▁indicators
DV
▁Relative
▁cann
roscop
-400
eptidase
carotene
▁TRH
ampl
▁envelope
▁efferent
0.5
▁Incubation
▁catalytic
tumor
▁ventilation
▁achie
▁dyspnea
▁conditioning
uctose
ilep
▁medulla
clinical
tran
trodotoxin
▁virul
arginine
▁surgeon
agic
ediatric
eal
▁overweight
anding
▁Staphylococcus
otypic
▁urine
orac
▁trauma
▁aerosol
▁Cardi
▁mixtures
▁ovari
▁plaque
▁incompletely
▁cyc
▁syndromes
▁hairy
▁Oste
▁eosinophil
clin
▁75%
▁measuring
▁ionized
▁panic
aning
▁nude
▁preparations
▁cotrans
▁facilitate
▁sensitization
▁Hep
ipitation
▁deposition
▁emptying
▁somat
▁carboxy
▁TPA
▁biopsies
▁Sixty
▁arteri
▁calves
▁FEV
▁14-
▁inactiv
▁thyroxine
jun
osynthe
▁guanosine
rehen
▁intractable
▁imipramine
▁sulph
helin
▁25-
▁discrimination
▁9.2
▁lipids
ithromycin
▁RT
tetra
dT
▁(18
91
▁knees
▁neoplastic
usate
▁PV
10,
retin
▁Beta
▁antibody
▁152
▁virtu
otoxic
▁92
dine
▁viscer
rease
▁chloride
piratory
asses
▁colony
▁complexes
▁Stimulation
CDD
acted
▁Effec
▁spati
astatin
brain
▁outs
▁Highly
▁basolateral
▁nasopharyngeal
▁MK
▁26%
▁kidney
▁86%
thel
soluble
▁antagonism
hydroxylase
▁awareness
titute
▁myocardium
▁phy
ploy
▁pancreas
ulmonary
astatic
welling
▁graded
▁suppressive
keratin
▁EGF
▁transgenic
tiveness
▁polymerase
tron
▁confounding
▁chicks
▁29,
anthine
67
▁regurg
▁saturation
▁unde
▁bacteremia
▁concomitant
tant
dipine
esides
▁131
▁splicing
▁96
▁conclu
ithin
▁insufficient
tracellular
▁mV
▁poorly
▁Significantly
10.
▁cycloheximide
▁rated
▁electromy
ressing
▁clonidine
iasis
▁intermediates
▁dihydro
helium
muscle
▁chromat
▁addic
▁mucosal
▁availability
iably
toli
erating
▁predominant
▁moderately
▁dietary
▁HC
▁Mortality
ostomy
▁progres
▁urinary
ochondr
▁fibers
kine
acetic
▁rotavirus
43
▁immunogenicity
▁titrated
triglycer
▁motone
.8
▁slowing
▁Concentrations
▁abdomen
▁autopsy
motic
ecyl
oproterenol
▁Conversely
aints
▁strokes
▁axial
lasting
700
▁astro
atinine
▁bradycardia
▁bradykinin
▁bile
▁65%
rocy
▁proteinase
▁gon
▁rectal
25)
▁decreased
▁inactivated
ctomy
▁molecular
▁osm
▁liposomes
utyric
▁operon
▁clinicians
▁metall
▁VA
arrhythmic
▁epidermal
▁Elec
▁WHO
tential
uppression
▁bip
matched
▁enhancing
uble
osity
thyl
▁distin
▁electrophoretic
▁proteolysis
▁alteration
▁PDGF
▁hap
▁lymphoid
▁PKC
▁inpatients
▁10,000
-2)
▁synthesis
▁eliminating
▁inorganic
▁Comparative
▁illness
▁placental
▁VIP
ostr
histamine
achid
orbol
-8)
LV
oconstric
▁elevation
▁transpor
▁OC
63
▁pulsed
▁hypothal
▁MAb
▁ocular
▁vasoconstric
▁fluc
▁7.9
▁reductions
(1
▁streptoc
terin
▁134
▁incorporated
▁hetero
▁tibial
▁transplant
▁therapies
emide
oice
▁brains
40)
ascular
blockers
molec
5%),
▁tension
▁pneumonia
▁phag
-1
ariate
▁contralateral
▁phospholipase
▁ductus
orphine
▁6)
▁103
▁fmol
▁hospitals
8.
▁dys
▁histologically
▁pmol
0.
yx
▁alanine
▁pacemak
▁1500
▁anat
▁splen
▁conducting
embrane
▁supplementation
vices
ocl
▁isch
carb
▁40,000
▁Vmax
▁referral
▁cyclospor
6),
tinguishable
▁TMP
▁cysteine
▁oste
▁ket
phor
regn
1.1
▁quantitatively
olute
▁atrophy
▁1.4
-36
▁CsA
arbonate
atories
▁defective
▁mucin
▁mobilization
▁insuff
▁follicles
▁obese
▁concentrated
▁hipp
aired
▁hematocrit
▁stimulant
▁fiber
▁osteoarthritis
▁precursor
▁noradrenaline
▁evaluations
▁thalamus
nine
▁grain
▁monophosphate
▁pulmon
▁1200
▁captopril
▁96%
▁139
▁unre
▁thirds
▁Infection
▁amplitudes
▁(75%)
mentation
dihydro
▁direc
▁extensively
▁compartment
▁encephal
▁heteroz
▁(46
▁alterations
ologically
evoked
▁phospholipid
oate
▁mucus
▁diaz
toxic
▁lis
▁inhibitor
herence
FEV
oprotein
tensity
▁Nineteen
▁aorta
▁fossa
▁contaminated
ominant
▁hydrox
▁examination
▁contributing
▁colonization
▁persists
▁mucosa
▁arous
▁arti
▁cDNAs
▁RNAs
xia
▁Positive
▁encour
▁fluorescence
▁antagonized
▁resec
▁regeneration
▁infusion
▁suicide
▁hind
▁temperatures
▁expiratory
▁hygi
tured
▁fibrillation
▁DP
▁intestine
▁rIL
▁49%
▁mammary
▁Hz
▁microsomal
enopus
orrh
ralfate
▁Increasing
▁hypokal
▁cellular
▁epidural
ineal
▁anesthesia
etent
▁transferase
inemia
otides
▁sediment
▁depressive
▁metabolism
▁tachy
▁plac
bloc
ASA
50
rotal
kage
▁transi
tak
▁cytologic
▁aerob
uclear
▁microv
silon
▁adoles
▁185
▁differentiated
PB
▁discharged
▁transit
▁raises
▁10(
▁dysplasia
dyle
fos
▁8.
▁macrom
reased
controlled
entricular
iciency
▁injur
opathic
▁Disease
▁000
▁sensi
▁sheath
uron
▁calmodulin
▁adop
pran
▁adenomas
▁sucrose
▁50-
▁correlations
▁ml
5'-
induc
▁Clin
▁(22
▁hyperlipidemia
riton
▁shedding
ulae
▁(1.6
▁methyl
▁painful
IgG
fts
▁bp
ecu
▁10%
▁-4
▁pineal
▁preventing
hion
▁mL
▁doubled
reast
atitis
▁infections
▁11.
▁tachyc
▁breakdown
▁testosterone
▁diltiazem
aryotic
▁transcribed
alasin
▁esophagitis
▁PGF
nai
▁minority
isolated
adex
▁physi
▁disulf
▁0.47
▁creatine
▁supportive
▁phospholip
terase
▁inhibition
▁endpoints
▁pancre
▁(56
▁10(5)
tinguish
infected
▁placenta
▁coated
▁atrium
▁cyclic
▁39
albumin
▁(27
▁Seventy
▁dimethyl
▁ribosomal
▁25%
tropine
▁tachycardia
12
▁0.38
reness
asic
0.3
obenz
8%
▁galact
▁complic
tisol
▁DH
induced
EGF
▁gingival
▁dialysis
▁omeprazole
▁intub
▁examined
▁cys
▁structurally
▁metastasis
moderate
▁Fib
▁degrad
heximide
phine
▁Acet
-2,
▁medically
▁sedimentation
▁HCO
oproteins
enkephalin
phragm
RNA
▁supernat
▁aspec
▁elong
▁ethyl
▁precipit
gesia
eces
diabe
▁mucos
ystag
▁crosso
▁catecholamine
tency
▁outward
▁bull
▁116
▁fluorescent
▁mec
▁mildly
atectomy
▁TB
▁Lact
19
loidy
cellulose
▁immunoprecipit
▁Patient
▁discontinu
▁attenu
BM
▁(+/-
▁slic
▁ammon
▁reconstruction
LDL
▁-1
allik
▁diabe
▁ey
▁Haem
▁renovascular
icient
▁aqueous
▁incub
▁neurologic
▁acids
idate
trac
▁interviewed
▁8,
▁encodes
▁capsules
▁sperm
▁imaging
▁euthyroid
▁151
▁retur
▁neurob
oplas
april
hyp
▁thyro
▁lysosomes
▁undergone
icide
▁(72
ncies
esthe
▁respir
▁immunoglobulin
.4%
▁amph
▁37%
▁digestion
▁spor
▁anaesthe
▁clot
salt
▁extrav
IDDM
▁anticoag
▁hemorrh
▁correlating
1;
rolase
▁intervention
uginosa
imide
▁40
▁25,
▁fertile
▁consecu
▁Cells
▁BW
incub
▁Lymph
▁symptoms
▁87
▁cyst
▁unselected
Ala
erad
4,5-
▁bromocriptine
tration
ucas
globulin
▁computerized
▁fibr
sodium
▁efflux
ospitals
20
tice
▁subcl
▁0.005)
▁labelling
▁haemodynamic
olarization
▁guinea
pinephrine
▁diagnose
▁capillary
▁produc
▁evoked
▁administered
heum
opi
▁sati
▁excision
-2.0
sibility
uled
▁cigarette
▁neutrophils
▁106
▁longitudinal
resid
▁aneurys
▁gastric
▁recruited
bic
▁attain
osylation
▁amput
▁undergo
uncture
▁upright
▁contex
▁bilayer
▁catheterization
▁hemodialysis
4.
promazine
▁adverse
/6
▁acutely
▁poisoning
ocor
hers
▁0.48
▁activator
▁dramatic
omies
▁instrumented
▁exclusively
oil
▁septic
▁salivary
▁hyperglycemia
▁crystall
▁hypothalamus
▁myof
▁enriched
▁(0.
▁mice
▁radiologic
▁abrupt
veolar
onazole
thromb
imidine
▁mutagen
sions
▁8.4
amination
PTH
▁80-
divid
imens
ctive
▁connec
▁microM
▁Transi
▁rhe
▁RI
▁spont
▁suppressor
▁institutional
▁rupture
keto
▁8.3
▁drops
exis
▁jaundice
mg
▁Evaluation
olet
▁malign
▁surveys
1-
▁illnesses
)],
phosphatase
▁isoform
▁motility
▁10
▁forskolin
1%
idne
▁rhinitis
▁(300
▁(150
▁aspirin
tase
▁irr
▁suspensions
▁puls
aund
▁murine
hemical
▁aluminum
▁coag
▁dehydrogenase
▁symptomatology
ulin
▁analyzed
▁psycho
▁grades
▁67
▁pati
▁pump
ults
oprim
8;
▁Hb
▁pretreated
▁arousal
phosphon
ensory
cells
erox
▁behaviors
▁antibiotic
diabetic
▁achieving
ellar
▁satisfactory
▁peaked
▁guanine
teral
▁Leu
oxic
▁similarities
▁thickening
▁varies
ozo
pinal
▁ligand
▁preexisting
▁athe
▁(44
▁employment
▁linkage
▁epidemiological
▁phosphorylated
▁ofloxacin
respon
.1,
▁hypothesize
▁VO
-20
▁plex
entanyl
.5.
▁rota
▁oxidation
▁HIV
eptide
▁instr
threatening
▁cyclooxygenase
▁favorable
▁tiss
▁activate
thirds
utyryl
5%)
▁scanning
mol
▁pooled
▁amplification
▁0.05).
ydig
aternal
▁selec
▁sputum
▁damaged
▁multim
▁exchan
reduced
exercise
▁neuropeptide
-14
ectomized
▁calcium
urane
▁androgen
ATPase
▁goiter
▁excluded
▁Mild
▁stret
▁36
floxacin
▁clom
porting
▁projec
▁0.1
vae
▁ratios
adrenergic
rested
▁experimentally
▁weakly
inating
▁chronically
inj
(2
▁bacterial
▁electrolyte
▁tas
▁triglycer
BG
▁4.4
▁plasma
▁mitral
amine
Mu
▁modulate
dose
1),
▁revascular
thma
▁supplements
▁freshly
educ
▁questionnaire
▁controversy
▁32
▁interleukin
▁Calcium
iol
mented
▁acet
▁endothelin
94
plas
himbine
ophil
▁leukocyte
polar
romycin
2,000
▁neutrop
enoic
▁grains
▁5.5
▁drinkers
▁156
osid
▁(500
▁shortened
▁olive
▁granulocytes
▁Changes
resist
/20
▁uncomplicated
▁kidneys
▁teratogenic
▁.00
▁displacement
tribution
▁pigs
▁17%
ophy
▁palmit
cancer
ardia
▁transloc
trating
altered
▁killer
▁5.
▁ultra
▁(4
▁(6
▁69%
▁Functional
▁constric
inyl
.0,
▁nodules
oresis
kines
▁optic
uretic
olgi
▁glands
▁discus
▁modeled
▁enti
▁chloramphenicol
▁induc
oglobin
▁180
sistent
riched
▁ligament
40
disciplinary
ronectin
▁Intr
-4-
▁4.0
0,
▁irrig
idazole
▁serologic
opath
▁ovarian
ancomycin
▁inhalation
pregnant
▁confound
titution
▁LN
▁FSH
▁ions
▁utilized
▁filaments
▁NT
▁relap
rocytes
▁hypoxic
aspartate
+)-
▁lesser
▁reliably
▁12
▁34%
400
usal
▁efficacy
▁fulfilled
enh
▁nutrient
▁HPLC
rated
tual
▁sphing
▁indomethacin
▁promoters
▁necro
-8,
▁duodenal
▁Therapy
tives
Nase
▁autoanti
/100
▁nuclei
53
▁TF
oradi
ateral
▁(80
▁protoc
▁covalently
▁41
being
aid
▁10.7
▁echocardi
▁serum
▁ibuprofen
▁aspartate
▁opioid
erance
▁superoxide
▁sti
▁10(-4)
▁BV
▁adenosine
▁progestin
▁virtually
▁births
FGF
anav
▁disorder
▁electroly
▁genetic
▁adren
0%
▁bacter
▁theoretically
▁Exposure
onium
▁differentiation
▁immunosuppres
▁0.001
-4
▁Doses
ordial
▁exon
▁sigma
elan
▁spine
inic
▁microscop
econd
▁Unlike
▁molec
▁discriminant
▁homology
▁30-
urgery
havi
▁pyel
▁absorb
▁49
oriented
▁standardized
▁glycerol
▁Triton
▁excised
▁autoradiography
▁activating
▁thrombosis
▁sarcoma
▁baro
▁transmitter
▁NADP
ocyan
roxy
leukin
▁pK
oplasmic
▁juvenile
▁fum
▁substance
▁laboratories
▁topical
▁conjugates
▁glycemic
▁Evidence
78
▁lectin
77
operox
▁6.6
▁depolar
▁11%
▁amputation
▁adrenaline
siveness
▁leuc
▁mug
▁analogous
▁saturated
nec
-32
▁Lys
ilized
▁AI
▁rheum
plastic
ication
rences
▁pene
yrate
pharose
▁azathioprine
.9%
▁80%
▁Almost
▁unchanged
▁5-
gesterone
▁peptides
▁pelvic
▁hypertension
orated
olerance
▁encoun
▁intensities
▁AH
▁bone
molality
▁transient
-4)
▁40%,
▁absorption
▁mediate
razole
2+
adrenaline
▁4.6
▁prol
▁systematic
▁(2),
▁genotype
oluble
▁nig
▁subc
labelled
ostic
oinositi
▁gains
▁redox
alp
▁(67
oplastic
parathyroid
▁normo
ropathy
thrombin
▁psychological
yste
▁fever
▁tremor
▁cerebro
▁endotracheal
tissue
ilateral
epti
▁cartil
10)
▁intermittent
▁limiting
otyp
▁airways
▁randomized
▁epithel
▁shar
▁pate
ameter
▁inherent
▁competi
(2+)-
adders
▁radiol
▁feeding
▁2.7
▁PRA
▁Rates
admium
▁ubiqu
phot
cg
dominal
▁hyperch
▁carboxyl
▁70-
▁consistency
▁0.78
▁stomach
▁189
tization
▁strains
70
▁Leydig
6-
galactosidase
▁diame
▁asthmatic
▁(1
▁ib
▁throm
▁adipocytes
▁adipose
corrected
▁variability
ulant
asting
▁autoradi
▁monocyte
gth
-1),
▁contractility
azolam
▁guidelines
trated
-23
▁ultrastructural
azone
▁prognostic
▁cyto
athetic
▁keto
clerotic
▁AMP
▁progressive
ologic
▁leukocytes
▁gonadotrop
kDa
enteric
ochle
uric
▁implic
triglycerid
▁sucralfate
▁surf
▁125
ulatory
▁psychomotor
▁wake
timal
▁bab
▁(2.5
HIV
▁dox
▁progesterone
▁Meas
stin
▁distinguishing
+/
▁mediators
▁redistribution
itre
▁accurately
▁messen
▁cytokine
inositol
▁phi
▁participate
tebral
▁neurons
▁Pain
▁(47
▁saliva
▁inguinal
▁rheumatic
▁LD
▁suppression
▁Mn
▁8.6
▁sorbitol
venty
yridamole
gland
▁inactive
genic
ordance
associated
▁medication
▁aggres
ocellular
orsal
▁cruc
expressed
acycl
▁indi
▁elongation
▁respon
▁tyrosine
otri
▁Angiotensin
▁nondiabetic
▁OKT
▁plas
▁11.5
▁vibr
▁dissemin
▁satisfactorily
▁gonadotrophin
▁vaginal
▁limb
▁improves
▁radiographic
eryth
ycin
▁89%
▁satis
ynthe
teine
▁13-
▁cathe
▁expense
opha
icillin
▁98
vated
▁abdominal
▁degen
struc
▁reflects
abd
▁autop
▁250
▁kDa
iliary
▁hypercal
pendent
▁prolonged
▁0.80
▁24-
lec
▁oxytocin
▁triglyceride
▁fructose
trop
▁monos
▁Diabetes
▁evac
▁susceptible
▁59%
▁assessed
▁wheat
▁emergency
▁benzodiazepine
▁neutralizing
ituitary
▁mothers
▁3'
▁elevations
inhib
lyb
owever
obacter
▁1.8
▁sustained
▁irreversible
itum
▁corticosteroids
oxide
ylon
4),
▁lam
▁caffeine
amuscular
renaline
vail
individual
▁cortisone
▁epiderm
either
▁(25%)
iotics
monella
▁immun
▁attained
▁impairment
ophag
▁heavier
iesis
▁NSAID
▁tryptic
▁Combined
▁ward
0%).
olated
ipheral
▁centers
▁stimulate
▁cultures
▁surveillance
▁luteal
▁158
▁resistant
▁pharmacokinetic
ergen
▁synthase
ignificant
▁splenectomy
onuclease
▁(7
▁contamination
arone
receptors
▁nonsignificant
thmatic
▁explored
▁CCK
-6)
▁diseases
▁amin
▁poorer
▁silic
ortal
▁corne
psin
▁conductance
▁avian
▁cited
▁persis
ocomial
▁magnesium
▁54
odium
▁bloc
▁cloning
significant
lastoma
▁stric
▁amel
▁predic
▁construc
▁substrates
▁glycosyl
▁85%
▁Measurements
▁systemic
uvate
▁granule
unar
-(1
▁4.
▁histamine
▁phagocytosis
▁increments
▁GH
▁PF
tenti
▁2.1
▁competent
▁BMD
▁dial
▁hep
▁dopaminergic
itary
▁ae
▁nM
▁reduc
▁1:
▁spray
oreg
initi
▁regimens
▁fluctu
▁(60%)
▁interv
▁atherosclerosis
▁qualit
▁antidepressant
▁depress
▁deter
▁tetan
▁18%
▁Thirteen
▁descriptions
/1
▁consciousness
▁bromide
aminob
▁strand
oA
▁forebrain
▁adduc
▁pharmacy
▁clus
pread
▁BA
▁epilep
idation
500
▁inappropriate
▁COPD
onor
tetr
▁shor
▁unil
gans
▁nerves
▁mRNAs
▁amino
▁CABG
▁110
▁dissection
▁uterus
▁TCR
▁coping
▁hypocal
▁comprising
▁tumour
▁Statistical
siological
▁diameters
▁6.5
▁87%
-20%
▁chromatography
accharide
▁myc
treatment
▁ketoconazole
▁(11
▁caudal
▁shifts
▁43
▁molar
▁tear
rele
▁membranes
ilical
21
▁trachea
▁11.2
tism
otrexate
▁hospitalization
▁fibrosis
ighted
▁positioning
▁Retrospective
▁heavi
39
▁63%
▁Sout
azole
enters
▁reflec
brile
asal
▁35%
▁(20
coh
ietic
2;
▁multis
▁evidenced
acid
▁cardiomyopathy
7;
cellular
produc
▁unm
▁perinatal
▁recruit
neu
▁nylon
sensitivity
▁cardiomy
▁antero
lym
▁(82
▁lymphocyte
▁desensitization
65
urations
ducing
usp
releasing
▁DS
▁novo
▁incontinence
▁granulomas
▁sampl
▁pellets
ocyte
athyroid
27
yridine
▁participating
▁0.0
administration
▁Tn
▁interne
▁atten
▁volunteers
81
▁menopausal
▁cytotoxicity
▁17
▁schizophrenia
▁Myocardial
taz
▁intermedi
▁stimulatory
▁determines
idol
▁30%,
▁lactate
▁-6
▁gly
ogenicity
▁presentations
▁flora
▁inducer
irds
▁immunoprec
▁78%
▁ACE
▁histidine
oxid
fat
▁Tc
opam
▁hydrolysis
▁agglutinin
▁habits
apanese
▁hypoxia
▁hepatitis
oxygen
▁accep
▁Sephadex
rocyte
apine
▁angiography
▁19%
▁spectroscop
▁112
androgen
▁SDS
osides
▁enzymatic
▁calories
▁56
tia
thi
.0
▁adenocarcin
▁bronchial
▁lethal
▁radioactivity
▁detergent
▁clamping
▁exce
3]
ocular
▁HS
6%
▁oxide
▁infants
▁PD
▁particulate
▁tissue
▁gradi
▁tol
▁serological
▁scalp
▁(23
▁departments
▁harves
▁blacks
▁fractions
▁diabetic
lives
ching
▁8-
▁1990
▁Alzheimer
tivation
olec
▁cigaret
▁disruption
▁2,
ensitization
▁hormonal
▁elicits
▁CFU
plasia
▁enhanced
▁35-
▁horiz
median
▁neuromuscular
▁kb
▁aspiration
ADP
▁recipients
▁90%
▁208
▁paral
▁Hear
▁sensitivity
5]
odds
▁radicals
▁fused
▁deviations
▁molecule
▁loci
▁Reduc
yclo
▁polypeptide
▁influenz
1:
omat
▁(4-
ylephrine
▁12%
▁170
ymptomatic
▁qualitatively
▁immunogenic
▁hyperthyroid
-9
▁determination
▁iodine
▁NaCl
▁clones
▁280
olesterol
spective
ionine
▁tetrodotoxin
▁paradoxical
▁perone
portun
▁recombination
▁Epid
▁scinti
▁lys
▁3
▁differen
▁granules
natal
▁positives
▁immunoreactive
thal
ellular
dU
▁Subsequently
▁lifest
gthen
▁LDL
▁EA
▁detrimental
osus
actin
sian
tric
▁IA
▁rearrangement
1.
diagn
▁(2
endri
▁(42
▁RIA
▁amygdal
▁pathological
▁ure
▁197
▁conjunction
▁0.1,
▁auditory
amous
▁laboratory
69
▁9-
▁arrhythmias
hypertensive
▁lymph
▁elastic
▁ambulatory
GH
▁implants
2%
ranolol
angi
▁capillaries
▁stenosis
▁stimulus
▁attenuated
▁phospho
▁(1.2
oxine
▁14
▁polysaccharide
cysteine
▁rostral
▁subpop
▁myocardial
▁discom
glyc
stimulated
▁0.02)
▁(62
icep
▁definitive
▁dextro
▁buspirone
▁favorably
▁idi
▁cavity
▁synov
▁ACh
▁20)
▁mAb
mortem
▁supra
enem
sized
▁perception
▁anastomosis
▁streptococcal
▁nutritional
▁dismut
ginine
▁conformation
ilol
IGF
▁sph
▁phorbol
▁(8
▁buc
▁vulgaris
-2.
▁polyclonal
▁Swed
▁55
▁nitroprusside
▁chamb
lasses
-1000
ompan
adm
▁professionals
ystic
alact
▁difficul
▁saturable
acterial
lyl
odg
▁cyclosporine
itone
rogesterone
icardi
vertebral
reactive
▁lysine
▁hypothyroid
▁distress
▁neurolep
▁20.
▁pulmonary
▁Risk
▁phosphodies
▁reveals
restric
▁CRF
traction
▁hypogonad
otroph
plants
▁oes
22
▁arterioles
▁proximal
▁perfused
▁supernatant
athic
glut
▁inflammatory
▁exhibited
echan
▁chloro
▁tetrac
▁progression
▁43%
▁medullary
▁otitis
▁95
uded
▁sut
▁unexpectedly
▁frozen
oes
▁averaged
gely
▁2)
oreal
examin
▁percutaneous
VT
▁antid
▁investigators
oneph
▁(50%
▁treatments
/24
▁carcin
▁breathing
▁widespread
▁extrac
▁Scale
uin
▁2%
▁(99
▁Examination
unctions
▁colchicine
▁Eco
▁deduced
▁gangl
5)
acchar
200
ionate
▁3.9
5%
RD
turnal
▁elective
▁afferent
DNA
opathology
till
000
▁beneficial
▁corresponded
▁(1.5
▁differe
▁176
▁cisplatin
▁9.7
▁expec
▁erythrocyte
▁oxygen
99
▁arising
▁fertility
merc
▁(39
▁methionine
▁typhimurium
▁avoidance
▁constitute
▁radioactive
inesterase
ochemical
▁50%
onomic
▁ischemia
▁optimum
ATP
arb
▁clu
▁proteoglycan
▁Cardiac
isomer
▁conges
▁infarct
▁thym
▁1960
▁paternal
▁concordance
oglobulin
▁electrophoresis
▁vitamin
onad
trypsin
▁competence
▁capsule
▁nucleus
▁reproducible
▁citrate
▁cDNA
▁thymus
▁Indi
▁catecholamines
▁hematoma
▁acidosis
ifed
▁diagnostic
17
▁hypoglycemic
▁mumol
5),
sities
mokers
▁maturity
85
aind
sorption
▁dendri
botic
▁7.
activated
▁2.5-
ortic
▁vag
directed
entif
isole
▁polypeptides
▁depressed
onography
▁xanthine
jec
▁CNS
entile
▁inadequ
▁inhibin
illance
▁schizophren
▁thrombotic
▁UV
▁bleeding
▁sciatic
▁16%
▁maturation
▁pharmacological
▁FT
sied
▁papillary
▁PAI
▁fist
▁0.5,
▁6,
ellum
sorbed
partic
▁pathway
▁blockade
olution
prandial
▁degraded
▁5.7
▁brady
▁elas
nisolone
▁mammals
▁eicos
▁oocytes
▁ND
)2
enicillin
▁portions
lamy
▁MG
▁Tissue
▁fibros
▁preven
odiaz
▁olig
iper
▁efficacious
▁excl
▁interference
▁percentile
▁penile
▁deox
▁serotonin
iotensin
92
▁23,
ayers
▁stimulation
olateral
.0)
▁bilirubin
▁chromosomes
unts
▁discriminate
▁pathogenic
ococci
▁lungs
▁retic
▁determinants
olol
▁stromal
▁0.24
▁ciprofloxacin
▁anastom
▁nodule
▁predictor
▁duplex
omiting
▁masked
▁brush
▁60-
▁autonomic
▁hypotension
potassium
▁carbox
imurium
▁remission
adder
▁inters
▁corpus
▁lute
▁occurring
▁marrow
▁arom
▁136
▁[125
▁promo
TG
▁noninvasive
omes
▁positional
anic
ivac
▁cured
▁effectiveness
onstric
utaneous
amol
▁transplants
▁trend
Tyr
rever
udin
60
▁(31
▁modest
▁defects
▁manipulation
▁hydrophilic
▁trigg
▁LTB
▁psor
▁carotid
vation
▁coronary
rolog
ophore
▁lobe
▁oxidative
othiaz
▁chlor
▁regained
roscopy
▁4.5
ulitis
▁tubular
infection
▁fulmin
pecific
▁reversal
▁Morph
▁LDH
venous
▁parental
especially
omycin
▁preterm
▁trache
imid
amic
▁Subjects
onuclear
▁5.1
sess
▁ESR
▁Plas
▁(95
▁glyc
lated
▁titers
▁locus
▁Progesterone
▁onc
▁fentanyl
▁wk
adian
▁responders
▁7.3
▁poin
teroidal
mong
▁overe
▁reasonably
▁tox
▁10.
▁inadequate
▁retinoic
ceptions
acting
▁kidne
▁retin
▁mamm
▁sacrificed
▁hyperthyroidism
▁4.1
▁GABA
▁interc
letion
stress
▁phosphorylation
▁adul
buterol
▁suscepti
onucle
▁practitioner
▁enrol
14,
▁reticul
olesterolemic
trib
▁21,
▁extracorporeal
▁51%
▁succinate
▁commerc
▁crude
1-2
urons
▁epilepsy
▁PMS
▁10(-7)
▁abstinence
▁proliferation
▁(45
▁treadmill
▁paren
onide
plete
ensi
▁triglycerides
▁norepinephrine
▁vivo
▁0.14
▁Assess
▁(5-
▁barrier
▁55%
10-
▁0.7
▁lacking
articular
.4
▁replication
▁diethyl
▁83%
allikrein
▁unres
▁alcoholic
▁onset
1,
iplin
▁Bmax
▁[35
▁additive
▁antidepress
sive
▁uptake
▁acetyl
TPA
▁lens
▁rati
phic
▁(0.9
amide
comitant
▁intrap
▁implying
ayed
▁15,
▁10(-5)
▁enlar
▁automated
▁Strep
▁simultaneous
▁progenitor
▁HDL
▁Engl
▁dental
tional
▁couples
▁identifying
▁anxiety
kelet
▁stimul
aturation
orrhea
osomes
▁8
ostatin
potential
▁irritation
▁tubercle
3%)
ternational
thre
▁anae
▁denat
▁CEA
rometry
▁undetectable
▁oligos
limiting
▁reas
▁nucleotide
alian
▁catheter
creatinine
lytic
▁monitored
▁chronic
+/-
▁0.09
▁Hyd
▁serotonergic
overed
▁subfractions
rogenic
itin
occus
▁phe
▁interfere
▁ulcers
density
▁VP
reasing
0.6
tenolol
ogens
▁cran
▁practic
uccess
entified
▁tac
entan
olytic
8-
ocortical
▁encomp
tiary
▁(5)
▁Eight
▁microscopy
▁suction
▁bronchitis
▁potassium
roximately
▁NADH
▁facial
▁favored
▁requi
▁77%
▁salts
▁estimating
▁cerv
▁DF
▁evaluating
▁accelerated
▁granulocyte
▁intake
▁aging
▁7
glycer
▁Twenty
-10)
elves
▁vesti
▁morbidity
CAP
▁discomfort
tle
▁discrimin
▁beha
entric
orubicin
▁Diff
▁cadmium
▁0.30
▁embry
ongest
tioned
▁CDC
ocaine
▁peptide
▁PLP
▁Gly
▁RP
44
▁quantitative
vely
.1%
▁hypot
▁1)
▁0.33
0.7
▁segreg
pir
▁suture
▁injected
responders
valence
23187
▁larvae
▁lysis
▁27
▁aggregation
ovastatin
▁rhin
azep
-0.
▁anhydrase
▁5'
▁adhe
ressive
▁cultured
esthetized
▁reagent
▁skeletal
▁0.27
▁receptor
▁Clinic
ergency
ammon
▁subpopulation
▁thyroiditis
▁100-
▁immunization
▁latex
trical
12-
trous
▁solub
▁lisinopril
▁PG
▁concanavalin
Gal
▁suggestive
EA
▁chel
roitin
▁lidocaine
fraction
plication
▁seizures
89
▁isoforms
▁alcohol
▁systolic
▁phenotypes
othal
▁subun
▁organism
EAE
▁preferential
▁impairs
▁pathophy
ensities
▁diges
▁shorten
▁synap
▁bronchoscopy
▁risks
mature
▁1.9
▁thresholds
▁(10(
.6%)
▁anatomic
▁methodological
▁146
▁unstable
▁prospective
odil
Ins
▁agonist
anin
▁excretion
▁constr
▁testicular
▁Vitamin
▁warfarin
ospasm
▁colos
8+
Cs
▁immunoblot
formations
▁dermal
▁cef
▁aeros
▁188
▁lyso
▁decisions
▁fibrinogen
▁supine
ventilation
▁incontin
▁elic
▁CMV
▁tablets
▁focusing
▁benzodiaz
▁retention
▁aeruginosa
OA
▁polyp
effects
▁glial
luding
-1,
▁predis
hene
▁cooling
▁neutrophil
▁perfusate
▁bladders
▁thymocytes
▁nursing
▁surgeons
apsulated
▁Preliminary
▁influx
trol
okine
oreceptor
.6,
▁5
▁0.00
odop
▁infancy
▁ester
▁EDTA
plicated
▁62%
▁hereditary
0%),
bility
▁monomer
▁pathology
endocrine
▁metabolites
▁750
▁nm
▁initiate
conjug
▁transmembrane
▁compares
-15
▁persistently
▁humoral
▁progen
▁46%
1%)
▁Plasma
▁inward
▁carriers
▁inflammation
versely
▁pregnant
▁spasm
▁assessments
▁preparation
▁myeloid
▁synthe
Hg
▁immunofluores
▁genomic
▁sulf
▁monthly
▁normalized
▁anesthetized
tially
ectom
ifugation
▁doxorubicin
ocin
▁PCR
▁17-
▁intracellular
▁keratin
▁EEG
▁inducible
tures
cessive
erence
▁nonsmokers
▁emphasized
tructural
▁periodontal
ymptom
plies
▁peroxidase
▁mening
embry
assi
▁4)
▁Tyr
▁ischaemia
avirus
]-
-24
macropha
▁3-
▁thir
▁pneum
▁disappearance
Kd
▁0.22
▁97
▁decarboxylase
▁resorption
▁diabetics
▁reticulum
▁ACTH
▁mitochondria
▁determinant
smokers
▁RR
▁38
ermal
▁secrete
esin
▁affecting
oidal
▁medial
▁implanted
▁paired
▁endothelial
▁dairy
2+-
ylline
▁9%
▁enzyme
▁carbonate
▁(2)
ACh
▁ulcer
▁bumetanide
illation
▁contral
ailure
toxin
▁attributable
▁predomin
▁adsorption
▁twitch
iagn
▁1/
otonic
tions
▁66
▁junctional
moking
▁knee
▁30%.
▁clinically
▁mature
▁addi
▁hig
adenosine
▁plasminogen
▁overnight
▁effusion
obarbital
▁retinoids
tomy
▁21%
ophilus
oxifen
vascular
▁parathyroid
▁ascorbic
henyl
▁ole
▁neuropsych
▁Exercise
olone
96
▁inhal
umulative
58
▁biosynthe
▁cholest
▁tonic
82
▁antiser
▁atrial
▁polyethylene
▁persisted
▁homologous
▁1.
ochrom
▁sham
robic
▁LPS
ochem
▁acin
80
tally
eradish
icidal
▁comprised
7,
grees
▁(0.6
▁swit
▁disseminated
RR
▁conflicting
▁elec
▁0.13
▁thiol
daily
▁109
▁fecal
▁subtype
uestion
▁Increas
▁provid
▁aden
▁halves
yron
pressing
▁adjustment
ucl
▁docum
▁allergic
▁nif
▁ablation
▁examinations
sies
▁decreasing
▁psychosocial
epam
ilization
▁0.99
▁Differences
glucosidase
▁lymphatic
affected
peptide
▁quin
▁0.03
ocamp
anide
minal
▁cholec
5.
▁dramatically
▁50%,
▁trunk
▁120
▁17,
▁etiology
▁herpes
▁pep
acyclin
amphen
▁leukotriene
▁manifestations
Ts
▁desm
reactivity
5-
strand
▁posttrans
▁arachid
growth
ylyl
▁belie
▁fixation
▁cortisol
namic
itals
▁yielding
▁leucine
▁fertilization
▁absorbed
▁neuro
▁PSA
▁PGE
▁hypox
▁nebul
▁atropine
▁symp
oplasia
patient
herent
▁varic
etence
hap
▁homoz
▁techniqu
▁chym
▁elevated
▁torsion
alas
▁laminin
▁endogenous
▁tracts
▁remo
▁32%
▁modalities
▁longus
odic
▁BMI
▁additionally
▁intron
ocarcinoma
▁grafting
cein
itamin
▁thereafter
tinu
▁supple
lycerol
7.
tition
▁ureth
▁4-
gangl
,000
▁194
inated
▁perip
IU
▁bowel
SBP
hyde
ifferentiated
▁unaltered
▁identifiable
▁severity
▁suppor
affinity
▁11-
▁0.8
ometh
▁OA
▁complication
tens
▁IgA
▁IGF
rophenyl
issive
▁translocation
▁galactose
▁stain
▁neurom
▁arachidonic
ivation
.0%
▁msec
amid
diagnosed
transferase
etitive
▁cirrhosis
▁labeled
yclic
selective
ocial
SDS
elic
▁sarcoplasmic
ticle
▁infrared
▁77
▁scre
▁hemo
ogra
▁Eleven
▁serogroup
imodipine
▁synthetic
▁(16
throm
▁advan
achol
rangements
▁amphetamine
▁thi
▁Acute
gus
ticularly
▁gyr
▁relapses
onine
▁hepar
▁MT
▁experiencing
▁tymp
▁suspic
▁hCG
▁choline
opathological
▁aberrant
▁capsaicin
▁nicot
▁initiated
semin
▁rash
▁antibiotics
estrogen
Bs
-7)
▁8.1
athe
▁superf
zard
ept
2),
▁graft
▁naloxone
esic
▁monke
rotic
▁hydrochloride
▁82
▁nonsteroidal
nthe
terolog
jac
luores
▁ultrason
otox
▁reveal
▁aimed
▁residual
ocytes
omers
zyme
▁6.
immun
▁damaging
parathyroidism
▁undergoing
aminop
▁complications
▁Findings
▁vertebral
feeding
▁CB
▁kit
GF
epithelial
ogenesis
84
▁caries
▁mesenteric
▁implantation
▁GV
takes
▁accumulated
50)
▁encompassing
ithelial
▁indis
estern
▁(3
▁uniquely
inflammatory
▁multin
▁contractile
▁substanti
▁acros
▁6.1
ocysteine
phosphamide
maximal
▁medications
▁nonpregnant
▁bioavailability
tin
ipolar
▁nitrogen
▁filament
▁prognosis
▁nons
razosin
▁controlling
▁adjusting
bacter
▁analys
▁enhancement
▁0.05),
▁205
▁fibrob
▁glycoprotein
▁morphologic
tracted
RH
▁likelihood
▁Depression
▁isoproterenol
▁0.04
▁nitro
▁5000
▁disper
eptin
▁hypercalcemia
▁kcal
▁postoperative
gluc
▁spermat
▁52%
▁menstrual
atell
▁parame
-6
▁benzodiazepines
▁0.07
:1
▁infectious
▁0.01),
▁0.65
▁(9
300
tened
orbent
rase
▁surviv
▁fibroblast
toc
tile
▁smears
▁Doppler
▁16
▁0.5%
▁acquisition
▁tRNA
▁gentamicin
▁0.20
▁NADPH
▁placent
lact
partum
opic
▁cryp
▁expectations
▁proteoglyc
▁deoxyrib
▁chromosome
rofen
▁Subjec
0-
▁electrodes
▁cervical
▁depletion
▁mutants
▁degeneration
▁interventions
▁displ
▁tubulin
atase
▁GFR
geal
▁conclusions
▁functioning
▁200-
▁immunocomp
▁schem
▁ile
▁physicians
▁positively
tages
▁protracted
▁mitochondr
▁aspir
tility
fused
▁progressed
ffin
▁challen
▁neuron
cyt
▁transcripts
nucle
▁valve
▁chromosomal
tigu
ocated
jury
▁discon
ectable
▁Ventricular
▁leukemia
▁extracts
glutination
▁12-
▁neurones
▁pH
tents
▁mitochondrial
▁premenopausal
▁drugs
esity
immuno
olipid
▁stabilization
-6-
idym
▁felodipine
▁gamma
▁phentolamine
▁arrhy
9%
▁hams
tigo
▁intestinal
tance
eptid
▁gangli
▁coval
ritic
▁viral
operatively
▁11.0
▁therapeu
▁genome
▁staining
97
▁ejection
▁clinical
▁conjugated
▁bup
vaccin
▁routinely
▁EBV
▁inhibitory
▁irrit
▁NAD
▁PE
▁ventral
▁seizure
inamide
▁3.7
▁biphasic
roso
▁healing
oderm
▁40%
▁lymphadenopathy
▁9,
apse
▁lipoprotein
▁anesthetic
-3-
▁172
▁lactation
▁histone
osts
▁ischem
yrib
88
rati
▁transported
83
▁chan
adily
▁diet
iloride
▁untrained
▁PPD
▁serine
▁ips
▁seropositive
▁cutaneous
▁percentages
ulous
▁benzyl
▁concom
▁anomalies
▁Whereas
inely
▁soy
▁endometrial
semb
▁elicit
▁spacer
thyroid
ropriate
▁mimic
imetidine
▁assays
▁1.5
▁anomal
▁estrogen
▁analysed
▁phenomena
ritis
▁discontinuation
▁200
▁inconsistent
▁exploratory
48
▁complementary
▁lasted
▁Likewise
▁flanking
edding
▁0.60
ethyl
▁ferritin
▁5,
▁drainage
▁40.
▁socio
phyloc
▁deletion
▁Severe
hepatic
▁acad
▁inoc
anuary
geneic
luded
▁pathways
▁21
▁thickness
▁123
labeled
▁antimic
▁pigment
▁3000
▁incom
▁Peak
▁Treatment
▁cohorts
▁hapl
▁microscope
▁relaxant
▁promptly
▁centrifugation
fected
▁surgically
upuncture
▁flexor
▁calcification
requency
hetamine
▁compositions
▁logistic
▁-0.
▁precursors
arous
▁acces
7,000
▁secreted
ffer
ocardi
▁chromatin
▁erythema
▁fasting
▁depleted
arterial
azol
▁punct
carinic
phosph
fem
retion
▁leakage
▁pharm
anserin
▁postulated
▁34
▁mum
▁antenatal
▁uric
▁allele
▁syphilis
▁blast
(2-
▁plates
▁hormone
▁lateral
.3%
▁vasodilation
-50
ureth
asive
▁exhaustion
Tc
▁Inhibition
toid
AH
▁cyclo
roscopic
▁vascul
47
entical
▁102
▁5%,
atchard
5;
dL
▁7-
▁HM
▁facilit
▁prescribed
▁structural
▁transfected
zation
ylated
▁endoscopy
ograp
▁detects
▁alkyl
▁stimuli
▁dimer
▁reagents
▁mating
ucose
▁20
▁actively
iary
urin
▁colonies
▁transc
(2+
▁subunit
acer
▁reticular
▁bif
▁peroxidation
▁hemorrhagic
▁fluores
▁(50
3%
aterally
teria
bac
▁indication
8).
▁6.9
positive
MG
NH
omal
inoc
DH
▁transiently
▁0.95
▁lor
▁1,
▁odds
opramide
iline
▁specimen
ejun
▁intense
▁accidents
ogenous
▁diversity
acrine
-1.0
▁carbamazepine
obarb
▁nocturnal
osomal
▁lutein
▁(1.3
▁aortic
molecular
▁concentrations
ectomy
▁pyro
openia
▁blockers
roat
inopril
enic
▁Failure
▁gallbladder
▁radiological
▁macrophage
thood
tation
▁(49
▁blocker
▁cirrh
▁28
▁granular
▁adducts
▁occult
sion
▁stiff
otassium
ziness
▁spermatozo
▁Approximately
magglutinin
▁parietal
thymidine
▁alcoholics
antibodies
▁79
astom
▁nodal
▁micrograms
▁testes
6%)
▁induce
▁ileum
dehyde
▁elu
ceived
▁esophageal
kinase
olam
▁parie
▁phosphate
▁0.50
▁Increases
▁secretagog
polyacrylamide
▁worsening
▁visualization
▁cloned
▁affec
orec
ture
rosine
2%)
grams
attern
▁reticulocyte
▁microns
▁epitope
▁0.98
▁subjective
▁jejun
▁morphologically
iparous
-10
▁relieved
▁retinopathy
▁Symptom
▁113
retic
atibility
▁lineage
▁GTP
▁Organization
▁Taken
▁subclinical
▁0.05)
▁endemic
▁sedim
acin
▁insignificant
omical
▁amiloride
▁genotypes
▁inactivation
activation
▁collec
▁1
▁GA
abdominal
▁articular
▁synthetase
▁creatinine
notic
▁93%
6).
▁oxy
▁0.025
▁reflex
arean
93
quid
adrenoceptors
▁disturbance
azem
posure
▁heme
▁proteases
▁carbachol
▁3.8
▁amyloid
▁panc
▁restenosis
ncy
▁swelling
▁canc
▁Few
▁oestradiol
istal
▁methylation
▁Animals
eight
▁dilated
anking
▁parenteral
▁saphenous
▁levodopa
▁lumb
7).
▁infil
▁regar
▁Caucas
▁axonal
7)
▁Biol
▁59
▁islets
▁gonad
▁foods
▁microtubule
▁ery
▁assayed
▁pell
▁benz
▁clearance
▁determinations
4)
-80
▁168
▁anion
luent
▁porcine
▁glucosamine
ipramine
lofen
tic
-2
▁10(-9)
▁electrical
existing
▁(32
▁potenti
▁lith
▁disrup
▁freeze
▁cyan
▁congestion
acylglycerol
▁disulfide
▁schedules
▁stu
otting
▁prostaglandin
uated
athioprine
61
▁gluten
▁3.5
chol
kD
▁sustain
▁abd
atrial
▁cartilage
▁spectro
tropin
ecre
oxicillin
▁periv
▁carbohydrate
▁lysozyme
ensitivity
▁enhance
▁NH
▁hepat
▁Secondary
protein
romised
▁fetal
▁Seventeen
lox
-1).
▁malaria
ancies
▁ventricle
▁Prospective
▁steroid
imination
olecular
▁epidemiologic
aceous
▁quantit
▁congestive
tionally
lood
▁stere
▁incidence
▁5)
▁50
ituit
▁spectroscopy
▁receptive
▁morphology
▁hyperactivity
▁neph
▁recurrent
physiological
▁eluted
▁recombinant
▁(48
colem
6;
▁adolescent
▁23%
▁resusc
▁arthritis
▁137
▁discharge
▁parenchymal
▁cleaved
▁quinine
dle
▁prazosin
▁Gluc
Ba
▁100,000
tical
▁injuries
responding
▁ECG
itidine
▁responsiveness
aryn
ropo
▁tooth
▁nosocomial
▁Optimal
opr
opoly
▁influences
▁metast
izine
tur
▁conduc
▁resour
▁comprehensive
▁alumin
glutamate
▁disclosed
▁reversed
▁comparisons
▁testis
imentin
ondon
▁nmol
▁maintaining
-0
▁mg
▁crystals
▁adrenergic
obase
oxygenase
▁umb
generation
▁spon
▁rRNA
▁ana
90)
oconazole
vitamin
▁prednisone
/3
▁phosphoinositi
hydrox
atched
BT
▁eccentric
tality
▁pressures
aturated
▁agglutination
▁metabol
▁contamin
▁1988
▁regen
▁stimulating
▁transferrin
▁76%
opes
▁Identif
▁plasm
▁(0
.5
▁0.34
▁duplic
▁antec
agonist
▁calorie
▁statis
▁deficient
▁reliability
▁pim
▁messenger
▁structured
▁antagonists
125
▁traumatic
phenyl
▁linearly
esophageal
▁dipyridamole
▁underst
▁scientif
▁mitotic
blocker
▁11
-17
tif
▁antisera
rectomy
arge
▁osteoporosis
ceptive
▁attitudes
▁cataly
▁orthostatic
▁13
idin
▁trich
atosis
▁neoplas
▁spike
▁functionally
▁EG
▁Candida
▁codon
enec
▁29
▁pharmac
platin
▁investigations
-9)
chloro
▁(92
oea
▁gases
aemic
▁puncture
▁24
▁reflux
ausea
▁opi
▁lumbar
▁tetracycline
▁granul
▁solvent
▁cardiovascular
▁mesen
▁excit
-72
subs
▁prevented
▁LT
▁deficit
▁infertility
lycemic
ontal
▁2.3
-[
▁TP
▁44
▁cysts
▁specificity
▁MRI
nitine
tochem
▁neoplasm
-200
yzed
▁(84
▁0.02).
▁postmenopausal
▁uncommon
▁euth
▁euk
▁efficac
glycerin
sus
▁DEAE
arate
▁10.5
▁molecules
▁monkey
▁(-)-
▁prophyl
erent
▁dosage
▁plateau
▁suspension
fib
▁100
▁syngeneic
▁biochemical
▁algor
▁macropha
▁Nine
/10
FU
imetry
atible
▁dB
▁injections
▁BCG
ocys
▁adap
▁marginally
▁striatum
▁respiratory
▁caro
▁gels
▁polyc
bran
hydryl
(2)
▁intra
▁fibronectin
ocrit
▁consensus
▁untreated
-19
▁1.2
▁occl
/12
▁peripher
▁lamin
▁transverse
▁dose
terone
▁142
▁circulatory
▁microb
▁perit
mend
▁dismutase
.9
▁explants
odine
▁screening
▁mutant
▁harmful
BH
▁deline
▁microbi
▁illus
▁ankle
igaret
▁0.000
▁continuously
iotic
▁natri
iazide
▁rhabdomy
hist
▁incision
▁PB
▁ascites
Sepharose
▁amniotic
4+
▁dosages
▁pyrid
▁ventric
systolic
oblasts
olesterolemia
▁compliance
▁condensed
went
▁0.75
▁venti
▁nucleotides
▁radioimmuno
▁mitogenic
iable
▁prolactin
pH
▁hormones
dividual
▁LM
ucleotide
containing
▁subunits
▁prophylactic
▁termed
renal
0.4
▁potent
titis
▁fluids
uridine
▁heterologous
▁smokers
erge
▁vaccinated
-35
▁sedation
ypical
etan
▁refrac
▁99
phil
▁precipitation
▁conservative
phrag
▁700
▁bypass
kephal
ubation
▁Haemophilus
▁ventilator
▁cen
isomerase
▁congenital
▁physiologic
▁hematuria
▁vasodil
▁cohort
Gly
dition
▁dexamethasone
utyr
▁rebound
farction
conduc
dered
▁84
▁Comparing
▁abor
erebral
aemia
▁hir
▁hyperg
▁AIDS
horm
▁recr
▁constituted
ureus
▁electroph
▁dyn
-3
-13
serine
▁vascular
▁marginal
thmia
cemic
▁Thyroid
establ
▁1-3
availability
▁genetically
▁statistically
▁cytosol
▁contracep
▁hypertrophy
dial
▁labelled
▁prel
▁spindle
▁0.56
erate
▁GSH
▁70
▁satur
chers
▁ultrasound
▁renin
▁kine
▁coupled
IgM
anded
yrox
acids
▁couns
▁hepatocyte
▁Serum
▁lamb
▁supr
pli
ocar
▁carbonic
bilities
ographically
▁nerve
▁192
▁averaging
▁Renal
▁cyt
▁minimally
▁126
▁maternal
ifug
▁tau
olestero
▁unilateral
habil
▁reversible
▁(1.4
▁retardation
▁proliferating
phthal
▁interrup
+]
▁PI
▁babies
xone
oprolol
tructive
▁90%.
▁concurrently
▁discrep
matic
▁177
▁glomerul
icine
receptor
graphy
▁Exc
▁hydroxyl
▁clon
▁fibroblasts
galact
▁bonds
▁enteric
▁menstr
sively
▁BP
▁PTH
keleton
▁transduc
▁histological
▁Inte
idium
hydroxyp
▁hybrid
1/
▁relaxation
33
within
▁preliminary
▁serologically
▁hyperpolar
▁acetaminophen
plied
▁wean
osidase
cyclic
▁curric
roglobulin
ungal
▁morphine
iron
▁stratified
ffinities
reatine
▁autologous
▁Kine
▁glut
▁depolarization
tural
▁secretion
thoracic
▁gynec
▁Phosph
tig
▁soluble
▁characterize
kinje
RIF
▁Patients
▁analges
▁-2
▁1986.
▁(3.0
▁chorionic
amino
▁depression
erents
veness
operative
▁survivors
▁dementia
▁Sodium
▁surgery
thmias
▁glucocorticoids
uprofen
olysis
ithm
▁dorsal
onephritis
▁classify
▁Sequ
▁adequ
ologists
▁coagulation
▁.0
▁corticos
▁5.8
▁fertil
▁dispersed
▁TI
kely
▁mEq
▁arteries
▁aureus
▁hippocampal
▁retina
▁hepatocellular
▁cerebellar
FN
bladder
armac
▁blot
▁correlated
▁sour
▁HeLa
▁retinal
▁controver
▁analyses
oactive
opl
▁bipolar
▁ligation
▁traum
▁HBV
rosemide
▁tube
tein
▁elast
▁mono
▁Differen
▁2
ogenously
▁parox
tide
▁Overall
orption
▁deleterious
▁duct
albuminuria
▁FE
▁45
kinson
▁thal
▁500
▁follicle
5,000
gressive
emic
▁129
▁LHRH
▁transcript
▁38%
▁weakness
▁selectivity
keletal
▁iso
▁persisting
▁pools
▁sphinc
▁answ
▁Holter
▁Diagn
▁potency
▁substantia
turb
▁nonf
▁pregnancy
anad
ioid
▁enal
clonal
lactam
▁EGTA
teric
8),
▁eliminated
▁fati
▁exposures
▁vertebr
▁42
astolic
▁acyl
dibular
▁circadian
▁hepatoma
▁plasmid
▁clinic
tonic
dihyd
▁viscosity
epines
▁ammonium
▁166
mediately
▁nitrate
▁90
▁recordings
▁summarized
▁oxid
▁inflamed
▁victims
▁liver
Hb
▁targeting
▁sple
▁affinities
▁folate
resting
idine
▁Epidemi
▁rehabilitation
▁(1.9
▁alleles
Ds
carbox
thio
▁resting
ially
▁mammography
oxia
tamine
▁involvement
76
operidol
▁sarc
TSH
▁inhaled
ylation
rography
▁reacted
▁recombin
▁titer
▁albumin
▁establishing
▁ori
▁familial
ylchol
vant
▁7%
▁cycling
(1,
encephal
▁residues
▁abl
▁SPL
insulin
truction
▁muta
illin
▁analgesics
▁bony
▁clinician
▁vitamins
▁mann
▁voluntary
▁10-
▁14.5
▁embryos
▁radiotherapy
▁CHO
concentration
▁TC
▁conserved
▁1-2
enin
▁subjected
alsy
▁cholesterol
9),
▁phosphatase
ochemically
ughter
▁carc
eric
▁apical
clerosis
idney
▁terminus
▁solitary
macrophage
HCO
▁prednisolone
▁Evid
operoxidase
▁isolate
▁60%
▁balloon
icin
▁spermatozoa
▁comparable
▁precur
▁physiology
▁obstruction
▁mood
▁vesicles
conver
▁disability
▁Glu
▁postnatal
▁premature
▁0.46
tors
▁saline
oplasm
-6.
▁immunologic
chlor
▁phage
▁neonates
sectional
▁platelet
onate
fusion
+,
ingle
rates
▁8%
73
ogenes
-34
▁embolism
▁0.3
55
▁7.6
▁ineffective
▁muscul
▁0.01).
▁criterion
▁presenting
▁secretory
▁manu
▁eosinophils
▁101
▁substances
▁hypothyroidism
▁phosphor
▁infarction
▁thymidine
▁trimethoprim
▁socioeconomic
olig
▁localization
ondr
▁anomaly
-60
diastolic
▁hospitalized
▁brom
▁203
▁shifted
▁intravenous
opausal
▁paroxys
alveolar
▁penicillin
▁excessive
.9%)
sA
11
▁0.17
▁palsy
▁sugars
▁-7
▁Sixteen
arity
fate
▁inhib
▁reag
▁phenotype
oracic
ocardial
tained
▁9
▁immunodef
opamine
▁rele
.2%
▁crom
▁menopause
mobil
▁heterozygous
▁ammonia
duc
omethacin
▁pacing
▁emo
oreactive
▁caution
mega
▁neutroph
▁purified
▁restoration
▁thromboemb
▁(15%)
64
▁slowed
▁147
saccharide
ycl
▁adi
ropha
▁Recent
rection
▁80
▁prednis
▁obesity
▁achievement
▁spleens
▁chl
▁mellitus
▁Pregn
4%)
▁overl
▁PHA
▁30%
sequent
▁aor
▁63
▁1980
▁eligible
▁ane
▁mononucle
2+,
▁defic
▁rhythm
▁tolerance
omatosis
▁endometri
▁Previous
RF
puts
▁malignant
uscular
▁Factors
▁postural
yses
▁autosomal
enal
MV
▁tes
▁94%
xime
▁vein
enzyme
2+]
thmic
▁apolipoprotein
hemat
-22
bodies
frequency
▁serotypes
▁Phase
riamycin
▁papill
▁1.00
▁emulsion
▁Transient
▁chor
ochrome
-450
▁blinded
mitter
▁endometrium
▁phenobarbital
▁exert
▁Hg
otropin
uretics
▁crossover
13
▁rats
Glu
hesus
▁healthy
itus
98
▁melan
▁natriuretic
▁gastrin
▁7,
etine
trin
▁NGF
▁lapa
▁Schwann
▁PT
tituted
7-
▁splic
▁deple
▁irrespective
▁pups
▁aromatic
▁potentiated
▁demonstrating
▁256
▁(197
osac
▁HbA
▁characteris
▁defec
▁psoriasis
▁electrocardi
tagland
▁CGRP
ntolamine
ophys
▁5.4
/10(
▁validity
▁granulosa
▁proton
▁outlined
glutin
rief
▁tomography
amicin
ecan
▁18,
▁atria
ograms
iatric
▁RAS
▁ulc
▁hered
▁intest
▁chond
omotor
▁0.35
oxone
▁anatomical
▁1/2
6.
adecan
tensive
▁tumors
▁sonography
▁effec
oceptor
▁decade
▁atopic
-18
▁RV
▁IgM
▁analgesia
▁AFP
▁Elevated
▁0.6
oblastic
ffec
▁incomp
▁Thy
hydr
▁excreted
▁ureter
▁thrombo
▁mediated
▁dyst
lamydia
▁cytoplasm
▁inducing
ygen
virus
▁topo
▁fibrin
▁0.001)
▁ruptured
▁Bec
oids
▁2.0
▁AO
▁myeloma
rocal
apid
yel
orphin
▁(5%)
▁Bacter
▁determining
adrenoceptor
/8
▁0
oscop
▁specialized
▁elucidate
▁peroxide
▁seas
5%,
SAID
▁Prel
▁(10
partate
▁20%,
▁activates
▁multicenter
oscopy
ofluores
▁antimicrobial
-25
aryl
organisms
ilic
teroid
arrh
ranged
emak
▁uro
▁escal
▁Maximum
▁Survival
▁recor
▁antidepressants
▁171
heres
▁antioxidants
▁surge
phosphorylation
▁recipient
▁HL
▁pyramidal
▁meal
▁5.6
▁hepatocytes
▁corneal
▁bundles
▁adhered
▁actin
tact
▁oval
.7
▁asymptomatic
▁phosph
▁allergen
▁epithelial
▁6.0
▁aerobic
▁74
▁practitioners
▁antagon
rotid
▁latencies
ymp
▁pars
▁zinc
▁78
▁0.15
▁ongoing
▁accessibility
▁tape
▁pyruvate
▁subpopulations
▁0.12
▁1000
/4
▁phenyl
▁ulnar
▁typh
adone
24
▁CAD
▁intact
▁absorp
▁subtypes
▁splenic
4]
▁attending
▁atheros
casein
▁Eff
▁substantially
▁neon
bacco
▁infrequently
▁reciprocal
▁histology
orpor
▁terminals
▁CM
atab
▁cats
▁7.0
▁Forty
▁(3)
▁Calc
▁analogs
▁abscesses
ifedipine
▁ferrous
▁5.0
▁cGMP
Pen
▁seiz
▁suspected
▁1983
ygo
▁suppres
bular
▁respec
▁(54
▁compounds
▁cG
▁carcinoma
▁3)
▁pathogenesis
▁[3
▁2-
▁53%
▁adequately
▁111
▁weaning
▁10.4
▁placement
▁donor
echanical
▁-10
▁striatal
▁susceptibility
utaneously
▁bic
▁probes
▁prenatal
▁Chlamydia
▁ultrasonography
ovascular
▁normotensive
▁describ
▁heterogeneity
▁72
▁inver
His
▁microsomes
▁lysosomal
wk
▁ipsilateral
▁82%
▁14,
▁hemodynamics
▁71
meth
▁attemp
5,
▁scin
▁1,000
▁calf
orepinephrine
▁thyroid
plast
▁retrograde
▁maximally
35
▁correlates
▁cephalosporins
▁Surgical
▁urea
▁utilizing
▁0.9
▁CIN
taken
▁benzo
▁1,25
▁synapses
▁nausea
antoin
trate
tene
robial
▁dihyd
ocon
▁demonstrates
▁Radi
athiop
▁smoking
▁10%,
iant
▁angina
ectin
▁tumor
72
▁comparative
▁carrier
sors
ffeine
▁xyl
▁endocrine
CoA
▁LC
▁97%
▁cephal
▁rigorous
idic
untary
▁Tiss
▁hypog
ositi
▁hamster
▁upstream
▁gestation
▁filtration
lamin
▁rup
▁contraceptives
▁tow
olip
nitro
▁intram
coated
▁ADP
mide
▁inhibitors
timulation
amus
▁3.4
▁categorized
▁postprandial
▁undertaken
▁exaggerated
tec
subunit
placement
▁mineral
▁114
portant
vaccinated
▁monocytes
▁infarctions
▁loos
crib
▁HBsAg
eclampsia
▁anaerobic
▁neurological
▁improving
▁reper
upus
contrast
▁induces
▁jaund
▁Lipid
ynaptic
adequ
ereb
▁50,000
resis
▁abruptly
▁cholinergic
▁abortion
phrine
xyl
▁indicative
▁hemorrhage
▁predisposition
tative
▁rehabil
▁stratification
▁Diagnostic
▁chemotactic
cys
▁serolog
▁estradiol
95
▁regis
hexidine
▁helical
▁inversion
ardized
▁90-
▁sampled
▁Eighty
.3
▁metabolic
32
▁proline
▁arter
▁lesions
▁nights
▁(1),
▁ison
▁septal
▁yielded
▁(40
▁somatostatin
▁inspiratory
7%
aminase
▁CSF
▁insec
▁Physical
▁trends
fetoprotein
▁lipoproteins
aced
▁hypothetical
regulation
▁macrophages
azoline
▁keratinocytes
▁Subsequent
▁maneu
▁58%
▁tolerability
▁immunohist
▁reperfusion
▁overlapping
edded
poor
▁retard
29
▁0.25
apeutic
▁ionophore
▁heterogene
▁unexplained
queous
acet
ilibr
anavalin
▁0.06
▁impair
.10
lobin
▁mercury
▁ethanol
▁eradication
▁strategies
▁degradation
▁0.28
▁stools
▁granuloma
▁233
▁allograft
▁immunoblotting
ygotes
▁contrac
amines
▁hydrop
▁destro
▁53
achn
▁leukemic
▁hyperther
sial
▁aneurysm
▁compromise
ANP
odialysis
ocyst
olved
▁145
▁Alz
amycin
illar
▁heparin
▁lep
▁dendrites
▁reproductive
▁salbutamol
chym
anat
Ra
▁amo
▁bulb
▁carb
▁obstetric
▁198
▁distal
+-
▁14.
▁wrist
ubiqu
itonin
lusion
-40%
▁consis
essive
viral
Lys
▁normalization
tronic
▁mutagenesis
▁adherent
urate
electro
▁9.9
▁fron
accharides
▁biologic
▁Feeding
▁polys
▁insoluble
▁homogenates
orough
osom
▁sten
Dawley
▁(1.0
▁hydrogen
▁inhibiting
idity
▁immunobl
▁undere
▁readings
▁artery
▁arrhythmia
rangement
▁psychiatric
▁agar
monstr
▁neuroleptic
▁rhy
▁reinforcement
tage
wenty
▁dib
▁cuff
▁dele
itriptyline
▁HP
phyl
▁velocities
▁mutagenic
▁presynaptic
▁ANP
indings
otone
▁spontaneous
75
▁27%
oung
▁homogene
▁vaccine
▁Injection
▁cholinesterase
▁micros
▁acidic
osine
▁hygiene
26
▁mim
▁appropriately
▁alcoh
▁peroxis
▁mRNA
▁hysterectomy
▁calcitonin
▁Grade
▁3'-
▁nonc
sts
▁localized
▁multic
▁104
ichia
▁0.001).
▁wee
▁193
▁mediator
▁thio
onset
▁prostagland
▁81
▁ischemic
▁3.
▁Extensive
▁Neither
▁13,
▁concer
▁epidermis
▁confers
▁cation
▁mA
▁tablet
▁fluoro
vian
52
▁nurses
opulmonary
▁erythropo
▁malignancies
▁differed
otent
▁chromatographic
▁Kd
▁protocols
▁initiating
▁(75
▁3.2
2+.
acement
▁unaffected
▁muc
oratory
PGF
2,
▁monolayer
▁immunocyt
▁paradox
▁exhaus
▁intrav
▁ate
ischemic
eak
▁detecting
▁migraine
▁119
Mg
omatous
▁cystic
▁fractional
phosphate
▁weighted
-3,
PSP
unctional
▁cerevis
▁1970
▁dextran
▁RF
▁islet
▁paralle
▁toxin
ullary
etween
▁manifested
▁endoscopic
▁TNF
ogl
oprec
▁implicated
▁MBP
▁quanti
▁subgroups
▁omega
▁pall
urea
nRH
▁intraperitoneal
▁pancreatitis
ygdal
onit
▁colonic
▁alkal
reported
▁predictors
▁autoantibody
mL
occal
▁diarr
▁corticosteroid
8%)
▁substrate
▁excitation
▁murmur
uresis
▁immunore
▁lipase
▁bacteria
cyst
▁ewes
000.
▁vaccination
▁exogenous
ocarcin
▁glutamic
angiotensin
▁somatic
odies
▁childhood
▁prescription
helial
▁correspon
▁4-5
trone
sives
▁transmitted
▁27,
▁TA
9;
▁valpro
▁binds
▁mandibular
activating
▁HPV
▁mandatory
▁astrocytes
MH
traumatic
chid
rague
▁potentials
▁recurred
▁10(6)
LISA
/30
▁metoclopramide
▁Phen
▁enteral
ophren
glycoprotein
ecal
▁objec
▁31%
odal
arbox
▁cortex
▁sexually
▁nadir
▁acetate
▁skinfold
rozen
▁neurop
eminal
▁deficiency
▁developmental
▁bradyc
▁indo
▁tendency
▁outbreaks
▁HB
arcoma
▁durations
▁ampicillin
scherichia
onvul
injection
▁regulation
▁TG
gm
antial
ylamide
abain
▁muscle
▁(26
oprol
▁posttreatment
▁Ace
▁decayed
▁(17
othelial
▁AII
dotoxin
▁sepsis
▁exploration
▁RNA
▁(14
oventricular
▁(16%)
▁pharmacologic
▁lec
tral
.6%
lude
▁diminished
▁swim
galy
▁specificities
▁(70
▁oxygenation
▁resul
▁42%
▁fracture
▁unusually
ofil
▁blotting
▁ald
▁(200
▁excre
osclerosis
umetanide
eliac
0%)
▁doubling
greater
▁pituitary
▁histopath
▁stimulated
▁dilatation
▁bovine
-100
tiazem
▁autoimmune
▁LMW
fiber
▁melanomas
▁modif
▁antich
▁10(3)
perature
▁Consequently
▁0.90
▁hyperb
/7
umerous
ifferenti
▁Immun
physe
▁kinases
▁biop
▁monol
▁tach
▁polymorph
ercul
▁throat
pregn
▁89
flamm
▁assessment
-1)
▁tubercul
▁199
▁accumulation
▁preventive
▁ET
▁anxio
promoting
tyl
UV
acked
▁inositol
▁calor
▁trials
▁proce
thase
yroxine
cine
hydrop
▁twofold
▁cerebral
▁epinephrine
▁microsp
ustained
regulated
▁patches
plemented
▁diuretics
▁ganglion
▁12.5
▁incis
▁inhibit
▁adjusted
▁deterioration
0.1
▁intraper
▁cations
▁inflamm
▁108
PEG
ximide
▁atyp
ociation
loxacin
▁afferents
▁Compared
MDA
▁ultras
▁tricyclic
▁10%.
▁intensive
▁glycosylation
gated
▁fetuses
/18
▁phenotypic
45
57
▁(400
uoden
▁ingestion
▁DBP
-6,
▁(198
▁endoscop
18)
▁pathophysiology
▁wors
▁calculi
▁organs
▁NI
▁ranged
cycl
▁prolongation
▁confirmation
jected
▁incid
weighted
▁proteins
rological
Ls
tiguous
▁oocyte
▁recur
28
▁saphen
▁epidemi
▁augmented
roline
.5%)
▁pronounced
▁multiv
▁4.3
terologous
▁intran
▁EB
apamil
▁hemodynamic
▁previ
▁ranging
25
▁intrinsic
▁exhibits
3).
▁physiological
▁histochemical
rous
▁stent
▁propranolol
▁exhibit
▁0.45
▁Staphyloc
▁frog
▁markedly
acetate
▁LV
▁enzym
▁pacemaker
idase
ocrine
▁microgram
▁saliv
▁100%
etidine
▁excretory
▁trigeminal
▁physician
▁tuber
▁(0.1
gulation
▁isolates
▁recons
tinent
ilin
▁chol
oste
▁classified
▁vomiting
▁83
▁asymmetric
▁elimination
▁hyperp
ventricular
▁phosphorus
▁affinity
▁meals
acr
▁9.
▁cytosolic
▁kerat
▁succes
adren
indolol
▁presumed
▁TSH
800
▁7.5
▁strom
ysts
NK
▁reactions
▁prolif
ritin
▁aldosterone
▁contiguous
▁9.5
▁analgesic
▁11.8
tually
▁Sensitivity
▁numb
▁6
▁0.26
▁3.3
▁coenzyme
ocortic
▁revised
▁irrever
▁vigorous
▁sodium
▁33
▁inhibits
▁diabetes
mittent
▁adults
▁hazard
▁survived
▁Initi
▁antim
▁mU
▁laser
▁vesicle
6)
andida
2318
▁0.42
▁stom
▁glucose
▁purification
iliac
omegaly
▁envelop
titial
▁noc
▁transcrip
▁tendon
▁blin
CAM
phosphor
andard
ofl
▁(19
LH
▁2.5
▁intrauterine
▁dextrose
▁assessing
mber
▁44%
▁fatty
▁Cyt
▁nonspecific
▁accounted
▁emotional
▁Pt
▁165
pyr
achnoid
kephalin
▁quoti
▁surveyed
▁400
▁eryth
▁congen
▁experim
▁cerebellum
▁extrap
▁malignancy
▁0.43
▁0.40
eptic
▁altering
hep
▁embryonic
▁133
▁CK
opause
ulose
▁carbam
▁prostate
etoprotein
▁MAP
▁limbs
:3
▁awake
▁(8%)
▁postoperatively
tial
▁melanoma
acute
▁succin
▁suspicion
cepti
▁diz
▁emboli
erant
omyel
dimethyl
idone
▁glomeruli
▁immunity
▁chemotherapy
▁muscular
▁biliary
▁lipophilic
▁NMDA
▁thromboxane
▁Neuro
▁220
▁33%
▁98%
tium
▁Oral
▁whee
▁immature
degree
▁lowering
▁attrib
strain
▁Individual
▁cytoch
Gs
▁TS
▁transporter
▁emerg
▁validated
▁diets
▁guan
PSPs
ostatic
▁genes
▁76
ohyd
olipoprotein
▁methodology
▁presum
▁thrombus
ococcus
hydropyridine
▁reinforce
▁29%
ropyl
oplasty
ditions
dural
▁elbow
▁endot
▁conditioned
▁viable
▁spectra
▁1.5-
▁3.0
oyl
aryng
▁RS
▁0,
▁haemat
▁endotoxin
▁1.7
▁follicular
▁critically
▁muscles
▁22
▁analogue
▁polymorphism
▁negatively
abin
▁ascertain
▁metastatic
▁adenylate
▁Tum
oxyl
▁sulfhydryl
▁scans
inally
-7
fractions
▁cleavage
▁dissociation
lipid
▁Hypertension
▁benign
0%,
▁preservation
irubin
▁12.
▁antif
▁microtubules
▁Combin
▁hybridization
▁endometr
nary
0).
▁detectable
toxicity
▁innerv
tence
▁microorganisms
rosis
16
▁varicella
▁tetr
▁lavage
▁sclerosis
oscopic
-12
▁surfactant
▁carbohydrates
▁grafts
▁PP
iplinary
iciently
49
▁hemisp
▁conformational
▁bac
▁nontoxic
eclamp
-70%
▁Insulin
00
rologic
▁restr
▁fold
orectal
▁covari
▁sickness
▁insurance
▁electrolytes
▁surgical
▁Recently
▁(63
▁sca
▁sorb
▁cathepsin
HB
arynx
▁erythrocytes
▁lymphomas
ferrin
▁Golgi
▁vacu
heal
bumin
trast
were
▁demonstrable
▁58
▁transluminal
lys
▁releasing
▁(0.4
restricted
▁Atrial
▁atr
▁apnea
▁slices
▁compli
thanolamine
▁inoculation
ithi
▁outgrowth
▁quies
▁juven
chloride
▁antigenic
▁nigra
predic
glucose
▁7)
▁74%
tive
0.2
▁attenuation
▁MI
.8%
▁trypsin
▁metabolite
▁ech
▁vesic
aldehyde
▁fibrous
▁PMN
viruses
-30
-4,
▁(93
▁expressing
▁epit
eptides
otropic
▁stained
▁targeted
▁IGFBP
eroxide
▁challenged
4).
▁150
secre
▁radiography
▁nutrition
▁metoprolol
▁exag
atology
tryp
▁hazards
▁junctions
▁repetitive
▁restric
gents
▁vancomycin
▁visc
uanti
▁decline
2(+)-
▁gradual
▁dye
omerular
▁lambs
osamine
HDL
admill
▁Escherichia
▁surviving
intestinal
amn
▁diagnoses
▁interf
▁equilibr
4;
▁seroton
▁BALB
▁60.
▁MH
unced
▁18
esium
▁perforation
00,
pite
lep
▁73
▁75
testinal
ostasis
▁strips
▁outflow
▁detec
tically
▁umbilical
▁insufficiency
tidine
▁tubule
▁anticoagulant
▁NMR
▁abscess
▁serotype
▁1.5%
▁suppressed
▁exis
▁mediating
affec
▁microtub
▁(43
aline
▁connective
fed
▁(0.5
▁reactive
rected
tent
optic
▁Thir
▁93
oclonal
-50%
▁intercellular
ipr
▁occlusion
▁ect
▁lowered
▁0.19
▁verapamil
▁influenza
▁Pseudomonas
ylase
▁profound
▁extraction
▁indirectly
▁visits
ylate
-40
▁activated
ygous
▁cough
▁hippocamp
▁thoracic
▁underestimated
▁presumably
▁spind
▁allevi
NAc
▁cocaine
▁TM
gold
roscopically
otoxin
▁TGF
fluoro
▁pig
▁tibia
▁interfer
▁permeability
▁daytime
vival
▁270
▁41%
▁preferen
▁fluoride
▁inoculated
atients
▁contraceptive
▁aggressive
plen
▁tubules
▁selectively
converting
▁strain
tiz
trates
▁5%
ucle
itr
▁PGI
▁tuberc
450
toph
▁cAMP
▁follic
▁mutation
▁Replacement
alc
▁2.2
▁hyal
▁reviewed
▁accounting
▁seronegative
▁4.9
ensitive
▁hydroxy
▁extre
▁fasted
▁bronchodilator
tested
3.
▁ligands
▁stren
organic
▁nonin
▁abnormalities
2).
▁simplex
▁hypo
▁polycystic
plications
▁organisms
rospinal
▁94
▁4000
▁HI
▁66%
▁regulating
▁thems
▁hematopoietic
▁stool
▁61
▁preferentially
▁CAP
▁propionate
▁Adverse
▁0.44
respective
tRNA
▁birthweight
glycerol
▁lymphocytic
ipro
▁TD
▁occupational
iability
▁methotrexate
eled
▁anhydr
omized
▁37
▁isomer
▁worm
▁2.9
olism
gative
▁tissues
▁cytometry
▁mesang
itol
▁mast
▁outlet
▁exagger
▁deliveries
lycemia
▁semen
▁exons
▁verbal
itoneal
▁VT
▁65
▁0.5
▁glutathione
▁neurogenic
igible
economic
▁unlabeled
▁palpable
2)
▁Protein
▁sinus
▁1986
30
▁carcinomas
omatic
icients
cemia
▁nec
▁tamoxifen
.7%
▁prescrib
effective
▁decarbox
▁weighing
▁margins
▁triphosphate
tory
▁subf
▁7.1
▁immunode
▁postsynaptic
BV
romes
▁Experim
▁Coronary
▁(250
▁cere
▁10,
▁globulin
coronary
enol
ogenetic
▁solubilized
▁cytology
phorbol
▁inversely
▁penetration
▁vasopressin
▁acetic
▁mammalian
othi
achial
unately
▁restor
unting
▁neonatal
▁bolus
▁kinetic
▁deprivation
▁transcription
▁acqui
ogenic
▁6.3
▁6%
▁DSM
arachnoid
▁2.5,
▁toxicity
▁targe
▁intercourse
exposed
usions
▁hypother
▁dodecyl
amet
+.
▁pregn
▁oral
▁infar
▁depr
erin
tococcus
▁incorporation
▁20,
seud
▁forsk
cholate
▁CHF
▁transplantation
▁LH
▁Urine
▁isot
▁WK
Rs
sant
▁ICU
ported
▁140
inol
▁344
▁monoclonal
▁constriction
▁impaired
ologous
▁pressor
▁mortality
2.
▁artic
▁ethnic
▁tric
▁displaced
▁hemat
▁gyn
urys
stolic
▁wound
▁154
▁simulated
▁Afric
▁fulf
▁2.
▁4%
▁chemically
oporosis
▁Wistar
▁antic
▁biotin
▁130
▁infiltration
acil
▁TCA
▁devoid
▁MV
▁aggregates
▁stepwise
odynamic
▁Leuk
▁latency
▁84%
RB
roin
ffinity
cardi
▁amplified
▁amitriptyline
▁incubation
▁10(-8)
yrid
87
▁(12
▁intravenously
▁ejac
▁caud
▁hybrids
▁reabsorption
LPS
▁pneumoniae
▁sequenced
▁challenges
▁fractures
▁cryst
▁Trial
▁0.1%
▁lowers
▁glucocortic
derly
▁cortic
▁eluc
▁bathing
atient
▁unex
▁avoiding
▁45%
▁PH
llate
▁(60
▁antib
vul
▁replic
▁monit
▁coordination
▁8.5
▁derm
illus
-1.5
lyc
▁dias
▁Respon
14
▁6.8
▁questionnaires
▁zym
▁characterized
▁deaths
▁hydrophobic
▁depolarizing
ocytic
▁alternating
▁47%
bearing
otin
▁PAF
onary
▁0.52
ipine
tizing
tensin
illaries
roprusside
▁digoxin
▁14%
ometr
▁10(-3)
▁ovary
▁62
▁adenocarcinoma
▁127
▁discontinued
▁drain
tized
▁inotropic
▁strep
▁subcutaneously
▁ELISA
▁promin
▁oxidized
derived
ylic
adine
-4.
▁cognitive
▁CBF
▁lupus
tocin
▁mitogen
▁Histologic
71
kelihood
▁30
▁arth
▁dermat
▁anesthe
ethylene
▁lasting
lysis
▁epsilon
▁glycosylated
osterone
34
▁lovastatin
▁tracer
▁plantar
plic
▁mmol
▁88%
methyl
▁24%
▁myosin
-70
▁adhesive
stro
hea
urnal
▁0.18
▁circulating
▁Reduction
ields
▁cure
▁0.55
aturity
▁multivariate
pirone
obronchial
deple
lue
▁intrac
▁reactivity
itic
▁malformations
minis
▁nonselective
ipril
▁pulse
▁enhancer
▁meningitis
azepam
▁glycol
ogeneic
aryngeal
▁Lym
86
▁neomycin
sensitive
▁ganglia
▁triti
▁4.7
▁[14
▁blots
CSF
modified
▁diuretic
▁headache
▁confirming
▁axon
▁reductase
▁descending
▁sero
▁derange
▁deletions
18
▁indications
▁rejection
performance
▁horm
rhy
▁transcriptional
▁glycine
▁entero
▁adversely
▁terat
osal
▁periphery
▁heating
▁vulnerable
▁sulfoxide
▁halothane
loid
▁abnormally
opolysaccharide
▁dysfunction
▁resonance
ealand
▁sput
Gl
▁glutamine
oreceptors
31
0,000
.3%)
▁correspondence
odular
▁60
▁rostr
▁0.08
arent
▁hamsters
ulph
▁casein
▁prophylaxis
icated
osyl
oxetine
▁91%
caro
▁instrum
phosphatid
-1.1
otypes
▁Cancer
▁declined
▁reproduc
▁DL
▁pregnancies
41
▁heterogeneous
▁compe
▁shif
▁Additional
▁homogen
▁inability
onyl
23
▁morphological
▁(18%)
▁uncom
▁340
▁15%
▁10.2
▁acyclovir
atoid
▁SHR
▁TT
▁assay
▁furosemide
▁117
-1.2
▁Americ
2/
▁micron
▁Cys
▁systematically
▁possi
▁asymme
▁exhibiting
enil
▁modulation
▁epitopes
oxane
yro
▁meth
tir
▁wash
▁yr
▁57
coup
▁parasites
▁immobil
▁monkeys
25,
▁schiz
▁tertiary
▁5.2
▁subcellular
Phe
▁uteri
allium
▁theore
avail
eprazole
▁basal
▁infrequent
▁anxiolytic
exc
▁196
▁dehyd
▁stratif
topril
-3)
▁athletes
ococcal
cents
average
▁ascending
▁irrigation
▁disturbances
▁cyclase
▁73%
▁Tran
▁plastic
▁luteinizing
▁interacted
▁identif
▁nuclease
▁tracheal
▁protective
▁dopamine
assium
olamine
restingly
▁anticoagulation
3),
▁subjec
GABA
-16
▁behavi
▁72%
