achnoid
bacco
ovalent
▁socioeconomic
▁fecal
▁(10(-6)
26
▁ammonia
▁scle
mortem
9).
▁glycolytic
rease
adder
onucl
▁BSA
ocytosis
▁Basal
▁myeloid
▁defects
▁anesthetized
inflammatory
▁contractility
▁nuclease
▁600
Glc
tine
▁plateau
▁perfused
ollagen
IIIa
rospor
▁73%
osin
Rs
▁gallst
menopausal
▁posti
ogenously
▁lipid
cyt
▁analgesia
▁corticosteroid
800
▁Obs
▁electrophoresis
ineal
▁arti
▁TC
1),
deple
▁clus
ometr
▁clonidine
▁RBC
▁132
▁Few
abain
▁RNAs
ints
▁phosphorylated
▁unde
▁Fib
▁sphing
▁notic
▁pyruvate
1).
▁dithiothreitol
▁multin
▁titer
▁cGy
pir
▁disulf
conversion
▁principally
▁superoxide
induced
▁hospitalized
▁lesion
▁dermat
▁infused
▁hormones
▁atenolol
47
ensitized
otrop
▁potentials
▁ventral
▁55%
▁vaccin
arone
mentation
atitis
llate
▁follicle
eprazole
▁repres
resting
▁fibrin
▁incontinence
▁(20
▁Assess
▁fracture
athione
▁etoposide
▁inactive
ecre
▁residual
carbox
▁twitch
▁amel
RH
▁indis
▁Dex
▁-7
amide
piratory
▁Neu
▁foci
▁antitumor
▁5.2
▁calf
▁targe
▁sensitized
▁oligonucleotide
▁cocaine
1210
▁circumference
molality
▁multic
methyl
olarization
▁homogeneity
▁chemot
▁endot
▁effector
▁calmodulin
rotid
anadate
▁biphasic
taining
pyrene
▁benzodiazepine
▁abnormally
oscop
▁GABA
IU
▁Pseud
cein
ocortic
.7%
adenosine
restingly
-16
eak
▁examines
29
▁Eighteen
▁74%
▁92
▁28
▁(0.5
▁GABAergic
▁preparations
▁septal
▁lithium
▁diurnal
▁0.01).
▁retinal
▁fasted
▁sciatic
otox
▁salbutamol
perfused
▁HSV
▁benign
▁carbonyl
▁emo
▁116
toph
▁disturbances
▁prostate
diastolic
tagland
keletal
achn
imetidine
▁Gluc
▁amplification
▁resemble
▁Inde
▁denatured
▁withdrawn
▁eryth
Kd
esti
▁consequently
▁antic
▁injur
▁laparotomy
suppres
▁insufficiency
▁wk
graphy
eric
enoic
titis
tents
▁supr
kines
▁Cardi
odend
▁0.5
ologic
.8%)
▁ganglia
▁postulated
▁PMNs
▁furosemide
▁diabetic
▁adi
▁occlusion
lycemia
▁asbest
▁persists
▁(1)
▁exchan
▁vaccinated
▁micron
▁nude
ulinemia
▁atherosclerosis
aline
ectom
▁GS
▁pups
▁disposition
oretic
▁SLE
diabetic
▁tetr
▁BAL
▁diets
amental
▁leukaemia
▁cisplatin
▁9-
▁unaltered
wes
▁Amin
▁socio
1;
▁125
54
tory
▁forskolin
▁25
tact
altered
▁choline
▁71%
erad
▁rup
alveolar
▁transcript
micro
▁implicated
iary
▁vaginal
▁epinephrine
osan
anin
azepam
lycer
▁OT
thym
▁Likewise
▁cava
▁52
colem
icin
▁agonists
▁Coronary
▁127
▁palsy
▁pacemak
▁intrav
▁4.5
tative
vae
tectable
▁46
▁0.10
▁triglyceride
/10
▁visceral
aneously
▁chan
oxal
trous
▁lipoprotein
ylchol
▁5.5
iol
▁sugars
▁consis
plast
▁spp
+,
▁quantified
▁labeling
▁46%
▁adap
ocarcin
▁infarc
▁rodents
▁0.12
Rb
roglobulin
▁epsilon
▁kinases
ostatic
▁expres
▁duplex
thio
▁(15
▁lamina
▁MMC
▁PTCA
welling
hern
obases
SDS
brids
▁Groups
▁TI
▁apical
▁splen
▁msec
▁splenocytes
▁AFP
alsy
olip
▁deline
▁uncoup
▁conduc
▁viability
dyle
amphetamine
▁ovine
▁accumbens
▁attemp
▁transferase
▁41%
▁reproductive
▁centr
▁trig
▁fluctu
▁subcutaneous
▁(1.2
▁urinary
▁repetitive
idin
4,5-
▁evaluable
opoiesis
otrypsin
▁amines
globin
▁HTLV
▁emulsion
▁verapamil
▁antid
/12
▁0.05
▁dex
▁cadmium
antagon
▁PGE
▁typhimurium
thel
robic
oreg
▁affinity
atonin
▁Evid
moking
7-
▁microscop
▁susceptibility
lymphocyte
▁symp
▁inappropriate
▁polysaccharide
▁antiviral
▁mV
▁indicative
▁54%
himbine
▁keratinocytes
primed
▁hepatitis
▁exceeding
▁phenotypic
▁Relative
obase
▁1.4
▁obesity
▁compares
mortal
adone
▁1).
▁paroxys
▁biotin
▁hypoglycemia
entanyl
coup
aginal
▁ascertain
▁pyramidal
▁adulthood
▁adherent
▁exud
▁synthetase
▁physiological
▁perikary
esthe
▁VP
secreting
▁isotype
▁0.00
▁VO
▁vasopressin
▁radionuclide
▁verte
tructural
▁amyloid
oglyc
▁GRF
myristate
▁24,
▁diuretic
▁shunt
▁irradi
erb
nisolone
▁Conversely
▁enlargement
▁Indi
▁CBF
▁cef
clin
▁Glyc
00
▁ischemic
▁acute
▁instability
▁Graves
▁PLP
▁jejun
odialysis
▁diaz
urium
▁monoclonal
▁subclass
▁leukotriene
▁tubular
▁electrophoretic
itidine
▁tran
▁Calcium
▁tachy
▁obese
reactive
▁hypotonic
▁guanine
▁seropositive
tiary
▁recordings
trone
ifferentiated
▁luteinizing
ignant
▁ewes
▁malignancies
carinic
▁LC
dibular
admium
▁isometric
orated
lob
▁duodenal
▁surgeons
▁waveform
▁mutation
▁preferentially
tives
kele
▁maneu
ilep
▁anticoag
cryst
▁spectroscopy
idic
omat
piration
converting
▁Ringer
pended
▁pigment
▁soleus
▁23
▁structurally
▁myristate
▁Combin
▁Bac
Cu
uled
kDa
▁Streptococcus
▁rhythms
uccess
▁enanti
▁adrenal
nRH
▁homology
▁extracts
▁RU
41
▁depletion
▁1984
▁ulcer
▁10(8)
▁excitation
▁(39
▁taurine
ervated
lective
▁Subjects
▁50%
Ki
abies
normally
-65
▁disulfide
uridine
▁transverse
▁elective
▁aberrant
▁kD
atum
▁flexion
apeutic
▁tryptophan
▁Ib
▁reacts
▁disapp
▁hypothe
▁tryptic
▁hypertrophic
▁proportional
▁cortical
▁0.1
osts
▁ischaemia
▁occult
ucas
▁cartil
tant
▁metabolized
▁21
▁carcinogenesis
▁geniculate
tically
▁PIP
▁limbs
▁conserved
phenyl
▁Addition
entia
ignificant
▁(4
went
▁9,
rangements
▁babo
▁DBP
▁4.8
-10)
tenosis
omonas
▁39%
▁adducts
▁1985
▁pentobarbital
ilts
esic
oride
▁OKT
openia
onyl
tracellular
coupled
blockers
▁accumulated
GTP
▁hens
ocin
▁preoptic
▁chromatography
▁0.005)
3),
▁polyclonal
▁histologically
anesthetized
sych
▁occlusive
▁enriched
▁lamb
catal
ischemic
▁comprehen
▁wedge
▁thymidine
▁tubulin
▁erythromycin
heric
▁epit
dC
-2.
ovine
2318
▁lis
▁antimicrobial
▁undergo
rocy
sors
▁OA
▁kinase
▁refractory
▁protoc
hea
▁postoperative
▁papillary
▁assay
▁intraper
▁recessive
▁immunotherapy
▁multicenter
▁PMA
economic
trients
▁duct
havi
▁1:
▁Afric
quisition
0.6
folate
▁salvage
rected
▁reticulocyte
▁mucous
vice
▁NI
▁aqueous
oneph
▁ejac
tency
roph
aemia
▁regulate
opa
-300
▁systolic
▁intox
IDDM
olesterole
8)
▁numb
▁cotrans
▁82%
39
ysto
ifers
▁57%
ceptive
▁carcin
uvate
luent
▁(0
alasin
ducing
clerotic
▁alcoholics
opamine
▁Clinical
ucine
▁molecule
ogra
▁conception
▁(6
▁subend
▁basolateral
▁blotting
4),
scop
▁genetically
▁Monoclonal
▁catheter
terminal
bred
▁dismut
ococcal
▁neoplasia
▁(19
▁supplementation
oea
12
ropyl
▁suppor
▁cataly
labeled
▁(1,
▁pathology
18,
▁elevation
▁tetrodotoxin
▁durations
dered
57
tized
▁NADH
▁moderately
▁Morph
▁contributes
▁detec
0-
▁0.5%
▁viruses
alc
sensitive
▁vesicle
▁hap
▁gonadal
▁(80
terol
▁cancers
leukin
-18
▁102
▁expenditure
▁exposures
▁0.15
chlo
▁polymorphic
▁instruc
cytochrome
▁polyunsaturated
000.
▁avian
kling
3%
trop
▁suppression
▁phospholipase
▁analogue
▁1.1
▁methacholine
irubin
▁inhibin
▁rheumatoid
▁epileptic
▁2.5
▁intest
▁headache
▁anaesthesia
▁immunod
▁estradiol
▁transluminal
▁balloon
ficial
zard
bral
▁7
▁outpatients
▁bile
▁resemb
▁codon
▁traum
6%
resid
▁ribosomes
▁ventilated
▁enzymes
ichloro
.00
dine
▁83%
tizing
iasis
kephalin
endorphin
jug
atid
▁reagents
viruses
65
▁harves
▁ATPase
Dawley
▁ocular
▁chromat
▁agglutinin
▁bFGF
▁projecting
amus
▁KCl
mature
icine
▁rhythmic
▁repro
stained
methoxy
▁31%
▁vaccines
amid
▁91
glycerol
▁mM
▁surfact
oalveolar
scher
▁cofactor
▁urine
abdominal
▁suture
▁Activation
NK
▁normals
▁motone
▁pathogenic
▁neuron
▁clinics
perfusion
▁isoproterenol
orphin
▁infra
▁1,25-(
ncies
▁Glc
▁7.7
▁liposomes
▁abrup
▁IGFBP
▁deficiencies
geal
ventricular
▁(29
▁multil
▁LH
▁BCG
▁maturity
▁6%
administration
▁dendrites
▁carbohydrates
roscopy
▁MM
▁thymic
▁PN
▁titration
▁bronchoconstric
▁hypophys
▁Aden
▁digestion
▁Tumor
minis
84
iminary
galactosidase
heximide
▁persist
mRNA
acylglycerol
erated
ylcholine
▁neuroblastoma
▁injected
chloride
-198
▁correlate
▁cytosol
5%,
▁flap
trient
osensory
▁cations
▁Immun
▁49
▁absorbance
uric
amyl
▁APC
▁dete
▁ultrastructural
▁oligos
olesterolemia
▁prazosin
▁AUC
tivities
▁13%
▁IgA
quine
endri
▁autonomic
▁sphincter
osyltransferase
▁proportions
▁mucin
kephal
sives
idone
enzymes
adily
tonic
dominal
▁locus
jun
▁isch
▁epithelia
roscopically
▁cones
▁suggestive
▁subtypes
▁bacterio
▁randomized
occi
▁atri
tomas
vail
1/
▁112
olgi
▁serotype
▁bleomycin
▁juvenile
▁8.
ocardial
-9
▁bilayer
▁lacks
▁encomp
erating
▁physicians
▁9.2
▁cytochalasin
▁pyl
▁33
▁solitary
▁dib
▁sequel
▁undetectable
▁transcriptional
▁monoamine
0,
purified
ostigmine
▁Hyp
partic
▁mediate
▁UDP
▁sheath
coh
toc
▁ventricle
▁Ace
inducible
▁duoden
▁ICAM
▁moiety
▁visualized
▁coval
▁oleic
▁isop
▁objec
▁nuclei
▁300
eces
ophosphate
▁7.3
▁dietary
▁87%
▁trache
▁leucine
▁hypercap
▁stimulus
Daw
▁aspec
anic
▁dams
itant
herol
5),
▁8.5
clerosis
00,
▁reversible
aryn
▁fibrosis
▁Calc
▁freshly
▁Concentrations
ylamide
▁gyn
▁poin
▁eti
apid
ATPase
▁mediating
CHO
▁coagulation
▁bladder
▁exponential
▁retin
76
▁specificity
▁233
▁distor
▁substitutions
▁transplant
▁cobal
inhib
▁avid
GMP
▁cooperative
deficient
▁margins
olus
acyclin
▁soy
ositol
▁anomalies
arrh
▁hypoth
▁oxygenation
▁21%
▁cerebral
▁cytos
▁lipase
ocap
▁reticul
▁insufficient
61
▁95
▁potentiate
ycin
▁scintigraphy
tabol
-6)
▁1,25
gradely
▁feasible
▁vasoconstrictor
▁transfected
▁starch
▁cytosolic
▁anastom
▁specimens
▁extrap
idation
▁thre
▁induc
▁RNA
▁immun
▁acin
▁145
▁MHC
▁strands
▁paradig
▁Eleven
4,
ochemical
ELISA
triphosphate
▁parv
rehen
3-
▁eicos
phenylalanine
ietic
Phe
▁Gly
PGF
▁immunore
▁thrombosis
(+)-
aminase
partum
▁squamous
▁polys
ophren
eared
ferrin
rolase
dihydro
▁idiopathic
▁attain
igenic
▁1),
▁aneurysm
▁stres
▁multivariate
▁mesenchymal
igaret
▁mutations
▁voluntary
jac
▁tRNA
▁40-
systolic
▁reser
ysts
▁postsynaptic
osome
▁2.1
▁calor
hydro
rological
▁Strep
ophen
adian
▁denervated
▁outward
▁dimers
0.2
▁ovary
▁ICa
▁undergoing
▁neon
▁pathogens
▁endo
▁suscepti
PAP
reased
andard
pig
▁flora
▁internalization
male
▁spectroscop
nutrition
5;
-7,
▁Chrom
▁quantify
▁isozyme
▁comple
▁glutamate
▁haemorrh
5%).
▁SHR
gression
pendent
▁refrac
94
hyp
▁slices
▁(2
▁EE
▁20
▁mann
HB
▁anaerobic
▁0.35
terase
▁amiodarone
▁pyro
▁arter
orec
alas
▁29%
oscopy
▁mucus
glutinin
▁surfactant
▁MG
▁reconstituted
▁physiology
▁repression
▁epidural
▁acros
▁infants
▁105
▁3.4
encl
▁normotensive
▁islet
athiop
tochemistry
▁natriuretic
▁prosthesis
ariate
▁shor
%),
▁atheros
▁activator
▁preceding
urate
▁Pb
▁agar
▁93%
▁relapse
▁oes
▁tended
▁loci
▁swelling
▁theophylline
200
27
▁antiv
queous
▁phenomena
▁spinal
antigen
8,
▁incubated
▁displaced
violet
tigmine
rati
▁puber
▁obstructive
cus
etal
clinical
ganglionic
▁histology
▁leukocytes
paired
▁protr
▁Parkinson
▁duc
▁encephal
▁shorten
▁ampicillin
▁56%
odia
▁1/
.6%
▁graf
▁ultim
▁perc
▁formulations
lamy
▁tritiated
oxygenase
estrogen
-35
▁5.
▁diastolic
itamin
▁Scale
▁lymphokine
▁octa
vely
Mg
▁colliculus
▁artery
▁hams
hepatic
▁91%
urin
▁85%
▁Tiss
▁dissoci
fos
▁GAD
▁120
yto
▁jaund
opoly
▁migrated
tochem
SOD
▁colorectal
▁hematoma
▁sero
tember
▁3-
▁vagotomy
▁neutropenia
▁symme
heal
▁cytokine
▁1986
▁biosynthesis
▁61%
▁400
▁thorac
▁-10
lusion
thre
▁ascer
▁atria
▁resultant
▁deleterious
▁42%
inone
▁strand
▁128
igand
▁corpus
otroph
▁hippocampal
puts
termined
▁examin
▁magnesium
aluation
▁follicular
BH
▁fertility
ovol
▁18
▁saturated
▁oxid
oreal
endocrine
▁determinant
▁(56
iodarone
▁thio
▁4%
▁capillaries
aturated
tations
-8)
urrent
▁feasibility
operoxidase
▁saturable
trip
▁(75
▁CGRP
omod
▁injections
▁hydrophilic
▁Lys
ergy
ventil
otropic
urgical
aturation
4).
▁staphyloc
orepinephrine
bacter
▁deterior
selec
modulin
▁neuraminidase
▁bac
itro
inamide
omegal
▁hsp
▁Hodgkin
▁conditioning
▁endoplasmic
▁operon
▁monit
▁biopsies
enol
yclic
erving
▁tachyc
▁neurom
▁1987
ipheral
11
▁CFU
▁synthesis
▁vascul
imens
▁synapses
ochondr
▁Platelet
▁dendritic
▁protocols
atation
▁adrenocortical
▁Fourteen
▁Escherichia
▁90-
▁Reduction
▁cholesteryl
/10(
maximal
▁superf
▁RPE
▁latent
phal
▁000
▁diaphragm
inase
▁168
ionine
.7
▁lactating
subs
▁radioimmuno
▁acidification
▁acetylcholine
▁phenylalanine
▁Forty
maleimide
▁locomotion
▁7.8
▁visc
▁antidepress
4;
erge
▁diuresis
sectional
▁hybridomas
▁logistic
xime
▁bloc
idazole
▁algor
▁carbohyd
▁inversion
▁oxidase
▁hrs
▁reciprocal
rostened
ept
▁colonic
▁coenzyme
.9%)
▁prostagland
oxamine
▁47%
▁varic
phosphorylated
▁modulating
0.
-30
▁cloned
▁tach
▁CAP
▁1.8
▁duplic
▁investigations
atell
▁intraven
▁ORF
NB
ubicin
9.
▁bronchodil
▁hapl
▁synov
▁bip
▁hyperb
▁progn
▁TEA
▁twofold
antigens
-1.
carbon
▁1-2
▁hir
▁Cd
▁molar
▁influx
▁clarify
▁inser
▁ganglion
▁.00
duction
uncture
TG
▁sonography
▁synaptic
▁radiolab
▁lumin
otopic
tance
▁transcription
-5,
▁alcoholic
▁menstrual
▁Phy
araldehyde
▁microgram
▁synthesize
tidine
▁Plas
▁hCG
rhy
▁cholest
▁hysterectomy
▁retinol
▁complementary
ioma
▁specificities
ritis
▁granul
▁purified
▁conjugates
▁transmural
cyclo
▁thrombo
▁fentanyl
▁crossover
▁stool
▁depres
▁lyso
▁reperfusion
▁viral
physe
▁MoAb
▁homogeneous
▁LPS
▁astrocytes
▁entero
▁sexes
adequ
terminus
▁phosphoinositi
▁48
▁sarcoma
owever
▁insuff
▁42
lobin
HV
▁tymp
▁motoneurons
▁inversely
▁thi
▁initiating
▁overlapping
▁beha
▁dosing
ospasm
imeth
▁monkeys
ubertal
▁plasminogen
▁discontinuation
atibility
▁brach
▁0.11
ochemically
clonal
lobulin
▁similarities
▁cerevisiae
▁shear
hesus
schem
▁amniotic
▁panc
▁collateral
prol
limb
▁terminated
▁ulcers
▁secretion
othre
▁projections
umbens
clamp
▁ovariectomized
▁fluor
▁decarbox
▁defic
▁lymphaden
▁amylase
iatum
acyl
▁prophylaxis
eptid
+/-
uminal
tization
0.9
arose
▁(13
oblastic
▁rRNA
▁invasive
▁nephro
phyrin
ospor
▁3.
▁reac
▁vimentin
tally
▁myometr
SHR
▁8.8
33
▁5'-
ancre
▁opioid
▁drainage
▁acces
▁strep
▁inges
▁suckling
▁Seventeen
radi
%).
▁[14
▁bulb
▁5
▁similarity
▁DNase
▁20-
▁serine
embran
hydroxyphenyl
HDL
onium
▁basal
tase
▁0.1%
responsiveness
▁meningitis
▁2.3
▁steroids
▁mitotic
ocyanate
▁justif
▁autocrine
vival
▁crystall
▁unequ
irds
▁chemotherapy
▁8.2
-14
▁regis
▁lactic
resistant
▁vasodil
▁concurrently
▁placebo
▁(70
▁smear
▁paradox
sities
▁Intra
opro
▁hereditary
educed
▁chromosome
▁archite
▁35%
▁falciparum
▁respec
▁DBA
▁9
▁1%
organic
▁0.06
▁0.23
assay
omorphine
▁antisera
▁progeny
▁repeats
▁fibrous
2%
ithine
▁poten
▁proline
▁nM
▁retardation
bloc
▁recognizes
▁AII
▁bic
positive
actin
▁incubations
▁Protein
▁3.9
hydrox
▁50-
epine
▁GFR
DV
qui
▁3.5
urgery
ulae
▁clinicians
▁postprandial
▁toxin
▁phenotype
kinase
orrh
ulose
▁intran
▁biliary
tein
▁64%
▁intral
-75
chlor
▁diltiazem
xone
uran
acerb
▁luteal
▁NIH
2(
▁glomerul
▁dairy
▁autosomal
▁mobilization
-0
itin
▁hippocampus
▁somatostatin
ults
Ts
▁vege
▁cationic
oradi
riamycin
▁stimulator
zyme
tened
esides
▁sympathetic
imolar
▁81
▁6.7
▁seques
▁follicles
▁(42
eliac
▁alkal
▁measurable
▁extremities
▁fractionated
▁GV
▁Statistical
▁occurrence
DH
▁steroidogenesis
15
▁0.07
▁jugular
otor
▁Mortality
▁pec
77
▁stimul
▁CAD
tection
-40
▁swine
▁67%
▁diges
0,000
▁gangli
odipine
dose
▁Hear
▁morphology
fentanil
▁myo
ylation
-1;
▁recons
glycoprotein
adm
clic
illaries
6),
othal
▁pathway
▁GI
▁tas
▁strips
opathological
▁averaging
peptide
▁hyste
▁administered
▁tolerated
▁purification
▁monolayer
▁Transi
▁metoprolol
phen
▁deprivation
▁sequentially
▁mammalian
▁collaterals
▁70
▁biopsy
▁oligodend
▁filaments
entile
onuclear
▁monkey
obarb
▁proteins
▁hemorrhagic
iliac
othyronine
thmias
xanthine
▁anatomy
etween
▁papilloma
▁membranes
uprofen
ovascular
▁CHD
▁phag
▁3-4
-45
▁TRH
5%),
▁xanthine
▁intrinsic
issive
terious
ofluores
cardi
▁5.7
▁zym
▁lactose
▁ciliary
ctive
▁Eighty
tructive
▁saliva
▁Factors
Cs
▁stepwise
tropin
▁170
lysis
romycin
▁Rats
vents
▁allograft
▁adduct
▁suppres
▁activating
▁cyanide
▁Tx
▁bupivacaine
▁valve
▁yielding
▁Insulin
▁colitis
▁gradi
▁10)
strain
lasses
▁manifested
▁transi
8).
▁cytology
tec
▁immunodef
evoked
▁cate
ventilation
▁keratin
▁dimethyl
▁0.18
▁filament
▁haplotypes
▁30-
▁MK
▁maternal
▁adenosine
▁reflex
▁staging
▁oxytocin
tel
▁thickening
▁paired
cells
.5
▁scanning
▁methylene
threatening
▁sequelae
▁63%
▁1,2-
▁constructs
▁7.
chloro
▁syndromes
▁sonic
▁hypers
astatin
tivated
▁criterion
ropathy
ocrine
oprec
oretically
▁myosin
crist
orectal
▁Animals
▁transmitter
▁86
glycine
▁(-)-
▁supernat
▁ductal
▁fractions
unsaturated
▁nodules
▁progenitors
▁pyrophosphate
▁endogenous
▁detecting
GH
▁microb
odeoxy
8%)
▁lysine
▁bioassay
▁abor
▁GH
▁Bacillus
▁Hep
▁sclerosis
▁Serum
▁Survival
▁anesthe
▁derm
▁syncy
▁amput
▁pharmacokinetic
▁predic
▁retrie
▁Biol
▁quinidine
▁1,000
▁seasonal
uoden
▁IgE
-9)
▁(37
competitive
duced
▁percentages
▁melatonin
uculline
▁bene
▁substituted
▁actin
▁thrombocyt
▁methylation
▁.0
oprost
▁tris
abd
irub
-5)
▁ND
toid
ivacaine
uctose
▁indexes
▁prednisolone
▁prevalent
▁aspartate
esium
▁pharmacologic
emak
(2)
▁diame
▁pA
▁ambient
2/
lasts
▁20.
▁carriers
wk
▁inactivated
▁hyperlipid
▁insec
▁2,3-
▁turnover
oporosis
▁restenosis
agic
▁tac
▁induce
▁differentiation
▁isotonic
fec
▁agglutination
iae
▁simult
▁osmotic
▁parac
▁uterine
▁aerobic
4/
Hb
thase
▁estimating
tectomy
etent
nitro
▁longitudinal
olet
▁spontaneously
▁Wistar
▁LTB
▁nodal
▁questionnai
▁actu
▁catecholamine
64
mercap
urons
oproterenol
▁glutamine
glutination
roprus
▁analogs
▁Epstein
oracic
▁colonization
anad
▁pathophy
▁crystals
▁osteoc
4.
▁trophob
▁EF
▁aneup
1-
yel
▁15%
floxacin
thmatic
▁premature
▁microsp
▁bipolar
controlled
opoietic
▁mAb
▁preliminary
▁antral
tigo
atient
▁1.5-
▁sten
▁SRIF
▁CDDP
▁anions
▁endings
▁ingestion
▁2).
.4%
500
▁sham
▁secretin
▁FSH
thirds
▁circulatory
▁RR
sian
▁effic
▁interferon
▁pep
lastoma
▁dissec
▁intracranial
oyl
▁intermittent
9),
▁Median
▁rehabilitation
▁vitamin
▁fluoro
pressure
▁selectively
▁prenatal
rogenic
ymptomatic
otyp
CRF
fron
itre
▁disclosed
▁deficits
▁trigeminal
▁hemodialysis
▁peaked
▁fibronectin
▁periodontal
▁hydrolysis
sue
▁intensive
▁1)
athioprine
othreitol
▁diarr
ociated
▁intake
amn
luores
▁mU
▁postin
▁opi
▁tracheal
▁(22
▁atten
ipital
▁selenium
▁lumb
acil
oste
5%
▁tracer
erate
osum
-7)
.7%)
▁asbestos
▁humoral
stim
kD
▁(0.2
▁1-
odop
▁larval
▁thromboemb
▁orally
▁contex
ocated
tability
▁infectious
▁intercal
▁ascorbate
▁ANF
▁arginine
bearing
▁poli
▁albic
physiologic
rophen
▁differed
▁Infection
▁electrode
▁parental
▁96%
▁bathing
oag
▁myocytes
▁haemodynamic
▁promotes
clo
ressing
▁displacement
limiting
▁lining
▁diarrhoea
▁competence
▁neonatal
ullary
proliferative
allik
▁confluent
▁antero
▁synthe
chymal
▁enti
▁acyl
▁regurg
▁57
lyc
▁cycloheximide
▁accel
oplastic
thanolamine
▁AH
▁13,
PMN
iversity
tabl
▁agarose
▁soybean
▁cervix
▁homogenates
opha
acet
illus
asic
▁pouch
▁superficial
▁experim
▁trigg
▁HCl
ller
▁fla
▁confirming
▁Trp
▁adenylyl
oplasma
▁hyal
heres
▁isot
pendence
utaneous
omotion
▁muc
▁96
▁plasmid
▁preincubated
▁polyc
▁normo
▁discontinued
ocytochemistry
ensi
▁gm
▁ether
▁graft
▁hypertensive
feeding
-29
▁4.1
oventricular
tomy
▁allergy
▁homogenate
▁transplantation
▁irradiation
▁maturation
▁pertussis
▁differs
▁glycerol
▁60
▁rheumatic
▁assayed
▁oscillations
▁carcinogen
atment
▁incorporation
▁progenitor
▁phosphorylase
▁choles
▁supplemented
-60
▁concentrations
(2+)-
ograms
▁PAI
ritin
▁subjective
▁Bacter
▁cocul
▁assays
▁ventricular
▁reductions
6-
▁dementia
▁bup
▁iodide
▁GMP
aminobutyric
▁GABAA
▁Sepharose
▁surgically
▁cDNAs
▁GST
abilized
anyl
▁proliferate
▁phentolamine
▁unilateral
▁ICI
▁comprised
cellulose
tent
▁incis
▁joints
gic
▁cholesterol
▁agonist
siveness
▁Tn
siology
monophosphate
arrhythmic
▁allergens
▁complication
▁Saccharomyces
▁morphologically
▁TSH
▁gingival
▁Rb
otent
▁thyroxine
▁penetration
oratory
▁hamster
▁angina
▁amygdal
▁19,
ylephrine
asions
▁3)
▁VH
▁0.02).
LISA
▁linoleic
▁cyclo
2+-
ophore
▁6
▁10(4)
9)
▁somatosensory
▁pneumonia
▁Investig
EAE
▁2,
▁chromosomal
▁Continu
diagn
▁phosphatidyle
inergic
cAMP
▁CK
tic
ifferenti
activating
partate
▁32
thrombin
▁warfarin
uscular
ethylene
tails
ulses
▁gonadotrop
/24
deoxy
▁inverted
▁erythroid
▁(3
SAID
yzed
▁anaesthe
▁encoun
ods
▁prono
▁ejection
▁-1
▁incid
▁6.2
▁0.05),
▁excitability
kinson
▁bran
▁elongated
7).
▁HBsAg
tero
▁pacing
▁malign
▁fibrinolytic
▁2.7
ensities
▁influenz
▁excre
▁nicotine
▁anesthetic
▁clamp
macropha
responders
▁Recom
▁grafting
▁amelior
tig
▁recurrences
▁0.19
uretics
▁microscopy
ocyan
50)
▁retard
hydryl
▁codons
▁steroid
azep
▁elec
▁valves
sA
acting
▁thyro
▁prophyl
galact
toli
▁Interestingly
pA
ithelial
▁substantia
urine
▁definitive
▁pooled
▁immunized
▁surgical
▁sti
▁ribonucle
▁multim
otomy
▁Growth
▁influencing
▁cloning
▁phosph
▁forebrain
▁accumulation
▁neurop
▁0
arcoma
▁sput
▁(36
otre
▁antibiotic
odynamic
▁doubled
▁cerv
itoneally
▁modulate
aminop
▁assis
▁fum
▁37%
▁Thy
▁CN
apanese
▁1:1
▁subjected
▁distric
▁defec
▁traumatic
▁perin
▁adduc
reduced
▁HBV
▁saliv
▁cochlear
▁transitional
nitine
▁capillary
▁grafted
tained
▁(31
olipid
▁thallium
▁cerebrovascular
▁washout
▁saline
dor
▁alkaline
HCO
▁denat
▁nitrogen
▁cessation
ported
▁discharge
▁disappearance
-26
▁phagocytic
▁hematologic
▁119
▁Fifty
▁sterol
2).
▁increments
▁overload
93
▁aggregates
obut
▁reproducible
▁fractionation
▁PKC
▁crom
▁distinguishing
0%,
embrane
▁Lym
▁stenosis
tisone
▁6.8
▁acutely
▁arose
oung
▁incom
▁flexor
▁simian
enopus
▁mEq
▁protease
▁Crohn
▁10%
▁vitro
▁ACE
▁ischem
▁discom
▁glucagon
ameter
▁efferent
posure
ochrome
orpor
ocytes
▁cystic
thi
oplas
▁constitutive
▁kinetic
rophic
▁1,25(
▁critically
mediately
amphen
▁deletion
▁8)
▁monocyte
▁organism
rents
▁concurrent
▁Swed
iesis
▁NK
▁methyl
▁chym
▁adenovirus
▁anaesthetized
▁subun
▁ascending
▁amino
omized
▁16-
enzyme
pyruvate
▁HC
▁produc
lys
▁fibroblasts
▁harvested
▁15-
trin
oxin
▁recombin
▁hypothermia
immuno
75
▁incomplete
onary
▁dichroism
▁labelled
ocriptine
▁interfere
▁pediatric
▁Bec
▁sarc
▁polym
lact
echan
Gs
▁ovari
olytic
▁indomethacin
▁84
▁Asp
versely
ocl
cence
2(+)-
▁programmed
▁antin
vian
agin
-32
ereb
rein
▁tyrosine
▁Entero
▁hapten
▁1.0
▁screened
rologic
▁phosphates
▁plasmids
▁adop
▁Maximum
▁vena
▁prostacyclin
▁Inhib
▁hygiene
responding
▁helix
▁Sprague
▁fluores
▁resembled
▁resuscitation
▁fibroblast
zymes
▁neonates
▁scre
Ca
parag
▁Severe
▁17-
▁splic
▁connective
▁radiographs
▁innerv
urea
▁dentate
▁aort
▁collagen
▁51
▁reserpine
▁abnormal
oxo
trodotoxin
▁counterparts
ifug
▁alanine
▁stimulate
▁pylori
gland
▁immuno
anthine
illary
▁ranitidine
▁perikarya
▁differing
esophageal
▁concomitant
▁enzyme
▁117
14)
eryth
▁degran
yridamole
▁ESR
▁NMDA
▁7.6
▁emphasized
▁biologic
tub
▁Intracellular
▁dB
▁underst
▁enlarge
▁intram
diabe
▁(1.6
▁inhibiting
▁pate
ophils
▁HCC
▁sows
▁kain
▁Lyt
onvul
affec
sant
▁currents
eradish
▁subcutaneously
▁thalamic
▁persisted
adecan
▁alve
achid
atrial
Ig
▁oval
umerous
tillation
titution
▁gland
5).
tors
glutamyl
ervoir
▁glomeruli
▁amphetamine
▁accelerated
▁hypercal
retin
▁Alzheimer
onegative
fluoro
LH
itus
cessive
epam
▁cytometry
▁denti
vitamin
▁phosphate
▁inh
▁5)
aptic
▁retic
crimin
onazole
▁lact
▁8.4
orrhea
rometry
▁sedim
▁101
ropha
AVP
▁spermat
▁causal
▁lectins
▁pharmacokine
tivity
▁locomotor
propyl
GnRH
▁rabb
▁diuretics
odermal
phragm
▁bowel
▁reversal
▁epidermal
apeptide
loidy
anking
▁vWF
▁78
▁.1
alues
▁positively
▁fluids
▁perit
▁residue
▁Hb
▁wee
mia
▁spasm
▁TK
▁86%
▁103
▁saphen
▁67
▁biom
acetyl
▁26
▁doubling
▁114
▁thymus
bile
ogenic
onate
olateral
ticular
▁successive
▁genital
▁carc
▁17
▁dischar
▁Mn
obutyl
6.
▁rostral
▁synap
▁plas
thle
▁nadir
▁ventric
▁viscer
▁atopic
▁systemic
ergency
gressive
otoxin
gans
▁prosthe
▁extracorporeal
▁AML
▁buc
▁Binding
▁couns
▁kidne
▁1000
.2%
▁9.
coated
▁chel
▁elast
▁preceded
▁40%
glycer
▁axial
▁enkephalin
▁amputation
▁advan
▁primers
▁pulmonary
▁elong
▁0.000
jec
▁5.0
▁decreased
▁Effec
MH
▁uncomplicated
▁phe
enkephalin
ANF
▁underestim
▁Concentr
▁exer
▁necrosis
▁homogen
armac
▁deviations
▁manifestations
▁hepatocyte
▁impairment
blast
10
▁tetrac
▁amygdala
▁optimum
▁insertion
▁admissions
ospecific
▁neurolep
▁biosynthe
▁sialic
erents
▁signaling
▁0,
▁mitogen
▁kcal
▁Cul
▁mixtures
▁fibrob
restricted
▁5.3
▁79
▁capsules
▁rods
▁deferen
▁neoplasm
atinine
.2%)
▁indus
▁compe
▁Doppler
▁clonal
▁methanol
▁47
▁routinely
▁Reduc
63
▁acceptor
opeptide
▁quenching
▁doses
▁glycosylation
▁microv
▁Immunohist
▁patency
lood
encephal
▁sugges
▁analogues
ochondrial
▁depolarization
▁androgen
orbol
disc
▁diagnoses
▁satis
▁adversely
▁commiss
▁bicarbonate
▁ammon
▁androgens
▁accid
▁70%
▁peritoneal
▁allogeneic
▁100
liters
▁0.17
agit
▁hybridization
▁descending
▁venti
▁pmol
▁prostatic
ospitals
operidol
▁linkage
ygotes
aminoglyc
terin
▁3%
▁(21
▁-5
ectomy
▁6.1
▁seizure
tinu
▁amin
▁implant
hydrop
estig
▁Exposure
▁electr
acholine
▁peroxidation
oprolol
▁Tissue
infection
▁physici
Gly
ocarcinoma
abec
▁prolactin
▁methodology
TGF
taken
▁depolarized
adic
▁cytologic
▁loos
▁attenu
sistent
▁Pulmonary
▁8
▁primed
▁interacts
▁0.13
▁AMP
organisms
▁scin
▁lumbar
▁malaria
tum
▁efficacious
▁onset
▁embryonic
adrenoceptors
3'-
▁regimens
▁topical
23
▁cows
▁abd
▁centres
ternational
▁88
▁tuberculosis
▁HL
▁10(3)
helix
▁topoisomerase
▁GHRH
▁inadequ
▁expressing
▁antibody
5%)
▁transferrin
▁avail
▁biochemical
▁promp
ostomy
idney
▁proteoglycans
▁membrane
PAC
▁receptor
▁modulated
blood
▁pulsatile
▁1989.
onomic
vular
uronium
▁hydrox
▁contamination
▁60-
▁22
▁propionate
▁cytolytic
PGE
▁chemotactic
▁neurologic
▁circumflex
▁66%
▁immunobl
▁therapies
▁centrifugation
▁radioactive
▁135
▁30,
▁moieties
lated
0%),
rays
▁stained
tral
entif
▁dosages
▁illus
▁immobil
▁eryt
eroxide
▁subgroup
▁Mice
▁Higher
▁IU
orbent
▁ankle
▁2.4
▁31,
▁abnormality
▁undere
imid
▁PTH
ensin
rowing
ecretory
leuk
ecu
▁Thir
▁covalent
▁tol
▁pretreatment
▁therapeutic
▁FFA
ethyl
▁analges
▁compartment
▁Salmonella
▁motility
▁Flu
▁5'
▁16
▁nifedipine
PAT
atening
natal
▁enzym
▁43
upus
▁hazard
antial
▁ovulation
.9
tured
▁constriction
▁Phen
▁CRP
▁rectum
▁insulin
terolog
▁hydrophob
▁epidemiologic
▁ipsilateral
▁discriminate
tical
▁0.01),
▁cran
lep
▁mening
-1)
ylated
▁gyr
terologous
▁decreas
▁caud
▁Americ
▁3.7
▁electrolyte
▁93
▁hindlimb
▁vacuoles
▁normalization
▁apoB
▁methotrexate
▁ionized
▁inherent
▁imaging
▁(14
▁epilep
amate
▁Increas
▁9)
-)-
▁transiently
▁awa
▁lysozyme
▁uncom
▁appropriately
▁.05)
ikary
▁intub
nec
Km
▁asymptomatic
▁arrhythmias
▁radiological
opo
▁Antibody
▁6.9
▁angiotensin
▁catechol
NAc
kinje
▁streptozotocin
▁stratif
▁fasting
▁phenobarbital
▁collic
▁examinations
▁50,
5)
cine
tumor
ocaine
▁preventive
atical
nitros
▁gradients
entan
▁inconsistent
▁graded
▁NADP
anavalin
lycerol
▁aldehyde
▁mortality
lec
▁7.9
▁precur
▁augmentation
▁aromatase
▁0.09
▁Initi
tiguous
▁mediated
▁rupture
▁peptid
ugular
▁dextran
▁judged
▁150
▁tiss
▁hydrolyzed
/6
1%
sorb
tilis
▁Multiple
emble
▁.01)
▁manu
NH
'-
osine
▁hormone
▁interpre
▁proteases
▁bromocriptine
▁pelvic
▁mitral
▁spikes
▁confound
▁Plasma
▁ouabain
▁transfection
▁repressor
▁15,
onuclease
▁Pseudomonas
▁rabbit
early
olase
▁interventions
urk
▁anemia
▁dissemin
▁isoprenaline
-22
▁11%
namic
adap
▁simultaneous
▁microsomes
▁NMR
gment
emia
▁(250
-1
▁catheterization
▁epicardial
▁wt
▁enzymatic
▁dysfunction
glucose
helium
▁sperm
▁cardiac
stin
▁Eco
itance
meth
hemical
▁uremic
operative
▁106
drug
▁nicotinic
▁(1.0
▁potencies
opril
ecyl
10-
▁solubility
▁45
▁111
▁enrich
▁perfusion
sorption
▁foc
▁granular
8),
▁(16
ostatin
pine
▁fractures
ocyst
▁morphologic
inj
▁chlo
▁phenotypes
▁periphery
▁Staphyloc
▁TCR
▁vestibular
orax
▁Comparison
adrenoceptor
▁anae
dU
▁ultraviolet
▁fibre
▁recipients
-450
cents
▁7.5
atellite
▁succinate
sus
▁irreversible
▁vagal
▁relapses
▁FMLP
promoting
▁conductance
embry
▁occl
▁Lp
▁abnormalities
83
wann
imide
▁26%
ogenes
▁recor
imentin
LDL
▁ration
operatively
▁dendri
▁disturbance
ACTH
▁6.0
▁actuarial
omyel
oxic
ygo
icidal
▁doxorubicin
ystic
uria
▁bradyc
▁mimic
amethonium
himb
nai
▁33%
▁hGH
-10
▁scans
▁precursor
▁datab
teroid
ocys
▁restor
ominant
▁endemic
▁97
▁CRF
▁rodent
▁neuronal
▁50%,
romy
sively
▁clon
▁nicot
trogen
▁(500
administered
▁tonic
▁neph
▁atrophy
▁Pharmac
olig
▁Michaelis
▁analyzing
▁antigen
onor
anav
xual
▁predominant
▁envelop
▁illumin
▁EPR
tran
▁0.2
-5
lymer
▁employing
▁avoidance
▁corticosterone
▁nig
▁perinatal
▁homoz
▁transduction
▁secrete
truc
▁behavioral
gents
▁metastasis
▁exchanger
enching
▁serolog
▁abscess
▁NM
▁microm
▁LDH
▁expiratory
▁121
▁autoreg
▁4.
PKC
cyclic
▁ketanserin
▁122
▁outflow
▁derivatives
▁piglets
▁rhy
▁30
plasty
▁hypertro
▁microbi
odopsin
▁recurrent
quid
PMA
iprofloxacin
▁microliters
horm
weighted
-200
▁acetyl
▁threefold
tive
3%)
tensin
▁suction
▁dichro
▁posi
opathy
achol
phthal
▁polymerase
▁inbred
▁intravenous
▁sucrose
HF
NMDA
oclonal
▁histochemical
▁limb
▁Leydig
▁alleles
13
iruses
▁glucose
-25
▁selec
▁inactivation
CBF
▁equivalents
▁NaCl
velength
▁41
▁carbachol
abin
▁Seventy
ophil
orac
pregn
erebral
▁ICP
▁inhal
▁guanosine
arum
▁250
▁0.7
▁lumen
▁oocyte
▁Levels
▁grains
gluc
66
▁cyclospor
▁ae
zot
▁BW
▁CaM
▁genotype
▁slowing
bromo
▁methionine
▁intraoperative
▁transient
pecially
othi
▁bilaterally
▁1983
▁resol
entical
▁MBP
TPA
▁fetal
▁oncogene
▁homolog
▁morbidity
▁GDP
21
▁nonc
ranolol
▁aspirin
oxid
▁sensitivities
▁glucocorticoids
vity
▁correlations
▁fibrinogen
▁glycosylated
yx
onin
unced
tif
▁chondrocytes
▁uric
henyl
▁lympho
▁gastro
▁epidemic
▁lymph
elic
essel
▁2000
▁enteric
▁neurons
0.8
rendipine
▁emerg
▁extremity
ochemistry
▁persis
▁newborns
▁5-
▁rati
▁proton
▁sple
acr
tagog
ayed
▁brid
atoxin
▁1988.
▁Phe
▁ileal
▁apprec
roitin
membrane
amines
pretreated
▁fibrillation
▁anesthesia
▁fatty
▁underg
Tyr
▁examining
electron
IgM
▁lengthen
▁platinum
▁glycogen
▁prolonged
▁medulla
OH
▁docum
▁summarized
inic
▁intrauterine
apeu
reactivity
▁yiel
arynx
10)
▁remarkably
▁ASA
▁ile
▁EEG
▁simulated
▁cytomegalovirus
▁dorsal
▁analytical
▁discrepancy
▁salts
▁verbal
HM
crip
▁3'
muscle
arial
erin
▁0%
tead
▁proliferating
▁Carb
oA
▁36
▁Pretreatment
olamine
▁cranial
oinositi
▁sinus
▁mildly
▁aberr
▁Tum
▁births
▁metabolite
▁exogenous
toxicity
avail
phyloc
tics
50
▁creatinine
nithine
▁undertaken
▁11.5
toxic
▁ligation
▁organisms
venous
▁SCH
▁clot
▁proliferative
aryng
▁esophageal
▁macromolec
▁microelectro
▁stu
ustif
▁dilation
imurium
raine
kely
wenty
▁Ala
▁carboxy
amel
ductase
▁perioperative
owel
▁pallid
▁reproducibility
▁clinically
3).
eptin
▁0.025
▁virtu
▁tachycardia
itum
▁facilit
▁gastr
hemagglutinin
▁Haem
3+
lymphocytes
▁[35
▁hypercalcemia
▁constric
-4
▁prednisone
8-
ocytic
tris
▁esterase
atest
▁ana
▁EA
▁anomal
tential
▁chorionic
▁68
monary
▁commercially
▁synovial
▁pathological
arean
▁diarrh
dihydroxy
▁22%
▁latex
▁MAbs
▁unsaturated
▁sphinc
▁guanylate
▁FGF
epti
spectively
▁neoplas
ophysiological
▁nitroprusside
▁16%
▁0.01
▁determinants
-48
albumin
▁glucone
elec
tention
▁puberty
icep
▁4.7
acted
tene
▁solvent
▁mono
▁21-
▁rhesus
▁radiographic
▁castrated
▁isomer
▁linole
▁implanted
▁prognostic
salt
ffer
▁PEG
▁nasal
EGF
▁4.3
▁40
flammatory
▁kinetics
conjugated
450
▁ulc
▁addic
▁noradrenergic
▁stimulating
▁esophag
▁chondroitin
▁enrolled
▁prostaglandins
▁3.0
▁facilitation
▁alters
luding
▁weaning
othelial
nucleotide
▁secretory
oluble
▁hypother
▁memb
▁(44
▁cytoch
athyroid
iability
ofl
▁explants
▁microspheres
▁eukaryotic
98
▁catalytic
fetoprotein
lymph
▁AIDS
benzo
▁kine
chym
thymidine
ostasis
▁bilateral
▁37
▁atypical
angiotensin
▁demographic
▁carcinogenic
▁marrow
56
ucle
▁4.6
▁eosinophils
▁82
▁adolescent
okine
▁valvular
▁vertebr
▁amp
▁hydrocarbon
▁transection
▁10.0
CSF
ncy
/5
osamine
▁PCR
▁adip
▁stationary
▁regimen
semin
▁retarded
▁Glucose
uccessful
▁lytic
▁CHO
HRP
▁glycosaminoglyc
▁VIP
0.4
▁enrichment
▁Whereas
▁thrombus
▁LD
teroids
▁glial
▁afferents
ensory
opressin
▁platelets
aminergic
▁beads
▁collagenase
▁8.0
ytoin
olization
▁subf
▁adjuvant
▁8.1
aventricular
itrate
▁daltons
▁inoc
minal
▁comprising
▁catalyzed
oplasty
▁irrig
▁transcribed
▁acqui
▁mutagenic
+/
tension
tigu
IgG
.1%
300
▁(26
omycin
▁biosynthetic
releasing
▁immobilized
▁(1
inally
▁mRNA
▁incidence
▁WK
▁carcinogens
▁microtubule
▁stoichiometry
▁potenti
▁equilibr
▁unil
affin
▁infec
▁qualit
▁inapp
▁comparisons
aterally
▁endocrine
▁MIC
ygdal
▁discrimin
Leu
brile
▁8-
▁Hyd
▁vesicles
▁breeding
▁quiescent
▁multiv
▁retinopathy
▁vomiting
▁intravenously
othane
2+.
▁133
▁desm
ongue
.8%
▁pector
▁differentiating
▁discontinu
trates
▁peptides
▁umb
▁immunohist
aryotic
▁18-
rences
▁TNF
▁attrib
▁halothane
▁endoscopic
rometer
▁vertebral
containing
▁untreated
▁8644
▁2.
PTH
▁intakes
▁livers
▁epidemi
▁rectif
▁trypan
▁laminin
▁4-
▁adverse
▁glucuron
▁sigma
▁antigenic
▁familial
▁lipophilic
ntolamine
hydr
▁muscarinic
▁60,
uronic
cis
▁endometr
▁activators
▁unfav
▁oligosaccharide
initi
trus
▁sph
atching
▁operative
▁reactivity
conver
ulant
▁autologous
▁thyroid
9%
sess
tate
▁mellitus
-4,
▁outpatient
olesterol
▁islets
▁perforation
▁resul
▁reacted
▁controver
▁catar
▁monos
▁fibr
eminal
▁myocardium
▁fulf
protein
▁Krebs
▁exag
thma
▁generalized
▁streptococci
▁stratified
▁PLA
▁cochle
vices
▁Prol
▁fibres
▁erg
.1
▁palp
▁immunocyt
▁rearrangements
▁antibiotics
oplasmic
venty
alciparum
7%)
▁trimester
▁intrap
▁epithel
▁PAP
▁analysed
▁chloro
▁discrep
▁parturition
gthen
▁ascorbic
▁disseminated
▁plaque
▁monolayers
jected
▁ADP
▁tandem
median
▁bacterial
▁cyclosporin
otropin
illi
yramine
anine
▁morphine
▁conges
-2,
▁reacting
▁unres
▁sulf
▁interne
-11
tants
▁GTP
▁1.3
▁analogous
▁protons
▁granule
▁contamin
▁subpop
▁airway
▁endoc
▁serological
-(1
atab
thymic
▁biology
▁(95%
turb
▁lidocaine
MHC
▁responsive
▁unid
▁cyclooxygenase
macrophage
▁deli
▁proteolytic
▁Electron
fraction
riton
itic
▁streptococcal
▁contras
▁demonstration
ervical
38
▁triglycer
▁Evaluation
ogenesis
unctions
▁linearly
stimulating
▁extraction
▁velocities
▁kallikrein
▁(2-
▁isoelectric
▁fractional
▁selen
planch
▁leukemia
▁interf
▁3).
▁Inte
mental
▁Evidence
inositol
strand
▁distin
▁unchanged
▁mec
▁0.8
:3
▁satisfactory
▁androstenedione
▁neo
unctional
▁inflamm
siologic
▁latencies
▁statistically
▁PaO
62
▁physiologic
mide
▁mitochondr
romes
▁myel
ocor
iagn
▁segregation
cture
echanical
▁solub
▁gastrin
▁reticulum
mented
▁endonuclease
▁confined
▁occupancy
atine
▁mitochondrial
▁hemisp
▁transmitted
▁addi
ensitization
▁77%
eptidase
traction
▁64
▁compartments
▁resour
lycero
▁(0.3
▁raphe
Ci
▁determinations
alact
exis
▁antigens
ureus
▁inotropic
-34
ergic
▁elicit
▁positivity
▁prognosis
ucl
▁4,
versity
▁lec
▁irrever
▁prolongation
▁triggering
/10(6)
esarean
▁demonstrates
▁gamma
▁innervation
▁cysteine
▁affec
▁0.001)
▁elucidate
▁8%
▁identifiable
▁necrotic
▁stric
▁(0.0
53
▁(10(-5)
▁endothelin
(1
▁suppressive
demic
thmia
▁GSH
▁acet
▁80
▁exacerb
▁chloramphenicol
▁metabolites
▁vicinity
▁drin
hyd
▁shortened
merc
▁incremental
yridine
▁periodon
illation
▁neutralization
rosemide
▁reflux
▁ischaemic
▁proximal
▁6.4
triglycer
▁efficacy
▁FF
▁arthritis
▁sulph
produc
▁CCK
▁challen
ilibr
tions
▁relap
ionic
▁malignant
▁discomfort
▁0.30
receptors
▁phospho
▁quantif
▁competitively
aind
ophilus
▁1500
▁48%
▁cured
▁revascular
▁10(5)
cholic
▁substrate
▁muM
renaline
▁previ
struc
▁Gs
ectin
▁ester
▁amn
▁ultrasound
▁Consequently
▁rumen
▁PRA
▁ventricles
▁mmol
▁quin
▁neoplasms
tivation
▁carotid
▁substitu
▁exhibits
▁phyto
iotics
derly
▁14%
▁85
▁excretion
years
angl
▁ach
▁(2.5
thood
chol
cysteine
stolic
▁isoform
▁Preliminary
14
▁synerg
▁requi
onography
19
veolar
atidyle
▁aluminum
▁oxy
orphine
ACh
▁Factor
▁medial
▁putative
▁assessments
▁EG
▁acidic
dipine
79
▁lymphomas
▁mating
▁homozygous
▁3
producing
▁plasmin
rox
▁scaven
agonist
▁proximity
-28
▁propranolol
▁surgeon
tion
▁plasm
▁6.3
▁corticosteroids
▁starvation
▁exerts
▁devoid
▁stratum
▁Sodium
▁trabecular
phasic
▁cimetidine
▁Infusion
tinguishable
▁dissociation
Hodgkin
▁resis
▁quantitation
▁deviation
10,
brain
▁intimal
▁Treatment
allikrein
rever
▁vaccinia
▁criter
▁construc
▁glycol
▁Statis
▁prophylactic
▁systematically
▁phosphorus
HSV
▁deoxy
▁nonspecific
▁Consid
▁antibodies
+.
(-)-
ymp
▁supple
▁87
▁impedance
luded
roxim
▁retur
▁appreciable
▁neutroph
phot
oblastoma
▁cytotoxicity
HCV
acrylamide
▁prostaglandin
18
kage
▁retention
▁1.2
▁clones
azolam
ifedipine
▁yohimbine
rosy
icillin
▁4)
itone
▁pla
▁pyr
▁rIL
▁Thirteen
▁(+)-
▁KD
.6
▁3',5'-
genic
▁scinti
▁chromatin
kelihood
optic
▁intubation
ocyte
▁bradykinin
trations
▁institu
indole
▁transcripts
▁transduc
pecific
▁EGF
▁effec
▁pellets
▁heifers
▁NF
▁ultrastructure
▁107
ensitivity
▁glyc
▁immunosuppres
robial
▁oriented
▁ventilation
greater
72
▁infarction
oxidation
▁isotope
▁testosterone
▁excluding
▁NH
▁rats
▁PBL
MV
uted
▁interv
uronal
▁radioligand
▁cascade
▁impair
-2-
▁saphenous
hydroxyp
▁severity
0.3
▁incubation
▁cesarean
60
▁1-3
▁Ninety
ANP
BW
▁Kine
▁1,
▁tubes
▁casein
(2
▁conclu
▁proliferation
SEM
▁microtub
▁lowering
▁Estim
.1%)
effec
▁mannose
ronchial
▁selectivity
ruc
▁Renal
▁1.25
▁gly
▁5%
▁degen
▁intramuscular
▁parame
▁Tyr
9-
▁concomitantly
▁dithi
anol
▁prevalence
arrhy
urane
-50%
▁carcinomas
etoprotein
▁strains
▁chimer
▁daytime
▁elongation
▁Subsequent
activated
▁tyros
▁predictor
2,000
▁cytogenetic
▁epitope
GFR
▁rejection
▁Oc
Nase
▁90
▁hep
▁tomography
25
ermal
trac
iceptive
▁regression
oglobulin
▁suppressed
absorption
oidal
▁proteoglyc
tox
▁diethyl
▁ovarian
ionate
▁branched
▁attenuation
imbr
▁outgrowth
▁analgesic
▁infections
▁mitosis
▁initiation
lip
omers
▁cann
▁sequencing
▁segmental
▁euth
▁occluded
▁hypotensive
onitis
▁postmortem
blind
▁impaired
▁exis
▁144
97
▁mitochondria
▁morphometric
▁cleft
▁localized
nthe
▁cerebrospinal
▁ald
enal
hers
4-
rocal
▁Maximal
▁fructose
▁MV
▁chemo
▁chec
onephritis
▁coex
▁scalp
▁malformations
▁glutathione
▁somata
sions
▁macrom
▁Oral
bic
▁fascic
▁mutants
injection
▁ventrolateral
unctiv
▁arising
platin
▁Patient
ulline
gmental
phil
▁HM
ographically
uble
▁Cyt
▁Simult
▁embry
▁redistribution
▁sut
plantation
▁immunologic
omegaly
▁uter
▁IGF
▁mitogenic
▁freezing
▁hepat
▁blot
▁intensities
▁0.08
▁retrospectively
▁eosinophil
▁Biochemistry
▁messenger
▁genome
▁manifestation
inoc
3/
▁(150
▁4.0
▁RP
▁cerevis
▁phosphatase
▁oxidation
▁Km
▁cytoskeletal
▁Leu
▁localize
▁binds
▁progressively
angi
▁wean
▁Isolated
apo
amphenicol
▁phage
omal
▁renin
▁reticular
▁chloride
▁40,
▁presynaptic
▁injec
▁conformations
IFN
▁Triton
▁identi
▁acidosis
testosterone
sequent
PCR
trypsin
aminidase
hetamine
▁[32
cious
▁ophthal
▁cytoplasmic
azem
entanil
▁euthyroid
▁markers
▁CHF
▁3.1
▁physiologically
olipids
▁nitric
tak
▁2.0
tage
▁predicting
▁utero
▁heavi
▁constitute
▁PHA
lox
▁intestine
uppres
entricular
arachnoid
▁2)
▁Approximately
enicillin
divid
▁emphasize
▁hygi
▁antioxidant
▁glucocorticoid
amethasone
▁autop
chlorothiazide
▁assessing
▁nmol
pharose
erence
▁deoxyrib
▁131
ilization
▁carbam
▁chromaffin
▁136
chicine
-8-
osylation
▁whereby
▁myot
▁elicited
▁gangl
▁accessory
▁hybrids
odies
▁nutrient
▁cG
▁blockade
▁50
▁NIDDM
rance
▁30%
▁supra
quit
▁trachea
▁HCV
▁altering
▁sacr
▁vulgaris
▁lep
▁spontaneous
aterals
▁comparative
▁degraded
▁carboxyl
▁RNase
▁immunoassay
osynthe
▁negatively
ocar
▁hepatocellular
ture
▁Scatchard
▁84%
▁econ
▁relevance
▁hydrolase
▁Hg
olism
▁spre
uspid
▁augmented
▁choro
▁antidepressant
omiting
▁(1.3
▁distrib
insulin
▁gp
▁cardiovascular
smokers
amole
▁neurob
onad
mittent
▁lactation
▁genotypes
ministration
therapy
▁granulosa
▁sarcoplasmic
▁fourfold
▁implants
▁SOD
▁200
▁contractions
certain
36
alian
▁Purified
dR
▁impulse
operated
▁infectivity
▁reversibly
▁adsorption
▁precipitation
roma
▁studi
▁dyspnea
▁Histological
ropo
iflu
icardial
guan
peak
▁microM
▁Leuk
▁intermedi
▁skeletal
usate
▁137
ampl
.4%)
▁amph
▁cen
▁Responses
▁yolk
catalyzed
ipramine
▁hippocamp
.6%)
▁ADR
▁10.
▁sputum
▁titers
▁horseradish
uretic
▁psychiatric
▁exons
2.
▁perfor
▁pepsin
▁Lymph
▁secretagog
▁cytoskeleton
▁acceleration
▁89
▁donors
▁glandular
▁valu
▁48-
▁LFA
lytic
▁polymorph
▁gon
▁lith
▁(50
-36
ylyl
▁coordination
immunoreactive
▁estrous
▁messen
omerular
▁computerized
▁elimin
▁0.22
▁OC
▁radiotherapy
irc
▁secreted
▁Tryp
▁caries
▁leth
▁Kd
▁menstr
cellular
▁bronch
▁2
osaminidase
▁TS
▁19
▁autoradiography
rostaglandin
▁homeostasis
▁AMI
▁proteinuria
▁radioactivity
▁79%
▁hyperplasia
▁nigra
affected
▁vaccination
▁predominance
▁0.01)
▁antioxid
▁substitution
▁metastatic
▁Immuno
2,
▁retina
▁spike
▁.000
▁lipoproteins
▁tetra
blocking
▁25,
▁targeting
▁promoter
▁pressures
trition
▁subjec
▁retinoic
perme
▁qualitative
▁adjus
▁synthesized
▁196
glut
▁bacteri
▁chambers
▁characteris
▁Measurements
▁zinc
▁Alz
▁ulcerative
1)
▁hematopoietic
ichia
▁glioma
▁allele
▁prospective
▁1.5
▁cartilage
omegalovirus
▁hypere
▁cytochrome
▁fragmentation
▁(40
▁89%
▁4
▁Candida
▁phi
▁bacteremia
▁leuc
ophilic
ffin
▁potentiated
glutamate
ejun
ylline
▁apoprotein
▁Differen
esity
trum
imetry
▁ultracentr
okinase
▁leuk
▁hemat
▁triphosphate
▁psor
▁ligands
▁transplanted
▁spi
▁lectin
inemia
fat
▁hemorrhage
▁pathogenesis
▁(35
oglobin
▁correc
sia
▁HPV
▁depressive
▁prel
esthetized
▁LPL
uantitative
prising
▁3.6
▁compositions
ituit
▁aden
tration
▁restric
▁expon
▁hypertension
selective
dial
▁reas
▁resembles
▁erythemat
▁resection
lyce
▁diploid
▁adrenergic
▁abrog
▁ACh
intestinal
essation
▁DEAE
idate
▁exhibited
▁vasoconstric
sion
▁fetus
▁schedules
aturity
▁118
▁cycling
▁BMT
phosphatase
▁(10
asive
▁lys
▁reproduc
ifugation
▁calcitonin
▁ureter
▁crosso
▁follic
phosphatid
▁adenylate
▁aneurys
phrag
▁115
▁endurance
ometh
5'-
4,5)
leu
▁keto
▁LN
▁confir
utions
ipine
▁globulin
adrenergic
▁mutant
▁esters
ifed
(2-
myr
▁compart
▁symptomatic
▁viscosity
▁brom
hexyl
▁microscope
▁myofibr
▁(24
6)
23187
▁iodine
▁Arterial
▁polarity
-4-
gene
▁concom
▁7-
glyc
▁calcification
▁sulfhydryl
irradiated
▁overt
trib
april
HIV
37
▁postpartum
▁ANG
▁noninvasive
▁Exercise
-4)
myc
allium
utaneously
▁carcinoma
▁3.2
▁6.6
▁thir
▁intoxication
▁spermatozo
▁90%
odil
adren
▁ultrac
▁preterm
duce
-[
ulators
▁supernatant
▁polymer
▁mug
▁hypothalamus
▁lavage
▁5.1
▁(100
▁tib
▁muscul
ardia
▁tissues
tus
▁fluc
▁recombinant
▁disruption
▁sequential
▁intrad
regulation
amol
▁HDL
yste
polar
▁pleural
▁dissociated
▁laparo
▁lateral
activation
uppression
▁acuity
▁beats
▁provid
▁hydroly
GlcNAc
▁plots
▁+/-
▁feces
▁tubule
▁hydrop
trate
▁Ia
amycin
untary
▁congenital
agittal
▁resistant
▁RII
▁juven
▁quantit
▁polyacrylamide
omatous
▁measles
▁mutagenesis
▁tetracycline
▁hypothalamic
▁deox
▁toxicity
▁elab
phosph
▁MAP
▁arterioles
▁excised
▁inorganic
▁Repe
oprotein
▁potent
ortic
▁34
alkyl
49
▁progesterone
infected
▁onc
▁investigating
▁schiz
▁splice
▁pneumoniae
▁incub
▁pregnancies
▁evaluating
▁fas
▁embryos
haem
▁complexes
▁yielded
onucle
▁tric
▁1986.
▁biologically
▁elu
▁800
▁adenocarcinomas
▁(43
▁Throm
▁genomic
▁obstetric
▁characterize
▁98
▁inoculation
▁averaged
Trp
▁cytotox
▁mononuclear
▁intrac
asal
▁digoxin
▁HB
▁regenerating
▁nal
▁consecu
▁sequenced
▁collec
enriched
▁adenoma
(+)
phosphorylation
▁glycos
opus
esin
▁10(-8)
odgkin
▁benzodiazepines
atients
lactam
▁inhibits
▁muscular
▁filtration
▁glomerular
▁hemodynamics
tium
▁pH
▁parenchym
▁connec
▁inten
▁pectoris
▁monol
▁ole
tensives
▁pati
galy
▁nodular
▁0.0001).
▁NP
▁fron
▁hemolytic
tality
▁(1988)
▁hyperglycemia
acterial
▁cDNA
▁efflux
ipr
▁reag
▁instrumented
▁bilirubin
growth
▁pyram
opyr
2-
▁postnatal
iably
RIF
▁0.02)
iptine
yrid
▁vasoactive
tering
GABA
▁intraocular
▁somat
▁inability
▁hemorrh
ected
▁phosphatid
▁lobes
nitroso
articular
acute
atoid
hydroxylase
▁apolipoprotein
acid
▁parathyroid
▁quantitated
▁ultras
12-
▁exceeded
▁mAbs
▁lethal
roscop
▁intrathe
▁iod
tation
▁stimulates
mobil
▁implic
▁Chronic
▁posture
▁Significantly
▁depended
oblasts
atology
aturia
▁conformation
▁substanti
mL
adrenaline
tRNA
▁62
▁pall
emias
▁renal
apsulated
CDD
arate
ercul
▁utilization
▁RI
▁ciprofloxacin
▁ileum
▁subpopulations
▁penicillin
▁projec
rophob
oxia
▁mediates
▁formalin
▁ducts
rested
▁Incubation
▁deposits
▁metastases
blocker
ochem
atite
▁-0.
idol
▁TCDD
▁triacylglycerol
▁coincided
ymptom
▁stabilization
stimulated
gnetic
▁ventricul
▁hybridized
▁autoantibodies
▁transplants
▁overe
▁transmembrane
▁weakly
▁immunoglobulin
divided
2),
▁macrophage
▁nucleoside
▁inhibitor
▁unresponsive
▁practic
99
▁chromosomes
▁synapt
▁compli
▁hamsters
lyl
▁58%
▁strom
toxin
▁mesangial
pontaneous
▁80%
▁PLC
▁reactive
▁mucosa
osomes
▁75
▁81%
▁hemodynamic
▁phorbol
▁hyperthyroidism
▁deple
▁(10(
▁phenylephrine
▁aberrations
phs
▁palli
▁arb
▁enlar
20
▁galact
dT
▁Fifteen
-6
osterone
edema
▁procollagen
cemia
responsive
▁repor
ighteen
▁74
regn
▁afferent
lix
▁immunoreactive
▁69
▁semen
keleton
▁fibrils
▁pathways
parathyroid
▁regulates
▁erythropo
▁placenta
▁fluorescent
▁organelles
ostic
▁resin
ATP
▁uro
▁implying
▁proteoglycan
yrox
▁HPLC
BSA
▁radiolabeled
▁spati
▁(27
▁65%
▁recom
▁degradation
tages
▁cleaved
enteric
CoA
lym
performance
▁fertilization
ogenous
▁pulses
▁nitro
▁(1.5
sibly
▁heterozygous
▁50%.
inesterase
▁scientif
▁-2
ields
ecal
▁homogene
▁serotonergic
400
trig
▁gels
▁electromy
▁segreg
▁localization
independent
▁hypocal
▁promoters
▁depleted
▁neuropathy
rosis
▁10(-1
tence
▁denervation
onine
anoid
tingu
▁evaluations
▁antagonists
amino
▁Depart
7.
ontal
otoxicity
▁selective
▁recombination
hemoglobin
▁narrowing
incub
▁104
▁testes
▁cryp
▁27%
truction
icardi
MDA
▁autoanti
pril
▁paren
▁contaminated
▁vivo
▁sympath
44
▁(0.4
iciencies
▁frontal
romic
▁mRNAs
▁depolar
▁7%
▁vasculature
▁mammals
tyl
▁cardiopulmonary
.4
▁predominantly
▁congestive
5.
olated
▁monomer
▁unlabeled
▁78%
▁diffus
rectomy
▁elastic
▁cytoplasm
magglutinin
FSH
▁endoscop
lies
4%)
▁monocytes
▁resembling
▁subtilis
▁incision
▁SDS
▁199
▁chol
▁HS
atous
ylate
▁cephal
atized
immune
ithi
▁52%
dies
▁Experiments
▁predis
▁tumours
eration
▁pI
▁(34
▁CI
azol
arbonate
]-
usp
▁catabolism
mend
▁129
ilic
▁hormonal
▁transgenic
▁stoichi
▁evol
▁11,
-10(
▁gestational
▁diacylglycerol
ignific
▁75%
ulmonary
ivac
▁intraperitoneal
▁reservoir
▁immunoglobulins
▁adequ
▁7)
▁striatum
▁phagocytosis
aminophen
▁polyethylene
▁wavelength
▁1/2
▁phosphorylation
VIP
▁Myocardial
monstr
▁nephrectomy
▁precipitated
▁11
▁Accordingly
subunit
▁desensitization
roso
▁acinar
▁microns
▁perip
▁spind
▁distal
kground
▁55
▁microbial
▁exce
▁dopaminergic
▁-3
▁alkyl
mokers
ainide
etidine
utyr
▁35
▁bioavailability
ximal
▁Hz
oconstric
▁micros
▁hetero
▁variants
▁galactose
4%
▁clotting
▁Experiment
8%
▁NG
▁prostheses
6%)
perature
kilobase
Pa
oderm
▁Sertoli
▁regurgitation
.2
▁[3
▁tryp
▁DF
▁bradycardia
grees
▁2.2
ituitary
▁concanavalin
▁220
▁4.9
▁Meas
accharide
▁exhaus
etitive
phadex
▁13-
▁immunogenic
bilities
▁myrist
▁junctional
▁virulent
▁infusion
▁carbohydrate
rotic
▁allogra
52
▁downstream
soluble
▁spon
▁ectopic
▁NR
▁LM
▁HSP
▁hypertensives
▁76%
▁correlated
▁remission
availability
.8
tribution
▁5.9
▁microorganisms
▁10(6)
substituted
kine
opausal
approximately
▁lar
▁aeruginosa
▁gallbladder
▁4.4
stranded
▁morb
▁prolif
▁Golgi
17
▁superim
otherapeutic
▁radios
▁guan
IAA
▁poorer
▁MH
▁modulation
rague
▁colonies
▁direc
osal
cade
▁migrating
▁adipocytes
▁0.05)
▁Drosophila
operox
▁sodium
prandial
indolol
▁conduction
eptide
▁24
▁58
▁MAb
▁Ultras
▁megakary
otassium
vic
vul
▁EBV
ausea
▁junctions
▁catalase
▁0.6
▁mannitol
▁hyperpolar
▁10.5
isol
▁affinities
▁anticonvulsant
idis
▁midbrain
▁ineffective
muc
▁10-
▁discharges
▁bactere
▁shortening
▁(9
▁topo
▁paralleled
tenolol
▁macromolecules
▁propagation
▁phy
▁4).
▁enrol
imin
▁infancy
hCG
3.
▁corne
/3
▁tes
induc
▁fluorescence
▁subc
oxane
▁heterogeneity
otoxic
▁resto
ositi
▁subclinical
▁contral
▁autoradi
▁mercury
▁Stu
estradiol
tens
▁sial
▁transfusion
▁oxidative
oblast
olestero
▁denaturation
.3
▁intracor
▁0.14
lamp
anuary
otrexate
▁0.25
aund
ipit
▁acco
▁NADPH
▁EB
▁deform
▁baro
▁mitogens
▁allergic
▁100,
▁MRI
spective
▁catalysis
▁thresholds
.3%)
ogens
immun
zation
olab
▁Increasing
▁aggregation
Barr
seud
5,
gia
▁DD
▁somatic
▁PB
▁kerat
gth
rophenyl
▁cerebellar
▁transported
▁parox
▁oste
synthe
▁TPA
-21
▁PV
ogenicity
▁mell
trating
▁inositol
▁spermatozoa
▁leukotri
▁infarct
yrib
▁10(9)
planchnic
alcip
▁edema
▁yeast
▁latency
▁100,000
▁investigators
nary
coun
▁plex
▁pharmac
▁postoperatively
▁20,
▁Biochem
▁hydrochloride
▁dialysis
lycemic
▁attitu
▁regulator
▁electroly
odine
parathyroidism
▁subunits
obarbital
▁colchicine
▁tidal
▁bif
diol
ocomp
▁88%
▁dehydrogenase
▁peroxidase
pyr
▁PCA
7)
▁8,
▁phasic
▁cataract
▁mammary
elan
▁unex
erox
▁hypot
000,
▁exon
▁heterodim
▁PCO
TNF
-80
▁pts
measured
alp
throm
▁invari
pinephrine
▁12-
▁goats
▁libitum
acetate
oic
▁monotherapy
▁hypertonic
zotocin
▁-4
▁microscopic
ophylline
▁lute
▁hydroxy
▁12%
lue
imidine
▁pS
▁standardi
▁0.001
▁oligonucle
effects
(2+
▁adhe
▁persistently
▁0.001).
fused
▁synergistic
▁respondents
▁crest
▁rises
▁[1
▁diarrhea
▁omeprazole
onc
▁76
▁variability
▁72
apamil
▁ara
▁chond
tioned
▁detectable
▁1.9
▁59%
▁underwent
▁61
▁240
etine
34
▁roentgen
Cys
▁immunosorbent
▁enlarged
▁43%
▁brainstem
▁cardiomy
▁(38
▁mathem
32
▁endometrium
tophan
▁ablation
▁antagonist
▁lysosomal
roline
.9%
pressing
▁horiz
cholesterol
▁bypass
hion
▁fluxes
naph
olol
▁hyperthermia
butyl
▁preferen
▁threonine
▁condens
athetic
▁substrates
▁chor
▁aureus
▁stiffness
molec
▁actinomycin
▁1990
2)
idium
▁phosphor
cepti
lysine
▁throm
assi
▁imipramine
▁WHO
▁relaxant
orin
▁intracerebral
▁sarcolem
chemical
▁aeros
▁LAK
pH
electro
ulatory
▁pneumon
▁100%
▁Subsequently
73
idespread
fibr
▁COOH
▁endothelial
thmic
thms
▁ket
▁(46
▁cleavage
redoxin
Ala
▁adequately
▁norepinephrine
ilical
▁intermediates
▁glycoprotein
▁cardi
phila
ostr
▁NAD
▁recruited
-1,
▁cation
squ
▁1.6
virus
▁Tc
estions
isomer
▁modifying
▁dox
otri
tro
▁dissection
▁muta
▁tumour
gesterone
▁Previous
7),
ortal
▁neutrophil
▁adipose
itonin
ediatric
▁truncated
2;
▁BK
▁immunity
▁torsion
▁350
phosphon
▁melanoma
gus
bility
▁epithelium
▁gonadotroph
▁Increases
▁Stimulation
gangl
▁bronchial
▁10(-10)
22
▁enalapril
oposide
▁intolerance
▁specimen
cortisone
▁apnea
▁indications
▁focal
▁Diagn
▁asthma
▁44
▁lymphocytes
▁Schwann
iatric
prisingly
▁77
omial
/100
▁effusion
▁[(
▁PBMC
▁axonal
▁([
onit
▁ANP
2%)
▁hepatocytes
rophy
▁PDGF
▁pancreatic
▁presumed
▁HLA
▁xyl
▁infiltration
0%)
0.5
▁mandibular
▁captopril
osidase
promazine
▁incontin
tradiol
iciently
▁libr
▁(17
arbox
▁endocytosis
▁phenyl
▁residues
▁treadmill
sies
▁38%
-3.
▁sinusoidal
▁2.9
125
▁bombesin
48
▁ligand
kinin
▁hydrocortisone
▁inhibitors
▁Experim
ecan
▁toxins
▁concep
utable
aric
▁92%
▁vigorous
▁definite
2+,
▁dialys
▁interstitial
omere
▁streptokinase
▁functionally
▁aneurysms
▁inadequate
0%).
dia
▁spectrophot
▁reliability
ypro
▁adhesion
▁encephalopathy
▁TG
sulf
ylase
▁MF
▁metabolic
▁veins
ocortical
roscopic
phor
▁rearrangement
▁deposition
▁CRH
▁cerebellum
▁conjugate
▁bronchi
▁debr
▁cutaneous
▁ethanol
mol
▁DNAs
risk
▁Combined
▁additive
ovulatory
▁blots
▁subtype
95
▁formulation
▁enamel
▁anticonvul
▁citrate
▁osm
▁aspiration
▁facilitated
▁progestin
ocular
ithin
▁hypoxic
odiaz
▁(12
moid
▁streptoc
roprusside
▁25%
adjusted
▁68%
ocytoma
▁histamine
▁luminal
▁63
ocellular
▁poisoning
▁ascorb
▁HbA
▁mucosal
uginosa
▁amplitudes
vated
▁BP
▁0.03
depleted
▁epidemiological
titute
▁caffeine
▁intracellularly
▁defective
▁ranged
ilized
▁0.3
▁erythrocyte
.3%
▁formaldehyde
▁VE
▁pretreated
erent
▁bilayers
▁respiratory
▁obstruction
▁allo
▁thoracic
▁olfactory
▁coated
▁mumol
▁encodes
▁tetanus
▁MAO
▁metabolism
sibility
▁2),
▁nucleic
▁wors
58
teryl
▁myocardi
▁cyst
▁anastomosis
ucose
▁solubilized
▁constituted
valence
▁gastric
▁neutrophils
▁transporter
▁lysates
encephalon
▁ELISA
ordin
▁infil
rangement
Glu
▁slopes
▁interacting
ylic
tosis
▁responders
▁(0.
butamol
5-
▁Patients
▁ank
▁supine
▁commerc
▁IDDM
▁99%
adrenal
▁validated
tia
▁irregular
▁thrombin
nucle
▁38
▁chemotaxis
sAg
0.1
▁electrically
ivariate
▁nephropathy
▁induction
▁manipulation
▁RV
tetradecanoyl
▁degeneration
ranged
▁uv
▁(2)
ysm
ergen
▁epithelial
▁isoflurane
8;
▁hered
▁oxide
▁subunit
yroid
crib
▁extensor
▁statis
turnal
yrene
▁65
▁bronchoalveolar
plate
-6-
till
▁histologic
▁sensory
affinity
▁clearance
▁excision
▁98%
turally
▁proce
▁tubules
,000
▁virions
illin
▁cardiomyopathy
oreactive
▁TM
▁allografts
▁gynec
▁Disease
▁optic
lipid
▁endothelium
▁smears
▁estrogen
-5-
▁novo
▁exerted
▁vicin
chrom
farction
tility
osclerosis
▁TGF
▁preoperatively
tilb
▁pools
-50
3,
orsal
▁serotypes
Gal
▁endocardi
▁haloperidol
directed
▁lymphoblastic
lamydia
▁cyan
invasive
▁competi
iline
▁hematocrit
▁53
▁endoscopy
▁stenoses
erance
▁predictors
ophag
▁fluorescein
▁gases
▁NGF
▁sulphate
▁diazepam
▁dilution
▁PW
pregnant
▁increas
▁interrup
-23
▁borderline
▁preoperative
titu
▁PGI
▁establ
▁attributable
▁inver
▁extrac
▁10(
▁blocker
6,
okinetic
▁280
▁heteroz
▁LTD
opi
▁endometrial
▁converting
▁anhydr
▁lapa
▁bactericidal
▁struc
onset
-100
▁noc
ociation
▁peroxis
▁Tran
mTc
▁acoustic
keto
ellar
▁caudal
mitter
receptor
▁tetan
▁umbilical
▁32%
85
▁MN
▁soluble
▁spectro
assays
aggreg
120
▁DMP
▁jejunum
▁amo
▁1987,
▁paralysis
▁Myc
bac
▁venom
ropriately
▁(300
▁97%
▁intron
eded
▁insensitive
trial
prin
▁integrin
gative
▁MCF
▁promo
▁intravascular
▁hemo
▁occupational
▁termed
▁kidney
ADP
▁hypothal
▁28%
▁0.5,
▁efficac
▁enhancing
▁transaminase
16
▁irrespective
8.
▁Acute
▁circumst
osarcoma
▁Purkinje
:1
rogenase
▁glycoproteins
▁160
▁purine
▁isomers
▁Prel
associated
▁ECG
PAF
▁44%
▁triti
▁Sixty
▁6-
▁atropine
▁bromide
▁29
▁ect
-2
opr
▁kidneys
▁5,
▁(32
▁trac
uanti
▁(60
▁pancreas
▁Cs
▁cereb
▁CTL
▁digested
▁(30
▁GnRH
▁TB
olipoprotein
▁precursors
▁perox
▁1
oresis
linking
▁14,
▁Ig
▁dyst
tric
▁immunoblotting
▁rabbits
▁theta
▁deficit
▁Bone
OA
anserin
glutin
brom
▁strepto
▁lymphoma
▁sediment
otypes
▁electrodes
▁originating
▁tablets
quinone
thromb
▁catab
opulmonary
▁uncommon
▁lutein
eptic
▁abolished
viral
▁Measure
▁epilepsy
dehyde
/4
▁ventilatory
▁Positive
▁terat
▁monophosphate
▁ure
aryl
otides
▁transfusions
▁heterogene
▁108
tissue
▁fati
▁(198
HIAA
tamine
▁dilatation
iazide
thyl
▁hydrophobic
fected
motic
Sepharose
lux
▁placental
▁nutritional
etition
▁cistern
▁vasodilation
▁perfusate
▁vascular
▁vincristine
96
▁Twelve
▁Staphylococcus
▁aldosterone
odal
▁testicular
yrosine
▁1.7
▁regar
▁bronchitis
▁unrelated
▁contracep
▁immunofluores
ropine
▁myc
▁inducing
▁cis
ffec
teral
▁irradiated
rospinal
▁anis
▁immunological
▁modalities
bumin
▁experimentally
-1.1
resist
▁neoplastic
admill
ycline
▁conditioned
ighted
kets
50,
▁lamin
▁syngeneic
▁standardized
▁minus
plastic
▁erythematosus
mitters
▁7,
ximum
▁negligible
ronch
▁simplex
akary
▁1981
.0%
▁Respon
▁0.0
▁gonad
▁adhesive
▁neuroendocrine
▁kilobases
▁alternating
▁grading
▁pyrimidine
▁cerebro
▁9.5
▁virul
▁extensively
▁genic
▁Chan
▁exaggerated
▁virulence
echn
▁minimally
▁mutated
▁MLC
atible
▁possesses
junctional
▁LT
▁mesen
▁mutagen
▁prospectively
planted
polyacrylamide
▁hydroxyl
▁mimicked
▁pigs
▁7.2
inyl
olone
tening
▁modality
▁hypertrophy
▁degenerative
▁fibros
gestin
▁uterus
▁differe
loon
gated
▁arterial
geneic
▁isolate
▁40.
▁21,
▁pituitary
▁reductase
▁fatigue
▁Nineteen
occus
▁inflammatory
▁tendon
▁Arter
pinal
▁eluc
▁ery
IgA
▁cultured
▁progression
▁canine
▁cholec
▁antagonism
illar
epines
74
▁RIA
▁discus
▁13
urys
aryngeal
reast
ocul
8+
59
ocrit
ologous
▁prednis
uterine
▁nucleotide
ulla
ritic
▁100-
▁seminal
▁deficient
-8
▁developmental
accharides
▁inward
▁ovaries
▁immunization
tional
otin
iotensin
idym
▁(+/-
▁chickens
▁elevated
▁ventil
▁inducible
▁neuromuscular
nine
▁PF
▁serologic
veness
▁tibial
▁venous
▁ionophore
▁extrav
▁descrip
atectomy
▁PMN
Lys
athy
translated
tryp
idated
silon
▁HMG
loxacin
▁adolescents
▁7.4
▁identif
▁30.
▁dodecyl
dependently
leb
rozen
▁adenomas
▁ips
▁(4-
rocyte
essive
▁contraceptive
▁degrad
▁calves
▁permits
▁morphological
erative
turition
▁inactiv
andida
▁erythrocy
ophy
▁hepatic
▁arrhythmia
▁eosin
▁vacu
▁aggres
▁angiographic
tituted
tis
-0.
▁tamoxifen
ffinity
▁compounds
▁lambs
▁preferential
ygous
▁0.9%
▁blunted
▁glutamic
▁macrophages
▁macropha
▁helical
▁adaptive
▁erythropoietin
▁submaximal
▁69%
▁2.5-
▁influenza
▁epididym
▁dosage
▁54
▁atrial
(1,
▁spleen
600
ocardi
▁diabetics
24
vive
▁53%
gely
▁antiser
▁(25
lastic
▁infusions
▁canc
aldehyde
▁pars
▁complications
▁elucidated
tially
▁febrile
benz
-27
▁(28
▁(5
▁epiderm
▁RA
▁immunos
renol
▁quantitatively
incubated
estis
68
▁subpopulation
▁anatomical
▁duodenum
retic
▁undergoes
▁amide
▁resected
/2
+]
▁behavioural
▁esophagus
▁aortic
▁12,
▁activates
ffe
▁receptors
azole
-3,
▁vertebrate
92
▁substances
▁Injection
sensitivity
4)
▁preexisting
▁promin
din
▁thalamus
▁0.05).
▁rostr
▁aromatic
Ds
▁upstream
▁fmol
▁aor
tiz
KD
-1).
▁ascribed
▁lymphoid
▁thereafter
dL
trical
oxifen
saccharide
▁cyt
letion
▁oestrogen
BV
ymme
▁(4)
▁ech
▁overex
phylaxis
▁harb
renal
▁salivary
▁questionnaires
flurane
rates
▁symptom
rele
otting
▁tau
▁seizures
▁enzymatically
▁naloxone
▁lymphatic
▁IgG
▁histological
▁develops
▁arterio
▁lactate
sible
▁1988
rine
▁progressed
hospital
▁10(-6)
▁monomeric
▁contrac
plementation
▁paralle
▁anion
▁EDTA
▁immunoblot
▁subcellular
▁(33
uclear
▁lymphocyte
▁ovid
▁assemb
atif
▁kDa
molecular
▁lam
bisphosphate
▁myeloma
▁fixation
▁immunoprecipit
-1),
tussis
▁sorb
▁coronary
edded
bly
▁IFN
vaccin
▁synaptosomes
▁inhibited
lational
oactive
6).
▁tertiary
▁kappa
odg
▁retrograde
▁opiate
▁adren
transferase
▁sexually
ocamp
-1.0
▁enl
▁dehyd
tructed
▁etiology
▁cys
▁Hyper
▁lenses
▁IIb
7,
▁phospholipid
▁pene
▁ligament
▁45%
▁estrogens
loro
▁mediator
▁lymphocytic
cholate
▁bursts
omethyl
▁chymotrypsin
.5%
enic
▁probes
▁rectal
etan
▁microtubules
ypical
dimethyl
▁eminence
tur
▁chlorpromazine
▁glands
▁femoral
gm
rae
▁reflexes
urones
plemented
▁benzo
▁exert
▁VLDL
▁predictive
▁flanking
▁72%
titude
tition
▁adsorbed
▁cytokines
▁unusually
▁Meth
▁antagon
▁plexus
▁197
▁neuropeptide
▁capsaicin
yrate
piper
▁10(7)
▁weighed
tries
▁95%
90)
▁cil
▁epidermis
▁Functional
lofen
▁resorption
▁neurotrans
FU
▁evidenced
atase
trover
cephal
urther
▁uninfected
tetra
ynaptic
▁asthmatic
▁attenuated
▁alteration
▁melan
▁astro
▁remod
sorbed
phosphate
▁myocardial
▁succin
▁infertility
Hg
vix
pli
▁vesic
▁favorable
osition
▁hepatoma
andros
opathic
▁differentially
▁Increased
pran
▁.05).
▁anatomic
▁DH
▁pulsed
5,000
▁adrenoceptor
9%)
▁ions
ischem
phorbol
▁atherosclerotic
▁abdominal
yclo
▁neurogenic
▁posttrans
labelled
▁anticoagulant
▁alterations
loid
charomyces
tyrosine
plants
▁phyl
▁deterioration
▁GVHD
ophys
▁anat
▁immunoprec
orporeal
scherichia
▁competent
ubs
▁arth
0%
hydropyridine
▁striatal
▁stimulation
▁glucocortic
serine
▁5.4
▁Cells
ochle
▁rota
▁mesenteric
▁cavity
▁1.
▁seroton
▁aryl
▁weaker
▁respiration
▁chloroquine
▁10
ordance
ffinities
▁ambulatory
ellular
▁fluo
▁infar
▁gentamicin
▁laboratories
▁bundles
▁pineal
▁CoA
▁11-
+)-
▁flas
ipitation
▁spleens
▁splicing
agas
occal
▁bovine
▁progen
▁hypog
▁subgroups
restric
uodenal
▁2%
▁sensitization
uccin
omeric
100
▁gonadotropin
tures
▁allergen
▁remn
phosphates
facial
▁hydroxylase
▁dors
▁Effects
dotoxin
▁stabilized
antibody
▁Caucas
idase
titial
▁roset
▁pharmacological
sied
▁chimeric
dle
oblas
▁sedation
▁Natl
feron
▁reconstitution
▁Bmax
acrine
tocin
▁axons
otide
▁195
55
▁RS
irectional
▁surveyed
▁phospholipids
▁forearm
▁hyperther
▁differenti
▁emptying
▁carbox
▁leukocyte
▁trich
▁epitopes
ongest
ucleotide
▁diameters
phyl
▁Pt
vascular
3)
oxygen
vation
▁disper
▁smokers
-3
▁neurological
▁genomes
ctomy
ellum
bodies
▁Possible
osyl
▁stimulatory
▁25-
▁resonance
electric
▁arachid
rolateral
lac
▁papill
iteal
▁swit
▁aeti
razosin
▁3'-
tracted
▁Holter
▁submuc
▁24-
utyryl
▁periv
▁Phosph
▁constituents
▁erythrocytes
▁sca
ughter
▁0.04
▁sci
osides
ondr
▁secretions
▁inhibit
▁excitatory
▁organs
psych
omethacin
▁transforming
▁SCC
amicin
▁130
-7
.0
▁abundant
▁osmolality
▁IB
▁pulp
▁GLUT
▁typh
-6,
▁regeneration
▁ppm
▁responsiveness
▁catalyzes
xate
▁cysts
▁catheters
▁EGTA
▁disrupted
▁dele
▁angi
▁pyrid
▁dioxide
▁enhancer
▁acr
insensitive
▁parasite
odic
▁reperto
▁vesti
▁hyperthyroid
ubation
▁regulated
omical
▁alcoh
▁2-3
▁referral
▁owing
9,
▁angiography
oprol
▁creatine
▁elic
▁articular
▁12.5
▁apex
conjug
▁cathe
▁CSF
▁EcoRI
▁3,
35
▁techniqu
▁14-
otone
▁femur
▁interleukin
▁REM
▁0.001),
omotor
ometrically
ietin
▁myelinated
tinguish
▁nec
▁3',
▁rehabil
▁questionnaire
average
▁immunostaining
▁cumulative
▁1.5%
▁HRP
▁fibers
0.7
fusion
▁schizophren
▁dopamine
ivation
▁intracellular
▁centrally
▁dextro
neu
▁neurite
▁isolates
▁3.3
▁Taken
obacterium
▁caudate
▁59
▁peptide
▁preservation
overed
fib
phosphor
▁echocardi
▁Haemophilus
▁cervical
▁musc
▁absorp
▁lineage
MN
oprote
▁7.0
▁(3)
▁pore
▁0.01,
ammonium
▁elastase
ammon
▁atrium
isopropyl
1%)
46
▁fused
cristine
▁Significant
▁terminals
dividual
lasting
▁adenocarcinoma
▁offspring
91
ranial
▁(50%)
mega
▁amine
arginine
▁iso
▁reinfor
reness
▁hypothyroidism
▁histone
▁parotid
uvant
51
TSH
omies
▁lupus
▁validity
▁anionic
▁unfol
ameth
▁extracellular
▁indirectly
▁ori
▁7.1
▁autoimmune
▁inflammation
▁implantation
▁94%
▁cohort
▁caloric
▁supplements
▁resusc
▁inspiratory
▁thal
▁proteolysis
ydig
0)
aemic
▁parie
sulfate
▁60%
ration
olysis
▁Subjec
▁cyto
▁thymocytes
▁nonf
RNA
▁3.8
▁preven
▁leukemic
▁mycobacter
▁spindle
lier
osus
avage
▁inoculated
▁2.6
▁regulating
▁abdomen
▁phospholip
ronectin
▁cirrhotic
▁9%
▁termination
▁myelin
80
▁cholecystokinin
▁monomers
tively
▁dysp
▁0.0001)
▁diabe
▁insignificant
▁8.6
▁convul
▁exten
▁lobe
▁malignancy
▁smo
▁intestinal
▁17,
▁kary
▁0.1,
ilateral
▁cros
▁nutrients
timulation
ureth
▁dismutase
▁tracts
▁persistence
▁gluc
▁Cys
▁mice
▁pK
▁arous
▁broth
▁inhalation
▁unstimulated
▁ureth
▁1989,
filaments
rosophila
▁capsule
iotic
eal
obl
▁percentile
▁asymmetric
▁monitored
▁pHi
▁Glu
rocytes
▁10(-4)
ymethyl
▁DP
astric
tiveness
▁LDL
▁serum
▁tox
▁COS
▁(8
▁immature
▁readings
ochrom
vac
▁bp
▁cigaret
▁CEA
▁arousal
▁coag
▁tubercul
▁mmHg
Hu
olec
oscopic
▁subcl
▁amplified
atchard
▁AChE
▁satur
▁hypotension
▁glutaraldehyde
▁indi
▁differen
▁reagent
40
alanine
▁embryo
hyde
ulph
▁CMV
▁reversed
▁parenteral
▁62%
odon
▁pneum
aspartate
69
▁ultrastruc
▁dehydration
▁Surgical
▁hyperg
▁euk
ayers
aortic
▁inhibition
bular
opeptidase
▁mesang
tempor
▁ATP
▁catecholamines
▁adherence
▁Compared
▁benz
EG
▁puncture
▁sacrificed
▁(23
establ
▁grouped
▁digesti
▁cyclic
▁aerosol
otid
▁Proc
helical
▁CAT
▁Lung
▁sulfate
▁PRL
▁unidentified
▁protec
▁unstable
▁alk
▁excreted
uting
▁athe
▁ow
▁titres
▁usefulness
10.
expressed
▁LHRH
assium
obacter
▁brady
▁arteries
▁natri
▁osteoporosis
▁spectrometry
▁neuros
bladder
oxazole
▁molec
▁kb
inescence
epithelial
▁neutralizing
▁acetate
▁decarboxylase
trated
▁noradrenaline
teroidal
▁undergone
7%
▁94
▁antiserum
30
opres
teine
▁athle
▁thromboxane
1/2
ozo
lives
▁herpes
▁unaffected
aternal
-20
▁10(-3)
▁Intravenous
rostagland
▁stromal
▁covalently
▁corresponded
opropyl
▁0.4
▁insoluble
▁diffuse
tural
▁nephron
▁auditory
▁dermal
▁dimer
formations
86
exposed
▁sampled
4+
▁ICU
▁primate
adecanoyl
▁adul
▁corneal
▁equimolar
-1-
ectomized
relations
▁rotavirus
0%.
▁6)
▁polyaden
▁therapeu
▁astrocy
tious
ervo
PSP
▁demonstrating
ithm
anding
PV
▁labelling
▁Sephadex
▁electrolytes
corrected
▁cirrhosis
▁Perc
supplemented
rofen
▁110
patients
▁progres
-13
▁39
)2
▁postural
ompan
▁evoked
Thr
▁uniformly
▁6,
▁Epid
88
▁potentiation
▁-6
ocompatibility
enia
42
▁alveolar
▁isoforms
▁hyperch
▁suppressor
▁amyl
▁700
keratin
▁preincubation
▁ane
▁66
▁(47
▁BALB
DNA
▁exhibiting
asone
ogeneic
traumatic
▁cellulose
▁peri
elves
▁translational
▁emin
▁laminae
▁motif
▁elevations
▁complementation
▁histidine
rostenedione
pont
▁qualitatively
▁shif
▁retrospective
▁TP
▁susceptible
▁peripheral
▁Peripheral
ialysis
▁electrocardi
idne
▁heterologous
ginine
▁parenchymal
▁micrograms
▁guinea
acetic
ponin
▁12
▁angioplasty
▁grafts
yron
▁plaques
▁splenic
aminob
▁illnesses
▁platelet
▁nitrate
▁practitioners
▁EIA
▁ratios
▁embolism
▁36%
▁99
▁18,
▁granules
▁Mg
▁visualization
+)
reflex
▁5.6
▁schem
▁Inhibition
▁steers
▁(10.
eptides
▁obser
▁hypox
▁molecules
▁0.02
mediated
▁elution
▁23%
▁LR
▁digestive
▁sampl
onstric
rosal
▁15
▁parietal
▁56
-13-
▁0.05,
▁membran
physiological
▁Plate
▁elas
centr
▁intra
2+
▁granulocytes
▁coordin
▁bolus
LV
myrist
grams
▁uptake
▁isozymes
▁MCA
▁0.
▁densities
▁terminus
oproteins
▁hypoxia
▁polymorphism
▁innervated
alate
▁SEM
▁attained
ionyl
monella
flamm
istar
▁splanchnic
▁microvascular
▁postmenopausal
▁rhe
▁perme
▁infrequ
/8
▁compensatory
▁SG
iliated
▁demonstrable
acin
rinary
▁recurrence
▁antis
▁nitroglycerin
▁hydroph
tolerance
▁vesicular
orubicin
▁glycine
ffeine
▁frog
▁Acad
▁sedimentation
▁spor
▁triglycerides
▁cyclase
▁nondiabetic
ogenetic
▁endocarditis
▁schizophrenia
▁silic
▁intercellular
▁thems
▁contrib
▁cortex
▁initiate
▁gestation
▁AVP
osylated
▁omega
▁pancreatitis
ivered
▁10(-5)
▁16,
▁arteriovenous
▁congen
testinal
timal
tice
▁antide
iodothyronine
▁adenine
▁nm
▁folate
meas
▁lacked
-125
-2)
▁estrus
▁lesions
▁ubiqu
▁granulocyte
▁hypo
▁0.005).
▁AK
entral
▁asymme
iloride
▁10,000
oplasm
▁SMC
▁deletions
ygen
78
▁IA
▁decreasing
ophageal
▁PAF
▁[125
▁Experimental
MSH
▁CNS
▁heterogeneous
▁reper
▁dye
▁chemically
entified
▁internalized
▁mL
▁apomorphine
▁reflec
▁109
▁8.3
▁metabol
▁haemat
▁electroph
phage
▁ionic
▁polypeptides
▁circulating
▁semin
▁6.
▁accounted
▁transpor
▁polypeptide
▁Nine
▁benzodiaz
psin
▁inducer
/-
▁quanti
▁deduced
▁hemisphere
▁cortisol
uracil
▁pathologic
▁(11
taz
▁201
/7
▁instrum
▁diffic
▁glut
▁(45
▁autopsy
▁ultrasonography
ohyd
▁cardiople
▁198
0.0
▁prescribed
▁weighing
▁stimuli
▁subarachnoid
▁Kinetic
▁theore
▁ascites
▁biop
▁dispersed
▁fimbr
▁maximally
▁polymerization
uresis
71
▁translocation
▁heme
tensity
▁cla
▁fertil
▁pathophysiology
oxide
▁123
ilin
▁0.9
glucosamine
takes
▁quies
tisol
▁hyperins
▁5.8
▁influenzae
▁TA
▁Abnormal
▁140
▁carnitine
respective
▁possi
athe
▁cholinergic
▁cirrh
▁olig
isite
▁oocytes
▁amiloride
-3-
▁Urinary
plas
oside
▁forsk
rene
carb
43
▁accumulate
▁stren
▁albumin
▁180
ovirus
rosine
▁porcine
▁empir
▁schist
▁deficiency
reas
▁disrup
▁reabsorption
▁stimulated
▁propor
oceptor
▁CG
▁xen
▁Elec
▁yr
▁2.8
carboxy
▁psychosocial
▁rheum
▁pressor
▁discharged
-15
romed
▁10(-7)
incubation
metabol
-17
▁113
atories
▁salic
tetr
tococcus
▁induces
ubiqu
▁PCP
olecular
▁hyperp
▁monke
▁apo
▁ethyl
▁sensi
28
▁immunocomp
▁thiol
PSPs
▁83
▁dexamethasone
viron
LPS
▁gyrus
▁receptive
/1
▁diminished
▁isoenzyme
▁permeability
ealand
plasia
yro
▁cuff
▁HeLa
▁Various
pation
▁potassium
generation
▁cytotoxic
▁markedly
-3)
oxyl
▁0.20
apatite
▁pacemaker
▁saturation
▁ingested
▁replic
phic
▁opioids
▁dilated
▁contralateral
▁incomp
▁hypotheses
.5%)
razole
▁rhin
▁frac
▁fluoride
adex
▁extras
▁adminis
▁evolutionary
▁conjugated
▁(18
imetric
2+]
thyroid
roximately
▁acids
▁antagonized
exchange
▁blockers
kelet
1.
▁resec
▁eluted
▁haemoglobin
▁1989
▁reliably
▁gelatin
▁prothrombin
▁enhances
▁contractile
▁2-
▁FN
odds
▁homologous
-90
▁HF
▁prosthetic
siological
embr
▁percutaneous
▁potency
▁TT
regulated
oxan
▁10(-9)
traum
31
atosis
▁prol
▁larvae
▁Differences
▁oestradiol
▁nonlinear
amuscular
▁cAMP
▁(200
▁calibr
fts
▁Removal
inephrine
▁HCO
tial
▁toge
▁acetic
▁inhaled
-12
▁metast
▁depr
▁6.5
adiol
tryptamine
▁ODC
▁LV
oreceptor
tiazem
▁exclusion
rowth
▁ACTH
▁nocturnal
▁correlates
▁34%
astolic
transformed
iferative
dition
estion
▁unexplained
-19
▁improves
▁leakage
▁apparatus
globulin
▁ars
▁Sixteen
epi
ografts
▁immunode
▁analyses
▁testis
▁seronegative
▁assessed
▁(197
obenz
ympathetic
▁globin
ystokinin
▁palmit
tensive
urnal
triglycerid
oate
▁1970
▁polyp
xia
hypertensive
70
cys
▁evid
▁serotonin
ifferen
▁heparan
▁contracted
▁confirms
▁enal
▁audi
▁fetuses
▁cGMP
DG
▁jejunal
arterial
▁mA
▁differentiate
terone
▁inhibitory
▁DHT
▁glauc
▁LTC
▁folding
pain
fluo
helial
Bs
▁hipp
leucine
▁tumor
▁coli
▁subsets
cribed
utyric
sive
▁gradual
▁vasodilator
▁subdi
▁4.2
▁lysis
uron
▁interc
▁septum
▁adrenaline
▁depolarizing
sial
tron
glucuron
▁microvilli
▁antiarrhythmic
▁constitutively
▁gastritis
yroxine
PRL
▁summ
▁thyrotropin
▁antimic
▁mediast
▁calcium
▁eccentric
IGF
hydroxy
▁27
ynthe
feren
▁differentiated
9;
▁contraction
sulph
▁19%
▁arteri
▁recr
tiv
▁ischemia
▁tumors
▁difficul
▁blasts
itoneal
totic
▁PDE
▁glomer
yses
▁cortic
hep
▁chronically
▁hydrogen
▁neutrop
▁hepar
▁proteinase
ximide
▁haplotype
▁17%
▁Vmax
opolysaccharide
▁dipyridamole
▁dihydro
trol
inducing
▁devi
▁tricuspid
▁paral
▁tec
▁73
ethanol
▁maxillary
▁marginally
▁interfer
▁chromatographic
▁(48
▁dias
▁neurones
▁cyclosporine
▁conformational
ylcholinesterase
▁germinal
▁Electro
derived
▁sorbitol
oxif
▁septic
▁accep
acental
▁PGF
▁Antibodies
filtration
▁31
▁unclear
▁transcrip
▁HI
▁blas
▁coh
ipro
▁71
butyrate
osomal
entgen
orption
▁nonpregnant
individual
▁chamb
encephalic
▁discon
riched
▁mediators
sero
Fc
▁ferric
▁NSAID
isomerase
oflurane
▁Cardiac
▁remo
phrine
secre
▁radionucl
▁reflecting
▁corticos
▁14
3;
▁substantially
▁lysosomes
▁hypothesized
▁extre
▁(1.4
▁(0.1
▁cytokeratin
▁ornithine
▁thrombolytic
▁exocrine
▁dermatitis
osocial
▁transloc
▁0.24
▁124
▁arachidonic
▁divalent
45
▁cathepsin
▁alloster
ocyt
-24
▁phosphodies
Tc
▁urokinase
aicin
▁peric
▁1988,
▁adjustment
▁EMG
▁chlor
▁dysplasia
▁priming
romyces
▁agon
000
▁FEV
▁haem
romedial
▁ADH
▁replication
▁(5-
▁sepsis
▁quantitative
▁9.0
odium
farin
▁phosphatidyl
▁TATA
▁histopath
▁hypothyroid
▁suspensions
FGF
▁recruitment
67
▁hemoglobin
▁thromb
▁peroxide
▁stroma
▁murine
ETE
▁paraffin
▁trypsin
treated
▁nausea
▁oxidized
phosphamide
▁24%
▁Examination
▁nucleotides
▁albicans
osom
▁trabec
erule
▁cellular
helin
▁axon
thanol
orh
▁medullary
▁IgM
▁redox
▁heparin
oreceptors
▁nucleus
topril
▁lipids
▁staining
▁indicators
▁precipit
▁reduc
▁newborn
▁crude
▁cholera
▁circadian
▁zymosan
▁radiol
oxone
ogl
▁thym
otypic
-70
▁(7
▁hospitalization
▁urea
▁donor
yronine
▁bir
▁immunologically
▁fung
90
▁conjunction
1,
▁microsomal
▁1980
▁conjug
▁pM
▁gonadotrophin
▁dibutyryl
▁fistula
▁10,
▁pancre
▁midline
lude
▁interneurons
▁radicals
methionine
▁vein
▁airways
▁PSA
▁decreases
▁regen
idine
▁adenocarcin
▁Radi
tual
▁20%
▁arrhy
▁combin
▁elimination
ographs
▁particulate
filament
▁originate
treatment
▁supernatants
▁CsA
▁ferritin
▁Intr
injected
glycerin
CAT
▁126
▁endotoxin
▁inters
▁aorta
▁(5)
▁500
▁faecal
▁transpos
▁myof
▁junction
▁iliac
▁cruc
▁Fc
iosis
▁chicks
astom
▁synthase
acchar
▁parasites
▁18%
irradi
tin
▁parenchyma
▁detergent
▁0.75
comitant
ropriate
ditions
sizing
▁ammonium
▁Thirty
▁ribosomal
