▁ischemia
▁dendrites
17
phrine
▁perox
25
esti
RNA
olytic
▁cholinergic
▁41
▁electr
ancement
oagulation
otoxic
▁phag
▁Biochemical
uccessful
▁exo
▁cartilage
cis
▁overweight
▁phage
vian
.7
▁inhibited
▁immobil
▁mediates
▁gels
▁epiderm
▁(3
▁gonad
▁simultaneous
▁microc
▁forskolin
▁pyruvate
▁aspiration
9,
▁luminal
▁12,
▁prognostic
▁discrimin
gression
trition
▁5)
▁WHO
▁pulmonary
▁2.3
otrop
▁abolished
▁resear
▁bronchoscopy
unced
▁naltrexone
▁arrhy
▁consequently
▁TCR
▁severity
▁differentiated
▁fibrillation
▁eliciting
▁unaffected
▁6
▁54
▁disper
rehen
ilep
▁phosph
▁triglyceride
▁dye
phal
adian
tradiol
▁directional
▁3.2
▁catheter
▁assis
uin
▁impaired
▁specimens
▁4%
lym
trated
ophy
▁LT
ivered
othel
▁MH
▁bronchi
▁exclusion
▁Forty
▁1.8
heres
grees
▁thrombin
uvant
▁confir
vul
▁prednisone
▁transcription
▁cholest
▁thromboemb
▁electrocardi
▁perme
▁errone
▁myocardi
▁oligo
▁displacement
▁IgG
▁elimination
▁proteolytic
▁adolescence
▁correlated
fos
▁TK
▁relap
nine
ods
▁ventricle
mitter
atial
▁characteris
▁Histologic
Ba
Ts
ths
▁neonatal
▁placebo
rotid
olenic
125
▁junction
tabl
otox
gans
comitant
▁ech
▁molecule
▁afferent
1-2
ostatin
▁canine
▁depr
▁FV
ctive
▁Experim
▁hypog
obarbital
erals
▁astrocy
minis
▁conduction
anish
▁68
iol
▁arteri
Ly
▁activator
pyr
▁CMV
▁Kd
▁atrophy
▁oxidase
▁modulates
hap
estig
▁metabolism
▁shor
illation
▁analogues
LU
estive
▁tes
opathy
▁homogeneity
▁assay
osidase
▁heparin
▁bypass
▁mRNAs
▁sham
▁arginine
▁SEM
▁filtration
cyt
eclampsia
▁ceased
▁attemp
ecyl
jec
rhy
▁melanomas
derly
▁strand
ineal
▁CAM
▁atten
97
▁investigations
▁cG
5),
trip
▁clus
-2-
▁brom
-450
oxide
ensities
ceptive
▁intestine
65
▁transient
iatum
▁Estrogen
▁oro
▁ADH
▁adenylate
▁Acute
▁subjected
▁uncomplicated
pH
tation
▁microscop
▁clinically
ministration
▁newborns
treated
▁PGE
▁nutritional
▁Atropine
▁irradi
ogenicity
▁overdose
▁isolates
▁46
formin
▁uremia
▁oxidized
▁recons
▁sclerosis
▁metastatic
▁progn
▁10(-6)
▁memb
▁carcin
▁sucrose
▁pneum
▁kinase
▁anastom
▁80
▁cla
▁adhesions
▁rhy
thase
▁75%
-1)
▁metoclopramide
▁evaluating
▁plasm
▁cyclo
▁prostate
▁cortex
▁prospectively
▁Engl
▁apex
▁radiographic
▁150
▁RBC
▁transmembrane
▁initiation
abies
▁implantable
▁Comparison
RH
▁prescrib
crip
▁valu
▁irrever
▁catheters
▁kappa
▁allevi
tam
▁cardiac
.1
▁fluor
athe
▁synovial
▁appreciably
stimulated
deoxy
▁EMS
▁localization
8%)
▁assays
atment
3%
▁reliably
ophylline
illic
urther
▁reflecting
functional
▁predictive
▁indetermin
▁supernat
tomy
▁cardiomyopathy
▁radiography
5).
▁PB
infected
▁transi
▁degeneration
▁oligonucle
▁polyp
achol
▁targe
▁fibronectin
sorb
▁hydrox
-13
ithelial
rological
▁dosage
spective
lasses
iferation
▁hydroxylase
trib
29
▁epitopes
hei
▁17
▁gradients
▁(+/-
ocor
▁predictor
tent
tumor
▁CABG
▁conformational
attern
ediatric
▁phagocy
duction
▁VIP
aminergic
-1
▁efficacy
phosphamide
obacter
▁radiological
operative
▁MN
CRP
▁(19
▁hemorrhage
▁juven
▁stu
acental
omal
pation
▁cesarean
vic
urethral
-9
Ds
tific
▁VO
▁hypertension
▁Lys
olecular
▁gallbladder
erents
▁endoscop
oretic
▁53
avage
oceptor
-30
oA
eptide
ollicular
astolic
▁(18
▁cervix
urse
▁tracers
▁septum
▁omega
2-
/10
▁myo
▁evoked
▁inadequate
inic
Ti
▁RB
lec
▁pigs
▁amplification
▁MRC
▁dele
▁confound
▁thrombolysis
-5
saccharide
-10
▁pathogen
▁hypers
ceptual
onuclear
▁kine
▁0.1
▁peroxidase
▁ery
▁7.5
8%
▁olfactory
tized
CSF
▁accep
certain
▁estimating
▁enzymatic
enteric
▁3.4
▁validity
▁prenatal
adrenoceptor
-16
▁thorac
▁monomer
▁[3
releasing
▁mandibular
▁rostr
▁apop
▁horiz
▁UL
▁implicate
ylline
▁atropine
urrence
ameth
▁reperfusion
▁sinus
▁visually
▁adenocarcinoma
▁immunode
▁IgM
▁Blockade
12
▁facilit
severe
▁enl
▁vasodil
silon
▁HPV
phosphate
lead
▁refrac
▁sial
▁atmospheric
▁thymus
kele
▁disruption
▁autosomal
▁epilep
▁coeliac
▁CNS
olone
▁contractions
epine
▁fragile
xual
5%)
hers
▁chemotherapy
21
]-
▁susceptibility
▁receptors
▁mellitus
▁moderately
veolar
▁hormone
▁inappropriate
▁interpre
tension
▁1.5
▁26
▁dexamethasone
▁chemot
▁lipids
▁predicts
radi
▁incom
imin
▁ovary
▁hyperplasia
opa
estim
▁proce
▁SDS
▁hypertensive
▁9
▁medulla
▁1.4
▁cephal
▁hypoglycaemia
▁PAF
oleic
▁gait
▁PEEP
▁Chemical
▁8-
▁luteal
▁tyrosine
▁NF
31
▁11
aryn
esity
labelled
▁hypot
odynam
pinal
vity
ethyl
▁47
▁tau
idney
stem
▁fati
▁alleles
0%)
▁follicle
▁establ
▁catecholamines
▁hospitalization
▁positively
etween
▁immunobl
.7%
▁hydrophobic
▁qualit
.9%
▁infusions
resses
▁enrolled
asive
▁Intravenous
▁atheros
ithms
▁intrac
Pa
▁episodic
ignant
osal
▁12-
▁kerat
▁organs
▁spleen
onstric
▁insuff
▁NMR
▁electroph
▁90%
onc
▁immuno
▁Fc
▁heteroz
tox
tin
▁excitatory
▁phy
▁5'
molec
ucine
▁occurrence
▁awa
▁genotypes
▁stric
▁ile
▁24
edic
▁coexist
▁88
acetic
cribed
▁deficiencies
lore
▁genome
openia
▁rup
▁carbox
▁envelop
inhib
▁coexistence
▁ambulatory
▁MEP
▁3%
44
▁cataly
▁benz
▁prostatic
▁fetus
▁exhibited
▁neurotrans
▁CI
sych
▁anemia
▁amyloid
▁chloro
▁extracts
86
▁10-
▁1,
ithiasis
▁hepatocytes
acted
▁fracture
IGF
4-
tead
▁olig
▁cloned
6,
▁1.7
usate
ovirus
olus
osition
▁influenza
▁multifactorial
▁androgen
▁adolescent
43
▁synchronous
ifug
peptide
▁hemis
chers
ectomized
▁Ig
OA
▁pharmacokine
roma
benz
▁regression
acial
▁morphologic
▁recessive
pharose
▁Comparisons
inemia
▁scans
▁prophylaxis
erating
▁developmental
Fs
▁cyclospor
▁confron
hospital
▁potassium
TG
▁pathways
-0
▁corticosterone
▁aqueous
▁cardiomy
▁defective
adrenaline
acid
▁tert
alues
,000
▁insertion
▁averaged
▁unevent
▁irreversible
erative
▁feasible
▁vesic
▁subsets
▁44
▁abl
▁pregnancies
▁unexpl
esthe
ifedipine
▁uncom
lep
rae
▁underestimated
▁challen
▁tRNA
olipoprotein
▁3'
▁4)
▁births
▁phagocytic
▁adhe
▁adequ
icardial
▁Phen
drome
▁lumb
amet
uron
▁iod
▁compounds
▁evol
▁methyl
▁underwent
▁19
omedullary
▁throm
▁tec
2+
genital
▁interv
▁deletion
▁subpop
▁compart
oplas
aneously
▁reproducibility
▁coronary
▁abnormal
▁promin
overed
99
▁alveolar
tural
▁molec
adrenergic
NAc
▁trypsin
▁intravenously
▁inactivated
▁48
▁msec
ophag
▁Operative
ulatory
onset
▁cytotoxicity
▁accumulation
otomy
▁receptor
▁remission
▁Accordingly
-6-
100
▁muta
▁deprivation
uoden
▁anesthesia
edullary
▁overex
oblasts
▁inhibition
▁migraine
▁cancers
▁inhibitors
▁reproductive
renol
▁nifedipine
toxin
▁hemisphere
.9
▁vulnerability
▁histologic
▁spontaneous
▁glutathione
menopausal
▁dendritic
ulcer
▁unselected
▁.0
azol
▁normotensive
5'-
▁lute
▁chromosomes
▁Medicaid
▁migrated
▁scoliosis
▁segmental
filtration
▁symp
▁clonidine
zymes
ocellular
tiveness
apeu
▁degrad
utaneous
▁epidermal
▁inactiv
▁placent
▁chan
▁seroton
▁inoculated
feron
▁Greater
rologic
educed
▁acids
graft
▁monitored
▁verapamil
▁traumatic
▁deficits
▁mann
orec
▁debridement
▁infused
▁abnormalities
▁IGF
▁vascular
▁mammary
▁anomalies
▁immature
▁inges
▁subgroups
lapping
▁exce
▁radioactivity
▁chori
tility
▁phenotype
▁chamb
LV
erent
▁monit
▁minus
▁77
▁42
▁increas
EGF
▁replication
▁polym
amino
▁undes
Tu
▁0.05
thle
urea
lax
IU
tate
induced
▁arter
▁mesenteric
blast
▁precursors
1-3
▁90
▁(54
▁pharmacological
▁occlusal
▁pyr
▁pneumonia
▁ultrasound
▁38
Gly
luding
▁1.0
▁0.5
▁fluorescent
▁septal
▁AE
ticular
▁neurologic
▁promoter
▁ATPase
6-
▁surrogate
veness
lective
atest
▁frac
▁caud
▁fibrosis
▁regulate
▁duc
ergen
▁angioplasty
planted
▁TC
▁cytos
▁lymphocytes
anthine
▁menopausal
▁5
7.
hep
▁transcriptional
orotic
icin
imens
▁binds
▁13
▁tubule
ensory
oride
▁3.5
▁precipit
▁prescribing
carcin
▁antiserum
▁0.01)
orac
hemia
▁oxy
▁electrophoresis
▁ions
orrh
▁PAS
▁manifestation
▁IU
▁metastasis
▁2-
▁counteract
▁bipolar
▁EEG
mature
▁cen
▁Rout
ifferenti
kground
▁ruptured
▁undertaken
▁prophyl
▁hippocamp
operox
astom
▁arthritis
▁epinephrine
alc
▁aortic
▁cumulative
30
▁aerob
▁specificity
▁heme
▁pineal
▁Compared
endri
glutin
▁fibrin
▁colonic
▁normo
irc
▁bovine
▁62
duced
▁subf
▁zinc
▁metast
▁exacerbations
▁libr
▁uterine
faction
topril
▁yiel
.1%
▁endoplasmic
estions
inositol
▁Plasma
▁virtu
▁tib
▁PRP
▁arteries
undibular
▁chor
▁endot
otomies
keletal
▁aspec
utions
alp
▁(1)
▁deterior
Gi
fib
olarization
▁persisted
▁chromosomal
0,000
▁markedly
▁warr
▁kidneys
▁immig
onium
▁electrode
ectin
▁ovari
isture
▁detectable
odialysis
economic
-5-
assium
▁obser
▁synergistic
raine
▁(0.0
▁develops
elec
▁proteins
urrent
▁psychiatric
FH
▁LD
chlor
▁[125
▁fluorescence
ameters
▁Adverse
▁addi
▁cancellous
tructive
▁struc
▁peptide
▁epitope
▁excitation
▁palliative
relations
▁transcrip
itrate
39
▁residency
▁hap
▁anastomosis
▁metabolites
▁cyclase
atif
▁inh
▁Streptococcus
▁intram
▁lamina
sess
▁micros
▁crude
▁haemorrhage
▁intensive
▁pall
▁ventilatory
▁SCH
80
weighted
▁tonsil
▁prostatectomy
▁propensity
▁agonist
sA
▁cann
▁kidne
▁-0.
▁medial
▁micrograms
▁accounted
acr
▁discomfort
utin
▁stimulated
▁(14
▁dendri
-2)
othane
alact
▁87
▁homology
▁cellular
antial
▁corrective
▁resto
KA
▁adhesive
2/
▁incidence
▁adolescents
olgi
▁physiological
▁ultr
alanine
▁epileptic
ystolic
▁capillary
▁metabolite
▁PEG
▁phospholipid
anding
spectively
▁4-
84
▁unsuccessful
carinic
oten
ervations
resting
abain
oplastic
▁progestin
%),
▁Thir
▁biopsy
▁Inclusion
▁isch
▁lactate
▁infusion
▁Cyt
ronectin
antigen
▁LVH
▁endocrine
▁contralateral
▁Phy
▁manifestations
oate
thmic
▁refractory
▁synerg
regulation
sible
▁detachment
▁questionnaire
▁Immun
▁biphasic
arer
-4)
truc
epti
▁Neu
▁innerv
▁testicular
▁Taken
▁recurrent
▁appendicitis
ocyan
▁labelled
▁1:
▁paralle
▁curative
rele
urred
ylcholine
▁hep
uminal
▁naloxone
▁(30
▁recipients
▁Mn
lycemia
▁undetected
▁eradication
ucleation
.8
▁produc
▁chromosome
reness
▁5.0
ofluores
▁10,
▁pedig
mented
▁collateral
idement
▁poin
valent
responder
embrane
▁arrhythmias
tub
protein
▁sympathetic
mig
.8%
▁cardiovascular
erox
elan
▁0.9
▁esophageal
▁196
-3)
fected
-11
mittent
▁dopamine
▁donor
▁cyt
▁vivo
gents
tiz
▁oss
lesion
ogenic
ocytes
ucle
▁substituted
▁MHC
tens
otom
▁51
▁GV
▁continence
toph
▁cohort
▁NMDA
odies
▁erythrocytes
▁GBS
▁guan
▁tric
exis
farct
bral
athetic
▁statistically
34
▁Americ
▁indications
ometr
▁RP
▁hydroxyl
▁labeling
▁carbohydrates
dial
▁2.0
▁neo
▁leukemia
▁fibrob
▁pharmacy
▁chronically
▁adrenal
clo
▁carc
▁0.05),
▁supernatant
▁0.7
▁vomiting
▁counseling
▁anatomical
olism
▁PCO
ylchol
acyl
erence
▁excimer
ocamp
▁allo
▁somatic
pendent
istar
bility
titial
▁suppres
ocardial
▁Previous
▁membrane
▁rotated
▁Analy
▁pleomorphic
entricular
SCC
▁resemb
▁199
rogra
▁brady
/-
electric
platin
▁ingestion
FV
uctose
hemo
▁distin
▁quantitatively
▁perce
▁decreased
▁parental
▁43
▁endometrial
omized
ygo
▁graft
ocomp
uptake
▁pylorus
▁panc
▁resec
thmias
▁improves
/1
▁acad
orectal
▁1988
▁nucleotide
▁hypothalamus
amn
yroid
agit
▁readings
olesterol
▁bacterial
▁ultrason
▁identically
▁oligos
loride
▁lyso
▁MRI
generation
▁reductions
▁unchanged
7%)
▁unin
orrhagic
▁implant
▁.05)
▁superoxide
▁hemodynamics
▁concordance
labeled
robic
osom
▁subunits
▁gad
▁unil
▁selectively
▁IH
greater
▁20%
▁lith
▁recombinant
6%)
▁maternal
▁induces
▁esters
▁adhere
▁Vac
▁reversible
▁yr
gesterone
ducing
▁blot
▁tubercul
▁4,
▁vasoconstric
produc
omat
▁complemented
▁drainage
▁abnormality
▁pretreated
dehyde
oprec
ilic
oag
▁contraction
▁retention
▁ACE
▁microsomal
▁duoden
nitro
amide
illus
▁suture
▁islet
7)
▁rabbit
onary
▁epithelium
85
▁stenosis
▁3-
▁compartments
▁epit
▁alp
tical
▁linole
▁apparatus
▁smo
▁ald
toc
cture
udin
▁wee
rals
▁perone
mL
vascular
▁axons
▁thyroid
▁limb
▁modality
astatic
▁stimulates
▁messen
▁paradigm
amate
▁lectin
▁hemorrh
tance
▁elicited
▁lam
8+
▁eosin
oic
▁95%
▁genomic
▁inver
▁endpoints
gesia
▁umbilical
inergic
▁intrag
▁HCMV
▁mammography
tured
▁overd
▁76
▁65
ococcus
▁anaesthe
4+
75
▁vagal
▁GnRH
▁HG
▁cohorts
▁plantar
tum
▁axon
▁caffeine
cutaneous
▁35
▁eluc
▁autoimmune
▁provid
aceous
▁conductance
24
▁melatonin
eptid
▁locus
▁disparate
▁hydrolysis
arbox
▁judged
ogens
opoietic
▁substitu
heal
▁laparoscopy
48
▁Contrary
▁insufficiency
cessive
▁Mucosal
▁spon
2.
tophan
nRH
erator
▁tamoxifen
▁responsiveness
onography
▁(0.1
▁cytoplasmic
19
birth
▁NK
▁VS
▁grafts
▁osteoporotic
▁(4
▁immunity
▁distinctly
▁anatomy
cad
aptic
▁vancomycin
unctional
idation
▁nonspecific
▁cytotoxic
▁elucidate
▁concom
itonin
▁thiol
▁antagonized
▁preferen
▁reversed
illin
▁Hg
▁GMP
▁sacr
49
+/
▁CFU
AIDS
▁0.01
▁macropha
▁inapp
gene
▁diets
▁19-9
urine
▁cortic
cine
rectal
▁AIDS
▁anastomotic
▁attenuated
oscop
▁induce
▁silic
▁3
▁IBD
▁ischem
▁pelvic
▁transplantation
▁motility
ffeine
bic
clin
▁vitamins
ronch
LF
▁clinicians
ygen
▁bronchial
opha
▁sediment
dibular
rene
▁intraven
▁ventil
▁fibroblasts
▁insertions
▁Considering
▁surgeons
▁synov
▁genotype
erving
▁homologous
ropriately
▁adenoma
▁leu
▁unres
▁underst
▁referral
eal
yro
▁antic
▁colonies
iasis
cysteine
▁disappearance
▁rheum
tant
▁thromb
luent
oproterenol
▁reactive
▁sphincter
▁physicians
omatic
fir
▁progesterone
▁atres
scop
▁10(-7)
▁([
ioid
▁milieu
▁vesicles
▁acute
gative
ociated
tocin
▁immunomod
amus
▁eti
tructural
ipr
▁arterial
▁correcting
▁progen
▁dissec
▁testis
oglobulin
▁vaccines
▁tuber
methyl
▁CSF
▁400
tus
▁ageing
▁Pretreatment
▁suscepti
▁MG
10
▁aden
▁connective
▁50
▁phospholipids
▁progest
▁(12
1),
▁glomerular
▁80-
▁dete
linking
▁astro
▁mell
▁mice
essel
8)
itoneal
▁deposition
▁asymme
otassium
▁fibres
▁mononuclear
▁FS
anine
▁metabolic
▁5-
tingu
▁pla
▁residue
itudinal
1/2
▁followup
lyl
▁hCG
saturated
ocar
▁plas
▁19%
▁phosphodies
▁definite
▁spre
▁polyclonal
▁noc
risk
▁thymidine
▁gluc
ostic
▁predictors
Ki
▁tris
▁prosthe
▁adop
▁albumin
terminal
▁stimulus
loid
▁limbs
agin
40
teine
mol
urc
▁Thromb
adequ
▁cervical
odynamic
▁physi
▁Continu
onol
▁repres
▁feasibility
epam
acetate
olip
ilical
independent
▁complication
▁plasmin
▁0.00
▁polypeptide
▁underlie
▁inhibin
▁thyro
▁immunological
▁creatine
▁angi
▁dialysis
▁similarity
adiol
kely
▁cis
▁fragility
▁pressor
▁PV
▁caudal
▁2.7
ustained
▁acetab
▁gon
▁workload
▁phe
▁Treatments
▁guinea
trimental
▁intrav
omers
▁recor
▁monocytes
▁usefulness
▁estrogen
ithm
▁unresectable
ylation
irrh
subunit
stolic
genic
▁reac
▁transfusion
▁inhal
▁ANF
▁forsk
▁LF
3-
vating
▁201
▁34
▁myocardial
▁dilution
▁calcification
▁inactive
▁bedside
-7)
▁analyses
▁Ket
▁transplant
▁cytokines
▁Wistar
▁immunoprec
▁ascertained
▁saline
oreactive
▁intermedi
osomal
▁potent
▁melan
▁synthetase
▁supple
-[
roph
perfusion
erad
▁repaired
arcin
▁adaptive
▁alcoh
▁ethyl
▁preliminary
ionine
LDL
▁undergoing
▁somat
▁difficul
▁synaptic
occal
immuno
▁abd
▁potenti
sive
▁posi
tially
▁HC
▁currents
▁myc
▁acet
wenty
▁sequel
▁prolif
▁donors
▁protoc
osts
▁hypoth
ejun
▁streptococcal
▁residual
▁angina
nthe
▁reactivation
▁ventricular
▁pulses
▁pelvis
actin
▁natriuretic
▁intrauterine
gluc
▁ips
sequent
▁lymph
jejun
▁dosing
+,
▁Cox
▁stillbirth
esia
dominal
▁angiotensin
ATP
IFN
▁radiolab
▁protease
▁loci
▁analges
ocl
▁microbiological
▁natri
ographically
▁mitral
2).
umulative
▁10
▁amin
▁geriatric
unar
tected
KD
▁gallstones
▁trough
▁hemorrhagic
cepti
▁immunofluores
▁laparoscopic
▁RS
tality
▁muc
▁individualized
▁ionic
▁medullary
▁mutations
ergic
▁stimulating
.4
▁1986
▁definitive
loxacin
ontal
▁fibroblast
orative
▁influx
▁interc
ogra
▁cytology
▁bir
▁residues
tron
versely
lastic
▁25%
▁underg
▁discon
▁2.4
▁peptides
▁sedentary
ituitary
▁phosphatase
▁edema
thma
▁pressures
▁conceptual
otropic
▁adequately
▁transcript
tetra
▁preven
▁estradiol
▁systemic
▁hippocampus
▁70
▁decreasing
▁TG
▁surgical
▁hemo
continu
▁APD
Cy
▁mutants
▁ECG
▁pH
MN
urally
opathological
sulf
▁GER
ymme
▁probes
▁8.
▁auditory
uria
▁95
▁discom
▁neutrophils
▁atresia
▁attrib
tures
▁PGF
▁viral
▁impairment
▁microM
▁ketamine
▁disulf
▁defic
isol
ffer
▁platelets
rested
▁deformity
▁correlates
▁intermittent
kage
▁alk
▁caregi
-3-
▁PKC
▁sulph
cence
▁warranted
atab
6)
▁asthma
▁discusses
econd
-7
▁nonadherent
▁shortening
▁lymphoid
▁External
▁glucocortic
▁BD
apeutic
▁avail
▁athle
▁scanning
▁NH
▁initiating
▁LN
▁chromatin
▁NADPH
▁GFR
opramide
▁deliveries
▁tissues
▁excision
rine
▁microsomes
▁redund
▁agon
herence
lue
years
ureus
▁ablation
▁kinetic
▁microns
▁acyclovir
▁prevalent
▁LC
▁differentiate
▁laparo
▁resistant
▁spermat
obl
▁elevated
▁athe
▁hydrogen
affec
▁neoplasm
▁mRNA
▁Multiple
▁spectroscop
▁scintigraphy
▁enzyme
illi
▁subtraction
▁retrospective
▁Therapeutic
▁carriers
truction
▁pancre
▁overe
▁myelin
ocyt
▁mediate
▁(6
hydroxy
atural
hydrox
▁lymphoma
resist
glum
▁foc
▁nodules
acin
tice
▁concurrently
regulated
▁85%
▁10(6)
81
▁ineffective
▁anomal
valence
▁ultim
▁maturation
▁antagonists
▁Chest
erper
thyroid
itus
ococci
(5
ressing
▁resection
▁clearance
tiv
▁uncommon
▁extrac
phosphon
▁LH
▁onc
▁psychotic
▁patellar
▁120
▁(9
▁glutamate
▁cGMP
▁jejun
▁dissection
▁4.5
▁decisive
osamine
chymal
▁toge
ocyte
ecal
▁40%
trypsin
▁selective
▁regurg
otoxin
▁60
▁heparinized
accharide
▁neurop
▁haemorrh
▁buccal
▁utilization
▁stimuli
▁glu
▁neuronal
▁chec
▁ana
70
▁assayed
nee
ialysis
atase
ovascular
▁induction
▁EGF
▁solub
essential
eces
▁proximal
esium
totic
lastoma
▁100
timal
▁strom
▁23
▁prolonged
▁neurom
▁terminals
▁dodecyl
▁chloride
▁techniqu
hering
(2+)-
▁Treatment
glyc
cele
omonas
uretic
dies
atinine
.4%
▁embryos
roscop
▁Removal
▁bran
roxim
▁SLE
gic
▁vitro
▁epidemic
▁chemotactic
▁precursor
▁deficient
▁1.1
▁potentiated
▁favourable
▁tumour
▁ouabain
▁sti
▁cystic
▁inactivation
sia
▁phenyl
▁resis
tious
▁canc
45
▁uptake
virus
▁bladder
MDA
ichia
bearing
.2%)
▁HL
▁quantit
▁Clinical
-67
▁30%
▁0.4
otropin
▁reas
▁radicals
derived
▁cows
▁widening
▁resol
▁reproducible
natal
▁Concomitant
▁differe
54
tryp
ellum
▁schizophrenia
ighted
▁polymorph
▁adren
▁Magnetic
▁71
▁periodon
▁incub
▁spontaneously
inephrine
ortal
▁aneurysm
oactive
▁ambient
▁infar
▁enucleation
▁filaments
bac
▁hazards
▁necro
ignific
▁latent
uran
▁1.6%
▁genic
LN
absorption
▁VD
▁lymphocyte
▁kinetics
▁197
▁sple
▁basal
▁differen
▁respiratory
▁surrog
throm
▁ACL
effec
ritish
tection
Ala
erine
▁quin
▁tuberculosis
employ
1)
▁fractional
▁phorbol
omical
▁chole
atonin
▁125
▁systolic
ophil
▁noncom
▁immunos
▁7-
▁cutaneous
▁dietary
▁10%
tives
immune
fron
plas
▁hydrophob
▁neurons
lys
uccess
▁serine
minal
▁thyroidectomy
glut
inol
ylamide
▁(11
▁hemodynamic
atibility
ertion
▁correlations
▁palp
ections
▁tach
fusion
▁annulus
▁invasive
▁unde
▁25
▁Golgi
▁NADP
▁routinely
enia
ifugation
▁marrow
timulation
▁3,
'-
▁ipsilateral
etitive
ocusing
▁Leu
echanical
activated
▁mmol
▁gp
▁familial
▁gestational
▁juvenile
▁subsp
.3%
▁AMI
phosph
▁inpatient
uted
modulin
4,
odon
phil
▁traum
▁modestly
▁37
▁proportional
plasia
▁measurable
ostat
▁administered
▁ICS
retro
▁employing
▁differing
▁55
tec
5%
▁eosinophilic
▁infec
icep
▁histological
▁esophagitis
ochemical
▁dysfunction
▁multic
xiety
▁infarction
▁79
tention
tig
▁clinics
▁rotational
16
▁RNA
▁hazard
riched
▁deficiency
▁modulate
othermic
▁noradrenaline
▁degradation
sorption
oung
idate
▁vaginal
▁hernia
mide
▁variants
▁cerebrovascular
+)-
▁adverse
▁viruses
▁mucosal
▁loosening
osomes
elvic
tussis
tero
▁amo
▁alteration
▁4.
▁indeterminate
▁dorsal
▁GH
-12
▁lamb
▁exchan
▁antagon
8-
▁neurological
▁suggestive
▁laboratories
ocul
adder
▁markers
▁inhibit
▁aor
▁contral
urate
▁rheumatoid
rectomy
urons
▁poten
oxygenase
odil
▁antegrade
ophageal
▁satis
itally
▁rigorous
▁ocul
▁cleavage
0.0
▁dischar
▁preferable
▁chol
▁investigating
▁oils
▁thrombosis
▁insufficient
oracic
▁sciatic
▁poorer
stab
▁dimer
▁mediation
▁chloroquine
▁Nine
scherichia
▁colloid
▁histopathology
▁rash
▁40
▁antibiotic
lateral
6.
▁complications
▁synthe
leu
▁prostagland
▁ae
olysis
genesis
▁discordant
▁implic
▁Addition
▁deem
8.
▁ventric
diastolic
▁potentiation
▁densities
▁saturated
hea
▁devi
▁melanoma
▁Alter
opo
▁Mg
luores
▁follicles
reased
orax
▁mmHg
tak
▁perfor
▁0.3
▁HPLC
▁follicular
▁additive
▁elong
▁bicarbonate
▁TAA
tidine
▁ionophore
▁16
▁ASA
omycin
▁indomethacin
▁Paget
atient
opam
MV
▁-0.5
▁doses
▁anesthe
▁monke
▁sulfonyl
bular
▁bip
▁Patients
▁soybean
ochondr
▁beats
▁ascer
57
▁lar
▁inten
▁allogeneic
▁diabetic
▁antiser
ipid
enzyme
▁advisable
IH
▁artery
▁clon
▁moles
estion
ducts
▁rCBF
▁ventral
▁cisplatin
▁hippocampal
tituted
▁therapies
▁intrinsic
assi
Ia
▁substanti
▁bp
/2
3%)
▁UTI
▁inser
▁52
▁debr
▁paren
▁tubules
0.5
FGF
▁excretion
▁differed
▁bilateral
▁carcinomas
▁calcium
▁speculated
▁cryp
▁acidosis
▁1-
▁polyps
▁avascular
neumon
umably
tine
-5)
motic
entan
▁seizures
romes
vation
rotic
▁percutaneous
▁substantially
▁asymptomatic
▁trache
tetr
▁(17
▁orally
anyl
▁prolactin
▁intrarenal
▁headache
56
▁8
▁EBV
▁postsynaptic
▁tertiary
MH
▁palli
▁preterm
taken
ometrial
▁sut
▁rationale
▁substitution
▁propranolol
opausal
▁FSH
▁PTH
▁parame
ogenesis
▁digestion
▁vein
▁preservation
positive
tically
▁Samples
adic
▁11,
cious
▁cadaver
ymptom
ilization
arrhy
▁warrants
▁axonal
tence
▁topographic
▁oxidative
sus
▁substrate
▁musculoskeletal
erican
▁conges
trop
▁tet
aemia
▁pathologically
▁circulating
▁hepatitis
nec
▁allogra
▁mitochondrial
▁amputation
iary
▁hepat
▁tomography
▁mM
▁10(-5)
▁Muc
operated
▁tox
▁immunoglobulin
▁lithotrip
▁diagnos
mediated
containing
▁nm
oplast
▁apo
▁NB
thymidine
▁monoclonal
▁ultrasonography
clinical
▁simult
adherent
queous
rates
▁PVR
BK
▁irradiated
pies
▁osteoporosis
ACS
▁prel
▁diffuse
▁implanted
ivariate
TB
agal
▁HI
▁agonists
▁ANP
dic
▁hipp
▁2,
▁resonance
ulph
▁wt
▁demonstrating
stim
▁diarr
37
▁numb
roin
▁RV
▁physiologic
▁cartil
▁glucocorticoid
-1-
▁infiltration
▁subunit
▁empir
bly
▁mono
▁secreted
▁questionnaires
▁assurance
lysis
rogenic
▁airway
opulation
iversity
▁succin
ulla
79
▁implantation
▁strains
▁sodium
ostal
▁Emergency
▁affinity
▁amn
▁phosphatid
▁autologous
▁pathologic
growth
ranial
▁ELISA
osine
▁recr
kade
▁persist
luded
increased
▁20.
▁derange
3,
▁deform
.2%).
▁myel
▁inhibitor
ropine
plate
▁fractures
▁gallst
tally
▁1)
trin
▁codon
▁DSM
▁reticulum
▁thi
▁nM
▁dehyd
▁reagents
▁slices
▁radiograph
▁6,
heum
▁behavioural
▁OT
▁compe
▁aldosterone
▁stratification
▁Thirty
▁evid
▁contex
▁perc
▁systematically
omotor
lasting
oglobin
hyp
▁colorectal
▁interacted
▁82
razosin
maximal
opi
ventricular
▁amyloidosis
▁supervision
orption
▁sequential
ochemistry
▁choline
ocaine
obarb
▁distinguishing
atheter
▁docum
LISA
▁250
median
▁cholestasis
▁MBC
tual
▁diagnoses
▁captopril
4)
gment
imination
osome
glycerol
▁sci
onatal
▁arti
▁15-
▁yielded
titution
din
▁neoplastic
▁phosphor
▁acetylcholine
▁biopsies
▁diastolic
▁fentanyl
▁transfected
▁physici
coup
▁smokers
oxin
clamp
▁infections
▁depletion
ffec
▁hemat
▁inotropic
▁nicot
▁UT
▁suppression
urgery
▁pathway
▁3.
▁chl
lood
▁61
▁Elec
ocarcinoma
▁3.3
versity
enol
meth
▁intravenous
trogen
utyr
▁incubation
▁isoform
diagn
selective
ventive
▁pituitary
omerular
▁22
▁incorporation
rangement
ditions
▁fatty
▁thoracic
▁possi
▁projec
ifed
▁intracellular
▁synthase
▁nec
▁1,25
monary
▁preoperatively
HF
-8)
ampl
▁Cushing
▁saturation
▁homogeneous
▁Systolic
ensitization
▁+/-
▁cortical
▁symptomatic
lyc
▁dentists
ithin
▁83
angli
▁muscarinic
myc
▁subjec
opressin
▁latency
▁Phe
lier
▁follic
▁replic
▁intest
▁biliary
itance
ubicin
▁69
▁ovarian
▁tol
oratory
▁BALB
▁31
▁cigarettes
▁pancreatitis
▁TNF
ortic
▁Steady
▁thrombo
▁pathologies
▁peripheral
▁microtub
ffinity
earance
▁prevalences
▁implicated
vices
bodies
electro
vents
resistant
lycerol
pir
▁spinal
regn
phth
▁endothelin
▁sph
▁thromboembolic
▁gestation
implantation
▁mucosa
▁verteb
▁NaCl
▁differenti
▁heterogeneity
26
lycer
CMV
▁cyclosporine
iotics
▁adenocarcin
▁1.9
ficial
jective
▁enzymes
crib
▁adjunct
leukin
▁onset
▁laminin
▁exon
rane
▁Escherichia
feren
▁scin
▁fetal
▁proliferation
▁indicative
▁obstruction
▁recombination
▁descending
▁anae
▁postnatal
90
ariate
▁assemb
▁iatrogenic
ocardi
till
▁30-
▁glucose
ietic
cells
rone
2318
embr
tages
kinase
▁ligands
▁ischemic
FG
▁1.3
▁0,
plants
▁preoperative
▁OA
olec
▁coincidence
▁atherosclerosis
oconstric
▁proton
oclonal
▁selectivity
▁operative
▁concurrent
▁opi
gulation
▁Contr
▁polymorphism
▁evaluations
▁hypotension
▁splic
▁ester
iological
Ka
▁vena
vant
▁2%
▁preclude
▁VC
▁terminus
affected
▁rigidity
illary
ervical
ximum
▁conduc
▁0.05).
asal
▁hormones
▁Regarding
▁congenital
▁circumference
ifferen
▁buc
▁7.
prising
▁rabb
▁Bone
▁0.25
▁angiography
▁morbidity
▁(3)
sue
▁injected
igaret
azole
▁theore
▁proliferative
▁Biochem
▁thereafter
2+,
owever
orphic
erum
hyde
▁projections
terol
rever
▁pretreatment
▁quanti
▁gland
▁depres
▁Swed
▁antigen
▁ALT
dle
▁lateral
▁plex
trative
▁Alternatively
▁AVP
▁morphological
22
▁0.05)
▁malignant
▁anesthetized
▁LV
▁bene
76
oxia
▁yeast
fat
.5%
▁laparotomy
transferase
▁centr
onate
heric
▁5,
lac
idated
9-
▁oxidation
▁venti
tisol
eptides
▁heterogeneous
adication
▁tibial
▁carotid
▁repro
CoA
▁nitrogen
▁accel
▁elimin
▁pyramidal
▁HS
▁Kup
▁strep
▁newborn
▁disks
▁transcripts
evaluation
▁favorable
▁Severe
▁ane
▁resected
phrag
▁73
▁unilateral
▁DST
▁subc
▁disrup
▁adenomas
▁creatinine
▁Throm
▁secretory
▁gastro
controlled
▁unclear
quit
▁endothelium
2,
▁galact
▁reactivity
▁conditioned
ivoc
▁acidic
▁provocation
▁aerobic
itin
▁comparative
responsive
▁consolidation
-8
23
turally
▁mitochondria
▁immunohist
0)
▁causal
helial
▁indi
▁mL
8,
ilibr
▁12
▁cathe
▁purified
onucle
idne
▁pediatric
▁adminis
rogenase
eptidase
fec
amines
hig
-19
▁glycos
▁(95%
▁standardi
▁TB
▁benign
▁APC
hydro
▁balloon
▁200
▁fixation
▁79%
orbol
opsy
▁mitochondr
▁blockade
tic
▁cuff
▁paraventricular
▁accessory
▁staging
(+)-
▁coex
▁glands
▁phospholip
▁substrates
▁tetr
▁BAL
ewish
▁cAMP
▁differentially
▁withdrawn
▁overlaps
▁(5
▁Increased
gments
ofol
▁glycogen
ardia
28
asone
▁focal
▁urine
▁myoepithelial
▁synap
▁highl
▁hydroly
▁CRF
▁5.5
▁arachid
▁discontinu
tectable
▁Binding
atients
▁lact
ometh
▁intragastric
▁minimally
▁fas
esting
legia
opres
▁neurolog
ulose
▁granul
▁embry
▁hospitalized
entary
sial
▁carbohyd
-6)
▁stained
▁rejection
▁needles
▁diminished
umerous
▁80%
▁livers
▁polypeptides
▁hypothyroidism
▁75
▁SHR
▁restorative
▁lumen
▁NPC
▁recombin
phenyl
▁regen
dents
nutrition
▁variability
ochrome
▁59
▁removes
▁OSA
▁spectroscopy
▁validated
ozo
▁disparity
otides
▁aneurys
▁synthesis
ylated
▁31-
iplin
▁reproduction
DG
60
▁TBI
▁catechol
tive
▁equivocal
▁AO
▁instability
phic
▁tubes
▁mening
rocy
5.
▁epithelial
▁staining
▁resour
▁anticoag
arous
▁chorio
▁equilibr
▁cavity
▁fron
▁enteral
▁PCT
▁disulfide
▁perceptions
oxif
mur
▁demographic
▁66
bacco
▁atmosp
▁determinants
▁thre
▁oes
enhanced
kine
▁inters
orpor
▁dislocation
pine
acetyl
▁Meas
▁cytoplasm
▁amput
▁poisoning
ositive
tics
isqu
▁misleading
assay
▁stimulatory
▁hyperg
▁adi
reactive
▁depolar
loro
▁neutrophilic
ration
▁cholesterol
▁oxide
MIC
erate
otting
▁hetero
DNA
▁urinary
▁HN
achid
scher
▁grouped
▁plasmid
▁multiv
hypertensive
lox
▁0
▁micron
▁pancreas
cold
iably
▁lec
▁resuscitation
urane
coun
▁8,
tively
▁persis
teral
▁colonoscopy
▁contrib
▁mutagen
▁glycoprotein
▁soy
▁analysed
▁differentiation
▁multicenter
▁polymerase
transplantation
▁pter
acylglycerol
taining
phasic
▁constric
▁bolus
.5
▁glut
▁thickening
▁lobe
operatively
NB
ophils
▁pylori
▁duodenal
▁assessments
▁purification
seal
ullary
▁skeletal
cardi
▁ow
▁mutation
▁spi
▁perip
▁bac
▁Ear
▁cerebral
▁exogenous
lated
omial
▁vaccination
terase
phosphor
▁homogenates
▁enriched
hemical
▁adhering
tors
erally
▁pacing
▁communic
▁6.
▁heavi
▁regimens
ochem
▁tryptophan
2%)
quine
▁advancement
uvate
onad
▁(10(
▁96
▁glial
▁contaminated
lasts
▁somatostatin
▁consultations
ustif
entanyl
(2+
▁tidal
▁proct
▁inoc
razole
▁modif
tions
▁clones
▁satur
ospitals
otide
▁confined
▁ect
epit
▁chromatography
▁subun
enzymatic
arean
▁36
siveness
▁Alcohol
▁cytotox
▁progressively
▁neurones
qui
▁appendic
rowth
▁depic
▁omitted
▁hypo
utroph
▁centrifugation
▁shorten
▁coval
▁preparations
▁aort
▁consecu
MRI
▁1.
▁(0.5
erations
Nase
▁isop
▁constitutes
▁emphasizes
▁subtype
acrylamide
▁MCP
▁lysosomal
▁injec
lymph
physiological
▁influenz
▁2
▁studi
ancre
▁musc
▁reser
apamil
ineph
▁consol
▁cyclic
▁cirrhotic
▁Whereas
▁Neurop
▁inward
▁CG
▁ACTH
▁erg
▁intramuscular
▁organisms
tization
▁innervation
▁IIb
▁72
uncture
▁gamma
▁1.6
ecre
▁circumferen
▁0.
▁fri
▁rats
▁Tran
zard
igel
▁elic
ypical
▁sugges
rease
▁cholecystectomy
eration
▁gastric
▁bowel
▁minerals
Cu
lobin
▁PSA
▁radioimmuno
otre
sities
▁acco
▁diame
▁pigmented
▁infarct
istal
tents
▁sequelae
▁fluores
▁intrap
▁herpes
pecific
▁1989
ectomy
▁detergent
▁parathyroid
ginine
ylic
inally
▁demonstrates
-4
▁glomer
▁pneumon
stranded
▁Tumor
▁caro
ogenetic
ocortic
▁postoperatively
▁ossification
▁0.001).
thyl
glucose
-60
tact
ayed
▁respec
▁entero
kinin
ture
tinu
▁BP
▁exacerb
▁preventive
▁enlarged
▁instrum
▁tolerated
▁Hep
▁coag
▁morphology
▁nucleus
sies
▁extracellular
▁frontal
▁aggregation
▁merits
▁sev
▁consequent
7%
▁GVHD
▁58
▁30
▁IFN
88
monstr
thel
owel
▁sulf
▁cef
▁antec
▁0.000
Leu
▁ach
▁sero
-40
vice
anic
▁trig
ameter
oderm
▁endometr
▁PF
uality
nucle
.2%
▁hybridization
▁pathogenesis
▁undetectable
▁adjustment
fal
▁referrals
▁previ
deficient
ignificant
▁ganglia
▁Surgery
32
arate
FU
▁infectious
▁exis
itic
either
uterine
▁mumol
▁masked
▁derivatives
4%)
▁18
▁1000
BW
▁causative
cents
▁arth
5,
emia
opro
▁.00
atation
▁1%
▁empirical
▁rectal
▁PCR
▁discharge
▁calves
atectomy
piration
ipine
▁catecholamine
▁fibers
▁potency
iminary
tory
▁phosphate
▁calf
galact
▁CCK
omiting
aventricular
phyloc
▁concentrations
turb
18
embran
rosine
Cer
oidal
▁cirrhosis
▁competi
oplasty
▁depressive
▁inducing
moid
▁Plas
selec
▁perin
-1,
▁permeability
▁GE
▁4
quired
▁amp
▁apical
-2,
activation
▁Doppler
▁cues
odium
echn
▁3)
▁nosocomial
oglyc
▁ejection
rophob
ervative
▁contrac
encl
ostomy
▁attenu
vated
▁promo
etal
onor
▁antibiotics
▁sepsis
GV
▁microscopic
itoneum
entral
▁lamin
▁ultras
andard
▁Percutaneous
oplasmic
▁supplementation
.2
acchar
tensin
27
▁perfusion
ynaptic
▁kDa
▁tachyc
uppres
1%)
▁identi
adren
▁susceptible
▁cyto
▁pulmon
▁Kupffer
ubted
▁therapeutic
tur
▁catalytic
GH
▁injections
▁advan
opamine
▁distal
umbar
▁iso
▁undergo
ATPase
▁swelling
ocular
identical
▁triglycer
▁quantif
▁biom
▁femur
▁ppm
eric
teroid
▁2)
▁progression
-15
odal
ureth
aturated
APC
▁induc
Phe
▁irradiation
opia
▁comparisons
stimulating
▁placental
▁3.0
tib
▁GABA
ubation
itant
▁thir
▁interventions
▁algor
ospor
fused
ulitis
ivary
▁encoun
-3
▁dors
sors
▁intercostal
▁(2
semin
lytic
▁0.0
▁CRP
sul
ognition
▁rebound
atories
essive
▁identifies
trate
▁elevation
▁stellate
itone
▁decreases
▁adduc
ogenous
▁2.5
plantation
angl
gmental
▁bile
▁resul
1).
lux
▁illustrates
▁psychosocial
ximide
▁anticoagulation
adm
▁expressing
tagland
▁renin
▁fatality
▁endogenous
▁depolarization
mixed
▁titers
olated
odg
athyroid
▁aorta
trac
polyacrylamide
▁membran
oxid
▁adherence
▁DH
▁cochlear
immun
▁superficial
▁molar
▁Hyp
oscopic
5-
▁gynec
sensitive
thym
gia
▁vaccin
ece
gland
tase
entif
stro
▁valve
▁leukocytes
▁homogene
▁15%
▁congen
-100
▁neon
▁49
ected
ilateral
▁neutroph
▁regar
▁symptom
yel
▁atrial
▁umb
▁DG
▁32%
licular
▁appropriately
idis
▁intra
omies
▁tymp
▁99
0,
▁acetyl
▁DN
▁retin
▁bic
▁hypertrophy
000
approximately
iciently
▁phospholipase
▁cardi
aline
▁NGF
▁allele
▁sequentially
▁interstitial
▁rehabilitation
olol
▁overlapping
▁lysine
▁colonization
▁postmenopausal
▁lobectomy
▁sensi
▁dex
oside
carb
▁topical
▁untreated
agic
tamine
46
1%
associated
▁exten
▁Dopamine
▁21
eliac
▁testosterone
teric
▁pT
▁sampl
▁transloc
▁suppressing
▁ventilation
12.
rents
▁spectro
▁lesions
▁HLA
▁premature
▁Km
▁trac
ibi
▁upstream
▁hygi
20
▁33
NK
▁adenosine
▁lis
▁spikes
ynthe
vely
▁Hz
▁epi
▁recom
▁56
▁tended
otroph
▁Prospective
▁LPS
yses
astric
▁epidemi
▁discus
idine
▁antigenic
aryngeal
tional
▁connec
insulin
▁regis
▁diagnose
▁hams
mend
▁fmol
ocytosis
▁microm
▁64
▁MAP
▁lethal
▁(1
▁pate
clerosis
tebral
▁microcirc
▁0.001)
tial
▁emerg
▁Biol
contrast
tis
▁1987
edle
▁derangement
tro
▁IB
hyd
▁socioeconomic
▁depar
pinephrine
▁enti
LB
▁heterogene
▁LDL
▁plaque
▁shortened
▁trophoblastic
▁relapse
▁reduc
▁coronal
athione
▁veins
▁KCl
tral
▁10(
▁IgE
▁muscul
micro
▁hemodialysis
ternational
▁lax
erated
▁optic
▁actu
▁inflamm
teroids
▁dehydrogenase
▁hypertro
Hb
ociation
▁0.01).
▁histamine
-18
IgM
onit
▁hypox
▁chewing
enic
▁intestinal
▁acceleration
▁7,
inj
▁coel
▁fetuses
▁potentials
▁inserts
graftment
2+-
invasive
ologous
▁dilated
▁evacuation
▁vegetable
clic
▁ascertain
▁HB
-1.
ygous
▁biop
▁Medicare
▁acupuncture
▁neuron
odial
eak
▁steroid
treatment
ograms
▁lys
esic
ints
uscular
▁insulin
▁prognosis
erin
▁0.03
oluble
▁anat
▁Chronic
▁5'-
ogeneic
15
▁concomitant
▁MV
▁renal
PAP
▁undoubtedly
rins
▁Effective
iliac
▁elu
▁RH
▁carbohydrate
▁accumulated
osocial
tage
coh
ivocal
parative
▁sensory
▁(8
stress
▁behavioral
roximately
traction
▁chemo
.3
▁74
▁preferentially
▁eosinophil
erance
▁86
▁sarc
▁respondents
▁28
lact
▁inducer
physiologic
ubtedly
ifol
▁(100
5)
▁mutant
▁reversal
▁malign
▁deformities
mia
▁secretion
▁84
▁pathology
▁regimen
▁BV
▁erythrocyte
▁compli
ensi
ulmonary
▁27
iae
Ig
▁anion
▁tracer
7-
▁ethanol
14
blind
▁AMP
umulation
▁lipoprotein
▁endarterectomy
atical
atitis
▁ulcer
▁sperm
▁stimulation
▁complexes
▁margins
oscopy
▁ATP
▁socio
▁reag
mediately
▁cirrh
▁epsilon
▁etiology
-6
▁multivariate
▁extensor
▁IHD
2%
xone
kDa
▁Preoperative
▁progres
▁urea
▁homogen
fine
1-
atum
▁indicators
▁engraftment
helin
▁retic
▁myosin
▁subtypes
olones
▁39
▁audi
▁15
▁cate
▁phon
ococcal
oxygen
PV
▁amyl
▁gradi
▁Measure
athy
▁embryonic
▁(25
▁effector
▁prophylactic
xia
posure
▁transduction
▁uncontrolled
▁ACh
▁biochemistry
▁5.
▁reflex
▁deterioration
▁mortality
affinity
▁202
▁criter
gth
▁synthesized
bloc
tran
▁chond
▁7.4
reas
▁selec
▁outpatient
acet
▁granules
▁comprehen
▁lumbar
intestinal
zyme
tel
luc
terone
▁overlying
▁6-
bladder
thrombin
▁infants
▁adhesion
race
▁compressed
anol
11
ellular
▁fibr
▁undergone
occus
noise
dine
aminated
0%,
▁fibre
▁10(-4)
▁63
▁modulation
▁linoleic
▁positioning
▁spike
ycin
▁volumetric
▁distrib
▁pulp
▁sickness
oxidation
▁characterize
lowering
▁physiology
▁gyn
▁tubular
reatine
▁nonc
oprotein
iotic
▁OC
▁(10
cephal
EG
dition
itamin
lectomy
▁conjug
▁splenectomy
▁contamin
▁arachidonic
6%
acting
▁inoculation
henyl
▁TGF
▁actin
ionic
▁FH
▁conservatively
▁manipulations
dor
▁requi
fts
opoly
▁mAb
alian
3.
adily
ropriate
▁Ara
piratory
▁oste
ondr
cus
▁GI
▁lithotripsy
▁desm
▁regulated
▁pS
▁divertic
▁coli
otone
▁glycine
Hu
▁mug
▁metastases
▁immunization
▁alkaline
▁IA
▁femoral
ocytic
itively
▁Physicians
▁cue
ocarcin
kephalin
▁suppor
itro
▁exercised
eared
idin
▁keratin
▁heroin
▁infil
▁RM
2+]
otri
orphism
▁tiss
osyl
▁1.2
▁morphine
etus
accharides
▁transpor
onuclease
ellosis
▁cyst
▁hypoxic
IIIa
▁thym
▁TPA
▁70%
▁reductase
▁0.001),
HB
▁peri
▁reper
▁peptic
OH
tolerated
thre
clonal
unctions
ymptomatic
aginal
oplasm
pecially
consuming
▁screened
▁accelerated
▁0.01),
▁acqui
▁Significant
▁suppressed
▁motone
SPECT
otyp
▁specialty
▁60%
receptor
▁Cd
rophyl
▁7
otent
oxic
injured
▁prol
▁transferrin
▁prono
orepinephrine
onyl
▁ration
▁phosphorylation
▁morb
▁antibody
▁illustrate
ught
▁subcutaneous
siological
nai
ercul
2),
▁paradig
▁7%
▁complementary
▁stimul
ranolol
▁immunodef
▁ure
opulmonary
Ta
duce
venth
▁20-
▁Stu
▁sulfate
▁TA
▁vitamin
▁2.6
▁hyperp
rants
tein
usp
atible
▁assessing
▁excre
▁intervertebral
tabol
▁uter
tability
▁radiotherapy
oskeletal
▁pertussis
▁spati
▁inversely
omod
▁vacu
▁recurrence
104
ipolar
▁precedes
ylate
▁tumor
▁vasomotor
WB
▁localized
▁Increas
▁5%
▁intraoperative
▁inflammation
jun
responders
guided
▁deficit
▁crest
▁restor
▁nasal
▁incubated
siologic
▁seb
▁tryp
▁peritoneal
ithi
▁glycerol
▁amines
tering
oxane
▁responsive
▁macrophages
▁diabe
▁unrel
ectomies
iciencies
▁functionally
▁glucagon
▁unexplained
rophy
phe
.0
evaluated
▁(5-
Hg
▁BMI
▁summ
▁pathologists
▁syndromes
crimin
lix
▁neutrophil
▁ganglion
▁shif
▁objec
▁67
▁MM
▁Delayed
▁conclusive
▁HCM
▁intake
urin
▁mimic
▁GSH
▁palsy
▁cava
lobulin
0.
▁interferon
okine
asic
▁microv
▁deli
▁defec
▁nig
▁50%
▁microvascular
-14
loon
▁VP
▁membranes
acerb
hion
▁reticul
▁endoscopic
brain
▁Cells
▁78
-3,
ergency
arbonate
▁proteoglyc
7,
went
▁ESR
▁0.6
▁cysteine
▁blin
sian
▁diffic
▁examin
▁unstable
▁(7
▁endothelial
ropyl
▁polymer
discharge
ompan
▁hypothal
▁cultured
▁trophob
atoid
▁carcinoma
▁metformin
▁putative
relevant
ults
▁nmol
encephal
▁expres
▁enhancing
▁neph
▁pathological
▁alterations
▁statis
▁monkey
▁antibodies
▁experim
▁fatigue
adenosine
▁RAR
▁hypothe
▁fractions
▁expon
▁calcified
TK
-9,
▁streptococci
LH
▁compartment
phen
urgical
pig
threatening
▁grading
▁cannulae
clim
iatric
▁evolving
iotensin
▁rati
ailure
▁cocaine
▁Trial
▁Tum
ophilic
▁torsion
▁collagenase
▁pene
quid
▁murine
▁antagonist
▁wean
ronchial
▁practitioners
▁CPAP
▁leakage
kines
▁phosphatidyl
oru
echan
ophore
versus
wk
69
ylase
▁21-
partate
▁ratios
▁tracheal
▁2.8
▁endoscopy
▁comple
3)
%).
▁granule
▁reflux
▁contributes
▁HSV
iosis
▁perinatal
▁cyan
Tc
▁schiz
▁flexion
▁hepatic
/100
kephal
▁24-
▁prostaglandin
9)
▁striatum
estis
▁nitro
occi
▁suppressor
▁(50
romed
▁(2)
amethasone
▁calmodulin
▁cros
trol
▁labial
ipit
tif
ectable
tration
▁glycoproteins
vac
ctomy
ept
dimer
▁discontinued
▁overestimated
trum
▁57
▁(13
▁disapp
▁acyl
▁leuk
▁determinant
▁[14
▁phosphorylated
▁conclu
▁inadequ
▁RA
450
▁endoc
dent
rague
0-
▁Serum
▁biosynthesis
▁Sprague
alsy
atid
▁radiolabeled
BV
▁TRH
rected
▁substances
▁embryo
▁isoproterenol
▁abundant
▁ammon
▁conserved
▁hormonal
▁exposures
tries
▁pyram
▁pharmacists
▁cerebellum
▁identif
▁extre
▁metastas
ressive
tric
▁versa
tensive
▁gastrin
iability
▁platelet
▁rhe
▁transurethral
▁toxicity
▁predominant
▁affec
osin
phyl
▁CsA
▁recordings
atine
HM
▁haem
viron
▁norepinephrine
▁plur
▁pmol
sions
▁parotid
▁scl
otor
▁assessed
▁GTP
ayers
▁utero
▁lipid
centr
testinal
▁peroneal
amycin
▁junctions
hips
tyl
othelial
▁retur
ffe
bumin
oxone
▁PRL
chloro
hydr
▁defects
▁14
▁Bec
78
▁hypothalamic
▁tumours
▁molecules
▁turnover
ymp
acil
▁endemic
▁soluble
oprote
▁striated
Ca
ophren
▁VL
▁ranged
▁resusc
▁plateau
▁100%
rotein
tivity
sively
oreceptor
67
▁dissociation
▁restenosis
▁placenta
osterone
▁deple
uclear
▁gluten
chym
geal
▁intraper
▁calor
retion
▁hamster
▁prevalence
▁Pregnancy
▁IgA
▁microgram
namic
00
▁SNP
▁mec
onin
▁combin
oradi
▁nuclei
▁cigaret
▁retina
AO
vertebral
▁CSA
▁hygiene
ocrine
▁chlor
+)
▁reagent
▁effic
mTc
icine
▁predominantly
aluation
enin
▁Findings
▁eyel
rati
▁linkage
▁HCC
▁detec
▁Improvement
▁practic
0%
▁repor
▁discern
PSP
▁10.
▁microscopy
▁injur
▁irritation
▁quantitative
▁biosynthe
▁ADP
▁unex
olateral
▁disadvantages
▁conformation
▁glutamine
odic
▁rabbits
lip
zation
▁immun
▁mucos
phosphonate
▁(15
oresis
▁CTL
erb
▁serotonin
ysm
▁multim
ropha
▁Surgical
▁cardio
▁scre
ncy
▁isot
urys
▁HDL
▁pati
▁0.2
dia
▁macrophage
ectom
▁sexes
Tn
rox
▁manu
▁180
▁lipoproteins
▁40%,
pT
▁PAN
▁fibrinogen
mentation
▁inherent
▁interf
otypic
trus
▁monol
▁construc
▁retinal
ivation
▁AGE
▁abdominal
HN
▁vasopressin
▁salivary
▁immunized
▁venous
-4-
▁bronch
▁hepar
▁precur
ipient
2+.
▁acetate
armac
vail
▁incomplete
▁cortisol
eroxide
ourable
▁inhibits
responding
jected
▁immunoreactive
▁hypertrophied
ilized
▁extraction
▁endarte
erable
▁mammalian
erop
▁CK
▁2.
▁oxid
▁COS
ritis
▁correlate
▁sedation
▁cytochrome
NH
▁inflammatory
▁hemoglobin
▁pharmac
▁carbachol
▁cereb
▁diluted
-20
▁adjustments
▁mV
▁occlusion
▁collagen
▁steroids
▁Inhib
▁propor
▁nal
helium
▁(4)
13
▁cerebellar
▁birthweight
cyst
▁coh
glutinin
▁necrosis
▁exer
opathic
dose
▁inhibiting
ecu
entists
▁Pregn
▁Failure
▁rigor
▁inositol
▁microb
▁cDNA
▁translocation
▁surgically
▁heavier
4%
▁stimulate
▁effec
ocele
▁parap
▁occupational
▁imaging
▁0.8
▁HM
▁geniculate
▁graf
jug
▁hypoxia
ulae
▁adap
mega
▁Hb
▁cys
orin
▁detrimental
lusion
ositol
▁300
▁magnesium
▁cytosolic
53
▁corneal
▁erythrocy
▁lysis
▁overexpression
▁toxin
▁VE
▁thromboxane
9%
mental
/3
▁aureus
eptin
ellar
▁cytosol
trast
gm
▁gonadotropin
ipitation
reported
ovine
▁interleukin
▁PMA
▁fluoride
▁serum
ffin
▁(198
rozen
▁polyethylene
gely
siology
▁reacted
▁HU
romy
ensitivity
▁collec
▁randomized
istrib
▁silicone
▁psychotropic
lyce
▁ultrastructural
ohyd
▁gly
▁echocardi
▁PCP
▁reflec
▁inheritance
▁circumferential
▁PMN
▁plasmids
▁mediated
▁lesion
▁linkages
▁chromat
▁(16
▁FD
2)
▁fasting
▁tachycardia
▁worsened
odiaz
▁seropositivity
-17
▁abolishes
▁lymphadenectomy
▁axillary
▁predic
▁carboxyl
omethacin
▁decreas
ventional
▁IVF
▁enrol
▁neoplas
▁stroma
atell
▁Afric
▁Dil
▁consis
▁desirable
divid
▁apprec
incubation
oyl
▁adrenergic
▁0.04
▁analogue
▁sarcoma
▁clinician
▁immunore
ergy
ximal
▁fluc
▁facilitated
▁cation
aturation
ileptic
▁leukocyte
icardi
tition
1.
chol
venous
▁saliv
▁undo
▁verte
▁occl
▁ligand
▁myocardium
4.
▁analogs
april
▁monkeys
reast
iferol
TNF
▁esophag
3).
CBF
▁stren
▁elec
titu
▁thal
▁bloc
▁oxygenation
▁LS
▁eryth
▁predicting
)2
ologic
▁iliac
iatic
1,
vaginal
▁squamous
▁corne
▁subgroup
▁tympanic
hesive
▁Vmax
▁drin
sion
.6
50
▁29
▁biochemical
▁tumors
▁plasminogen
▁Asp
immunization
Ra
renal
diol
osynthe
diagnosed
lob
tion
▁85
▁autoradi
▁wk
▁32
▁PET
▁3.1
▁Patient
▁antisera
▁postoperative
▁wors
morph
▁surgeon
▁prospective
▁palpation
▁carcinogens
uble
tivation
entical
▁198
▁500
▁contractile
35
tach
▁SG
ulfonyl
otin
anin
vival
trexone
rosis
▁obese
▁papill
▁splenic
atrial
aemic
▁reproduc
▁Intra
▁impair
▁islets
-2
▁termination
▁perfused
onomic
▁cerv
▁radiol
▁45
otypes
55
▁thresholds
4).
▁amino
▁discriminative
▁Ras
▁unrelated
/6
▁abdomen
▁beha
▁NP
▁endotoxin
orphin
adrenoceptors
▁oocytes
▁ket
▁efflux
▁radioactive
▁duct
cAMP
facial
ields
.6%
asses
▁DF
▁(20
▁supplemented
▁periodontal
▁Chan
hern
tained
▁inhibitory
idase
▁afferents
▁obesity
▁pyl
▁clamp
▁kidney
DH
▁kb
▁pancreatic
▁(0.
▁20
▁glyc
▁metabol
mobil
▁opioid
▁gangl
▁alve
▁adjuvant
tative
▁TSH
▁anatomic
▁antigens
▁remo
eded
▁gout
▁augmented
▁LOS
▁1
▁enzym
▁tas
▁fulf
uting
▁restric
▁allergic
▁Vitamin
▁tran
▁degen
▁sten
effectiveness
▁porcine
seud
▁nucleotides
▁questionnai
▁parag
▁longitudinal
▁examinations
