achid
▁dehyd
▁suggestive
▁onc
lyc
▁VO
amide
▁glucagon
▁intravenous
▁Plasma
▁scin
▁adenocarcinoma
▁physiologic
▁Doppler
sue
bumin
▁inhibited
▁intrag
andard
▁comparisons
▁ionic
ologous
cardi
▁undergone
4)
▁neoplas
▁ischemia
▁1.1
▁paren
▁neurons
ilization
16
ellar
ylchol
▁TRH
▁posi
▁ions
▁spati
▁67
affinity
centr
▁morphology
▁polym
▁sensi
▁fibroblasts
▁focal
▁PMN
▁anomal
MIC
▁irradiated
asone
▁macrophage
▁hepat
▁subunit
iliac
▁68
acrylamide
▁indomethacin
▁clones
iciencies
▁atrial
▁excitatory
uncture
▁gon
▁dendri
▁accumulation
▁(15
▁urine
▁40%
▁HLA
certain
▁cDNA
insulin
▁epidemic
ylcholine
atab
▁18
sors
plate
▁Swed
▁EEG
▁fluores
aptic
went
▁thrombin
▁(11
tance
▁aldosterone
▁mutation
▁56
tidine
▁ach
iotics
Ca
▁creatine
orectal
▁Immun
▁interleukin
▁adi
▁hemorrh
▁mutations
▁kidne
GH
▁3-
▁oxidase
keletal
lycer
astolic
▁discrimin
▁lymphocytes
thym
▁discon
40
▁virtu
ometr
osom
▁randomized
seud
.5%
▁keratin
relations
▁phosphatid
▁correlated
▁seizures
▁ery
tively
▁artery
.9
-4
idney
▁cytoplasm
▁clus
▁10
riched
▁injec
ritis
▁aerobic
ece
▁thrombo
▁amputation
▁SG
▁7-
▁staining
▁injections
virus
▁cholecystectomy
▁ultrasound
acchar
gene
▁albumin
▁selec
▁24-
▁SEM
▁psychosocial
▁monit
▁cyto
▁0.01)
▁membrane
▁antic
▁0.01).
eration
▁graft
▁pharmacological
oride
▁micros
rected
▁propor
▁adherence
▁derivatives
▁0.01
ocor
thma
▁mono
-30
▁bloc
atment
ocardi
▁surgical
▁disrup
ulph
tection
echanical
▁lumb
▁facilitated
/2
44
▁nutritional
otypic
▁transplantation
▁strom
▁perin
cepti
▁cla
▁Bone
▁longitudinal
ulla
▁angi
▁thre
▁33
▁enti
uron
▁adhesion
▁homologous
▁12-
▁predicts
▁pregnancies
▁decreases
90
dies
Phe
▁phosphorylated
▁nonc
xia
▁1000
▁implicated
8.
▁tiss
▁serotonin
▁occl
otoxin
acetate
reness
▁inges
ditions
▁incubated
▁catheter
▁nodules
cyt
▁epileptic
▁Nine
▁plasm
▁blot
▁carcinomas
ipit
.3
omycin
▁41
▁cues
▁obstruction
▁90
▁medial
▁herpes
rophob
▁yielded
▁sequelae
▁optic
▁microns
hospital
▁RA
▁hemoglobin
olateral
▁favorable
▁characteris
▁tomography
▁fibrosis
▁tach
▁deficiency
▁PAF
▁basal
eptid
▁mann
-14
▁laparo
▁37
phenyl
▁HC
oscopic
3%
▁Chemical
▁amines
▁exogenous
graft
▁macropha
▁metabol
▁tumors
▁terminals
11
▁64
▁1-
rever
oplastic
otox
▁valu
▁trypsin
tak
resist
anyl
▁clinically
▁PCP
▁complications
nucle
▁hypertro
▁RNA
-100
itus
▁concom
▁oxygenation
60
▁anomalies
urea
vices
▁hydrophobic
▁LT
▁underwent
sA
ofluores
/6
▁consecu
▁antagonists
▁24
▁correlates
tyl
ialysis
lasses
ectin
thle
▁(14
-3
▁kappa
aturated
▁verapamil
scher
▁docum
▁disapp
chol
iminary
sible
▁2)
ministration
▁electrophoresis
▁malign
▁neutroph
▁secretory
▁testicular
▁suppression
▁hemat
▁CSF
▁96
▁unclear
24
ecu
olarization
tinu
▁0.03
eak
▁palp
▁concentrations
ococcal
▁conduc
▁impairment
▁sulfate
iotic
AIDS
▁lam
entary
▁sero
▁algor
▁obese
54
tetr
Hu
▁duoden
▁gangl
▁coh
ceptive
▁infarction
▁FV
ophilic
▁gynec
truction
erative
ucle
▁follicular
rosis
▁cystic
▁prophylactic
oreceptor
▁chemotherapy
▁poten
oplasmic
▁favourable
▁dopamine
▁hemorrhagic
▁deterioration
amn
▁stained
▁4.
▁predominantly
▁glycoproteins
▁multim
▁markedly
▁ANF
▁aort
▁regar
8)
ogens
tamine
tering
terone
▁indicators
-19
resistant
ocortic
embrane
▁oxide
oresis
▁10(
▁cardiomy
▁arachidonic
▁utilization
reased
▁Tumor
ameth
▁immunode
▁Stu
▁CMV
▁utero
▁erg
aginal
▁currents
ulae
acetic
▁prolactin
atest
▁Lys
bic
trate
▁ultras
kele
▁prostagland
▁pylori
▁apical
▁Kup
illation
ervical
ortal
▁sci
▁iod
▁fixation
▁sensory
▁subgroup
onor
▁ppm
▁OC
▁insertion
cine
▁dissection
▁sequential
ochrome
▁concurrently
atase
▁injur
▁biosynthe
▁vesicles
▁sham
▁unde
▁creatinine
omiting
▁diffuse
cessive
▁nicot
▁analogues
rowth
kDa
coh
ogenesis
osomal
▁symptom
▁undetectable
▁fibr
▁disruption
responding
▁vesic
▁IgG
▁ile
▁physici
thrombin
10
invasive
▁abdominal
alian
▁bran
tate
gm
▁NaCl
79
versus
titution
▁replication
▁newborns
▁erythrocy
gely
crip
tub
.1
ranolol
FV
▁peroxidase
▁hemo
▁lumbar
gmental
-2,
▁traum
▁ech
tox
opa
▁0.000
clin
rehen
lood
othermic
▁cohort
18
▁injected
▁clearance
minis
mittent
▁recurrence
▁colonization
▁arteries
▁10,
treated
atid
lix
▁tyrosine
ylline
▁hormone
▁adop
▁molecules
▁Plas
▁tumor
▁sph
▁insertions
▁viruses
▁prospectively
▁ana
TG
▁6
arbox
alanine
▁66
opi
▁thyroid
▁centr
bodies
▁hydrolysis
▁ambient
eroxide
▁arter
▁AMP
ocaine
▁chond
ergency
▁zinc
blast
odic
tron
-17
phal
▁plas
▁enrolled
▁saline
▁slices
filtration
receptor
entral
▁7,
▁(20
▁cytotoxicity
phyloc
▁cadaver
rine
▁produc
▁metastasis
rectomy
▁hospitalized
▁Patient
▁severity
tif
▁depressive
urine
idis
ocar
▁chloroquine
▁assessed
▁8
hern
▁resol
▁consequently
▁endothelium
uvate
▁amo
▁proliferative
tric
▁epinephrine
▁nasal
▁transpor
tig
▁collagen
▁parental
tries
saccharide
▁hydrox
▁glands
▁chan
▁gradi
-0
▁(0.1
clerosis
▁adaptive
▁preparations
▁fetal
enzyme
▁0.05).
ortic
▁substantially
MH
▁aneurys
omal
▁carbox
▁TB
▁moderately
athione
▁cardiac
sych
omial
▁0.5
▁anesthetized
hyde
▁therapies
▁rectal
kine
▁tissues
▁IgA
▁immunore
▁saturated
▁deple
▁donor
▁immature
▁tec
tures
ylate
▁fron
▁mitochondria
▁chori
essel
▁depletion
▁asymptomatic
▁BALB
▁epithelium
▁predictors
▁saturation
▁genotype
▁modulation
▁antibiotic
▁HI
iasis
▁ACE
ochondr
amethasone
▁muta
▁thickening
▁ADP
▁PCR
▁VL
▁oste
stim
▁15%
▁Acute
sulf
▁21
▁5%
▁antigen
till
▁antigens
▁3
IgM
▁axons
▁unres
▁acetyl
7)
siveness
▁fractions
▁dissec
▁Serum
▁predictor
agit
▁tymp
selec
▁cholest
ogenetic
sus
▁somatostatin
▁contrac
gents
▁bac
onucle
▁34
▁cytos
▁homogen
▁supplementation
aline
agic
▁morphological
▁upstream
▁intensive
lier
otyp
4,
carinic
▁pneumon
kground
▁Experim
48
▁45
▁pigmented
▁adjunct
▁mandibular
piratory
▁norepinephrine
monstr
▁synchronous
▁biop
▁extre
▁flexion
etal
▁Escherichia
49
cious
▁muscarinic
▁MG
itoneal
lobin
▁melatonin
▁reductions
estis
▁influx
veolar
▁judged
tagland
entan
isol
▁pediatric
▁neurological
▁evid
▁spectroscop
▁amino
ociated
▁limb
olysis
ergen
oag
onuclear
▁alterations
▁Significant
▁SLE
▁reagents
▁(12
▁46
osynthe
▁hepatic
lectomy
▁analysed
28
5%)
▁natriuretic
▁70%
diagn
▁hypothalamus
▁determinants
iol
▁ranged
▁conduction
▁glycogen
▁reproduction
56
▁supple
▁intrauterine
phen
▁79
▁PB
OH
▁inser
ilateral
tis
erox
▁inositol
▁Accordingly
▁rehabilitation
▁urinary
iatum
▁behavioral
kines
protein
▁196
▁precursors
▁Tran
onset
olone
lyce
itin
▁subpop
▁polypeptides
infected
ionine
▁defec
ecal
▁adequ
75
duce
▁bronchial
cephal
entanyl
lysis
▁Intra
inephrine
▁rabbits
ubation
▁extrac
▁hypoxic
▁quantif
▁trophob
anine
▁genomic
▁ischemic
▁respec
ilic
▁1987
▁vaginal
▁embryonic
▁pulses
▁(4
ospor
▁sulph
▁tetr
gluc
▁pulmonary
▁transcription
▁adjuvant
▁infants
▁limbs
▁coronary
▁0.8
immun
ancre
▁degeneration
13
▁demonstrating
partate
▁perip
▁prono
▁ethanol
omethacin
▁postnatal
▁qualit
ventricular
▁thresholds
▁establ
oscop
▁hyperp
cysteine
▁invasive
▁examinations
threatening
occus
▁dele
ovascular
▁donors
▁cocaine
▁reper
▁0.3
▁differed
regn
▁uncom
▁maternal
enhanced
▁physiology
assay
romed
▁pelvic
▁immunos
ologic
risk
-1)
▁MH
uppres
oracic
▁induc
▁arti
▁measurable
▁contrib
apeutic
▁strains
▁IB
▁demographic
estions
▁15
▁socioeconomic
▁adolescents
▁heavi
▁symptomatic
▁acqui
lux
entical
▁conductance
▁dodecyl
ectomy
▁variants
▁beha
-16
▁elucidate
asic
▁sequentially
▁monol
geal
tially
mobil
▁acetate
▁transplant
▁biochemical
oung
▁autologous
▁stroma
▁intravenously
▁membranes
▁synthase
+,
▁births
▁subc
▁Previous
▁fibrob
loon
1)
▁COS
idine
▁gluc
▁oxy
▁glu
pecially
▁cephal
▁canc
▁10(-6)
kephal
▁androgen
▁SHR
HF
▁abnormality
▁foc
▁epidermal
methyl
agin
▁fluorescence
▁19
▁resec
▁predictive
▁300
▁recor
EG
▁pineal
▁forskolin
▁obesity
pir
▁initiating
unctions
brain
▁satis
anic
ondr
-6
▁reag
derly
▁sple
▁localization
▁carcin
1).
athy
▁induction
▁TC
▁endoscop
▁1.5
▁tumour
activation
▁surgeon
ogenous
▁72
orrh
ffec
▁3'
carb
▁ELISA
▁Biochemical
▁demonstrates
onit
pecific
▁localized
▁empir
obarbital
▁alk
▁microM
▁diluted
▁85
▁skeletal
ints
▁ANP
▁LS
mediately
▁exposures
▁hepatocytes
▁WHO
▁bilateral
▁effector
▁plaque
▁Clinical
erent
▁employing
▁usefulness
aneously
.3%
▁12
▁expressing
▁[125
embr
▁platelet
▁statistically
iosis
▁underst
▁catheters
▁gyn
gland
atoid
▁ow
hion
▁modulates
▁59
▁allergic
▁embryo
▁(3
inic
▁periodontal
▁IFN
▁mediates
▁pituitary
▁phosphatidyl
▁cytochrome
5)
-5
▁inhibitors
sia
▁1)
▁Cushing
▁metastatic
obarb
▁Chan
▁(+/-
otor
entricular
▁pla
tious
▁BP
▁gastro
titu
7%
▁differentially
onography
▁polymorphism
urate
1%
omat
▁pene
ergic
licular
▁selective
▁tertiary
▁simult
▁Contr
▁0.00
▁compli
▁(13
▁pH
▁spon
tence
rotic
▁51
▁bile
▁recessive
▁venous
alc
▁intestinal
▁HPV
▁prolonged
ameter
▁unstable
▁improves
ffinity
▁resusc
▁streptococcal
▁SCH
▁vein
▁pati
▁cirrhosis
tradiol
▁uptake
▁superficial
urin
▁deform
▁52
▁endot
otides
mL
▁gastric
▁degradation
0,
▁filtration
▁Thromb
▁yr
▁carcinoma
tured
osts
)2
▁estimating
ymme
▁hemorrhage
oplasty
▁rotational
▁CK
▁LN
2/
tum
tents
▁rabbit
▁reacted
tility
▁impair
▁extraction
▁electr
▁unilateral
▁esophag
idated
▁undertaken
▁withdrawn
▁carriers
▁stimul
▁glut
▁49
0%
▁necrosis
▁cyclase
▁histologic
▁nucleotides
oprotein
ediatric
▁lactate
adder
▁tidal
▁(0.0
▁Treatment
estig
▁ACh
▁anesthe
▁neurones
▁hypothalamic
angl
▁bovine
▁glucose
amines
▁reproducible
▁inapp
▁conclu
itone
crib
▁immunodef
▁tas
▁cortic
acted
Tc
functional
ectomized
osocial
▁operative
▁arterial
▁strep
▁transloc
arean
▁differentiation
ropha
▁transi
▁elevation
▁amp
tration
▁spontaneously
▁onset
tions
▁accep
▁sut
▁60%
ucine
▁theore
▁simultaneous
rocy
▁reticul
▁estradiol
ffer
rological
▁acidosis
+)-
▁precur
▁2.5
orax
▁kinetic
▁binds
▁throm
idation
▁dysfunction
▁wk
▁intake
jun
▁responsiveness
▁granules
▁tol
▁discharge
▁cAMP
▁60
▁differen
▁hypertrophied
▁transcripts
cence
▁shor
mTc
▁regimen
▁angioplasty
▁indications
anding
'-
atonin
▁metabolites
orac
▁(6
toxin
▁regis
▁hygiene
▁0.01),
▁attenuated
scop
▁apop
▁inflammatory
▁phosphor
plas
▁tended
asal
▁exhibited
oxin
gans
▁angiography
▁synaptic
▁glomer
▁neuronal
▁glycos
▁sepsis
▁synovial
▁glutathione
▁DF
▁deletion
4.
▁bowel
▁mM
▁distinctly
namic
atif
olip
▁preterm
olgi
acetyl
▁stellate
▁discus
▁testosterone
▁.00
tial
idne
▁chromosome
6.
▁36
▁endoscopic
aventricular
atell
pig
ineal
▁ester
regulated
osine
cture
▁embry
▁irradi
▁Fc
▁antigenic
▁Comparisons
▁ald
.8
-2-
▁benign
▁umb
▁molec
▁insufficient
35
▁chec
ociation
icin
imens
tion
produc
▁pancreatic
ivariate
2+]
acet
tophan
▁ganglia
▁retention
Hb
▁carotid
idin
fat
Hg
▁connec
FU
tur
▁awa
▁bp
facial
▁TA
▁transient
▁rhy
eptides
▁impaired
▁32%
▁scintigraphy
▁(18
▁mL
▁biosynthesis
vac
▁thal
▁fentanyl
▁80%
▁PV
▁autosomal
odialysis
450
▁kidneys
deficient
▁bene
▁preservation
tional
▁locus
dition
▁isot
imin
▁lymphoma
onyl
▁distal
tive
▁immunobl
ifedipine
▁gp
▁peripheral
▁subjected
14
▁uter
▁Chronic
-8)
vul
tice
▁3.
78
▁0.001)
treatment
▁microvascular
tages
IFN
▁ventilation
phosphor
▁superoxide
▁LC
▁melanoma
▁morphine
eal
▁chromatography
▁infections
benz
lec
▁apex
acerb
▁numb
labeled
▁cellular
▁glucocortic
▁extracts
uria
▁inh
▁intram
▁manu
urons
▁PSA
▁substrates
oclonal
7,
▁ultrasonography
▁ovari
▁adenosine
▁thorac
acental
alp
osyl
sensitive
▁predominant
▁lis
sion
NB
▁sodium
▁fibroblast
▁bypass
▁mug
▁aden
assi
▁viral
containing
.7%
IU
minal
▁affinity
tural
▁encoun
▁leukemia
piration
rents
▁thromb
ograms
urys
▁cyclic
▁(16
rease
▁manifestation
trac
▁clamp
obl
BW
▁paradigm
ocardial
iary
▁42
▁ouabain
▁resemb
▁cation
▁ventricular
▁filaments
▁suppor
▁coex
▁undergo
ilep
▁Phy
lys
orepinephrine
▁10%
30
RH
▁70
▁.0
▁microsomal
▁adhesive
taining
accharide
▁HDL
▁metabolism
▁pathways
MN
opamine
▁prevalent
▁transcrip
ylated
aminergic
▁scans
▁proce
▁inactiv
▁catalytic
▁multicenter
▁secreted
▁phosph
olol
▁retic
▁vascular
▁fas
▁Thir
▁[3
▁fulf
jected
▁decreas
▁spi
uptake
▁projec
▁nucleotide
athe
▁immunofluores
▁myocardial
▁mammary
▁Bec
▁conserved
▁hydrogen
▁adrenergic
▁199
▁positively
▁polyp
▁suppressor
▁yiel
▁circulating
▁disappearance
▁mmol
oic
▁abd
▁repres
odal
associated
▁satur
▁familial
▁asthma
0.5
▁carcinogens
▁(30
.2
▁deprivation
▁inhibition
▁antagonist
/3
opoietic
▁Whereas
▁granul
omerular
ietic
ipitation
▁dosing
▁hemodynamics
▁(10
▁pathological
2),
▁peptides
▁hetero
▁enhancing
▁reflecting
▁lipids
▁lar
▁(10(
▁soybean
▁1,25
▁GnRH
▁adequately
▁unexpl
natal
onc
9)
▁deterior
▁trig
omies
▁quanti
immuno
▁anat
▁perfor
▁21-
▁symp
urgical
▁LD
▁oes
▁IgM
▁TSH
▁complexes
tic
erine
▁exten
azole
▁Multiple
▁concurrent
▁differentiated
uscular
▁anatomical
▁cathe
▁cyt
▁connective
▁arginine
▁sial
▁aggregation
▁reduc
▁nitrogen
oprote
▁evaluations
ynthe
adm
8+
illin
loid
▁defects
tingu
▁Removal
▁restric
birth
▁scre
DG
▁cultured
▁EGF
icardi
▁synthesized
▁adenocarcin
antial
▁chloro
▁potency
mitter
76
▁polyclonal
hydrox
▁homogene
otomy
▁unaffected
▁excision
▁stenosis
▁porcine
▁resis
okine
▁10-
▁glycoprotein
▁diastolic
▁Compared
▁chamb
▁grading
dominal
ffin
▁acceleration
qui
igaret
8,
▁contralateral
▁eryth
▁enzymes
▁noradrenaline
▁tryp
rene
eliac
▁OT
▁sedation
▁techniqu
▁coli
nthe
▁syndromes
▁lipid
▁TNF
▁instability
ocl
▁brady
▁preoperative
▁colloid
▁prostaglandin
▁testis
▁newborn
▁perc
▁traumatic
idase
▁mmHg
ariate
iotensin
▁anatomy
▁Neu
▁HL
▁serine
▁elimin
▁MM
▁minimally
▁mice
MDA
▁shorten
trip
▁corne
▁confined
lesion
▁monocytes
▁wee
opro
otropic
▁insuff
▁benz
▁femur
▁outpatient
▁indi
ustif
▁protoc
actin
9,
▁residue
▁bip
▁irradiation
operative
▁platelets
▁53
▁smo
▁markers
-7
ulose
▁bacterial
▁repro
▁1.2
ronchial
▁compe
▁tracers
▁residues
greater
osin
.7
▁leukocytes
%).
▁facilit
▁previ
50
▁MHC
▁distrib
esthe
▁39
▁oxidation
▁adenomas
acyl
▁eluc
tization
▁exer
oconstric
▁substitution
▁regulated
regulation
▁aorta
vents
▁cereb
0%,
▁subunits
▁colorectal
▁multic
▁synthe
ginine
gative
▁coval
▁radiotherapy
rested
4).
ressing
▁embryos
ophil
▁soluble
▁chlor
▁7
roximately
▁mumol
▁organs
▁prognosis
2-
iably
▁detachment
▁stimulate
▁microm
▁tran
▁saliv
▁ketamine
▁0.6
▁metastases
▁astro
▁osteoporosis
meth
▁eosin
▁exchan
▁membran
▁variability
▁accounted
▁preventive
▁intrac
▁contributes
leukin
▁PMA
▁infused
▁phospholip
5%
bral
▁schiz
▁arachid
▁Phen
fts
▁vasopressin
▁overlapping
▁immunological
thmic
▁MRI
21
▁100%
▁athe
▁illustrate
▁stimulation
renol
feren
rele
tiveness
80
ylation
▁lact
▁clon
▁reac
▁cows
▁ESR
▁epidemi
alact
▁acetylcholine
▁olig
▁ventil
▁thrombolysis
▁depr
▁drainage
▁isolates
▁hep
▁Km
ogenic
▁hemodialysis
▁follic
▁streptococci
otone
▁manifestations
▁inactive
▁microscopy
▁TG
esti
▁RB
vascular
▁carbohyd
▁hamster
▁retrospective
▁dialysis
▁400
lob
▁interv
duction
▁35
▁0.9
▁distinguishing
-2
▁circumferen
▁LF
▁RBC
vely
coun
27
vival
ophore
▁hCG
2%
▁Hz
▁oocytes
ignant
▁prostate
yroid
▁exis
▁toge
▁immunoreactive
▁stimulated
▁confir
▁probes
▁collateral
▁Vmax
▁seroton
▁Golgi
▁cirrhotic
▁underg
trition
67
ranial
phyl
▁assayed
atient
▁carc
▁gly
▁prel
▁1.
▁laboratories
▁hypertensive
▁objec
▁contraction
eptin
toph
tant
▁27
adequ
▁deficits
▁85%
▁mononuclear
ocyte
▁kerat
45
iversity
▁reagent
/1
phil
ept
▁heparin
▁uncomplicated
▁neutrophils
▁inherent
omod
▁BAL
▁chemo
amus
▁predic
▁ascer
▁+/-
rotid
adily
oA
tension
29
▁nuclei
▁anemia
titial
▁infec
▁OA
(+)-
tention
▁stimulatory
.6%
EGF
▁pneumonia
ypical
▁causative
▁radioactivity
▁developmental
▁atrophy
aryn
eric
glutinin
▁progn
▁enl
wenty
ardia
▁inappropriate
echn
▁hypertension
▁ACTH
▁cardiovascular
▁inten
▁APC
uting
ohyd
mend
▁NK
▁phosphatase
▁differentiate
▁inflammation
▁arteri
-12
▁congenital
▁lysis
onin
▁30
▁systemic
ergy
▁38
▁subtype
▁attrib
ositol
▁reliably
▁maturation
▁ATP
rangement
labelled
▁implant
▁specificity
▁validated
▁ae
▁macrophages
owel
▁2-
sies
tabl
ichia
ethyl
pinephrine
▁cloned
▁opioid
9-
▁CG
▁Severe
▁cervix
▁alcoh
▁melan
▁intrav
▁neph
▁0.
ophag
▁sucrose
trum
siologic
▁ventricle
▁inhibitor
▁cava
▁surgically
▁mutants
-8
▁GI
▁leukocyte
▁toxin
▁unexplained
physiologic
▁0.7
osome
▁dosage
▁fetuses
teroids
▁solub
ronectin
▁immuno
▁circumference
ternational
▁aortic
▁50
▁5'-
9%
▁1.6
.0
▁atherosclerosis
intestinal
years
▁quantitative
bular
▁metabolite
tel
▁kb
▁initiation
mentation
▁reflec
adherent
avage
▁detec
▁collec
▁regulate
▁endometr
ensory
▁vaccination
economic
▁fetus
▁reperfusion
oradi
▁secretion
▁9
▁analogue
uble
ults
itance
opathy
▁DG
▁leakage
▁quin
apamil
▁immun
▁feasible
▁atres
ycin
▁isoform
tituted
125
▁sti
▁micrograms
▁airway
ullary
▁implanted
platin
▁toxicity
▁visually
▁sedentary
▁adolescent
vity
▁microv
▁compartment
▁dietary
8-
▁diame
▁substances
▁relap
▁antibodies
▁elevated
▁apo
▁nmol
▁cirrh
lycerol
▁hemodynamic
6)
▁iso
▁gland
ionic
▁readings
hers
gesterone
jec
▁cutaneous
▁capillary
▁potenti
▁thi
▁ultim
▁atresia
▁substanti
▁pathway
▁drin
▁neurologic
▁acco
mature
▁beats
▁conformational
▁cancers
▁Biochem
▁immunoprec
▁remission
▁myo
▁pyramidal
▁homogeneous
abies
etitive
prising
▁Continu
sively
mented
lusion
▁adduc
0.
epam
▁potent
activated
fron
▁14
occi
▁degrad
▁retur
tro
ensitivity
▁monkeys
▁prospective
aturation
▁haem
0,000
▁evoked
hydr
▁labelled
othel
▁dissociation
▁reactive
▁malignant
oxid
▁heterogeneity
▁emerg
▁combin
ovirus
▁resuscitation
romes
34
olism
icine
▁sperm
enia
ymptomatic
▁depolar
▁NADP
-3-
▁recordings
valence
▁requi
orbol
BV
▁hypertrophy
terase
▁cleavage
pine
oreactive
adrenergic
yel
▁evol
perfusion
clic
▁GV
▁shortening
▁sclerosis
▁alveolar
wk
planted
▁neutrophil
pendent
immune
4%
sities
vic
amino
▁PET
▁discontinued
RNA
encl
▁complication
quit
▁reflux
bacco
▁PKC
▁0.05),
uterine
▁elec
▁hypo
▁cerebrovascular
▁refrac
duced
robic
20
plasia
▁appropriately
70
▁supernat
▁conformation
▁120
▁cen
▁alve
▁10.
glutin
oprec
▁3,
ected
▁correlations
ayed
▁interpre
moid
▁morphologic
xone
urgery
▁antiserum
galact
-15
▁definite
oglobulin
▁juvenile
▁synov
▁subjec
▁postoperatively
▁lute
▁HM
siological
▁endoc
▁cataly
tent
ropyl
▁doses
▁genotypes
▁pancre
generation
▁LDL
kinin
▁polyps
aluation
▁nitro
inergic
▁5
▁mitral
▁curative
▁tumours
emia
▁(1
ctive
▁atropine
yses
▁sympathetic
▁constitutes
▁intra
▁elimination
▁assessing
.2%)
▁endothelin
roscop
▁80
▁Samples
erence
▁comprehen
rogenase
▁infiltration
▁plasmin
▁prolif
veness
▁periodon
itrate
▁follicles
▁acids
▁balloon
▁pall
blind
▁cerebral
uccessful
▁250
bloc
▁cardiomyopathy
▁cortical
ayers
teine
▁mucosa
hemical
▁assemb
mia
▁mutant
-20
▁quantit
olus
tual
quid
opres
ximal
oluble
▁promoter
vice
▁500
-1
▁gradients
▁62
▁susceptible
▁selectively
▁stimulating
▁Hep
▁vitamin
▁bronch
▁topical
▁6,
▁respiratory
razole
▁polymorph
▁contex
▁concomitant
vation
operatively
▁prostatic
▁umbilical
▁insufficiency
▁Hyp
NH
ulatory
▁attenu
orin
▁spinal
▁interstitial
▁proximal
anthine
maximal
▁morb
▁gestation
elec
▁chemot
ncy
▁adap
trop
plantation
▁HS
▁79%
dor
▁RP
▁fatigue
mediated
▁latency
▁thoracic
▁replic
gth
tisol
▁4-
tensin
▁2.0
atients
▁suppressing
▁mortality
▁19%
erance
▁msec
ophageal
▁synap
jug
▁modulate
▁43
iae
▁pathogenesis
▁6-
itro
▁infusion
▁attemp
▁urea
▁assay
▁intraven
▁5'
▁retinal
▁Addition
▁opi
▁aspiration
tens
ynaptic
▁erythrocytes
▁epitopes
▁characterize
resting
▁1.0
▁kinase
osterone
versely
▁postmenopausal
▁hydroly
▁44
ituitary
glyc
▁lith
ecre
-[
ysm
tabol
▁reproduc
1-
owever
▁suppres
omers
▁epitope
▁monke
▁bir
▁histamine
▁100
▁chemotactic
▁dorsal
kage
▁promo
▁consis
▁arrhy
hea
▁isoproterenol
armac
46
▁physiological
▁bipolar
nRH
▁inhibit
▁Throm
▁1:
▁Increas
▁IGF
▁spre
▁hormonal
▁canine
gia
tained
▁PF
▁blockade
derived
▁20
▁afferent
▁lateral
▁fatty
aryngeal
▁phy
trol
LISA
testinal
▁0.4
menopausal
abain
▁enzymatic
▁incubation
▁interf
▁(19
▁LPS
▁palli
▁affec
▁mAb
▁perox
acting
31
69
▁AMI
▁enrol
crimin
▁tox
luent
esic
▁infar
▁statis
HM
▁investigations
helium
dehyde
tryp
▁trac
▁tric
oxide
kely
phasic
▁tibial
fused
▁myocardi
▁monitored
▁neonatal
▁memb
▁Increased
▁predicting
rox
▁prednisone
elan
65
▁gallst
▁aor
▁125
embran
▁GABA
▁proliferation
▁tubes
ureus
aemia
taken
▁normo
▁intermittent
otroph
▁molar
▁guinea
.4
lycemia
monary
,000
roph
▁pressures
phosph
▁efflux
▁psychiatric
5-
▁elicited
▁electroph
▁implantation
onomic
▁2,
terminal
▁0.05
tage
▁progen
▁devi
7.
▁tachycardia
▁agonists
bac
ostatin
▁trache
▁rejection
▁mucosal
▁feasibility
▁synthetase
▁discomfort
▁diffic
▁sugges
▁197
▁genic
▁perfused
32
▁analyses
cis
▁eti
▁interferon
DH
▁radioimmuno
▁phorbol
▁evaluating
▁Phe
▁pate
▁depres
grees
▁lamb
istar
enteric
▁antagon
plants
▁recom
otropin
diol
▁construc
▁duc
▁17
▁heterogeneous
zard
stolic
▁hipp
bladder
nai
▁recurrent
oplas
▁accel
▁16
▁perme
▁progression
▁(0.
▁congen
-5)
▁adjustment
▁methyl
effec
.8%
19
▁inadequate
▁cytosolic
▁cervical
▁chromosomes
▁cys
lasting
ropriate
raine
uran
dose
▁hap
▁promin
▁resected
▁amput
terol
3)
▁adenylate
▁assessments
▁obser
ocrine
affected
utions
▁0.001).
chym
▁TK
opo
rogenic
▁(50
▁(2
▁cortisol
lac
4+
▁3.5
luded
otent
independent
▁pulp
uccess
5).
aemic
-4-
urrent
▁immunization
000
▁develops
▁ADH
ontal
vated
rogra
eded
▁rheumatoid
▁Concomitant
▁4,
.2%
▁reversed
▁IU
▁prosthe
CoA
▁Intravenous
-7)
▁biopsy
▁(1)
-1.
ochem
OA
▁5,
occal
▁aspec
kinase
37
▁cytoplasmic
responders
▁calcification
renal
▁thir
▁sampl
▁65
ilibr
▁clinicians
▁modality
thase
▁fluorescent
▁entero
▁cyclo
reast
/100
▁aureus
▁kine
ropriately
ompan
▁abnormal
▁pmol
▁correlate
illary
▁repor
irc
▁AIDS
▁exclusion
HB
▁fractures
▁Asp
erad
athetic
▁adhe
▁interventions
▁retin
▁graf
▁ascertained
▁complementary
ronch
▁caud
otting
▁fati
/10
▁muscul
▁lobe
25
▁extensor
▁IgE
▁CCK
▁endothelial
tead
▁Surgical
adiol
▁acet
-1-
▁2.
▁ulcer
97
roma
▁vaccin
▁GFR
▁biom
▁causal
▁unchanged
▁mitochondrial
▁1%
▁NP
▁cef
▁prognostic
▁fibers
▁0.0
fos
▁CI
▁deficit
▁struc
▁hybridization
▁discern
▁resour
omized
▁cigarettes
▁diabetic
▁indicative
▁ventral
▁compartments
▁arthritis
▁pharmac
otassium
amate
atical
▁subf
▁neo
▁lymphocyte
ivation
oxia
▁fasting
▁anaesthe
▁placenta
CSF
▁hemisphere
adrenaline
totic
nec
▁11,
▁intest
▁(9
▁mutagen
▁natri
▁debr
▁99
▁dehydrogenase
▁anatomic
ields
pation
▁lymph
▁pelvis
▁chor
lip
▁PTH
▁actu
▁haemorrh
▁dors
▁shortened
0%)
▁grafts
uted
lep
▁CRP
atrial
▁occlusion
▁cartil
▁insulin
▁cytotoxic
▁therapeutic
▁hippocampus
▁analges
incubation
▁13
▁studi
▁decreased
▁1.7
▁relapse
▁rati
▁5-
spective
▁enlarged
▁reas
▁residual
modulin
▁allo
▁mV
▁somatic
▁endemic
▁overe
▁stimuli
▁5.
▁CNS
▁4
▁renal
▁esophageal
Ds
ostic
opha
quine
▁NB
▁empirical
▁contractions
▁28
▁54
lact
99
ectom
▁uncommon
tomy
phic
glut
adic
ocamp
PAP
ofol
ithi
▁rhe
trin
▁salivary
idate
▁(7
-6)
17
▁metabolic
▁junction
transferase
▁hormones
▁hypog
▁respondents
ophren
▁agonist
▁200
▁proton
osition
▁sequel
▁etiology
▁pancreas
▁laparotomy
▁radiol
1,
acr
▁induce
▁resonance
▁PRL
▁peritoneal
▁thym
▁bolus
ropine
▁0
▁differing
▁cis
▁Kupffer
6%
▁purified
▁guan
mol
▁47
▁hypox
▁potassium
omical
▁prophylaxis
BK
tation
▁sarc
▁orally
trogen
▁amin
▁mell
▁tamoxifen
tics
▁20%
▁confound
▁recipients
▁microcirc
▁microscop
▁premature
▁epit
53
▁neoplasm
▁intrap
essive
▁reflex
tin
erving
▁inhibitory
▁Taken
inhib
▁31
▁oxidative
tically
5.
▁nifedipine
▁haemorrhage
sess
▁poorer
▁VE
▁1
▁identif
▁substituted
▁Tum
▁intraoperative
olec
inj
▁75
▁palsy
▁routinely
▁Cox
ilized
olesterol
▁elic
▁imaging
esity
ximum
▁discom
▁inversely
▁brom
▁recombin
tact
▁ure
▁scanning
TNF
unctional
tory
▁cyclosporine
▁contamin
▁grouped
oxidation
▁abdomen
▁cytosol
▁anastomosis
▁GTP
▁genome
ylase
▁restenosis
▁cerv
▁Mg
▁pretreated
▁extracellular
asive
inemia
fec
ylamide
▁iliac
▁transfusion
▁30%
▁echocardi
oglobin
urc
▁specimens
▁swelling
ATP
ration
▁pancreatitis
▁examin
▁intestine
▁rabb
▁crest
▁prol
▁resto
▁Hb
▁radiographic
▁acidic
▁geniculate
▁phosphate
▁kDa
pH
▁contractile
▁reticulum
trus
▁lesion
84
▁2
stimulated
▁lumen
ignificant
▁mRNA
▁phe
ighted
toc
ovine
▁inhibin
-6-
▁surgeons
▁influenza
trib
▁endoscopy
▁0.001),
▁systematically
▁tib
▁effec
tero
▁untreated
ostat
▁suscepti
▁cumulative
lated
▁perfusion
mental
▁arth
ochemical
▁increas
rae
othelial
▁reproducibility
ithin
▁oxid
▁Mn
oproterenol
▁reactivation
▁valve
▁interc
otypes
▁substitu
▁57
tase
▁striatum
▁mitochondr
▁Biol
▁preferen
2+-
▁panc
oceptor
-4)
▁hospitalization
tral
▁29
▁tubular
▁shif
odium
▁sexes
▁microscopic
▁phenyl
▁rats
alsy
▁appreciably
onate
adren
▁hypers
▁suppressed
▁murine
leu
tus
▁erythrocyte
tiz
▁(100
▁incorporation
▁thymus
lobulin
queous
▁phagocytic
▁pathologic
atories
▁serum
▁steroid
▁ane
▁poin
6-
▁dex
▁(3)
▁ocul
12
cents
▁adrenal
▁carbohydrates
▁marrow
▁inhibits
▁vasodil
clinical
MV
ifed
▁incub
deoxy
bly
-1,
hyd
▁turnover
88
Ts
olated
▁TGF
atinine
▁amyl
▁peptic
▁anesthesia
▁7%
induced
alues
15
▁multivariate
bility
ureth
▁consequent
▁incidence
oxic
ods
▁inoc
versity
▁1988
▁agon
▁1,
▁FS
▁preven
▁ischem
feron
▁phospholipid
hydroxy
▁linoleic
/-
ifferen
epti
▁90%
▁administered
orption
▁ablation
▁displacement
genesis
-10
▁reductase
2%)
▁TCR
▁lys
ocarcin
ulmonary
▁remo
orpor
▁chloride
iability
lox
ipine
LV
▁efficacy
▁precursor
-60
85
venous
▁advan
▁ovarian
▁pharmacokine
▁Cyt
▁Comparison
▁retina
▁morbidity
isqu
▁11
chlor
▁tracer
▁competi
phosphate
▁microgram
▁potentials
enic
▁effic
▁gamma
▁dexamethasone
▁investigating
roxim
▁hazard
▁organisms
▁ascertain
▁gallbladder
▁paradig
radi
-3)
▁autoradi
▁synthesis
▁proportional
▁cytology
▁diminished
▁thromboemb
▁ket
(2+
▁IIb
▁TPA
▁ligand
astric
▁infectious
entif
▁prophyl
▁mellitus
▁ventilatory
oside
-9
▁labeling
▁nec
▁percutaneous
assium
▁proteins
▁kidney
▁8.
▁glutamate
▁HCC
▁hypoth
▁recons
▁intrinsic
6,
▁spikes
unced
▁catechol
▁immunohist
▁parame
▁compounds
▁hepar
▁homology
▁clinics
acil
▁lesions
▁hippocamp
▁regimens
▁parotid
▁atheros
▁anticoag
▁susceptibility
turb
▁ammon
2+,
IIIa
illus
ifugation
odil
23
nutrition
▁detectable
oratory
▁ambulatory
fected
xual
▁behavioural
▁adren
▁vomiting
fusion
▁86
▁cyst
▁hams
▁fibronectin
▁MV
enol
truc
▁vivo
▁hypothal
ocytosis
▁wt
Ki
▁acute
▁sulf
▁sciatic
▁phosphorylation
▁desm
▁practic
ATPase
▁validity
▁conjug
▁definitive
▁0.2
▁sphincter
otide
▁angina
▁10(6)
▁1.8
▁HB
▁actin
▁cholinergic
▁bronchi
▁estrogen
oxygen
▁permeability
▁influenz
reactive
acin
clonal
▁corneal
5,
7-
▁sten
▁25%
ocellular
▁LV
▁biliary
▁torsion
▁0.05)
▁polymer
oglyc
▁150
▁[14
rati
tec
▁postoperative
controlled
teroid
▁regression
▁innerv
▁peri
kade
▁somat
▁antiser
▁systolic
▁inters
thmias
viron
▁homogeneity
▁lectin
ocular
atitis
ivocal
gic
▁chol
▁pacing
ocarcinoma
hydro
▁heterogene
▁stren
▁schizophrenia
erated
eptidase
▁32
opausal
00
▁coag
▁radiological
onary
odon
erents
anin
▁fluor
oscopy
zation
▁hypothyroidism
echan
▁4)
▁sacr
▁radiolab
▁diets
▁endotoxin
-13
erate
▁diabe
▁paraventricular
din
▁persis
▁edema
▁50%
▁putative
▁buccal
.5
mide
▁isch
▁(5
+)
ocyt
▁Thirty
▁restor
▁intracellular
▁inactivation
iciently
2+
yro
▁electrocardi
▁targe
▁1.9
▁ECG
▁sinus
▁digestion
▁ips
lective
▁poisoning
▁progres
sial
▁23
▁pigs
ymp
tructural
▁discontinu
▁inheritance
▁immunoglobulin
usp
▁athle
▁inhibiting
cus
▁phospholipase
▁experim
▁vasoconstric
▁suture
0-
▁axillary
▁buc
▁septum
▁MN
spectively
uoden
utyr
▁spleen
osomes
▁nig
hep
▁triglycer
rone
▁lymphoid
▁63
▁gonad
4-
lytic
▁glomerular
zyme
▁glyc
▁hepatitis
▁nm
▁spontaneous
ocytic
tality
▁55
vail
scherichia
▁plasmid
▁resection
cribed
ampl
onad
▁phag
▁elu
.6
▁progestin
▁assays
▁pyram
▁pretreatment
▁(2)
oxif
▁intramuscular
itant
-450
throm
▁reactivity
▁peptide
▁ration
▁alteration
gression
ometh
henyl
▁overex
▁occurrence
▁palliative
▁inflamm
▁summ
hyp
▁preliminary
reas
▁unil
athyroid
adrenoceptor
▁lec
▁contaminated
▁molecule
lue
▁FSH
▁cytotox
sequent
▁latent
▁dilated
ogra
▁amyloid
▁ipsilateral
▁soy
obacter
KD
▁activator
ticular
▁cuff
%),
tein
]-
uvant
affec
▁subun
opressin
▁stu
▁equilibr
▁induces
ographically
▁exacerb
▁anastom
▁multiv
▁inver
onstric
▁SDS
▁physicians
▁pneum
▁prenatal
▁desirable
▁endometrial
▁staging
▁neon
▁hygi
▁preoperatively
▁compart
▁implic
▁deli
▁progressively
▁calcium
atine
▁unrelated
▁GVHD
▁differe
▁Pretreatment
▁kinetics
▁phenotype
▁comparative
▁-0.
PV
▁pyr
▁arrhythmias
▁persist
esium
▁Hg
▁lamin
▁atten
▁mediated
▁aneurysm
▁LH
▁screened
▁resul
▁adverse
3-
uretic
LH
ecyl
▁PRP
▁enzyme
▁antibody
▁cochlear
▁inducer
ficial
▁prevalence
2,
▁PCO
loro
▁excre
▁chromat
onium
▁7.
▁abnormalities
lymph
phrine
▁hypothe
▁CSA
▁defic
▁adminis
▁ATPase
▁migrated
▁expres
oidal
▁venti
▁vitro
phosphon
▁fracture
▁perinatal
urther
utaneous
▁autoimmune
gment
▁22
▁cigaret
genic
▁cholesterol
tumor
luores
▁protease
-67
▁fibrin
▁6.
▁IA
▁carbohydrate
▁micron
▁substrate
▁auditory
▁58
oplasm
▁femoral
▁socio
▁Patients
▁epiderm
▁exce
▁ASA
▁audi
▁forsk
thyl
▁muc
erin
▁headache
▁uterine
▁fibrinogen
▁201
ifug
utroph
ocul
▁microsomes
▁hypoxia
▁depolarization
▁hypot
▁undergoing
▁nM
▁questionnaires
ilical
▁40
itamin
▁95%
dle
glucose
▁0.1
ochemistry
22
oyl
▁metast
helial
▁dete
eptide
▁synerg
▁mec
rophy
ymptom
astom
eces
ercul
Ig
amycin
▁ejection
otrop
▁possi
clo
▁pS
▁atmosp
▁abolished
▁vena
▁25
▁phospholipids
▁polymerase
▁198
lasts
olytic
▁cesarean
▁pathogen
rosine
accharides
▁(198
▁GH
▁Afric
▁propranolol
▁polypeptide
cAMP
DNA
▁unex
Pa
tensive
▁alkaline
ostomy
▁juven
pyr
▁ventric
▁cartilage
▁Elec
tivation
▁RS
▁pathology
overed
omotor
▁ganglion
▁diagnoses
atectomy
anol
tors
physiological
▁nucleus
▁eosinophil
▁3)
▁segmental
odynamic
▁comple
▁tolerated
▁fibres
tectable
▁enzym
2).
rhy
▁margins
▁tris
sive
dial
▁paralle
▁progesterone
▁musc
2.
▁myocardium
▁intraper
▁challen
▁deficiencies
▁verte
tical
▁parap
lym
orphin
▁lipoprotein
erb
▁receptors
ellular
Cu
sions
▁biopsies
1),
umerous
ffe
helin
▁cardi
▁transcriptional
arate
ocytes
▁practitioners
estion
▁ratios
tized
▁cann
rates
▁spectro
▁unsuccessful
dine
atum
▁astrocy
▁26
▁vaccines
▁resistant
inally
▁leuk
sorption
▁avail
▁neurop
odies
inositol
▁bic
▁48
▁silic
▁1.3
▁mammalian
▁cG
▁75%
tiv
▁contral
tivity
iatric
▁criter
endri
▁stimulus
▁Streptococcus
weighted
▁excretion
▁microtub
▁pyl
▁tachyc
▁adenoma
ctomy
ygen
▁HSV
▁hydrophob
eared
ejun
▁tes
glycerol
▁infil
positive
▁myosin
sian
dia
▁vagal
▁inadequ
▁ligands
▁(8
▁bladder
▁duct
▁spermat
▁yeast
osal
8%
▁follicle
comitant
▁placebo
tition
thre
apeu
3.
▁receptor
▁referral
▁renin
1.
itic
lastic
ensi
▁provid
LDL
oxygenase
▁synergistic
▁myel
▁angiotensin
heric
57
▁frac
▁cortex
heal
▁distin
3,
▁monoclonal
▁mRNAs
▁1.4
▁PGE
▁reversible
▁assis
▁endogenous
.4%
▁cate
▁histological
encephal
▁recombinant
ithm
opathological
▁AE
▁nal
▁polyethylene
▁descending
▁linole
▁microb
▁questionnai
▁PEG
erating
▁decreasing
▁wors
▁hyperg
▁8-
▁subgroups
▁NH
▁Ig
▁epithelial
ture
▁antisera
▁differenti
CBF
▁occupational
ignific
2)
