trations
presenting
trast
▁primiparous
mercap
clerosis
62
▁10.2
leucine
▁angiographic
▁randomised
▁cations
▁aberrant
yridamole
erin
arone
▁mannose
▁PP
▁verapamil
▁therapeutic
▁elastic
opi
▁bursts
▁diffraction
▁65%
▁1990
otropin
▁encephal
▁desaturation
▁metabolites
oreactive
▁ranged
▁regenerating
▁accessory
▁5.9
graphy
4.
▁reductase
▁EI
▁stret
▁summarized
▁hsp
epid
▁hyperlipidemia
▁carbonic
▁dischar
▁TF
▁infarct
▁Strep
▁dehyd
▁serosal
▁Viral
▁CB
▁cardiomy
▁10(
▁supportive
▁hyperther
▁0.79
▁arter
uracil
▁scientif
5;
zymes
▁ectopic
▁pacing
tituted
PSP
▁antenatal
osensory
ervical
omegalovirus
ocamp
▁Ace
▁excretory
▁Reduc
▁Immuno
usal
▁phosphor
amic
▁pound
oic
▁polymerization
ystectomy
▁compliance
cellulose
▁reflex
iodarone
gain
ELISA
vac
▁pell
▁cistern
▁heel
▁rup
▁experts
▁Eco
▁sca
▁radiological
▁cleft
▁sampled
▁vomiting
oconstric
▁detectable
olates
▁immunofluores
▁1500
-29
vival
glutamyl
▁modeling
▁vibr
▁goats
▁circumflex
ingle
▁dB
▁1.4
▁lesion
ovascular
rography
▁supplementation
▁athletes
▁(49
▁unrelated
▁shif
idone
▁rheumatoid
omethacin
▁cooperativity
ograft
▁DTH
ilum
PAT
▁pH
▁650
▁passive
▁blotting
phosphon
▁hepatotoxicity
▁0.91
▁LD
▁.1
oxo
ductive
ialysis
icine
▁morphological
▁visc
▁cytomegalovirus
▁analgesia
▁maturation
▁cytometry
▁Growth
pressure
▁diagnosed
ocytopenia
▁kit
▁amelior
▁amn
▁unre
▁IVC
▁muscul
▁levamisole
▁peroxidation
▁haemodynamic
▁nodal
▁asbest
▁inguinal
▁metaphase
▁holo
▁25,
Ts
▁autoanti
▁midline
▁migrate
blind
▁goat
ygdal
▁cephalosporin
▁vaccinated
enkephalin
▁46%
olet
▁emesis
▁phag
▁myocardium
▁ischaemia
▁37
▁segmental
▁abnormalities
abies
▁1.3-
0.
respon
▁Survival
charged
stro
▁cathepsin
:1)
urane
thickness
pretreated
enzyme
▁PTH
▁218
▁proliferate
▁Diagn
▁specificity
jury
aminase
ithium
▁67
▁86%
lyte
motic
phosphor
▁recruit
toc
iably
▁72
▁keratin
▁orific
ystic
▁15
▁induce
▁infrared
▁minimally
▁osteoporosis
▁ranitidine
▁Responses
ureas
▁genes
othiaz
leu
iclovir
▁3,4-
▁valine
▁fluorescence
▁167
▁satur
trate
▁decarbox
▁transmembrane
▁recor
▁resul
▁ultrastructure
▁slows
▁clon
▁Crohn
▁serologic
▁myocytes
▁antibacterial
▁villus
▁uninfected
galactosidase
▁phosphatase
imens
▁measurable
DH
VH
▁enlar
3'-
▁2',
hCG
ocytosis
▁syncy
89
▁carcin
▁overestim
▁1)
▁responsiveness
▁trimethoprim
▁HM
▁uv
erus
▁Effects
▁furosemide
▁Plasma
▁mesangial
▁stool
▁schem
.7.
PPP
▁discrep
▁subclinical
▁instruc
arate
▁sphingomyel
▁Stro
▁2.9
▁trach
▁Seventy
▁heterozygotes
▁degraded
▁31%
▁Stimulation
▁6.1
ranged
▁challenged
▁([3
▁(26
▁fasting
▁dentin
▁neuros
struc
▁amiloride
▁conservative
▁luminal
▁merit
▁posth
▁grafts
▁WK
traum
growth
itin
Ta
▁Forty
molar
▁ori
ysin
▁analogous
▁ethical
▁exceeded
▁reabsorption
resid
▁unco
ithine
▁proteoglyc
▁diseases
▁239
▁severity
▁3.8%
▁frog
▁perfusion
▁panic
Leu
▁PMA
▁immunod
▁compartments
▁thio
havi
▁antagonized
atab
105
▁lovastatin
▁prescribing
▁20,
▁chor
▁splen
▁elicits
▁outlet
▁splenomegaly
▁adren
omatosis
▁estradiol
▁vancomycin
▁milder
trin
▁PBMC
▁65
eric
bilities
Phe
▁ORF
▁hybridoma
▁Schwann
umptions
▁postural
▁subgroups
13
▁71
▁conclusions
▁staging
secre
▁22)
tance
▁344
imurium
▁frontal
▁declines
▁procollagen
▁microorganisms
▁stere
(1)
indolol
▁pancreas
tages
chers
.5%
itr
▁(37
osts
▁peritonitis
▁endings
▁Inhibition
▁NaF
▁muscle
▁primates
▁scrotal
idase
▁practic
▁extrap
malignant
▁glyc
▁activates
▁FV
▁demographic
▁polysaccharide
olateral
▁5000
▁20,000
▁myelin
▁nitric
▁methylene
▁capsaicin
▁(1.6
▁kHz
▁HCC
▁injected
olem
▁enhancing
plying
havioral
4,
opropyl
▁glucuron
edema
▁coincident
illar
▁nuclease
▁Thereafter
▁69%
ymptomatic
▁cycloheximide
▁(40
phyloc
▁pepsin
▁Measurements
▁amyl
atoxin
▁3%
▁Preincubation
adap
▁0.02)
▁solubility
▁phospholipase
ospecific
▁anesthetized
▁mU
▁hospitalized
▁terat
Ace
▁chronically
▁homogenates
oplasma
▁AIDS
450
▁postpartum
▁1.05
▁(5%
igand
▁cerebrospinal
bran
3),
▁affec
▁26.5
ediatric
▁11
▁Enzyme
▁apolipoprotein
▁apoA
pirin
▁oestradiol
▁Ure
▁elu
yses
-13-
▁strokes
▁pellets
▁63
▁8.1
venous
▁ventricle
▁restric
▁equi
▁intram
▁ketoconazole
▁Initi
▁activate
sulfate
▁tiss
rophenyl
▁cardiomegaly
▁.0
calmodulin
▁streptokinase
▁tilt
▁irradi
▁incremental
TG
▁136
▁polypeptides
PMA
ardiac
▁Hib
▁readings
▁intrap
tified
glut
▁8.7
▁elas
▁sarcoplasmic
▁catheters
▁201
duced
▁duplication
▁bony
jec
anded
▁fiber
▁confirmatory
▁microgra
▁displ
▁outgrowth
▁rIL
▁physiological
▁Clinic
▁outbreaks
▁hyperthyroidism
▁cytosolic
▁pyrimidine
▁17.
▁adequ
▁0.51
orbent
▁keratinocytes
▁macromolecular
▁tolerability
▁algor
74
▁regis
▁tris
▁nulliparous
amphen
▁insertions
▁viruses
▁ammonium
▁epithelial
strual
▁nocturnal
tide
▁equivocal
▁stenoses
▁parat
oxim
▁(88%)
▁infancy
▁Morph
▁Pb
siveness
32
▁Caucasians
▁solvent
▁CHO
▁squamous
▁3.4
▁carpal
▁23,
▁swimming
▁diffic
ylate
▁256
▁nm
▁docum
ucle
▁axonal
▁treatments
osterone
phosphatid
▁yielded
▁7%
▁Mast
▁deline
/10(6)
BW
▁fertility
iline
▁1987
iol
▁Oral
▁91%
▁exclusion
sodium
2+
immunized
▁vesic
▁predicting
▁classified
ocysteine
atally
▁deprivation
▁aromatase
▁acidification
▁hybrids
carboxy
▁(3)
tracted
▁instillation
DHT
▁Sout
predominant
▁(9%)
▁bacterio
▁rehabilitation
▁fasted
▁10-
▁194
▁95%
operated
▁psychomotor
▁diuretic
▁Immunobl
ayers
▁elongation
osid
▁neuropsych
▁151
▁fibr
hydroxyp
▁absorption
▁nurse
ponin
▁oxidized
dense
▁haemorrh
ctive
▁Feeding
▁(32
▁rabbit
▁oestrogen
▁marginally
ogra
▁inconsistent
▁TcR
5%
▁spectroscop
▁eradicated
posterior
idine
▁labial
▁Inde
▁gluc
▁durations
▁Significantly
▁transient
▁confers
▁cardi
▁varies
cholate
▁(31
46
▁Arter
▁5.
ochrom
rays
▁2.7%
▁IA
rinone
▁digestive
▁soluble
▁reduc
▁reper
▁internalized
OA
kinetic
▁enrich
▁90
▁photoreceptor
▁fluorescein
tumor
▁cortic
.3
▁recombination
HLA
▁swab
adherent
PSPs
roglobulin
▁16.1
▁discomfort
▁CsA
▁lumbosacral
idating
thi
ensitivity
▁(19
onomic
akary
acting
exis
▁Older
▁MF
▁(12
▁maternal
entricular
▁antide
erally
▁rostr
▁severely
PAGE
▁inges
▁Diff
▁(25%
ropyl
-75
▁unsuccessful
▁ABR
ometr
▁paras
dUrd
▁polycystic
▁bism
▁DH
▁progressively
ximal
▁validated
25)
GTP
cephal
41
tRNA
▁coronary
▁bacter
▁-0.0
gestational
cemic
PaO
establ
▁fluores
▁tetrap
▁3'-
▁activator
apeu
▁(0.1
▁Pertussis
▁78%
▁34%
▁shunt
▁hydrophob
▁disper
▁microtubules
▁pathophy
▁judged
▁astro
onance
▁21,
iazide
▁tended
▁reviewing
▁immobil
▁tumorigen
▁homozygous
▁dP
atient
▁bloc
HV
▁20.5
5%)
▁mammography
altered
▁1.04
athered
▁hyste
▁vasodilatation
▁5.8
2+/
▁airway
-50%
▁immuno
▁hematopoietic
▁11.8
▁Registry
▁fourfold
▁scle
▁prospectively
▁reproducible
inamide
▁respon
itance
▁babo
▁centrifugation
▁0.27
▁bile
tested
valine
▁adjusting
▁neutrophils
▁seas
▁globular
▁granuloma
▁secretagogues
▁analogues
▁WR
▁papilloma
▁Lymph
▁joints
▁15-
▁prodrug
ammon
▁atopic
oterol
▁Positive
▁Conversely
▁appetite
▁ADP
▁awa
▁alloster
gestin
lytic
feron
▁7%,
▁promptly
▁adenylyl
▁panc
▁glycosaminoglyc
50,
▁Sulf
▁serine
▁(71%)
omerular
▁lactating
▁pentobarbital
omers
▁carbohydrate
▁extracorporeal
pretation
▁Consid
menopausal
▁(67
▁antacids
▁Epidemiologic
lli
5%).
▁vesicles
MG
▁Tiss
▁inhibited
▁parenchymal
ochemically
imbr
▁submandibular
▁membranes
50)
▁CFU
▁repolarization
▁40%,
▁(3.0
▁pyridoxine
▁87%
▁5.0
▁amniotic
▁antiv
▁yeast
▁phos
▁97
▁lipase
▁fistula
ziness
uating
▁questioned
gic
▁streptoc
▁cuff
▁(0.0
▁lymphokine
▁SMC
▁mutagenicity
▁lifest
▁Laser
▁cran
▁elicit
atching
▁2%.
▁hypokal
▁likelihood
▁incomp
▁metabol
dibular
▁genomic
▁35%
ospasm
receptors
▁mucin
▁(1990)
-2-
-90%
▁1%.
▁valves
▁neomycin
▁angio
▁conformational
ventional
▁189
▁2-
ulants
otent
▁IGF
▁reag
2)
lline
▁transaminase
onegative
▁HCO
▁PF
nitros
riched
HRP
▁nonsur
▁periodon
opressin
▁requi
idem
▁vagin
fluorouracil
▁nurses
▁seasonal
ophysiological
▁currents
▁insomnia
responding
▁transients
▁uncovered
residue
astric
▁outs
▁hydration
ritin
1)
▁relapses
2(+)-
▁inhibitory
12
▁transpos
10-
▁pineal
hydroxylation
▁osm
▁sulbactam
xia
erox
29
▁9.2
▁opi
▁relapsed
2+.
▁diet
cys
▁methodology
soluble
▁undergoing
▁cystitis
romedial
▁163
embr
▁gentamicin
▁4.7%
incubation
▁malignancies
IGF
▁etretin
▁reconstituted
lational
buterol
▁quinine
▁-5
▁tetra
▁ratios
▁197
▁humoral
athic
▁chains
▁promoter
ymme
▁muscles
▁utilizing
divided
▁(199
▁diverged
▁psychophysical
opsy
▁reiter
▁ions
▁27,
:4
▁10(-9)
▁Km
uitable
.9
pecific
▁bronchoscopy
▁teen
▁gastr
▁salvage
▁altered
▁11.5
▁Stroke
nish
▁striatum
ithromycin
▁pulse
▁secrete
BMI
-2)
▁virulence
▁emboli
▁radiograph
tomas
▁fetal
▁ventricles
▁anaemia
▁treadmill
▁maneu
▁spro
▁decreases
yto
▁cotransport
▁regulatory
▁trials
ses
thma
▁nominal
▁SOD
tropin
▁37.5
▁Concentrations
▁faecal
▁denti
▁BH
▁Incubation
▁rumen
▁1986.
▁Scale
▁cyclooxygenase
respective
▁gilts
▁functioning
ication
cnemius
▁pools
6-
▁sacc
-1;
▁rhe
rought
▁maneuvers
▁corpuscular
bino
orporation
▁1.07
▁Cardiac
▁0.75
sities
kinesia
▁mA
▁suspic
fatal
▁endonuclease
puts
▁diagnosis
▁undetected
takes
▁adenovirus
▁househ
notic
thood
▁dissection
▁alcohol
opped
enem
▁Insulin
retro
▁83%
▁biopsy
obacillus
▁mycobacter
▁explants
▁lifestyle
▁CABG
alian
▁+/-
ploy
▁dibutyryl
oporosis
▁anesthetic
▁upstream
IgG
▁Inventory
ocytic
▁vasodilation
odone
▁calorie
▁helix
▁Triton
ignant
anthrene
▁benzoyl
▁postnatal
▁angioplasty
▁imipramine
▁300
lamp
▁rhodopsin
▁tau
▁complexed
▁viable
▁supernatant
▁inpatients
▁transcrip
vedilol
adequ
ydig
▁Hypertension
▁twitch
-52
▁catalysis
▁triflu
▁ascorb
▁immunization
▁seroton
▁vasodilator
blocking
▁commiss
ventilation
▁optimum
▁resorption
▁simplex
▁libr
▁alkaline
▁mmol
▁labeling
▁AH
▁exercises
-99
aneously
muc
ycin
▁erythrocyte
▁gallbladder
inergic
▁inhibit
▁progenitor
▁acutely
▁colorectal
▁arachidonic
▁lis
▁ascorbic
jug
▁dermis
▁melanomas
▁134
robial
Ni
▁etiologies
▁21.
renol
▁cytokeratin
▁morphologic
bred
obal
▁hereditary
unsaturated
Kd
oxy
▁mutagen
▁concomitant
▁119
153
erate
▁(1989)
aemia
▁NMR
ashing
▁100
▁implanted
▁isolates
▁neuronal
asive
▁350
▁unexpl
mentation
▁twofold
▁Seventeen
▁seizures
▁amplified
▁disrupted
▁COOH
▁immortal
▁multin
▁amin
▁7.2
▁LAK
▁tissue
Glu
▁repor
▁deficit
▁protective
▁cerebellum
▁glandular
▁antagonistic
lycemic
▁cris
▁histopath
▁unrecognized
othi
/10(
oblast
▁anomalous
▁frozen
▁Surgical
▁lowered
dii
▁AII
ochondrial
▁dehydrated
▁WBC
▁1.26
.6
▁4-5
troph
urations
irradiation
▁surgeons
ospor
▁oils
▁9.
▁unstable
estern
▁declined
oneu
robic
▁71%
roso
▁thyroiditis
iuria
activating
imentation
▁adipocytes
-7
▁preoptic
▁laparoscopy
▁1-3
▁sterol
▁prosthesis
▁3',
RM
ograms
reasts
▁methanol
othel
▁17%
oplas
▁intracoronary
enterolog
wenty
▁Diabe
ucleotide
▁prenatal
▁kcal
HN
ifferenti
ochle
▁anomaly
turing
▁originating
roscopic
+.
▁nonin
-43
▁0.01).
▁slopes
▁haemoglobin
▁pathogens
▁attain
eroxidase
▁weaker
▁appendix
▁nursing
▁inoc
ailure
erge
▁mutagenic
▁20%,
▁neonates
▁CRH
▁myot
▁indefinite
▁regulation
▁Removal
▁33
liters
▁rifamp
▁0.38
▁1.1
ishman
▁differing
erebro
▁AFP
▁trich
▁maturity
▁interim
▁cholec
▁jejun
▁TK
▁tuber
ellae
ofl
▁peritoneal
▁meth
▁urine
▁imposed
▁opiate
▁nicardipine
gag
▁4.3
scherichia
▁200-
▁dose
▁drin
▁singlet
▁cholera
oinositi
▁subdi
roxim
▁Pharmac
75
▁propria
sants
▁Diabetes
hep
▁53
▁43
amethoxazole
▁addi
▁virtu
▁fertilization
▁grafted
▁absorb
▁2.8%
pation
esting
▁radiolabeled
▁allelic
▁azithromycin
▁homogen
▁propionate
▁isch
▁impairs
benzo
▁unexplained
▁Golgi
▁polyaden
▁thermodynamic
▁homogene
▁multil
▁21
▁confirms
▁infrequ
▁tyros
1.2
▁attending
▁Haem
teral
▁hepatocyte
placebo
oriented
▁(21
▁risks
▁acyl
▁depolarizing
▁vicinity
125
▁uncom
triphosphate
▁reflecting
frontal
▁33%,
▁11.0
-14
▁transepithelial
▁pollen
▁Indo
aired
.7%
▁0.41
vents
opes
▁enal
▁serologically
trition
▁aorta
▁umb
folate
▁HPV
▁triazolam
▁GTP
sufficient
▁initiating
▁premature
▁cerebellar
ifferentiated
▁reflec
▁saturating
kinase
▁electrodes
▁periv
rated
▁suppor
▁codons
▁alteration
▁SIDS
▁Bec
▁prolongation
▁Intensive
▁valproate
▁dopamine
arbonate
▁nephrotoxicity
▁climb
17,
▁PFC
atite
oides
ytoin
▁hospitalization
▁brach
▁pHi
▁repression
▁quiescent
▁Antibodies
etaz
toid
▁3-5
▁-4
▁potassium
ergen
acin
▁Exposure
▁xanthine
antigens
▁273
▁semin
▁determinations
uity
▁senes
▁anat
▁GnRH
▁phorbol
▁hyperb
inone
▁aggres
quamous
▁0.75,
/1000
serum
▁MW
▁ND
▁reflects
▁demands
▁grading
erts
▁sorbitol
muscle
▁12%
▁carb
▁predominance
▁suprac
▁gelatin
EPO
▁cytochrome
▁streptozotocin
eak
oblastoma
lyl
tectable
epti
▁lutein
usively
▁immunocomp
▁kerat
▁resuscitation
abilized
▁occasional
▁Fewer
▁concurrently
▁emphasis
cryst
-28
ications
.9%
queous
▁Throm
ocriptine
mia
▁trichloroacetic
▁carcass
cycline
sparing
▁pts
▁ultrastructural
ioma
RNP
▁223
▁rodents
teroid
expressed
▁extracts
▁fulf
▁helical
▁transplants
▁restraint
ycline
▁mortality
▁remo
7).
▁ruptured
ellular
▁unaltered
CNS
TRH
.1%)
targe
▁iat
▁homolog
▁1.7
rae
▁lining
trient
▁RFLP
imol
▁bronchoalveolar
▁hazards
▁cyc
▁550
▁establ
▁homogeneous
▁Bam
▁atelectasis
▁adequately
▁kb
▁fist
thmias
istal
osaminidase
dial
▁243
▁cytometric
▁baroreflex
▁erythromycin
imental
▁sugars
▁germinal
▁unres
▁pharmacokine
▁poorer
adenosine
600
▁employing
▁chromatographic
▁inflammatory
▁alp
motor
geons
odiaz
▁antioxidants
▁radiologic
▁dipyridamole
▁dobutamine
▁olig
▁lamb
ophy
▁classify
▁spermat
ominant
▁synthase
iciency
▁constructs
▁stimulator
▁ammonia
ocon
Ga
▁adrenergic
bacter
gradely
▁82%
▁augmenting
0,
▁bacteremia
▁plateau
▁MCF
.1)
▁tetrac
erule
▁membrane
▁vaginal
ATP
irradi
▁antagonists
▁92
▁mosquit
▁tape
▁moderately
▁cis
▁(5.0
otherapeutic
▁paren
▁mitogens
yrene
▁colonoscopy
▁naloxone
▁spike
50
170
▁unreliable
▁degeneration
▁departments
▁methodologies
▁pA
romed
uronic
▁placental
▁pKa
▁5.5,
ellum
▁phleb
▁sequential
▁attrib
rele
ocarcin
▁balanced
ults
▁HI
▁ODC
▁Electro
▁nutrients
okine
▁RIA
▁spont
▁gonad
▁cGy
▁cooling
▁breakdown
luent
▁(4.6
▁xylitol
▁(2,
▁transi
▁arthro
▁attrac
ocar
▁scinti
alact
▁chloroquine
▁substituted
▁translational
-72
esophageal
GlcNAc
atchard
▁visualized
▁Tolerance
▁UDP
▁(90%
▁boutons
▁elevations
▁meals
ietic
DV
-1000
▁outward
▁MRI
▁macrophages
oactive
▁(28
onset
▁10%.
▁cavity
ocortical
▁bronchitis
▁necrosis
▁cholecystokinin
parathyroid
▁carbamazepine
illus
ocardi
tryp
▁chymotrypsin
▁hydroxyp
ept
▁(32%)
▁noradrenergic
▁50%
reases
▁preparation
▁throm
▁[2
▁incision
▁succes
▁bilayers
▁intensive
78
▁HMG
redoxin
▁distension
itability
rength
▁acetyl
▁cAMP
▁remn
▁screening
▁interviewed
serine
▁strep
▁decreased
▁implying
▁dopaminergic
injury
▁pollicis
▁176
▁(1.9
tious
▁hematoma
▁epilepsy
elves
▁densities
▁hyperpolar
EAE
ocyanate
▁consumed
▁postoperative
omorphine
positive
umbar
▁reinforcement
-36
▁redox
▁adrenal
▁muM
▁4.5%
rostagland
▁recognizing
plication
▁descriptive
▁carbox
elan
▁swelling
usate
▁ET
thiazide
▁neurom
▁GFAP
▁hormone
▁Sequ
buride
urine
▁chemo
roline
▁PAP
wann
▁analyses
▁luteal
timal
▁LFA
enteritis
▁colic
▁(13
▁hydroxyl
erum
▁sph
▁arachidonate
benz
▁mild
0%).
▁correspon
127
▁Acad
abain
.7
▁11.6
acycl
▁1/
entanyl
immun
omyosin
▁3.6%
▁0.66
trates
▁thyro
▁shifts
▁beads
▁neuron
ubertal
tiguous
idity
▁diabetics
▁29%
25
▁intras
iesis
▁dialys
-19
▁electromy
▁cognitive
▁eliminating
▁preventing
▁Fourteen
▁challenges
▁consistently
▁diabe
itant
▁discontinuous
▁150,
▁synthesize
▁differentially
▁microb
▁recombin
ighted
apatite
▁acetic
▁constituent
▁diazepam
▁Average
▁heterogeneity
▁Concomitant
▁trimester
induced
▁(85%)
▁continuing
kelihood
▁Twenty
▁amplitudes
▁alanine
▁disulfide
▁adenoma
▁utilization
▁adminis
▁oligonucle
▁responder
embry
▁birthweight
▁utilize
▁prolactin
▁adolescent
▁paradigm
▁4000
ermal
WB
selective
.0,
▁responding
▁thrombi
flammatory
economic
▁elution
▁msec
▁inters
▁125
2+-
▁rGH
▁chorion
PAF
▁4%
▁3.7
ecia
▁tandem
▁30,
kely
▁acuity
inopril
ceptions
▁metoprolol
▁BMD
▁hyperlipid
angi
▁malignancy
▁ib
▁111
▁349
▁40.
▁respondents
zine
▁hybridization
▁lep
▁chl
otriene
▁trigg
attered
▁hypertro
▁meiotic
mineral
opecia
▁ey
▁beef
macropha
▁vitre
▁inoculation
73
dU
▁suppresses
▁vacuoles
▁substances
▁computerized
▁detecting
▁dendrites
▁Peak
Ox
vaccin
CRP
▁angi
▁tracer
▁antimicrobial
patient
▁benz
▁ack
▁subcl
ETE
▁sedation
▁eug
▁mosaic
▁centers
▁hairy
▁3;
▁adenoid
antagonist
▁dorsolateral
▁Lym
ometrial
olesterolemia
▁glycosylation
▁sedative
▁Steroid
▁Statistical
phyrin
▁intravascular
▁1964
pulse
clinical
▁clindamycin
▁hygiene
ximum
▁electrocardi
▁atri
-(1
▁chickens
▁colliculus
▁initiation
▁ventric
▁HA
▁outbreak
▁PHA
plete
▁ultr
▁vascul
▁84%
▁germin
/3
▁exons
MSH
▁genitourinary
▁idiopathic
▁1.8
▁hydrolysis
▁palp
▁availability
▁TEA
criptional
Ba
▁photoperiod
iomas
bumin
▁pmol
▁cys
iagn
anserin
▁nonsmoking
▁3
▁commerc
▁tauro
▁reflux
aminop
▁Infection
lue
▁barium
▁overnight
▁nitrate
ipine
▁4.0
oflurane
▁quantitation
▁IDDM
▁lae
▁fibrob
▁(46
▁159
▁thymidine
meg
▁indications
▁8.9
▁plates
▁conductance
.3.
92
▁monotherapy
▁2.3
eptid
▁exud
hemo
versity
▁molecular
▁cytokines
toph
smoking
▁anion
▁azathioprine
▁gastric
acking
▁genotype
▁mucosa
▁casein
▁echocardi
sor
▁diversity
▁5%
▁IgG
▁herni
▁(3
salt
-1
▁hypnotic
▁carrier
▁streptococcal
▁0.58
▁pene
▁0.81
▁lymphocyte
econd
▁odds
firmed
▁toge
▁5.6
▁Tes
▁0.5-
▁excretion
▁203
▁rectum
ofluores
▁paralysis
▁Adverse
▁pectin
▁autopsy
reed
waves
▁poli
▁217
▁9)
▁approx
aryotic
8-
▁expectations
▁conditioned
▁bioassay
▁HER
▁islets
▁lacking
▁Elec
▁slic
937
rangement
▁NI
opyr
▁sulfonyl
pituitary
▁inflow
▁Candida
mittent
▁lysates
diagnosed
▁amygdal
gian
erence
inic
+/
▁interferon
▁intra
▁surrog
oxid
▁fibre
▁lamina
determined
ulose
▁1.01
3]
gulation
▁hepatectomy
▁Assessment
amol
▁bacterial
▁urokinase
▁airflow
lycerol
▁RII
▁PDGF
▁uremic
erative
▁Improved
▁PaCO
hemoglobin
▁collagen
Sepharose
.3%)
ohyd
▁flour
▁cancers
uary
▁nonp
90
▁wounds
sensitivity
otroph
▁Eight
▁VLDL
thyl
▁carnitine
Ev
neoplastic
gold
▁excluding
inephrine
▁3.8
-70
▁Assess
opeptidase
▁occlusion
▁compli
tep
▁mercury
▁600
▁inorganic
▁subpopulation
▁standardized
tivities
▁knee
19.
▁isometric
ovine
▁echocardiogram
▁hypotheses
▁CEA
▁pneumoniae
▁specialists
8.
▁chel
▁extras
▁cyclical
omes
▁conducting
▁nonc
inj
▁immunosuppres
▁31
▁10(-6)
▁Addition
▁hairs
▁axial
tec
orated
mature
ipit
sych
▁substance
▁exploratory
▁colos
▁neuropathy
▁Different
▁substantia
▁previ
iliary
fed
▁60%
adex
▁23
▁rehabil
▁Benz
viral
▁dorsal
▁contrac
iptine
acetate
siological
▁projections
▁NIH
▁lute
▁phospholipid
▁dentures
8)
▁Increases
otin
▁abuse
ilts
oscopy
atinum
▁rt
▁crystals
▁Phase
▁minimize
▁Twelve
▁overload
000,
▁myocardial
yster
▁glucocortic
▁techniqu
▁ml
▁sclerosis
▁radioiod
▁medulla
-70%
1/
▁abnormality
▁presumed
▁ketoacid
▁sialic
rogenic
▁Plas
▁epidermal
lective
▁menopause
4;
▁victims
▁nitrendipine
▁experiencing
▁ulcers
rati
▁allosteric
▁renin
▁ionized
▁vaccin
▁SLE
ypical
▁ureth
▁gyr
▁aluminum
ostomy
▁Swed
PAP
oate
bisphosphate
tile
atients
tetra
▁Hig
▁ensuring
▁mum
▁dermal
▁myometr
ilin
▁replication
azol
iplin
▁4)
lamin
▁produc
▁amel
▁lesions
▁isotope
▁inbred
nitrophenyl
▁nutrient
▁binds
phrine
dL
▁(-)-
▁pulsed
▁titr
olesterole
▁monoclonal
▁hippocampus
▁LTD
terin
▁basophils
▁granulosa
▁neuro
▁prostaglandins
▁seated
operox
comitant
membrane
izine
oice
8),
synaptic
▁Thy
▁Hear
▁carbonate
▁follicle
hyd
romycin
▁progression
▁spi
▁predomin
▁deemed
▁prevalences
▁guanosine
cture
▁anatomical
▁biological
usions
▁ophthal
tophan
openia
▁pati
▁sustain
iodo
▁thalamus
cyclo
▁resum
▁congenital
ratic
tact
creatinine
▁tobacco
rosemide
▁homeostasis
▁allergen
iant
▁immunological
▁correlates
NMDA
▁192
▁guanine
renic
▁gonadotrophin
▁favorably
▁thalamic
▁285
▁emulsion
▁Lipid
▁incom
▁eradic
▁fungus
phosphorylation
▁8.4
▁Recurrent
▁Recovery
▁anticonvul
ygous
▁90%.
▁warrant
▁iodide
▁tendencies
▁recognizes
reflex
iable
▁leukemias
▁wearing
atoma
▁histidine
▁AK
▁(25
▁arteriovenous
▁Kd
vail
aturated
▁0.8
▁acco
▁1:1
onatal
▁tolerate
▁synchronous
▁ferric
▁dichroism
xiety
iterranean
rosal
ynthe
mented
rease
▁Immun
▁Hyd
esarean
butyrate
▁leu
odgkin
producing
▁innervated
hicle
olated
GnRH
ositive
-3-
lyc
atous
▁Sprague
▁aldehyde
▁adequate
▁indirectly
▁athle
▁chec
▁purification
▁1979
▁215
umping
▁mutated
▁asthma
▁hypocalcemia
ranean
▁enzymic
▁ovulation
▁DNAs
▁(72%)
ancomycin
▁staining
▁unidentified
moderate
▁Willebrand
-88
▁chromosome
▁similarities
▁diphen
▁hyperplasia
atase
rospor
▁Continu
iflu
▁blots
▁gemfibrozil
flurane
VT
▁facilitation
▁vertigo
▁antihist
terase
▁depletion
▁450
▁arb
▁supple
▁vag
▁nitrite
tium
▁50%.
▁reacted
iph
▁amoxicillin
▁alcoh
imazole
opha
▁PLP
▁assessed
▁0.2
isely
▁solubilized
formations
▁coded
▁77
▁immunohist
-4.
matched
▁HLA
rowing
▁bp
ectom
▁septic
▁persisting
▁platelets
Cs
-5,
those
▁diarrhea
▁fracture
▁occurring
ausea
▁condensed
▁nontoxic
▁12)
▁aneurys
guing
▁phasic
▁Atrial
▁ae
adrenoceptor
▁cate
oluble
▁sulph
▁dexamethasone
tingu
proline
▁venous
containing
▁cleavage
▁roset
▁208
▁hap
▁Measure
▁quenching
ulates
▁181
lyb
▁BM
lycer
▁(80
ugular
2318
hers
▁additive
▁insensitive
▁prostaglandin
▁perfusate
▁neutralization
▁18.
▁cytochalasin
tomycin
spectively
▁covari
▁ganglion
▁permeation
▁confound
bular
▁ultimate
5,
moking
potential
▁regain
▁triglycerides
▁15.8
uated
plen
▁prostagland
▁inhibiting
phasic
▁cG
▁tetanus
▁buccal
▁doxazosin
ociated
▁succinyl
xime
▁comprises
anking
▁medically
▁codeine
hepatic
cyte
▁propranolol
yanodine
▁sequelae
▁favors
▁killer
arthritis
3/
▁myof
▁thir
▁renal
▁overweight
ducts
BK
ogenicity
ophilus
dyle
▁epidemiologic
oblastoid
▁cytoplasm
▁cann
▁reconstruction
▁differentiate
▁Cardiovascular
ocrom
crib
▁consis
▁receptive
▁cerebro
vian
▁preoperatively
▁diluted
▁1988,
▁forebrain
▁reass
Fc
▁responsive
▁0.8%
▁degrad
▁ambulatory
▁endothelin
▁lymphocytes
▁hydrolase
▁UV
▁Saccharomyces
IgM
▁effluent
uctose
▁Glucose
▁Apo
▁OC
▁90-
▁vestibular
▁identically
▁desensitization
▁instr
▁duplex
▁retroviral
▁unpredictable
-100%
ulitis
▁asymmetry
4+
▁ovarian
▁autologous
lycero
▁HSP
▁Sepharose
▁Intravenous
perme
▁exceptionally
kers
irradiated
onin
otrophic
ancre
▁Purified
-65
eight
tension
▁proportions
roth
pinephrine
▁tumorigenic
cyt
▁mitosis
apine
▁sickness
▁FD
▁warr
▁BK
truction
▁adjustment
roscop
▁59
icardi
rendipine
▁juven
▁analges
ectin
NH
▁199
▁oxy
atoid
▁6).
▁blockade
▁acces
administration
rocytes
(2)
adenomas
▁semiqu
▁expressing
▁leukemia
▁transp
subunit
stimulating
Cys
PHA
▁stric
▁enanti
▁seques
▁stationary
▁sarcolem
▁recirc
-12
▁carbam
ranial
athyroid
▁danazol
▁competent
▁potentials
crip
▁mell
▁resear
wk
▁VAS
▁infiltrating
ervated
▁paral
▁methionine
▁denatured
▁hydroxylation
▁prone
natal
methylation
osylation
tant
▁theoretically
▁exce
▁mucosal
▁GDP
1-2
▁survival
▁murmur
▁nadir
initi
▁angiotensin
▁irrespective
▁paralleled
▁0.01,
▁Treatment
▁Lact
▁adhering
▁2.0
▁numb
nate
▁centres
▁perikary
PB
cristine
▁Exc
ulmonary
▁coagulation
▁fluo
400
atched
ponential
othre
▁ligands
▁Hz
▁phenotypes
▁phenotyp
▁193
▁(89%)
▁DF
▁phenylephrine
▁rhinitis
▁grafting
sequent
▁menstrual
▁eczema
▁1985
kerat
▁devised
▁classifications
nisolone
▁tricuspid
▁neuroblastoma
▁Accordingly
▁encour
▁starch
▁migrating
▁pressures
16
▁9.1
gents
▁intraoperative
▁-1
▁prophyl
▁phosphorylase
▁embolism
ygotes
▁infused
▁thorac
quinone
▁(68%)
▁colonization
0%.
glutin
▁mandi
glycine
chemical
▁Ringer
uates
▁specialist
▁parotid
▁(92
acyl
▁0.28
vember
.0%
▁transfected
▁neuroleptic
yro
▁elimination
1.0
▁condyl
▁synap
▁(25%)
▁splice
▁chlo
▁reasonably
▁spind
/24
haem
▁aqueous
▁expense
▁providers
ylon
teria
divid
SBP
▁AO
▁prolif
ochemistry
▁medullary
▁168
▁cadaver
▁eicos
▁anoxia
▁exogenously
plantable
▁prednis
atitis
▁hydrox
▁10,
odip
posable
PTH
▁(7
▁adrenoceptor
▁detects
▁enrollment
▁7.0
▁mim
▁intracellularly
▁89
▁vesicle
▁Respiratory
neu
▁inactiv
tine
▁cyclase
▁evac
▁isoenzyme
58
▁reticulocyte
-0
▁velocities
▁fragmentation
▁responders
amole
otropy
ipolar
▁harvested
▁proteolysis
▁nights
▁reductions
6,
endothelial
▁clinician
▁oxide
▁RF
▁positively
▁suppres
▁tach
▁researchers
▁(60%)
▁3.2
(+)
▁localization
▁naproxen
▁adenine
▁ventilatory
▁benzodiazepines
▁bup
TSH
ariate
▁209
arcoma
hest
conver
GD
▁Holter
▁effectiveness
▁carc
▁facial
▁synthesized
cemia
trous
▁dissec
▁stoichiometry
▁TNF
▁irrit
▁depres
▁PB
▁epidemiological
▁precipitation
▁rodent
▁(76
▁hazard
uccess
▁perceived
▁acidic
▁stimulants
ypro
▁Relative
▁Finnish
estim
▁bouts
▁reproductive
▁(84
▁vaccination
▁146
13.
▁carries
▁statistically
▁complementation
▁[1
▁delaying
▁membran
ystolic
▁onc
▁2/
sistent
▁mating
▁determinants
▁resistant
ucose
▁backbone
▁parity
▁ethn
consuming
opause
▁RPE
▁15%.
▁100%.
▁relaxant
▁natriuretic
▁heal
▁187
▁decline
▁telephone
anol
▁LC
▁splenic
▁Factor
resting
opamine
▁stripe
▁RNase
▁neurite
▁Clin
0.3
zyme
▁infiltrates
▁diuretics
omegaly
tual
anide
▁presum
▁accumulation
hydroxy
cytes
▁predictive
LISA
▁circumferen
▁10.7
infection
tead
utyryl
▁mechanically
▁subf
▁meningococcal
▁UT
▁incontinence
POA
▁reentr
-2).
▁hered
ithelial
orin
▁elic
otropic
▁ongoing
▁worms
▁colonic
▁Stress
▁disulf
▁vagal
limiting
▁spermatozo
-5'-
▁vena
▁5)
▁46
-3.
▁stimulant
esides
▁moiety
▁constriction
oxyrib
9)
▁kinetics
▁instability
(-)-
▁nonex
▁gradi
▁13.9
▁psychosis
▁distor
razosin
-(3-
voltage
▁subarachnoid
uppres
▁Biopsy
unts
▁Experiment
▁clamping
▁permeabilized
4,5-
▁cereb
▁immunity
atical
▁Combin
▁interleukin
▁196
enters
▁projected
▁conjugates
ncy
phospholipid
attern
▁tryptic
atible
▁relapse
aminases
▁preserving
▁Smoking
tent
uptake
CAP
▁0.23
▁pathway
▁sacrificed
▁lacto
▁posi
▁compete
▁cerebrovascular
▁exudate
odynamic
▁averaging
duction
▁exudates
▁(18
(1
▁pulsatile
-1)
bly
aternal
physeal
▁monoamine
▁bronchodilators
▁40-
▁direc
▁TCR
onitis
ordial
▁suicidal
▁pathologic
▁contras
partic
▁nebul
▁viral
▁radiographic
▁consistency
▁overl
tained
ergic
▁100,000
18
▁9.0
odal
▁hypothermia
6)
▁autonomic
▁ascer
▁Ala
keto
▁locomotor
▁loos
▁Recombinant
▁ankle
itidine
▁Cancer
udation
▁0.05).
▁neurologic
opr
▁ribosomes
▁Sodium
▁intrad
▁toxins
▁cyclosporin
thanol
quam
▁musc
▁corticosterone
▁Myocardial
▁neuraminidase
▁amphetamine
▁absorp
athione
erad
Tc
▁Histological
▁parenteral
▁68%
-7,
▁neurological
▁analyzed
▁45
emias
▁slowing
loidy
▁231
▁antibiotic
▁bovine
-2.
▁noninvasive
▁stabilization
tradiol
▁228
1,
.5
▁promoting
▁descriptions
ervative
▁limiting
▁retardation
cAMP
▁269
olesterol
▁regen
▁electrically
▁institutional
▁inferred
▁(4
▁Higher
ateral
▁sorb
▁diffuse
PGE
armac
▁CRP
▁GST
▁tet
▁irr
acetic
examination
▁possi
tage
rehen
▁warfarin
▁enhancer
▁70
▁surgery
atinine
vertebral
▁(54
▁bilaterally
▁gestational
▁migrated
▁22%
▁isoflurane
▁palsy
▁pyridoxal
▁57%
31,
▁mothers
monstr
▁liver
▁immunologic
▁lympho
▁0.9%
▁ate
▁nasopharyngeal
1%)
▁pS
▁7.5%
▁dramatic
▁16%,
▁nascent
▁neoplasms
▁axillary
▁perox
▁26
▁fluconazole
tivation
▁eighth
▁27%,
▁adoles
▁widespread
▁Kinetic
▁isozyme
▁elbow
▁stab
▁lacked
deriv
▁bicarbonate
atology
ATPase
▁inducing
ensity
perature
▁constitutes
▁transporter
▁mitotic
▁infarction
-1.6
trus
-1.0
▁bypass
▁incubating
▁alternating
rhy
▁infertile
olamine
▁oxidase
zard
▁enhanced
▁62
iminary
▁surviv
▁portions
▁mammary
▁pector
okinetic
▁flexion
▁perioperative
coag
▁tumor
▁verbal
▁antitumor
▁Hispanic
▁PAF
▁(1:
▁nondiabetic
yel
▁DSM
▁(77%)
▁misoprostol
icide
▁physici
▁hypercap
▁5-10
▁erythro
sive
▁acr
▁Gs
lated
turition
-1.
-20
imolar
▁microvessel
opathology
▁apoprotein
▁exacerbate
lude
▁80.
oxin
▁cava
esthetized
thymidine
▁mg
▁comparisons
etent
▁superf
▁ascites
▁lactose
▁dissociated
▁cysteine
▁leakage
▁GLUT
0.4
risk
▁pathology
adder
▁dextro
melan
▁serolog
▁TT
UV
▁impairment
potassium
▁neutralized
yrosine
indol
3%)
▁autoantibodies
▁contractions
▁lysosomal
opar
cad
▁(36
omies
adiol
▁anastomoses
:3
▁jejunal
▁doubled
▁balloon
imetry
enzym
54
▁freezing
▁hirsutism
▁competi
tigmine
▁abl
▁sperm
▁(41
▁protease
▁postprandial
▁hyperch
▁gag
chool
▁nucleotide
▁IMP
▁differed
▁primed
▁harmful
▁chloroplast
▁Ade
▁targeting
▁calmodulin
▁organism
▁6.7
▁bactere
▁isomers
▁sarcomas
reness
▁virulent
amethyl
▁diets
hospital
▁intestine
▁persis
▁dehydro
obenz
▁Haemophilus
▁characteris
-81
▁transduc
▁actuarial
▁wedge
▁comprehensive
nine
▁esophagitis
cretion
tors
▁hydroxyproline
▁Likewise
ially
oflav
▁epithelium
acrine
inally
▁Subsequent
▁1-2
cellent
▁lymphocytic
estis
transfer
▁PCO
▁1),
▁2.9%
junction
▁340
94
▁0.83
▁endometr
▁diges
▁characterized
▁organic
▁Hg
partum
▁polyclonal
▁(2-
drug
▁messen
▁contracted
▁adjustments
▁compe
▁elastase
▁elevation
▁isotype
▁Enal
triglycer
astatic
GABA
aceous
ofib
▁bacteri
▁spleens
▁(0.9
▁titres
4%
▁cytotox
▁cytosol
▁antich
ilibr
yrid
▁epithel
▁0.54
▁124
▁165
spectrum
olytic
ymptom
.5,
dihyd
spective
▁20%.
▁1.3
50.
lodipine
heum
Km
zation
ubiqu
apanese
▁antic
epines
▁Differences
▁ovari
▁topo
▁morb
▁1,000
aldosterone
orts
▁1,
amethonium
ece
▁0.97
occlusion
▁expenditure
▁midazolam
▁0.15
▁65%,
tention
▁arterial
▁adverse
sion
itoneal
9]
▁mandibular
acts
twitch
▁(38
▁Sleep
▁nephro
▁lidocaine
▁modality
48
▁CBA
immuno
▁MAbs
approximately
▁peaked
▁cigarettes
-10(
▁epitopes
▁intravenous
▁mumol
cortic
▁diagnose
▁49%
▁75-
▁sleeping
omere
▁adjuvant
▁5%.
▁fibrill
▁chimer
▁favored
▁2.5%
Asp
ophys
▁adolescents
▁reas
▁oocyte
▁cytoskeletal
▁progressive
▁24%
▁inactivated
▁exposure
tigu
irubinemia
▁phosphoinositi
▁cellulose
▁roentgen
70
▁intact
▁progesterone
lastoma
▁CK
▁.01)
▁rigor
propyl
▁opson
▁chemotherapy
/100
accharides
▁1-4
▁EDRF
▁MMS
▁supra
asone
▁persists
▁1,25-
▁prescrib
▁gastroenteritis
▁prednisone
myristate
▁inherent
tism
carotene
schemic
abin
▁upright
▁selective
roprus
▁Animals
ophysical
▁cryp
▁-0.8
chlor
▁stroma
▁perone
▁900
▁sero
▁polymyxin
▁aberrations
▁preload
▁perinatal
ostatin
▁fenoterol
▁mediast
uantitative
▁LMWH
▁antagonism
44
plied
dT
▁[35
▁placent
▁efficacious
▁cytology
▁56
Ds
▁3'
▁eukaryotic
▁Tests
▁cotrans
nour
rP
▁muc
▁glut
lining
▁allogra
▁50%,
▁relieve
▁118
▁microscop
helial
▁13
▁lapa
▁prognosis
▁spectra
▁suppressing
▁dendri
▁(100
▁(39
daily
▁crude
mokers
▁intraperitoneal
Ki
▁lateral
▁dichro
▁sonic
▁(0.25
▁radionuclide
▁VA
▁quoti
▁lipolysis
osides
▁caloric
▁mt
▁enlargement
haled
▁cataract
▁contraception
▁abortive
▁sensitiz
▁astrocytes
roitin
vant
▁nitrogen
▁12%,
▁baro
▁ovalbumin
▁valpro
Hu
▁172
▁vagus
thre
RD
labeling
flamm
▁kallikrein
▁arrhythmic
30
▁.000
endri
▁encompassing
▁intravenously
▁DBP
orbol
▁10(7)
tidine
▁hydrolys
▁MAO
/90
fate
▁reticular
▁expulsion
▁CHD
cence
)2
▁Vitamin
rague
azolium
▁modulates
9).
▁unselected
olitis
Cer
WBC
exposed
CBF
▁provoked
▁cationic
▁menses
atosis
▁overt
▁margins
▁suspension
odil
▁Large
▁(20
formin
▁remission
14)
▁intraven
▁complementary
▁tolu
▁degen
▁symptomatology
▁analytical
▁44
▁elevating
▁prol
▁RU
osomes
▁pleural
▁neoplasia
▁Therapy
blinded
lactating
ocl
rophenol
odg
▁-3
▁GER
bodies
mined
▁rash
▁fumarate
▁whey
deple
occi
resistant
▁intestinal
▁uncommon
▁0.62
▁astrocy
▁dissoci
▁promoters
▁solvents
▁piroxicam
▁extre
aterals
▁276
heavy
▁excre
▁3.9
frequency
▁1.13
aturia
tro
▁undetermined
▁injec
hans
▁formulations
▁cotinine
▁Recombin
▁prescription
▁ethyl
GF
▁necrotizing
▁fric
arose
ocyte
▁(90%)
▁sonography
▁tenderness
▁modalities
emide
▁Lyme
▁phosphate
ifugation
▁3%.
▁Criteria
▁tetrodotoxin
+,
weekly
▁correspondence
osclerotic
▁156
▁purified
athiop
▁recurrences
oceptor
▁buffers
▁fractions
/4
mannose
▁Bronch
▁cocul
▁inhal
EGF
plasma
▁polyunsaturated
absorption
▁complexes
PLC
▁examination
▁91
aned
9%)
▁catalase
RR
3,
oride
▁Experim
Gs
▁conserved
ophag
▁ANP
▁globin
▁coeruleus
▁HSV
termined
tured
diol
▁stressed
▁saliva
▁GS
▁109
romatosis
/8
▁incubated
ylline
perfused
ulence
65
loid
hydr
▁visceral
-6
▁feeding
▁axons
baseline
aptic
uspid
▁nedocromil
120
adone
▁adolescence
▁nec
▁39,
plies
▁hyperbil
kines
sulph
▁galact
▁autoimmune
▁lumin
▁PLA
▁mediastinal
▁synaptic
▁cervix
▁hig
ocomial
icep
lep
▁exaggerated
ocusing
▁Sequence
▁intrathecal
untary
oderm
▁DCA
umbers
▁mildly
▁larvae
79
acti
ctomy
▁Gyn
▁seiz
▁Kine
alate
early
▁Aden
▁(97
▁constitutively
▁8.5
proven
▁Intra
▁mammalian
issive
▁empirically
▁pharmacologic
ulae
▁digoxin
brile
ognitive
83
astolic
ifferen
carinic
etan
-16
▁covalently
▁serially
posal
monary
▁cited
▁Tryp
otom
100
▁visualization
caro
▁gluten
▁chow
▁blin
averine
▁2)
▁sensitivities
▁nifedipine
▁Disease
▁allografts
ivocal
▁0.1,
▁mV
▁plac
opharynx
FN
▁kinetic
▁turnover
bladder
▁lamin
▁microvilli
iliated
iliar
sensitive
▁insertion
322
osteroids
deoxy
▁evidenced
▁PN
▁Retro
▁gonadal
▁traumatic
ipril
▁beliefs
▁orthostatic
unar
▁dete
Gly
▁mug
▁inhibitor
▁(10(
ching
▁thresholds
▁descending
▁exerts
reactivity
▁CU
▁constipation
▁centr
▁kits
▁paraffin
selec
21)
1.
▁pyr
▁protracted
▁2.2
▁acetone
▁phagocytes
▁drinking
orpor
tomy
▁explored
▁quinolones
▁postoperatively
▁postmortem
▁Glu
▁rota
obac
▁Phen
▁alkylating
▁childhood
26
7-
imid
dC
▁transfect
▁3.6
▁antero
riton
tipation
▁osteoarthritis
▁impair
▁unde
▁hepatocellular
acements
ourinary
▁identi
▁stably
▁kidneys
▁erythrocy
-0.
▁sensory
▁factorial
rous
acr
EDTA
iscal
▁ductus
▁genome
▁0.0
▁0.60
▁Findings
▁NADPH
▁accessibility
▁mutants
isomer
19)
▁0.69
▁euth
gp
▁0.
▁benzo
▁3.2%
▁catheterization
▁locus
▁phenyl
▁IgE
▁0.1
pharyngeal
▁antisera
▁erythemat
▁Increased
▁adsorbed
▁dendritic
▁cured
▁corresponded
▁bac
metabol
▁androstenedione
▁topical
brids
▁compensation
88
▁bic
▁insuff
▁avoiding
▁solitary
▁antif
▁pathways
▁2),
▁retention
▁200
umented
▁discom
▁perif
▁nonlinear
▁Urinary
▁trachea
▁ligament
saccharide
Daw
▁contributes
▁efficacy
yrox
▁bilayer
▁parenchyma
▁2,4-
▁operative
activation
▁pharmac
▁glycosylated
5.
▁ipr
rologic
dose
▁infar
MTV
▁6%
▁fluoride
▁103
▁journals
▁Natl
ressing
plicated
▁excitation
lusion
▁adherence
)],
ertion
▁trigeminal
▁abr
PKC
▁thoracic
▁-9
▁trabecular
tory
BP
▁7.9
▁blas
▁wors
▁Replacement
▁aryl
▁caudal
grams
▁heavi
▁dental
illion
4.1
00,
▁phosphatid
▁tachy
▁resour
-27
ioid
perfusion
keletal
tition
▁GI
▁aspec
▁Ultras
▁86
▁interstitial
imination
▁0.7%
▁irradiated
▁mechanisms
▁alprazolam
▁198
▁addic
GMP
▁TMP
▁granule
▁ration
▁outpatients
▁carboxylase
▁18%
ticularly
-17
▁immobilized
▁sucrose
▁cytologic
▁orthoped
(2+
▁reversibly
95%
opharm
phosphates
thel
▁amiodarone
▁restr
-4,
0.1
▁infrequent
/6
▁104
▁Severe
▁-7
taken
▁chond
.4%)
▁heifers
▁strategies
ethyl
28
▁tibial
hetamine
ditional
apeutic
▁phosphoryl
▁Americ
▁shifted
▁80
▁urea
amphenicol
▁reticul
gus
aterally
roblasts
▁systematically
2;
▁erythrocytes
▁detrusor
adders
eliac
▁soy
▁concentrate
▁mononuclear
erose
▁reapp
▁hamsters
▁227
▁tablets
▁Inte
▁raphe
▁Lp
exy
2).
mmol
▁Evid
▁(200
omod
▁ure
sue
vae
▁diuresis
▁17.3
▁conclu
aced
▁apparatus
oprotein
▁allergenic
▁thiazide
▁sediment
▁intake
▁0.99
▁308
oA
▁lectin
▁cyst
▁ofloxacin
▁hemodynamics
CFU
▁deferens
▁polymorphic
▁120
▁17.8
▁gonadotroph
▁ambul
assi
▁lymphoid
ordant
▁simultaneous
▁births
▁Nit
tetric
▁Doppler
▁0.80
amines
▁leukocytes
▁fractional
▁endoplasmic
zot
propanol
▁mediate
alp
anav
▁Antic
oxifen
▁collic
▁recipients
▁ACh
▁esterase
▁diurnal
▁HCV
azone
uestionnaire
▁headache
organization
▁rheum
▁5.7
▁duplic
▁eluc
▁sequel
SHR
▁dynorphin
▁abilities
▁anemia
▁2000
acement
▁retard
▁tymp
inducible
▁IK
▁subcutaneously
▁biosynthe
▁(5.1
paired
▁necrotic
rase
▁embryos
▁questionnaire
▁sucralfate
▁prevalence
▁complaints
▁traum
▁leukotri
▁forskolin
▁dystrophy
30,
▁coping
▁(70%
▁hepatomegaly
▁dyspnea
urons
▁histone
1-1
▁rhesus
▁venti
▁oxid
2%
▁DP
▁relaxed
portant
▁nicotine
ocyanin
16)
▁47,
▁remod
▁percentile
▁opioid
-8)
polar
HSV
-38
imetic
▁surgeon
ture
severe
▁thyrotropin
▁sprin
▁OA
▁asymme
significant
ospitals
oradi
▁papillary
▁embryonic
87
▁compressive
existing
ralfate
▁influences
ilol
▁129
▁assessment
▁investigating
▁Adult
▁considerations
▁restenosis
urys
▁220
▁ultrasonography
▁Spontaneous
▁ampicillin
ostatic
▁correlated
aryng
▁vimentin
cytochrome
enal
▁1,25-(
▁aro
aric
▁healing
toxin
▁cranial
▁clinicians
▁FFA
arrhy
▁8-
His
troduction
ropine
▁transaminases
▁whee
▁polys
▁extremities
▁0.70
▁EPR
▁58
▁fossa
ognition
▁brom
enic
▁indication
TCA
▁Injection
▁ureteral
ocom
▁guanylate
▁mono
▁triceps
opyran
▁Clinical
▁abscess
pharmac
otox
▁dyes
▁0.45
▁0.94
Pt
▁dissociation
treated
▁auditory
onography
productive
▁mitochondr
▁formalin
▁salic
▁glycosyl
▁exerted
▁prevented
▁lipophilic
▁introduc
▁3',5'-
▁spectro
otide
▁conges
▁10.8
▁exhaustion
▁reac
▁occl
ploid
▁tympan
▁bicycle
alasin
▁lamellar
▁buc
omethyl
utin
▁precipit
▁arterio
▁keto
▁GABA
▁HPLC
ervations
▁cation
▁Acet
▁primate
▁practitioners
▁mimic
teroidal
▁anticholinergic
urium
▁scaven
VLDL
cessively
▁fulminant
▁Sephadex
▁Repe
▁seb
▁ointment
▁virtually
▁nM
▁confined
parag
▁intrathe
tur
Pu
▁blister
▁arousal
▁grip
▁endpoints
releasing
▁capsules
▁Kupffer
▁diaphragm
▁interventional
adecanoyl
▁36%
drome
▁bronchial
▁anhydrase
▁(15%
▁[14
▁constitute
tened
▁sputum
▁supr
▁Hodgkin
▁FS
▁carotid
▁radicals
▁2.5,
▁diseased
▁sinus
BV
▁cytochromes
▁enriched
renal
▁idi
adren
▁0.61
▁afterload
▁raises
▁arteriography
▁acceptor
▁241
▁tension
idol
▁5'
▁Acute
▁promp
admill
▁750
▁behavioral
▁pooled
▁cirrhosis
▁methylation
▁immersion
permine
IAA
▁(1,
▁Peripheral
jac
▁postsynaptic
-198
▁messenger
▁protec
olab
▁paradig
▁transplantation
lox
▁fluctuations
▁aggregates
▁Michaelis
ophyll
▁distal
▁(29
▁chromium
▁transported
▁specialty
▁intercal
▁wean
▁1/2
▁septal
ACh
achn
▁equivalents
▁arth
orphine
▁nausea
▁fluorescent
▁0.11
▁competitively
0.8
erant
aminidase
▁practitioner
▁1,2-
▁anions
▁0.86
mL
▁steep
enyl
fem
▁0.13
▁10(-4)
▁26%
▁cleaved
▁transitions
▁Barrett
▁mutation
▁waking
▁bradykinin
▁albicans
90,
▁.001)
effectiveness
NM
himbine
hydroxyphenyl
▁73
▁gradients
▁promo
▁glutaraldehyde
gesia
▁PMN
▁thymus
▁acute
olymer
rometry
▁defec
▁retarded
▁derangement
▁72%
▁stripping
irone
▁acoustic
▁adsorption
▁interference
educ
resistance
▁mitomycin
▁neurotrans
▁randomization
▁disadvan
▁endocarditis
▁(1%)
▁recurrent
FGF
▁enkephalin
▁-10
induc
▁neurons
▁pacemak
▁LDL
▁epic
▁Educ
nthe
▁washed
▁neurites
▁synapt
▁swim
▁ventricul
leuk
imodipine
etoprotein
▁coeff
kilobase
apo
▁cofactor
▁aspartate
▁pathogen
▁insufficient
▁pneum
ilic
▁nig
700
carb
6%)
▁allergens
▁EB
unately
▁Glc
▁nal
▁dox
oclonal
▁erosion
endocrine
otyp
versal
▁stimuli
▁metabolically
▁(9
▁sugges
▁vein
▁laboratories
▁ventrolateral
▁controversy
▁evid
olipid
carbon
▁normalization
▁presumably
▁PBL
▁endemic
azosin
▁gels
SAID
-8
▁preexisting
.2%)
▁infusion
▁synapses
meth
bearing
▁candidiasis
▁allerg
ophilic
▁hypertrophy
▁154
/2
▁6.9
300
▁kD
▁whereby
▁inotropic
▁volunteers
▁restor
▁DVT
▁encoun
▁Coronary
▁thiol
▁calcium
▁hydrocortisone
▁isomer
rosophila
enriched
▁IIb
▁endoscop
▁peptic
ofil
▁mimicked
▁tear
▁oocytes
tig
roscopically
odies
▁attributable
inely
▁castration
▁metastasis
▁FN
-13
▁36
▁(5.8
▁lymphaden
▁47%
▁Statis
▁agglutin
▁hepatitis
gthen
unctions
▁amino
▁Glyc
eprazole
CHO
▁eluted
▁nodule
▁endometrial
▁0,
▁competitive
▁disappearance
▁cadmium
▁electrochemical
-201
▁adenylate
▁Physicians
▁foci
▁phenytoin
▁glycolysis
▁45%
cents
kinson
▁microelectro
▁acetate
▁structural
▁237
▁Previous
▁aspir
▁cessation
stin
▁titers
opril
▁28,
▁GHRH
▁albuminuria
▁LVH
▁shorten
▁6.5
▁linole
amide
▁disorders
tically
▁latex
▁84
▁bilateral
LU
▁hrs
▁AMI
▁cac
utyric
▁tritium
▁hemorrhagic
enh
▁devoid
coronary
▁oligosaccharide
otomy
▁curriculum
▁intractable
▁sulfhydryl
▁histi
▁hypotension
▁24%,
▁(1)
obacterium
▁158
▁drinkers
▁chromosomal
▁efflux
▁thromboxane
▁Failure
▁polyc
▁mesenteric
▁cumulative
dihydro
▁elab
disc
12.
▁enzyme
▁ana
▁neutroph
orption
▁tumour
▁Cd
▁lysosomes
▁200,
▁deformities
▁mesenchyme
helix
actin
▁pep
▁kine
+/-
▁nutritional
▁permanently
lymphocyte
blastine
▁urinary
▁compounds
uled
▁investigators
▁divalent
▁progenitors
▁surveys
ergency
▁lesioned
▁unchanged
▁successive
▁poten
▁gynecological
▁intimal
operatively
▁BP
▁LMW
▁dietary
▁5.5
▁interpretations
▁25-
▁intermittent
▁ulnar
visc
▁macropha
▁downstream
▁0.025
▁expiratory
▁oval
▁aeti
▁prazosin
▁limb
osage
▁asymp
▁budesonide
▁phenobarbital
▁hypers
▁histochemical
▁guinea
▁phage
▁transmural
▁scans
▁biotin
hion
▁deoxy
▁ganglioside
▁fibronectin
SMC
mend
▁macromolec
▁shel
-6)
18)
▁68
▁passages
▁53%
▁MI
ischemic
RH
▁3.3
▁Dop
▁intraepithelial
▁rotavirus
ogenous
▁lysine
iphene
▁reperfusion
ntolamine
kD
▁neuropeptides
apride
-8-
▁Transient
▁junctions
obarbital
romised
▁dele
▁potentiate
atibility
sives
▁arrhythmia
▁ligation
▁tetracycline
▁malabsorption
▁hypo
▁NH
-40
▁stabilized
▁rearrangements
nithine
PGF
▁47
93
tif
▁broth
▁strains
▁serology
hormonal
▁lysate
vitamin
phosphorylated
atation
(2
▁sequenced
lactam
▁microtubule
▁Prevalence
alazine
▁exceeding
▁soma
▁insulin
▁retic
▁rats
▁heterogeneous
▁4,
▁promotes
▁granulocyte
▁21%
-5
occal
▁octa
▁epididymal
▁seroconverted
▁collagenase
▁excitatory
▁remarkably
▁mood
2-
▁48%
▁clamp
▁bolus
▁anticonvulsant
▁wrist
▁sple
8).
▁solids
▁retin
endorphin
▁Parkinson
degree
▁disturbed
igarette
▁exercising
elvic
▁receptors
▁puls
▁blunted
▁coex
▁nipple
Ins
▁acin
▁Adequate
▁abstin
▁cytolytic
ifed
▁cortical
-200
dyn
lyce
▁hind
dition
rometric
▁prescriptions
▁withdrawn
▁proteins
▁DNase
▁weighted
▁parasite
▁cDNAs
▁immunogenic
▁nonpregnant
quid
▁physiology
crystall
▁droplets
▁underestimated
ogaster
yrin
▁1:
▁lasting
glucose
▁hyperins
▁retinal
▁51
▁afferents
▁oncogenes
▁preincubated
plasty
▁chloride
ysm
▁skinfold
electric
19
ulous
pontaneous
▁(42
▁chewing
reduced
▁(+)-
ubular
▁traction
▁therapy
monella
glycerin
endazole
▁headaches
minute
▁discontinued
▁resc
▁recru
▁isozymes
64
▁Biol
▁aureus
▁masked
-11
sibly
▁oes
▁Cycl
▁microsomal
▁salmon
▁infiltrate
▁8644
▁scanning
▁80%,
▁erythroid
▁herb
▁evaluations
▁phagocytosis
viruses
▁80%.
mTc
▁discontinu
▁hybridized
▁(5-
▁carvedilol
ulatory
▁epid
reening
▁electrostatic
▁lax
▁8.2
conjugated
▁Chronic
▁polymerase
▁cornea
▁arom
▁hemolytic
▁thal
▁ophthalm
arachnoid
▁Groups
▁heterodim
oglobulin
▁loci
phosphatase
▁hypertension
▁ACTH
▁Physical
▁GD
▁constituents
▁conjugate
▁hydrop
olip
▁ribosome
emic
▁discharge
▁undergoes
▁parathyroid
▁Oste
▁Few
▁heteroz
oproteins
▁synergistically
▁beds
obacter
roxicam
▁terminals
stimulation
▁consecu
▁packed
▁amyloid
lymphocytes
▁feline
▁inconclusive
asic
▁beneficial
▁mamm
▁weighed
▁LM
▁gum
▁uteri
▁durable
▁pate
requ
▁cats
Barr
▁atrial
were
▁graded
7/
▁natri
nucle
▁paraventricular
▁tremor
▁noradrenaline
▁corne
▁6
▁6.7%
bacco
▁appendicitis
immunoreactive
▁1988
▁Thyroid
▁ELISA
▁herpes
▁bronch
000)
▁virul
▁Changing
▁creatine
eration
▁fibrils
eradish
▁pallid
asting
▁19,
,000)
stress
▁observational
uronal
▁5.5%
▁15,
▁microspheres
roup
▁paroxysmal
▁(28%)
▁8.
▁acidosis
occus
▁lysis
▁dividing
uretic
▁lipoxygenase
▁Infusion
▁abrogated
▁neonatal
▁vertebral
▁divertic
▁12,
▁inver
placement
itre
▁EEG
▁arterioles
▁17.1
ithi
piratory
▁Thir
▁bradycardia
▁Maximal
▁hyperplastic
▁6),
opoiesis
phoresis
HB
▁atten
imus
athe
▁hemisphere
▁stratified
arity
injection
▁dermat
▁17-
▁263
reactive
ilution
etus
▁laparotomy
enopus
▁tol
▁ultrasound
▁autoantibody
amus
▁Cyt
▁congestive
▁calcification
▁lymphatic
▁respiratory
▁bonds
ivariate
▁selen
plications
▁eating
▁preparations
▁hypon
▁backgrounds
▁subjec
▁Effic
▁195
Mg
▁PG
maximum
▁HAM
▁spermatozoa
▁VL
▁HTLV
treatment
▁molec
▁dys
ucleated
▁chromosomes
ylephrine
▁vulnerable
▁permeability
molec
▁1.2,
▁7.7
▁hypoxia
▁ECM
▁metabolite
▁rhythmic
tral
ials
▁flap
▁RI
▁neurotensin
▁residue
▁50-
▁invariably
▁assembled
▁attitu
▁acetaminophen
▁adherent
▁0.36
▁51%
▁interf
▁titration
▁5,
▁(8
fluoro
+-
amel
▁VP
▁(94
▁symme
cutaneous
▁attenuation
aminobutyric
▁paradox
kets
▁coupled
olute
ruc
▁questionnai
eptides
▁endocytosis
▁(24%)
mercapto
virus
▁cardiomyopathy
AFP
▁(150
▁nonresponders
WK
lactamase
sied
glutination
▁testes
▁exert
▁weaning
onary
▁paired
▁potentiation
▁cesarean
▁4.2%
▁radionucl
tigo
4/
▁blasts
▁cows
▁preceded
▁dihydro
97
▁baseline
▁Fifty
▁parox
▁chloro
▁PRP
▁particulate
800
ropha
tryptophan
▁Lactobacillus
▁concep
andard
▁hypoglycemia
▁intracor
▁ASA
▁DG
▁Absolute
roxen
▁MAb
▁positioned
otypes
▁monovalent
trodotoxin
TGF
converting
-8.
quine
▁BN
▁creatinine
▁infrequently
▁toxic
▁neutrop
▁morphology
▁innerv
▁glycine
▁cytokine
▁(79
▁biom
▁maxillary
diastolic
butamol
NMR
▁normalized
▁terfenadine
▁transverse
▁emphyse
▁microsp
brom
▁1.2-
▁(1/
▁immunotherapy
▁replic
copic
▁transitional
▁188
RV
▁psychiat
iological
yrate
▁fecal
▁malign
31
ucas
micrograms
▁smo
▁tyrosine
▁transmitter
▁VO
overed
ografts
▁insom
affinity
▁HC
▁groove
▁Modified
▁syncope
hered
▁261
▁TRH
▁PAH
▁mong
gulatory
▁abor
▁ips
▁Comparing
tussis
▁progen
▁0
▁microns
tetr
▁resin
uprofen
▁steroid
▁tendons
omical
▁cartilage
▁neoplasm
▁controver
omal
▁antigens
▁ile
4%)
Trp
▁50
▁95%.
▁flashes
roxyprogesterone
▁prosthe
phila
▁peric
▁untrained
IH
▁eradication
▁unexpectedly
glyc
ustained
▁quantified
traction
rofen
▁diaz
▁reinfor
▁38
▁Recommend
▁estrogens
cyst
▁perme
ductase
▁placement
-5)
▁isotonic
▁hydroxy
▁pectoris
sized
▁corneal
▁elicited
▁referrals
▁fluoxetine
▁propensity
▁leprosy
▁enalapril
▁kilobases
▁residual
repres
▁(4.3
▁123
emin
▁arrhy
▁predominant
effec
▁choles
▁Simultaneous
▁uncontrolled
▁mosa
▁fum
▁7.1
▁nonm
uretics
▁transloc
entia
▁wound
▁Certain
(5
▁7)
▁diploid
▁deposits
▁titrated
▁lecithin
▁(-)
vaccinated
▁IGFBP
▁prevail
▁nip
yramine
avir
Bs
▁4.8
lected
▁Gly
▁(+/-
▁zym
yzed
▁intraper
▁encodes
▁fulfilled
▁85%
30)
▁penile
▁bladder
▁inflamm
iceptive
▁rhythms
▁thallium
▁Lys
▁PD
▁Impro
▁Thin
▁shortening
▁fluxes
▁intranasal
▁compromise
▁sagittal
lora
▁speculation
▁bonding
▁introns
-5-
LN
▁arteriolar
▁Adh
▁increasingly
▁10(8)
amine
▁resonances
▁22,
SDS
▁predictors
▁elucidated
▁adhe
responders
enzymes
▁melanogaster
▁2-5
▁presentations
▁smear
▁Risk
CAM
▁colony
▁oligos
-66
▁dosages
▁neuroendocrine
▁Eighty
versus
▁dodecyl
sian
▁gloves
▁choline
▁0.04
▁molar
▁morbidity
▁0.59
nary
ogens
▁lipoproteins
▁empiric
▁behaviors
odop
vices
amino
▁ole
restingly
▁typh
▁pefloxacin
▁drinks
▁construc
olism
azoline
atrial
-6,
HF
▁participating
▁endogenous
▁intercourse
dil
▁releasing
▁endoscopy
▁obese
▁intracerebral
▁nucleus
glucosidase
ozo
▁estrous
▁demyel
coun
6/
▁findings
▁unrestricted
▁0.44
▁CAL
loro
00-
▁sedim
▁organs
odular
▁Ia
▁1.6-
othane
olipids
weed
▁ubiqu
▁qualit
▁duodenum
smokers
trib
▁synchronized
▁provid
▁synthesis
olase
12,
▁OV
▁suppression
▁indi
▁menopausal
▁receptor
▁deuter
▁needle
RF
▁rhabdomy
▁abstinence
▁94
▁Tissue
4)
▁acupuncture
18,
hop
chlorothiazide
▁ovine
▁carcinogens
▁tumors
effective
▁geniculate
▁97%
▁perfused
epsia
amethasone
▁specialized
titis
▁Fetal
▁antim
▁infection
▁avoidance
▁iatrogenic
▁problematic
▁Radi
okinase
OHDA
▁NADH
glycerol
▁myo
▁infarctions
ypass
▁dilated
urc
▁nigra
thanolamine
▁anterograde
▁93%
▁muta
▁hippocamp
▁264
▁jejunum
vely
▁glial
▁scin
▁POMC
-4)
▁interfer
▁BU
▁(0.6
▁vaccinia
nee
roxic
▁sodium
▁prerequ
▁73%
▁aortic
▁alopecia
▁advan
▁heterosexual
ADP
▁trabec
pA
average
▁minority
-5.
usive
▁liposomes
▁determination
▁lesser
0/
▁difficul
chicine
coup
veolar
tillation
▁(10(-5)
.10
▁9.9
▁blinded
▁LDH
▁1.17
▁latency
rotal
elic
▁fibrin
▁thrombosis
▁extrac
ortical
▁preschool
▁improves
▁0.33
▁Neither
▁2.
hydramine
emak
▁rebound
▁anaerob
bral
april
▁postnatally
2),
either
▁diagnostic
▁chemically
▁validity
posure
▁contour
▁otitis
inducing
▁adjusted
▁Epid
▁synergistic
▁proteoglycans
▁calcitonin
▁reveal
▁fluctu
▁90%,
acyclin
▁9
agonists
ameth
astine
▁antipsych
▁cros
▁stresses
▁demonstrable
▁HIV
▁maximally
▁ionomycin
tracellular
▁coated
trop
▁Caucas
edding
aerobic
VIP
ogenesis
▁phyto
trophin
myrist
▁narrowing
▁protamine
▁fmol
▁nonf
adecan
▁vertebrates
▁Hind
▁255
▁accidents
▁amine
urospor
▁predictor
▁unsuitable
▁PGI
▁sustained
arly
▁dermatitis
▁Pain
▁autoradi
IIb
▁doxorubicin
▁0.46
fraction
▁segreg
availability
▁increments
▁affinity
▁(40%
▁Combination
▁000
responsiveness
oxane
▁helic
▁Drosophila
▁clones
▁ketone
▁homogenate
▁smoking
▁GA
▁outcomes
blocker
genic
▁conduction
▁ligand
itoneally
aortic
ospinal
▁microgram
▁inflammation
▁labelled
oxamine
▁yearly
▁peripheral
▁1.9
▁oxygenation
▁reagents
microglobulin
faction
▁arising
▁EG
▁monthly
idin
▁glomerul
▁breeding
▁fascic
▁initiated
▁infected
▁apoB
anoids
▁Interestingly
▁taurine
▁12.5%
sorbed
▁13.2
▁NT
abdominal
▁chronic
▁7-
▁131
osom
▁flas
▁ADR
10)
▁Exercise
astases
▁viscer
▁NB
▁sulphate
▁feasibility
omain
▁54
venty
▁glycolytic
▁attemp
fec
▁0.55
▁eti
▁tonsillar
angiotensin
ylation
entric
traumatic
▁unequ
sectional
▁hematologic
▁1.16
▁immunoprec
▁Parameters
-1.5
hist
▁TG
▁ADH
optic
▁replicate
3-
aind
▁Experimental
▁steroids
ectomized
▁relieved
amisole
▁arteri
▁54%
uppression
▁bronchi
icient
ylcholine
▁Hep
▁5%,
olesterolemic
gth
peptide
▁genetic
▁hybrid
phor
0.5
tir
▁ECGs
▁histones
▁3.
▁subtype
▁catab
ysto
ischem
phage
▁depolarizations
incubated
substituted
▁parap
arge
▁deficiencies
▁secretions
▁cortisone
▁hematuria
▁Evaluation
derived
▁Tn
-48
▁inactive
▁confirmation
▁anore
▁(2.5
▁analgesic
▁pancreatic
▁natriuresis
▁1966
▁junction
pressing
▁donor
utroph
▁degradation
▁implantation
arginine
▁247
▁arises
▁carboxyl
odiazepine
▁Abdominal
▁rotational
▁ovaries
▁anomalies
ranolol
▁DS
itary
▁Metabol
▁adduc
▁imbal
▁distinctly
tein
CRF
▁competence
▁virions
entif
▁adriamycin
whe
▁paradoxical
▁NN
14
bloc
▁heme
▁sore
▁PIP
▁RAS
ungal
▁mL
▁hypogonadism
ughter
▁regar
▁chromat
▁166
▁comparable
▁PMS
▁NaCl
itum
oretic
▁struc
amination
▁reacting
apamil
▁Patients
▁fixation
▁ciliary
▁transection
▁isoforms
▁4.5
▁lipid
80)
estrogen
▁Estrogen
▁52%
▁4.2
▁favorable
▁ultra
ivary
▁BT
▁multim
▁transfection
▁androgens
▁mitral
▁FMLP
▁disseminated
erated
▁phospholip
luc
▁protr
▁0.57
▁damaged
▁equimolar
▁cerebral
▁haem
▁horseradish
reported
98
▁LR
▁reti
▁reporter
acked
coh
▁(10(-7)
▁(4%)
▁0.25
▁vitro
1);
▁plastic
▁phenotypic
▁emerg
▁microM
▁parie
atidyle
thymic
▁60%.
▁pem
tituting
▁hypertrophic
▁platinum
inflammatory
gated
3;
vix
▁histological
inemia
▁recurrence
roscopy
▁257
acylglycerol
onuclease
▁wheat
▁smears
▁(5
▁aggressive
rever
thoracic
algia
▁expectancy
▁113
▁dizziness
▁PGA
▁FSH
▁demonstration
▁Sertoli
▁periodontal
20.
▁bowel
▁ketamine
rowth
▁arrhythm
▁megakary
lamydia
▁illus
▁mitogen
▁(44
▁therapies
70)
▁tracheal
triglycerid
▁CDDP
uculline
romy
BMD
arynx
▁cytos
▁surfact
▁conjugated
▁CHF
valvular
isoxazole
siology
▁1986
▁ploidy
tative
glucuron
▁progressed
▁diminished
▁molecule
uding
▁investigator
▁[32
▁assay
▁leucine
obarb
▁obtaining
▁Engl
▁hypothalamus
▁scre
spar
▁unsaturated
otine
▁lasted
▁Beta
▁nephrotic
ologically
tation
exin
▁erythropoietin
▁neoplas
▁(80%
atropium
▁18,
uestion
▁meaningful
▁myc
ocrine
odermal
▁anhydr
othal
▁controlling
▁10(-5)
▁ascending
▁0.16
▁(63%)
▁confirming
▁contamin
▁neutropenia
▁negatively
CoA
TNF
35
itals
▁promising
phosph
▁2%
▁electrode
▁excised
▁epididym
▁DD
▁Subsequently
▁resonance
▁esophageal
electron
▁1.15
▁KCl
tene
irub
▁febrile
38
▁healthy
ulant
oblasts
phosphamide
▁Braz
▁grains
▁interfere
itrate
▁soybean
▁modulate
median
▁76%
▁Urine
atches
dip
▁proliferating
▁Changes
▁indicative
otid
iparous
▁transfusion
ejection
oratory
▁thrombus
▁fertil
▁mucous
rected
▁positional
phosphate
agic
tribution
▁persistence
9;
▁exchan
▁hemo
sA
reasing
▁negl
▁perturbation
▁CBF
letion
piper
103
▁hypog
▁mediated
▁Inhib
tive
▁dihyd
Lac
tations
▁remodeling
molecular
▁aerob
▁prostate
▁adipos
▁pregnancy
tris
▁apnea
▁16%
▁prescribed
▁intim
▁couples
▁177
tron
▁cisplatin
oalveolar
▁antec
▁tetr
▁notic
azepine
-50
▁asthmatic
androgen
ohnson
▁2-3
▁SPL
▁nasopharynx
▁NF
▁neutrophil
particularly
▁artery
▁motoneurons
▁erythropo
▁olive
▁accumulate
▁5.2
criptions
vate
▁periphery
ionyl
▁42
HIAA
▁incontin
▁160
icidal
▁cholest
▁denat
▁glycogen
▁vaccines
▁felodipine
▁0.42
▁hypophys
▁EMG
▁phosphates
5%.
choline
▁grain
0%
▁lactation
▁contral
Glc
▁2.4
▁Median
▁79
▁32
DTPA
▁glycoproteins
NAc
Gl
▁FITC
imide
▁clus
▁Outcome
▁Testing
idney
▁infarc
▁isoproterenol
▁inverted
patients
▁Partial
▁11%
▁mineral
▁syngeneic
oplasia
tures
▁detrimental
▁spas
inated
▁haloperidol
▁cardiople
▁leth
▁pyel
▁quantif
titute
▁electroph
▁surviving
▁gingival
activities
▁nitroglycerin
hea
▁ventricular
▁yohimbine
▁facet
tectomy
▁cytoskeleton
oleucine
dimethyl
▁6.
▁capillary
▁markedly
▁succinate
osyltransferase
▁quantitate
▁encomp
▁functionally
mega
▁luteinizing
▁complic
▁Concentr
▁challen
needle
dependently
.6%
▁palli
▁nif
▁contractility
galact
▁sclero
▁inversely
▁dial
▁degenerative
▁respir
enol
labelled
▁ranging
omiting
▁0.001
▁adaptive
▁alters
▁asymptomatic
▁papill
ameters
▁(56
▁40%
▁hypertensive
-1,
▁basement
▁ischaemic
aturation
▁90%
▁administer
▁FE
IDDM
▁eccentric
rection
▁hir
▁tuberculosis
arbox
myr
▁Cul
oung
shaped
▁substantially
▁persisted
▁ocular
▁leukemic
▁Caps
▁ovariectomized
▁quantification
▁sinusitis
▁bronchodilator
▁Rates
▁cycling
phine
▁underst
nons
▁supplement
ochemical
▁PAI
ylyl
▁25%.
▁myoglobin
▁(14
operoxidase
actam
▁cephalosporins
▁133
▁granul
▁unfractionated
acquired
▁alveolar
▁phy
▁cardiovascular
▁PGF
▁pretreatment
adjusted
oxyl
▁Tyr
▁mobilization
▁RNA
▁uncomplicated
PMN
▁junctional
pig
▁annually
▁Organization
ANF
▁nylon
ocycline
▁incub
▁induc
▁collec
▁adenosine
ducing
▁viewing
▁neurogenic
▁structurally
▁concentrated
▁endothelium
▁Nineteen
▁Trp
▁sinusoidal
▁admissions
ancies
▁bronchospasm
▁lambs
▁counterparts
▁dialysate
▁hypothesized
etidine
▁Dise
ureus
▁serogroup
▁tumours
retic
▁NADP
▁carbonyl
(3
omotion
▁kainate
thmia
▁fitness
▁muscarinic
surface
ocyt
▁attenuating
▁caud
ensitization
▁barrier
▁rhy
▁determines
▁sensi
▁corticosteroids
▁meperidine
▁Thi
▁provoke
▁threefold
benzyl
(3)
▁pharm
affin
enolone
nRH
-4
▁heated
systolic
▁hypothalamic
▁overe
purified
nutrition
tration
▁isoniazid
sively
▁hydrochloride
▁derange
inum
▁2.5
▁norepinephrine
▁BA
▁1.11
ensitive
▁(60
▁attenu
▁700
osus
▁specimen
-[3
▁anticoag
▁ethnic
▁hemorrhage
▁repertoire
▁ect
▁diagnosing
▁etoposide
▁commercially
ipar
antial
▁daltons
planchnic
IIIa
especially
▁38%
82
erebral
xyl
▁subcellular
▁1-
▁pulp
▁bronchodil
ereb
0%,
▁opioids
oneph
▁insemin
▁hipp
▁ganglia
▁peaks
▁audit
▁85
-90
osarcoma
▁precipitated
organic
eminal
orbid
▁imaging
anazol
rine
▁congestion
timulation
-10.
▁gonococcal
▁palmit
▁suicide
▁intolerance
ejun
fibrozil
▁excreted
olerance
▁myeloma
▁abrup
0.2
▁synov
ulline
▁topoisomerase
▁nonfatal
▁vivo
▁enrolled
▁calf
▁crucial
▁Doses
▁EPO
▁110
▁orally
▁benzodiazepine
ths
▁TCA
▁unlabeled
▁13.3
▁CRF
9,
▁Subcutaneous
▁influenz
▁Basal
▁anesthesia
▁PV
▁8,
enoic
ometri
pread
uble
▁laboratory
tering
lycemia
▁chicken
araldehyde
▁biochemically
▁polyamine
▁chest
▁(1).
electro
▁29
maleimide
▁secretin
▁testis
▁reinforce
▁incorporation
botic
▁assays
▁kPa
▁Neuro
▁vibration
otamine
▁frac
▁pharmacological
▁osteoc
fetoprotein
▁9-
depend
▁11,
▁weigh
oreceptors
▁atr
earing
oplasmic
otype
▁3.4%
▁albic
▁9.3
▁clomiphene
ovol
-450
▁TD
▁originated
▁RBC
▁cortisol
▁tow
▁integrin
▁lymphomas
▁neuromuscular
▁dams
▁IFN
▁indomethacin
.6%)
▁aeruginosa
rangements
▁diz
phyl
▁optimally
▁7
▁sour
▁mammals
▁150
▁rheumatic
/5
▁genomes
▁celiac
otransferase
▁.05)
▁Complications
inol
▁biased
lamy
▁amput
▁instrumented
▁circulatory
▁avid
PCR
tices
▁30%
.00
ocial
▁generations
▁16
▁cigarette
otonic
▁counseling
aryn
▁recruited
ohns
Ly
pyruvate
▁subunit
HPLC
▁motif
▁sensitization
▁180
idov
▁23%
▁mitochondria
▁oriented
▁lobes
▁tubulin
isole
embran
▁hepar
verages
▁recommendations
iprofloxacin
▁thrombolysis
▁Individual
▁poisoning
▁ventral
▁cholinergic
phic
▁invasive
ochrome
othyronine
▁perit
▁MK
▁posed
rosy
▁EPSPs
oyl
▁physician
▁lactate
▁46,
▁electroly
▁normals
▁regulates
▁analyzing
▁lith
▁EMA
▁1.18
plantation
▁aimed
▁leaflet
veness
▁Escherichia
▁(0.4
oxygen
▁64
LV
▁surgically
▁162
▁pentoxifylline
▁HRP
▁serotype
▁crossover
▁hydrogen
▁3-4
▁Sensitivity
▁immunogenicity
▁depolar
▁AVP
▁96%
osin
▁98
▁compound
mAb
▁Breast
▁onset
▁emphasized
▁144
▁proliferative
CDD
▁63%
▁Surve
onical
▁deem
▁1.02
▁interruption
isite
▁physi
▁0.08
▁retrograde
macroglobulin
▁hypoglycemic
/30
▁thickening
▁(6)
▁(10%
seven
▁6.2
▁27%
mental
▁hypothyroid
▁1.2
▁excluded
clin
▁appendic
22
anad
▁concom
mediated
▁slices
▁vertebrate
▁quinacrine
Hodgkin
▁39%
▁Weight
▁incidence
▁aggression
▁(76%)
▁folding
▁GV
▁lenses
562
▁describ
▁contralateral
▁66
▁DMP
▁sebaceous
▁Sixteen
tropine
▁irrever
▁saliv
▁Postoperative
uresis
indings
cine
▁myocardi
sial
▁immunocompetent
▁0.50
▁dissemin
produc
▁rickets
▁12
▁efferent
▁transcriptase
▁mRNAs
▁outlined
▁transcriptional
ovulatory
▁tomography
▁intrav
▁0.64
▁justif
▁(4-
idis
iteal
▁patency
ymethyl
▁underestim
rostenedione
omeric
edocromil
▁radioligand
eruleus
ethanol
▁duct
▁exhaus
▁acros
▁nerves
ineal
▁retinopathy
▁fibroblast
physiologic
oil
▁Perc
▁PTCA
rosine
▁abundant
▁appra
▁atmosp
▁62%
pregn
oxal
▁dismutase
▁phenol
▁Tx
▁distin
▁30.
▁specificities
7%
▁Entero
▁tamoxifen
▁emphasize
▁phosphorylated
Cu
loon
▁nosocomial
▁Ventricular
▁3000
ococci
▁defects
▁clues
▁ison
pirone
▁piglets
▁estimating
heric
ylene
▁MMC
isopropyl
udine
▁(1.25
▁puberty
▁suspicion
relations
▁advised
tency
▁clonidine
aminated
IgA
▁250
▁0.5,
▁preterm
▁Surgery
▁Highly
▁typhimurium
ylated
▁RR
▁reversal
▁95
▁primers
fractionated
▁disposal
▁digesti
▁stimulated
▁breaths
▁Cumulative
▁fibrinogen
24,
▁phosphorylation
▁PEF
▁spray
▁isop
▁9.5
thmic
▁quadrup
ported
▁Intracellular
▁1.4-
▁bFGF
rocal
▁prosthetic
▁viability
ochondr
▁bradyc
-120
onide
▁therapeu
▁polypeptide
▁Milk
▁retina
▁4;
▁RT
▁Plasm
tens
▁121
▁CaM
▁postulated
▁dramatically
▁plasminogen
seud
adequate
ulsive
▁hapl
piration
▁hospitals
oagulation
▁overex
▁cholesterol
▁112
▁Successful
▁reversing
ections
▁Recently
▁bacteriuria
▁tonic
▁discrimination
▁lineage
assay
▁sulfon
▁0.5%
▁8.8
▁ovulated
▁500,
▁185
▁enroll
tyl
▁interventions
oxif
14.
rological
▁nicot
▁excit
▁EGF
▁gases
▁intran
▁Comparisons
▁mAb
▁atherosclerosis
lym
▁melanoma
▁KD
▁Chrom
▁hypercalcemia
opulmonary
▁anesthetics
▁HL
ighteen
synthe
▁proline
chol
porting
▁somatic
▁140
▁origins
▁ances
▁alterations
organism
▁skeletal
▁depress
▁amylase
phot
violet
urred
▁statistic
exposure
▁resting
TCR
▁endotracheal
illaries
hydropyridine
onvul
▁cloning
-3,
▁protocols
aints
▁RL
▁400
▁hematocrit
uvant
▁strips
alciparum
▁protons
-]
▁Angiotensin
▁1600
▁nicotinic
▁principally
greater
▁CAH
▁mesenchymal
▁suspicious
▁coordination
dIns
▁(70
▁gon
otor
▁somata
erican
▁undere
2,
cellular
▁prono
unting
went
▁propagation
▁WGA
▁regulating
▁oxym
▁palm
alities
▁tibia
imetric
lives
▁thrombocyt
▁chol
▁omeprazole
▁consciousness
eryth
▁monomers
taining
▁differentiated
▁infiltration
▁discharges
reased
uminal
▁glands
▁quisqu
▁fentanyl
▁neon
▁HeLa
▁absorbed
anding
orphin
▁lipids
▁NG
▁Carb
▁urethral
▁hemat
stolic
forming
▁occupational
▁HS
▁tubule
cinolone
▁WHO
▁agon
▁peptides
-15
planted
▁addressing
14,
▁Hepatic
hydrox
.4
▁dosing
tib
▁vincristine
habil
▁proce
partate
▁suspected
▁spindle
▁ECG
▁superv
.2%
▁dimers
▁contex
linked
▁intracranial
▁suppressor
▁obstructive
▁lymphoma
▁gland
lux
▁5.1
▁thyroxine
▁Optimal
rein
▁hippocampal
▁VV
-10
▁spinal
oventricular
▁secretagog
▁bip
▁139
▁lavage
▁262
illin
▁deletions
▁wavelength
rement
tole
▁Prel
▁30%,
▁symptoms
▁isoform
yclo
▁regulations
▁uro
▁LTC
▁ischemia
▁unfav
AO
roximately
▁HBV
▁ventilated
▁scars
▁allogeneic
▁swabs
teric
▁agar
▁naive
arum
isolated
▁MT
azolam
▁hyperthyroid
classified
▁distinctive
▁crystal
▁reserpine
henyl
▁allyl
▁ecz
▁ery
▁bombesin
▁methimazole
▁spots
▁phenotype
▁breathing
▁intraocular
ocomp
EPs
▁discharged
Hyp
-(2-
▁BALB
▁solute
ittac
-1).
▁pericardial
protein
ameter
▁64%
▁10)
▁proceeds
▁antifungal
▁Decreases
nucleotide
osum
molality
▁dentate
oside
▁206
▁perikarya
▁toxicity
unced
▁alcoholics
▁nephritis
horm
▁Bacter
▁triglycer
▁myofibr
eptin
▁distress
▁jaund
ographically
▁umbilical
▁syndromes
▁.00
oprostol
▁phospho
NGF
▁13,
▁socioeconomic
▁manipulation
owever
▁115
▁subpopulations
▁subdivided
▁monitored
▁stimulatory
▁positivity
▁reflexes
▁epicardial
▁residues
▁42,
▁concordance
ocellular
ytes
igl
amn
lysin
▁0.0001)
ensi
▁thrombin
HCV
robenz
xual
▁determinant
▁MN
▁pseudop
▁suppos
▁interneurons
adm
olic
▁outpatient
▁PT
▁aneup
iruses
▁proteinase
ollagen
▁triggering
▁(45
hexidine
▁Asn
▁(1987)
sia
arrh
guan
▁-0.6
▁iodine
▁constr
heal
▁steroidogenesis
▁injecting
▁accounting
▁shear
terologous
▁parame
▁VH
▁hypercalciuria
ifers
▁0.17
▁glutathione
▁116
▁resembled
uran
▁neuropath
▁88%
▁epidemiology
7),
▁abruptly
▁carriers
▁respec
▁prospective
▁epitope
▁haemorrhage
3%
timate
oporotic
roids
sy
injected
stimulated
▁homology
tility
▁worsened
▁abduc
heres
antibody
▁preliminary
▁irreversible
▁phosph
▁muscular
ocks
▁0.14
ministration
▁14,
opam
idym
illance
▁transformants
▁thems
gangl
▁bleomycin
helical
▁chlor
▁PGE
▁elevate
▁kinin
▁212
kelet
▁clinically
olol
▁3.5,
aid
grees
▁interacting
lood
trically
▁internalization
▁pyruvate
▁linearly
▁pertussis
▁acquisition
▁ICU
▁savings
▁selec
▁MLC
▁MIC
▁hydrocarbon
▁suspensions
acial
▁deterioration
▁amo
crist
mide
▁influencing
tailed
calor
▁SEM
uncture
ongest
▁Comparative
topril
▁lyso
tential
▁Mice
▁perip
▁atherosclerotic
onstric
▁thrombotic
▁sutures
▁detec
▁2-4
tee
▁dairy
▁globulin
▁Leydig
▁metabolism
▁microsomes
epi
▁varic
▁Biopsies
▁syphilis
Hg
▁plasmids
▁physicians
tilage
▁0.01
-24
▁impulses
▁37%
▁motone
ritic
tence
udin
▁impedance
▁assayed
hydroxyd
pended
▁precursors
erop
▁cystic
▁antithrombin
▁antidepressants
atell
tia
▁1987.
▁anemic
▁GM
▁pige
▁127
osal
▁excision
▁illnesses
▁peripher
illation
▁depr
▁chlamydial
prandial
ucine
▁1986,
▁Estimates
roxy
▁embol
▁Indi
micro
▁(7%)
▁haplotype
▁gonadotropin
AH
▁cep
prisingly
▁fathers
ophor
▁Geor
▁leuk
ogl
▁deficient
▁radiographs
▁projec
enin
▁capillaries
▁lectins
▁anteced
▁patches
▁ulceration
86
▁spectrophot
▁TATA
trated
incidence
hesus
▁Isolated
▁necrop
-4-
arb
▁vulg
▁ipsilateral
ilateral
▁accid
▁intermediates
▁encouraging
Ep
antibodies
▁amplification
▁subdural
▁bioavailability
39
HCO
▁renders
ayed
▁monensin
▁dilution
▁aerosol
upus
▁irritant
▁70.
opres
▁adjus
▁Ninety
▁breed
bility
toli
▁chamb
▁hapten
Fs
▁rises
Rb
▁ineffective
▁Identif
▁cellular
otoxic
▁personality
40)
▁alkali
▁glycemic
▁oligonucleotide
▁asial
▁anastom
urnal
▁eosinophils
23187
▁immunoblotting
▁pars
proliferative
42
▁Neurop
-)-
▁glycer
▁ultrasonic
prising
130
▁Asi
acil
▁recombinant
tization
▁prostheses
sAg
utaneously
▁GMP
itic
▁(1000
▁hep
ditions
▁achie
▁ingested
▁ferritin
▁wheezing
▁shortened
sulfamethoxazole
epine
itol
▁intrag
▁Approximately
zotocin
▁heparin
▁adducts
▁crystalline
▁bromocriptine
coated
amilies
atellite
uterine
▁cobal
EI
SEM
▁uncoup
▁guidelines
▁Pulmonary
▁leucocytes
▁antithrombotic
▁dissolution
▁anxio
▁anoxic
0.00
▁follicular
azole
▁effectors
-2.0
▁anaesthetized
▁microU
ostr
assium
uodenal
feeding
▁0.10
▁COS
▁CSF
▁ablation
▁reconstitution
▁verification
▁Retrospective
▁cyanide
▁contiguous
▁doubling
▁440
▁unstimulated
▁Immunohist
▁Gonad
▁incompetence
himb
▁deaths
▁expec
atids
▁0.49
▁cement
▁colchicine
▁CAD
excluding
▁correlating
▁calor
istically
/7
8,
hyp
itonin
90)
individual
▁distorted
▁Various
▁105
6).
▁pretreated
▁evoked
rocy
▁subtle
▁AI
othelial
▁anaesthe
otypic
▁Whereas
▁10,000
ocyst
till
▁20)
▁cyclosporine
▁(16%)
▁Additional
▁cereal
▁80,
sorption
▁substitutions
▁scintigraphy
▁flanking
▁excl
▁progeny
-1+
epithelial
▁rectif
▁PW
▁schiz
plasia
▁14%
dural
▁PRL
▁70-
▁OT
glucosamine
▁1.6
▁survive
▁resultant
▁concer
▁Functional
▁deficiency
▁agglutinin
▁condens
▁exhibit
▁hepatoma
▁wee
▁intest
invasive
▁secretory
▁24,
▁spermidine
mitoyl
trig
▁Conventional
▁intercellular
astom
▁shar
▁spectrometry
osm
▁saline
▁(27
osan
▁1982
▁4.6
▁encompass
urea
rates
▁actively
▁24)
▁Bacterial
▁phentolamine
▁5),
▁demonstrates
▁reoperation
▁77%
▁apex
linded
onazole
▁accurately
▁inhibin
▁immun
lysine
arying
▁skeleton
▁AML
▁extremity
▁lowering
▁vulgaris
ureth
▁bulb
▁perc
mostly
▁8
▁seropositive
▁establishing
▁Medicare
rotic
▁prostacyclin
▁carcinogenic
▁digestibility
-1.1
▁Prospective
▁0.77
ectomy
▁diastolic
▁(48
▁hemodynamic
trip
▁1,25
ANP
▁obstetric
avage
▁oxidation
semin
bA
▁6.3
▁skull
▁cardiopulmonary
▁eryth
▁radiol
▁stomach
▁secreting
effects
matic
-60
▁derm
hydryl
▁intense
▁98%
▁Calcium
▁AGA
▁ternary
hemat
affec
anin
▁focal
adian
rals
▁weekly
dR
ococcal
▁copper
▁antecedent
▁Meth
fts
▁0.03
▁205
140
▁accelerated
▁hygi
▁3/
▁truncated
thromb
▁indicators
▁tendon
▁rostral
▁healed
▁cones
▁artic
▁inhaled
▁examinations
40
▁inadequate
▁choroid
plast
▁incompletely
▁cutaneous
▁diame
▁isoelectric
4,5)
▁simian
▁pigs
▁186
AIDS
▁1.5-
▁restoration
ylchol
▁aromatic
ieties
borne
▁phi
▁identif
tiveness
▁dioxide
▁hypothermic
▁molecules
▁defibr
gressive
atest
▁detergent
▁thymic
▁hydrolyzed
▁TDI
▁tachycardia
▁postinjection
cancer
▁40,000
translated
▁4.9
pH
ensory
▁occult
fusion
▁fibros
▁microbi
▁spp
▁1.12
ifug
oretically
▁predominantly
▁-0.
atories
▁vitamin
▁IgA
▁categorized
idated
▁occluded
ronate
▁acet
4),
▁94%
▁socio
ipitation
eptidase
▁10(3)
▁7.
▁cohorts
▁0.05
▁unm
▁(1
gran
▁focuses
-23
imeth
▁angiogram
▁55
athetic
NK
▁hypoxanthine
▁parental
▁linkage
onine
▁278
-30
▁gynec
▁11-
▁endoscopically
▁symp
[3
thal
thle
▁mucus
CCK
▁0.90
achol
▁aldosterone
vated
▁5.4
opoietic
▁cylinder
▁splenocytes
amyl
▁ejac
▁Phosph
▁Induction
▁cataly
.0)
enoid
▁practically
▁Pregn
▁Raynaud
▁jugular
▁undergone
▁platelet
▁(10.
▁moieties
▁2
▁16.
▁tubules
▁complication
▁reversed
▁NAD
anat
▁depleted
▁GRF
iosis
▁Staphylococcus
▁Intr
▁quotient
▁TI
glycer
▁anastomosis
fib
▁synthe
▁HR
▁deox
▁subc
oste
▁serotoninergic
-2,
▁constitutive
▁caries
hort
▁compositions
▁coenzyme
▁necro
▁surfactant
▁correspondingly
▁rRNA
tin
▁washing
supplemented
▁plasm
▁Individuals
▁metr
▁neurop
▁escal
urin
quir
▁peptid
▁bismuth
▁gestation
essation
9),
▁cephal
▁susceptible
▁clind
▁neph
▁viscosity
▁allograft
RB
onuclear
▁Tox
ocalcin
▁hams
▁emo
▁ovid
▁Transi
▁putative
▁reperto
▁infusions
▁hypotensive
▁recruitment
▁arous
otericin
▁heavier
entary
alanine
▁genic
▁actin
▁flora
▁lorazepam
olarization
▁systolic
gmental
▁hepatocytes
▁DBA
exercise
▁pathogenesis
PRL
▁unfol
▁appreciably
▁inoculum
plicity
timum
4-
essive
romal
▁bladders
▁substrates
▁clinical
▁55%
therapeutic
trained
▁Scatchard
▁1,25(
▁dex
▁transthoracic
▁Abnormalities
ethylene
secondary
-18
▁.01).
▁limbic
▁prevalent
▁permissive
▁Monoclonal
lebrand
dominal
▁pulses
▁unin
▁transmitted
▁thereafter
▁diethyl
▁CN
▁Rating
▁OH
▁pyraz
▁facilitate
oea
▁possessing
▁Cys
▁nevi
▁Improvement
aldehyde
▁stimulation
▁endometrium
tensity
▁causative
opl
▁implic
▁21-
▁possesses
▁1.09
▁50,000
▁retinoids
onad
modified
uded
▁28)
HIV
▁repeats
▁femur
▁assessments
▁consultation
▁intron
velength
▁cyclo
▁intubation
▁phosphatidyle
▁(3),
▁Klebsiella
IU
▁INH
▁MBP
4'-
12-
▁haplotypes
tionally
▁elective
▁exon
ocaine
▁vacu
▁causal
8%)
▁221
-20%
5)
▁fetus
amphetamine
▁pregn
▁abdominal
▁corpus
▁precordial
▁aided
53
▁plotting
▁(24
▁gm
▁splanchnic
▁ischem
▁TPA
orrhea
▁crosso
▁activated
MLP
▁ane
subs
▁enox
orac
▁Pt
▁vicin
▁proximity
▁Fraction
▁clot
▁vitamins
▁exploration
▁lithium
▁2.6%
5,000
▁fluoro
antigen
rief
▁psoriatic
▁absorbance
1;
▁Examination
▁cromoglycate
Au
tract
▁246
tical
2.1
▁breasts
ipheral
▁cortex
▁inhalation
▁immunized
▁superim
▁adul
pran
▁LHRH
▁ether
▁DT
▁sympathetic
adrenoceptors
▁precur
glucuronidase
specifically
oproterenol
obut
oxan
▁25%
iability
▁profound
▁14-
convul
▁forearm
Thr
▁resolving
lysis
67
odend
ocular
▁emergency
ygo
▁augmentation
tabl
▁injuries
▁transplanted
Ls
-1.2
▁histology
▁2.1
6%
▁39
▁extensor
otoxin
▁cyan
▁LPL
▁assis
stem
▁Abnormal
▁mediating
▁MoAb
ovarian
ubation
▁glyburide
▁49,
carbohydrate
▁paralle
▁crystall
generation
▁employment
▁nephron
▁1990.
embrane
▁drugs
▁nutrition
tial
▁(45%)
▁(0.8
▁atropine
▁kappa
▁cyto
▁1988.
tubulin
▁61%
▁multicenter
▁erythema
▁800
▁digested
▁pyramidal
▁aberr
▁tic
▁continuation
▁emerged
▁ingu
leural
▁overview
▁dors
acetyl
▁hypothetical
▁recons
▁hetero
▁follicles
▁ejection
▁7,
▁doses
oglyc
roat
usp
tiary
▁motivation
▁potencies
▁235
oric
▁meal
▁basilar
▁targeted
▁48-
▁strand
amate
▁fimbr
▁streptococci
▁DMSO
phrag
▁glucone
▁serotypes
eroxide
lasting
▁chemotaxis
thirds
articular
▁233
tamine
AVP
secreting
▁aerosolized
▁Tran
▁(10(-6)
glia
▁euk
▁Increas
▁179
arcin
.1%
0).
ochem
facial
▁lor
59
▁obli
alkyl
110
▁characterize
▁BSA
▁conservatively
▁phospholipids
▁RV
▁iso
resis
▁centrifug
▁sepsis
▁acetylcholine
▁mediator
▁consensus
▁chlorpromazine
▁sonographic
▁hamster
▁discus
▁(86%)
iotics
▁EDTA
▁arteries
tagog
▁ouabain
▁pups
▁feces
▁240
rested
▁discrimin
▁biphasic
▁Veterans
thyroid
▁fractionated
standardized
▁phyl
▁caution
olization
▁postinjury
elong
▁0.09
▁Levels
▁hypocal
▁defective
-125
▁urodynamic
icin
▁hGH
▁damaging
onit
tric
asions
▁Chlamyd
▁destro
▁endoc
▁beats
▁Mn
▁airways
▁1980
oxazole
▁18.3
oprote
▁fores
Hb
▁suscepti
▁spasm
▁lam
▁7.6
dopa
▁extravas
▁immunoglobulin
insensitive
▁sigma
▁recur
▁rhin
▁60.
deficient
herence
▁clotting
▁57
plenic
colem
▁quinidine
▁desirable
▁nonsteroidal
▁-0.5
▁sheath
osine
7;
▁unil
vivors
▁unbound
▁interp
▁24-
heat
▁baroreceptor
7)
▁diagnos
▁transc
▁retrie
ellar
▁leuc
▁NSAID
▁myosin
▁disruption
▁proteinuria
▁rigid
▁arti
▁pellet
trover
▁antiarrhythmic
▁apical
▁triti
80
▁agglutination
fine
▁17
orough
▁circadian
iotensin
ibrate
▁4.8%
▁ciprofloxacin
▁2.8
▁splenectomy
▁aor
aline
TPA
galy
threatening
vaccination
gestrel
▁1991.
▁synovial
▁instrum
▁agonist
gland
tructural
▁etiology
▁8)
▁Phy
obronchial
▁averaged
rophy
tilis
▁activators
▁tendency
▁pharmacists
▁CVD
restricted
esin
▁peroxidase
▁elong
▁emotional
inescence
filament
▁probe
eled
▁nucleoside
oglut
-600
▁marrow
arms
▁antib
▁183
▁tetan
▁abolish
aspartate
▁histologically
▁polymorph
▁physiologic
▁hyperox
epam
▁morphine
onate
▁analogs
▁analysed
▁endocardi
▁analgesics
▁polarization
▁athe
▁differentiating
hydration
▁fulmin
olig
▁glucagon
▁2,
oppler
cells
▁histamine
olum
sac
urgery
▁valve
▁(43
-2
7,
▁stren
▁canc
▁capsule
onyl
▁macrophage
phenylalanine
▁schizophrenia
▁determining
▁spor
▁0.3
tries
▁implant
amido
mortem
▁0.6
▁irritable
▁10(-8)
▁consequent
▁dressing
▁nitro
▁disorder
rogen
pregnant
▁macromolecules
▁0.34
umulative
▁HB
-10)
▁disposable
▁fibrous
▁antidepress
▁urticaria
▁ward
lowering
icillin
63
▁glucocorticoid
▁hexa
terious
▁0%
tox
ograp
zinc
▁exacerbations
▁choleste
▁phagocytic
sant
▁41%
▁abdomen
▁Overall
ometh
▁3.7%
▁indeterminate
36
▁xyl
▁Dys
uanti
▁anaerobic
▁adenomas
▁cultured
▁interc
▁diacylglycerol
0)
sulf
▁adhered
▁osteoporotic
▁infec
▁TS
acid
▁27
plants
modulin
-100
cg
▁developmental
5%),
0.0
▁clu
▁locomotion
72
oskeletal
tocop
▁BW
▁CaCl
▁metabolic
▁kd
▁catabolism
▁polymorphisms
ymp
▁Unlike
▁workplace
▁Nons
mortal
▁diabetic
apular
▁diltiazem
▁washout
tonic
▁apomorphine
▁reticulum
▁afl
▁alcoholic
▁electrophoresis
▁0.48
▁obesity
▁Activation
▁resemble
iatric
rachial
ASA
▁mRNA
▁intakes
▁resembling
▁haemat
▁inhibition
▁HBsAg
▁lymphadenopathy
▁extracellular
▁34
sies
(1,
▁omega
▁menstr
▁glycerol
▁venom
▁evolutionary
▁volunteer
▁Pneum
floxacin
▁polyethylene
ffeine
stant
▁peptide
▁PI
▁(2
8%
▁multiv
rotein
▁mM
▁114
▁biologically
▁experi
▁radiolab
▁overlapped
-6.
▁hyperg
▁(99
pyr
▁dehydration
▁additionally
▁diclofenac
fos
▁hyperthermia
▁maintaining
▁12.5
itro
▁immunoreactive
▁patent
▁antioxidant
▁transpor
▁isoprenaline
tivated
asthmatic
▁chym
azepam
▁potent
cein
▁electrolytes
▁epsilon
▁fused
▁epidermis
▁unwanted
▁inducer
▁(0.3
alene
▁85%,
▁malaria
▁preoperative
▁dextrose
▁NSAIDs
▁1).
ongue
▁abscesses
▁epileptic
▁antiviral
▁survived
▁evaluates
opa
NV
▁DHT
▁consul
apsulated
▁40,
fat
▁methyl
▁depolarized
▁stimulates
▁thromboemb
▁assessing
▁choro
▁contracture
▁cholinesterase
idazole
eptic
medicated
▁gonadotrop
▁biliary
fortable
isomerase
▁objec
▁scattering
▁Computed
▁caffeine
▁metastases
▁dosage
iper
▁sarcoid
oping
▁glioma
duce
tioned
▁hemodialysis
▁(22
▁0.88
Lys
magglutinin
▁gly
tisol
▁SCC
▁ewes
icides
▁seminal
otri
▁unid
3+
▁revised
opausal
▁monke
0.6
olones
▁Diets
farin
5]
▁epit
▁0.72
tability
▁extensively
▁12-
gesic
66
▁homocysteine
▁170
sibility
moid
▁87
▁ribosomal
▁AMP
ller
▁descrip
▁simvastatin
▁32%
▁depressed
myc
kle
▁glycol
atectomy
▁Fib
▁CDC
▁0.74
tosis
▁18%,
▁decreasing
▁neo
▁Trial
▁monocytes
opeptides
▁alumin
▁6%,
hydroxydopamine
lamyd
▁mandatory
▁subunits
▁spectrin
specificity
▁oste
▁injur
▁aging
▁glia
inositol
operiod
▁Increasing
peak
▁termed
23
▁electr
▁vasopressin
5'-
▁surveillance
▁PMNs
1:
tents
illary
▁emptying
▁debr
atening
▁modest
▁yielding
▁stimulate
ropriate
▁polysomn
▁theore
otherap
▁bacteriophage
▁programmed
▁cocaine
-3)
sul
▁elastin
▁tolerated
▁ductal
7.
▁fulfill
▁4.1
▁gating
▁gangl
gA
ffinities
RIF
oplastic
itamin
▁cytotoxic
▁cere
▁awareness
kage
gestation
▁accel
2.
▁regurgitation
▁dobut
▁objectives
▁biop
enicill
95
▁matur
-96
▁emin
cholic
▁bleeding
▁tubes
▁tooth
▁0.19
▁chondroitin
▁steadily
▁Leu
mur
▁concentrations
toxicity
▁aden
▁trends
teroids
▁somatosensory
▁42%
▁tolerance
etence
▁abd
▁autocrine
▁0.21
▁chromaffin
5/
▁calibr
▁Caucasian
ecan
▁(0.
ociation
▁incis
disciplinary
anyl
61
▁myel
planch
▁feasible
▁parturition
catalyzed
▁ketanserin
▁catechol
▁10(-7)
▁Alz
▁Individ
▁enzym
▁cultures
▁myopathy
00)
▁antibiotics
▁aneurysms
kephal
+)-
▁polyacrylamide
antagon
▁saturation
▁barb
▁0%,
▁sphinc
▁FGF
▁oint
▁lysed
▁Randomized
▁immunos
▁amenorrhea
ixime
ficial
▁cystein
▁radiotherapy
ystokinin
cotic
ecal
▁bone
▁regurg
▁triphosphate
opathological
▁bab
testosterone
▁10(4)
opramide
tococcus
▁ceftriaxone
▁superficial
osyn
▁0.89
99
orh
-2.5
nals
▁33-
▁homose
▁Thr
▁adversely
▁argues
ardipine
▁enzymatically
iferous
FSH
lobulin
▁halves
▁17.7
▁hypot
oxyp
▁cosmetic
▁LT
▁(75
▁seronegative
▁neuropeptide
bile
▁grades
▁reproducibility
2(
▁carbachol
ventive
▁presenting
resist
▁gastrin
▁Aspirin
▁ecological
▁prepro
▁0.016
▁simulated
▁thirds
▁insurance
entanil
igible
ylamide
▁Nutrition
erver
▁imaged
ropo
▁sickle
▁88
▁microcirc
▁ars
oprolol
▁quanti
gative
▁comparative
▁heparan
▁EIA
▁dimeric
▁CGRP
▁synaptosomes
ollen
▁triad
semb
▁logar
anic
ietin
biased
.1
▁(35
▁Calc
▁0.001)
▁phrenic
▁substitu
oproliferative
uscular
▁plaques
▁clearance
▁deliveries
▁operon
▁nude
▁1.4%
▁CAP
tails
▁hydrolysate
yoto
▁11.2
tensin
▁horm
throm
▁1.08
ROS
▁ethanol
▁parenchym
▁vasodil
DPAT
▁pipette
▁antagon
▁demonstrating
ffin
▁immature
▁exchanger
▁micros
▁attenuated
900
ilibrium
▁wt
▁uterus
▁negatives
uracy
gm
▁0.000
▁chromatin
▁ultim
ivered
▁genit
globulin
icardium
▁staphyloc
▁extrav
▁serotonin
▁stromal
▁papillomavirus
ocortex
ifedipine
▁preferential
▁0.56
▁plas
▁OB
▁Diabetic
▁guan
▁0.001),
xate
ALT
▁ovary
▁atypical
▁4.
▁reveals
acids
▁adop
aventricular
▁cerevisiae
▁inflamed
▁2.4%
oplasm
▁troponin
▁67%
mong
▁puber
▁aggregated
ituit
mol
▁lengthen
obutyl
▁intensities
▁qualitative
ercul
rophic
▁accordance
▁tachyc
▁shedding
▁chemot
▁colonies
▁SCLC
▁anticoagulation
▁(31%)
▁30-
▁effector
pir
▁anxiety
▁Apgar
▁560
▁252
▁irregularities
▁mediators
▁reviewed
▁examines
▁persistently
▁qualitatively
bronchial
▁referral
▁Except
▁conflicting
rents
▁cough
▁Secondary
▁nonspecific
▁psychiatric
ecutive
▁pancreatitis
▁repl
-400
▁GF
▁immunobl
▁(93
▁knees
ispanic
1.1
▁78
platin
▁metformin
▁Epidemi
tection
▁8%
▁efficac
▁[3
▁Tumor
▁canine
▁dismut
▁agarose
▁Thirty
▁ventil
Gal
▁Dose
▁Authors
cysteine
▁radioimmuno
▁calories
+]
▁antidepressant
▁24
uric
▁incid
phorbol
compart
Tyr
▁amygdala
lys
▁MCV
ganglionic
thms
▁(18%)
anuary
▁recordings
▁retrogradely
▁elec
▁4).
cephalic
1/2
▁starvation
BSA
measured
▁yiel
-6-
15
▁autosomal
▁anticoagulant
▁questionnaires
▁collateral
▁unaffected
▁newborn
edle
ylase
▁influenza
▁transduction
NIDDM
▁antioxid
▁degran
NSAID
▁histologic
olestero
▁corticotropin
▁80%
▁dyspepsia
▁discriminate
naud
▁nephropathy
-1),
▁quantitated
opolysaccharide
▁pollic
▁VT
▁eosin
▁obstruction
▁(63
mobil
▁poorly
▁deaminase
skin
oreceptor
erating
▁intrauterine
sisted
56
▁0.001).
▁saturable
%),
ophils
▁trunk
▁regeneration
▁capacities
herol
▁impulse
▁19.
duc
▁intub
▁hydroly
▁enzymatic
ressed
▁Compared
ocin
operative
.4%
DG
▁zinc
methyl
1-
ylcholinesterase
PEG
▁salts
ercise
edded
▁sulfoxide
sched
▁TC
acer
otrexate
▁FcR
indole
▁exocytosis
iciently
▁symptom
▁originate
atized
▁44%
▁apne
▁vasoconstric
isqu
▁Systolic
▁sulfate
gesterone
yocardial
physiological
▁antigenic
▁aminoglyc
▁95%,
▁vanadate
odialysis
21
▁cooper
▁RSV
▁drip
▁biosynthesis
▁prognostic
▁gastritis
▁142
▁49
▁pancre
▁uter
▁14%,
eces
terminus
▁agonists
▁prevention
▁angiography
▁surge
▁cirrh
▁syndrome
▁suckling
truc
▁compartment
▁99%
▁14.5
▁0.82
▁atyp
zoster
▁isoenzymes
depleted
▁rati
▁abortion
▁phe
▁Meas
▁(198
▁Simult
▁awake
anoid
ensities
▁kidney
tite
amily
▁answ
▁prostatic
oxygenase
▁dyst
▁14.8
▁cysts
▁subpop
clamp
glutinin
▁colleagues
▁pathological
▁posttrans
▁VE
titial
▁mutations
▁strongest
▁LV
▁plantar
ionine
▁slowed
▁wake
▁satisfactorily
anavalin
▁retrospective
rolateral
11,
oposide
▁trophob
▁resec
▁mutans
omegal
phylaxis
titution
▁spines
27
▁aids
0.7
▁resected
▁mellitus
▁electrical
osylated
titude
▁ppm
▁vagotomy
oxetine
kephalin
otassium
▁favourable
▁AChE
▁2.7
omatous
▁132
toxic
CDC
▁valvular
oblas
▁tertiary
idic
▁mediates
▁antipsychotic
▁(34
▁manifested
▁MRSA
▁2.3%
examin
▁antagonist
▁LTB
▁strain
▁crom
▁covalent
heximide
▁7.5
▁alkyl
▁EBV
49
orsal
osac
▁mononucle
▁trauma
▁polarity
▁comprised
▁couns
▁shor
embryonic
▁infra
▁collecting
▁DHEA
.3%
60)
▁pK
▁covariates
/10
prin
▁modulation
▁268
fied
▁depression
▁relaxations
kade
isal
▁10.4
-21
ulin
▁(78%)
▁74
ferrin
▁brains
25).
▁quantify
depr
vation
irubin
-35
tak
anadate
olec
ardia
-22
▁participate
▁iris
▁biopsies
▁subfractions
itriptyline
▁Renal
▁neoplastic
▁uric
▁nons
▁carcinomas
▁106
▁decreas
echanical
▁castrated
▁GABAergic
▁atm
▁biology
▁transferase
▁biochemical
▁adrenocortic
▁dialysis
itoring
▁RNAs
▁hindlimb
▁monol
▁inositol
▁33%
keleton
yronine
▁larval
▁pharmacokinetic
▁Biochemistry
▁substanti
▁renovascular
emory
conventional
▁inadequ
▁noncom
▁3,
lovir
▁benzodiaz
ophores
▁elevated
▁concomitantly
8;
▁(3-
▁PRA
ticular
▁3.5%
▁inappropriate
▁prel
contrast
anate
gely
▁OD
temperature
▁schist
▁4.7
orubicin
plo
▁ejaculation
odopa
▁thromboembolism
DNA
▁tube
uality
▁attitudes
/9
lasses
▁ingestion
▁modif
▁dithi
▁murine
▁perforation
osclerosis
▁chorio
▁manufac
▁Invent
▁schedules
▁lowers
clerotic
reast
▁cefaclor
▁alleles
ophore
iasis
tional
▁specimens
▁59%
▁Dex
▁conditioning
▁CoA
osol
▁tuberc
rhea
▁recr
▁measuring
▁predis
▁reciprocal
▁(300
▁examined
rophob
▁deposition
▁manifestation
▁1.5%
▁(20%
▁treating
▁posti
hydrop
▁owing
athioprine
trum
▁glutamate
▁preservation
▁fibers
▁chambers
entgen
▁variability
▁randomized
▁ascertain
▁hemorrh
▁HBs
icated
▁shaft
52
onidine
▁60-
▁(58%)
▁lobe
ogeny
6;
▁magnesium
▁oxytocin
▁palpable
ortic
▁intraluminal
2%)
▁illness
▁inability
▁medications
▁gallst
.1,
▁sphincter
encephal
ocalization
ostasis
concentration
Hep
▁sulf
▁motifs
▁mite
▁chromatography
geneic
▁relating
▁conjunctiv
.8
▁porcine
▁MgCl
▁plexus
agittal
▁89%
▁promin
▁contraceptives
▁Combining
▁neutralizing
▁altering
▁FU
▁309
▁ipratropium
prol
▁latencies
▁iliac
▁-2
-78
▁(5%)
▁ACI
"-
▁parv
▁16-
▁freshly
▁emergence
▁injections
▁veins
tening
tions
▁0.78
▁ulcerative
oglobin
▁vegetables
▁amines
▁TP
▁mature
▁harves
▁unc
▁myristate
▁incubations
▁nasal
▁lumbar
▁weighing
▁55-
rogesterone
▁succin
▁abbrevi
concentr
▁NM
rinary
▁subtilis
▁laparo
thrombotic
▁comprehen
romic
▁75%
▁micron
69
▁granular
▁cure
▁polymers
-8,
-[
▁fractionation
▁folate
▁acquiring
nitine
▁microp
ields
▁0.26
▁ischemic
▁8.3
▁exhibiting
▁monophosphate
▁falciparum
acute
▁oncogene
▁cmH
tabol
▁microscopic
1).
▁labeled
▁(33
pain
aryl
▁164
3.
GH
▁recycl
tokinase
phenyl
▁Amino
▁potenti
osteroid
▁0.05)
▁10%
immune
▁denervation
▁laser
interferon
▁sexually
▁biopsied
▁advances
▁glu
▁gp
▁fructose
▁oss
ophila
▁sensitivity
tually
▁endocervical
entile
difference
▁modestly
-1-
razole
▁transit
0.9
▁influx
tized
▁hypertensives
▁localize
▁inducers
▁Laboratory
iplinary
▁81
▁therapist
▁euthyroid
▁ionophore
▁optic
▁chicks
▁ventilation
21.
▁58%
▁irrig
tetradecanoyl
portun
▁stratum
▁fluoroquin
▁initiate
oselective
ronch
▁therapists
9%
▁investigations
chym
▁Biophys
nowled
Gy
tice
▁postmenopausal
▁HP
-34
▁tryp
▁duodenal
▁interacts
▁ascribed
etine
chlo
▁modulated
▁1.35
▁90.
▁0.0001).
▁immunologically
▁termini
▁Amin
77
▁alve
▁androgenic
▁accumulated
▁100%
▁bedtime
promoting
▁171
lymer
▁InsP
amicin
▁alginate
▁sha
vastatin
▁daytime
20
▁Dental
▁Incidence
oligo
▁babies
▁medication
▁diabetes
▁Significant
▁examining
▁pant
▁benign
▁pregnant
0),
▁modulating
▁6.5%
▁epiderm
onium
enicillin
glutamate
▁thrombolytic
▁bipolar
▁pneumococcal
conjug
odds
▁(11
being
▁rejection
icients
▁triam
▁chlorhexidine
(+)-
▁infectivity
▁acinar
▁wards
▁torsion
▁displacement
▁hemag
▁LAD
▁(36%)
▁Phe
strand
▁immobilization
anine
testinal
▁antigen
▁undetectable
▁withdrawal
▁familial
▁acne
▁impaired
othione
▁mIU
▁practiced
▁colectomy
▁parietal
▁spontaneously
▁uterine
▁1.21
▁iod
▁achievement
▁examin
▁hypertonic
▁solely
▁cen
▁triglyceride
▁hydroph
▁swine
▁CM
▁EA
▁plasma
yridine
▁Eleven
▁deform
jun
▁pyl
▁myeloid
▁pouch
otre
▁metic
▁shrin
▁Topical
performance
ologists
▁ornithine
▁mesenchym
▁(6
▁proteoglycan
▁clonal
▁mathem
density
iron
▁metoclopramide
anthine
▁metatar
▁ultracentr
▁0.20
istar
▁transcripts
▁filaments
osity
eclamp
▁anesthe
-9)
glycoprotein
▁lactulose
▁axon
▁standardi
igenic
ritis
▁pelvic
oprost
tenosis
▁sedimentation
▁Dietary
▁20
▁pall
▁reliability
posing
labeled
▁endarterectomy
▁phosphodies
▁capability
▁hypothyroidism
proteins
▁HDL
55
▁undertaken
▁subcutaneous
phil
ventricular
▁Tc
licular
▁(30
tructed
lipid
▁secretion
▁sciatic
▁improving
(2-
alcip
▁atrium
irectional
▁13%
▁predic
amuscular
▁connective
▁122
athy
▁activating
▁dihydropyridine
▁psor
▁Synthe
olysis
▁transcription
▁evacuation
71
▁SG
▁adduct
▁archite
assessed
▁urgent
▁reactions
▁2.5-
▁radioactivity
▁Recom
▁thromboembolic
▁atheros
▁evolved
▁enrichment
▁prematurity
▁contributing
▁centrally
ecu
▁(15
▁electrolyte
▁RS
enil
▁Combined
▁hypox
choles
▁0.18
▁stimulating
trogen
▁parasites
▁1981
▁BMI
▁0.6%
▁resemb
▁dimethyl
233
▁recipient
oprol
▁radioactive
▁cDNA
▁Purkinje
roprusside
infected
▁positives
rocyte
▁SRIF
▁10%,
▁1.06
2'-
▁fibrosis
▁afferent
fused
▁morphometric
SMR
▁Epstein
▁1984
▁deposited
▁metals
▁anticonvulsants
within
▁lysozyme
▁dimer
▁2.1%
enteric
24
urones
▁pea
▁TIA
dered
▁epilep
▁homoz
▁interacted
▁expresses
▁testicular
00
mandibular
▁lens
ealand
RP
▁ureter
▁phenomena
▁(5)
▁glaucoma
▁pacemaker
turb
distal
▁somat
▁medial
trical
iary
fractions
anesthetized
▁alkal
GI
▁theta
▁affects
▁progestogen
▁microorganism
incip
itudinal
osynthe
▁1.03
▁reproduc
▁donors
▁superoxide
▁estrogenic
37
▁leukocyte
valent
▁amputation
▁ACE
▁decades
HM
▁precursor
▁acids
▁100-
tronic
▁recessive
▁placenta
▁immunoassay
]-
▁monomeric
ylic
▁circumference
▁juvenile
specified
▁signaling
▁0.07
▁stepwise
▁embry
▁Hb
▁weakness
▁Mild
▁50,
osome
▁antisecretory
▁Pretreatment
▁transcribed
▁81%
6),
▁bacteria
▁5.6%
▁1970
▁oximetry
▁reactivation
▁illumination
▁psychopathology
▁nonselective
ococcus
51
yroxine
▁microtub
thrombin
▁substrate
▁22
▁curet
▁lungs
▁survivors
▁correc
▁rifampin
helium
▁thyroid
ulum
▁lethal
▁abrupt
▁6)
myocardial
▁diarrhoea
regn
▁Taken
▁habits
▁0.2-
▁exposures
oprec
oscopic
▁androgen
▁enhances
▁inoculated
▁1.9%
▁sensitized
▁multic
ectable
▁Veter
jected
▁56,
▁proximal
otrypsin
▁relaxants
▁sphing
taz
urther
▁moderate
▁rupture
adrenergic
▁stom
ositi
▁autoreg
amid
▁Membrane
▁sial
▁indus
▁spine
▁NP
▁Symptom
▁manu
▁mutant
▁stiff
▁Depression
▁aneuploid
▁formaldehyde
atine
▁(0
▁experimentally
▁discriminant
▁(1.3
▁inactivation
▁clinic
normally
▁priming
ocap
oidal
hydraz
▁oxygen
▁kidne
2+,
surgical
uris
▁microm
▁vasculature
achid
▁18
▁ultrason
itone
dialysis
▁stimulus
▁0.01)
▁Proc
▁secreted
▁irrigation
▁exclusively
thase
▁spreading
▁(1.5
▁210
BG
▁connec
oxine
▁enteral
▁microbial
▁ADA
3)
threshold
ologic
▁blu
clonal
fentanil
15)
▁retrospectively
▁16,
tochem
▁0.7
▁throat
▁synthetic
▁155
▁stratification
▁6.8
▁bottle
omyces
tiv
▁mec
junctional
▁reacts
▁(50%
▁quies
ocytoma
bac
388
150
ignificant
▁(1.2
▁accep
▁pyrid
▁quantitatively
▁nox
▁monit
▁GABAA
▁antimic
▁contraction
ginine
directed
▁unex
albuminuria
▁TB
▁19-
▁filament
tolerance
yclic
▁tidal
emius
acies
▁43,
tially
▁analys
irds
▁108
ritical
▁controversial
▁introducing
alic
8]
▁CCK
ergy
▁siblings
polyacrylamide
.0
▁noxious
orectal
▁Efficacy
8+
▁phenylalanine
vessel
FU
▁carcinogenesis
▁asparag
▁tracts
rogenesis
▁10.5
▁tubular
oxia
ontal
ximide
▁zymosan
▁chloramphenicol
▁evaluating
▁pediatric
▁saturated
▁9.4
▁Epidemiological
▁cutoff
▁denaturation
▁critically
68
▁dehydrogenase
▁10.
▁collaterals
▁cerv
entral
tochemistry
▁antibodies
▁irradiation
▁fourteen
15.
▁abundance
trol
▁conjunction
▁oedema
parous
▁DEAE
associated
▁pressor
▁GFR
casein
aning
▁carboxy
7%)
flanking
▁neurob
mitters
▁rods
▁psychosocial
▁nerve
▁LPS
▁dips
▁0.43
▁fati
omotor
dipine
▁enzymes
▁ester
▁flexor
▁Leuk
▁parasympathetic
transformed
▁immunore
▁brevis
▁resection
▁43%
▁structured
8,000
▁catheter
▁fruits
▁19
▁immunocyt
intensity
▁contraceptive
apid
biotic
▁termination
▁autoradiography
▁kary
▁COPD
▁spacer
▁obstructions
▁(95%
▁Tg
eeding
vaginal
obl
▁indoor
▁regimen
essment
▁glucocorticoids
entical
▁organisms
▁exagger
▁supernatants
▁SPECT
▁inhib
ainide
▁Subjects
▁micrograms
▁stools
▁sput
ignific
ropriately
▁neuropil
▁mcg
▁envelop
▁312
▁conjunctivitis
▁182
2.2
apse
▁potency
▁fibres
LG
▁conclusive
aicin
orable
▁deviations
▁hemorrhages
▁teratogenic
▁granulocytes
onucl
▁vigorous
(4
▁GH
hydroxylase
osomal
▁35-
ergenic
▁plasmid
43
▁SMR
▁Tris
▁oligodend
▁eliminated
▁develops
IgE
ocine
▁bumetanide
▁extrinsic
ovalent
▁suction
▁ventilator
▁10(-3)
▁ileum
▁lipoprotein
▁0.24
stained
▁cardio
RCA
▁supernat
overall
▁scl
▁5.3
▁0.98
▁Evidence
▁motility
▁microscopy
responsive
▁1%
▁Nine
rolog
▁mann
namic
▁suppressive
▁foetal
▁contamination
▁107
▁avian
olipoprotein
▁flunarizine
▁vasoconstrictor
▁benzene
▁deferen
▁tricyclic
▁75%,
guanine
tinent
portion
▁supplements
receptor
▁capsular
▁99
plastic
azin
histamine
ycl
atases
▁1.6%
▁induces
▁cef
▁1.00
iliac
titutes
mediately
othreitol
3.1
▁suppressed
▁70%.
▁manifestations
▁intox
▁Factors
▁circulation
▁kain
▁intrac
▁biosynthetic
▁20-
inhibition
androsterone
▁latent
▁(67%)
▁0.63
▁44-
▁nucleic
ropath
▁glucose
▁polymer
▁consequently
HETE
▁virion
▁quail
americ
promazine
uridine
Ti
▁thrombo
▁microv
▁Prac
▁constituted
(6
kground
▁Protein
ulcer
▁sarcoma
▁galanin
▁monomer
▁degranulation
ionate
organisms
tiazem
phragm
▁thyroglobulin
insulin
ophosphate
▁belie
naph
▁concanavalin
▁2.6
▁Grade
▁Antibody
(1,4,5)
-45
▁macrom
▁Plate
alsy
▁prolonged
aemic
▁76
▁PCA
▁grise
▁Sera
▁asbestos
▁lactic
▁progest
▁0.005)
tember
▁membranous
▁exhibits
▁surf
oxide
▁cyclic
▁solub
▁Enalapril
▁antis
▁envelope
oconazole
lix
▁yolk
▁0.001,
▁depended
▁peroxide
▁0.05%
unctiv
▁hypotonic
▁genital
dies
methoxy
-79
▁fluidity
▁methadone
arterial
2/
▁identifying
▁-0.7
▁monkeys
vus
ulinemia
hypertensive
▁Afric
achnoid
▁(62
▁codon
▁PaO
PV
▁1989
oxic
hexyl
ortal
unctional
thmatic
▁glomeruli
▁segregation
▁phon
▁spherical
▁epidemi
▁neurolep
▁TA
▁Mycobacterium
▁bundles
▁tox
/18
▁Statistically
▁Consistent
tiz
▁ribonucle
▁redistribution
▁lob
ycardia
▁pneumon
▁DL
omyelitis
PDE
▁pyro
▁permeable
LTS
yste
-300
▁focusing
▁equilibr
▁pI
onor
▁morbid
dehyde
KD
▁sampl
▁supplemental
▁peroxis
▁spleen
oblastic
▁monkey
years
▁1.2%
ixation
▁malnutrition
▁TNP
,000
▁increas
▁manufacturer
▁0.7,
▁Progesterone
tivity
▁monos
▁(16
▁Biochem
▁reser
▁hypokalemia
▁1.56
▁ultras
▁overestimated
▁immunostaining
▁angl
▁monocyte
tyrosine
▁wash
▁(3%)
▁chan
▁pituitary
etition
▁transducer
itively
▁methacholine
trimester
▁screened
▁analogue
▁invasiveness
HDL
▁proton
respectively
nitroso
▁Comparison
44,
▁4
▁PDE
▁immunode
▁dyn
▁facilitated
enec
▁BMT
▁underg
aryngeal
sts
opeptide
▁Brain
▁0.2%
▁stratif
▁Oc
▁atrophy
▁synerg
▁adipose
▁normo
ubicin
▁osmolality
astatin
▁pharyng
▁Mg
teine
▁145
▁doctors
▁carp
EA
▁facilit
▁proteolytic
▁anis
▁proteinases
oxybenz
ituitary
▁(69
iferative
▁negligible
▁stenosis
butyl
adily
▁inversion
▁60,
acerb
sess
▁fec
osoma
▁norfloxacin
hap
ympathetic
▁hybridomas
▁bilirubin
chond
▁conduc
lact
atment
▁cytoch
▁(89
▁distric
orded
▁adiposity
▁distinguishing
▁mucos
omann
▁septum
sizing
▁respiration
▁urtic
▁psoriasis
▁percutaneous
leukin
tolerated
▁FEV
▁Surprisingly
ophen
mum
orrheic
▁tracers
▁Sixty
▁bronchoconstric
/1
uginosa
▁1.5
▁therap
▁investigated
▁endothelial
cholesterol
▁Reduction
tizing
oscop
EMG
▁0.84
▁MG
restric
tinguishable
▁7.8
suppres
▁transfusions
▁allele
▁uniquely
rences
▁adrenocortical
▁61
▁psycho
opic
opulation
arent
▁disadvantage
▁saphenous
tate
▁eminence
fluores
▁83
omatic
thio
▁stiffness
ogenously
eclampsia
luding
primed
anese
▁migraine
omyel
▁Together
utyr
▁nucleotides
▁0.12
kDa
itness
▁titer
▁microliters
▁CIN
▁affecting
tensive
▁1.
▁normotensive
▁olfactory
isol
imetidine
ervo
opoly
▁abrog
▁EcoRI
phthal
▁pulmonary
▁chimeras
ropathy
iaz
▁clinics
▁Streptococcus
rostened
rotoxin
.2
▁articular
▁10(-10)
▁selectively
▁12.
▁lability
▁cathe
▁ingredients
▁60
▁dilatation
▁libitum
▁cholesteryl
▁30%.
-3
▁79%
▁(2.6
▁0.65
neph
▁heterogene
▁enhance
ronectin
▁cigaret
yron
rosis
▁weakly
▁Eff
▁dye
proved
keratin
▁10(-1
requency
ternational
▁0.02),
-1.4
▁capsid
▁Langerhans
othyroid
▁Cooperative
▁anaesthesia
▁lec
▁(4.0
▁anes
ulent
▁parac
▁arginine
ondr
▁exag
aminob
ulses
▁mesang
▁burden
▁cytosine
carbox
▁considerably
oplasty
▁cartil
▁characterizes
ethylmaleimide
educed
▁AUC
units
ecretory
▁inhibits
ithm
▁5).
▁relaxation
meas
▁preven
ecre
▁(47
tants
▁cream
▁cryst
▁aggregation
▁decarboxylase
▁nadi
▁surgical
▁surrogate
▁experim
▁enlarged
▁targe
▁ultrac
5),
ocortic
▁adhesion
otopic
ovastatin
▁15%
inating
▁follic
▁tritiated
▁6,
uccin
osyl
▁adenocarcin
▁stoichi
▁albumin
▁tRNA
▁accompanying
▁percentages
▁relaxing
oids
▁Combinations
admium
▁curative
▁pM
▁150-
▁0.06
▁fever
physe
▁sten
▁striatal
timulus
▁Pseudomonas
1210
▁posture
▁saphen
▁voluntary
▁attainment
▁acini
MHC
▁suggestive
metic
▁captopril
▁smokers
sors
▁1960
▁hysterectomy
▁catalytic
aluation
▁yr
▁cerevis
▁Cells
▁ICAM
▁ATPase
▁EGTA
▁estrus
▁157
rotid
▁MgATP
▁waveform
mitted
▁aneurysm
▁70%
▁(500
▁fatty
▁antiserum
olved
▁thiop
▁PCR
esic
aminoglyc
▁monolayers
sorb
tenolol
▁transposition
▁sti
convulsive
▁anae
oreg
▁bicuculline
yrib
▁phosphorus
tinu
▁1
▁30
▁(50%)
orbidity
▁homologous
▁prerequisite
▁13.
rescine
echn
▁thermo
hig
enhanced
▁limbs
tensives
▁(0.2
▁malignant
▁disabling
▁tas
▁enamel
▁(1.4
▁Measurement
Nase
▁untreated
▁stent
▁radios
▁500
▁(4)
▁12.0
')2
operidol
▁drank
embedded
▁amlodipine
tran
▁practition
oxygenation
ofol
rospinal
▁exis
▁chemotactic
opathic
orepinephrine
▁Specificity
▁nociceptive
▁hydrophilic
▁CMV
▁doxycycline
▁hypothesize
tinguish
▁halothane
▁inclusions
tracheal
▁twin
▁translocation
▁immune
▁(95
▁5-
tebral
▁susceptibility
▁postin
inoc
▁metastatic
▁tubercul
▁Centers
▁adults
▁progn
▁trache
▁exten
▁actinomycin
conditioned
perg
ipid
▁430
▁.05).
blockers
▁[125
.5%)
▁Experiments
▁paroxys
osacral
Ci
independent
▁occlusive
91
▁appreciable
▁vascular
▁10(5)
▁neurones
▁phosphatidyl
▁meningitis
BH
iatum
▁MCA
tise
▁10(6)
ometers
▁reversible
▁lymph
▁complications
azep
olus
FEV
▁resis
gnetic
5%,
▁insec
▁pyrophosphate
LPS
▁fertile
acted
▁plex
▁uptake
-3.0
▁preeclampsia
▁submaximal
oconjug
reducing
▁92%
▁VIP
▁freeze
▁100,
urate
Ra
ilep
▁6.0
pG
▁naf
▁cytotoxicity
▁pylori
chid
tic
▁mening
▁foods
▁estrogen
▁retur
predic
▁accumbens
▁graft
▁encouraged
▁antid
tocin
▁circulating
▁subend
▁hyperglycemia
▁isot
▁deduced
▁(8%)
▁adrenaline
▁lumb
facturing
▁transforming
rophen
adrenal
▁Subs
▁sclerotherapy
▁1.19
ichloro
HCl
aminophen
▁certainty
▁subjected
▁varicella
▁subun
▁atopy
Ala
▁painful
▁cyclospor
▁arrhythmias
ipher
▁carbohydrates
▁endometri
tural
▁thyroidectomy
▁8-12
▁symmetrical
lebsiella
ikary
▁inhibitors
▁marginal
▁benzyl
▁1.24
▁permits
▁evaluable
fication
▁identifiable
sions
▁progestin
▁accounted
amet
▁glutamine
▁6-
turally
▁17,
▁bif
▁deterior
alc
▁effusion
▁contradictory
▁ero
osamine
▁(72
urosporine
▁thickness
▁CAT
sepithelial
▁(400
▁edema
▁Almost
▁anionic
/20
▁chorionic
▁spontaneous
icardial
▁superimposed
atonin
gans
RIA
▁0.29
▁3)
▁zoster
▁awak
▁Rats
▁pore
▁labile
radi
aminergic
▁3).
▁temperatures
kling
▁methodological
▁spikes
▁20%
▁longitudinal
▁standardization
▁cyt
▁sequentially
▁GAD
▁Neph
airy
▁pneumonia
▁apprec
coupled
▁compensatory
odipine
▁islet
acet
kinje
inhib
▁infants
▁Newly
vascular
driven
advan
▁confounding
2+]
▁(60%
ophil
▁breakthrough
▁oscillations
▁vesti
▁Recep
▁stimul
▁(4.8
▁fron
aethylammonium
▁quantitative
alues
▁213
▁lys
trypsin
▁126
▁intervention
▁endotoxin
▁eosinophil
xanthine
▁200,000
▁BAL
▁NGF
▁endo
▁NIDDM
acrylamide
▁professionals
▁thi
▁mEq
▁exudation
2]
minal
▁preval
▁Estim
▁LH
stole
tase
cardi
▁Thirteen
▁individualized
▁catecholamines
▁achieving
▁hyal
ivacaine
10
agonist
▁chemicals
parathyroidism
▁inward
imethyl
4]
▁ducts
aginal
pinal
▁1987,
▁56%
▁ald
▁40
loride
▁rhythm
▁incorporated
▁(23
angerhans
echan
▁methotrexate
iodothyronine
▁(250
reement
adication
▁scarring
ophageal
BT
▁enteric
regulation
▁0.4
erent
iatic
hyde
▁digestion
▁constric
eptide
▁ICP
raconazole
▁Respon
thym
▁cirrhotic
▁comprise
▁Actin
▁immunosorbent
▁128
▁unrel
parative
▁brady
▁Behavioral
▁0.67
▁vesicular
ordination
ysts
idne
▁prednisolone
vul
deficiency
▁carcinogen
▁palmitate
▁prostatitis
phadex
(-)
graft
▁Consequently
▁101
929
▁litter
▁gonorrh
psych
▁0.05),
▁sulfur
▁Infants
11
▁warran
▁worsening
▁1969
▁implants
▁quantit
▁levodopa
▁superiority
CHD
▁tubercle
farction
nai
idation
▁chick
▁aspiration
▁Bacillus
accharide
▁irritation
ectomies
amous
hemical
▁horiz
▁failures
hepatitis
▁-12
oprim
openhagen
▁multivariate
▁mobility
▁genetically
▁congen
▁0.25%
▁Extensive
▁pontine
cortisone
▁satisfactory
.7%)
▁leukaemia
▁arthritis
▁thymocytes
▁jaw
pore
▁Wistar
▁0.005).
▁sexes
▁encephalopathy
oretical
▁(12.5
ecyl
chymal
▁chimeric
apeptide
▁pig
tense
▁palate
ichia
▁rated
▁intracellular
▁93
▁152
▁immunoglobulins
▁allergy
▁warts
umerous
▁Staphyloc
yroid
pendent
▁caregi
ochromatosis
▁endocrin
mitter
ufficient
esicular
▁colpos
▁nonsmokers
▁lymphoblastic
▁OKT
umbens
▁eryt
maximal
▁dilation
tocopherol
▁nore
▁traits
ophren
(2+)-
ipital
▁69
ogeneic
▁infections
▁hyperactivity
tle
▁0.4%
▁branching
▁intrinsic
teroides
▁SCH
dihydroxyvitamin
hern
▁responded
▁plasmin
▁citrate
▁0.87
ymal
▁lytic
▁antinoc
▁contractile
tructive
▁0.40
▁hyperpolarizing
▁exogenous
▁1989,
25,
▁deficits
bromo
▁topically
▁borderline
▁recurred
ceptive
ocys
▁ethylene
▁esophag
uron
▁Platelet
▁cytoplasmic
▁lymphocytosis
▁FT
.6,
▁ech
exc
ygen
▁desatur
▁metronidazole
ordance
▁14.
ographies
▁insignificant
▁SPF
▁Melan
aund
phs
▁infil
ogenetic
thin
▁compares
▁FDA
▁reliably
▁coval
oxone
▁0.5
ficially
▁4.3%
lastic
▁attained
▁thromb
▁metall
▁supine
▁penetration
▁inh
benefit
esthe
linking
▁5
▁anomal
▁prolongs
olam
rozen
▁usefulness
Dawley
usually
▁0.02).
▁intermedi
▁embolization
▁28.
▁overlapping
▁hemisp
▁calcified
albumin
▁6.4
▁morphologically
glycero
▁deter
▁SHR
▁0.93
▁0.1%
▁277
▁hemolysis
▁cohort
▁fatigue
ritish
▁0.9
GFR
▁0.02
ithin
erents
▁submuc
siella
gol
▁75
gene
▁oleic
romethyl
onucle
▁catecholamine
▁proliferation
▁prothrombin
cyclic
oracic
ostic
pyrene
mber
poor
▁innervation
▁sows
▁Apparent
84
▁Routine
▁0.05,
▁serotonergic
▁spectroscopy
▁obstetrical
▁blockers
▁Serum
▁Previously
kine
▁clom
▁trophoblast
▁7.4
orporeal
▁forsk
▁ulcer
▁ibuprofen
▁vege
▁salivary
BM
▁14
▁glomerular
▁thym
▁angina
▁endocrine
▁correlations
▁ICa
▁niacin
▁abnormal
▁silic
▁(5.3
isters
strain
▁endocardial
▁progres
▁poin
▁regulated
▁polymorphism
▁definitive
adine
▁-15
▁nmol
▁Subjec
▁histories
▁predisposition
▁catalyzed
▁1991
▁CML
▁mep
▁Histologic
▁5'-
ovirus
Pen
▁discon
▁28%,
▁drops
▁transplant
abd
▁organelles
▁interne
▁74%
▁sati
▁diarrh
▁gyn
▁mAbs
▁myotub
itus
▁amounted
pendence
▁hyperp
▁coag
▁acad
odium
▁spirometry
▁(1.0
▁ESR
▁incubation
atid
▁disability
▁salbutamol
76
▁transcript
ncies
teryl
▁inspiratory
tagland
▁dispersion
▁conformations
▁fungal
ologous
0%),
▁249
▁newborns
▁1.7%
▁Elevated
▁ribs
▁0.3%
▁subtypes
razolam
ustif
▁Lyt
▁293
▁kDa
▁(50
▁pulmon
ocardial
▁involvement
acental
regulated
▁Extr
▁117
adminis
▁adip
ludes
▁microscope
▁melan
▁chances
▁relap
▁strands
▁HbA
▁40%.
▁hypothe
▁refractory
RNA
esity
▁swit
▁regained
ffinity
▁tric
▁mice
▁discre
▁juice
▁radiologists
oreal
▁Drug
▁dithiothreitol
▁conformation
▁hepat
▁esters
nosis
▁interv
ration
andida
omonas
▁(197
▁Rb
▁resusc
500
▁sharply
obases
▁utilized
▁antibody
-32
Ps
▁epithelia
ipramine
ffer
▁anatomic
dividual
▁metabolized
▁diary
▁enhancement
▁trypan
▁diarr
iodine
opre
odic
▁ubiquitin
oncogene
methionine
▁dysplasia
▁melatonin
▁novo
▁PE
10.
tenti
▁corticos
vive
▁calves
▁duoden
▁leukocytosis
▁premenopausal
geal
iated
osidase
▁hydroxylase
▁PET
7,000
▁planar
▁twins
▁worm
▁undergo
▁immunoprecipit
▁deprived
▁puncture
lethal
amylase
▁inapp
▁eligible
ilization
▁polyp
▁Gluc
diagnosis
neumon
ammonium
▁GVHD
▁295
omycin
roin
▁glomer
▁mmHg
▁hormones
▁interrup
▁ileal
▁Krebs
▁strepto
▁NMDA
▁234
cessive
totic
▁(+)
MV
ucl
bic
▁ascorbate
81
▁ANG
▁posttreatment
▁jaundice
trone
tally
adrenaline
▁GSH
otoxicity
▁endos
▁Arterial
arean
▁66%
▁ultrastruc
▁19%
▁microf
terol
▁regulate
▁selectivity
▁steers
▁lisinopril
-67
orotic
▁behavi
rof
▁complaint
▁Salmonella
▁8%,
sus
▁enti
▁Patient
ographs
▁albuterol
acchar
▁elast
limb
tam
onam
encephalon
otherapy
▁homogeneity
▁11.
▁repetitive
▁Injury
terminal
▁Systemic
▁(15%)
▁insoluble
▁offspring
▁amph
▁exhibited
alas
clusive
▁SBP
▁occupancy
▁cochle
pectively
▁pronounced
▁positioning
omat
▁abnormally
▁bathing
▁deletion
▁institu
▁tablet
siologic
▁10(9)
.9%)
▁nitrous
affected
▁spiral
ynaptic
▁automated
▁(2%)
derly
▁0.22
0,000
▁immunoblot
▁refr
diabetic
0-
▁suture
▁sarc
tenance
▁18-
▁laminin
rogenase
▁chondrocytes
▁-0.4
▁paternal
amycin
▁8.0
-1.3
5).
▁Chlamydia
▁2).
▁threonine
iotic
▁oral
60
iciencies
otting
▁0.52
tality
▁anatomy
ivac
▁systemic
▁LS
▁275
▁10
orec
▁Dip
tilb
▁contaminated
▁pigment
▁absorpti
▁implicated
otrophs
compared
▁infectious
▁hypothal
inase
▁probes
▁MPO
▁valproic
emetic
▁0.47
▁gradual
▁microvascular
utaneous
▁uninter
uccessful
loxacin
▁13-
▁obstetr
▁regimens
lasts
ivation
▁photon
avail
▁hypop
CSF
▁monolayer
▁cascade
▁(75%)
▁4-
▁fluids
▁(140
kinin
oxicillin
▁epidural
▁illumin
ocytochemistry
▁triamcinolone
▁defic
▁curric
avirus
▁Bone
▁enrol
▁surround
▁indis
▁stres
▁atenolol
fiber
▁administered
tics
▁3.0
luores
▁soleus
▁blocker
etween
▁Cox
▁bim
iloride
▁laminae
luded
▁absorptiometry
uplex
4).
▁glycos
▁multiparous
ampl
▁MHC
ganese
▁Protection
▁ferrous
welling
▁(1.1
2,000
▁solubilization
10,
tissue
ogenes
▁subjective
▁dias
feren
▁chronotropic
▁dysfunction
▁270
▁projecting
▁blacks
competitive
▁9.6
IFN
ullary
▁measles
retin
▁disturbance
▁prophylactic
evoked
ACTH
:1
▁fibrinolytic
▁Samples
tryptamine
macrophage
▁Fifteen
urement
plemented
▁buspirone
▁presynaptic
▁acqui
▁28
▁allergic
upuncture
▁LN
ocul
angl
mg
▁entero
▁Antim
▁underwent
MH
▁refrac
conversion
ilized
▁discontinuation
alveolar
VL
uvate
▁spon
▁symptomatic
-25
▁22%,
▁MH
▁Screening
▁modeled
▁diagnoses
▁10.0
ardized
1]
▁CTL
gluc
LH
stim
ocyan
tively
▁blot
▁phenomenon
▁universally
therapy
monophosphate
osocial
▁PCP
▁resembles
▁relie
▁ket
▁drain
▁myeloperoxidase
1),
encephalic
ensin
▁ICI
▁lact
▁laryngeal
▁catalyzes
abbit
glial
▁82
valence
▁147
centr
activated
▁28%
▁elemental
▁cooperative
▁cochlear
oes
imidine
hene
▁TCDD
▁adhesive
▁8.6
▁beverages
alb
centered
▁autop
▁unipolar
inyl
▁hydrophobic
▁unilateral
lofen
▁transgenic
ogenic
acterial
nitro
▁depressive
▁mannitol
▁fibroblasts
▁173
▁isolation
▁Obs
adox
▁antiser
MN
birth
▁synthetase
▁biologic
▁gamma
▁embryo
▁thiaz
-26
3,000
trients
olecular
rectomy
terolog
▁scalp
▁strom
dotoxin
chloro
turnal
▁penicillin
▁insufficiency
▁pump
wes
-7)
▁midbrain
▁CCl
▁arteriosus
onephritis
11.
▁135
▁convul
▁11)
▁HCl
▁adoption
3).
▁supplemented
▁differe
nec
▁asymmetric
ethoxy
▁colitis
▁Mortality
romyces
▁endurance
▁noc
▁lymphokines
▁infertility
▁(2)
▁femoral
oustic
▁differentiation
▁hormonal
▁(0.5
artum
▁perfor
▁multis
acholine
trating
tus
enan
▁SKF
.8%
▁dissolved
vating
▁uridine
▁cuts
▁GE
▁mesen
▁differen
▁goiter
▁bacterium
▁logistic
▁vWF
▁4.4
▁mitochondrial
▁preferentially
▁48
▁cGMP
others
▁vasoactive
▁CNS
▁suspended
endix
▁intramuscular
▁gyrus
trac
▁fluor
▁vertebr
▁criterion
▁semen
▁caudate
▁nephrectomy
▁ulc
▁addiction
▁Kup
▁unusually
▁ANF
estradiol
▁ammon
elec
▁pelvis
ipr
increased
▁315
▁protoc
omized
▁31,
achial
ocor
34
▁lacks
▁osmotic
▁1983
ticle
▁glutamic
▁0.30
▁RP
▁repressor
plas
▁confluent
▁rele
weighted
ifornia
conduc
▁vegetable
retion
▁PEG
▁beha
▁Eighteen
▁decisions
urgical
imentin
9-
▁tightly
▁80-
▁musculoskeletal
arental
▁(17
▁deple
▁prepubertal
▁vaccine
▁placebo
▁Fc
odopsin
▁psi
▁HF
▁disrup
▁erythematosus
▁9,
▁dementia
pli
titu
uin
▁41
▁desm
▁catar
▁plaque
vular
▁elucidate
▁1989.
▁aort
▁basal
▁nitroprusside
▁immunodef
22,
▁hCG
▁nuclei
olgi
▁TSH
▁ank
▁expend
merc
▁macroscopic
corrected
ompan
oresis
▁enl
57
ardias
▁electrom
▁Chemical
▁galactose
▁remin
▁cruc
▁abolished
uation
omn
▁stain
▁gangli
▁1000
▁prostatectomy
ocated
▁PH
▁satis
▁malformations
▁decade
000.
▁Maximum
▁Flu
▁contribut
▁atria
filaments
7]
roma
▁(125
▁augmented
▁sphe
SOD
reated
▁Tum
dihydroxy
erance
▁1200
tetrahydro
▁Recent
▁anxiolytic
igaret
ocrin
▁hypercal
TN
▁cimetidine
PAC
▁itraconazole
cepti
odine
▁cage
▁lumen
▁Prevention
▁endot
psin
▁spati
▁pyram
▁coincided
▁0.00
chloride
▁coli
ervoir
▁utero
▁aerobic
▁occlusions
▁splicing
▁ionic
yx
fected
▁oxalate
▁comprising
-9
▁conjugation
▁statis
schem
▁rectal
▁Delayed
▁1.25
istribution
▁displaced
.8%)
▁Myc
▁stringent
filtration
fron
ositol
idate
opian
Mu
charomyces
▁ramipril
oarth
▁amitriptyline
▁sut
▁corticosteroid
▁hypoxemia
romes
000
▁favoring
orenal
sis
▁epinephrine
▁revascular
▁recalled
▁300-
▁MAP
▁branched
▁technologies
▁esophagus
aethyl
▁(10
▁resuscitated
▁appropriately
▁disturbances
▁cloned
umetanide
▁sequencing
▁MV
▁harb
oag
▁behavioural
▁managing
▁implications
▁proteases
▁bromide
aturity
▁perception
▁Cardi
▁DAG
▁kinase
oves
▁gains
tives
▁pim
▁stained
silon
andros
asal
ulph
▁Differen
▁TGF
▁Suc
▁hyponatremia
▁theophylline
▁endoscopic
reatine
200
uronium
▁carcinoma
▁sulfonylurea
plic
incub
▁discrepancy
▁deleterious
▁caro
▁sterile
▁heterozygous
fibr
rostaglandin
▁elderly
crimin
▁cil
▁brainstem
ensitized
▁.001).
▁pathogenic
▁pathophysiology
▁bull
xone
▁crest
blood
▁-6
▁7.3
ilical
▁2,3-
▁miti
▁myrist
▁REM
llate
▁Effec
▁surveyed
▁0.2,
lec
▁triacylglycerol
herent
▁9%
▁hypogonad
inesterase
▁ruptures
tempor
stranded
orax
▁(84%)
▁reinfection
▁mutagenesis
▁amide
optimal
96
▁nervous
encl
mRNA
▁brush
▁130
dine
▁Diagnostic
▁aeros
-800
▁reactive
▁Prol
▁electrophoretic
▁DNP
▁kinases
6.
▁29,
entified
intestinal
▁ultraviolet
.5.
▁heterologous
▁bones
Rs
▁admission
▁aspirin
17
▁carbohyd
▁glycoprotein
▁3-
▁potentiated
▁physiologically
▁weakened
▁decayed
▁gout
abec
▁livers
▁Bmax
idium
▁malate
▁pharmacy
▁hypere
▁preferen
▁nodular
-40%
brain
▁20.
▁tissues
▁basolateral
▁adulthood
▁transluminal
▁disclosed
▁voiding
▁3.5
▁hypoxic
▁adap
▁retinol
▁oxidative
▁myelinated
▁serum
▁6.6
▁blast
ascular
ostigmine
▁seizure
ystag
▁bupivacaine
▁affinities
lobin
▁splic
uclear
arrhythmic
▁PKC
▁52
BAL
▁filtration
▁extraction
▁hepatotoxic
▁preincubation
ystitis
▁137
▁(3.8
▁longus
▁allevi
▁tac
erable
▁(69%)
ocrit
enching
▁gastro
▁Vmax
obase
oxidation
▁rabbits
allikrein
▁Glut
47
▁tryptophan
hemagglutinin
dle
▁silica
▁infective
▁mixtures
▁Localization
ceived
▁reservoir
▁elongated
▁cardiac
olone
hydro
▁190
▁1.0
▁deoxyrib
administered
cycl
pite
▁ambulation
-80
▁lupus
rox
▁serological
▁1.75
▁venography
▁heating
▁routinely
▁oleate
atrop
▁trend
CABG
33
:2
rogra
▁Alzheimer
▁psychotherapy
▁hepatic
diabe
▁neuropathic
helin
▁arachid
eal
asses
▁96
▁ligated
▁adenocarcinomas
▁UTI
5-
lesion
antoin
diagn
▁diameters
50).
▁dysp
▁TM
▁PPD
▁localized
ffec
▁(2),
ventil
▁unresponsive
MDA
▁cervical
versely
uoden
▁Lung
▁Graves
fluo
globin
atified
▁reagent
▁35
▁intral
▁BCG
ulators
▁calculi
▁(82
▁rearrangement
▁schizophren
▁25
▁fluc
▁cobalt
▁drainage
▁genotypes
▁trypsin
▁transferrin
menstrual
1%
▁(62%)
▁fetuses
▁(1988)
▁inducible
▁delays
▁granules
▁bactericidal
▁APC
▁isolate
ondon
▁0.01),
9.
▁acyclovir
▁pregnancies
▁BL
▁linoleic
▁exacerb
▁quin
▁antral
ometrically
▁continuously
opath
▁radiography
ressive
▁dib
hentic
assays
▁SDS
▁denervated
▁0.76
▁cytogenetic
▁epidemic
▁formulation
▁glauc
▁iden
▁stu
▁preventive
ocytes
▁granulomas
estive
/12
tilled
▁nonsurgical
▁adi
▁dispersed
ophylline
odeoxy
entan
▁gangliosides
▁9.7
▁nonsignificant
ronchial
▁dextran
minis
▁EE
▁sham
▁perin
▁transiently
0%)
▁15.
▁(1),
▁0.71
▁depolarization
allium
▁retinoic
▁PLC
▁conto
RBC
otides
▁labelling
controlled
▁contracep
-7.
torchid
functional
▁regulator
▁102
▁excitability
azem
▁Copenhagen
▁3.1
▁antin
▁hemoglobin
▁(41%)
▁cellul
▁influenzae
ocompatibility
trial
rolase
▁adenocarcinoma
renaline
▁excessive
otone
▁emissions
riamycin
transferase
▁relevance
▁wk
▁reactivity
ipro
ocarcinoma
relaxation
idespread
LDL
▁predicts
▁mitogenic
rometer
▁fibrillation
olution
▁effec
▁BV
tum
▁xen
lymph
▁enlarge
GSH
▁strikingly
opathy
tisone
▁229
▁Magnetic
pharose
etitive
▁rigorous
▁nondis
▁testosterone
▁tes
▁punct
▁toxin
▁perivascular
idovudine
▁prophylaxis
▁1.10
▁metast
▁somatostatin
▁0.95
▁glucosamine
▁systematic
arous
tub
▁fractures
▁indo
genital
terone
▁gastrocnemius
▁divergence
▁hens
▁dissected
▁leukotriene
▁psychological
▁280
▁0.35
▁differs
▁Preliminary
▁purine
▁IgM
▁terminus
▁nodules
esium
▁visits
initiated
85
▁fold
▁hypother
allik
▁exocrine
▁intoxication
▁mast
45
▁PSA
orrh
▁outflow
▁inflation
