▁TNF
▁amputation
morbidity
▁cerebral
▁residual
▁bilirubin
▁scoliosis
▁hCG
▁tibial
▁surgeons
▁carcinomas
▁secretion
▁induction
▁anesthesia
▁regression
▁therapists
▁complications
▁comprehension
ICU
▁postural
▁LOS
▁inhibitors
▁Hispanic
▁gland
▁venous
▁serum
▁cystectomy
▁offspring
stenosis
▁admissions
▁depressive
▁therapeutic
▁vitamin
▁socioeconomic
▁Medicaid
▁fractures
▁PET
▁attenuation
▁receptors
▁abnormalities
▁questionnaires
▁resonance
▁transfusion
▁enteral
▁cardiovascular
▁pyloric
▁prosthesis
▁bowel
▁Emergency
▁differentiated
▁inhibin
▁metastasis
▁lesion
▁creatine
thyroid
▁anemia
▁Mosaic
▁bypass
▁myocardial
▁hospitalization
▁paediatric
▁aspiration
▁prognosis
▁familial
▁rectal
▁respiratory
▁adjustment
▁donors
▁kidney
▁Scale
▁dysfunction
▁uptake
▁antibiotics
▁urine
▁patella
▁logistic
venous
▁unmarried
▁onset
▁parity
▁tumours
▁negatives
▁morphology
▁femoral
▁specimens
▁perioperative
▁scintigraphy
▁imaging
▁susceptible
▁resection
▁perfusion
▁mortality
▁THA
▁metastatic
▁lesions
▁arthroplasty
▁pelvic
▁Compared
▁vaccination
▁testis
▁gout
▁coronary
▁demographics
symptomatic
▁expectancy
▁ultrasound
▁hypoglycaemia
▁tailored
▁heparin
creatine
▁surgical
▁catheterisation
carcinoma
▁atrophy
▁limb
▁thresholds
▁inflammation
▁seizure
▁cervical
▁GDM
▁fracture
▁appendicitis
▁cardiac
▁rupture
▁concordance
▁binge
▁atrial
▁influenza
▁incidence
▁prognostic
▁retention
▁recurrent
▁Multiple
▁prospective
▁aureus
▁LVH
▁valve
▁malignant
▁cohort
▁subjective
▁implantation
▁rats
▁sodium
▁oxygenation
▁decelerations
▁symptomatic
▁salvage
▁synovitis
perfusion
▁deformity
▁supervision
▁interventions
▁lateral
▁hospitalized
▁generalized
▁sectional
▁leukocyte
▁preoperative
▁gestational
▁menopausal
▁unchanged
▁regimen
▁fibrillation
▁occurrence
▁antibiotic
▁multivariate
▁Statistical
rectal
▁graft
▁psychiatric
▁laparoscopic
▁inflammatory
▁bilateral
▁prolonged
▁mmHg
▁initiation
▁saline
▁axillary
▁diagnoses
▁GERD
▁prophylactic
▁rheumatoid
▁invasive
▁vascular
▁demographic
▁statin
▁metastases
▁cortisol
▁dissection
▁susceptibility
▁Doppler
▁pulmonary
▁pancreatic
▁reperfusion
▁lymph
▁hepatitis
▁mucosa
▁localized
▁insulin
▁postoperative
▁pelvis
▁BP
▁suppression
▁mmol
▁systolic
▁lectures
▁uncomplicated
▁chemotherapy
▁arthritis
▁artery
▁Median
▁pathologic
▁weighted
cerebral
▁cTnI
▁Treatment
▁hypertensive
▁discharge
▁hemodialysis
▁tertiary
▁concentrations
▁scans
▁adolescents
▁stenosis
▁hemoglobin
▁mice
▁allele
▁endometrial
▁anatomic
▁hypoxia
▁diabetic
▁spinal
▁laboratories
synovitis
▁elevated
▁placebo
▁Questionnaire
▁severity
▁symptom
▁basal
▁ergocalciferol
▁reflux
▁renal
gastric
▁benign
▁cholecystectomy
▁questionnaire
▁sagittal
differentiated
▁bronchiectasis
▁vaginal
▁PRISM
▁physicians
▁ovarian
▁clinician
lateral
▁laparotomy
▁parotid
statin
vascular
▁peripheral
▁relapse
▁recurrence
▁antigen
symptom
▁abdomen
▁infarction
▁infants
▁ischemia
▁morbidity
▁mediated
▁ventilation
▁colorectal
▁Groups
▁impaired
toxicity
▁hormone
▁necrosis
▁manifestations
▁tumour
▁gluten
▁tumors
▁melanoma
▁stratified
▁fetal
▁metoclopramide
▁cycloplegic
▁Patients
arthritis
▁resistant
▁postmenopausal
▁differentiation
▁fentanyl
▁bipolar
▁adjuvant
▁neurologic
▁fatigue
▁ethnicity
▁radiologists
▁appendectomy
▁Significant
▁Laparoscopic
▁pressures
▁airway
▁laxity
▁evacuation
▁remission
▁musculoskeletal
▁carriers
▁reviewer
▁squamous
▁migraine
▁gestation
▁mutation
▁expenditures
▁cues
▁spontaneous
▁neurological
▁adenocarcinoma
▁radiotherapy
▁myomas
▁PID
▁circumference
▁hypothyroidism
▁insertion
▁ultrasonography
▁Clinical
▁VAS
▁prostate
▁surgeon
▁thyroid
▁lupus
▁infundibulum
▁tomography
▁toxicity
▁hemorrhage
▁staging
▁obesity
▁ventricular
▁urinary
▁epinephrine
▁fasting
▁aneurysm
▁specificity
▁pregnancies
▁joints
▁isolates
▁restenosis
▁pancreas
cystectomy
▁psychotic
▁perinatal
▁postmortem
▁caregivers
▁gastrointestinal
▁tumor
▁transplantation
▁referral
▁deprivation
▁kHz
▁prevalence
▁endoscopic
▁gastric
▁infusion
▁practitioner
▁predictive
▁categorized
▁laparoscopy
▁annulus
▁ischemic
▁abdominal
▁contamination
▁antibody
▁intravenous
▁contralateral
▁glucose
▁mellitus
▁staining
▁intraoperative
▁transient
▁inhaled
▁Depression
▁ROP
▁biochemical
▁biopsies
▁decreased
▁plaque
▁carotid
▁acute
▁pathology
▁obese
▁headache
▁examinations
▁carcinoma
▁adverse
▁aortic
▁metabolism
▁principals
bladder
▁dexamethasone
▁retrospective
▁flexion
▁Registry
▁biopsy
▁pneumonia
▁percutaneous
▁arteries
▁exclusion
▁untreated
▁splenectomy
▁schizophrenia
▁immunohistochemistry
▁syringe
▁intrauterine
▁unilateral
▁atresia
▁PPM
▁clinics
▁angiography
▁ratios
▁receptor
▁catheter
▁asthma
▁progression
▁nasal
▁fixation
▁platelet
▁respondents
▁HIE
▁infections
▁cancers
▁comorbidity
▁substances
▁metformin
▁intensive
▁longitudinal
▁bladder
▁complication
▁Cox
▁blinded
▁Patient
▁melanomas
▁acupuncture
▁Pathway
▁aorta
▁anticoagulation
▁radiographs
▁neonatal
▁elective
▁Medicare
▁VAP
▁hazard
▁palsy
▁acceleration
▁leakage
▁stimulation
▁molar
▁proportional
menopausal
▁arterial
▁outpatient
▁histology
▁Retrospective
▁hypertension
transplantation
▁maternal
▁impairment
▁ICU
▁abnormal
▁fellowships
▁radiographic
▁HCMV
▁needles
▁residency
