▁neurologic
32
acute
▁131
till
▁diarr
▁pylori
ected
▁35%
insulin
▁unilateral
romes
oneph
ipr
▁8.3
atical
▁13,
▁muc
▁dischar
▁cytologic
▁dissociated
ritic
▁relapses
▁derivatives
▁induces
trum
▁medial
▁suppor
▁hepatocytes
-2)
▁neoplasia
▁artery
▁symptomatic
67
Ts
▁smo
▁nonspecific
▁solvent
taz
▁palp
astatin
clamp
▁gels
▁hypercalcemia
▁functionally
▁satis
▁preferen
kDa
▁amylase
▁cytos
▁tibial
▁pate
Ig
▁modalities
▁cancers
▁pmol
▁microtub
▁potentiated
▁pHi
oxif
▁lipophilic
▁proteinase
▁warfarin
7,
erent
epithelial
▁isomer
tially
▁12.5
▁30%
▁cuff
titial
▁controver
ulla
▁couns
▁depletion
▁(1.5
atif
.2
opr
kage
▁cardiac
ysm
▁GAD
thanol
iteal
▁maneu
▁poisoning
RNA
▁objec
anine
loxacin
▁alteration
▁Swed
▁radiographic
▁pathway
oprec
ocyan
▁30.
▁SG
▁(30
▁deoxyrib
oprotein
▁hered
▁postmenopausal
▁124
▁perfusion
ifed
▁targeting
ichia
lip
▁subcellular
oblasts
▁Cardi
▁norepinephrine
▁decreases
PCR
orac
▁10.0
ischemic
iae
▁noc
▁olfactory
▁tas
▁Factors
▁titer
epines
▁diarrhea
▁16%
▁transpor
entral
pecially
▁AII
-8
plas
cus
ylcholine
5),
▁nondiabetic
pregnant
▁kinetic
▁excretion
▁throm
entile
alian
▁comprised
ocated
▁clus
▁sexes
▁280
▁87%
▁fluores
▁117
▁cerv
▁instrumented
usate
gated
▁demonstration
▁neutrophils
▁neuropathy
estig
▁17-
▁leukocytes
▁29%
▁estrogens
▁mU
chloride
ohyd
lycerol
▁angina
▁alternating
▁turnover
▁dismutase
▁gonadotropin
planted
antibody
odipine
esic
glycoprotein
▁prolactin
▁Relative
▁comple
lys
erence
▁succin
▁enamel
▁acute
▁antisera
▁heparin
fec
▁glomerular
▁intravenous
▁Reduc
▁10(-7)
▁enzymatic
/8
▁cartilage
▁hydroxyl
hern
▁instrum
▁analogues
▁erythrocyte
amycin
venty
▁deviation
versely
▁prostaglandin
▁glial
▁inhibited
4+
IGF
▁deprivation
-19
▁multim
▁improves
roscop
4)
▁osm
▁adipose
plementation
▁(9
oung
lac
▁perioperative
▁sulf
-4)
ture
jac
▁4.4
▁6%
derived
▁deficient
▁ionophore
BH
pecific
▁concep
▁effec
dL
▁rupture
▁nausea
ovine
61
▁198
▁Disease
▁ECG
ytoin
essel
▁Protein
▁relaxant
▁inoculation
▁(14
mediated
▁indications
formations
uanti
▁impaired
tryp
▁homogen
▁HeLa
▁satur
▁ranitidine
▁influenzae
▁ADP
blood
pig
▁dimer
▁morphology
▁examinations
▁lactate
▁satisfactory
▁visc
tiguous
▁ultras
▁triglycerides
▁responsiveness
▁PGE
▁PRL
▁7-
▁NMR
▁interferon
ovascular
▁epithelial
trial
tracellular
▁ammon
ellular
▁cephal
▁scre
▁Leu
▁quantitative
▁tumours
▁streptococci
▁crude
▁schizophrenia
▁lact
▁underg
otide
23
▁smears
▁alkal
luding
▁transduction
robial
rozen
occal
8;
▁stren
rosemide
▁Transi
crimin
ocl
inally
terologous
reased
▁wors
▁15-
▁135
▁disulf
▁92%
▁antagonized
siology
partic
▁interfer
▁acqui
tant
▁saphen
▁unchanged
▁chromat
tero
▁suppres
▁microtubules
ilin
▁epilep
▁histological
ectomy
april
▁121
ionine
▁vitro
▁degeneration
mitter
individual
▁wean
tracted
▁avoidance
▁bathing
iagn
▁intub
▁uter
▁ventric
▁contractile
tamine
encephal
arcoma
▁inhibitor
▁Thirty
-125
phosphate
▁cirrh
ureus
▁[125
▁extensively
▁8.2
▁Sixteen
▁quanti
▁63%
horm
▁ovary
feeding
.00
▁resto
▁excitation
astric
▁immunore
▁39%
▁vein
▁137
amid
gland
▁9,
▁tubulin
▁aneurysms
+.
▁ascending
▁Biol
▁repetitive
tig
ipro
96
▁Experim
▁regurgitation
tally
▁0.4
▁noninvasive
▁diaphragm
▁85
uoden
▁heterogene
▁0.07
▁gestation
CAT
▁cyan
▁cann
▁accelerated
teroids
▁chromosome
▁anaesthesia
▁8.4
▁pancre
idation
▁200
5%
▁inherent
▁therapeu
▁3-
plastic
▁100,000
▁0.20
▁subunits
▁GH
valence
-7
rotic
▁phosphatidyl
8).
idone
trover
geal
rometry
▁prescribed
93
▁Ig
▁decarbox
▁bicarbonate
▁uro
induc
adrenergic
▁seizure
▁steroids
oag
ifferen
▁potassium
▁catechol
9),
0%,
▁ethanol
▁proportional
▁55%
▁randomized
▁4.
▁Americ
▁augmented
▁accumulated
▁intraven
▁12%
▁6.5
pine
▁(0
▁pyramidal
▁saline
▁2.8
▁fluc
▁degrad
▁systematically
▁hazard
▁urinary
ophil
▁assayed
▁cholera
▁potent
▁cDNA
▁5'
ymme
onomic
sively
▁depressive
▁parox
macropha
▁subjec
infection
phasic
▁dihydro
odialysis
▁CsA
thase
▁cardiomy
▁CFU
▁critically
▁Increas
▁suscepti
Pa
yses
teroid
▁Haemophilus
▁pM
▁graf
coated
▁incubated
▁shortened
timulation
▁sepsis
abd
▁venti
▁superficial
▁sorbitol
thi
▁subtype
▁PTH
erative
▁incub
▁filaments
▁cartil
▁erythrocy
▁clarify
▁retrospectively
88
inj
▁transforming
▁proliferation
ximum
/1
▁minimally
ostic
+,
▁trimester
tice
▁prolongation
▁exten
▁nuclei
▁hyperch
aternal
ruc
5%),
▁48-
▁ionized
▁Glu
▁saturable
▁antiser
▁inotropic
/3
▁phenotypes
owever
▁latency
ithin
▁thre
▁micrograms
▁electrodes
▁1986.
▁60%
▁RP
▁morphine
▁HPV
absorption
▁plasmid
oplastic
ffe
acil
thromb
▁104
▁slowing
▁systemic
▁SDS
▁hospitalization
▁zinc
otroph
-1.0
▁markers
onegative
▁gonadotrop
▁disruption
▁kDa
▁10
imide
▁sca
▁evoked
adrenoceptor
irc
0.3
▁encodes
▁resorption
▁sexually
independent
okine
▁colonization
kground
▁8,
ergen
▁hyperg
atitis
▁hypothalamus
▁69
▁limb
▁canc
▁reversal
bladder
▁tymp
idne
kinje
▁(24
▁adul
▁compli
▁mediating
▁beats
▁sensory
▁memb
▁4.7
▁alveolar
▁embryonic
▁Combin
-15
▁(150
risk
2/
▁restor
▁anemia
azole
▁aortic
▁perme
oglobin
▁0.12
▁treadmill
ignant
▁noradrenaline
uting
▁neurogenic
▁inten
enteric
ariate
▁apical
▁phospholipids
iversity
▁IGF
▁electroly
▁(7
▁strains
▁hydrochloride
ograms
▁pacing
▁resec
▁instruc
▁optimum
▁1.2
▁drin
5'-
▁prophylaxis
▁Tissue
▁correlations
oluble
▁rhe
▁regeneration
estis
tocin
▁contamin
fib
▁daytime
othane
otent
▁enti
▁oxidation
▁differe
▁erythrocytes
ymptomatic
▁7.4
▁cholec
▁rotavirus
▁carriers
affinity
BV
▁Clinical
▁rehabilitation
▁cyt
stranded
▁compe
din
▁pelvic
▁imipramine
uron
sorb
▁socioeconomic
▁61
tran
onuclease
ughter
▁natriuretic
▁inhibitors
▁preservation
▁lymphomas
▁incomplete
▁outward
uvant
▁congenital
adenosine
▁Concentrations
olarization
▁affinities
otypic
▁promp
tingu
rox
▁assessments
▁hyperlipid
▁antitumor
▁accumulation
▁exer
▁relapse
▁macropha
▁antiarrhythmic
loid
▁EA
aminop
▁1.5%
▁hypertensive
▁Immun
4),
▁impairment
▁lupus
▁dissemin
azep
MN
tured
+]
onyl
▁ald
▁severity
6.
-3-
▁prenatal
chlorothiazide
iatric
▁monolayer
▁soy
▁juven
ercul
vival
▁muscarinic
tics
▁excluding
▁interventions
▁CRF
osition
▁11%
▁salbutamol
▁elas
▁phospholipase
▁RA
duction
duced
▁leukotriene
ayers
▁73%
▁saturated
▁definitive
▁logistic
DNA
odds
▁ech
▁129
tiz
▁5.1
▁phi
▁deficiency
oproterenol
estrogen
▁skeletal
▁cerebrospinal
luores
▁phosphorylated
▁VLDL
kines
▁endotoxin
25
▁Maximum
▁abnormalities
▁elu
scherichia
▁intermittent
▁physiologic
oplasmic
2%
▁0.30
oactive
▁filament
▁71
▁homoz
▁45
vation
▁infiltration
▁0.5
lymph
▁estradiol
33
▁inver
▁TGF
etan
▁hemorrhagic
▁symme
▁collec
▁assay
▁premature
▁prel
▁Bac
▁aneurysm
▁hemodynamic
toid
▁polypeptide
▁Elec
phic
▁enzym
tering
acted
▁Intra
▁embryo
▁disturbances
onstric
▁postpartum
galact
moking
▁casein
▁91%
▁perforation
▁EG
▁(198
-34
thma
ignific
▁microvascular
▁86
▁ect
▁recom
▁donor
▁ileum
▁Pseud
ophilus
ozo
ocarcin
ellum
▁bac
ypical
-45
▁unstable
▁extensor
otomy
▁hygi
anking
▁0.001).
yrox
▁50%,
▁BP
▁aluminum
glucose
▁indicators
stimulating
▁appropriately
phyl
▁sputum
▁(3)
▁0.11
+)
26
500
▁mimic
amn
▁genital
rhy
▁haem
trus
▁disulfide
▁tissues
piration
▁immunotherapy
converting
▁potency
▁acces
▁preincubation
▁40
osocial
▁capillary
illus
GH
asive
▁HSV
▁currents
▁fetal
▁subclinical
tiary
uran
▁collateral
▁enal
▁hydrophobic
▁aberrant
chemical
xual
phosphorylation
orphin
▁lymphocyte
▁1
▁prognosis
▁polyclonal
▁phospho
▁conjugated
-13
▁malformations
▁cavity
▁duplic
ethyl
▁percentages
▁dilution
sAg
▁radiol
▁concurrently
throm
gely
▁liposomes
▁ovarian
▁emulsion
▁isoproterenol
NAc
▁prophyl
▁untreated
▁(10.
▁immobilized
xia
▁Pretreatment
▁40-
▁attenu
-1).
▁retard
▁sial
▁[(
▁shorten
47
esity
▁receptor
▁persisted
▁cycloheximide
aryn
0-
odic
▁68
▁7.1
▁unlabeled
▁inactive
▁PGF
stim
▁responsive
illin
trates
2,000
▁prostagland
osts
▁adequ
olec
▁amput
▁IgE
cyclic
▁101
▁peptides
▁syndromes
acid
▁lamina
assi
▁bilateral
LH
▁cows
ensory
cholesterol
▁sequencing
▁0.02).
▁adducts
▁lep
▁lymphoid
▁disrup
FU
▁epsilon
▁neph
ygo
5;
▁immature
▁sympathetic
▁inducer
opausal
▁twofold
▁66%
olgi
enkephalin
▁cytometry
▁bilirubin
▁31,
▁12
tization
erance
▁NADP
▁mug
▁WHO
95
▁abscess
▁brid
osterone
istar
odia
▁deduced
▁fibroblasts
▁novo
▁2,
▁decreased
▁132
▁mammary
▁xen
▁respec
▁cocaine
▁thi
▁histidine
adic
▁monocytes
zymes
▁deletion
▁72%
0.9
▁toxicity
▁defec
▁ket
sies
▁PHA
▁initiate
▁epit
.6%
▁intra
▁immunoreactive
ulant
uterine
▁Levels
itidine
stolic
▁abolished
illary
ochemistry
▁accessory
ietic
▁perin
cein
▁reticul
▁dipyridamole
▁GTP
chymal
otoxicity
ipramine
▁tau
▁circulatory
clonal
anuary
7-
▁bip
oxifen
▁autoanti
sulf
▁leuc
onium
reas
tensity
▁challen
▁proce
.7
▁smear
5%)
▁heme
▁10(-6)
10
▁poten
▁substituted
ocortical
▁ultim
▁quantified
glutin
opamine
▁wee
sA
ectomized
▁homogeneity
▁32
mature
virus
oretic
2,
▁irrig
ields
lycemic
▁(1.3
rophenyl
clerosis
yx
muscle
renol
openia
▁behavioral
hydroxylase
▁metabolic
▁affec
▁IB
▁20%
▁ejection
▁onset
▁occlusion
evoked
▁NADH
▁5.0
▁aor
-30
olytic
-18
▁competence
49
directed
immun
▁concurrent
▁posi
▁propionate
▁12,
▁30-
▁ventricle
▁70
▁refrac
▁20
▁substanti
▁102
terol
▁-7
▁vesti
▁peroxidation
▁criter
cribed
▁terminals
▁regis
▁intramuscular
tate
▁Likewise
leu
▁reticulocyte
▁afferents
1;
responders
▁naloxone
▁transloc
coup
▁Leydig
▁xyl
dial
▁74%
mia
▁10,000
▁76%
carinic
▁conformation
▁shor
▁59%
rectomy
14)
▁precursors
terone
▁preventive
▁deox
▁cardiovascular
▁4
▁characterize
▁keratinocytes
▁elevated
▁1980
▁arose
▁measurable
▁postmortem
▁adap
▁aggres
▁reas
ensities
▁Golgi
▁(1.6
▁hamster
timal
▁Ace
▁contaminated
hepatic
osomal
▁collagen
▁sequelae
availability
▁vivo
titute
▁segreg
▁pathological
ocin
▁cranial
idis
-2.
lastoma
injection
vaccin
7%
▁occupational
tation
ometr
▁enlarge
▁degraded
▁arterial
▁vomiting
lasses
▁metastatic
7).
opril
monary
▁secreted
68
-5
ureth
▁ouabain
▁spon
▁horiz
IgA
tec
▁diabetic
▁transmitter
▁omeprazole
▁inadequate
▁underwent
▁0%
ept
▁mann
▁aspartate
▁8.
▁spi
▁caloric
▁monkey
▁viral
▁CHF
dered
▁prospective
▁generalized
▁TPA
▁10,
FSH
▁KCl
IFN
▁esophagus
3),
63
inhib
▁negatively
▁hydrophob
sensitivity
treatment
▁sacr
▁locus
▁0.000
▁elicit
▁DH
▁glycine
▁Compared
▁traumatic
▁lec
▁62%
psych
yel
▁bir
▁frog
▁0,
-12
▁HbA
hyd
oxone
▁gases
▁administered
0.2
▁-4
▁saphenous
28
▁Purkinje
▁64%
▁(50%)
▁0.04
▁averaged
▁amyl
Daw
▁Candida
-1
▁vaccinated
▁Treatment
infected
▁recipients
▁genomic
roph
▁panc
▁sequentially
tabol
▁sperm
tetr
▁MAb
▁cataly
▁5'-
▁98%
▁(5-
▁ribosomal
▁HBV
rosis
ycin
activation
abdominal
▁ventilation
▁pathogenesis
▁glycos
▁9.5
▁Caucas
▁attributable
cells
▁disclosed
eded
▁Cys
▁sput
▁synov
▁leuk
OH
▁conformational
▁desensitization
.0
▁pigs
ondr
▁monoclonal
▁immunogenic
▁parietal
odine
▁vulgaris
▁myel
onor
▁transferrin
▁intrinsic
▁concomitant
▁hemat
▁pellets
▁paral
▁perit
3+
▁progression
3)
▁uv
▁hypoglycemia
▁grading
▁MAP
▁aspec
olig
deoxy
aturia
osin
molality
▁Mortality
▁hemorrhage
▁ligands
▁fibroblast
▁secretagog
▁(50
▁assemb
▁cleaved
▁ischaemia
▁deposits
rosine
▁(42
▁Forty
▁enhances
▁guinea
▁normotensive
rangements
▁49
▁exchan
▁25%
▁predictive
▁52
▁110
▁sedim
▁94
▁microscopic
▁complication
olip
ocrit
▁discontinuation
tic
▁larvae
▁confound
▁thrombocyt
▁mmol
▁Sixty
rowth
Phe
▁pts
certain
otoxic
▁sero
piratory
▁amin
etween
▁adren
aryngeal
▁exclusion
▁emerg
administered
▁MRI
▁sulph
rease
acerb
▁autopsy
▁reconstituted
tinu
Ca
▁correlate
92
monstr
omerular
▁cardiomyopathy
10.
▁DMP
▁sten
▁35
usp
atid
lobulin
ochemically
tis
▁follic
▁(0.4
▁reflec
▁psychiatric
▁phosphor
▁electrophoresis
ameth
mortem
▁vasoconstric
▁mucosal
▁PB
plantation
▁calves
▁densities
▁placental
▁surfact
▁maternal
▁asymmetric
▁efflux
▁preferentially
▁hypoxia
onset
▁Survival
▁chel
▁inhal
7)
dia
tine
luded
vice
ospitals
▁36%
▁caries
▁2.7
lyl
▁injur
▁evaluating
chym
plants
▁angiography
▁Exposure
▁dox
▁prophylactic
1),
▁judged
▁15,
▁offspring
-20
▁trypsin
aldehyde
▁transported
▁molec
▁prosthe
ogenic
▁predis
▁0.5%
protein
▁oste
▁duplex
▁electroph
▁PDGF
clinical
▁2000
50)
▁proteoglyc
▁hypo
▁88%
▁electr
▁axon
▁retrograde
▁diabetics
roma
▁thyro
-1)
▁initiation
▁unaltered
▁intram
bacco
▁repro
▁immunization
topril
adex
▁Increases
▁transcriptional
otox
6)
▁specimen
adder
▁histone
▁exhibited
▁synthesized
▁10.5
▁antibiotic
▁dissec
▁arous
▁8.8
ospor
▁surfactant
▁EGF
▁neurological
▁(0.
▁microM
▁ovari
▁25-
ineal
▁phenomena
▁proteolytic
▁symp
▁adolescent
3.
▁presynaptic
▁supernatants
▁3.8
-24
ipine
▁agglutination
▁CGRP
▁8%
ameter
▁32%
▁additive
esophageal
▁juvenile
▁Alz
▁41
▁mitogen
▁pla
▁Plasma
0%)
opathy
▁implying
]-
▁hemo
▁lam
tel
▁prono
▁irradi
terolog
▁astrocytes
▁(+/-
▁benign
▁excised
▁myosin
▁Significant
ereb
▁fatty
▁Cells
▁uric
fected
▁progesterone
▁effusion
▁catab
▁93
▁perox
amines
ocortic
▁corticosterone
ilep
oderm
▁furosemide
(2
azolam
65
▁1.6
▁newborns
▁lesion
▁145
▁elevation
ylase
▁elective
tance
ophag
▁incision
oradi
eces
▁0.25
▁encephal
▁isometric
6,
▁Incubation
▁transfusion
▁excision
inic
▁hyperglycemia
ressing
opha
▁restenosis
centr
▁ND
▁leukotri
▁43
▁fluoride
▁foci
odynamic
▁aerosol
▁mAb
▁HC
tribution
▁valu
▁105
▁phospholip
▁semen
▁0.22
▁identi
▁subsets
cyt
odiaz
helin
90)
▁permeability
ilical
▁extrac
▁bene
▁WK
▁obstruction
imens
urgical
▁iod
ubation
▁anomal
▁reticulum
ifferenti
75
osom
▁pneumon
▁complexes
(1
duce
▁imaging
uminal
.3%
asone
▁undere
bly
▁ablation
entif
▁clamp
tus
▁0.19
alas
oxygenase
ylchol
▁fluids
▁necrosis
▁insulin
▁carbox
▁sequenced
Dawley
▁pep
ochondr
terase
▁RNAs
▁arachid
▁efficacy
▁600
obenz
▁mitogenic
▁synap
▁6.
▁irradiation
olamine
▁equilibr
.8
tryptamine
▁fetuses
pharose
9).
▁extre
▁(43
▁inhibition
omycin
▁ulcer
▁nig
▁marrow
llate
▁deli
▁clearance
▁urine
gressive
▁genome
▁(250
ejun
-6)
▁(-)-
ipheral
▁elucidate
▁0.05
▁microsomal
▁contracep
▁700
yridine
▁efficacious
amel
▁3).
▁foc
▁0.2
▁thymus
educed
tual
▁captopril
▁resol
▁discon
positive
▁supple
▁lesions
irradi
▁hypog
▁65
▁dele
liters
▁Rats
▁nadir
▁aberr
▁11,
▁resection
▁conjunction
▁prospectively
▁mec
othelial
3-
▁LPS
▁infar
9,
▁100-
elves
▁dextro
▁systolic
▁yielding
lives
▁ingestion
owel
ller
▁tubule
rosy
alact
-11
▁extracorporeal
▁substantially
▁3.6
▁pulses
▁tuberculosis
ritin
eptid
▁flexor
.9
▁bovine
fetoprotein
▁.05)
▁thrombosis
clerotic
rance
.0%
▁hap
fat
▁balloon
tomy
▁allergy
▁0.08
restricted
▁metabol
69
▁granul
▁auditory
lysis
minal
▁alkaline
▁leucine
▁tracer
adian
▁triglycer
▁attrib
itus
gthen
▁asymptomatic
▁capillaries
▁Phosph
sors
▁BCG
▁alterations
▁diuretics
▁attenuation
▁parental
▁messenger
▁Respon
▁antigens
phot
phila
▁questionnai
coun
▁initiating
amphen
genic
glycerin
atine
struc
▁ureth
▁prednisolone
uncture
▁NSAID
▁hypers
pregn
▁comparative
▁converting
▁reticular
▁antiserum
▁5.3
▁lapa
▁Meas
orphine
▁immun
controlled
ochle
13
NK
9%)
atibility
▁3%
▁radicals
▁EMG
heres
▁hams
ergency
ministration
orption
▁mortality
▁inadequ
▁invasive
urium
▁pressor
▁peritoneal
▁deform
▁10(5)
▁hydroxy
▁suppression
opoietic
▁elic
▁wk
▁heterozygous
truc
tigo
▁28
▁4)
▁Preliminary
▁intestine
▁apparatus
-6,
▁86%
▁pancreatitis
ophys
arean
▁allograft
hyde
hetamine
▁supr
LDL
ordin
▁epidemiologic
Ds
▁soluble
▁mildly
aminase
▁stimulatory
98
▁24%
▁7.5
▁subf
▁dex
▁glycogen
▁chond
ficial
▁Factor
▁bup
▁(28
▁digoxin
acr
46
▁100
▁7.9
▁reactivity
-14
▁gluc
78
▁cytochrome
opulmonary
ighted
▁thromb
▁130
ausea
▁polys
▁periodontal
tabl
idney
▁kcal
▁3,
▁rup
esti
▁coated
ocyst
▁parac
▁43%
▁brainstem
▁increas
▁murine
▁fibrillation
▁Injection
▁intrap
▁determinations
▁TS
▁lysosomes
▁radiological
ventricular
▁pancreas
entified
▁21
▁retinal
ivered
oxic
cessive
▁regen
00,
▁evid
▁(300
MV
▁endometrial
27
rocytes
▁2.2
stimulated
▁9-
sequent
▁9.2
▁preterm
▁diltiazem
▁repres
▁Patient
omegaly
estion
▁immunized
▁111
▁[14
iline
▁radioimmuno
▁derm
▁routinely
▁PV
icidal
occi
▁leukemia
▁fum
▁pati
▁oligos
▁cyst
▁thrombin
▁Tiss
▁kidney
tive
▁sediment
patients
dor
▁CHD
▁MM
sion
▁1990
1-
▁trigg
▁conduction
ergic
▁93%
ration
▁quantif
▁regression
▁discomfort
▁atrophy
traction
trogen
enicillin
ropine
▁74
▁verbal
-22
▁inhibitory
▁0.001)
▁1.0
urine
▁differed
▁focal
igaret
promoting
athiop
▁secretion
▁intraperitoneal
▁undertaken
▁16,
▁3.3
▁glands
▁9.0
glutinin
vely
▁exon
▁OC
Kd
▁indis
8)
sectional
▁suction
odg
.4%
▁lith
▁mell
▁placebo
rogenic
▁cyclospor
39
sue
clin
▁Combined
▁intrac
phosphatase
crib
ronchial
aminophen
▁organs
-50%
▁31%
▁pretreatment
▁41%
▁blocker
▁gentamicin
▁analgesic
bodies
▁ips
ocamp
DH
osomes
.9%)
▁thoracic
pli
▁Higher
▁HTLV
▁antagon
siological
▁investigations
▁maturity
receptors
23187
▁3'
▁newborn
▁gradual
osamine
▁ovulation
kets
▁differentiate
▁polysaccharide
razole
▁2%
▁dysp
▁pH
▁NAD
+/-
▁solub
▁anatomical
-16
tively
▁biochemical
▁aromatic
▁exogenous
▁yiel
▁acyl
▁immunodef
heximide
ropathy
1%)
rofen
▁epidermis
▁ACh
▁42
▁hapl
▁MH
▁normo
▁rats
▁tes
▁RV
TNF
▁Positive
clo
▁catecholamines
ferrin
▁MV
tein
▁summarized
▁supplementation
yrib
▁morphological
razosin
mL
▁Acute
rogenase
▁obesity
▁AVP
▁pacemak
▁cytotoxicity
▁peaked
▁fatigue
▁doubling
▁nucleotides
yzed
polyacrylamide
edded
▁ester
▁cardi
lyc
chol
8,
ionic
subunit
▁oxide
▁Thirteen
▁0
▁serolog
▁54%
▁acutely
▁adip
▁7.8
▁cGMP
ffer
▁ionic
▁paralle
▁angi
▁arthritis
600
glutination
▁polymerase
▁leakage
▁Arter
▁termed
▁IFN
▁lavage
▁LC
▁vertebral
vascular
▁polypeptides
▁benzodiazepines
▁83
▁pneumoniae
ucose
▁catalase
▁opioid
uted
▁stool
▁progen
▁cytosolic
irubin
▁gonad
sistent
saccharide
▁LD
▁reag
▁thiol
tries
roso
84
▁uncommon
▁lowering
▁purification
▁contralateral
siologic
▁(6
dotoxin
▁82%
9-
▁asymme
▁spor
vic
▁collagenase
phen
onc
▁familial
growth
teral
▁econ
tumor
▁glomerul
▁multin
▁practic
DV
fts
▁determinant
atation
rele
▁heteroz
▁surgical
▁fixation
scher
oreal
▁discus
▁plas
▁spasm
▁84%
▁carboxy
oplasm
▁colonic
athione
▁veins
corrected
▁33%
▁dairy
▁inappropriate
▁hydrox
▁radioactive
▁tryp
▁IgA
▁pretreated
mental
erving
tensive
▁headache
20
ubiqu
osus
▁aeruginosa
aptic
Nase
▁pertussis
▁reac
quine
▁TNF
methionine
▁endot
oyl
▁119
▁thym
▁melatonin
▁hydrocortisone
▁effector
tussis
▁crossover
▁ultrasound
agonist
▁6
tages
itre
▁prednisone
▁Seventeen
▁crosso
▁contrib
riton
ocytes
▁obstructive
▁0.14
/24
ctive
turb
▁acetic
omethacin
▁77
isomer
orectal
ranolol
sorption
▁inhalation
▁dextran
▁46%
▁connective
▁hypox
tivities
▁lumen
800
tivity
uppression
▁conjugates
▁ascertain
▁CG
▁atherosclerosis
0%.
iotics
ogenetic
▁proteoglycan
embry
▁7.2
▁intravenously
▁weighing
inemia
brain
▁linearly
arynx
▁psor
▁seroton
▁subunit
▁attain
hydrox
▁vagal
hep
▁anomalies
▁2.3
xime
▁inspiratory
▁cisplatin
▁Abnormal
trol
▁7,
ochem
▁persists
omies
▁calcium
parathyroidism
▁prevalence
▁strepto
▁consecu
▁infancy
▁10.
▁androgen
▁13%
▁18,
▁predic
ynaptic
organisms
▁strand
▁cyto
▁overt
▁saturation
stin
▁struc
IgG
regulated
▁extracts
resist
▁tec
ogenicity
tase
▁106
%).
oreceptor
▁107
▁forsk
▁msec
▁concanavalin
▁insignificant
ochemical
tiv
▁hysterectomy
▁epilepsy
▁oxidized
▁choles
▁45%
▁lobe
▁nonf
tage
Ala
ocytosis
▁onc
▁infusions
hemical
▁experimentally
▁gestational
▁NaCl
electro
▁reabsorption
platin
▁melanoma
▁indomethacin
▁amplified
▁uncom
orrh
▁fluor
ocardi
▁38
andida
phrine
triglycer
▁48
▁catecholamine
-2,
▁supplemented
2),
▁19%
▁89
ecyl
▁cutaneous
▁insufficiency
▁staining
▁brom
oblastic
tening
indolol
▁HB
operatively
▁digestion
▁membrane
oglyc
ologous
▁inters
▁alcoh
viron
▁contractility
▁Mn
▁manu
▁reduc
▁infections
▁remission
▁spontaneously
ithelial
▁implic
▁recordings
amuscular
/-
odop
▁195
conjug
keletal
oxyl
▁innervation
▁Nineteen
▁definite
heal
▁reversible
▁morbidity
▁intracerebral
▁threefold
-5-
▁HL
utyr
▁Hyper
ogl
▁cytosol
▁144
▁creatinine
▁arth
▁supernatant
eprazole
▁differing
▁phosphorylation
▁electrode
▁pyrid
ithi
▁physici
▁pharmacologic
▁progressively
▁intracellular
▁bromocriptine
ystic
▁hyperthyroid
olateral
vae
▁atten
tically
▁fas
▁126
▁PMA
▁fmol
▁cellular
▁mammalian
phenyl
thirds
▁reperfusion
▁histology
▁acco
tructive
▁decreasing
▁questionnaires
▁propranolol
▁penicillin
▁82
▁conclu
urate
▁synovial
▁(48
▁fibrin
▁identif
▁papill
▁variability
▁exceeded
▁recor
▁66
▁excre
▁233
oxid
▁protr
▁secrete
▁fecal
▁PMN
olipid
▁0.1,
lusion
▁6.2
▁mutants
▁Hyp
oglobulin
-3,
▁4,
tical
▁myocardi
athyroid
▁recombinant
▁phenotypic
▁arachidonic
▁radionuclide
lep
▁favorable
▁surgically
tence
▁suppressive
▁Functional
ophy
▁ANP
▁tetr
▁46
▁oxidase
▁reagents
▁inversion
▁anticonvulsant
▁granular
▁(21
▁CCK
amus
▁lipoprotein
▁excreted
▁9%
3%
arbox
▁plasminogen
▁adverse
hydrop
nucle
80
▁bronchial
ints
mittent
rocal
▁4.6
▁streptoc
▁monocyte
▁thir
▁1.5-
▁seizures
oinositi
▁remo
lue
▁syngeneic
▁7
▁adenosine
▁350
▁monolayers
▁sucrose
ocellular
▁amplification
▁diffuse
illation
▁colorectal
tious
arrhy
▁myocardium
▁neutralizing
onucle
atology
45
pH
immuno
▁immunoprecipit
6).
drug
plate
▁CRP
osine
ulose
▁palsy
▁progres
▁parie
oreactive
▁bacterial
toph
▁bran
ifug
▁stimulated
opoly
havi
anthine
tropin
▁vitamin
▁dilatation
otassium
▁cis
▁hypotension
▁TT
▁sorb
▁menstrual
vail
▁expressing
▁spontaneous
60
operoxidase
tures
lobin
▁109
hydroxyp
phyloc
▁halothane
ropriate
▁reser
▁physicians
▁disappearance
▁topical
hea
▁endemic
rophob
▁197
▁tumor
erated
ropyl
▁resis
▁molar
2(+)-
dominal
reness
aryl
▁5.8
▁translocation
cephal
▁ole
itamin
▁toge
▁gonadotroph
▁residues
▁NADPH
▁predictors
▁95
▁induction
▁slices
▁Assess
+/
▁virtu
aturated
▁sensitivities
iability
▁caud
▁cerebellum
▁solubilized
▁substitution
▁aerobic
(2+
▁examining
aicin
omized
▁hir
▁TRH
▁0.05).
▁elast
queous
adiol
▁90%
▁isch
odium
▁hematopoietic
.8%
▁capsaicin
▁neurones
▁peripheral
testinal
▁7.6
endri
▁abor
▁cytokines
secre
uresis
▁atopic
▁labeling
edema
▁Wistar
▁glucagon
▁6.1
▁differentiation
TG
▁gradi
▁abundant
▁antagonist
exposed
▁organism
deple
▁Lys
▁6-
▁infused
▁consis
▁hormonal
▁substances
▁Sprague
eptin
5%,
▁stratified
▁pall
000
▁conjugate
▁coli
idase
▁infarct
:1
gic
▁methyl
▁NP
ogenes
▁19,
alsy
idol
▁fractional
▁nM
2+
▁1986
antigen
▁hyperp
▁paren
▁(2
▁seronegative
▁coenzyme
▁calor
▁chemotactic
TSH
▁HI
▁Tc
▁phagocytosis
▁fibres
▁84
adjusted
idym
▁atrium
▁dilated
inyl
kely
▁inactivated
▁complementary
▁lamb
xone
accharide
▁umb
▁latent
▁NH
osyl
▁SHR
▁MHC
▁Afric
ocardial
▁(46
▁disper
tives
▁phenyl
▁1988
▁folate
▁arteries
▁musc
▁detergent
▁encomp
▁2.0
angl
ituit
opressin
▁localization
ortic
tiazem
albumin
▁sedimentation
tency
▁Addition
2).
▁30
ostatin
▁infec
▁(1
▁(12
▁divalent
▁-1
▁94%
▁eluc
▁23%
oprolol
▁carotid
▁bradycardia
antial
unced
▁angioplasty
▁122
expressed
▁histologically
▁0.15
▁histopath
▁prognostic
▁plaque
gus
▁transi
▁amputation
▁4.9
crip
▁Ib
▁ganglion
▁contex
versity
cellular
▁actin
diagn
▁vaccination
pir
▁antimic
oxin
▁Whereas
▁2.1
▁homogenates
▁0.06
▁spleens
▁CSF
▁pigment
▁acetylcholine
▁Tn
▁visualization
▁abdomen
▁monkeys
ffinities
iol
▁substrate
dition
rowing
▁lineage
▁transmembrane
▁metastasis
ucas
▁abd
greater
▁tac
▁0.35
▁puncture
94
eared
trous
sied
terminal
▁10(
▁aorta
gents
▁(15
▁Neu
associated
62
11
▁6.3
-60
ygdal
35
▁hormones
▁deleterious
otypes
▁hospitalized
▁Doppler
loon
▁perfor
12-
▁Inhib
▁(80
30
▁44%
▁menstr
establ
thio
▁agon
▁fibronectin
-6-
▁insertion
▁immunoglobulin
▁evaluations
▁Strep
▁81
▁calcification
▁depleted
▁glucocorticoid
olipoprotein
▁afferent
▁erythropo
-35
▁LT
athioprine
▁granules
▁lis
▁oxytocin
itant
▁transplanted
Hg
▁pools
▁examin
▁Bec
▁schiz
NH
ymptom
▁parathyroid
▁Increasing
xate
▁anesthe
▁loci
-100
▁selec
▁inducing
▁adop
▁viability
ongest
▁lyso
▁injec
▁infectious
▁radioactivity
▁deficit
riched
tub
▁blockade
▁LH
▁cholesterol
▁monomer
▁theore
▁epithelium
▁enzymes
oporosis
lamy
▁enriched
▁0.13
▁gon
tensives
▁cytokine
▁enteric
▁hydrogen
▁hyperb
approximately
atment
3%)
▁chan
▁autoradiography
▁mutagenesis
▁Plas
vity
▁clon
tructural
▁cryp
▁inoc
▁urea
jected
TPA
phal
roscopically
▁3.9
▁preparations
trical
▁uncomplicated
▁epitopes
▁1989
▁Acad
▁amino
▁nonc
5-
▁intran
▁allergic
0%),
▁puber
▁16
alp
▁modifying
ynthe
▁markedly
▁pituitary
▁80%
▁susceptible
▁disseminated
▁3.0
▁128
chrom
▁neoplasms
▁dors
▁promoter
▁platelets
▁(0.0
ophore
oscopy
▁8.1
▁progn
▁chorionic
uvate
▁Stimulation
▁5.4
▁monos
▁operative
▁1987
▁TCR
▁etiology
▁hipp
▁euth
▁0.05)
leukin
ults
▁epidermal
meas
eration
▁MIC
/12
bloc
▁dehydrogenase
▁mucosa
▁hemorrh
▁frontal
▁protoc
125
▁(20
▁synthase
▁thymocytes
cemia
▁poin
▁bioavailability
agin
▁alcoholic
ostomy
▁Vmax
acental
▁44
100
▁formulations
oplas
.5%)
▁diets
▁suppressor
▁ejac
utions
▁0.24
PTH
▁22
▁infusion
▁interpre
▁chor
▁chlor
▁reactive
▁vigorous
▁(10
▁outpatient
▁immunosorbent
measured
▁demonstrates
43
▁lysis
▁113
▁reliably
▁inflammation
▁maximally
plasia
▁(31
▁spati
▁300
inositol
▁lipid
▁ineffective
▁lipids
▁theophylline
acrylamide
years
▁hereditary
▁15%
▁140
▁plasmids
kine
▁cortic
▁surgeon
▁tachyc
uretics
admium
▁unusually
▁unclear
▁inositol
illaries
▁enzyme
▁immunohist
▁neurob
▁chemically
79
▁GnRH
2+.
quit
▁amygdal
▁67%
gesterone
fusion
▁0.0001).
wk
emak
EGF
▁emo
meth
91
helial
▁118
▁persistently
▁BAL
▁laminin
▁insufficient
▁trache
▁lipoproteins
intestinal
▁targe
ocular
▁FEV
azol
▁ischemic
▁molecule
▁phosphodies
▁compart
▁occult
titu
▁corneal
▁carbohydrate
pyr
▁tryptophan
amide
iasis
▁112
▁tertiary
4%
▁CK
▁recr
▁doses
▁10(6)
▁ovaries
▁inflammatory
▁modulation
▁forskolin
ialysis
ochrom
▁99
9.
▁aldosterone
subs
▁4.2
atase
onin
▁(100
▁yeast
amphenicol
lamydia
▁0.6
▁developmental
▁(8
▁sonography
▁benz
teroidal
▁TC
▁contributes
responsive
irds
inase
▁lambs
▁28%
▁asthmatic
▁prednis
▁133
▁rIL
▁macrophage
▁respiration
▁dimethyl
▁interfere
15
▁postprandial
▁rheumatoid
ipitation
obl
▁donors
▁readings
idated
▁hydroxylase
▁ethyl
altered
▁conduc
▁septum
▁junctions
85
▁incontin
azem
ituitary
▁ascorb
▁modulated
avail
▁40,
▁spinal
▁indi
ophen
invasive
▁adulthood
▁absorp
disc
▁postnatal
9%
▁CNS
tectable
acetic
▁Coronary
omotor
▁(4-
▁65%
▁arrhy
economic
▁hydrophilic
iazide
▁59
welling
arachnoid
▁hydrolysis
▁tubes
ucle
-40
bic
-7)
▁compositions
▁retic
▁thal
▁vesicle
pinephrine
▁transluminal
▁preceding
Tyr
▁lumb
▁duc
▁perfused
bacter
▁EEG
▁durations
▁rabbits
pation
athy
oscopic
52
omonas
▁elimination
urys
▁repeats
▁anaerobic
tur
▁vascul
▁reliability
▁transient
trated
transferase
ensi
5).
▁opioids
▁synapt
▁EE
▁cerebral
▁renin
/4
▁hepatic
▁regimen
atab
▁accel
▁cured
odal
▁conditioned
hydro
achid
▁DF
▁arousal
sensitive
▁exaggerated
▁grafts
immune
▁incom
LV
▁vesic
50,
▁exce
▁dyspnea
▁fractures
▁serotonin
▁transfected
▁arrhythmias
▁viruses
▁incis
▁trig
uria
▁NI
▁eti
▁elec
▁dysfunction
toxin
(+)-
▁26%
▁guan
lier
▁ratios
cence
▁umbilical
▁rheum
▁maturation
▁serum
anol
2-
▁antidepress
▁chemot
▁42%
-8)
ylation
▁7%
▁Examination
▁synerg
arterial
▁refractory
▁Subjects
▁methionine
▁oxidative
▁autologous
▁referral
aemic
▁allogeneic
tituted
ifedipine
▁infants
▁blot
.6
▁analyses
▁stres
▁mixtures
▁washout
24
▁ure
▁Interestingly
rotid
▁cen
▁discharge
▁echocardi
merc
▁projec
▁proteolysis
▁(2.5
▁adhe
▁Hb
▁obese
▁39
▁radiotherapy
▁Staphylococcus
▁transverse
achol
▁endocrine
lym
olesterol
▁insoluble
optic
▁enrolled
▁nephropathy
▁mmHg
▁57
oste
▁restric
henyl
etal
▁rehabil
▁infarction
▁underst
oracic
.7%
▁TM
promazine
▁analges
▁elevations
butamol
dies
▁subc
▁predicting
▁cysts
▁mammals
atible
▁80
▁9.
▁0.01).
▁calmodulin
tisone
icep
▁incid
eryth
ritis
▁180
HB
▁cAMP
blocker
silon
▁LR
▁Conversely
▁kD
▁(23
▁neon
▁hypothal
▁1985
▁progestin
▁recurrent
▁acids
▁intest
▁differenti
▁autoradi
▁kinetics
▁congen
▁transcript
▁protec
▁transplants
▁acetyl
-1.1
▁aggregation
injected
▁audi
achnoid
vents
omyel
▁dementia
lact
terin
▁calcitonin
▁(16
▁exag
▁magnesium
orh
oclonal
▁RI
ochrome
▁elimin
▁0.01
▁organisms
▁thromboemb
▁subgroup
▁striatal
▁73
▁hemoglobin
▁exposures
▁(38
oceptor
▁optic
bumin
▁Prel
▁insuff
▁radiolab
▁termination
effects
-1.
+)-
▁respiratory
▁oxy
▁molecules
▁tric
omial
▁lacked
▁expres
lec
nisolone
aline
▁antis
ditions
▁analogue
▁92
bral
▁47%
▁dias
▁keto
▁poorer
esthe
▁concentrations
▁anticoag
onad
▁Previous
▁induce
lactam
▁exud
▁cla
veolar
▁ane
roxim
▁hypotonic
▁cef
▁aggregates
▁accounted
tiveness
-1,
▁25
threatening
lycemia
▁endothelin
▁Evid
▁kinase
▁malign
galy
▁anhydr
▁ligand
kelihood
▁biopsy
▁sugges
urin
labelled
▁(0.1
▁rostral
▁13-
toxic
▁filtration
▁studi
▁sph
jug
▁strips
▁reflecting
▁tomography
▁deposition
▁discharged
▁ACE
▁ligament
▁acetate
▁Measure
▁subpop
▁similarities
adily
icardial
1)
70
ucl
▁79%
▁salivary
selective
ceptive
▁(11
▁ankle
▁admissions
tric
thmias
▁formulation
▁catalytic
qui
▁Holter
▁bowel
▁LDL
osclerosis
oprol
-9
▁humoral
▁supra
ogeneic
endorphin
▁assessed
namic
traum
▁17%
▁bile
▁(56
ctomy
tors
ubicin
▁unrelated
▁grains
MDA
▁neuronal
▁dermat
farin
ylate
▁88
lycer
▁immunological
▁dendrites
apamil
ocarcinoma
▁preferential
▁accep
▁smokers
▁statis
▁subjected
▁direc
ocys
uprofen
ordance
onephritis
avage
6-
▁latex
▁biosynthe
2+]
▁immunocomp
▁outflow
▁Multiple
▁thrombo
LISA
▁ori
▁115
▁predictor
regulation
▁construc
▁circadian
▁bypass
▁50,
▁microsomes
othi
0.6
72
occus
ensitivity
obarb
divid
-[
▁1.8
-9)
▁promo
▁evidenced
▁endo
amate
atients
▁paired
ffeine
▁27%
tration
▁distal
▁swelling
ffinity
▁ulc
▁microscopy
trate
▁nicot
5%).
55
ulmonary
▁Radi
▁contraceptive
▁proteins
▁Hep
▁carbam
fraction
ecre
▁injections
chloro
▁2
▁vaccin
▁ocular
▁(18
tensin
▁34%
onuclear
▁comparisons
raine
ifugation
▁asthma
▁prolif
▁mL
▁deoxy
onit
▁therapies
ximal
▁NF
▁corpus
▁recruited
8),
▁lute
quisition
▁autonomic
▁triti
Cu
adrenaline
▁ATPase
esin
▁53%
▁datab
▁ventricular
-70
ofl
▁TA
▁glutathione
▁potentials
▁regulate
▁testicular
4).
▁confined
opres
▁6.0
▁suspensions
ranial
▁linkage
77
▁baro
▁pineal
▁unres
8.
▁prostate
flamm
rangement
▁(3
▁ureter
orsal
▁LHRH
▁50-
▁19
▁benzodiazepine
▁nicotine
osidase
/2
▁lipase
▁hypertension
letion
urea
▁infil
leb
▁51
tents
mol
▁ubiqu
▁venous
otropin
▁97
1.
ranged
pran
▁perc
mobil
▁undergo
▁endoscop
▁duoden
▁bactere
▁aqueous
▁Twelve
▁IU
▁108
▁susceptibility
▁21,
lastic
otting
/6
▁intensive
ortal
inflammatory
▁hypother
ecretory
▁promoters
oxide
atum
icardi
▁GMP
ocyte
▁multic
▁perinatal
▁fung
nthe
-4
roscopy
1,
-1-
▁normalization
.5%
ococcal
labeled
▁gastrin
▁choline
▁standardized
▁circumference
nRH
▁medullary
irub
▁transplant
angiotensin
▁4.8
renal
thre
▁weakly
▁ach
▁bladder
▁microbi
▁implants
othal
▁67
tact
▁typh
▁hypocal
▁cirrhosis
▁pooled
reast
clic
▁90-
▁VP
sych
▁PSA
amole
ostatic
▁fertility
vular
▁summ
atectomy
▁mediators
anin
▁0.9%
▁17,
10,
▁fibr
oidal
▁Chronic
spective
▁Reduction
▁inactiv
▁bloc
▁clonal
▁ranged
▁monotherapy
tioned
▁perfusate
▁glycol
iotensin
▁stimuli
▁30,
yclic
▁competent
▁labelling
▁bradykinin
gnetic
▁spectroscopy
▁plasmin
ilization
2.
▁idiopathic
10-
▁CAP
▁50
-3.
▁BALB
▁antibodies
▁Approximately
▁interleukin
▁stromal
▁previ
18,
thmatic
▁difficul
▁dysplasia
▁Lymph
▁splic
▁cardiopulmonary
tox
rophy
▁muscular
▁spikes
▁spike
▁amp
▁carbohyd
▁epidemi
▁cG
▁dopaminergic
▁mEq
▁(10(
ethylene
dimethyl
▁simult
▁GABA
▁chol
▁cloned
▁diastolic
▁Phen
▁relap
limb
14
▁residual
▁8.5
derly
▁0.1
▁Myc
▁malignancies
▁enhancer
ampl
eptides
▁conges
▁26
assium
▁sheath
▁virul
▁endoplasmic
▁pharmacokinetic
▁presumed
acet
▁limbs
feron
idic
▁pathophysiology
%),
omical
▁computerized
▁detec
anad
▁occurrence
ecal
4-
▁occlusive
▁apolipoprotein
▁contractions
0.5
▁valve
▁atheros
▁verapamil
▁amyloid
▁decreas
▁corticosteroid
▁[3
kelet
▁serological
▁squamous
onine
▁2-
-10
▁percutaneous
▁amphetamine
▁dermatitis
▁iso
-3
▁glycosylated
armac
▁neonatal
▁lamin
lix
▁inflamm
34
▁splen
▁genetically
▁medulla
▁ultrastructural
▁selectivity
▁immunofluores
▁numb
▁12-
vac
▁subun
▁outpatients
acylglycerol
IgM
▁ions
▁hypoxic
▁ulcers
▁spind
▁103
taining
zard
ffin
▁margins
minis
erin
otides
aryng
HDL
ginine
▁supplements
ophylline
▁tach
ullary
radi
▁testes
▁cyclooxygenase
iciently
▁coag
▁120
▁suggestive
▁1970
urgery
▁simplex
▁substitutions
ternational
▁selectively
9;
reactive
coh
▁cruc
ilic
▁fibrosis
▁specificity
▁4-
acrine
▁nitroglycerin
▁inges
▁implant
▁6.9
▁histamine
dine
▁neutroph
▁fluorescent
▁compares
▁schedules
acting
uccess
cents
▁0.18
▁gastro
▁114
)2
▁acet
▁plexus
▁TG
EG
▁cesarean
▁(1.2
CDD
▁cyclase
▁gyn
▁docum
▁irreversible
▁Diagn
ropha
▁acidic
▁34
▁ewes
▁HLA
▁retur
▁streptococcal
▁4%
elan
▁fibrob
▁adminis
geneic
▁basolateral
▁bipolar
▁inactivation
▁recons
▁galactose
▁capsule
▁qualitatively
▁successive
orubicin
▁morphologic
▁glycoprotein
▁terat
yclo
▁keratin
▁neurom
▁seropositive
▁enl
▁retardation
▁crystall
▁Infection
▁mediate
7%)
aminob
uridine
▁prostaglandins
▁criterion
benz
▁monophosphate
▁elongation
▁biop
▁testis
prandial
▁atenolol
echanical
▁bp
▁hypothalamic
▁porcine
thel
▁lutein
uctose
titis
▁luminal
▁PLP
lude
perature
glut
ospasm
ticular
▁eccentric
▁nucleotide
lyce
200
▁atropine
▁fluoro
tum
▁mumol
▁Hz
▁blockers
myc
▁(4
▁eluted
▁ischemia
erb
organic
▁Triton
▁lacks
▁embolism
brile
▁polyp
▁Cd
▁incubation
ocytic
▁transcripts
Glc
trac
▁glutamate
erents
▁constric
thym
▁affinity
▁nal
▁demonstrable
fos
▁adenocarcin
▁esophageal
▁modulate
▁thereafter
▁inversely
▁neurolep
ediatric
▁endothelium
▁depres
▁carc
▁encephalopathy
4%)
ophilic
ulatory
▁trac
apeu
ivation
▁PF
▁peri
▁sampl
▁Significantly
▁monol
▁osmotic
▁standardi
actin
▁chromatin
diabetic
▁manifested
gth
▁dopamine
▁DBP
▁erythematosus
tyl
▁demonstrating
▁gangl
▁discrimin
▁tran
▁stimulating
▁acros
▁lymphocytes
▁axonal
▁hepatoma
tent
MH
▁arrhythmia
keleton
▁fracture
▁subarachnoid
▁defic
▁dehydration
▁bronch
▁25,
▁scalp
▁hematologic
▁unexplained
▁subpopulations
inergic
▁diges
▁radiolabeled
▁cortex
▁correlates
▁preliminary
▁grouped
▁motif
▁contraction
▁retina
▁recombin
tizing
▁multiv
▁kinases
▁(4)
▁preceded
▁dosing
dihydroxy
▁Scale
▁phag
titution
▁intake
weighted
▁56%
▁implantation
▁cystic
▁distrib
▁bronchodil
dibular
▁stu
0.4
▁sple
▁saliv
▁alanine
▁nodules
▁effic
tissue
▁estimating
▁hippocamp
▁serine
rological
ventil
allium
2;
gm
hyp
rene
▁codon
odon
▁anesthetic
athe
tidine
4,
operox
anding
hypertensive
71
▁adenylate
▁proximal
▁1.1
▁disturbance
▁Haem
gression
▁predominant
hydropyridine
oresis
▁hypertrophy
rine
2318
▁luteal
▁10(-4)
ydig
▁hepat
sives
▁cyclic
▁(27
▁15
▁confir
orbent
echn
ophren
echan
▁buc
▁conjug
dle
▁arteri
▁0.0
▁pharmacological
▁Calc
5)
▁mRNA
▁sci
opus
▁100,
tural
▁inoculated
▁61%
eliac
hydroxy
▁precipit
▁(25
opa
▁addi
▁CEA
▁0.03
early
▁caffeine
▁phage
▁distinguishing
▁HS
▁cytology
gluc
▁coh
▁coval
▁Tyr
▁brady
▁leukocyte
▁vaginal
tetra
plast
affected
56
▁tyrosine
▁interstitial
ionate
▁87
▁embry
▁allo
went
▁myc
▁drainage
▁obstetric
▁postoperatively
▁contrac
▁schizophren
▁myelin
▁persis
omat
▁polyacrylamide
▁pneumonia
99
▁connec
itin
spectively
transformed
▁intermedi
▁discom
▁dosages
▁bolus
▁colonies
▁natri
▁pyr
▁adipocytes
▁flora
▁1983
eradish
▁practitioners
▁Leuk
▁penetration
▁TP
▁transmitted
rologic
onary
16
▁heavi
▁transcrip
▁predominantly
fused
illar
▁thromboxane
▁thresholds
▁hepatocellular
▁Hear
▁statistically
reactivity
▁LTB
▁cation
eak
iminary
▁contamination
▁hippocampus
▁Experiments
▁monit
prising
oconstric
deficient
▁propor
▁Eighty
retic
▁21%
▁anat
▁transaminase
▁elong
▁RIA
▁erythromycin
▁hyperplasia
tisol
▁retention
atosis
,000
▁allergen
▁chronically
sus
ods
▁strep
▁Ia
orated
.4
▁11
Rs
ygous
▁Statistical
▁antagonists
tonic
cine
tection
▁tubercul
▁3.4
▁solitary
▁stratif
sant
erge
initi
▁rheumatic
▁chromosomes
▁micron
▁coronary
▁ampicillin
▁selective
▁20.
▁Tran
▁postoperative
pinal
vitamin
▁enrol
▁hCG
▁3.1
rati
▁abnormally
▁95%
▁carcinoma
▁-0.
▁articular
▁hydroly
▁0.75
▁detecting
▁antigen
gment
▁rostr
▁Staphyloc
▁0.17
carb
▁Severe
▁commercially
▁experim
▁sarcoma
▁superoxide
▁adjuvant
▁diffic
▁Mg
▁adduc
▁pec
aemia
HF
opro
▁beha
▁resour
▁atypical
▁febrile
.1
assay
▁adhesion
▁0.01)
▁immuno
▁ppm
ergy
▁discontinued
yrid
ecu
IU
▁37%
▁nasal
▁3.
monella
immunoreactive
▁alcoholics
5,000
acterial
▁immunoblot
▁bic
-450
electric
▁herpes
atoid
tead
tia
▁irregular
▁Subjec
▁depr
▁antic
▁33
▁24
▁junction
ophageal
arate
▁immunosuppres
renaline
10)
enzyme
mediately
aterally
▁diminished
upus
▁longitudinal
▁isot
▁synapses
▁omega
erating
▁irradiated
1/
▁fasting
oprote
▁differen
▁77%
▁inh
▁hypothe
▁galact
▁mesenteric
▁nm
▁reductase
onvul
ported
▁(33
▁dendritic
▁50%
restric
nine
▁HCO
▁0.00
▁isolate
▁reper
▁induc
ucine
Tc
▁29
▁Exercise
trin
▁circulating
▁shortening
▁genotypes
▁unaffected
▁deterioration
▁ICU
▁Salmonella
▁electrolytes
▁synergistic
loro
▁exhibits
▁(95%
▁cerebrovascular
▁inhaled
▁overe
▁diagnoses
epam
▁27
itonin
▁duodenal
ronectin
.1%
▁dietary
▁capsules
▁fractions
ogenesis
yroid
▁5%
▁subjective
epti
umerous
▁ciprofloxacin
acyl
▁acin
▁gamma
▁albumin
▁deviations
▁spectro
▁differs
average
▁emphasized
▁1/2
▁clinicians
asal
embran
achn
idium
ovirus
▁CAD
acetyl
▁hybridization
adrenoceptors
▁embryos
ogens
odil
▁0.001),
▁hydrop
▁homology
unctions
▁oes
▁BW
▁glomer
▁ank
▁Ninety
enic
regn
-80
▁antid
▁Tum
▁98
anic
▁homologous
▁expiratory
traumatic
▁1:
▁neoplas
▁proton
▁7.0
▁antibody
▁peptide
▁Patients
▁usefulness
▁esophag
▁mutations
▁degradation
ronch
-0.
▁cytotoxic
NB
incubation
▁dosage
▁Evaluation
▁polym
entia
▁congestive
▁4.3
▁arginine
▁hamsters
▁perip
omiting
hydr
anavalin
oea
▁hypoth
▁centr
▁resonance
▁enlargement
gestin
amphetamine
▁electrocardi
tigu
▁entero
▁cytotox
osal
▁plateau
▁-2
▁quantit
▁empir
▁compartments
▁mono
▁variants
▁pathology
▁glucocortic
▁ischem
▁kappa
▁AFP
2%)
▁scientif
▁6.4
▁vacu
erebral
atient
▁lysosomal
FGF
tens
▁utilization
▁Nine
0.0
▁cros
▁carcinomas
▁crom
operated
0,
▁strom
▁follicular
▁inser
▁Serum
tory
iably
atell
▁hyperthyroidism
▁postsynaptic
▁muscul
ominant
▁endoc
▁pharmac
▁RS
▁exis
ycline
▁characteris
▁clot
amicin
▁20-
▁1,25
sibly
▁synthesize
brom
▁neutrop
▁cyclosporine
ysts
▁tracts
▁cytoplasmic
▁implanted
▁75%
▁silic
sess
feren
ocrine
▁5-
methyl
▁pathways
▁discontinu
▁extraction
cepti
ographs
▁electrolyte
▁96
peptide
▁ow
▁anion
tophan
▁GSH
utaneous
:3
▁peroxide
otropic
▁glut
▁cereb
83
itone
orin
rein
▁clones
▁replic
▁supernat
▁analgesia
ophils
rocyte
▁titers
helium
▁assessing
▁0.7
9)
▁produc
▁Epid
▁([
▁scin
▁interc
▁benzodiaz
▁moiety
▁averaging
▁constituted
menopausal
▁dexamethasone
cture
▁luteinizing
▁symptom
vated
▁prostatic
viral
▁sedation
atonin
▁170
ectin
▁(44
▁3.7
▁synthe
73
▁adenine
alc
▁24-
▁melan
▁Sodium
▁HBsAg
▁techniqu
▁tablets
kinase
▁basal
median
▁protocols
▁clonidine
▁electrophoretic
▁5
ofluores
▁arti
ensitization
▁morb
▁-5
▁creatine
▁(13
▁autosomal
▁fructose
▁69%
▁(45
▁58%
leuk
arial
▁cerebro
▁conception
ncy
▁lymphoma
oretically
▁intermediates
▁116
▁ambulatory
17
7),
Glu
▁96%
▁depolar
▁undergoing
angi
▁analysed
▁enalapril
▁repor
▁recombination
▁1.3
▁intrauterine
▁percentile
▁nitrogen
▁carcin
▁1500
▁euthyroid
▁loos
0.
▁dissociation
▁stimulates
lies
▁ascer
▁electromy
ographically
phadex
▁Intr
▁0.09
▁yr
▁immunocyt
▁250
▁influenza
quid
parathyroid
plemented
ectom
▁femoral
▁guanine
▁tracheal
▁arter
▁oocytes
54
acetate
▁spermatozoa
▁advan
▁5,
enal
▁trich
ealand
▁thyroid
iloride
depleted
▁provid
▁interrup
▁DP
▁150
▁lethal
omers
▁PCR
ocar
▁traum
estions
cis
ocor
trop
physiological
▁stepwise
essation
ogra
▁qualit
bred
8%
inamide
▁activator
▁qualitative
▁subgroups
▁expon
▁stimulation
vul
▁fibre
astom
▁labelled
▁tib
▁mesen
▁prol
▁acceptor
▁Ultras
▁synthetase
wes
tained
▁neoplastic
otri
▁Fourteen
arose
▁Increased
▁196
▁amo
▁14
▁biosynthesis
▁estrogen
sial
tro
ylic
▁exerted
-90
ADP
▁1)
▁tRNA
58
▁0.001
▁requi
▁polymer
▁mitral
lasts
▁mitochondr
induced
▁adenocarcinoma
gans
▁retinopathy
partate
▁Kd
▁microb
▁tetracycline
▁paroxys
▁helical
▁CN
▁fron
▁postin
▁impair
osome
▁shunt
▁catheters
▁Hyd
admill
urnal
thymidine
▁vege
arrhythmic
36
▁conductance
▁wt
▁neurons
▁airway
olone
ogenous
produc
▁myeloid
▁descending
▁lumbar
▁accid
▁199
▁uniformly
▁uptake
▁attenuated
▁pene
▁sodium
▁Consequently
▁FSH
8%)
▁astro
▁Initi
▁pediatric
▁ventil
▁voluntary
▁chemotherapy
adone
▁diarrh
▁transplantation
olesterolemia
▁dete
▁swit
▁0.10
▁0.05),
icin
uric
roscopic
▁implicated
▁inhibit
venous
▁Fifty
cious
▁dialysis
globulin
etoprotein
▁abdominal
▁plasm
▁6.6
▁(22
▁coordination
▁biliary
ypro
apid
▁protease
puts
▁160
0.8
▁hypot
-23
90
▁31
▁Effec
▁selen
▁diame
onography
▁PKC
etitive
▁40%
▁60
phosphor
▁neutropenia
▁manipulation
▁chlorpromazine
▁revascular
wenty
▁adherence
▁exert
▁dorsal
urons
tial
▁anaesthe
▁Estim
▁lar
▁Bacter
▁5)
hion
▁metabolism
76
sions
▁Eleven
thyl
arginine
▁11-
▁aneurys
omatous
keto
kephal
jec
3/
▁disapp
▁histologic
▁aspirin
oA
▁encoun
▁moderately
▁acidosis
roximately
400
▁3'-
luent
▁RBC
▁dyst
▁40.
oside
▁multicenter
enol
aminidase
▁apprec
iferative
opolysaccharide
▁2.9
▁71%
▁sham
▁epinephrine
▁Electron
▁monke
tradiol
▁LV
▁envelop
alanine
▁tonic
▁edema
▁63
▁centrifugation
▁synaptic
▁reacted
asic
cys
▁striatum
▁anae
ermal
producing
▁inhibiting
floxacin
▁1000
▁somatostatin
▁airways
▁discriminate
▁Comparison
▁mitochondrial
0%
▁malignancy
▁displacement
▁(1.0
▁hematoma
▁incorporation
phosphon
-25
Leu
nai
flammatory
▁verte
▁5.
▁astrocy
entan
athetic
▁resistant
ocompatibility
▁thrombus
thmic
▁neutrophil
▁dendri
phrag
▁127
▁proteinuria
▁ae
0,000
▁influenz
entical
▁physiology
atories
▁hepar
ocaine
▁validity
essive
3;
▁preoperative
▁metoprolol
0)
▁hepatitis
lytic
otrexate
atest
articular
▁gland
▁gynec
▁microscop
41
▁deficits
▁24,
▁sigma
ATP
plasty
▁immunode
▁abnormal
▁fulf
▁lithium
ylline
▁orally
▁peroxidase
▁regimens
▁7.
▁pathologic
▁retrospective
▁atrial
ociation
▁defects
▁terminus
-50
▁reflux
diastolic
tility
▁Inte
▁0.5,
Bs
abain
phosphamide
triglycerid
uretic
activated
▁adjus
▁recurrences
▁Investig
cortisone
kele
▁4.5
thrombin
4.
▁hypercal
▁11.5
▁78%
orbol
-2
▁nifedipine
bility
otyp
▁specificities
▁surveyed
▁substantia
▁corticosteroids
▁anatomic
idespread
apeutic
▁1.5
operative
▁pancreatic
iatum
gative
▁hypothyroid
ylamide
▁supine
▁37
▁marginally
▁hygiene
.9%
▁3)
▁lymph
ignificant
3,
▁68%
kephalin
-6
atinine
cAMP
▁mice
▁reproductive
▁compartment
iary
▁(47
ropo
/7
▁enlarged
tability
▁unex
▁10%
▁52%
▁5.6
▁methodology
▁Myocardial
▁spectroscop
▁8-
acchar
▁1%
aric
▁erg
inoc
▁commerc
ontal
▁0.9
maximal
▁heterogeneous
21
acin
▁validated
▁chloride
▁PEG
▁metast
▁undergone
▁neuron
▁Inhibition
▁pressures
37
▁60-
▁1-2
▁mening
generation
▁endoscopy
partum
▁conditioning
▁confirms
▁exhibiting
olated
▁epidural
opathic
phil
releasing
▁distin
▁thems
▁decarboxylase
▁chloro
imin
▁glucocorticoids
▁axons
▁reflex
▁differentiated
7.
▁secretory
▁efficac
ymp
uginosa
▁ATP
▁cysteine
▁augmentation
▁heterogeneity
▁equivalents
lob
'-
▁illnesses
▁apo
ylephrine
▁lys
▁isoelectric
▁phorbol
-17
▁adhesive
▁anesthetized
▁(75
▁influx
ATPase
▁CMV
▁possi
▁tended
▁undetectable
.5
▁interf
▁agonist
▁NK
bearing
▁tolerated
CSF
linking
▁regulated
▁800
▁oligonucle
orrhea
▁uterus
59
▁regar
2+-
uclear
itoneal
▁clinically
▁ferritin
ellar
ffec
idin
▁bacteremia
sive
yste
▁occl
▁cholest
ocyt
▁graft
▁immobil
▁chromosomal
osynthe
▁catheter
▁toxin
▁inhibits
tension
▁intrav
▁tiss
▁55
▁ACTH
▁kidne
▁adenomas
▁manifestations
▁anastom
▁microgram
▁chamb
▁regurg
-5)
aminergic
ilized
▁adrenergic
2)
42
▁serotonergic
tention
▁5.7
▁14-
▁ascorbic
0.1
▁lectin
▁questionnaire
teine
▁inward
idine
6%
▁fla
▁gonadotrophin
▁cumulative
▁precur
ilibr
▁localized
anav
▁scans
aginal
epine
aryotic
▁54
romy
▁withdrawn
nitro
▁phosphate
▁tubular
phosph
opi
veness
▁cervical
▁receptive
▁Cyt
86
.2%
▁62
▁diazepam
▁Few
▁1.
▁17
▁illus
ecan
▁500
▁cran
▁tumors
ylated
itro
isol
▁gradients
zation
▁lateral
trypsin
▁incomp
▁metastases
ardia
▁papillary
▁probes
▁therapeutic
19
▁fibrinogen
▁EB
rates
▁IgM
8+
oxazole
arrh
▁Alzheimer
▁epididym
▁nutritional
esium
imeth
▁addic
▁avail
resting
aneously
▁10(-8)
▁scinti
▁cigaret
etent
sia
ostasis
▁+/-
lated
▁assays
▁-6
idate
-1),
▁angiotensin
urane
thyroid
ilateral
▁cytoch
elic
▁18%
uscular
administration
▁malignant
38
▁compounds
itic
otoxin
enia
mokers
▁53
▁chec
pendent
▁ganglia
▁retin
▁23
▁confirming
▁membran
▁corne
▁Taken
▁dib
▁(2)
1%
▁3.2
▁deletions
oscop
▁chloramphenicol
▁adrenal
▁epidemiological
▁tamoxifen
sian
pressing
▁modality
oplasty
tential
▁immunos
arbonate
▁Km
▁immunoprec
▁alleles
▁sarcoplasmic
/10
▁sti
▁cathe
gene
▁0.
▁Seventy
▁forearm
conver
okinetic
glycerol
▁reductions
Cs
▁tumour
ubs
▁90
▁esterase
▁carbachol
aturation
▁Evidence
Mg
tium
▁2.5
▁sut
▁substrates
▁10-
tosis
icillin
▁2.5-
overed
oate
▁contral
▁interv
▁carboxyl
rospinal
1).
▁Gluc
odies
turally
▁.00
urther
▁lysine
▁micros
▁ile
▁myocytes
▁pneum
etine
▁nonpregnant
▁resul
diabe
▁antigenic
amol
otor
▁promin
rophic
▁aureus
▁causal
lox
66
▁(0.5
RH
-4-
▁ventral
▁allele
▁antero
▁(197
▁IgG
respective
rected
▁spleen
▁graded
▁phe
▁nitro
▁meningitis
illi
thmia
▁elastic
▁isoforms
▁cortical
▁2.6
▁identifiable
otrop
andard
▁adrenaline
strain
▁400
▁benzo
▁granule
oratory
▁chromatography
▁deple
▁sinus
▁glycerol
ayed
▁monitored
ompan
▁2.
iotic
▁phy
▁microns
▁homogene
▁aden
unctional
▁libr
▁excitatory
▁(17
tron
otre
receptor
▁glutamic
orepinephrine
▁vascular
▁56
inesterase
▁mutant
▁2.4
▁-3
OA
▁Thy
▁79
▁inconsistent
▁glucose
ociated
▁postulated
erad
mentation
▁stimul
▁76
▁lactation
▁septal
farction
▁staging
▁81%
semin
▁alkyl
120
▁corresponded
natal
▁increments
▁PCO
▁specimens
▁mononuclear
▁pyro
utaneously
▁steroid
▁macrom
▁endogenous
▁fluctu
SAID
▁abnormality
pain
▁HDL
tagland
apanese
opo
▁uterine
▁CI
74
▁binds
▁residue
▁spermatozo
▁LM
▁sarc
▁10(-5)
▁cultured
▁depolarization
emia
modulin
▁glyc
cardi
▁subcutaneous
▁biphasic
▁esters
▁agonists
nec
orpor
▁gastric
▁EDTA
▁screened
▁1,
amethasone
▁(26
rague
▁neoplasm
▁prazosin
▁1-
effec
▁immunobl
▁macrophages
▁splenic
▁vasodil
▁socio
▁cortisol
tations
▁20,
lux
22
▁infertility
▁nocturnal
▁amniotic
▁ESR
▁transcription
▁phosphatase
vian
elec
▁incidence
reduced
tality
▁algor
▁somatic
▁5.5
blockers
▁evol
▁births
▁degen
▁atherosclerotic
▁livers
▁mV
▁6,
utable
▁anesthesia
▁(32
2+,
▁epitope
▁stimulus
▁plaques
▁ultrasonography
▁citrate
50
sible
▁opi
▁RR
▁islet
▁hemisp
▁unde
▁comprising
▁adjustment
▁tachycardia
▁(39
▁antibiotics
▁pK
▁myof
▁allergens
▁extracellular
ositol
▁deterior
▁Calcium
containing
▁antimicrobial
trition
▁determinants
▁activating
▁duct
▁5.2
▁pharmacokine
▁serologic
treated
▁clinics
00
1/2
▁isolates
ervical
▁scanning
motic
▁83%
▁actu
▁mRNAs
▁cessation
▁AH
▁polyethylene
▁autoimmune
▁3.5
-3)
▁precursor
omal
▁9
▁tendon
▁tol
▁8.0
▁4.0
▁similarity
▁placenta
▁Lym
▁-10
tinguish
▁plex
▁NGF
▁diffus
olecular
▁competi
olol
▁muta
▁combin
▁14,
tene
toc
▁Pseudomonas
▁intestinal
▁diabe
PSP
▁leukemic
▁fetus
▁gp
▁pregnancies
odgkin
▁Fc
taken
hers
▁18
▁70%
Hb
▁8
affec
icine
▁reproduc
▁myocardial
▁Differen
▁upstream
zyme
▁elicited
resistant
▁stained
▁91
obarbital
▁reversed
astolic
4/
▁islets
tative
▁desm
▁aspiration
▁unresponsive
18
▁amph
▁yielded
▁nmol
-36
▁exponential
▁metabolite
▁1.25
5,
seud
▁epiderm
lipid
▁oligonucleotide
rents
▁diaz
▁calf
▁catheterization
▁PAF
▁metabolites
44
▁125
▁regulating
▁ligation
▁phosphatid
▁jaund
▁38%
▁torsion
▁Binding
▁stenosis
▁simultaneous
▁rectal
▁olig
▁VIP
▁fertil
tition
amino
ipit
▁innerv
▁eosin
▁58
/100
▁heterologous
dehyde
▁mitochondria
▁sulfate
53
amyl
eroxide
▁homogeneous
▁13
▁microorganisms
▁corticos
▁fluorescence
5.
▁doubled
truction
posure
▁cys
aturity
▁cations
▁assis
▁mutagen
tral
oic
robic
▁rhy
salt
▁devi
▁weighed
▁mellitus
retin
erox
ositi
▁isoform
▁CTL
▁caudal
▁oxid
▁rati
▁quin
▁sequential
▁atri
▁220
▁granulocyte
otone
▁proportions
▁dissection
▁spermat
▁cytoplasm
rocy
▁gly
ifferentiated
tions
▁renal
▁1.7
▁75
▁48%
olism
▁colitis
300
▁messen
64
vices
ocomp
▁helix
▁fati
▁100%
▁pyl
▁pyruvate
▁fibers
▁osteoporosis
▁0.02
▁72
▁glutamine
PV
adequ
▁EF
▁89%
▁Streptococcus
▁adversely
▁hetero
▁parasite
glyc
▁cate
▁Chan
▁14%
phor
mega
urrent
6),
▁(70
eric
▁ana
rolase
▁correlated
ygen
▁kidneys
blind
accharides
rays
▁dehyd
▁cleavage
obacter
▁dye
bular
embrane
rever
▁sugars
▁establ
trib
▁0.23
▁hormone
▁endometrium
▁membranes
▁motone
▁3
SDS
▁immunity
▁replication
ulph
▁sulphate
▁testosterone
▁detectable
uppres
▁positively
▁antioxid
▁64
▁tox
ximide
azepam
▁amn
▁(500
▁168
▁purified
tened
▁endothelial
uble
▁1.4
dose
▁neurotrans
exis
IDDM
▁neonates
adm
▁mediated
▁alk
▁99%
▁EBV
▁vasopressin
▁(1.4
▁motility
chlor
▁0.01),
▁prolonged
CoA
▁surgeons
oride
oxygen
eptide
molecular
▁cohort
lood
▁Subsequent
▁sampled
▁obser
▁kb
-0
▁(1)
oxane
▁defective
▁preexisting
adren
ometh
▁adi
apsulated
51
onazole
4;
▁glycoproteins
yro
▁minus
▁injected
57
▁microv
ducing
▁0.3
▁LN
(2+)-
responding
▁progressed
▁coagulation
▁6)
▁analogs
▁resemb
▁47
▁conserved
▁antidepressant
▁agar
▁titration
▁HPLC
ACh
tak
▁quantitatively
▁(40
aund
▁fibros
40
▁pleural
12
▁mM
▁jejun
▁multivariate
▁pulsed
▁4).
▁bacteri
eptic
Gs
entricular
▁polyc
▁amiloride
▁0.1%
▁psychosocial
▁parame
▁ascites
▁intolerance
otin
▁exhaus
0.7
▁dismut
grees
thood
▁intracranial
▁persist
▁potenti
▁1/
▁neurop
oventricular
▁autoantibodies
▁unil
onate
▁genotype
▁intraper
▁22%
48
ANP
▁exacerb
HIV
▁granulosa
uled
▁Escherichia
▁proliferative
▁sphinc
▁canine
▁vesicles
▁Thir
▁lidocaine
▁adequately
▁endoscopic
▁athe
▁biopsies
▁ery
▁0.8
▁synthesis
▁4.1
▁(19
▁bronchitis
▁eryth
▁Insulin
▁isop
fluoro
▁somat
▁phospholipid
▁kine
▁platelet
▁frac
▁cerebellar
▁particulate
▁physiological
▁TI
▁methotrexate
ologic
▁paradox
▁polymorph
▁anticoagulant
▁autop
cellulose
▁ipsilateral
glycer
▁thyroxine
▁allogra
▁57%
▁oxygenation
▁Subsequently
jun
erate
▁Hg
▁rhin
itrate
▁vertebr
▁8.6
31
gia
▁attemp
selec
▁indus
▁follicle
▁incontinence
▁hep
aind
ithm
▁postural
▁superf
▁extrap
▁Fib
oprost
▁85%
▁nucleus
▁OA
opathological
▁mitotic
▁Stu
hospital
▁suppressed
mented
▁endometr
tin
▁mutation
▁paralleled
▁NMDA
▁insensitive
eptidase
▁hippocampal
▁recurrence
▁apnea
bac
▁rabb
▁(5
▁diuretic
▁phosph
▁triglyceride
scop
inephrine
orec
▁cholinergic
▁structurally
tif
▁preven
▁cyclo
▁receptors
-2-
▁Surgical
▁AMP
▁dermal
tized
phosphatid
smokers
▁tetrac
▁TSH
▁GV
97
▁phenotype
▁substitu
▁.0
▁subtypes
▁shif
▁concom
0%).
▁mobilization
▁investigators
▁spre
romycin
▁adolescents
kinin
▁SEM
mend
▁thymidine
phthal
-65
▁suture
▁follicles
▁rejection
▁RNA
chicine
▁Oral
Gly
▁tubules
cysteine
▁hypertro
▁hypothyroidism
tional
comitant
▁facilit
▁potentiation
▁123
idazole
siveness
▁sensi
▁36
▁carbohydrates
3).
29
450
▁complications
▁136
▁VO
000.
osides
▁projections
▁pyram
▁ELISA
8-
lamp
yroxine
micro
▁nec
▁serotypes
trating
tion
molec
▁pulmonary
eal
▁reproducible
6%)
.3
▁irrever
atrial
▁microscope
▁rabbit
▁ANF
olysis
agic
abies
olus
▁Fifteen
▁1.9
▁AIDS
▁nude
▁stric
▁putative
▁7.7
▁78
▁2)
▁phenylephrine
sibility
▁stimulate
▁dodecyl
▁97%
phragm
ventilation
tivation
