▁antigen
▁rhy
▁proce
▁oes
ticular
radi
monary
amus
▁oxide
▁hydroly
▁diagnoses
▁microgram
▁complexes
▁longitudinal
osts
▁cyclosporine
▁monit
▁decreasing
▁subgroup
▁umb
▁glut
▁pigs
receptor
gesterone
▁reactivity
ophren
tive
▁infec
▁hypertensive
tif
crip
▁allergic
▁34
ochemical
osin
▁reagents
iotensin
▁intake
illus
▁recombin
▁corneal
▁vesic
quid
▁Pretreatment
▁impair
▁dehydrogenase
keletal
▁morphology
▁metabolism
▁deli
▁CMV
▁unex
▁Comparison
▁elimination
▁purified
▁mmHg
▁3)
▁inten
▁polyp
▁concom
79
tivity
▁endogenous
▁25
mental
.5
hyp
▁foc
▁psychiatric
nec
hydroxy
▁reflec
▁congenital
▁ulcer
▁methyl
+,
▁intram
▁exchan
▁4,
▁bronchial
▁synov
elec
2+
aryn
erb
uscular
▁efficacy
▁isolates
▁selec
atine
aemic
▁carriers
▁characterize
ylate
MN
-6
▁transcrip
▁malignant
▁TGF
certain
▁Hyp
▁IFN
▁ischem
▁undergone
▁occlusion
▁prenatal
▁resec
derived
▁subtype
▁VO
▁indi
▁melan
▁sequential
adequ
otox
▁undergoing
▁sulfate
tisol
▁studi
▁clus
▁7.
▁LC
▁intra
▁37
ocular
ulatory
▁dilated
▁inoc
▁multivariate
▁requi
▁indicative
▁manifestations
▁alk
▁deficiency
roximately
▁staining
enic
▁rabb
▁adenocarcinoma
▁homogeneous
-9
▁5-
▁ischemic
▁neutroph
lier
bic
dial
▁mumol
▁TG
rosis
▁zinc
▁morb
▁graf
▁blot
▁tas
▁prel
▁suppression
▁lymphocytes
▁microscopy
▁discus
▁prostate
▁possi
▁attrib
tabol
▁melanoma
▁regimen
hyd
▁retrospective
▁reflex
▁sympathetic
▁kDa
oxic
asal
▁cephal
▁microv
▁demonstrating
▁500
▁1.
▁doses
oracic
▁exer
▁30
tional
▁31
▁homogeneity
ocamp
▁predicting
▁complication
▁modulate
omotor
.9
▁0.2
▁hemodynamics
▁vaccin
▁compli
▁premature
iliac
-8
▁Tran
aturation
▁behavioral
▁ablation
oglobulin
▁neonatal
▁imaging
onyl
▁venti
▁substances
ctive
▁cis
ropriate
▁insufficiency
oglobin
▁stimulation
avage
▁MRI
toc
▁contraction
▁aneurysm
▁atten
▁tran
▁markers
▁clon
stimulated
▁myel
▁atherosclerosis
▁cutaneous
urther
trition
▁clones
atient
cious
▁irradi
▁anomal
▁erg
zyme
▁lumbar
ximal
▁reperfusion
▁perox
▁quantitative
luent
▁cytochrome
▁inhibition
▁coronary
ints
▁biopsy
1).
iasis
ycin
▁mucosa
57
▁inflammation
▁90
▁esophageal
▁acids
▁fixation
taken
▁physiological
oscop
tized
terminal
erance
rectomy
▁leukocyte
▁chec
ilical
▁10(
▁undertaken
▁hypertro
▁immature
▁propor
▁microM
▁PCR
▁saliv
▁kerat
▁ventilatory
▁summ
▁monitored
▁rabbits
▁initiation
▁tyrosine
▁decreas
▁vivo
▁pyram
rents
ylase
tical
sia
ffec
orepinephrine
▁heparin
▁amyloid
▁ovari
▁unrelated
▁serum
intestinal
atid
▁agonist
▁epithelium
▁perme
eric
▁subc
odil
▁adap
▁distrib
▁chromat
rogenic
▁substituted
tance
▁intravenous
▁(9
▁cardiac
▁Acute
transferase
opausal
entral
▁peri
▁mutants
▁criter
▁enhancing
▁Intra
▁muc
tration
▁eluc
▁skeletal
▁hormonal
▁coli
▁phenotype
▁50
fected
ceptive
tic
▁thoracic
▁pharmacological
▁herpes
▁2.5
▁irradiation
tig
▁rabbit
ariate
▁adequ
▁comparisons
▁influenza
▁overlapping
tagland
tric
▁PGE
▁cyclic
▁recor
tion
▁incubation
▁pyramidal
▁intrav
▁mellitus
▁porcine
/2
▁iso
▁examin
▁metabol
adrenoceptor
▁viral
stim
▁traum
gative
▁lith
▁39
antial
▁thym
▁sero
▁ach
0%)
▁compartment
▁contamin
6.
▁100
-14
▁canc
amide
lated
clin
/1
▁provid
▁chloride
▁potenti
▁implicated
aptic
.8
eared
alian
▁eosin
ocytic
▁enl
▁regar
esity
▁locus
▁cardiovascular
▁(0.
▁opioid
▁pneumon
▁umbilical
▁Ig
▁mice
helin
000
tained
▁chan
▁dysfunction
▁ane
%).
▁memb
▁chloro
▁tox
▁hormones
hern
.0
▁defic
▁dehyd
▁follic
▁metabolites
▁contralateral
rehen
ffin
pinephrine
odium
▁uncom
otrop
▁polymorphism
pH
▁38
urys
tially
occal
▁fractions
seud
▁chond
▁placebo
▁(10
▁ana
▁thyroid
ociation
▁variability
idine
▁aden
▁prospectively
▁mucosal
▁chor
▁ovarian
▁inhibitors
din
utions
wenty
▁mM
▁leakage
▁tiss
▁vitro
▁subun
▁assessing
▁repres
▁conjug
uted
tures
0-
ontal
▁symptom
▁gastric
▁rats
▁basal
tility
▁enzym
▁(1
ropha
▁perin
estig
▁hazard
▁acet
▁reagent
▁synovial
onium
▁regimens
ohyd
9)
.1
▁0
▁granul
positive
▁bip
illary
▁secretory
vascular
▁0.3
▁cyst
▁responsiveness
▁organisms
1)
▁turnover
▁biopsies
▁TSH
▁contributes
▁sacr
▁cortic
scher
fos
▁(3)
▁embry
▁displacement
▁autoimmune
generation
.8%
▁strom
oscopy
53
▁echocardi
ophag
tation
thma
▁inh
▁stimulus
▁sensi
(+)-
ocardi
▁consecu
▁maternal
▁supplementation
▁simult
▁subunits
▁GABA
▁immunos
mL
▁2)
▁fractures
▁operative
▁bloc
▁metastases
15
▁pathogenesis
bumin
▁isch
▁bypass
taining
▁theore
▁pulmonary
sial
osomes
▁2.
▁abolished
%),
clo
▁fetal
▁hippocamp
▁20
▁intest
3)
▁ECG
,000
nthe
25
▁steroid
lastic
estions
▁antagonists
▁relapse
▁pyr
gia
ituitary
menopausal
▁implant
▁fibrin
eptides
▁physicians
tus
▁encoun
▁ultras
▁fetus
▁metastasis
estis
hep
▁regression
▁differenti
▁concentrations
ographically
5.
▁renal
luores
opha
▁stu
TNF
▁tris
▁hypoth
▁elevated
▁underg
▁morphologic
▁NH
▁injur
0%
▁increas
▁connec
pendent
idation
▁micrograms
▁pH
tensive
▁chemotherapy
▁sti
6%
▁agonists
▁Escherichia
▁rati
'-
imin
orpor
▁ACE
▁FSH
▁chemotactic
ocytes
▁nec
4-
▁moderately
tub
▁1.0
▁benign
etal
▁cocaine
osal
2,
▁32
tured
▁posi
olol
athyroid
▁scin
osine
▁33
astom
Phe
▁thromb
lycer
FU
▁cardiomy
▁hypox
▁scans
heal
roxim
▁underst
▁affec
▁hemodynamic
glut
▁uptake
▁benz
icin
▁femoral
▁nal
▁numb
athy
▁unclear
▁cann
6)
oplasty
▁elevation
▁sepsis
olytic
▁experim
amate
▁normo
▁disapp
▁testicular
▁angiography
▁preservation
▁radiotherapy
▁1.5
8,
atonin
oplastic
opo
▁swelling
▁transfusion
34
▁predictive
ellar
▁occupational
ethyl
phen
▁investigations
▁150
osynthe
▁sph
▁surgical
▁detectable
10
▁hetero
▁36
iatric
▁malign
▁reversed
22
▁selectively
▁alteration
▁thresholds
BV
oride
▁pretreatment
▁subunit
▁questionnai
▁2-
▁0.001)
75
▁auditory
ygen
▁testosterone
▁polypeptide
rene
▁hepatocytes
▁antibiotic
▁mitral
rophy
vents
oradi
▁gland
▁scanning
▁membranes
▁prospective
MV
▁airway
2+]
onucle
-2
▁pla
19
sive
▁extracellular
▁HSV
▁valve
ophil
▁epiderm
▁marrow
▁40%
▁hepatic
▁Hg
▁relap
▁acqui
entif
▁infants
▁ester
EGF
23
▁antagonist
minal
▁facilit
ithi
▁0.5
▁tumour
▁tach
protein
▁spati
▁pyl
loid
apeutic
▁histologic
▁onc
eded
armac
▁rectal
▁mitochondr
orption
▁strains
▁bilateral
▁mediated
venous
▁examinations
▁superficial
▁8-
▁infil
arate
27
▁uter
4,
▁ae
roph
resting
assi
mide
▁spleen
▁dexamethasone
▁1.7
▁LV
▁detec
▁kidney
▁pathways
▁Cyt
▁testis
1),
othelial
ighted
▁metastatic
ogens
▁vagal
acted
▁amo
▁correlations
▁plasmid
▁shor
▁monke
▁therapeutic
▁regulate
▁24
ologic
-10
tial
▁accumulation
▁reproducible
osome
ondr
uble
9,
▁Increas
▁induction
▁complications
operatively
▁nucleus
48
9%
▁60
▁excision
▁diabe
▁markedly
▁vitamin
▁latency
▁statistically
▁cate
▁amp
▁contex
▁parental
olarization
▁retur
▁sarc
▁compart
▁cohort
truc
▁synthesis
▁polymer
cardi
accharide
▁oxy
▁0.0
▁BP
▁57
▁16
▁4.
▁dendri
▁0.4
henyl
▁cardi
urgical
▁symp
OH
▁adop
▁hybridization
4.
trum
▁infiltration
▁0.8
▁gastro
▁nutritional
▁collec
▁cytotox
▁physici
ochondr
▁albumin
otoxin
▁diabetic
inemia
▁acidosis
gluc
orectal
labeled
fusion
▁actin
▁prol
▁prophyl
▁hepar
NH
▁0.7
▁diffic
▁promo
▁thir
entan
▁intrac
dia
odal
lys
ergic
derly
entical
▁RNA
65
▁pelvic
▁mitochondria
lix
▁mRNA
fec
▁pneumonia
▁Chan
erative
assay
▁endot
sych
▁23
▁vesicles
▁HPV
▁repro
▁15
▁cardiomyopathy
▁obesity
▁angi
.7
▁Significant
tin
spective
ochem
stolic
8.
leu
▁tib
▁antiser
▁apo
otomy
-3
trac
itic
tors
▁thrombo
▁neurological
tens
▁ventilation
▁synthe
▁anticoag
▁coh
▁elec
tral
▁17
▁gangl
veness
kele
▁5.
lyce
▁assis
▁molec
▁prostagland
DNA
occi
vation
HB
ogenesis
crimin
▁bir
▁dorsal
▁PB
▁dietary
▁placenta
▁infarction
siological
▁adherence
▁exten
immune
mediately
▁recurrence
▁discon
▁receptor
2%
▁48
occus
▁attenu
ropine
60
▁nitro
▁segmental
▁pancreatitis
▁discharge
▁membran
tality
ivation
ergency
▁platelet
emia
▁adenosine
amino
chol
ocar
▁oste
▁inhibitor
▁hCG
▁labeling
RNA
▁homogene
▁dete
▁prognostic
epti
▁tryp
▁protoc
ylchol
▁0.01)
▁compartments
▁substrates
ionic
▁nasal
siveness
▁colorectal
▁RBC
▁substitution
▁IgG
▁Plasma
▁MV
▁peptide
▁usefulness
▁0.
▁alterations
▁Taken
inic
▁defec
▁scre
▁respec
▁3-
▁neuronal
▁remission
.6
trogen
▁bronch
essel
athetic
13
4%
▁cataly
▁incub
▁guinea
▁edema
▁nonc
▁preparations
aturated
▁septum
plas
▁confir
▁allo
▁heterogeneous
▁lumb
▁dex
▁venous
▁reticul
11
▁biop
athe
igaret
▁susceptibility
reast
▁cyt
▁fas
uncture
▁deprivation
▁sulf
helial
ociated
geal
aryngeal
ectom
▁membrane
▁quanti
▁retic
▁adminis
oresis
▁unchanged
▁toge
▁GFR
▁elimin
▁identif
▁specificity
gic
▁substitu
▁4
-2-
▁latent
▁urine
imens
phal
▁0.000
ilization
▁measurable
▁phosphorylation
▁neurons
▁atrial
▁demonstrates
▁polym
▁neurop
tiv
▁14
80
regulated
▁neph
▁RP
▁restric
▁incidence
affec
▁cytotoxic
oprotein
▁metabolic
▁onset
▁MHC
▁oxidation
▁HLA
helium
▁amyl
▁donor
▁atrophy
otropic
lycerol
minis
▁seizures
▁Increased
▁lys
atoid
-1.
tabl
titu
▁underwent
▁electroph
otide
ectin
▁10%
▁recons
ovine
▁respiratory
esti
oclonal
▁5
anol
-7
versity
astric
spectively
▁lesion
▁sodium
TG
▁pediatric
▁macrophage
▁reag
▁microscop
▁ultrasound
▁consis
▁equilibr
▁endothelial
lysis
▁10.
▁promoter
▁IU
odies
▁fracture
bacco
▁silic
ximum
▁opi
▁estrogen
ocardial
duction
▁creatine
▁periodontal
onc
▁macropha
-1,
▁3
asone
▁abnormal
ronch
jug
containing
rine
▁sten
▁(2)
6-
unctions
▁multic
sion
▁26
▁perc
▁eryth
▁occurrence
▁comparative
entanyl
▁PCO
▁pate
ilibr
▁ligand
▁statis
▁diminished
▁putative
▁fibrob
▁sple
▁85
▁peripheral
ilic
ritis
▁reduc
▁adhe
▁evid
▁calcium
▁cyclo
▁cDNA
erent
▁IGF
▁(5
yro
▁arteries
omized
pecially
osterone
▁hypothal
tum
prising
oglyc
▁125
alact
▁79
▁hydrolysis
atients
▁rheumatoid
echn
▁screened
ginine
▁gon
▁75
▁2
▁nig
▁Asp
▁excre
▁inflammatory
1%
▁8
ameth
▁cytoplasmic
▁Mg
▁precur
▁35
controlled
▁ultim
yel
▁ranged
▁vascular
▁cys
▁throm
bly
tec
▁limb
▁predominantly
▁simultaneous
▁antibody
▁resul
▁histamine
gth
▁satur
▁circulating
▁immunode
ATPase
▁cyto
▁pressures
ectomy
▁synthesized
▁adenomas
▁Clinical
▁lipoprotein
▁8.
▁diastolic
▁mell
ignific
▁EGF
otassium
▁preoperative
▁inver
▁intracellular
orbol
▁mono
▁compounds
▁LDL
phyl
tis
phic
adrenergic
▁reactive
▁administered
▁quantit
▁saturated
lusion
▁hypot
▁localized
▁retin
▁10
▁asthma
ATP
▁cerv
▁pati
vice
▁anastom
▁abnormalities
rophob
▁stimuli
went
ynthe
▁molecules
▁confined
hydro
▁immun
▁pancre
asic
-4
▁cumulative
ayed
produc
renal
▁thi
3%
▁amino
▁TA
▁3.
▁nodules
▁myocardial
▁axons
omat
▁progesterone
DH
▁predominant
acetyl
ialysis
▁Neu
sess
terol
alc
tiz
▁invasive
▁excretion
onomic
▁synaptic
▁fibres
▁verte
▁0.1
▁preven
▁affinity
pecific
▁bovine
▁injected
ellular
▁neon
▁adren
▁vein
ophilic
▁anemia
adiol
▁leukemia
▁follicle
▁extre
▁transplantation
▁urinary
▁molar
▁inflamm
▁panc
atment
bility
.2%
atitis
hea
14
oag
ensory
agic
▁paralle
eptide
56
▁arth
▁PV
▁secretion
▁(198
▁filtration
▁tolerated
▁Hb
▁differen
▁mann
▁differe
▁arterial
▁cortex
▁cerebral
adic
▁combin
▁prolonged
▁resistant
▁clearance
methyl
▁CI
▁dissociation
monstr
▁perip
usp
otyp
▁nuclei
▁overe
▁Patients
▁trig
▁carcin
▁effec
▁physiologic
▁DF
▁lateral
urea
▁ket
▁Immun
▁concomitant
▁phosph
▁hypertension
▁TC
atif
▁chol
▁impairment
▁dopamine
coh
▁substantially
▁sexes
cessive
▁.0
▁schiz
ejun
erating
▁dele
atase
▁hipp
yroid
▁HC
tox
▁intraven
terone
xia
▁intestinal
▁70
entricular
iminary
▁artery
pir
lasts
ocl
▁phosphor
▁insulin
▁7%
▁somatostatin
▁differentiate
▁0.05
tensin
7.
▁potent
▁alcoh
ministration
▁avail
orrh
35
olysis
mented
viron
ensi
▁mV
kely
▁fatigue
▁cigaret
▁recurrent
▁aerobic
ograms
lip
tions
▁deterior
gland
echan
▁ratios
12
oidal
oprote
tro
Hg
▁stenosis
ocaine
▁prognosis
tics
cepti
apeu
tero
▁Afric
omal
▁conclu
▁tumors
▁olig
aneously
▁agon
▁22
▁enzyme
oplasm
4).
tically
▁inser
▁lar
iol
44
▁sinus
8%
▁depres
▁29
▁abnormality
2).
▁11
▁(4
29
▁seroton
uting
tingu
mol
▁mutations
▁retention
planted
50
▁reflux
glutin
▁lobe
gene
3,
▁enzymes
▁suppor
▁0.05)
loro
▁atropine
bac
idated
▁HM
▁1-
▁0.01).
▁indicators
▁28
▁hypo
▁medial
reas
ylamide
▁hypoxia
2-
assium
▁practic
▁replication
▁aorta
▁contrib
tase
▁graft
▁enti
40
▁infections
▁endometrial
duced
▁tumor
28
cribed
-20
▁85%
▁bile
ocyte
tries
▁10-
▁Serum
fts
tein
▁limbs
▁intrap
teroid
▁15%
85
▁oxid
▁recombinant
▁decreases
▁glomer
▁effic
▁suscepti
dition
▁phe
▁interv
ept
2/
onin
lact
▁hypoxic
▁kine
▁distin
ditions
▁struc
opamine
trib
lym
▁antibodies
▁dors
▁(7
jected
sensitive
▁tes
mia
▁phosphatid
▁3,
▁elicited
▁deficit
▁characteris
/-
▁200
▁synergistic
▁inversely
▁RA
▁challen
turb
Ca
tence
▁suppres
ration
▁soy
▁adjustment
phrine
▁somat
▁IA
▁untreated
▁sci
2.
sively
▁kinase
99
▁interc
▁aureus
DG
regulation
▁spontaneous
▁12
▁metast
▁0.9
opathy
owel
anding
bral
▁cholesterol
▁angiotensin
▁transcription
olip
tural
▁selective
▁chromatography
▁embryo
▁proportional
▁lymph
▁positively
▁cancers
adren
overed
ipit
▁IgM
▁plas
▁extrac
▁insertion
tinu
ynaptic
sities
trol
▁ure
▁45
erin
▁neurologic
adder
feren
oplasmic
5-
▁emerg
▁lipid
▁ethanol
▁elic
▁elu
▁perfusion
jun
▁potency
▁cervical
angl
rotid
▁restor
▁systemic
▁poten
mediated
▁Bec
▁glands
▁percutaneous
tively
▁influenz
▁follicular
lobulin
erox
thyl
▁197
▁leuk
▁lact
operative
5%
▁(3
▁epinephrine
▁collagen
▁wee
▁Plas
-1
▁degradation
dose
▁vaginal
▁infusion
▁Compared
▁extracts
▁deterioration
urrent
▁stimulate
▁elucidate
▁catheters
▁acute
16
itone
ullary
pine
▁intensive
▁peptides
▁assays
▁hormone
▁evaluating
uvant
▁ventric
32
▁18
3-
invasive
ometr
LV
eration
▁shorten
lob
activated
Ig
▁vaccination
▁targe
▁inadequate
▁deficits
▁heterogeneity
▁postoperatively
lux
1,
olec
▁hepatitis
▁ACTH
▁drin
▁intermittent
90
▁exogenous
49
leukin
▁gonad
▁mitochondrial
ostatin
▁gradi
▁receptors
▁1.6
▁tracer
▁symptomatic
▁proteins
▁fluores
▁subjected
+)-
tradiol
zard
▁acco
owever
tension
mature
ypical
▁macrophages
onography
▁exhibited
kDa
▁glycoprotein
▁trac
2)
▁stimulated
tact
▁ventil
▁postoperative
▁obese
▁cen
31
namic
▁resusc
▁chemot
▁atheros
▁injections
▁multiv
▁sperm
▁gluc
▁utilization
30
▁ech
▁predic
▁mmol
▁4-
grees
▁postnatal
rogenase
acet
▁chromosome
lymph
sions
▁polymorph
reased
▁chlor
▁hypothe
ogenic
▁adhesion
▁phy
▁undetectable
jec
olated
▁ventricular
rates
rosine
▁bac
vity
▁diame
▁depr
qui
▁80
▁plasm
▁LH
rease
CSF
21
▁ATP
▁mutation
inally
▁supple
▁(6
▁(2
treated
▁27
▁alveolar
urine
▁+/-
carb
▁anat
iotic
▁differentiation
▁immunore
▁expres
▁anatomical
.2
▁gradients
▁comple
vely
▁43
▁cultured
▁nm
▁beha
00
onate
ylated
▁regis
idate
ovascular
▁plaque
▁antagon
tice
▁(1)
▁molecule
▁GH
▁proliferation
▁Lys
▁HL
▁0.00
▁adjuvant
▁intrinsic
itant
▁anesthe
acr
▁1)
▁bene
▁inactivation
▁disappearance
EG
▁obser
▁6
▁indications
▁reac
▁hemorrh
▁kidne
▁cAMP
ositol
ylcholine
▁potentials
vul
piration
▁esophag
▁ganglion
▁adrenal
▁synerg
ylation
tory
▁stimul
▁Whereas
▁1,
▁assessed
▁ile
nai
▁CK
sies
▁saline
▁endoscop
adily
▁unilateral
clerosis
▁99
▁arthritis
▁amin
astolic
odynamic
resist
-5
▁5'-
▁Addition
▁familial
-1)
omycin
▁advan
▁100%
8)
▁epit
▁cereb
▁gamma
ffinity
▁drainage
NB
▁fatty
▁etiology
▁immunological
gely
tage
ucle
scherichia
▁complementary
▁carbohyd
▁prevalence
▁reflecting
▁reductions
2%)
plantation
▁endometr
duce
▁contral
▁morbidity
▁(19
▁fati
▁catheter
oside
▁analyses
ortic
▁lymphocyte
▁0.05).
ardia
gment
▁aor
▁phag
▁differentiated
▁pathology
▁pineal
▁tumours
▁mutant
▁dosing
orac
Pa
utaneous
ncy
▁prophylaxis
osom
▁LD
▁antigens
tak
▁residues
natal
▁cellular
till
▁precursor
0.5
▁exce
▁LT
▁198
▁NK
▁exis
centr
▁endothelin
▁platelets
tual
▁intramuscular
▁haem
▁7
▁necrosis
5,
▁immuno
▁anastomosis
ults
olism
veolar
▁pharmac
okine
truction
▁dissection
▁projec
▁rhe
-1-
irc
sible
anine
ventricular
▁murine
▁0.6
▁tomography
▁definite
▁progression
erate
▁proximal
▁50%
oxid
ichia
cence
acchar
▁fibroblasts
▁collateral
▁incorporation
4+
osomal
activation
▁hemat
▁inhibited
onuclear
tel
▁ischemia
immun
▁mortality
associated
▁micros
▁0.001).
▁nmol
ochemistry
▁objec
▁pituitary
Tc
unctional
otor
▁infar
.4
▁pancreatic
▁phosphate
▁carotid
▁aortic
▁electrophoresis
itin
aline
atest
▁substrate
▁72
▁2,
▁discrimin
▁sensory
▁tric
▁cortical
6,
▁correlate
1-
rhy
▁favorable
▁interpre
ocrine
odialysis
18
eces
▁salivary
▁arter
▁evoked
ospor
ilateral
ficial
▁9
▁pathologic
▁subjec
▁randomized
▁induce
▁clinically
70
▁PF
▁exposures
esthe
eak
▁Doppler
▁pathological
dle
▁systolic
otides
▁polymerase
▁hepat
▁prostatic
omical
mTc
▁stren
▁congen
▁severity
▁connective
ostic
acting
▁spon
ochrome
▁fluorescence
opro
erated
mend
opa
ecu
▁irradiated
▁histological
ompan
0,
▁phosphatase
▁hypers
tectable
endri
asive
▁subgroups
▁reper
erad
odon
tur
▁preferen
▁toxin
▁tissues
▁parame
▁sugges
ologous
▁preliminary
infected
▁pall
▁corne
▁bacterial
▁judged
▁correlates
▁injec
▁remo
lobin
4)
▁glucose
▁Tum
▁reas
iably
coun
affected
▁lesions
▁[3
ture
▁6-
tomy
ogra
dominal
oic
▁GV
▁cystic
▁TNF
mentation
▁hypog
ineal
glyc
▁mL
▁specimens
▁transient
▁implantation
▁hyperg
▁attemp
ctomy
▁adverse
ilized
1.
versely
trop
▁deple
▁nM
▁antic
▁bowel
▁hydrox
quine
▁persis
0.
▁inhibit
ymp
▁fibers
▁nucleotide
ogenous
acin
mittent
▁resonance
▁NP
5)
▁valu
▁repor
▁bran
treatment
▁carcinoma
▁unstable
itus
▁inadequ
7)
rocy
▁40
phosph
▁renin
▁heterogene
▁cyclase
olesterol
▁abdominal
▁assay
▁variants
▁micron
phosphate
scop
▁inactiv
▁athe
genic
▁thre
actin
▁inhibitory
idase
▁decreased
▁pathway
ergy
20
▁neutrophil
▁disruption
iary
▁cathe
▁hams
itoneal
▁biochemical
▁yiel
▁shif
▁prolif
▁unde
▁toxicity
▁satis
17
idne
▁glyc
▁techniqu
▁spinal
▁phospholip
▁erythrocy
▁kinetics
▁21
acil
▁establ
▁ery
7%
▁degrad
7,
▁impaired
risk
▁implic
oceptor
▁sampl
▁hemodialysis
estion
▁hep
▁lipids
onary
▁(8
esic
▁recom
▁suppressed
tent
▁glomerular
▁electr
▁pneum
hydrox
▁monoclonal
▁20%
▁epithelial
▁incubated
itamin
▁progn
▁conduc
▁progres
▁Treatment
▁potassium
▁concurrent
▁myocardi
▁transi
itro
▁19
▁surgically
lood
▁distal
▁previ
▁pregnancies
▁lactate
▁resection
▁smo
▁cytos
▁competi
piratory
▁cleavage
▁norepinephrine
▁soluble
▁produc
aemia
induced
▁AMP
▁cortisol
▁ow
vic
▁1
romes
▁13
oplas
RH
ocyt
▁differing
.3
▁melatonin
rele
ureus
▁reproduc
▁induc
tead
▁correlated
atories
lec
lyc
crib
hemical
▁somatic
▁lamin
▁ambulatory
▁undergo
▁bladder
▁42
bladder
rox
▁substanti
cine
icine
-100
▁Stu
▁contrac
▁determinants
