▁urgent
▁strokes
stress
▁80,
▁subdi
cristine
▁exce
-120
▁urea
▁RNA
erum
▁secretin
▁kinin
tyl
▁characterised
▁promotes
ortic
▁2'-
otropy
▁plastic
31
ylephrine
▁tiss
▁mesangial
ophasic
▁polymorphism
▁Pros
itively
1-2
umbers
▁nonselective
▁30%,
tidine
cyst
▁TCDD
▁encomp
▁Laser
▁concep
▁Tryp
▁laser
▁(3.8
ortical
▁144
rotal
▁(10(-5)
GnRH
▁lactic
▁ammonium
embedded
▁0.20
▁MCV
-4-
▁emissions
▁cytochromes
▁1.6%
adequate
oscop
bloc
+)-
xyl
▁Inhibition
▁lymphatic
▁APC
▁10%,
perme
▁suppressed
erent
▁glut
derly
▁prerequ
olsc
ashing
▁degenerative
▁microU
otriene
▁attenuation
(5
▁seminiferous
▁Recurrent
emide
LU
gesterone
▁stomatitis
responsive
▁15,
11.
▁convulsions
onatal
▁concentrates
▁45,
deriv
urred
PMA
▁Purified
▁adenomas
▁injections
▁TIA
▁VL
-800
▁benzo
▁cotrans
▁HIV
regulation
▁pathway
▁digestive
odone
▁1979
ervice
▁ionization
▁deficits
▁injur
▁leukemia
▁pregnancy
▁Intra
▁compound
▁onset
rostaglandin
▁silica
▁215
imus
▁neurite
mum
RP
▁RB
▁glutathione
anadate
▁IIB
▁Acet
▁disturbance
▁adhering
▁fracture
.5%)
▁pyramidal
▁counterpart
▁vertebral
esting
▁construc
fused
▁anticipated
▁-0.6
deprived
VH
▁innervated
▁cords
▁genomic
opic
▁confounding
▁spaced
ogenously
▁breaths
▁108
invasive
▁transducer
ifed
▁275
▁influenzae
▁PTCA
CHO
▁tension
myocardial
▁adenylyl
▁Adequate
▁nonsur
▁IIa
inic
▁possessing
▁312
▁chimeric
nithine
urgery
▁grafted
▁insurance
▁discrimin
tilage
affinity
▁reporter
NOVA
ardized
enicill
ollagen
▁strikingly
eminal
▁Hypertension
▁neuroendocrine
▁thrombolytic
filament
▁anatomy
▁shocks
▁immunogenicity
▁alters
▁calor
▁incid
▁preparative
calcium
▁nonresponders
ocrine
▁pulmon
▁bup
▁85%
▁HSP
rehen
▁osteoblasts
▁0.77
▁elicit
ensi
▁muscul
▁Fifteen
▁doses
▁(3)
▁PEG
butaline
bran
▁hydrolase
▁reticul
▁25%.
▁predomin
quat
▁COOH
▁oligodend
▁titers
▁prolonged
ompan
▁Rates
assemia
tussis
▁spectroscopic
▁HB
▁suppor
▁elic
▁spermatozoa
▁MoAb
▁VV
▁Parameters
▁tetrodotoxin
▁asbestos
▁myotub
▁26,
▁behavi
▁exercises
cellulose
▁15.
▁CN
virus
▁Infusion
acr
▁0.75
tiz
▁pulses
antigens
▁delays
▁inducers
▁increments
▁39%
osus
▁1988.
2%)
tenance
kinje
▁potentiation
-60
▁hemo
faction
▁adjunct
▁trapped
PMN
▁lysate
▁argues
▁glycosaminoglyc
▁85%,
▁genetic
▁asthmatics
▁interfering
▁sphingomyelin
▁decline
tested
▁Intensive
HBs
alytic
▁thoracic
▁ventil
▁lysates
▁extravasation
▁malformations
ograft
menopausal
3+
▁100%,
▁weighted
▁1%
▁hydroxy
▁intoxication
significant
▁cistern
▁0.4%
▁25
▁tuberc
transplantation
▁interacting
rowth
▁asthmatic
▁inbred
MN
tro
▁transfusion
▁sphing
2+)
▁spleens
▁ventilation
▁Abnormalities
endritic
NV
flammatory
ograp
▁dips
▁mutagenic
▁retarded
▁Histamine
▁employing
tructed
Pu
▁Prevalence
▁Vero
sul
▁solvents
▁synthase
▁labeling
▁reasonably
lamy
▁questionnaires
▁PEF
otin
▁circumferential
▁underestimated
▁69%
▁retention
▁expressing
odies
▁pectoris
▁demonstrates
▁CHO
violet
▁GTPase
▁cannula
▁placent
ateral
▁persistence
▁leth
hormone
▁pyridoxal
▁CLL
▁ribonuclease
▁positional
▁Accordingly
▁aro
▁NG
atil
▁differentiate
itonin
igand
▁10(-1
enicillin
▁Syrian
tryp
▁serotypes
▁expiratory
reast
▁57%
stole
▁tricuspid
oplasia
▁114
▁sorbitol
▁eryt
▁histological
▁ejection
▁catheterization
▁ampicillin
▁Tyr
:1
▁nurse
▁acute
▁spermatozo
▁genetically
▁restoration
▁practition
-34
▁213
▁solubility
▁retinoic
▁nitrite
▁(10
▁decarboxylase
▁alve
▁Localization
▁suicidal
▁endot
ziness
▁seal
ffec
00-
▁arous
▁diurnal
▁poliovirus
▁deline
-26
▁remod
▁localize
▁4;
▁fibrinogen
yroxine
trimental
▁(21
phosphamide
▁nociceptive
▁ovid
▁10(-6)
▁ultra
▁intimal
▁vacu
▁globin
▁myopathy
-32
▁DRG
unsaturated
▁0.93
▁mucosa
▁anemia
▁nonsmoking
▁hsp
rophenol
▁235
matched
▁motivation
▁regulation
emory
▁(17
▁Sleep
▁evolved
▁Protection
▁2%
▁cytoplasmic
▁HV
▁carp
▁itraconazole
▁7.2
SOD
illary
▁2)
iliar
40-
ranged
operiod
▁ICa
▁hypoglycemic
▁153
DV
▁excitatory
▁60
▁plac
obac
▁dystrophy
▁damaging
-4,
▁ionomycin
oplasts
▁MU
▁biphasic
▁retrospectively
▁mitogens
▁(1-
▁1.26
▁injuries
aryng
▁hypothal
regulatory
▁isoflurane
androsterone
▁isch
▁attainment
Rb
▁1981
▁crom
tigo
▁1.6
▁risks
▁gonadotrophin
▁antiser
atation
▁septic
takes
▁degradation
▁morphogenesis
▁3).
▁triam
odine
/9
▁assays
▁electromy
▁dendrites
▁Marked
▁estradiol
▁FN
glucose
▁spermatocytes
▁autoantibody
urine
▁179
▁striatal
▁invariably
uccess
▁3-5
▁daytime
▁(93
▁metastatic
▁medulla
gran
▁genesis
▁keratinocyte
othyronine
▁quenching
lectomy
▁diminished
ocyte
▁anxio
▁alcoh
▁Thy
▁LFA
▁lesioned
▁unfavorable
▁malnutrition
▁Surgery
▁micros
▁Nutrition
▁MW
abec
amide
▁MBP
▁(1/
iatic
respective
▁uncontrolled
▁NHL
oselective
▁molecules
▁HPLC
oustic
▁IA
▁315
▁gonadotrop
▁endpoints
▁malignancy
CAP
mur
urin
▁223
gus
▁plasmal
▁carvedilol
▁intrinsic
toph
▁coordination
▁spots
▁bleeding
▁67
lec
charged
osal
piratory
otherap
▁anaesthe
▁resections
▁covariates
uded
▁lecithin
▁0.05
▁enamel
illar
▁unfav
▁EGTA
▁Hg
▁flies
▁failures
▁antecedent
▁phrenic
examin
▁breeding
▁Except
▁Forty
▁0.95
▁subcl
phila
▁dominance
▁nucleic
▁strongest
▁laparo
▁persisted
▁56
ifferentiated
▁osmolality
ionate
fied
▁lungs
dT
orhinal
▁amniotic
▁Throm
umbar
ece
oxyp
tents
▁Phen
hers
▁galanin
▁bacteria
Gs
▁stripe
▁preliminary
ethyl
nitroso
stimulation
.8%)
5/
obut
▁incremental
osoma
▁Measurement
▁5),
FGF
▁epid
▁vaccine
▁thyroxine
▁sarcolemmal
▁synovial
▁permanently
▁fluc
▁36
▁spectra
▁CK
▁0.0001)
▁prostagland
▁polyaden
▁accep
▁cyto
▁260
▁oscillatory
▁fetal
ixation
erebral
▁81%
▁nuclei
▁adhesion
▁ambulation
▁managing
orable
▁perc
▁prospective
▁Cumulative
atridine
omimetic
▁Cyclic
cents
tages
▁mediastinal
▁mmHg
▁phosphorylated
▁palm
orrh
-3-
ofluores
12
▁cytokeratin
▁exogenously
▁achie
5.
erican
▁crystalline
▁ventricle
▁nodal
othane
▁tolerance
▁reass
18
(-)-
▁approx
▁diacylglycerol
3),
▁GER
inesterase
letion
▁phag
▁(1985)
▁doctors
▁homogene
▁vitamins
▁tubulin
▁epididymis
urations
▁mutated
▁compe
razosin
▁umbilical
▁olig
anserin
ituitaries
incip
dle
▁homose
▁indicative
galactosidase
▁5.6%
▁9.7
▁conflicting
▁alteration
▁iliac
▁centrom
▁detecting
▁labeled
▁1-4
▁constric
▁ciliary
▁eligible
▁valvular
▁shunts
▁retinopathy
▁singlet
▁hepatectomy
▁protoc
cholate
▁clinician
▁24%,
allium
esthe
▁dehydro
▁acyltransferase
phosphatidyl
▁ipratropium
▁artery
▁dias
ideoxy
▁parenchym
▁immunomod
▁heparin
fluoro
▁0
▁inges
▁predictor
▁0.28
immun
▁116
▁redox
onin
▁amo
▁immunoassay
olates
▁ethanol
▁agarose
imazole
methylation
▁subnormal
encephalon
▁proximity
▁neuropathy
▁detergent
▁650
oproliferative
▁histamine
▁downward
+-
▁Glc
▁phyto
entified
▁Levels
▁77
▁Comparing
-27
,000,
idity
▁22
▁6.8
▁analytical
sulfamethoxazole
tase
▁micrometer
▁gynecological
aired
▁Addition
angl
abies
▁transitional
▁grades
tinu
ergy
▁spray
▁HM
▁neuros
▁Tissue
▁69
▁plasmids
▁lengthening
▁punct
▁motile
▁nominal
▁infertile
▁determinations
▁bronchitis
fos
erine
▁10(9)
▁(-)
otre
uating
PSP
▁90-
▁Tum
▁polarity
▁(4%)
▁LAD
86
▁PN
▁nadir
predominant
▁eIF
▁menstrual
tical
▁phosphatid
▁glands
▁137
▁28%,
▁musc
ocyst
▁quaternary
olute
assessed
▁glucagon
▁drinkers
PGE
▁previ
▁(198
▁proliferative
▁carcinogenesis
hist
▁nitric
▁proteoglycans
▁PaCO
pite
▁presumed
▁bottle
thin
mercaptoethanol
▁lateralis
▁ovarian
▁(10(-4)
▁steroid
▁cats
▁gonadotroph
▁hippocampal
ucl
tocopherol
▁intras
▁2).
▁locomotor
acrylamide
▁slic
ariate
▁constituents
anding
▁PAP
▁monosynaptic
▁Plasm
idase
▁FU
rectomy
▁localization
luent
▁transfection
▁biopsies
▁clamping
▁helic
▁inducer
▁infiltrates
▁gastro
oxyrib
PAT
ectom
characterized
▁steroidogenic
▁Deletion
▁megakary
▁disadvantage
▁(72
▁(1987)
omatostatin
▁emphyse
▁3/
opeptidase
▁intra
▁confound
▁diphosphate
▁proteoglycan
▁Km
▁(92
▁0.66
▁VF
▁forearm
95%
diabetic
plicity
aund
▁stain
▁tolerant
positive
ipr
venous
▁twofold
oxazole
apamil
BP
▁8,
▁corticotropin
subunits
▁SHR
▁adenovirus
▁HRP
endix
esthetized
▁superim
▁poin
▁thymocytes
▁endoplasmic
graphy
▁hemat
▁indoor
▁ablation
▁ASA
edding
▁reversing
▁5.1
ologists
▁crucial
▁monomeric
▁trophoblast
▁2:
allikrein
▁dietary
▁arteriovenous
▁escal
▁recombination
▁SG
233
▁gt
▁ECGs
▁infec
▁diazepam
oids
esicular
▁thrombosis
▁Lp
uvate
untary
▁ultrastructural
▁TCR
▁evolutionary
0.
▁.01).
▁vitronectin
▁Sephadex
▁uncoup
erates
-7)
▁Sixty
▁(28
bacter
▁contributes
▁SKF
(2+
▁(41
TRH
tices
▁fibrinolysis
benz
▁Highly
atally
trating
▁anae
ulitis
ploid
▁sulfated
▁subjec
▁choles
▁8%,
▁shortened
▁depleted
▁dihyd
rectomized
▁cultured
icin
elvic
▁sorb
▁IFN
▁onc
udine
▁starch
▁hepatoma
irradiation
▁autoantibodies
▁chorio
▁preoperatively
dalton
▁1991
tection
▁coagul
economic
▁peroxis
lasting
ylate
▁steers
esium
▁subcutaneous
▁backgrounds
▁therapies
▁normo
▁hypoxemia
▁obtaining
▁superfusion
-39
cture
▁spermine
▁sha
▁1.19
▁cromoglycate
▁Surve
▁(2),
hydropyridine
arum
▁hyperthyroid
▁2.3%
▁glycoproteins
▁glucone
ocysteine
▁muta
▁ligated
GSH
▁hemorrhagic
00)
▁resour
pA
disc
▁hydrolyzed
iliary
▁dysplasia
▁oxy
▁antagonists
▁manifested
▁hydrolysate
uoden
▁surviv
▁1982
vular
▁abortive
▁2.7%
sor
triglycer
▁elimination
▁lipid
▁reactions
▁scavengers
olab
▁collab
▁Older
▁maturity
▁regulator
▁LF
▁sputum
orand
nucleotide
cnemius
▁irritable
▁differe
orrhages
anish
▁Antic
entric
▁700
proliferative
▁Dose
▁intox
▁wean
exposed
▁quantit
▁supernat
▁170
thmias
▁stab
▁herds
▁contamin
ophore
TNF
▁CMV
8),
▁ureth
▁1,4,5-
▁arachidonic
▁centrifugation
▁Hybrid
15
▁irritation
▁metabol
▁primed
pendence
▁salvage
▁TF
▁vasodilatation
▁examinations
▁205
▁nm
▁tobacco
inemia
▁investigator
yro
▁TI
▁cann
▁abolish
▁deterior
hypophy
tigu
▁digestion
olerance
▁Positive
▁staurosporine
▁typhimurium
▁Tf
▁Conversely
▁frog
chloro
▁myofibr
▁staging
tide
▁(+)
ratio
▁OA
susceptible
targe
▁Unlike
▁2.9%
▁atelectasis
loid
▁illnesses
▁halothane
▁0.59
▁postinjury
▁(5.0
antigen
▁Experim
▁supr
tle
ondon
tonin
▁favoring
ocortex
oneph
▁projec
▁nutritional
▁endometrium
▁penicillin
▁83
▁Nine
▁hemip
▁pyl
oscopy
▁cephal
ulinemia
trophic
heres
▁repetitive
glut
▁(3.0
▁9%
▁tow
▁90.
▁neonatal
▁44
▁4.0
otrexate
▁epitopes
▁monolayers
▁Taken
▁insemin
▁stimulator
▁430
▁(2
adian
▁fibre
▁passive
Ba
▁upright
▁diagnostic
▁chorion
▁globulin
▁antibiotics
▁islet
▁relieve
omain
erate
▁apolipoprotein
▁MgATP
▁challenges
▁Neurop
dehyde
▁1-3
▁buffers
▁synthetase
3/
floxacin
gated
philis
▁cardiomy
▁ROS
▁organelles
▁EPO
▁preganglionic
▁pericardial
▁alternatively
▁100,000
▁77%
ecum
dimethyl
▁Chlamyd
▁encompass
erver
▁selectivity
▁(35
▁binocular
▁transc
▁heavier
titial
▁0.1
onucle
ostic
astatin
rhy
▁pall
alp
eight
▁presentations
▁contrac
▁incub
▁Rele
▁157
▁neuroleptic
▁advances
Nase
ogra
▁92
ctive
▁clinical
▁melanomas
▁moieties
▁10(-9)
.8%
▁arrhythmic
▁preval
achlo
olism
iline
ustained
ylamide
▁discus
omegal
▁rectif
▁mong
renal
▁buspirone
FSH
▁conjunctivitis
ylcholine
opulmonary
▁suicide
▁analyzing
▁22%,
▁fluids
▁kinases
kle
derived
▁oxygenation
▁osteoblast
▁secretion
▁splen
▁verapamil
▁cris
▁mucus
▁rotavirus
▁microinjection
▁24
▁pulse
▁progestin
▁CM
▁shor
▁substantia
▁chemotaxis
▁diseased
LISA
▁Glyc
▁hydrop
osm
athe
respectively
▁catalysis
▁contradic
▁villi
▁collaterals
either
▁dyn
▁nondis
▁endurance
▁perioperative
▁immunode
▁astrocy
▁pneumon
▁sten
▁ET
▁hyperglycemic
▁phasic
▁contex
▁239
▁neurones
▁bromide
▁degran
▁inflamed
▁simvastatin
▁ib
▁serolog
▁164
▁necro
▁retinas
▁beating
▁HBs
▁Incidence
▁paras
▁motif
▁juven
▁Ae
▁1:1
convul
▁hematoma
▁neuraminidase
pyrene
nitrosourea
▁HER
▁30%.
▁thyroiditis
▁hydrophobic
▁GPIIb
▁adenocarcinoma
▁rectum
▁(62%)
▁vege
▁Urinary
▁undergone
▁800
ophil
indolol
▁labelling
ervated
▁Urine
▁occult
▁ile
▁pyrimidine
hans
▁radiolab
▁1
▁subtle
▁Insulin
▁incontin
▁advancing
nexin
▁empirically
▁28
▁appreciable
▁fasted
▁medically
65
▁aerosolized
▁mongrel
▁Staphyloc
▁sequential
▁basement
terol
▁fecal
▁fermentation
(3)
▁postex
Sepharose
retinal
▁empiric
▁26
▁selec
▁261
▁ulcer
isole
adherent
-1.0
▁neutroph
▁shear
▁nasopharynx
▁agglutin
▁gestation
▁plexiform
-70%
▁sectioned
▁GFR
▁46,
itol
,000)
▁corticos
▁Oc
tations
▁necropsy
cemia
▁0.01
Gl
rences
▁9)
menstrual
▁randomized
▁EE
▁(2.5
▁concentrations
▁focuses
nons
oxine
▁responding
▁31
▁anaerob
alazine
racene
▁fertilization
▁outlined
▁biased
semin
▁orific
▁larval
▁microvessels
▁phagocytosis
/10(6)
▁depolarizations
▁slowing
phosphatase
▁HI
▁Determin
▁manipulation
▁nerves
-0
▁ADP
▁4.8%
tium
▁horm
▁rT
▁pelvis
ingle
▁lactulose
▁10(6)
▁1%.
▁intramuscularly
▁syring
vessel
tilbene
olymer
▁18%,
▁rodent
▁Likewise
▁Enzyme
▁sca
rection
15)
▁malignant
▁complic
▁MI
▁codons
omyosin
thood
▁guanine
▁eosinophils
ivation
▁lithium
600
fed
74
▁Plasma
adrenoceptor
▁14%,
▁persists
▁phospholipids
.7%
▁efficac
▁maxillary
abilized
▁pharm
▁fluidity
▁plasminogen
enkephalin
▁Fewer
▁10%
were
▁theore
▁subdural
▁qualitative
PB
rement
▁(69
▁histologically
▁NB
▁compartmental
amine
▁molar
▁detector
▁antacids
roblasts
▁39
▁Concentrations
▁deox
▁distinguishable
▁Rever
hydroxyphenyl
▁complexed
ongest
ported
rospor
▁immersion
▁endogenously
▁ganglia
icardial
▁pituitary
▁iodide
▁quantitate
1-1
tococcus
▁Stro
-35
romatosis
▁Pt
▁recycling
Gal
5%)
▁0.00
▁utero
embran
▁recurred
▁polymorph
renic
activities
▁herb
heal
▁lax
▁alternating
mend
▁titr
ses
▁dismutase
▁gastritis
▁congruent
▁albuminuria
▁specimens
▁calorimetry
ogenous
neph
▁Leydig
-10.
imethyl
▁proline
▁allergens
▁(54
injected
▁ESR
▁tes
incidence
ometrically
gans
▁LC
▁encompassing
ilin
▁32
selective
▁Pharmac
-)-
▁54%
fentanil
zard
▁carbachol
▁aneurysm
▁doublet
▁300-
-198
▁surrogate
▁underlie
▁immunosorbent
▁HBsAg
▁Bone
▁practiced
▁rectal
ophor
ncy
▁metaplasia
▁95%
▁hypokal
▁fist
▁persisting
▁Hepatic
cellent
▁sweat
▁moderate
43
▁CRP
atitis
henyl
▁diagnos
▁substrates
▁pathogenic
▁0.21
tries
▁succes
otopic
▁mesenchymal
obium
inactivated
peritoneal
producing
▁periphery
▁caution
▁catabolism
▁nons
▁HSV
▁3,
▁Coronary
▁PGA
▁manifestations
▁diffuse
▁mesang
▁distor
▁tumorigenic
ypeptidase
▁puncture
keto
mber
▁(70
▁Dex
▁deter
▁epithelia
▁ploidy
▁lidocaine
.3
exposure
▁Extensive
▁labile
roup
▁heterozygous
ietin
▁metoclopramide
▁Oxygen
▁adults
idespread
▁45
▁interfer
70
▁Immun
▁0.42
▁curvature
ilic
▁fulfilled
▁41
▁MPA
▁enroll
ostomy
utaneously
▁superiority
oric
▁catecholamines
▁Consid
nthe
▁kainic
▁xylitol
hyp
▁80%
▁pelvic
▁vasoconstric
tetrahydro
▁gelatin
rachial
▁somata
caro
▁carcinogens
▁enrolled
▁arterial
▁233
methoxy
ophysical
▁Evid
▁produc
▁correspondence
▁degraded
▁concomitantly
opia
aluation
▁jejun
bindin
eptide
tors
▁depolarizing
▁weakly
▁pharmacokinetic
ameth
▁fibrob
atinine
repres
nucleotidase
▁inactivated
▁transfected
arean
▁mesenteric
orectal
fetoprotein
▁reacted
▁sustain
▁blotting
▁fiber
▁hyperglycemia
▁peptic
▁permitting
anad
▁accumulates
▁3'-
▁anorexia
glycerol
▁(32
lude
▁lipolysis
trient
▁truncated
▁bursts
itidine
▁endarte
dominal
▁reversibly
▁characterized
▁sarcoma
▁0.10
▁immunologically
)],
LAK
onine
▁(7
▁ald
▁rosettes
reening
-31
ulators
▁Antibodies
11,
▁gingiv
otamine
▁instillation
▁0.18
▁-6
oprim
▁conducting
▁sple
▁retard
▁perme
▁rhinitis
▁excitation
▁glucosamine
enteritis
uthenium
dose
▁47
▁therapists
▁receptors
fts
▁analogues
▁sulfoxide
▁GDP
▁whereby
▁10(8)
▁breed
ectin
▁bp
▁undergoes
oxybenzamine
OHDA
ipitation
▁elastin
▁knees
▁0.70
-67
phied
▁256
atid
▁spasm
hydroxyl
▁suggestive
▁nadi
GMP
thre
▁occl
▁cholesterol
ceptions
000)
fective
ylon
▁exert
▁ulcers
▁compliance
▁opiate
▁Dietary
rae
▁Apparent
heximide
▁Chrom
horm
▁Biophys
▁stabilize
▁exerts
▁171
silon
▁ketanserin
RD
ATP
▁prednisone
▁exten
▁ips
▁persis
▁restor
▁inoculum
▁Prel
terin
▁1).
▁Klebsiella
▁anaesthetic
▁subpopulation
▁diaphragm
residue
▁myeloid
mRNA
erebellar
gulation
▁Holter
isteria
▁acqui
pregn
69
osyltransferase
▁chemotherapy
▁ascer
▁genit
▁cholecystokinin
▁ghosts
2+
▁prompted
▁streptokinase
▁innervating
▁nonf
▁withdrawn
FEV
phine
▁heteroz
▁dissolution
MLP
▁5.5
▁(1.2
▁exploration
-29
▁propria
▁chick
▁allergic
▁oligonucleotide
▁triacylglycerol
▁twin
-2'-
▁litters
controlled
▁currents
▁lambs
myc
▁spindles
▁micron
▁smear
▁sedentary
70)
▁clinic
uated
4,
▁addi
oscopic
▁SPECT
existing
▁221
ocellular
▁Purkinje
▁suspected
coag
▁Numerous
sively
▁NSAIDs
CFU
▁subendocardial
▁(22
▁(197
▁cultivation
anin
▁analysed
▁SMC
▁([3
▁lep
▁LT
tetra
▁aerobic
▁ACI
▁BMI
▁prospectively
mitter
▁lipoproteins
▁reversed
▁sleeping
▁10(-4)
arynx
▁pontine
▁pestic
▁134
▁Functional
▁Invent
▁cruzi
▁endoscopy
bred
▁leprosy
▁Bmax
▁35-
▁specialists
▁glycosyl
▁alopecia
▁presumably
▁problematic
icide
oleoyl
▁preterm
ATPase
▁conduc
▁Consistent
▁translational
▁98
▁PAF
▁passages
▁cataly
▁Postoperative
oglycerate
▁pefloxacin
▁monoamine
▁Antim
▁dissec
onazole
▁hydroph
▁intramolecular
▁determining
▁intrad
epines
▁3.2
▁progressive
▁duplex
▁nontoxic
usive
erose
▁thrombolysis
▁preoperative
▁neonates
▁neuronal
▁trichloroacetic
iated
roprus
▁epithel
activating
rostenedione
paired
▁occasional
▁radiological
bac
erally
▁Retro
▁8.9
ministration
translational
romagnetic
▁sperm
▁20,000
odic
ultural
lactamase
▁Combination
▁vap
▁salic
ameters
fec
uretics
▁CEA
▁EDRF
olscine
alkyl
▁prone
subs
acted
▁Recombinant
▁laboratory
ytes
▁1.00
macropha
▁provoke
▁conjunction
▁Preliminary
filaments
▁500
▁comparisons
27
▁227
▁descriptions
▁BM
▁228
proved
oxif
▁departments
▁homogen
ocks
enhanced
▁preexisting
embrane
▁Injection
.3%
polar
▁helices
▁2-4
elves
▁amine
aethylammonium
tified
siological
unar
▁BS
▁GRP
fluorouracil
icardi
▁embolization
rometry
▁Glut
depr
1;
▁orthostatic
▁calbindin
CRP
▁midline
▁Histological
▁decel
tam
enopus
▁immunoprec
▁halves
▁viscer
▁0.87
ritis
ittac
▁innervation
▁(6
atment
tiv
▁dehyd
▁uncom
orrheic
▁glioma
▁hypoglycemia
▁reveals
▁1.03
▁13.2
▁calcitonin
terase
arine
▁initiated
▁inhib
▁Mortality
omann
rangement
blinded
tured
▁migraine
amet
▁0.57
itant
otype
▁abnormalities
unting
ocarb
▁weakened
▁anxiety
▁mosquit
▁1987,
▁ultras
sus
minute
cholesterol
▁7-
▁laparoscopy
▁0.40
▁isoniazid
▁unexplained
▁MH
▁testes
▁fivefold
achy
▁nicardipine
▁quisqualate
▁vite
kD
▁(55
▁124
▁catalase
▁musculoskeletal
antoin
feron
▁1/2
turing
▁myoblasts
▁MAbs
▁quin
▁glauc
▁prednis
▁favorable
▁30%
▁39,
▁relapses
▁1---
▁methimazole
iscal
▁potentials
interferon
▁unlabeled
▁ejac
▁forebrain
▁Contr
▁resembled
▁disposal
4%)
▁abortion
ocial
▁1985,
100
▁ORF
achn
▁follicular
▁ramipril
chains
▁microfilaments
▁precur
dural
▁pharmacokine
lasts
▁cardio
▁considerations
▁64%
▁hatching
▁pineal
▁diseases
otherapy
fication
▁subacute
mentioned
▁fumarate
azem
weighted
odop
▁convul
plies
▁socioeconomic
▁plated
▁fluor
▁distorted
HPV
trically
▁PRP
-[
▁examined
acting
▁Multivariate
ichloro
▁ulceration
▁chemotactic
▁electrodes
1)
folate
▁neutralizing
▁reconstructed
▁secreted
▁overestimated
▁nmol
▁labelled
▁diges
▁262
▁stent
▁favourable
▁tissues
41
saccharide
▁89%
▁classifications
▁oxidase
▁eluted
▁eventual
gth
▁206
oreal
▁nebul
▁biopsied
▁seb
▁interfere
▁FL
▁facilitation
▁quantif
▁3.0
amuscular
▁amelior
▁discharges
▁keratin
oxicillin
▁0.2
▁rhy
▁regulatory
▁hippocampus
tophan
▁NAD
▁Epidemi
(+)
▁Aspirin
▁granulocytes
▁143
▁soluble
clinical
raconazole
▁amput
▁185
tetric
troph
▁12.0
▁dizziness
ANF
ionyl
▁1987.
▁elevate
ovarian
▁nephro
▁acupuncture
▁Seventeen
▁implants
▁audit
▁98%
▁PCO
▁diz
▁factorial
▁immunoblot
▁LN
▁phosphor
lactating
utyr
▁redistribution
lived
openic
▁fistula
tox
LV
▁pulp
▁symme
▁arteriosus
imens
▁epoxide
▁cured
▁fluorescence
▁methylated
/20
RH
▁equimolar
▁rumin
ubation
▁restr
▁CB
▁11
▁LVH
ofuran
tochemistry
▁immobil
▁electrophoretic
▁lactating
arbox
▁aromatase
▁lor
pretation
▁feces
▁adhesive
potassium
▁aspartate
fine
uncture
▁morphine
Leu
▁(68
▁65
▁coupled
▁15.8
▁hypotheses
dopa
▁Caucas
proteins
dies
▁nucleosides
▁0.005),
▁arises
▁peritoneal
▁validated
▁cotton
▁immuno
▁etiology
▁intrarenal
▁(20
▁gonococcal
▁231
▁experts
▁reticular
▁mating
▁Seventy
ellular
tectal
▁peric
opharyngeal
▁amygdal
▁TEA
▁inflammatory
▁protec
▁Gluc
ubiqu
▁hemoglobin
estern
▁trachea
▁ABP
eicos
▁Eleven
medicated
obese
▁keto
▁potencies
▁microcirc
▁zinc
▁10),
▁barriers
▁benzene
osyl
▁determines
enriched
▁8644
azole
▁WGA
▁occipital
▁mitotic
▁18%
▁4-6
▁refractory
ancreatic
rocytes
▁grise
▁prevention
▁divergent
▁seques
renolol
▁0.001)
overed
ophen
specified
▁MK
▁ketoacid
▁arteriography
▁hemolysis
quine
galact
▁NM
▁tear
▁BL
▁immunod
▁oleate
▁Rating
▁stereotyp
indings
▁10(-5)
ropath
▁reproduction
▁carbonate
▁litterm
99
▁Neph
▁semen
▁correspon
arcoma
insoluble
▁hypotonic
▁gyr
▁painful
struc
▁2),
▁4%
▁differentiated
▁Aden
nosis
▁6-
▁supplemented
-(3-
▁disabling
20.
GI
▁10(7)
▁enlarged
▁papilloma
angerhans
HETE
▁underst
▁epilepsy
▁chromatography
▁mammals
▁purification
ysin
coup
▁ech
ocysts
iodine
▁exon
▁Subs
oluble
hypertensive
▁fitness
▁CAP
▁antenatal
▁cardiopulmonary
-21
▁21.
▁synthe
▁mEq
▁lovastatin
▁differentiating
▁270
▁perfusion
▁ventral
▁arrhy
▁0.60
▁.01)
▁apoprotein
alcip
▁1.21
▁ovulated
▁1.01
▁FSH
▁alumin
▁tracer
onad
▁aryl
▁lability
-7,
vices
iotics
▁(27
▁arterio
linded
▁signaling
▁compounds
phthal
▁EIA
▁Isc
PKC
iosis
▁carpal
▁bronchodilator
▁3),
▁vasopressin
▁tetracycline
▁0.12
▁resonance
▁arthritis
▁theta
▁echocardi
▁enhancement
amisole
▁cardioplegia
0.6
▁antipsychotic
cardi
teroides
▁venules
reactive
▁(19
inomycin
▁substanti
tec
▁membrane
ygo
2.
▁crossover
▁acinar
▁intral
▁MgCl
▁microscope
ixime
▁captopril
▁admission
uginosa
▁imbal
▁tol
▁clu
▁cyst
▁bolus
amily
▁basal
▁endocrine
nitro
▁cisplatin
BSA
labelled
▁methotrexate
▁migrate
▁compensate
▁apolipoproteins
▁outcomes
▁(58%)
▁paraf
▁197
strand
schemic
▁skull
▁supplying
▁condyl
▁TG
▁7%,
▁62%
atient
▁nore
idating
▁MLC
▁42
▁105
▁estrogen
▁acces
▁278
▁regulating
▁herni
▁routinely
▁anesthesia
endazole
▁0.001).
atase
ivariate
▁levamisole
▁condensed
▁CRF
▁asbest
ilibrium
▁mutagenesis
▁salivary
▁steroidogenesis
▁241
mAb
▁32%
olateral
▁1960
▁reflecting
▁pharmacology
▁caloric
cotic
▁ppm
▁DSM
▁10(-3)
▁.001).
erop
▁microtubules
▁disturbances
ilol
85
▁sulfhydryl
▁arthro
opecia
ranolol
▁diarrhea
▁transaminases
▁hematologic
-200
acyclin
amethyl
▁poli
▁afterload
ubilized
▁phosphoc
▁torque
pran
▁regenerated
▁sonic
8%
▁albino
▁-0.4
▁antinoc
18)
Hodgkin
▁proliferated
▁adrenergic
▁molecule
oes
benzene
ureth
▁sonography
▁Protein
▁indeterminate
▁thiaz
7-
▁infiltrating
▁17.
▁mildly
▁dissoci
1,000
butamol
▁adduct
▁envelop
▁hyperther
imeth
▁polycystic
▁dose
▁strom
birth
▁vertebrates
▁valpro
ecu
▁HAM
▁instrumented
▁biotin
▁8.0
▁WHO
▁prematurity
▁millili
▁intense
▁thyroidectomy
▁consul
▁0.13
▁(36%)
▁210
▁averaging
▁(10(-8)
▁oedema
60
enching
▁unidirectional
epit
▁striated
▁nonfatal
▁lipophilic
▁nutrient
▁stret
.2%
▁critically
openia
overall
2/
▁supportive
farction
▁couples
ayers
▁irregularities
31,
▁precipitation
▁postpartum
meg
kine
thysm
apid
▁ester
▁mM
tember
ipher
▁1,3-
▁pallidus
▁vulg
▁manifestation
▁transepithelial
▁OM
▁esophagitis
thma
▁descriptive
1).
▁researchers
▁measuring
▁schist
adminis
▁encodes
▁circumference
alb
▁adjustment
▁1.2%
▁astro
opioid
ocom
uary
ELISA
▁34
▁100,
orsk
▁splenic
phosphon
▁Exposure
admill
▁sterile
▁cessation
ochem
iplinary
▁sclerosis
aminoglyc
ifferenti
chronic
▁HA
▁inversely
▁MRSA
▁chloramphenicol
rosine
▁192
agittal
▁structural
▁erythromycin
▁adjuvant
ervo
tract
▁psoriatic
▁excretion
cephalic
mented
▁gly
nine
▁antim
▁phenylephrine
▁SRBC
ipine
▁heifers
▁extravascular
▁diffraction
▁rotational
thase
▁altitude
▁glucocortic
▁healed
clin
adenosine
▁oncogenic
loxacin
oidal
semb
phorbol
buffered
MTV
▁EG
.3.
electron
▁thromboplastin
▁antigen
▁balanced
▁conclusions
▁endemic
▁melanogaster
▁0.58
▁outlet
▁attain
omatic
examination
▁bradyc
posing
40)
uronium
▁Epid
▁dendritic
amel
▁-0.
▁gyrus
▁180
▁commercially
▁supers
▁CCK
▁fetus
▁dimers
frontal
oyl
▁seroton
▁nicot
▁confers
vitro
▁FFA
etine
▁extre
▁endometrial
▁histologic
▁physically
▁(1.9
▁trabecular
pressing
▁9.2
mined
▁102
ithium
▁cavities
▁diagnosing
▁neomycin
▁dispersed
▁myocardi
▁colony
▁uro
▁polyclonal
otyrosine
▁(4.0
onyl
▁1000
▁142
▁AE
▁dihydrofolate
▁investigations
pired
▁Kupffer
▁implicated
▁GRF
▁octa
▁lysine
▁measurable
▁InsP
▁anap
▁cytos
▁Combining
-90%
▁75%
adequ
leukin
ordance
▁homologous
▁immunoglobulin
▁perikary
ranean
▁blinded
orin
restricted
▁leukemic
▁arb
blind
▁competence
▁budesonide
▁2-5
▁emphysema
▁ratios
▁amn
helin
eradish
filtration
▁systole
▁uridine
AFP
▁clustered
▁exceeding
▁reproducibility
▁shortening
▁trunk
affin
maleimide
DHT
▁nox
HTLV
conver
▁resec
▁BLM
98
GF
▁lis
▁cyclical
▁1.10
▁mutans
▁desipramine
predic
▁antic
▁Evidence
▁activator
▁invasiveness
▁retrograde
▁stationary
oposide
▁compensated
PDGF
▁baro
▁restric
▁norepinephrine
toriness
ographies
▁progn
▁Symptom
▁Statistically
▁Initially
suppres
▁Patients
helix
▁fruits
ocalization
▁Rather
methyl
▁genotypes
▁granulocyte
epid
▁14-
▁supra
▁150,
loidal
▁mothers
iterranean
emetic
/4
accharides
▁termed
▁tolerated
▁Angiotensin
▁deduced
▁Caps
▁stools
omers
estive
itr
yste
▁antagonism
/8
umarin
▁favors
▁20
erated
ocycline
▁chromophore
▁ventric
▁chimer
▁reproductive
vitamin
▁serological
leuc
▁thalamus
oxane
grees
topril
▁barrier
▁coronary
eroxide
▁0.025
▁LTP
rested
ocytopenia
▁epithelial
▁expenditure
▁zidovudine
▁osteoarthritis
▁PAH
▁600
▁inoculation
▁potentiating
▁enhances
▁outs
-64
▁HCG
apeptide
7%
6)
elec
▁albicans
▁polymyxin
▁delineate
▁circumflex
▁surround
conjugated
achol
▁chemistry
derma
▁1964
▁spine
oprote
▁infarcted
encl
▁Pertussis
dihydroxy
▁epicardial
▁identif
▁varicosities
▁100%.
▁immunocomp
▁VO
ocytochemistry
ervoir
▁ADCC
▁spirometry
transformation
hort
▁sialic
▁SMS
taken
▁0.79
anavalin
▁presum
▁ultrasound
-201
▁276
▁menopausal
anase
▁hypertrophic
oea
▁hazard
▁abscess
▁GE
benzyl
▁intest
▁pene
▁(500
▁resum
▁radiolabeled
lowering
▁parenchyma
12.
▁0.03
▁proximal
assemb
▁(1990)
productive
▁UV
▁152
needle
ocystis
▁ligament
▁postprandial
▁clus
haled
▁LDH
▁babo
▁acrosome
enedi
sorb
otoxin
thel
-600
▁descending
▁sphero
▁bedtime
▁fric
adjusted
▁ACTH
▁lymphadenopathy
▁17.8
▁(9
▁76
gthen
▁(0.9
umping
▁ingredients
▁lowers
▁possi
▁abd
therapy
▁cysts
▁controversial
apanese
hepar
EMG
▁biochemically
▁bac
▁spermidine
▁hazards
▁muc
▁intravascular
-5)
esterified
ductase
▁doubled
▁clindamycin
170
▁altering
▁poorly
amole
39
▁95
▁200,000
▁chond
▁analges
▁micelles
▁questionnaire
▁ductal
▁docum
▁subjective
▁4-5
avail
phragm
▁18-
inhibitory
▁Epidemiological
atized
▁hydrocarbons
▁6.7%
propanol
▁explanations
▁chow
icardium
BG
▁filament
sided
ithelial
gely
▁immunoreactive
oretical
▁alkal
ydig
▁globular
▁elicited
▁amplification
▁perox
▁0.34
▁neoplasia
▁unusually
▁phosphate
▁modeling
▁couns
seud
reported
▁isotonic
▁cirrhotic
fatal
▁chym
▁Individ
▁Oral
trial
▁worsened
rague
▁[1
▁physicochemical
-3
▁enox
tact
edocromil
▁recombin
▁arachid
pretreated
▁epidemiologic
uates
▁2
echan
inyl
▁analogue
-6-
▁vasodilation
▁responsive
iruses
iable
▁dosage
▁oxygenated
▁(1).
▁resolving
▁actinomycin
▁substitutions
▁neo
ulcer
▁240
ealand
aventricular
▁relaxing
▁aeruginosa
▁seizure
infection
xual
▁prednisolone
▁articular
▁Dip
▁underg
▁negatively
▁PWM
omical
▁intragastric
▁linearly
HIV
▁135
iception
▁dorsal
▁nonlinear
▁microtubule
viral
▁frozen
▁acini
▁operative
▁conditioning
▁colos
▁cooper
13.
LG
▁tumors
▁decompression
▁cuff
asses
▁zeta
idol
kidney
vents
▁1.3
ophag
▁bacilli
lebsiella
▁endonuclease
▁toxicities
▁FGF
▁Extr
-9)
▁Strep
▁phagocytic
▁blockers
▁humoral
▁Statis
ergenic
▁cytometry
atinum
▁grafting
▁REM
▁parab
▁136
▁drinking
▁reliably
▁(25%
▁progression
agic
▁microp
▁passively
▁dialysate
▁triphosphate
▁ultrac
▁EcoRI
▁Assessment
▁3',
▁chest
▁modulating
▁seated
gian
▁BFU
▁(1,
▁interacts
uprofen
reacted
▁antidepressant
▁brainstem
▁specialist
otoxic
▁TCA
▁sebaceous
▁accordance
▁(1.1
peroxidase
.0%
▁3-4
▁corticosteroid
astolic
▁trypsin
▁furthermore
▁9
▁anion
▁RR
52
iability
rogenase
▁neoplas
+/-
▁linkage
▁BW
▁Retrospective
▁adequate
▁outbreaks
▁Resting
▁expec
yrib
tionally
tryptophan
▁augmentation
▁[125
▁12,
▁ERP
▁Pretreatment
▁(32%)
▁pups
uron
▁gonorrh
▁ATPase
▁intracranial
▁desaturation
arose
▁ICI
▁permeabilized
ylated
▁79
-150
▁293
▁(89
▁atri
▁RNase
▁tegmental
erating
tized
▁intakes
▁analyses
lymer
▁pHi
▁oes
odalton
viruses
▁antioxidants
zation
▁reproduced
▁adolescence
▁bronchial
▁Estrogen
▁natriuresis
▁tolerate
▁crest
▁modulate
adrenoceptors
▁Baseline
▁plasmin
▁gilts
▁exogenous
▁estrus
▁immobilization
▁hyponatremia
emic
▁disruption
▁20%,
▁benign
▁.2
▁impair
▁tetanus
▁neurotensin
tinent
▁enflurane
-24
▁CAL
▁31%
▁308
▁luteinizing
▁negligible
▁6.1
▁comprises
▁castrated
▁Elevated
tics
▁pore
▁(31
ylic
▁162
▁oblique
▁INH
farin
▁odds
▁pregnant
▁6.9
▁interpretations
terologous
▁roentgen
ardipine
▁0.62
▁0.0001),
vian
▁1.15
▁warranted
▁Impro
▁160
▁mono
idym
▁androgenic
igarette
▁EH
▁colleagues
▁outbreak
▁295
carotene
baseline
▁contraception
olated
▁fura
▁alleles
▁fractionation
▁myo
▁(60
▁deletions
▁PGs
tabol
▁competi
ocytic
▁clonogenic
▁sexes
▁putrescine
entanyl
▁vesicles
▁angiotensin
▁177
hea
▁programmes
▁proinsulin
▁nephropathy
PHA
3,
▁20-
▁digoxin
▁ventricles
▁Overall
gestin
▁PCP
labeled
▁enhancing
▁insult
▁smoking
ugular
▁vasoconstrictor
seous
▁sensitivity
▁urticaria
▁(100
-16
▁Morph
▁sensation
▁3.1
havioral
molec
gol
▁triglycerides
49
▁transmural
reducing
▁2.4%
▁radiologists
-17
▁cytoch
▁CoA
▁(97
ystag
▁plating
18,
-1,
▁nitro
FV
▁mAb
ressed
▁modulatory
plicated
▁topography
▁hydrochloride
▁1,25-(
▁(0.0
▁Pregn
ocompatibility
▁11.8
▁depolarized
▁LTC
cycline
▁(1%)
▁hairs
tidal
-13
▁angina
consuming
rox
▁triflu
▁periplas
▁pH
153
▁Fraction
▁MG
emius
▁quisqu
▁diploid
▁radiotherapy
▁infectious
▁carbam
▁hGH
▁Physi
CMV
carboxy
▁fibroblast
▁acquire
ymp
romal
▁dB
rescine
3'-
▁vivo
imol
otidase
▁flaps
929
▁53%
▁sore
idium
tingu
▁Effic
▁NaCl
▁ribs
▁cleavage
▁excitability
▁FEV
CTL
▁conjugates
-30%
▁cascade
▁gallbladder
▁nonex
▁anatomic
▁categorized
▁aggregates
aceu
▁recurrences
phenylalanine
▁derm
▁grain
tRNA
▁17
▁unwanted
venth
▁infarcts
▁CVD
▁visually
perature
▁piglets
▁(44
▁nylon
▁saturation
▁regulations
▁inh
▁atropine
esic
▁mechanisms
▁synchronized
trig
▁AMI
▁adaptive
▁survive
▁oligomers
propranolol
▁infil
▁tryptic
▁PSA
▁Authors
▁planes
▁posi
▁VLA
▁Biochemistry
73
▁reviewing
▁interviewed
▁viral
▁chemilum
tituted
▁triti
▁12.5
▁paroxys
▁agglutination
▁myel
▁iodinated
echn
aminob
oplastin
▁(0.
▁resuscitated
▁Biochemical
Ly
resist
▁fibros
▁individualized
Asp
▁151
▁118
▁heme
chlo
▁colonoscopy
▁adjus
▁(140
6),
▁145
▁determinants
atoma
▁LPS
olum
▁enriched
inducible
yridine
▁cefaclor
▁accessibility
▁Significantly
▁carbonyl
▁(34
▁dilutions
▁prepro
▁attributable
adenomas
▁establishing
yron
▁GPI
iffusion
▁excluding
▁bradykinin
ADP
▁spacer
▁Animals
rogesterone
armac
amido
▁virtually
endocrine
▁antiv
ximide
▁carbohyd
▁DOPAC
▁revised
▁unrelated
▁aeros
▁buffering
▁employment
catalyzed
imental
▁264
diabe
▁5.7
ulates
▁pharmacists
▁warrant
infused
9),
5),
thmic
▁centr
▁laparotomy
▁fibrillar
cutaneous
▁condens
oporosis
▁dox
▁causal
▁10(-8)
cortic
▁serine
▁milder
tigmine
4)
oprotective
▁ultrason
▁Ace
▁axons
▁yeast
▁phos
▁questionnai
organic
▁attitudes
▁electrocardi
▁(1.7
▁doxycycline
▁cytochrome
▁Krebs
▁0.69
▁Enal
obl
cellular
▁GnRH
▁PFC
▁seroconversion
▁urethane
10
▁pyro
▁resc
iesis
▁averaged
▁erythropoietin
▁programmed
inum
▁hemolytic
▁Secondary
▁bicuculline
▁paradig
atoid
▁(1.8
-5'-
ulfonate
▁gluconeogenesis
▁bism
▁myocardial
▁AChE
▁achieving
reasts
ubertal
▁kd
▁0.65
glial
▁PDGF
▁dyst
-[3
ieties
ribose
containing
▁bloc
▁subgroups
▁kain
▁aorta
▁EA
▁puls
▁ultrastructure
▁2.8
▁BV
▁13,
▁100-
▁mammography
HF
azol
▁dna
enolpyruvate
▁carbox
▁genes
▁TGF
▁PLA
protein
▁ultrasonic
▁spiral
▁tomographic
▁10%.
▁stained
ognitive
helial
▁inguinal
gland
.3)
▁arcuate
odiazepine
▁specificities
▁antioxid
▁100%
temporal
▁(69%)
tance
pyrine
▁purity
▁amlodipine
▁exhibiting
▁oligosaccharide
▁sput
▁emo
8).
▁deem
▁Trypan
▁reliability
▁anaemia
▁61%
VL
▁lymphocytosis
ercul
▁abor
nowled
▁antifungal
▁prenatal
▁Dental
occus
▁1.4-
▁apoB
▁scrotal
▁exceeds
ascin
ympathetic
▁irradi
-8
.00
osclerosis
▁brom
▁facilitates
jected
▁ICU
ffeine
▁159
▁2/
▁ciprofloxacin
▁nonpregnant
▁asparag
▁evidenced
▁initiating
thmatic
▁controversy
tissue
▁72-
▁dyne
▁eradic
▁10)
▁doubling
▁nerve
▁transmitted
▁RU
▁athymic
chloride
▁etoposide
▁metals
▁intensive
%),
-1),
▁208
thanol
▁thymocyte
▁trophic
cancer
▁sti
ejun
14-
▁nephron
3;
HSD
advan
▁WBC
atories
minal
▁syndromes
▁fold
-2.
enal
▁anticholinergic
▁Changing
▁epileptic
▁4000
▁xenografts
▁disrup
▁abbrevi
4),
▁Fib
otropin
▁compli
triatal
▁perip
alasin
▁0.05).
disciplinary
sibility
IIIa
▁endocarditis
▁aureus
▁Comparative
kephal
torchid
▁radiographic
▁carriers
▁anatomical
▁parie
▁Combined
▁fructose
mortem
ographically
▁thymidine
▁autop
▁retardation
▁blast
▁ascribed
▁rodents
▁needle
▁PH
▁glaucoma
▁oint
▁ileal
▁haemolytic
▁transcribed
▁silic
/2
▁genic
▁comparable
trover
rotic
asthmatic
aicin
▁homolog
amyl
▁mesencephalic
▁hemispheres
▁excised
▁plas
▁Fc
▁dermat
▁traits
▁erup
▁FDA
▁peroxidation
▁survivors
000,
▁1),
▁heterosexual
▁ascites
▁Hear
▁fractures
▁Dys
▁155
▁refrac
▁loci
▁asial
KA
apride
▁Decreases
▁membranous
oxid
▁arabin
▁salicylate
iatric
umulative
tron
choles
000
▁accounting
5-
collagen
rals
▁(90%
▁corneal
phage
▁biom
▁neurokinin
metry
▁Retin
synthe
roxicam
orubicin
▁90%,
▁BN
▁avidin
▁commerc
▁Recently
▁cartil
opolysaccharide
▁117
▁7,
▁pati
habil
tisol
▁unfractionated
▁aminopeptidase
ration
tur
hesus
▁Ile
▁CCl
▁covalent
▁MPO
▁frontal
-2.0
▁fertility
▁Finnish
▁knee
▁infarct
trition
▁aminoglyc
▁(75%)
▁hygiene
▁clom
▁PD
adrenal
▁correlating
rophen
▁sensory
▁apparatus
4;
▁endos
▁tube
▁diphen
▁emergency
orenal
▁practically
▁observational
▁146
tively
▁tetr
▁moiety
ammon
▁erythrocytes
▁Various
▁iden
▁anesthetized
operox
▁autopsy
▁empirical
▁potentiated
atous
▁appendicitis
▁cGMP
xia
▁antigenic
▁biologic
denat
riceps
nRH
▁bleomycin
omegaly
▁ensuring
▁parat
▁monkeys
LPS
Menten
8;
▁panic
erus
▁reproduc
▁BRL
▁erythema
AH
propyl
ylline
▁organs
estradiol
Hg
▁gait
▁mimic
▁adipos
▁superfused
▁microns
▁Hib
imidine
soluble
▁codeine
velength
ogeny
▁heated
▁immunoblotting
▁overlapping
▁Histologically
▁tooth
▁recordings
ulline
▁spherical
▁2.6
▁mutagen
▁relaxation
▁viscosity
▁Triton
ystolic
▁9.6
▁rabbit
▁mobilization
▁antibodies
▁clues
PAGE
▁lymph
▁transfectants
▁DL
▁hypothe
▁Lactobacillus
▁unin
▁hyperb
inating
opre
▁medullary
▁Antibody
▁chromat
▁exacerbate
▁9.0
▁(1989)
▁phagocytes
antitrypsin
odg
▁termini
▁accelerate
▁subpop
▁flavin
▁rats
▁fertil
rolog
▁(14
▁sickle
▁pallidum
▁experiencing
▁anteced
▁3.2%
48
▁seminal
dialysis
lamp
▁repor
▁hybridization
ulph
▁0%
▁compressive
april
▁mature
TG
MV
▁perikarya
▁journals
.1%)
▁consensus
▁amplitudes
▁reentr
amers
▁PMS
asone
▁Gyn
▁remarkably
tenosis
.6,
▁myosin
▁positivity
▁stabilizing
▁123
▁Continu
▁lineages
▁intrap
ulence
umetanide
▁prol
ctomized
odermal
▁myocytes
▁desm
▁PaO
iodo
▁rigidity
▁PPD
▁Eight
▁Immediately
-18
▁mesoderm
▁Parkinson
▁hyperch
▁DMSO
▁tPA
▁stretching
▁4.3
▁bacter
▁CsA
▁multivariate
▁effusion
▁wedge
atidyle
▁TPN
amphenicol
▁inactive
(4
icep
▁coated
▁penetrate
assively
▁exponentially
▁oils
oracic
kling
▁histidine
▁methylene
▁Scale
titutes
ymme
cytochrome
▁Michaelis
▁spermatids
▁aneurys
▁scinti
entical
▁venography
arone
heavy
ceptive
▁microorganisms
▁niacin
trop
▁secretory
dibular
alact
▁pretreatment
▁physiologic
▁intrathecal
sulfate
5,000
▁distinctly
▁corneas
▁Enalapril
ysts
562
formin
▁ineffective
erative
oxic
▁46%
▁psycho
▁AII
lethal
▁posti
58
▁libr
▁transmembrane
▁40
▁thickness
▁summarized
ochromatosis
tabl
▁bFGF
▁cryp
▁potently
tile
▁bombesin
trip
▁expend
▁acoustic
▁shunt
lesion
▁transit
▁perit
▁(20%
▁inhalation
▁esters
plantable
▁dete
▁neoplasm
▁5
▁stabilization
83
acil
▁imipramine
▁196
versal
▁acuity
▁thorac
iary
▁laterally
geons
▁sciatic
▁leukotriene
▁cep
▁0.6
-14
▁reflexes
▁intub
▁MN
aned
veness
ept
▁aggressive
▁pI
▁cef
renzepine
▁conferred
▁accidents
▁perturbations
▁adop
▁dichroism
▁hepatocyte
▁chromium
▁transient
▁gamma
▁transcript
▁overweight
▁perfusate
compart
▁adoption
▁retic
▁deformities
reased
▁undere
▁DBA
▁bilayers
▁12)
▁myocarditis
ygen
▁cyclosporine
▁gels
▁LD
▁septal
▁48
▁reserpine
weed
19
6.
▁SPF
▁transi
estis
assays
▁ocul
▁bip
▁mechanically
▁antithrombotic
▁57
▁regeneration
▁antiviral
primed
▁compares
▁nitroglycerin
2+,
▁leucocyte
archite
rostagland
▁40%.
▁discontinu
▁epitope
itoneally
▁attitu
▁clinics
▁hemodynamics
▁Centers
osage
▁252
idone
athiop
▁microgram
▁retrospective
neoplastic
▁maxima
87
▁blots
alian
▁prescription
▁enrich
yrene
▁mamm
▁cytokines
NGF
▁quotient
▁molecular
neutral
▁severely
uretic
▁prevalent
SBP
iological
peptide
▁transverse
▁hemag
▁vitamin
matic
▁negatives
bodies
acholine
▁adversely
-3,
▁preovulatory
▁peripheral
keweed
▁Indo
ischem
▁hypotension
▁titrated
cholanthrene
▁cardiovascular
▁tendon
▁neutrop
depleted
▁morphological
▁exchanges
▁incorporation
rected
▁intranasal
wes
▁lethality
compared
iodothyronine
rele
flic
▁consciousness
▁weakness
▁Modified
▁immunocyt
▁PDE
andros
▁symp
▁53
▁shorten
▁homosexual
▁dilated
▁Clin
▁cortic
▁pressor
90,
idation
▁yearly
oreactive
▁cardiomyopathy
▁cyan
▁RP
▁institu
▁recessive
▁adriamycin
▁irrig
▁pmol
▁topical
▁thems
▁LH
▁Steroid
▁dorsolateral
▁macromolecules
aldosterone
▁Renal
risk
▁activate
icient
osome
phosphorylation
▁offspring
▁hexose
▁concom
▁sinusitis
▁subunit
BMD
genesis
▁fentanyl
▁(1.5
▁ferritin
▁0.8%
rates
serum
▁feeding
▁wk
-1).
linking
olesterol
▁intercellular
/+
▁shifted
▁4.6
oblast
▁344
▁Depression
▁nif
▁microtub
▁nondiabetic
-6
ophila
platelet
▁irrigation
omes
driven
▁postinjection
Mu
Mg
▁pige
▁acros
▁ventrolateral
leural
▁clustering
▁endosomes
▁reactivity
▁soy
enteric
▁anastom
▁initiates
▁(7%)
tryptamine
hybrid
-81
▁attenu
25,
▁interferon
▁angiogram
sisted
ungal
▁contracted
▁biotinylated
▁Neither
▁66
▁spectrin
▁embryo
aminidase
▁jaw
orated
▁BH
▁FE
▁0.36
▁plasticity
▁coenzyme
competitive
▁phosphoinositi
▁deprived
▁inhal
▁basophils
noradrenaline
zinc
tained
▁neon
▁supplements
tinction
▁symptoms
avage
:6
ceived
▁adip
54
ygous
▁ubiqu
▁algor
oplasmic
▁4
▁67%
▁papill
▁likelihood
bumin
▁continuation
noea
▁imid
-400
▁scars
▁erythrocyte
vedilol
▁fatty
zoster
▁9.5
▁saline
▁cardiople
▁lysed
▁1989,
▁RL
kinesia
▁1969
▁magnocellular
▁postmenopausal
▁professionals
▁560
olution
inated
▁consecu
▁inotropic
▁ovary
▁deficit
▁mAbs
odds
▁pronounced
▁lymphomas
▁chlo
inemic
lycerol
▁killer
othalamic
▁cholinergic
101
▁folded
▁borderline
ocortic
▁lymphoid
▁provoked
entary
▁gonadotropins
▁Indomethacin
thickness
0%.
omeric
.0,
▁TRH
▁141
▁arsen
▁renal
tran
tochem
-8-
vation
idiotypic
▁Sout
▁ferric
▁fulf
▁43
bic
limb
onset
▁Sulf
buterol
▁MIC
esides
.2)
otox
▁acco
▁catecholamine
▁parity
ysto
Ms
22,
odeoxyuridine
plications
ucose
/30
▁multis
itness
mediated
▁muscular
▁insomnia
▁nitrogen
▁tet
▁microc
▁Molecular
▁mmol
▁pertussis
▁dextro
▁retroviral
▁3)
ogeneic
odiaz
▁aor
▁cytokine
ietic
▁0.05)
anesthetized
▁untreated
13
trative
otonic
▁tumorigen
▁agonist
chicine
-5.
▁EGF
▁antibacterial
▁cysteine
utyryl
▁emptying
▁(+/-
otom
▁amiodarone
▁reared
:4
▁bioactivity
▁entero
▁avoidance
▁AFP
drome
▁streptococci
azin
▁appreciably
▁vaccinated
▁Prospective
▁MAP
▁piroxicam
glycoprotein
▁encouraged
▁stimulates
lective
oleucine
▁strepto
▁eukaryotic
▁wheezing
orporeal
▁elucidated
▁interdig
▁38
ternational
▁pediatric
▁156
▁unpredictable
istal
roma
▁substituted
ogenic
▁nicotine
enone
)-1
▁Cycl
▁drain
▁Large
▁gonadotropin
▁bacterial
▁attrac
▁130
▁morb
trous
▁creatinine
▁pea
radi
▁gradi
▁remn
▁0.97
▁Calcium
tyrosine
▁myometr
.6
▁mitogenic
▁sprin
▁diminution
25-
▁pharmacodynamic
▁reflux
eliac
▁endogenous
fibrin
▁gradual
▁pig
▁Trp
▁encour
yramine
▁geriatric
▁survived
▁collec
▁clamp
▁7.3
▁gliomas
▁intrac
mide
▁ingested
▁23,
▁unreliable
▁ventilated
▁mammary
sian
▁fibrous
▁weighing
osity
▁adjusting
▁Examination
▁identi
▁norfloxacin
gulatory
▁(33
▁277
▁prosthetic
-1
▁theophylline
▁determinant
imid
▁baroreflex
mental
▁1980
▁litter
▁postre
▁adenocarcinomas
▁hypothetical
▁substrate
▁Sertoli
▁choroid
▁placebo
▁plotting
▁cloned
▁occlusions
▁5.
▁2.2
▁faeces
▁blastocysts
▁ward
ordination
esthesia
▁prostatitis
gm
)2
obarb
▁deferens
▁uve
ofluorescence
▁antithrombin
▁Interestingly
▁autoradiography
▁ethical
▁spp
▁58
imentation
▁polymorphisms
▁Diff
aturity
trone
parag
▁subfractions
19.
▁canine
▁0.41
▁paced
▁spro
ergency
xanthine
▁deficient
▁TP
▁porcine
▁guan
▁microsomes
▁chromosomes
▁70
lue
▁Maximal
▁adrenoceptors
▁cutaneous
▁tricyclic
▁mening
ubicin
▁gating
▁320
▁1,4-
▁ascertain
ensitive
ochondr
▁cited
thymidine
▁lae
▁0.08
▁chord
cad
glutination
▁panc
-4
▁EBV
dermal
▁virul
▁hyperthyroidism
▁quantify
schem
▁indomethacin
.1)
insensitive
▁Registry
EPs
▁excre
▁subcortical
▁3.4
keleton
▁hrs
▁polarized
▁lipolytic
iaz
▁projections
▁renovascular
xone
centered
▁inappropriate
electrophoresis
PRA
othiaz
ecutive
▁emerg
specificity
regn
▁HS
▁eosinophil
▁sclero
gluc
▁separating
▁(31%)
systolic
orption
purified
▁prono
▁conformations
▁thrombotic
▁172
▁monoxide
.5%
▁recognizing
▁Immunohist
▁measles
▁Lyme
▁progenitor
▁respiration
▁Prob
▁cleaved
▁2,000
▁catalytic
▁leukocyte
liters
▁interviews
▁centrally
PCR
▁GMP
conversion
▁periv
pG
▁103
▁concordance
tially
▁bic
▁minority
liteal
▁chori
▁aromatic
▁proteases
classified
▁phages
RCA
▁fetuses
▁4.5
aminophen
▁Fourteen
▁incompetence
23187
▁decade
chlorothiazide
▁asymmetric
▁randomization
▁cran
▁quinolones
▁nal
▁solids
▁99%
▁inflammation
▁continuing
▁motility
nutrition
licular
▁resuscitation
▁HLA
oxyn
rogenesis
▁capsaicin
▁correlations
rought
▁0.49
▁relaxed
▁shedding
▁ulc
tise
▁extraction
▁necrotic
ovol
hydroxybutyrate
▁pyr
▁Kup
▁kilobases
▁calibration
▁stratum
▁unsuitable
▁75-
▁beneficial
▁Injury
▁arteri
icated
▁(95
▁typh
▁0.04).
▁(3
▁skinfold
tural
edle
▁preparations
▁hep
▁6.
▁kDa
▁tropomyosin
▁therapist
▁phosphorus
ainamide
facial
▁hindlimb
dial
▁0.03)
▁neuropathic
▁1.12
▁phospholipase
▁optimally
acycl
▁consumed
0%
▁Diets
▁(50%)
▁tonsillar
▁enal
▁neutropenia
ymptomatic
▁hepat
▁11%
▁facilitating
0%)
ostatic
pectively
▁1990.
▁nitroprusside
omod
romethyl
severe
▁taurocholate
▁psychological
▁NT
▁cohort
▁harmful
322
terolog
tional
▁waveform
▁(2.0
▁Incubation
▁aluminum
▁stresses
▁ryanodine
-1.2
sorption
6,000
partum
degree
lline
▁circulating
feren
MIC
▁medications
▁0.91
▁intrag
344
tocin
9,
▁1500
▁adipocytes
blockers
▁WK
▁discriminant
irds
▁discontinued
▁anaerobic
ethanol
ospecific
▁curative
▁94%
units
▁phosphatidic
5;
▁1.2-
▁murine
iliated
▁1,0
▁spi
▁Estim
▁Recom
▁infected
▁RII
▁apprec
▁Topical
▁.1
▁shaft
ipheral
▁immunoprecipit
▁buc
ystic
▁cis
▁transcriptional
ocyanin
.0
ducts
▁debris
-2.5
▁peaks
▁(77%)
estrogen
▁enrichment
Ev
▁elec
usually
▁implying
▁Peak
▁ontogeny
:5
-22
namic
terminal
▁tidal
▁arrhythm
obenz
strual
▁cellular
restingly
▁matur
▁PLC
ositive
▁rated
▁isoleucine
inhib
▁inactivate
▁cytology
uation
cetin
▁113
▁50%.
urgical
▁cortical
▁metronidazole
sectional
PAC
▁bronchoscopy
▁Recent
▁latency
▁0.71
▁71
ocytes
▁abnormality
▁envelope
▁vacuoles
▁epilep
urospor
61
rein
dii
opyran
▁Subsequently
tage
▁experimentally
▁thereafter
▁satisfactory
ocytoma
atization
deoxy
aminases
sial
▁(50
▁10.0
▁outward
▁crosso
▁circadian
▁myrist
▁mild
▁suspicious
▁(4.8
opathology
▁nursing
▁0.3%
▁filaments
hospital
▁bacterium
▁Chlamydia
▁interference
tak
▁5.8
1.0
▁karyotype
asive
▁repaired
icides
▁unde
▁murmur
▁(15
▁fulminant
▁pyel
400
▁disloc
▁eminence
▁bacteremia
▁propranolol
▁suspensions
Pen
▁periventricular
▁hapten
▁laboratories
▁cardi
molality
▁microscopic
fluo
▁irreversibly
▁230
epam
pressive
alveolar
▁HDL
abbit
▁glyburide
airy
▁heparan
▁tumor
ximal
▁Biopsies
▁consequently
▁defic
arity
PDE
ribosylation
▁junctional
plying
.2%)
optimal
sAg
▁polyc
▁preoptic
▁0.1,
▁assessment
▁Adverse
.5%,
▁openings
▁benzyl
▁weekly
▁apical
▁Respon
▁inhibits
▁90
▁identifying
▁8%
▁increas
▁tablet
sors
▁marrow
▁unm
▁physic
▁3.
▁intensities
▁displ
ohyd
▁78
PW
formations
epti
aced
dyl
▁14
▁83%
▁succinyl
zyme
▁adequ
▁Leu
▁decarbox
▁enteroc
▁births
▁placement
▁osteoporotic
▁methanol
▁exudates
▁intrav
-52
▁kinetics
▁metabolized
grams
▁hemisphere
rogra
▁trach
iciencies
▁abnormal
▁dioxide
residues
▁HC
▁GGT
▁Neuro
normally
osmotic
-20%
inely
▁DHEA
▁8.2
retic
▁Prevention
▁optic
stained
trical
promoting
▁islets
▁dimer
▁amines
oplas
▁phosphoryl
▁vagin
▁hypop
rozen
▁thiol
oglut
/5
▁favored
▁acad
▁trimester
▁awa
▁dialys
▁colic
▁acidification
▁emin
▁ubiquitin
▁lens
▁8
▁50
yzed
▁sut
▁calculi
10,
▁discrep
▁doxorubicin
▁energies
▁CIN
-450
▁thyrotropin
fron
▁clotting
tense
▁Absolute
▁ey
dotoxin
vus
▁20)
▁monoclonal
proton
teric
▁cranial
oping
▁tubules
venty
▁broil
▁treatments
natal
-1-
▁expectancy
▁40.
▁wake
onium
▁macroscopic
▁8)
▁Kinetic
▁atmosp
▁myelogenous
-10
▁0.23
▁lorazepam
▁anaesthetized
ensities
▁(-)-
▁GLUT
▁melatonin
▁extrahepatic
▁theoretically
▁0.55
▁MDR
▁195
othelial
▁aggregated
▁Hyd
▁transferrin
icine
roline
▁conjunctiv
▁valves
sess
▁lithotrip
▁2,3-
▁pA
▁ure
62
▁cytogenetic
▁BMT
orpor
▁10,000
▁omega
▁osm
▁discharged
▁109
cine
▁fathers
▁[3
geneic
.7
▁comprise
▁transporter
▁cofactor
▁.05).
▁follicle
▁endocardi
▁findings
▁2.3
▁11.
▁aggres
▁enantiomers
▁HR
▁cadaver
▁10(9)/
anthrene
amn
▁uncovered
tir
turally
▁shrinkage
otoxins
▁neocortex
▁188
▁kainate
presenting
:3
▁benzodiazepines
▁EMG
hap
▁neurop
▁glucuronide
▁(38
▁noc
▁antihist
umic
▁glutamic
▁Sodium
-38
▁AK
ocytosis
▁BCG
▁-0.8
tib
▁dipyridamole
▁PF
▁erythropo
▁vagotomy
4'-
▁retinol
▁deoxyribonucle
tants
perfusion
▁Organization
riamycin
lpr
▁gynec
▁distal
cycl
▁elast
▁elongation
▁estrone
125
▁ergometer
▁methodology
▁unsaturated
DCK
▁relieved
▁dissemin
▁tolu
▁conductances
▁positives
kinase
enin
▁hybridized
▁Iso
aspartate
▁terminals
▁regen
▁reser
VT
▁14,
▁acr
▁0.44
▁ether
▁appropriately
▁pump
▁femoral
▁microscop
▁cyclo
▁anis
▁Thromb
quir
▁dissection
eration
▁187
▁4.7
▁overex
▁canc
▁scl
▁decreas
▁17.7
▁histones
▁endopeptidase
▁psychiat
▁deterioration
esity
astom
▁sensitization
▁dosing
▁metabolism
tally
▁cerevisiae
▁polymers
▁enzymes
▁promp
▁evaluable
▁morphometric
glia
▁superoxide
exercise
▁vibration
▁sutures
aturia
▁56,
othyroid
▁chances
olip
▁codon
▁breasts
▁fused
▁modality
actam
glucosamine
▁asparagine
▁149
▁originating
▁juvenile
▁markedly
traum
▁chromatographic
amagnetic
▁-4
▁subarachnoid
▁cerebellum
taz
▁inverted
▁OC
conduc
▁dial
thirds
osarcoma
▁MHC
▁spind
▁paracrine
▁euk
▁Eighteen
▁functioning
▁disclosed
atening
▁9.4
blockade
▁(18
▁advised
▁nights
▁contiguous
▁intersti
ysm
▁specialized
copic
averine
▁pant
▁87
▁fluores
▁Enterobacter
▁4.8
biased
▁(5.3
▁27,
▁-12
crip
▁mumol
▁dithi
▁vWF
▁MAO
▁indicators
iloride
▁coronal
plic
9).
▁compromised
▁LMWH
▁5.2
▁digests
▁synchronous
visc
▁participates
▁grossly
▁Thir
agonists
▁homocysteine
▁propionate
▁calcified
▁exclusion
carbon
▁sarcolem
▁microvilli
▁therap
▁GSH
ignant
lipid
▁ethnic
▁positioning
90)
anthine
▁oligomer
▁packing
▁disability
▁metabolite
▁syncy
organisms
ogl
▁hypnotic
▁recombinant
▁tympan
▁permeation
▁interventions
▁endotoxin
▁voiding
▁VIP
▁hepatic
▁calibr
pharyngeal
absorption
▁Ia
▁smoked
▁melanoma
▁saturated
▁basolateral
▁relap
▁logar
▁trout
heat
▁dehydrogenase
isters
▁cytotoxic
▁abrog
micro
30)
▁6),
uminal
▁astrocytes
umented
▁radioligand
ircular
▁ligands
▁cortisol
▁validity
▁homozygous
▁chronic
vac
▁isoform
▁clarified
▁Hz
▁phenomenon
▁alcoholic
▁Computed
▁(1
ogluc
2+/
erence
▁breakthrough
▁urine
illance
▁Melan
▁distinctive
▁dehydration
▁varices
▁MPTP
formyl
▁mosa
▁thrombocyt
▁Eco
▁72%
▁elevating
ficial
aminop
▁neurites
▁gluten
▁abnormally
▁40,000
▁antich
toxin
ithmic
algia
(+)-
tiazem
▁Bec
excluding
▁insignificant
▁migrating
▁uremic
▁Lact
▁hormonal
▁hyperpolarizing
▁dialysis
iceptive
▁1976
▁78%
tite
▁undetermined
▁abolished
-1+
▁meals
▁glutamine
inhibited
▁(11
▁fulmin
▁yrs
▁isop
▁overlapped
iron
▁95%,
▁VH
▁synthesizing
▁haplotypes
▁indus
▁stimul
▁Adh
▁parenchymal
ilding
opathy
ocardial
▁sediment
▁RBC
▁diabetics
▁complaint
▁0.83
receptor
▁mixtures
▁immunochemical
▁furosemide
▁glucose
▁MNC
▁distress
ygdal
▁neutrophil
hest
aldehyde
corticosterone
▁hybridoma
cyclic
▁aerob
▁posth
▁parv
▁26.5
▁turnover
▁implanted
▁intraepithelial
▁msec
▁capsule
▁17.1
▁lacked
opres
▁radiol
▁isometric
▁tendons
▁ABR
▁Nucle
▁15)
▁CAPD
▁toxin
▁Removal
▁hypers
▁irritant
-(1
▁nickel
mittent
▁nifedipine
illus
1]
ophilic
▁rGH
▁adipose
▁hydrocarbon
NH
▁microscopy
▁recurrent
▁feline
▁shortest
▁.00
▁1,25
▁acidosis
▁electrical
▁fron
▁mandibular
▁cys
tory
▁macropha
▁DHT
VIP
/100
▁recurrence
▁affec
▁discharge
▁CAT
▁129
▁virgin
thi
▁thymus
verages
▁enlarge
inally
▁cylinder
▁Perc
▁(47
azepam
▁Partial
iatr
spectively
▁palli
▁6.3
▁dramatic
ymal
▁symptomatic
▁18.3
▁methacholine
▁coordinated
spin
rangements
▁-3
▁16,
▁solitary
▁lytic
▁harmon
osuppression
▁Effects
tisone
▁indefinite
TSH
▁MLR
CRF
erebr
pyruvate
operatively
▁ELISA
▁crystals
sequent
intestinal
▁histochemical
▁cilia
ochrome
▁mt
▁enhancer
▁haemoglobin
▁digesti
odend
-8)
RBC
ffinity
▁carbonic
38
tinguish
▁unid
▁flap
Thr
▁buds
RIF
▁adenosine
▁6%,
▁eosin
▁PEP
cardiac
▁NIH
▁motoneurones
▁(1.4
tases
▁hCG
▁presynaptic
atches
nals
osacral
iprofloxacin
▁plethysm
▁ruptured
▁radiologic
▁imposed
▁excl
▁ingu
▁hypercal
▁Patient
Kyoto
▁qualitatively
peak
▁thrombo
plenic
▁physician
▁estrogens
▁durable
▁mutations
▁absorption
▁Atrial
tition
ogenesis
▁polymerase
▁embryos
▁corne
onate
assium
ypass
▁subtypes
▁preeclampsia
▁stric
arrhy
▁0.01,
utyric
enem
▁kD
▁forsk
130
gmental
▁proceeds
▁hemopoietic
▁adrenocortic
fibrate
nitrophenyl
▁AGA
▁Clostr
transferase
▁relaxations
▁Higher
cAMP
fected
ducing
▁0.25
▁predictive
▁disproportion
13-
▁auditory
HV
▁limiting
▁perceived
▁(0.01
▁perturbation
▁0.005)
▁motifs
chlorophenyl
▁attenuated
▁Nineteen
ourinary
▁mediate
▁complication
▁unresponsive
▁elbow
▁201
ogenin
arcomas
▁cation
otone
idovudine
obases
▁DD
76
▁discrimination
▁villus
yrate
▁apex
▁asymptomatic
HPLC
asthen
▁prognosis
▁1,25(
▁undetectable
ploy
▁17,
▁cones
-43
▁synergistically
▁tamoxifen
▁heterologous
▁basilar
▁70%
▁sequentially
▁243
▁pentagastrin
▁retrovirus
▁allyl
▁replic
calmodulin
▁strengthen
▁229
▁importantly
rase
ANP
▁pK
▁mesen
▁hemodialysis
opathies
▁miti
▁AIDS
oxone
▁anastomosis
▁psychosocial
▁allele
gestation
sy
bisphosphate
piper
▁overestim
▁pressures
▁84%
uitable
▁infused
▁IgA
▁overexpression
▁inapp
hicle
▁detrusor
▁GAP
▁Inventory
Km
▁Percoll
adecanoyl
ycl
initi
ibrate
chym
▁lobe
▁pyrid
ximum
▁muscimol
▁angiography
▁Drug
▁dividing
▁lasting
▁tritium
▁glucocorticoids
▁inhibitors
▁NIDDM
▁isotope
▁examin
▁cyclooxygenase
▁Caucasian
▁iso
▁declines
▁CHF
▁Concomitant
heum
7]
▁alcoholics
iant
▁71%
▁hypophys
▁(64
▁mim
▁GV
bilities
▁ae
▁dithiothreitol
▁CHD
▁embryonic
▁atopic
▁electrolyte
tened
▁stenoses
▁(5-
▁exerted
▁recipients
▁rho
▁refine
▁11.0
▁evid
▁APD
▁clonidine
▁awake
lofen
ventive
edema
▁neoplastic
▁lateral
oxyl
▁duoden
RF
▁SBP
elan
RB
▁hypertro
▁24%
▁[35
-12
sac
▁focal
▁tracheal
▁beds
▁sows
▁digestibility
▁equilibr
▁extrav
▁dried
16-
dered
▁reflects
▁carcinogenic
▁worms
▁ascorbate
▁TIL
▁antidromic
▁203
2+-
▁HindIII
▁aspir
ithi
▁LTB
wk
▁longitudinal
▁dexamethasone
cholinergic
▁intravenously
▁virions
▁radiography
▁excretory
937
▁nephrotic
▁attrib
▁8.6
▁BD
▁alcohol
▁neurological
▁Phy
▁bacteri
▁Pain
▁emphasized
itin
▁hybrids
▁cytoskeleton
valence
▁insertions
razepam
▁inherent
▁97
aline
▁hyperthermia
▁phosphates
5%).
▁conjugated
▁sacrificed
▁9.3
▁colloid
iferation
▁reinner
▁0.9
▁88%
▁reactive
vated
▁16-
▁ALP
▁40%,
▁Sixteen
-90
lym
adm
▁27%
arms
▁tertiary
▁glyc
ectable
▁dissociation
▁granular
2;
▁cytosine
▁exis
▁stellate
▁2.8%
itary
icients
▁cobalt
▁29
ovalent
irubinemia
▁accumbens
▁pallid
ographs
helical
▁torsion
▁vomiting
800
▁nucleolar
▁PB
endothelial
▁transesophageal
rhea
compartment
▁Mycobacterium
▁heterodimer
▁descrip
▁hyperplasia
▁penetrating
ylchol
adine
sensitive
ancre
▁21,
4).
tif
▁hypertension
▁Serum
IH
eled
osteroids
▁(1.3
pirin
▁solub
▁undes
ullary
▁Dop
▁Macropha
▁retrogradely
▁isotype
electro
zotocin
acchar
▁reviewed
▁perinatal
▁serotonergic
5)
fate
▁hydrogen
▁intraoperative
lining
tensin
▁NTS
▁collateral
▁muscarinic
limiting
corrected
▁28-
▁relevance
▁neurob
▁albeit
▁melanin
▁bite
▁subpopulations
monophosphate
Tl
▁epidemi
aminated
▁PTH
▁intima
▁cerebrovascular
▁imaged
▁bridges
▁2-3
▁deleterious
▁trend
crimin
oxo
▁tissue
▁Beta
▁temperatures
▁prophyl
▁preincubation
ACTH
▁snail
eptin
▁Clinical
-10(
▁lamina
▁6.7
▁pathogenetic
▁RS
▁emesis
▁750
ustif
▁Vascular
▁chel
▁preincubated
yanodine
▁extrinsic
▁imaging
▁CSF
ticularly
▁haemodynamic
▁obese
▁CAD
▁parietal
▁chickens
▁Elec
▁ChAT
timal
▁lethal
4%
▁accurately
▁catechol
tituting
[3
▁photon
CABG
otrypsin
▁25-
▁adipocyte
▁10(5)
▁TA
keratin
▁placenta
▁insom
▁bumetanide
FN
renaline
itals
▁198
▁(88%)
Gy
▁adequately
▁200,
▁endo
▁carrier
▁1985
irub
▁vitreous
lasses
▁tetra
ordant
▁grating
▁chemot
▁spreading
▁Sepharose
▁22,
▁depress
1/
▁colocal
▁Gs
aints
▁pathological
-20
▁Eighty
▁explants
ophysiological
▁Viral
▁Bronch
neu
▁potenti
ponential
▁increasingly
▁plaques
otting
azolium
▁tic
▁enhanced
▁benzoate
hydroxys
▁tetrap
inflammatory
ronate
▁Physical
osine
▁prolongation
uccin
▁(51
GFR
▁inorganic
▁phenotyp
▁fenoterol
▁(4
▁sensitivities
lodipine
yridamole
andida
▁EAE
▁activates
ifferentiation
▁acin
▁referrals
▁gonad
▁0.98
▁leucocytes
avir
▁doxazosin
▁ultrasonography
▁Calc
resistance
▁1.5%
▁kcat
umptive
▁1985.
-0.
▁hepatocellular
▁parasympathetic
pinephrine
▁ori
odium
anking
growth
tead
▁postmortem
▁aberr
rotoxin
▁pollic
▁cephalosporins
ylene
hetamine
2.2
Barr
meth
▁4.3%
iazide
roitin
thiazide
▁respondents
▁fluorescein
▁residues
serine
ervative
▁2,4-
earing
▁stimulated
▁phosphorylase
50)
▁polyunsaturated
nai
▁3'
▁adrenaline
4+
▁monomers
▁autocrine
▁productive
▁51%
amethasone
IDDM
iflu
phosphatid
▁plasma
▁continuously
▁4.5%
sych
iol
▁GTP
▁morphologic
▁(3%)
▁visits
▁thiop
▁instability
ilts
▁eliminating
CDD
▁mathem
▁dementia
▁3.5,
▁exceptionally
▁normalization
oalveolar
▁(400
7),
▁(70%
▁63%
tation
▁perfused
▁neoplasms
▁derange
▁insemination
DPAT
methylxanthine
▁inspiration
himbine
ycin
▁antipsych
▁differing
mega
▁dye
▁strains
▁sulfon
▁lysosomal
PSPs
▁sickness
▁MRL
5%),
benefit
atosis
▁1.18
▁isoenzymes
▁3',5'-
thema
▁resection
essment
▁(40
▁spinal
▁TMP
uric
▁PGD
▁unaffected
ococcus
▁larvae
genic
enoic
▁aeti
▁Twelve
▁GFAP
▁11)
▁triglycer
▁aging
▁alanine
▁suscepti
▁0.01)
▁59%
HSV
▁deple
▁brachial
pressure
▁carnitine
acron
▁consuming
roin
ociation
▁intrathe
alc
▁adjusted
dU
▁phenylalanine
phylaxis
▁morbidity
▁synergism
▁sulfate
chool
▁FD
▁progesterone
smokers
▁tightly
adrenaline
Gln
▁infar
▁noxious
▁lipids
orepinephrine
oneu
sions
▁9.8
(1
ralfate
▁diarr
▁(25
▁anoxic
idated
1210
pontaneous
-1;
▁acrome
▁strep
zot
▁stereospecific
ronchial
inescence
pregnant
ithm
▁monocytes
pulse
-80
▁teratogenic
lected
▁phospholipid
▁umb
▁extravas
timulated
▁facet
olarization
clusive
▁glycos
▁0.78
prisingly
▁60%.
▁trache
▁attending
▁denaturation
▁hydroxylase
breath
▁17-
resting
urea
ailure
▁overl
▁stimulating
tention
▁ultim
▁infrequently
▁cobal
AIDS
▁suckling
coronary
▁HMG
▁HPV
▁CGS
▁glutamate
▁evaluates
▁8.1
reement
▁gallst
79
▁pigmented
▁modif
▁transplants
eptic
pread
▁calcium
valent
▁GAD
▁accumulated
epine
▁chronotropic
perfused
▁Intr
ochle
kDa
▁rabbits
▁residual
▁Individuals
hion
▁Biol
▁mucin
.6%)
▁lenses
50.
atients
-1.6
▁exagger
▁4.
▁hamster
pleen
▁microelectrode
fibrozil
oves
▁Tg
▁blastoc
▁leuc
1.
▁emotional
4,5)
▁pyrophosphate
6/
▁hemorrh
astric
▁anesthe
osin
▁0.05,
▁mandi
▁condensation
63
▁amoxicillin
▁chloride
▁intervention
▁nitrocellulose
lectively
▁2,
▁6,
▁piper
▁joints
irradi
▁Behavioral
▁350
▁309
isol
▁6).
▁acyl
▁malign
▁249
kground
ophylline
▁cyclosporin
perg
▁silicone
▁(60%)
ycardia
▁notic
ulses
▁complementary
siella
▁rifamp
▁analogous
effects
▁trends
▁bovine
nitine
▁hyperbil
▁0.56
▁VE
▁duplic
▁coincided
00
▁methionine
▁indirectly
adecan
▁mans
▁decreases
▁sharply
▁Adriamycin
▁saturable
hemoglobin
▁artificially
▁ambulatory
▁(45
▁(49
Bmax
▁characterize
▁sequenced
▁7.7
▁0.5%
cence
▁answ
▁stably
▁predictors
▁tac
▁reproducible
termined
▁evaluating
▁Sprague
▁ischemia
osylation
▁phyl
▁relie
sorbed
▁reside
9.
uin
▁insufficiency
▁(+)-
omedial
ococcal
▁11.2
▁257
▁transcriptase
▁subcellular
▁disorder
▁Whole
oceptor
0.00
▁crystall
▁Ery
treatment
▁causative
▁gloves
ventil
itone
inopril
▁reacts
▁kallikrein
▁trin
▁EPA
▁(30%)
idinyl
▁unsuccessful
▁rhabdomy
▁96%
▁alkali
▁polyacrylamide
trained
oides
lysin
threshold
▁conflu
2%
▁sensitized
▁amounted
8]
▁ranitidine
cytes
▁atheros
▁5%,
measured
▁triceps
▁Measurements
adders
▁backbone
▁secreting
▁disulf
▁conditioned
▁parotid
▁thromboxane
crist
prol
▁FITC
▁nonsmokers
▁catar
▁thiols
DOPA
aemia
yster
kely
▁60.
▁(5
gag
▁warts
▁abstin
olecular
▁cGy
▁unexpl
▁cisternae
▁Cooperative
▁pulmonary
▁DF
▁Reduc
▁monovalent
▁antisense
▁enthal
enediamine
▁chelator
admium
▁74%
vember
▁Plasmodium
titute
▁93%
2,000
▁psychomotor
▁4.2%
▁cerebro
▁(2,
ganese
▁163
thle
▁amenorrhea
▁emboli
▁lactation
▁membran
21.
▁cG
▁6.5%
▁levodopa
▁incompletely
▁MAb
▁leukaemia
MAb
34
▁catalyze
ocaine
haem
▁transcripts
muscle
▁relaxant
▁Selective
▁1.04
▁unaltered
▁catheters
.4%)
▁mineralization
▁Increased
▁inflow
▁chlorpromazine
▁ventilator
4.1
▁equivalents
▁Milk
)-2-
▁abduc
▁allelic
▁intestine
▁glu
▁vaccinia
▁sulf
▁glycoprotein
ophren
▁centrifug
▁immunization
(2+)-
▁CaCl
▁coping
EPO
oviruses
otine
▁hypotensive
▁Schwann
▁contracep
▁ferrous
ocamp
ysed
▁OV
1%
being
molecular
▁anore
▁0.63
▁183
▁cure
▁urinary
66
▁IK
▁(71
▁cardioplegic
▁submandibular
▁perception
▁heterozygotes
brain
romedial
▁anticonvul
▁azide
▁hepatotoxic
▁normalized
▁usefulness
▁1.75
onstric
lamydia
▁staining
▁phenomena
dependence
istar
cells
minis
approximately
kinson
▁roset
▁cytoplasm
▁hypoglyc
▁distortion
quamous
▁utilized
▁competitively
▁72
▁lifest
▁resear
tant
/18
azosin
▁gastrin
▁appendix
adone
Asn
▁1200
▁EPSPs
▁slices
▁calves
HM
elong
-72
ofruc
▁KCl
▁peaked
antitative
▁physiologically
anoid
▁equivocal
phosphor
ophosphate
▁absorbed
vaccination
▁Sequence
▁posttrans
▁LMW
▁allergen
▁20.
▁0.5-
stranded
olitis
mediately
▁incidences
▁hemorrhages
▁awareness
▁intercostal
▁absorp
opeptides
▁barb
IAA
▁chambers
▁ODC
▁1-2
ields
▁radioiod
▁shrin
▁glia
nee
▁Extracellular
ucleotide
oreductase
olipin
inj
rents
▁7.1
obronchial
▁macromolecular
▁unim
▁Hep
▁0.04
imidazole
▁microliter
▁sulcus
▁fimbr
amination
ynaptic
▁spike
▁transfused
ventricular
▁psor
▁eluc
ially
▁pollicis
▁Thereafter
kade
omethyl
▁8),
▁archite
▁pem
▁pathology
▁4-
▁55%
▁intake
▁fever
▁3.4%
▁suppres
heric
▁dendri
albuminuria
▁arom
10)
▁describ
▁40%
arboxylic
▁probe
tokinase
▁colchicine
▁(1988)
▁repolarization
idov
omn
philic
parous
▁encephalopathy
▁oxym
▁Correlation
▁angi
▁caries
ropyl
2318
dividual
orphin
▁wee
▁spermat
▁cardiac
Bs
▁atherosclerosis
▁polyps
triglycerid
oAbs
▁constipation
▁ranging
▁deformity
▁vestibular
traction
▁66%
▁Actin
itro
bular
lyce
▁lacking
▁cycloheximide
▁prostatic
imodipine
▁prosthesis
▁hypocalcemia
allik
Au
Cer
sufficient
otides
▁pathogens
ophores
▁cooperation
▁bromocriptine
▁plexus
▁slowed
▁clind
plantation
▁cigaret
kilobase
ovine
HCl
▁ternary
▁cytological
▁nulliparous
vinyl
▁syncope
ominant
▁1.56
▁promin
▁TDI
acylglycerol
▁0.11
▁latencies
converting
▁Complications
▁Doses
rength
hydroxyp
▁prosthe
irradiated
sts
▁adminis
▁DCA
cyt
▁elas
▁rup
▁clones
▁erythro
ocyanate
▁divergence
▁pairing
▁cues
▁generations
2(
▁positioned
▁TS
fraction
Glu
▁hind
urc
▁symptom
▁30,
▁Diabetes
acking
▁naf
ancomycin
▁rejection
▁perfor
▁venom
▁mU
▁10
lobin
▁(89%)
▁mep
▁hyperlipid
▁degeneration
▁syngeneic
dehyd
adder
▁reag
▁inoc
▁accessory
lamyd
▁220
-70
tamine
▁heterodim
orax
▁oligos
▁skeletal
▁exocrine
Ps
▁pound
LH
▁autonomic
▁prostacyclin
▁baroreceptor
▁juice
▁61
otypic
▁Systolic
tial
olol
▁obstetr
▁asymp
▁Pseudomonas
yrosine
▁Gd
heresis
▁12.5%
▁vaginal
▁0.7%
▁bronchospasm
9%)
▁Criteria
▁acquiring
▁PLP
▁MV
▁denat
▁chemo
ypro
▁Ech
▁reacting
▁NP
opam
▁vascul
ogenicity
▁monitored
tipation
▁(0
▁neph
▁maize
▁transferase
▁immobilized
ethylene
individual
▁distension
oprolol
▁165
ierarch
▁sodium
▁spontaneously
▁ruminal
nisolone
▁Hodgkin
roxen
▁grading
▁Phase
▁0.
▁novo
▁Metabol
▁buffered
▁1.2,
injury
▁glomer
pirone
▁athe
▁aerosol
:1)
▁occupational
▁expulsion
▁prevented
▁desatur
opes
▁capsid
▁trough
▁capillary
PaO
▁1.02
▁delaying
▁androstenedione
itron
▁76%
▁IAP
olam
osidase
▁sheath
▁sampl
onidine
-96
▁likewise
▁190
▁progen
▁12%
ocul
▁(37
▁excision
ofil
▁galactose
▁benz
▁confluent
▁rt
▁surviving
ocrom
▁depolar
▁GM
▁tibia
▁3;
GD
▁VA
▁ventricul
dL
▁enalapril
▁introns
▁(4.6
▁estrogenic
▁assis
ainide
▁planar
▁Kd
▁lys
▁adi
▁sarcoid
-44
rous
hydraz
▁papillomavirus
sia
▁symmetrical
obarbital
▁unbound
ivered
TCA
Ala
▁Concentr
▁parap
▁precedes
adap
▁cruc
▁systematically
▁IIb
DDP
▁thirds
▁immunized
▁bronchoalveolar
▁adren
▁systematic
tency
▁deferen
tinguishable
irubin
igaret
roscopic
7)
ilization
▁oncogene
othreitol
othermic
proline
▁contras
▁ARDS
▁incorporating
▁deposits
-41
▁mell
▁anomalies
▁chains
▁cryopres
ughter
▁anions
▁axonal
▁preferentially
▁disposable
ellar
supplemented
performance
rever
▁0.0
membrane
▁osteocalcin
▁euthyroid
81
▁(68%)
▁Tran
azepine
▁Bacter
57
▁appendic
▁75
▁mannose
▁stoichi
▁gastroenteritis
oconjug
▁GAL
▁histopath
▁280
▁2.9
▁palmitate
▁disten
▁(24%)
▁terfenadine
-15
globin
▁antin
▁ceftriaxone
▁renin
▁molars
▁7).
oste
▁curric
ocytotic
▁leakage
▁tendencies
▁microvessel
▁endoscopically
inducing
roxic
SHR
▁trimeth
▁oesophag
▁succin
▁oesophageal
▁probing
Rs
vive
▁38%
▁resultant
▁susceptibility
dG
▁[32
▁Abdominal
▁surge
▁popliteal
▁hydrophilic
▁rash
▁aort
atonin
▁73%
chase
brile
lactam
▁37.5
▁myofibrils
▁extremity
/24
tine
▁(62
▁contracting
▁recruitment
▁hypokalemia
tality
oskeletal
resid
▁thermo
-40
▁reversal
▁structured
.1%
▁cervical
▁immunological
▁allogeneic
onvul
▁electrostatic
▁pooled
▁acutely
▁trigg
▁quantitative
▁homogenate
▁5.3
▁correlated
▁surgeon
▁oocytes
lastoma
▁polysomn
▁0.05),
plastic
▁AChR
▁uter
▁constitutively
▁tumours
▁gland
▁phorbol
merc
▁osteoclasts
substrate
ivacaine
▁conserved
rogenic
uplex
▁alprazolam
affec
▁AVP
▁imidazole
▁nicotinic
▁duct
▁ribosomal
▁dobut
▁photoperiod
▁RIA
▁eighth
▁46
93
▁utilization
optic
▁constitutive
▁phi
cessive
▁1(
▁exceeded
▁malformation
▁(0.1
ylase
▁Previously
▁infective
olones
▁mediators
-99
surface
olved
ologous
▁proton
oflu
▁diabetes
▁FAD
▁stripping
▁acyclovir
▁vitro
tagog
nourished
imetry
ocated
▁cros
▁segregation
▁behavioural
▁organelle
▁capsules
▁abundance
▁mineral
▁tilt
ocor
ighting
charomyces
▁SCLC
▁occluded
▁1-
▁substratum
▁(90
stim
▁rhythm
yses
▁47,
▁brains
▁paraffin
▁cooling
▁epidemiology
▁biosynthe
▁respon
vable
▁endocrin
▁olive
▁smokers
▁peritubular
▁10(-2)
▁carotid
ometri
▁inconclusive
▁Lipid
▁PGI
▁degen
clamp
▁loos
ifugation
▁projected
esarean
alcoh
▁LAK
ilibr
▁sucrose
▁portions
▁(18%)
ystectomy
tectable
▁lymphocytic
▁allergenic
▁Stroke
▁Proc
▁enlar
▁improving
aterally
rocal
▁decrement
▁anesthetic
▁beliefs
▁Combinations
"-
opathological
▁catalyzes
imetric
▁staphylococci
▁0.99
▁strengths
▁contribut
▁wounds
▁33%,
▁hir
▁baseline
isobutyl
▁favorably
▁splenomegaly
evoked
▁cumulative
▁0.16
▁cage
romycin
EI
3)
ctomy
▁hypothalamus
▁(46
▁multidrug
opharm
oriented
▁5.4
▁pigment
▁livers
Ns
▁166
eruleus
▁creatine
▁minimally
▁Pulmonary
▁14.
surgical
120
▁radicals
glutamate
▁dibutyryl
ensitization
▁10(4)
▁transection
▁gastric
▁pacemaker
▁postural
▁observers
▁ascertained
hydramine
▁isot
retro
▁calmodulin
▁laryngeal
▁ascorb
alim
▁volunteers
▁irradiation
▁iodo
fluores
.5,
▁recruit
uscular
atible
phosphorylated
▁facilitate
ocine
▁calcification
▁Increases
▁Median
▁transpos
▁Together
concentr
inhibition
prandial
▁OD
▁Dopamine
▁intraven
▁splanchnic
▁15%
▁stabilized
▁apoA
▁lymphoblastoid
▁perone
▁exposures
▁lutein
▁quinidine
▁fibro
trients
▁anticancer
▁syndrome
9;
anine
▁nigra
plo
ronectin
▁(15%
▁sterol
▁Rats
▁multil
▁acceptance
▁reperfused
eak
▁1.35
▁myocyte
▁desmin
7/
himb
ositi
▁1974
▁classify
cys
▁hypothermic
▁PAS
▁geniculate
▁polymerization
▁dele
▁conto
▁labial
mM
▁seropositive
isal
ethoxy
▁barbit
▁mandible
▁discomfort
▁(24
itic
▁sequelae
▁requi
cephal
▁Virus
▁administering
tracted
▁100
▁UDP
TCR
kelihood
▁6.2
yclo
▁0.89
▁bronchi
roscop
▁forelimb
1-
▁0.01),
▁desensitization
▁acetaminophen
pharose
hydrop
▁transiently
ilum
▁(5.8
▁sugars
▁criterion
osamine
▁cartilage
▁transpor
▁predisposition
▁acquisition
▁cirrh
▁0,
▁infarc
▁physicians
▁banding
▁recr
▁AMP
bromo
▁dith
▁1970
▁hypoxic
▁waking
▁12.
▁sinusoidal
▁xen
daily
▁2.7
itability
administered
▁fractionated
▁certainty
acerb
CEA
▁standardization
00,
▁bacteriuria
▁neuropsych
▁ovine
▁prolif
▁antibody
▁.000
ASA
rants
▁Additional
plasts
▁56%
▁establ
▁6.4
68
▁21
▁Staphylococcus
▁stroma
omegalovirus
25).
▁ricin
▁antisecretory
▁normotensive
▁Cardiovascular
▁amacrine
ostigmine
▁presumptive
determined
endri
▁systemic
▁synaptosomes
▁carcass
▁injecting
30,
▁swabs
▁schistosom
▁strand
triphosphate
▁hypercap
▁nephrotoxicity
▁Findings
anav
▁193
othione
6).
▁PGF
▁KD
induc
▁AO
▁detachment
quinoline
▁Previous
▁elevation
▁scientif
▁counterparts
flanking
iuria
NMDA
▁behaved
▁PG
iminary
▁affinity
▁contributing
coh
▁continuity
▁glomerul
▁chyl
▁rehabil
▁thio
antibody
▁beha
▁convol
▁MRI
▁Infection
apular
quinone
▁pools
renol
▁0.002).
▁ganglionic
oncogene
▁palate
onucl
blocker
▁coexis
▁lifestyle
▁suspicion
othi
▁severity
illion
▁elevated
parative
▁-0.5
▁developmental
glucosidase
.5
-1.5
etence
echanical
gative
iably
▁splenectomy
sulf
acental
▁apomorphine
▁mutagenicity
▁sedimentation
▁stiffness
▁drip
▁skeleton
▁nuclease
▁Consequently
▁impairment
kerat
▁hydroxylation
tral
▁polysaccharide
▁aggregation
▁cornea
2+]
▁4)
▁Hispanic
▁MDA
hydroxysteroid
omiting
▁FcR
respon
choline
▁orthoped
illation
▁dyspepsia
▁atria
alose
▁traction
▁(75
▁268
immuno
diagnosis
▁heavi
tivities
▁covalently
▁elevations
▁motoneurons
▁chymotrypsin
▁postoperatively
▁Epstein
▁paradigm
]-
requency
▁Scatchard
▁carcinogen
▁0.35
▁choro
▁19.
▁regained
▁dodecyl
▁suppresses
▁indole
▁beats
▁28)
ocon
HCO
▁myenteric
▁hydroxyp
▁paternal
ipramine
ocrin
▁genome
▁cationic
▁bowel
▁helix
▁evac
▁coval
▁cyanide
▁dichro
▁Gonad
▁benzodiaz
CGRP
▁multic
▁lectins
alues
-1.
opi
plasia
cretion
▁weaning
▁accid
▁glycolysis
▁Tris
▁ventilatory
▁11,
▁discontinuation
▁fixation
▁excreted
▁yielded
hydrox
▁paralysis
▁tachyc
AVP
carb
phenyl
tensive
▁acetic
▁libitum
900
motic
Ds
▁asymmetry
immunoreactive
otrophs
▁corticosterone
aminergic
▁30
iomas
mong
▁0.1%
▁accel
otherapeutic
MBP
▁technologies
▁Tox
44,
▁atresia
16
▁Radi
▁19
▁37%
▁75%,
enic
▁citrate
▁scattering
prednisolone
ostat
▁albumin
▁antral
▁swallow
▁propofol
▁crani
eroxidase
▁3.7%
infected
50).
-6.
adication
▁parasite
ophys
otoxicity
▁spati
▁Antis
▁holoenzyme
▁noradrenergic
tence
▁(2-
▁tumour
oxygenase
▁Whereas
glycerin
▁administer
▁14%
▁aqueous
▁unres
▁swim
▁TNF
▁3.3
▁constriction
▁kine
▁concentrated
▁51
alic
ighteen
bility
▁reconstitution
▁glycol
▁hypertensive
▁perif
DNA
140
▁pancreatic
▁ultracentr
▁1989.
▁crude
▁afforded
▁Haem
▁hypot
▁orally
▁quoti
▁esophag
▁Myc
olig
▁iontoph
omorphine
▁blasts
▁neuro
▁ulcerative
solubilized
▁respiratory
▁fibrinolytic
:0
teine
▁ureter
conjug
▁stimulations
▁elastic
arachid
▁traumatic
osyn
▁119
roglobulin
▁meaningful
▁purified
▁prostheses
▁cosmetic
onuclease
▁manufacturer
▁feasible
▁UTI
▁hetero
▁Enh
▁oestrogen
▁58%
▁19%
▁untrained
▁spor
▁hysterectomy
▁assessments
▁topoisomerase
▁ketoconazole
▁densit
phil
▁thalamic
▁bronchoconstric
visions
▁OT
BT
oxin
▁neuroblastoma
▁sustained
.8
▁Alzheimer
▁guanylate
▁TB
otyp
▁adenine
▁strands
oblasts
▁natriuretic
tubulin
uality
▁lactate
▁exag
▁CTP
▁ventromedial
▁reinforcement
utin
riend
▁influx
▁2.
▁valproate
▁epidermis
▁cultures
▁TT
▁coma
ffin
arly
▁lining
irrel
▁immunogold
▁BSA
rological
firmed
reness
▁trigeminal
▁SB
▁allograft
▁iris
thyroid
▁univariate
▁Brain
omyces
isomerase
5%
▁antidi
▁infectivity
exy
▁groove
▁displacement
▁faecal
▁standardi
▁pubertal
1/2
omotor
guan
tetradecanoyl
titis
▁iodine
arthritis
CBF
roso
▁2%.
▁prescribing
▁posed
gangl
▁8-12
▁soybean
▁mesenchym
▁carboxylase
ognition
oreg
▁GABAA
herent
▁peripher
150
▁vasoactive
▁Intracellular
44
amous
▁venti
▁screening
▁constructs
▁mammalian
▁spastic
ectomy
▁suspension
▁regulate
naud
apse
usal
ocys
▁glycerol
▁flora
▁clot
valine
trum
▁hydration
▁dystrophic
ibrio
ipril
▁keratinocytes
▁reagent
▁complaints
aterals
4,000
7,000
▁aspec
▁abruptly
▁1978
▁0.54
▁nucleotides
▁interc
▁hormones
▁OH
HRP
▁elicits
▁dl
▁inhibitory
motor
▁DMP
▁bacterio
▁virtu
▁satis
▁flanking
unced
hig
▁retains
inamide
tus
▁pate
ulsive
CoA
rolateral
77
hemat
orrect
3]
▁regurgitant
▁Breast
▁insights
▁adenoma
▁ejaculation
▁AML
-48
▁granulomas
▁pentobarbital
▁oxidant
▁sequestration
▁infiltrate
▁diverged
▁embryonal
▁interleukin
▁antero
▁Optimal
▁monotherapy
▁tubercul
▁repressor
▁mitochondr
vail
▁reabsorption
BMI
▁Simult
secreting
▁conformational
▁toxins
▁Comparisons
%);
▁200-
▁junctions
▁10(-10)
▁abscesses
▁inhibit
oice
antibodies
▁80%,
vaccinated
▁characterizing
▁targe
▁thromboembolism
illaries
▁8.7
▁neighboring
▁crosses
▁diethyl
▁dispro
▁intestinal
▁unrel
imination
▁lymphoblastic
▁limb
▁synov
mineral
amycin
ylyl
orac
▁gentamicin
▁3%.
▁guinea
▁dextran
▁0.001,
aryotic
▁caffeine
▁1990
▁enrol
▁Muc
tee
▁0.016
▁vulgaris
▁allergy
▁uncommon
dipine
▁incubating
▁revascular
110
opr
versus
▁lowering
amines
▁bilateral
alsy
▁induc
▁8.4
bly
▁eradicated
ropine
totic
▁multiparous
▁harb
▁naproxen
▁antioxidant
2+.
▁harves
▁EBNA
▁ataxia
▁identifiable
▁zymosan
onitis
uronic
▁bilaterally
Ox
tronic
ineal
▁erythematosus
erable
hormonal
macrophage
ophageal
▁2.5
uris
▁Doppler
▁trimethoprim
▁KA
▁longus
▁postnatally
oproteins
▁differed
timum
-28
rography
▁12-
▁Arter
athetic
▁reticulocyte
▁colorectal
▁lec
▁Vmax
▁participating
▁4.7%
▁sixty
▁plasmid
▁ribosome
▁embolism
▁hypogonadism
▁infrequent
▁0.15
assay
▁originated
▁20,
oprecipitation
▁pS
osteal
▁congestion
▁7)
others
olone
▁Thirty
▁mimicked
tism
tig
▁fluoride
▁throat
glucuron
odialysis
▁pneumoniae
▁obesity
roxyprogesterone
-40%
▁splice
utroph
▁coating
Ins
ymptom
▁interstitial
▁annually
▁diagnosis
▁hypere
▁warran
▁cytoskeletal
▁ICP
▁DHA
▁acetyl
EAE
amphen
▁PBMC
▁spectrometry
▁VSV
incubated
▁ventricular
phosphates
coal
athered
-4)
▁psoriasis
▁antimicrobial
arous
▁nonin
▁fragmentation
▁conformation
▁0.80
ergen
opian
iferous
▁testosterone
▁contraction
▁Obs
lases
ereb
▁fibrill
▁affecting
iodarone
▁lymphokine
culture
hydr
▁herd
▁interruption
▁transporters
28
▁Lymph
ecal
▁ANF
▁myelinated
▁sarcomere
67
arrhythmic
ausea
▁7.
erin
▁CRH
BH
▁50%
/10
▁chromaffin
unately
▁saliv
▁5.9
▁remo
▁haem
▁0.5,
▁reticulum
▁5.0
ikary
otide
▁haemorrh
▁occlusive
▁Surgical
ocalcin
▁Respiratory
▁Factors
▁radiolabelled
▁hyperactivity
▁Wistar
brids
guanine
▁primiparous
▁microelectro
vul
▁Differences
▁dyspnea
▁propensity
wenty
▁capillaries
▁visceral
▁spectrophot
▁plasm
▁EMA
▁285
▁diversity
▁0%,
▁abdomen
▁valproic
aning
▁spon
▁1.0
turition
▁necrosis
▁chlamydial
▁acidic
▁abundant
trates
plas
vae
dihydroxyvitamin
▁calories
▁DOCA
tilis
▁(79
hexidine
oxifen
▁differs
uding
microns
▁freezing
oxygen
▁3%
▁isomerase
piration
▁IIA
▁22%
▁bulb
enec
▁0.8
plication
▁peroxidase
▁throm
oventricular
▁Fifty
▁malabsorption
bladder
▁186
▁neutralization
▁denatured
▁diuresis
▁viability
▁Inde
▁pseudop
roscopically
unctions
enzym
▁geographic
cultured
▁hypog
▁aggression
▁metr
▁5%
▁azathioprine
▁polyadenylation
▁prepubertal
▁Relative
▁cycling
▁immunore
olization
▁adsorbed
▁TM
▁airways
▁sympathe
enclamide
opoiesis
▁newborns
omere
graft
▁circulatory
▁biologically
tenolol
otomy
▁polypeptide
▁phentolamine
▁arising
▁immun
▁Sensitivity
acute
▁1.1
▁SPL
.3,
▁transfusions
▁unidentified
▁readings
vant
intensity
▁dermatitis
acids
▁obstructions
▁anomalous
▁48%
otericin
▁profound
sensitivity
▁stepwise
tein
▁simultaneous
▁81
xiety
▁225
▁oxime
▁scans
urement
▁percentages
▁CFU
tivated
▁blas
tential
skin
▁ganglion
alanine
ostal
▁Indi
▁29,
▁lign
▁impairs
▁(72%)
▁evoked
▁(6)
▁compartments
▁freshly
▁denervated
trogen
▁foci
▁papaverine
▁Interleukin
▁49%
1,
▁elemental
▁enlargement
▁carc
omat
tive
acin
▁irr
essive
▁menstr
▁Tes
ication
gA
oderm
mandibular
92
▁drin
▁follic
11-
▁AI
▁transfect
▁Neurons
▁substitu
▁Gpp
▁pancre
-50%
▁isoproterenol
sepithelial
▁biochemical
▁Chemical
Glc
▁maximally
orts
uctose
▁regulates
lobulin
piride
azoline
▁pregn
▁enzym
▁alcoholism
osomal
rometh
▁Hig
▁antidepressants
▁(9%)
ertion
▁(8%)
9%
▁schizophrenic
▁mellitus
ficially
▁nonsurgical
▁PIP
aturation
▁MMS
▁Acute
▁falciparum
▁intracerebro
tens
notic
▁elongated
▁adherent
▁-8
▁(30
enil
▁morbid
aceous
▁relapse
econd
▁postsynaptic
▁dimeric
enan
▁adhered
tate
▁twitch
robic
▁physiological
▁indication
▁Salmonella
▁mite
▁predominantly
erts
oblastoma
▁ligand
chest
acti
romes
olich
apatite
▁Rapid
▁breakdown
▁vinblastine
▁enzymatically
kines
▁virulent
phoresis
▁somatosensory
▁LM
tolerated
implantation
tagland
▁adap
forming
▁conductance
▁158
▁300
▁hydrolys
adox
▁platinum
oretically
▁263
▁0.84
▁ovalbumin
▁unrecognized
▁68%
▁blacks
▁kilogram
▁reduc
orrhea
especially
▁percentile
ocyan
▁ADA
▁mtDNA
oppler
omonas
apo
ulum
ofol
othre
▁substantially
omycin
▁polyoma
▁phosphatidyl
▁jaundice
▁VLDL
▁flashes
▁regimen
enyl
▁bonding
▁motone
▁extensively
▁detects
▁postnatal
erox
▁16.
▁suture
▁extrac
▁retinoids
ecre
▁cytotox
▁(0.4
▁membranes
▁41%
▁retur
-45
▁BamHI
▁8.5
Ls
▁Samples
terious
▁dermis
▁24,
ials
ococci
together
▁PMNL
▁duodenum
72
▁mitral
asic
▁contraceptives
▁entorhinal
ROS
▁trachomatis
▁equilibration
▁aspirin
▁hereditary
▁intracerebral
▁effector
▁investigating
▁emphasize
esthetic
▁tach
pore
tails
▁laevis
ayed
▁enti
▁enteric
▁blunt
▁CSA
▁42%
▁pathologic
ercise
fib
othiocyanate
▁analyse
▁treadmill
▁chlor
loride
alyzed
thym
▁HCV
▁gangliosides
cryst
▁gestational
▁hypoxia
▁3.8
▁LTD
ospinal
▁Mast
duction
▁alp
▁reconstituted
▁0.0001).
▁medication
▁fluorescent
▁amphotericin
▁equi
▁adul
embr
2'-
▁epi
▁prevail
▁baclofen
otomized
▁Tests
▁undergoing
▁misoprostol
PRL
▁equine
uronate
▁pumping
▁catheter
amino
▁PMNs
▁NADP
▁energe
▁74
myrist
▁glycosylated
ologic
▁eliminated
▁Evaluation
educ
▁localized
▁headache
▁institutional
▁lipoxygenase
▁epidemiological
atropium
▁2',
▁Risk
▁lamin
▁mosaic
▁Cardi
▁Acid
inhibitor
▁benzodiazepine
educed
▁follicles
incubation
oic
▁900
▁addiction
▁achievement
▁acceptor
▁glucuron
▁protecting
ograms
▁priming
osts
graphic
▁[14
▁tyros
hep
▁pheochrom
▁10.7
0.2
▁carbohydrate
▁fluconazole
3.
▁GA
loro
▁quadrup
yclic
▁nitrendipine
conventional
▁effluent
▁0.17
ocarcinoma
▁crystal
opa
Cs
▁6%
ochemically
ypical
▁.05)
entif
entgen
▁relaxants
-5
▁alkalin
▁referral
▁amylase
galy
▁psychotherapy
8,000
insulin
▁FT
▁Ultrastructural
▁cations
▁striatum
ventral
▁liver
nitros
▁alloster
▁agglutinin
▁objectives
▁larynx
▁capsular
▁inpatient
ectomized
olipoprotein
▁(42
▁potent
▁additive
idine
▁59
amol
▁chylomic
▁tended
▁multin
▁phenytoin
▁arrhythmia
▁radioimmuno
onide
seven
▁unchanged
lycemia
▁laminae
borne
▁DTH
ventilation
▁tones
trophin
trus
▁superf
▁esophagus
▁lymphocyte
▁CBF
▁withdrawal
lact
▁Routine
▁epsilon
amidine
▁oxygen
organism
.3%)
▁triggering
▁prescrib
▁awak
tilb
ocriptine
▁nodules
moderate
▁hydroxyapatite
▁(15%)
▁syphilis
▁disper
shock
▁instantaneous
▁cmH
▁hourly
▁neurotoxicity
▁colonization
▁Compound
2)
▁antagonist
▁allogra
▁transluminal
▁Smoking
▁worsening
▁endothelin
▁vesti
ulae
▁internalization
▁triazolam
▁hyaluron
ionine
▁meal
ospasm
▁substances
▁(39
tures
▁3.7
oglycan
▁70%.
exponential
omethacin
▁alveolar
▁aldosterone
▁PEEP
posi
Hyp
▁tubular
▁(8-
itum
tin
▁attenuating
▁topically
▁leu
ochemistry
inergic
▁6.0
▁prolongs
leu
sA
▁scarring
▁isozyme
▁stool
▁immunocompetent
hemo
▁airway
▁HL
▁ischemic
▁vena
sizing
▁gyn
chol
▁-5
▁RAS
▁damaged
ochemical
▁emerged
▁protons
▁Geor
▁prel
8,
▁neuromuscular
▁unfolding
onephritis
iplin
▁selectively
oride
5).
▁Physicians
▁1/
▁amputation
▁rearrangements
HLA
uthen
▁quinacrine
▁pectin
lebrand
▁pirenzepine
effec
▁discriminate
▁gavage
▁obliter
▁1988
▁paralleled
LN
▁periodontitis
▁(84%)
▁laminin
sulph
20-
physeal
posable
bile
▁histograms
uran
▁Oste
▁unexpectedly
▁genitourinary
▁arth
4,5-
▁secrete
▁simian
idazole
▁Raynaud
▁chloro
acial
▁olfactory
▁hepatocytes
▁transforming
▁sugges
▁tenderness
▁peroxide
▁mediates
orskolin
▁clonal
uodenal
.4
▁renders
▁140
▁statis
▁-20
ABP
▁1.25
▁analgesic
Tc
▁immature
▁Average
▁digitalis
▁endotracheal
▁surveyed
▁Nuclear
▁contradictory
▁spliced
▁Induction
olytic
▁Lung
ifferen
adex
▁downstream
78
racheal
▁thigh
IGF
▁Spontaneous
astases
▁necrop
▁constituent
▁insec
increased
▁intracor
▁alkaline
▁1.4
▁oncogenes
▁(%
Cu
▁neurolep
▁cDNA
▁abl
▁Ade
▁decisions
▁titres
▁vegetable
▁supine
ostatin
prising
▁analys
▁upstream
▁Intrac
iciency
ontal
▁intron
olipids
▁influencing
▁ultraviolet
opamine
▁muscle
oresis
apeu
▁5'
▁recombinants
▁conclusive
▁hypothalamic
▁apoE
▁sarcolemma
mercapto
▁regurg
▁interacted
▁anhydr
▁2.5%
▁metastases
▁intensely
▁[2
▁8.
tions
▁cylind
tioned
amphetamine
unts
▁compensatory
▁0.5
▁acetate
▁exercised
circuit
▁dissemination
▁physi
▁reticulocytes
▁(20%)
▁detectable
▁surfactant
udation
▁metabolites
0/
phyl
▁vagal
▁procollagen
▁synthetic
▁Acad
▁consistently
▁enrollment
ergic
▁35%
▁dors
loidy
▁AH
▁thiazide
ilep
phalan
vix
▁Amino
▁lesser
▁donor
rotid
▁PMN
▁alkylation
▁PI
▁eosinophilia
tole
▁82%
▁synapt
▁sampled
▁marginally
omically
▁aids
▁0.02
▁bif
▁neutron
▁structurally
▁implantation
tailed
-1000
osylated
▁myx
ocusing
17
GTT
otrophic
cessively
▁filtration
▁gout
▁angl
alciparum
arge
robial
▁transitions
▁transposition
▁ana
onography
▁sonographic
orotic
▁intact
▁providers
▁0.45
▁saphenous
▁vulnerable
otent
▁Randomized
▁postischemic
olinergic
▁uterine
▁methoxamine
SCLC
▁NGF
▁hypothermia
▁insertion
▁phenotype
odip
90
▁Willebrand
▁moderately
▁bacteriophage
▁PRA
selec
▁binds
ventional
▁oste
▁blockade
▁leucine
ocap
olase
robenz
▁pigs
33
▁tris
tracheal
thio
initiated
▁perivascular
romic
buride
▁suspic
▁simulated
.2
oxetine
difference
6;
▁estimating
trin
▁fibres
ntolamine
▁nasal
▁epiderm
plants
upus
▁erosion
▁incomp
▁axon
odil
psin
▁putative
▁0.75,
▁circulation
modulin
▁29%
▁Tm
americ
▁augmenting
▁transported
▁Experiment
▁HN
lymphocytes
melan
▁cathe
ocin
siveness
lovir
▁aldehyde
▁2.0
▁tibial
▁246
stem
▁depr
▁maternal
trimester
helium
▁91
tensives
▁cytotoxicity
▁IgE
twitch
▁fractions
▁phenotypically
lug
▁caudal
lute
▁thyroglobulin
▁inclusions
▁microgra
▁locomotion
▁mitogen
▁(52
oside
▁contralateral
antile
▁slopes
▁ductus
meas
▁1986
▁0.46
▁necrotizing
▁FMLP
▁fimbriae
ogran
▁lacks
▁outpatients
▁incis
▁mitosis
thrombotic
ths
tructural
▁RNAs
TPA
/1000
7).
▁mortality
▁allosteric
▁lumbosacral
▁addic
▁mucous
▁messenger
▁thrombin
imbr
independent
▁isoelectric
▁mycobacter
▁extensor
▁poisoning
▁0.22
10.
▁87%
▁transcrip
herol
▁conspic
▁uterus
▁(1.6
▁exhibit
rof
GH
tiguous
▁RPE
ropo
▁antibiotic
▁wearing
▁132
ncies
▁13.3
opyr
▁Surprisingly
▁bismuth
▁cows
blot
▁genotype
▁MF
▁recalled
▁sarcoplasmic
▁maturation
uled
ometh
-]
pharmac
▁HBV
actone
amethoxazole
▁warfarin
▁rigid
acquired
▁Myocardial
▁Differen
▁lipoprotein
▁proteinuria
▁overnight
ondr
.2,
▁fibr
▁mononucle
achial
▁(4-
▁bypass
▁60%
orbent
subunit
▁phospholip
▁kappa
NAc
▁(0.3
▁(8
ellae
▁intracoronary
▁precordial
osum
▁confirms
96
▁Certain
exin
estim
▁remodeling
▁sphingomyel
ovascular
▁HF
▁carin
▁developmentally
▁carbohydrates
sibly
▁erythroid
▁peptid
ifers
▁ADH
▁blot
▁decreasing
▁mediator
▁intervening
tension
▁elution
▁Electro
athioprine
▁diarrhoea
ditions
omies
▁birthweight
oretic
7.
▁RF
▁VT
Ki
pendym
▁rhod
▁osteoc
▁2.1%
bral
▁Suc
aminobenz
▁isozymes
▁resistances
▁-40
26
oconstric
atology
▁endocervical
▁statistic
▁43%
operidol
▁17%
-500
▁exchanger
opped
restric
▁stimulants
brom
▁exocytosis
45
those
▁swab
▁168
oxamine
▁toge
▁muscles
▁autoreg
▁52
▁SDS
▁illumin
▁leukotrienes
▁overt
▁44-
▁pim
osomes
teral
▁Recep
▁congr
▁kcal
▁behaviors
ellum
etition
▁40,
ologically
▁Apo
tria
▁justified
lytic
▁neurogenic
/7
▁aneup
▁permeable
▁stereot
▁washout
▁1:
▁cerebellar
▁unfol
ogold
▁-0.0
▁26%
▁obstruction
tent
olgi
itrate
▁fluctuations
▁irrespective
▁etiologic
jec
▁prolapse
▁33%
▁fum
▁chromosome
▁clinicians
▁diffic
uracy
oblas
urones
▁tachycardia
▁CPB
▁Torr
▁15
▁lapa
▁infusions
▁scin
coated
▁intercourse
▁plateau
▁cirrhosis
▁disulfide
▁antigenically
▁constitutes
opsy
PPP
▁palliative
▁immunologic
▁sympathetic
▁alkyl
deple
▁ozone
▁prescriptions
amicin
▁Gln
▁adhe
▁PKC
▁penetration
DTPA
▁sclerotherapy
▁periodontal
PAF
▁paral
▁detergents
▁cocaine
84
queous
+]
▁regar
▁hepatomegaly
▁dynorphin
▁immunodef
ECs
▁scanning
▁reac
▁ocular
▁parox
plemented
▁opioids
▁postulated
ystagmus
▁cerebrospinal
▁3-
▁ribonucle
▁pretreated
lix
embryonic
▁36%
▁aspiration
hemical
▁nonsignificant
▁serotonin
temperature
etidine
▁convoluted
▁Treatment
▁hens
▁drugs
azolam
17,
amus
SDS
▁guanosine
oprostol
▁scre
▁displaced
▁rebound
placebo
▁ane
▁grip
ticular
▁dysfunction
microglobulin
▁exchan
▁noncom
▁competitive
▁Nal
▁49
▁dairy
▁kHz
▁polyp
▁direc
▁atrophic
▁coar
▁BALB
▁frac
▁incidence
ermal
orphine
8+
▁gains
▁tetan
(2-
ufficient
▁viruses
▁89
olec
▁gases
22
rometer
▁hormone
eptides
▁PCA
suppressor
quid
▁GF
▁practitioner
▁luminal
▁cognitive
platin
-30
▁depres
▁plaque
▁enl
▁(28%)
▁sensitiz
issive
1+
▁20%
▁histo
▁hospitals
diol
▁steadily
ophy
▁ars
6,
▁PW
▁1986.
▁iatrogenic
▁cholinesterase
Tx
▁subunits
▁1.13
▁Successful
▁appra
▁RV
resis
▁hexamethonium
▁Afric
zymes
2]
anat
▁hydrox
,000
▁Diagn
ifedipine
▁catabolic
▁affects
labeling
▁chec
fiber
▁zoster
▁148
▁35,
dihydro
sodium
planch
▁liposomes
assisted
▁manganese
▁posttreatment
▁manu
tiveness
▁cerv
oratory
▁avian
tably
▁chloroplasts
ocomp
▁predis
luores
▁0.02).
▁ultimate
junction
hemagglutinin
▁irreversible
▁amphetamine
auge
▁congestive
▁hepatitis
80)
roth
▁20%.
▁fulfill
▁paired
affected
▁Effec
ocrit
▁HTLV
enolone
▁16%,
▁GS
▁consistency
acement
oplasma
pig
▁benzoyl
ocular
▁1.7%
▁sedim
▁haemorrhage
▁Genetic
▁extinction
▁verbal
▁transcription
▁0.000
▁contraind
▁formulations
▁headaches
▁divertic
▁resembles
▁complications
▁7.0
▁linole
yoto
▁myristate
▁Clostridium
iptine
ygosity
▁insensitive
sities
▁felodipine
▁EI
occal
▁Initi
▁propagated
oclopramide
tene
▁antagonistic
▁Fluores
▁nurses
ioid
▁thaw
▁refr
▁overe
▁actively
▁neurofilament
▁coded
▁testicular
▁3.9
▁1,
▁graded
ystitis
▁000
▁angioplasty
▁fungus
atoxin
RR
/12
▁thymic
▁nucleoside
▁400
▁stimulate
▁dilution
▁NN
▁therapeutic
▁hypogonad
▁orthodontic
▁8.3
reasing
▁cholera
portion
▁recons
▁chlorhexidine
teryl
dyn
▁prognostic
ivary
vival
orsal
▁analyzed
▁swelling
▁hematocrit
▁vesicular
entan
▁DT
▁nasopharyngeal
▁cytochalasin
▁unrestricted
▁vaccin
▁nitrate
▁surveys
▁Eff
▁targeting
▁5)
imide
▁.001)
▁examining
▁Cellular
▁lyso
blood
▁traum
troduction
▁promo
▁restenosis
ocortical
▁dissimilar
itance
▁dorsomedial
ocomial
▁barium
▁constr
toma
▁hydroxyproline
▁yr
▁Cys
▁fmol
▁physiology
▁antib
▁persistently
▁colectomy
▁allografts
hepatitis
▁cava
gut
▁metabolically
responders
▁ovariectomized
▁phosphodies
Daw
▁propyl
8)
▁gum
▁sedative
lep
▁granulosa
▁Conventional
BK
▁underwent
▁Reduction
orphic
▁dP
▁translocation
▁Eryth
▁kidney
▁intractable
▁brady
▁stromal
▁specialty
▁degrad
olamide
▁inosine
▁cocul
pli
▁(65
0.3
▁0.005
▁Infants
▁BMD
▁apop
▁cytosolic
▁ribosomes
hydration
abdominal
▁273
apine
▁18.
▁(76%)
median
▁Tc
▁0.82
phs
▁supplemental
▁eliciting
▁deemed
etent
▁deficiency
▁submuc
(1,4,5)
▁adolescent
▁serosal
bronchial
▁antagonize
▁multim
▁stren
▁streptoc
35
trol
▁lacto
▁targeted
▁eicos
oxal
idney
▁decreased
▁antif
▁fossa
▁Mild
▁adjustments
▁subf
▁adrenal
▁soleus
▁granul
mitters
▁incubated
▁effected
▁virulence
▁nedocromil
tillation
▁unc
▁(57
▁nevi
▁yiel
rati
phadex
▁utilize
▁swine
phrine
ensity
▁myoglobin
▁mesothel
▁discern
grown
▁rhabd
▁106
▁placental
▁112
▁121
▁histone
▁diameters
▁glycemic
▁lymphokines
▁interrelations
21
▁tolerability
welling
olus
▁immunofluores
thrombin
▁TK
▁bupivacaine
atite
▁TD
▁6)
▁embryogenesis
tually
▁efficacy
1.2
▁tubule
Ga
▁ultr
▁densities
▁homogeneous
▁experi
▁actin
▁1,000
▁ammonia
▁tau
▁oviduct
▁154
vaginal
▁repression
▁(66
▁(12
isopropyl
roximately
urinol
▁confirming
▁preload
▁inpatients
.9
organization
▁synapse
▁columnar
tyline
▁suppos
omatous
▁Statistical
▁metic
▁attemp
▁rhythms
▁55
▁predominance
▁repressed
reflex
▁lysozyme
uculline
▁prophylaxis
ervical
SEM
▁seizures
▁choline
reases
partate
▁pharmacological
▁senes
▁anthrop
-300
▁monthly
HN
▁troponin
osac
ostr
testosterone
▁7),
phosph
otropic
▁metast
gents
maximum
▁efferent
▁bioavailability
▁nonp
▁EPR
▁modestly
▁Repe
▁9.1
▁ecological
▁NI
▁Veterans
6%)
▁wrist
ritish
▁collagen
eryth
▁solute
idis
iph
▁nonsteroidal
▁reperfusion
▁depletion
▁arterioles
▁dermal
(6
▁interim
herence
▁bile
▁phenotypes
▁senile
▁(90%)
▁antigens
glycer
▁resemb
▁0.51
▁Prolonged
lactate
▁8.8
uestion
sion
▁bony
▁Inte
▁messen
tebral
luded
▁0.72
▁oximetry
ycline
▁probes
▁opioid
vaccin
3-
▁(0.5
/90
▁twins
▁limbic
▁(13
oxon
opausal
▁kinetic
▁reagents
▁LDL
▁1.05
▁tremor
▁danazol
▁denervation
UV
▁dissim
dine
atectomy
▁dyes
umerous
elic
▁.0
RM
20,
▁aetiology
▁rigorous
iteal
cemic
▁Monoclonal
astine
▁endometr
rocy
▁cen
hydroxylase
▁19-
.9%
▁Copenhagen
▁spas
epi
▁retina
/1
terone
▁multiv
▁fibrils
▁germinal
▁cooperative
ynure
▁ibuprofen
▁cholest
▁reactivation
▁formaldehyde
▁150
▁infrared
▁fibrin
▁Adenosine
▁-10
ritin
▁scalp
▁teen
▁respir
immune
sistent
▁endothelial
▁temporally
14)
97
lycer
mitoyl
▁stenotic
.5)
▁electrom
▁ole
▁kary
▁modest
entral
▁sequel
▁polarization
umptions
opathologic
OA
▁epididym
mobil
▁elective
▁regurgitation
▁accompanying
▁metatar
ludes
▁1975
▁homoz
▁5.6
▁Estimates
71
▁monophasic
▁nephritis
tensity
▁AUC
▁(250
▁tritiated
▁diuretic
▁undertaken
▁deuter
▁(26
▁underestim
reduced
▁eryth
▁hyperlipidemia
▁Stress
▁transthoracic
oag
▁phon
ochrom
▁5,
▁catab
▁yohimbine
▁discrepancy
prostaglandin
▁peritonitis
deficient
▁concentrate
▁declined
▁systolic
▁anticoagulant
▁Tx
▁remin
▁cystitis
▁recA
specifically
▁suppression
▁(78%)
▁rearrangement
▁hematological
ogenes
achnoid
▁plates
▁cytometric
▁MCA
▁NSAID
romy
▁spontaneous
▁bactere
▁malaria
ethylmaleimide
mmol
▁prostate
onical
ometers
▁wound
▁thallium
▁dismut
▁coli
▁alginate
▁angio
▁papilla
▁rigor
ylobacter
▁96
▁0.64
crib
▁62
▁choleste
myristate
▁13%
▁microorganism
▁13-
luding
▁(4.3
POA
roxim
arginine
plasmin
AO
▁intramuscular
cephalus
25(
▁1.
▁biop
▁Twenty
▁demonstrating
▁prolactin
▁permeability
9-
▁deficiencies
ocortin
▁isotypes
▁fati
29
▁mutants
▁rIL
▁adoles
molar
transplant
kage
▁unre
utaneous
▁intolerance
▁rele
chers
▁induce
Tn
▁0.30
▁viable
obal
▁360
lateral
urons
tum
▁mcg
▁eti
▁resistant
▁ipr
▁serologically
▁Repeated
▁(150
▁opportunistic
▁nude
ameter
▁naloxone
▁surrog
▁Medicare
physiologic
▁Tolerance
emin
▁cytolytic
▁hydrophobicity
▁33
▁refractoriness
300
▁disrupted
-1.1
▁homeostasis
▁30-
▁schizophren
▁osmotic
▁psychiatric
riched
portun
olem
oinositi
▁exudate
▁guanidine
illin
▁pons
▁noradrenaline
▁poorer
▁cigarettes
tative
▁expresses
toxicity
histamine
▁orifice
▁Candida
▁rati
▁adduc
▁exhaus
▁35
mature
▁Continuous
▁nM
▁genotoxic
▁consultation
▁nig
▁Uptake
▁elab
blastine
▁folate
▁velocities
ostasis
▁vesic
▁sarc
▁progressively
▁fibroblasts
▁Membrane
▁universally
RNP
lives
▁vertebrate
▁218
▁uteri
-88
plied
metic
Ta
▁normals
expressing
▁13
butyrate
clerosis
▁histopathologic
CDC
▁biosynthetic
ovastatin
▁receptor
▁217
throm
▁clomiphene
▁nucleus
▁deposited
lyte
▁wash
onam
▁spindle
▁subend
▁vicin
▁preservation
▁pO
oterol
itoneal
inoc
▁attenuate
▁prevalences
(1,
▁abrup
opropyl
▁ration
▁rota
gressive
12,
iotic
▁1.8
tration
▁95%.
▁somat
▁surveillance
0,000
▁promptly
▁transduction
benzo
▁deaff
▁supplementation
▁pollen
▁Multiv
▁leukotri
▁coeruleus
orbol
▁vigorous
▁sulbactam
▁defec
▁fluoroquin
bacco
▁bab
glycine
▁10(-7)
▁microelectrodes
angiotensin
▁jaund
▁(1000
▁pell
.7.
lamin
yrox
▁predominant
▁hypother
angi
ochondrial
▁deaminase
acillin
0.7
osol
tribution
rosophila
▁chloroform
▁acetone
tia
▁oral
cortisone
▁proliferate
▁supplement
4/
bruary
91
▁6.6
▁protr
▁starvation
▁reciprocal
▁radios
▁48,
▁reper
▁visc
:2
opeptide
▁mucos
arying
▁hypocal
▁tubercle
arbonate
▁epidermal
▁concurrently
rinone
▁AU
▁hematuria
▁limbs
▁compete
▁desirable
▁immunoblots
occi
odontic
▁pores
opramide
▁pars
Hu
▁rRNA
▁2000
▁pulsed
sies
▁lupus
shaped
▁automated
omerular
salt
▁neurologic
▁methadone
▁palp
▁oxide
▁mum
orough
erant
/3
-5-
olet
▁extracellular
▁Hind
▁donors
oporotic
alene
▁rostr
▁metformin
▁immunosuppres
arcin
anyl
▁tracing
▁RT
zable
▁analgesia
▁platelets
ferrin
▁bladder
oprec
threatening
▁Growth
articular
ylcholinesterase
▁diet
▁tryp
40
chond
▁(10%)
opoly
▁appetite
thal
▁vertigo
▁impaired
neumon
mitochondrial
yelinated
riton
▁Cyt
thymic
▁ARF
▁activated
othal
▁phospho
▁grafts
▁concentric
▁48-
contrast
▁Mn
▁Stimulation
ignificant
▁expectations
▁WR
anide
▁breathing
▁regulated
▁compartment
roids
▁restrictive
ETE
GRF
▁Ultras
▁tentatively
oagulation
▁incorporate
▁corrob
▁(53
9)
▁germin
▁AFB
▁BK
▁numb
▁8).
ispanic
Ra
urys
ponin
omatosis
▁cimetidine
▁POMC
▁electroencephal
▁occurring
▁compositions
rotein
tumor
▁profoundly
▁synthesis
▁immunogenic
▁semin
▁climb
ubular
▁strips
0.8
▁flunarizine
iatum
▁justif
ospitals
▁cavity
BV
▁1600
▁methyl
▁FH
▁modulates
▁0.3
▁myc
entesis
▁aberrations
▁plantar
▁Abnormal
▁dressing
IIb
ulent
▁histochemistry
▁methodological
tomas
▁recognizes
idic
▁lith
▁psychopathology
▁psychosis
sized
oxide
romised
criptions
▁hospitalization
▁synergistic
dopamine
▁lamellar
OV
▁organic
▁diaz
▁focusing
▁hexa
▁concer
reated
dip
gued
▁dilatation
methylene
▁melan
▁hyperins
oxia
oligo
▁modalities
eces
ociated
▁SLE
▁bulls
▁(6-
MH
Fc
▁rumen
▁ketamine
linked
▁hypoplasia
uble
▁GABAergic
▁electroly
▁surf
ografts
▁isolates
▁paroxysmal
▁bifurc
▁173
▁7.8
▁diltiazem
▁HBeAg
▁chor
▁flour
▁haemat
▁differen
▁1.9
patients
▁28.
flamm
MG
▁parenteral
hydroxydopamine
▁1.11
▁amiloride
uspid
cg
▁cement
plete
cortical
asal
prin
▁cooperativity
▁diagnosed
▁arachidonate
Cys
▁distric
▁PT
▁depression
▁dehydrated
onance
amethonium
▁-1
▁introduc
▁sporo
ECG
▁probed
▁infusion
erebro
▁0.43
▁tuber
▁gm
exc
▁fusions
▁fores
ecia
▁269
▁Increasing
▁(60%
▁histi
▁vancomycin
▁stu
▁glial
▁trypan
▁80
▁unstable
▁glomerular
▁1987
ozo
▁perforation
vating
▁perpendicular
▁0.6%
▁(25%)
eeding
▁mannitol
▁1.17
▁volunteer
▁Amin
▁palmit
unctiv
▁DBP
▁simplex
▁peptides
▁salts
siology
uracil
▁dams
kinetic
timate
▁11.5
▁palpable
erad
▁PAI
gnetic
stimulated
rophob
▁Graves
▁repertoire
▁iat
▁attained
▁LV
embry
phor
▁brush
usions
▁metabolic
▁obli
▁squirrel
▁erythrocy
▁212
Ni
▁intubation
udin
▁hydrophob
▁eradication
▁endoc
▁heterogene
▁237
▁DEAE
▁steroids
oreactivity
▁(48
▁HCC
▁transaminase
94
▁durations
owever
itre
▁regenerating
▁vitre
yocardial
Kd
▁Cushing
▁speculation
▁tetanic
▁thromboembolic
ophils
relations
▁consis
phrag
▁cholec
▁diluted
▁melting
▁(10(
▁bull
▁visualization
▁anastomotic
▁indications
▁sexually
adrenergic
▁derangement
oembryonic
▁carries
▁ethyl
▁cochle
▁fertile
▁compensation
▁unilateral
▁exhibits
▁myeloma
▁Thr
▁bactericidal
▁WT
▁Specificity
ituitary
▁gangli
▁vincristine
malignant
▁randomised
TN
ialysis
▁dys
▁fasting
▁computerized
▁anticoagulation
▁Exc
▁inhibited
▁proteinases
rophyll
isely
▁myogenic
drug
▁pleural
▁regis
▁subc
▁dex
▁ances
▁ketone
▁artifac
▁dopamine
bA
orporation
ejection
athic
▁inhibition
▁absorpti
-34)
▁solubilization
1%)
myr
▁drainage
▁IVC
▁gastr
▁92%
moid
▁(10(-7)
ohydrolase
▁varies
acetate
▁absorptiometry
phospho
▁neurotoxin
▁hypertrophy
uestionnaire
▁sensi
50,
▁copper
▁adulthood
▁detrimental
▁resis
▁Assess
tropin
▁21%
ocarcin
▁nonc
responding
roscopy
plast
▁SEM
trodotoxin
▁brach
▁ophthal
ressive
rogen
▁12%,
▁glucocorticoid
▁sarcoidosis
▁handic
odeoxycholic
divided
▁FS
iphenyl
▁duplication
lux
▁1.7
▁respec
▁sphinc
▁repeats
▁0.61
▁radionucl
▁COS
stu
omized
▁0.02),
▁Responses
▁avid
urate
▁pathogen
▁embry
▁hydrolysis
▁proteolysis
ipital
isite
▁carinii
▁Thi
▁controver
Tyr
▁evoke
▁Asc
▁PGE
▁angiographic
oplatin
tives
▁bundles
▁flas
▁prophylactic
▁postoperative
▁bathing
▁CGRP
arental
▁virion
▁morphologically
▁initiate
▁11.6
PGF
▁luteal
▁oxidative
▁demyel
▁DS
▁rhin
▁8-
▁80-
▁sphincter
▁objec
carinic
▁pharmacologic
▁diets
▁horiz
▁(16%)
opha
globulin
Fs
▁conjugation
▁ellip
▁techniqu
▁carb
idinium
▁ACE
▁interrup
acts
-33
arrh
▁diabetic
▁cil
astically
▁3.6
▁colliculus
▁starved
▁intraper
▁exacerb
▁cystein
▁0.76
arby
Ti
1),
▁exaggerated
monella
▁insuff
▁electr
tivation
▁vibr
▁idiopathic
▁ectopic
▁45%
▁varic
▁mitomycin
eprazole
▁3.5%
▁+/-
glutamyl
ceptible
▁preventing
esophageal
▁HbA
▁IgM
▁intram
▁Survival
▁tape
▁ect
▁glandular
▁equipotent
tomy
-2+
enzyme
▁workplace
▁Langerhans
▁tRNA
▁succinate
▁Braz
▁progressed
▁inhaled
orh
urther
▁drank
▁macrom
▁deoxyrib
▁abuse
▁evacuation
82
▁termination
▁cere
▁stratified
▁tuberculosis
receptors
▁vein
ilized
▁exhaustion
MK
-36
RV
▁workload
▁wavelength
▁contamination
▁fibrosis
▁corpuscular
▁flexor
▁quantified
▁1990,
▁responder
▁microb
▁quantitated
▁genomes
▁exudation
▁muM
▁BU
▁comprehen
▁cotinine
▁sulfonyl
▁macromolec
▁gastrocnemius
▁weaned
▁Intravenous
▁branching
▁grains
chemical
ystokinin
▁TLC
tic
▁suppressing
▁declining
▁bilayer
▁correc
▁burden
-1/
▁Cerebral
▁artic
aid
▁adenocarcin
erbB
urane
▁predic
▁Ringer
▁orbital
diss
▁thym
▁DMBA
700
establ
▁infiltration
posure
ordial
jury
▁commiss
monary
tization
▁pregnancies
▁trauma
iparous
46
▁molec
erations
▁Crohn
vate
▁Educ
▁droplets
opl
▁amph
etan
▁ECM
sched
▁(67%)
phasic
▁survival
▁DP
▁5-10
secondary
▁neuropil
▁ml
▁abstinence
▁thyro
▁antrum
transferases
accharide
▁zym
▁sigma
▁glycogen
▁parame
attrac
▁Cardiac
-23
▁seroconverted
▁strategies
odular
ropriately
▁(2%)
▁dosed
▁alkylating
▁biology
▁examination
▁Severe
▁phleb
injection
1);
▁meningitis
upuncture
▁amphib
▁SMR
acet
▁reversible
▁Subcutaneous
▁intran
cGMP
▁depended
▁infarction
sives
▁Maximum
▁139
▁128
▁Phosph
▁extras
▁PET
▁relapsed
idne
▁spectro
▁MICs
▁seas
▁Synthe
-8.
▁unex
▁extremities
▁Skin
▁proteinase
▁dominated
▁enzymic
▁7.5
stimulating
▁Inhib
▁infection
▁satur
ignific
▁7.5%
▁Bovine
▁wt
tub
ecan
obutyl
▁247
▁quantification
200
▁mug
▁adsorption
▁visualized
olysis
▁antiarrhythmic
▁microM
electric
ensitized
oblastoid
▁salmon
WK
▁negl
▁excessive
RNA
▁promoter
atases
operoxidase
anazol
▁pacing
▁immunoglobulins
▁GD
▁menses
acyl
▁jugular
▁2.6%
▁(4)
▁0.01).
mercap
▁preventive
▁cough
▁efficacious
albumin
chid
rinary
▁glycosylation
NK
▁dentin
▁37
▁wors
▁Lyt
▁1.2
idate
▁varicella
-78
▁directional
▁chl
▁adenylate
21)
acked
▁recur
▁enzymatic
▁biliary
aemic
▁modulated
uanti
▁(200
▁nucleoli
▁genital
EDTA
▁puberty
till
▁hospitalized
▁unlabelled
▁discrepancies
▁immunos
▁ranged
▁nutrition
tep
achid
▁polypeptides
▁spines
▁displace
▁ileum
5%,
▁preschool
▁residue
▁sulph
▁neuron
estrol
▁NADH
▁influences
aminase
▁leaflet
▁monkey
dA
▁COPD
▁atenolol
▁axial
▁85
▁cholesteryl
▁infarctions
▁periodon
▁opi
.1,
▁PE
▁neutralized
▁electrochemical
▁GI
▁precipit
▁0.94
▁hams
▁presenting
▁1,2-
osclerotic
▁deliveries
8%)
▁anomal
scherichia
adapted
▁manufacture
▁opson
▁sham
▁ovaries
▁cyclospor
▁resonances
▁progenitors
heparin
ensory
DH
▁noncompetitive
▁dosages
▁susceptible
▁fascic
parathyroidism
▁ank
▁vaccination
▁brevis
▁standardized
▁7.6
timulus
acetyl
▁pyruvate
▁illus
▁phosphatidyle
▁SCN
▁reorganization
▁intraperitoneal
▁malignancies
▁anab
lox
▁sulphate
▁pathophysiology
▁oxidoreductase
▁pter
▁Few
occlusion
▁mRNAs
450
ensitivity
oactive
▁competent
-9
▁colonies
▁characteris
▁intim
▁hypothesize
CSF
VLDL
deoxyglucose
▁Identif
▁vegetables
ectomies
fractionated
▁PV
pinal
▁25%
▁0.7,
▁hairy
▁papain
▁jux
▁2-
HB
▁fluctu
▁narrowing
omyelitis
▁nicotinamide
mostly
microliters
▁juxta
Trp
▁capacities
oreceptors
vascular
IFN
▁thermodynamic
yrin
▁cotransport
▁Analyses
▁osteoporosis
▁carcinoma
▁dentures
distal
▁streptomycin
oblastic
fem
activated
▁autologous
▁logistic
▁Bacterial
ischemic
▁notably
teroids
roxy
▁nong
pir
▁amitriptyline
47
▁3000
▁bronchodil
eptid
▁Changes
▁fibrillation
▁Diabe
▁variability
opause
▁haloperidol
ipient
▁Progesterone
▁activating
astigo
▁immortal
▁obstetrical
▁reconstruction
▁Platelet
▁atrophy
▁Veter
▁monensin
infusion
▁1.06
▁glomeruli
▁mastectomy
mTc
88
thanolamine
▁vasospasm
▁ack
▁epididymal
▁anesthetics
▁Haemophilus
BW
openhagen
▁disseminated
LTB
▁yielding
rophenyl
▁meningococcal
odal
▁polymorphic
▁recirc
▁RFLP
expressed
▁(80
+.
▁chicks
▁Tumor
▁dobutamine
▁hydrocephalus
leucyl
▁hapl
adenosyl
▁mansoni
▁atm
▁55-
psych
carbons
concentration
▁TcR
▁oxytocin
▁ligation
▁extracts
itus
▁mobility
iasis
▁lumen
▁unequ
posal
▁Peripheral
▁surgery
▁psychophysical
▁superv
ogenetic
lyl
▁pancreas
▁Sera
▁liposome
labile
.3%,
amylase
▁kinase
▁Swed
+/
▁lymphocytes
onomic
▁nipple
▁preven
▁mast
otor
▁valve
▁nitrous
▁hypercalciuria
▁hepar
▁1983
igram
5%.
▁0.26
▁beads
▁vasculature
▁cock
▁admissions
▁photoreceptors
▁GBM
▁Natl
▁clinically
-7-
▁nitros
thyl
▁diastolic
▁antagon
hydryl
▁inadequ
▁broth
HCV
▁0.74
▁(94
SSG
▁proliferation
▁lact
usate
▁forskolin
▁ionic
hyd
-7.
▁44%
▁-7
▁depolarization
▁holo
▁HP
▁powder
▁1.08
▁confined
▁intrauterine
▁urokinase
ighted
▁terat
osides
▁(56
▁Groups
▁VP
▁Arterial
▁supernatants
ytoin
tronidazole
▁suboptimal
▁phosphatases
▁excit
0.1
SMR
(2
dC
isqu
▁predicts
otri
▁divalent
▁beef
▁granulomatous
▁cAMP
▁palsy
iciently
▁foetal
16)
▁osmolar
▁thickening
▁EEG
▁colpos
▁idi
▁adrenalectomy
aturated
▁Outcome
▁exposure
▁curet
▁examines
▁charcoal
▁cyt
mg
23
waves
ecretory
▁tox
▁antagonized
▁pumps
0).
essation
▁9.9
▁microsp
▁Adult
▁preserving
dition
▁eczema
▁amide
▁gag
▁Immunobl
.7%)
▁14.8
entricular
0)
ituit
▁epinephrine
▁selen
▁branched
athy
▁dihydro
▁solely
onit
30
▁(2)
▁1989
▁Subsequent
casein
LTS
▁0.14
depend
▁ipsilateral
aryngeal
▁131
tructions
effective
▁0.001),
▁86%
▁magnesium
▁specimen
▁remission
▁linoleic
▁70-
▁Therapy
▁(0.6
▁chloroquine
hene
▁originate
▁isolate
apsulated
▁subtype
▁phage
rease
▁anaesthesia
redoxin
ilution
fted
▁uv
80
NSAID
▁oscillations
-6,
▁inferred
▁vascular
▁photoreceptor
▁acne
▁modeled
tosis
▁manufac
adiol
tering
▁hydroly
▁4.2
▁11-
produc
frequency
▁Vitamin
▁surgeons
12-
▁ethylene
▁folding
▁mIU
▁contaminated
▁reas
rolase
▁polyamines
(-)
▁chondrocytes
tice
▁endoscop
▁recor
▁immunobl
hern
olyl
▁elu
▁conclu
taldehyde
established
▁ascending
▁9.
oglobulin
cinolone
toxic
▁5).
▁enhance
LAD
▁1-5
▁(0.25
▁centers
iotensin
▁cate
eric
▁phosphorylation
▁450
▁dextrose
▁destro
requ
▁tracers
olipid
▁neurotoxic
▁gingival
▁titration
▁reductase
▁133
Dawley
orate
▁9-
▁(1.25
▁yolk
▁seronegative
▁occupancy
▁shifts
▁packed
convulsive
▁subdivided
▁suspended
▁confirmatory
▁progest
▁sulfonylurea
▁balloon
▁tandem
▁mares
▁autoanti
▁intravenous
asions
▁monol
▁collic
▁transients
▁fourteen
▁macrophages
▁proce
▁activators
▁connec
▁asymme
▁deform
▁challen
ositis
▁(82
▁destab
sis
▁swit
▁comprised
fusion
hCG
tructive
▁Immuno
hop
CCK
▁Replacement
EDP
unctional
xime
▁thromb
atest
▁gradients
▁tachy
AII
▁vasodil
▁Compared
▁atopy
95
▁(2.6
▁leukocytes
▁metoprolol
DG
▁prazosin
▁unil
▁electrode
▁coagulation
tris
▁phosphatase
▁decades
▁adiposity
MDA
▁ultrastruc
▁disappearance
▁flagellar
▁antimic
24
▁leukocytosis
llig
▁tas
EGF
▁hyperpolar
▁fec
▁househ
▁vagus
▁seiz
▁inducing
▁Electrical
▁premature
▁inulin
isolated
▁operon
oxybenz
IgG
feeding
itating
▁(71%)
▁synthesize
ught
▁hypo
osynthe
▁atres
▁selective
8.
▁(10%
▁amyl
▁fluoro
associated
isoxazole
▁Meth
▁Phosphor
▁involvement
▁discom
lyc
▁occlusal
▁regimens
▁65%,
▁cyclic
orrha
▁cuts
▁incom
▁occlusion
▁dissociated
▁hematopoietic
posterior
LDL
▁comprehensive
▁14)
▁deposition
▁practitioners
▁stains
▁MT
▁40-
/10(
▁cochlear
▁whey
▁TC
▁lob
akalim
rocyte
▁otitis
▁nucleotide
▁Grade
▁childhood
ovirus
igible
cele
▁encouraging
▁nonm
▁titer
ymethyl
▁defective
odgkin
▁Systemic
▁rost
▁15%.
▁mononuclear
incub
secre
▁retraction
transformed
▁RBCs
▁iod
▁dispersion
▁difficul
▁toxicity
▁immunohist
erents
▁formulation
▁(67
tropine
geal
▁septum
blocking
plasty
▁saturating
▁cavern
▁Considering
challen
NIDDM
▁43,
enters
etus
▁specificity
▁Factor
oclonal
aneously
▁hypon
▁incubations
▁Transient
▁collagenase
▁coil
▁Significant
erge
▁ADR
▁reservoir
▁Glucose
▁lectin
▁formalin
▁schizophrenia
▁PtdIns
fortable
4.
▁triamcinolone
6-
▁methylation
▁kerat
▁papillary
oxidation
▁recycl
▁serologic
▁monke
-1.4
▁suppressive
55
▁airflow
▁SRIF
trexone
▁squamous
▁0.06
opar
▁Lys
▁transformants
▁Hb
▁discre
▁quiescent
▁0.33
▁threefold
▁releasing
▁encephalitis
operative
▁NF
▁detec
▁4.1
-65
▁siblings
▁gangl
▁replicate
▁tric
osan
▁precursor
-2-
▁identifies
reatine
▁ammon
valvular
moking
▁stressed
▁anticonvulsants
▁atten
Lac
odopsin
▁replication
ishman
sants
▁colitis
opulation
aind
arate
▁recipient
erance
acterial
oradi
▁characterizes
▁84
▁abdominal
thoracic
▁endocardial
▁healing
anate
▁decayed
▁0.4
rosemide
tenti
▁diary
▁microsomal
activation
▁pollu
▁debr
▁abilities
▁hypothesized
▁oval
comitant
▁3
▁progres
▁stimulatory
2.1
▁fluo
▁194
▁bladders
▁uniquely
▁correlates
▁bone
rowing
patient
▁densely
▁cellul
hentic
▁origins
oflav
▁surgical
▁differentially
▁experim
▁CaM
▁protozo
▁polyethylene
▁assay
▁(1),
▁(23
▁rickets
cholic
▁proliferating
▁meperidine
diagnosed
▁inward
▁GH
imetic
▁aims
ophyll
▁consequent
▁fundus
▁18
3%)
olamine
▁Trial
stolic
▁ointment
▁defects
▁hypoxanthine
IgE
▁0.24
▁radioactive
MHC
▁phe
usively
▁bicycle
▁stoichiometry
▁liters
▁eccentric
glutin
▁toxic
▁integrin
trast
ropathy
trac
53
▁34%
odeoxy
okine
PIA
▁interneurons
▁cytochemical
▁instruc
rP
▁judged
▁heterogeneity
▁synerg
▁horseradish
3,000
-5,
▁fungi
▁Feeding
▁carboxy
ections
▁Simultaneous
netium
▁hyperp
kephalin
▁DG
▁postinfection
▁questioned
azone
opril
ocyt
▁25,
▁mucosal
▁relating
atine
NMR
aternary
▁emulsion
25)
dUrd
MSH
irone
▁parasites
▁exud
okinetic
▁90%
resistant
▁staphylococcal
▁inactiv
▁compromise
▁ovariectomy
▁1,25-
▁vag
▁hig
▁cohorts
▁HCO
▁migrated
rosal
emias
▁coex
▁acids
▁contractile
▁demonstration
▁digested
mia
▁6.5
▁primates
▁concomitant
▁1.9%
▁newborn
▁Diabetic
▁phosph
iclovir
differentiated
tizing
▁pharmacy
EA
▁epithelium
▁myot
voltage
▁affinities
▁phy
▁autosomal
▁shel
Vmax
biotic
▁(1)
▁whee
PV
▁167
▁radioactivity
fractions
▁vanadate
▁inconsistent
opharynx
▁16
▁preferential
.9%)
spectrum
▁depressive
phic
pain
▁participate
▁undergo
4-
▁graft
▁indi
inol
oglyc
▁cancers
-125
magglutinin
anthracene
▁VAS
▁trophob
roprusside
▁(3-
ylation
▁definitive
4]
▁drinks
▁cholangi
▁120
▁babies
azep
▁IgG
▁1.09
105
ortal
▁Tiss
▁aortic
▁GST
▁NaF
▁cephalosporin
PLC
▁symptomatology
▁0.9%
▁poten
uvant
▁irrit
▁manipulations
▁intrath
▁thal
ffer
▁galact
▁adoptive
ulin
▁spont
▁80.
▁conduction
▁transmitter
▁assessed
▁sagittal
▁182
▁diuretics
▁cytologic
▁regain
▁abrupt
▁stimulant
▁oss
▁androgen
▁neurotrans
▁4.4
▁distinguishing
aortic
▁NMDA
▁sedation
.5.
omal
▁versa
▁1973
esin
▁echocardiogram
loon
antagonist
itamin
diagn
ulant
▁lymphoma
▁myelin
▁employe
▁Drosophila
▁LR
ture
▁mediated
ipar
▁lutea
▁10.
▁rearranged
▁oxid
etoprotein
▁antide
▁blocker
▁Ventricular
▁inver
▁isoenzyme
colem
▁hap
istribution
▁exploratory
▁kit
▁BT
▁predicting
▁uric
igenic
▁lengthen
aminopyridine
▁receptive
▁subun
▁prostatectomy
▁spectroscopy
▁exons
oil
▁patches
32
▁electrically
▁threonine
▁DN
▁nocturnal
ocar
▁mL
▁0.03).
regulated
▁4),
▁Glu
reductase
connec
▁herpes
▁ofloxacin
▁50%,
▁radionuclide
terminus
36
▁carcinomas
▁centres
▁thrombi
▁hygi
▁radiograph
sue
▁infrequ
▁stimulation
▁electrogenic
▁oocyte
▁microliters
▁metall
▁DNAs
▁inducible
▁systemically
▁projecting
▁outgrowth
▁freeze
▁arti
▁1.24
▁quantitatively
▁(12.5
puts
▁impulses
opterin
radiation
-3.0
▁develops
▁suited
onor
mol
▁monolayer
▁chondroitin
▁pathways
▁cDNAs
▁weighed
2(+)-
▁aberrant
▁(5)
▁5-
▁IGFBP
GABA
▁homogenates
epiandrosterone
▁urodynamic
atibility
▁Lym
▁inactivation
lysis
▁0.52
▁minimize
▁triglyceride
▁24-
2),
1.1
▁catalyzed
tility
▁bronchodilators
enol
▁7.4
aternal
▁atrial
▁thir
▁(43
▁Sero
▁PHA
▁ischem
▁MMC
siologic
▁daltons
substituted
▁Epidemiologic
▁actuarial
▁messengers
▁progeny
▁kb
▁bioassay
ginine
chlor
▁17.3
▁anat
▁mutation
▁pregnenolone
▁concanavalin
▁Mice
▁mA
▁masking
▁64
uantitative
▁colonic
▁preceded
coding
▁arrhythmias
tectomy
▁fatigue
▁10-
▁apnea
▁insoluble
▁antid
▁similarities
▁smo
▁tomography
10-
▁22-
▁54
▁aided
ritic
▁UT
▁enteral
▁18,
▁sour
metabol
▁bones
▁(10(-6)
istically
▁exercising
ibenclamide
odipine
polyacrylamide
▁0.50
▁chromatin
▁FV
▁-15
-1)
▁repl
▁inflation
▁refined
▁predictable
▁thi
plen
uridine
▁bipolar
indole
▁nosocomial
oate
▁KB
ditional
▁disorders
▁anhydrase
yrid
▁corpus
sied
▁hyal
▁macrophage
▁worm
▁casein
▁drastically
▁Engl
5'-
▁ery
nucle
eptidase
▁vertebr
▁IDDM
▁midazolam
obacter
-37
2:
▁0.47
▁chan
▁CU
oxygenation
▁subnucle
▁234
entanil
▁hypertrophied
▁Saccharomyces
▁nervous
▁atr
Ile
▁demands
▁(50%
▁hypox
▁medial
gestational
▁0.90
placement
▁GABA
mortal
▁BP
▁dilation
▁30.
TGF
▁hyste
▁cellulose
▁irrever
▁oriented
tocop
otid
omotion
▁malate
▁protects
7%)
▁seasonal
▁keratins
▁NADPH
▁serogroup
pituitary
rays
▁mann
▁mediast
▁pouch
▁transp
cepti
37
sant
14.
▁parathyroid
synaptic
▁Pneum
▁locus
HDL
▁Ninety
▁phenol
▁86
▁3.6%
▁quinine
iagn
▁complexes
▁peptidase
iang
▁isoforms
▁nodule
sparing
gradely
GTP
▁addressing
▁shif
▁rhesus
▁isovol
▁counseling
0.5
▁Screening
▁constituted
WL
aptic
▁Approximately
▁patency
lyb
Ace
▁1)
nate
▁enkephalin
▁trich
▁telephone
▁abr
obacillus
altered
iferative
▁pacemak
cyclo
NM
▁introducing
mannose
▁hypercalcemia
▁splic
CNS
▁contraceptive
▁(5%)
▁ependym
▁biopsy
▁250
razolam
▁estrous
▁500,
tability
turb
▁surfact
uccessful
▁duodenal
ffinities
ocholine
▁SOD
His
▁paralle
▁(16
▁adrenocortical
imotor
▁splicing
▁lysosomes
▁resting
▁dental
▁resin
▁tracts
▁pts
izine
rendipine
▁triad
▁0.09
▁bronch
▁SIDS
ranial
▁(0.2
▁reductions
▁urethral
▁rheumatoid
▁tauro
6%
ressing
▁modulation
.6%
reed
▁Plate
HIAA
▁testis
trations
phospholipid
micrograms
▁ascorbic
lated
▁margins
▁pathophy
operated
▁0.29
▁(80%
▁uninter
▁affective
tically
▁evaluations
▁pylori
▁xyl
ervations
▁micronucle
vertebral
▁heal
▁Clinic
gesia
orphyrin
inone
alas
▁LS
▁laminar
▁enterotoxin
▁10,
▁4,
tolerance
orbidity
trate
▁91%
permissive
▁mercury
ller
rosy
▁(40%
▁blunted
▁ICAM
thms
enoid
▁aimed
genital
oxy
osid
▁5'-
yronine
rometric
▁haplotype
cysteine
oxan
▁epidemic
▁sequencing
▁ophthalm
▁inhibitor
▁monocytogenes
ogaster
▁proportions
▁filamentous
▁TATA
▁verification
artum
opathic
▁junction
▁speculate
▁Ala
▁disturbed
▁glycolytic
oarth
▁upward
idases
density
▁interf
▁blister
▁neuropeptide
▁contral
▁13.9
▁purine
▁Efficacy
▁ganglioside
▁acetylcholine
whe
▁1.5
▁hemisp
▁IOP
abd
▁1.3-
arent
▁hypothyroidism
veolar
▁thermos
▁93
oplasty
▁PP
abain
carnitine
▁replicated
▁tendency
▁rheum
▁kidne
ganglionic
▁viewing
▁pM
-50
▁deoxy
eclamp
▁protamine
▁hipp
▁vimentin
▁explored
0%),
▁lisinopril
▁4).
▁hybrid
▁hype
acements
▁cerebral
▁cervix
▁ata
▁substance
▁goats
rief
▁glycer
▁(125
▁contractions
FU
oglobin
▁0.27
▁mutant
▁challenged
89
▁CAH
mL
▁optimum
2,
▁Weight
▁immunostaining
▁responders
▁Rb
▁rHu
ocorticoid
▁potassium
▁Histologic
▁tymp
▁encoun
avirus
▁epidural
▁correspondingly
▁90%.
ductive
▁adverse
exis
▁preparation
encephal
▁restraint
3).
SAID
0),
▁therapeu
▁-9
▁neuropath
▁polymerases
▁baboons
▁diagnose
▁esophageal
388
▁staphyloc
▁submucosal
ulatory
▁endothelium
▁endocytosis
▁premenopausal
▁impulse
▁gonadal
▁Entero
▁infra
jac
▁glutaraldehyde
alate
▁Escherichia
▁arter
▁apne
▁mec
▁synap
biotin
onuclear
responsiveness
▁blu
▁Magnetic
▁349
urosporine
▁castration
▁vasodilators
▁Preincubation
▁influenza
▁analogs
▁1.0,
▁68
11
▁9,
▁athle
oxim
ardiac
▁0.67
smoking
▁hypercapnia
teroidal
▁lumb
turnal
▁transduc
sip
astatic
▁utilizing
▁qualit
▁ison
otypes
▁calorie
▁mitochondrial
▁ankle
▁Americ
▁availability
▁Trich
timulation
umbens
▁monocyt
▁anisotropy
▁depressed
▁warr
▁intermittent
▁intrat
▁outpatient
▁ewes
▁internalized
ogens
▁belie
▁discon
▁pyram
▁deprivation
▁proteins
▁60,
rine
▁veins
▁primers
▁positively
▁ambul
Pt
ucas
▁cigarette
▁Comparison
athione
▁ruptures
glucuronidase
othionein
▁dopaminergic
▁solubilized
ureus
pecific
▁flexion
nec
▁0.07
igl
▁ovari
▁pepsin
▁etretin
▁tetramer
▁cortisone
▁maintaining
▁disadvan
▁caudate
lecainide
▁10.4
▁bradycardia
▁blin
56
▁neurons
BM
ifornia
▁Gly
ichia
▁demographic
parathyroid
▁covari
▁pellets
▁secretagogues
▁oxidation
▁GVHD
▁corpora
▁albuterol
▁afferent
gp
▁fungal
▁bilirubin
▁voluntary
MuLV
▁hybridomas
▁HepG
▁CBA
IU
▁trials
ocl
▁endometri
uresis
▁Cancer
ching
▁conges
ospor
▁23%
▁infants
fat
▁(85%)
othel
7,
tening
▁amplified
000.
▁0.88
24,
imentin
▁rehabilitation
▁NH
▁rhodopsin
carbohydrate
olesterolemia
▁protease
▁Biopsy
▁1.4%
▁unselected
rofen
orbid
ropriate
▁paraventricular
▁paramagnetic
epithelial
releasing
▁Kine
▁sacc
▁instrum
-13-
atisfactory
ometrial
▁(86%)
▁Maternal
anum
▁conservative
▁3.8%
romed
-10)
▁10).
▁Antigen
mitted
▁33-
-(2-
▁Cox
▁Female
▁organisms
▁inoculated
ipro
▁flexibility
▁147
▁anticonvulsant
▁incision
▁stom
amate
▁oestradiol
▁cardiomegaly
▁pentoxifylline
▁hyperg
▁micromolar
▁127
▁subjected
stro
▁inspiratory
▁reflec
guanosine
duced
▁chewing
-79
▁impedance
lycero
▁aggra
▁45-
pyr
▁suppressor
▁OB
▁27%,
ocardi
▁alterations
▁demonstrable
-2).
▁transloc
▁Asi
▁accounted
▁94
SMC
▁20.5
itudinal
▁unco
ampl
▁Values
uterine
▁assayed
etween
▁Cells
▁potency
20
▁edema
▁emergence
▁dramatically
▁serotoninergic
roximal
lastic
▁pector
▁nephrectomy
▁interferes
toc
▁10.5
hered
yroid
jun
▁DH
▁micrographs
imolar
▁ongoing
atab
erule
▁lasted
oreceptor
▁hemodynamic
▁sucralfate
▁investigators
▁wards
▁submaximal
▁(45%)
▁dischar
▁familial
▁adrenoceptor
▁possesses
▁bouts
▁0.19
▁Meas
translated
▁monophosphate
▁helical
▁behavioral
▁heel
▁butyrate
▁aneurysms
▁coeff
▁10-20
odilution
strain
▁superimposed
▁instr
aminobutyric
▁BF
▁HeLa
▁resected
▁collecting
8-
▁injec
▁ubiquitous
7;
▁(10.
▁gallstones
ilical
▁isomers
▁CABG
lymph
atchard
immunized
▁devised
▁comparatively
ofl
traumatic
▁arteries
▁pathogenesis
▁contractility
▁peroxisomal
▁pep
▁1984
▁shunting
▁adducts
▁widespread
▁resemble
▁ethn
▁lymphaden
▁prevalence
▁Apgar
athyroid
keletal
WB
▁biosynthesis
atellite
▁adhere
neuronal
▁eug
▁MHz
▁adrenals
▁naive
▁irradiated
▁dentate
titude
1:
▁influenz
▁181
▁histology
▁2.4
▁Diagnostic
▁paradoxical
▁vasodilator
▁pellet
0.4
lora
▁permits
▁dib
▁aden
aethyl
▁anoxia
taining
generating
▁extrusion
diastolic
▁Caucasians
edded
▁encephal
▁bonds
▁prefrontal
kets
ulous
▁1986,
▁subclasses
▁0.2,
otroph
▁Barrett
▁confirmation
▁therapy
▁meth
▁bioactive
▁1.6-
AChR
▁reinforce
▁sepsis
▁stereose
▁diame
▁hyperox
▁209
cein
▁pneumonia
+,
spar
▁latex
▁ECG
kelet
yx
▁postulate
▁additionally
anese
▁atypical
greater
hepatic
▁monoc
▁reapp
▁provid
hydroxylation
▁52%
-2
▁sphe
oflurane
▁principally
▁guidelines
▁Disease
▁CPR
duce
ritical
ecyl
▁0.81
▁recruited
▁initiation
▁lowered
▁Recovery
▁competing
▁parac
CHD
▁advan
▁tonic
▁meiotic
▁scavenger
▁unipolar
hydroxy
▁solvent
▁ischaemia
oconazole
-100
attered
▁polyamine
▁3.5
▁4.9
▁socio
▁DAG
okinase
▁valine
▁analgesics
▁atyp
toid
tivity
▁Failure
▁pKa
▁screened
42
▁emphasis
▁terminus
▁thyroid
epsia
years
-801
▁amino
junctional
▁chemically
▁(41%)
▁stres
▁Cd
osocial
tonic
▁chloroplast
-66
▁mood
ophilus
▁80%.
▁LHRH
spective
▁mandatory
59
osterone
ascular
▁quantitation
▁microbi
▁spleen
▁respects
▁reflex
-100%
▁polys
75
▁Activation
▁obstetric
▁hydrocortisone
otrip
▁CTL
▁personality
particularly
▁sinus
▁tyrosine
▁albic
BMT
▁27
0%).
▁LTR
▁imbalance
▁scintigraphy
pigs
▁Sequ
actin
▁microm
▁Recommend
▁cloning
▁SCC
tomycin
▁raphe
▁autoimmune
ositol
▁Nons
▁merit
centr
▁precipitate
hydro
14
romyces
planted
opressin
▁serum
ACh
▁granules
rated
▁diclofenac
ollen
▁hippocamp
▁vesicle
uppres
▁cleft
▁endings
▁OKT
▁comprising
▁palmitoyl
▁athletes
promazine
▁Transi
▁goiter
▁49,
▁indo
▁microf
macroglobulin
ohnson
ithromycin
▁Improved
▁(3),
▁adherence
▁recommendations
▁retinal
▁Delayed
▁hydr
▁0.48
atical
▁thresholds
physiological
▁augmented
▁outflow
▁implications
▁prodrug
▁splenocytes
▁incorporated
▁1991.
▁rheumatic
▁esterase
▁1.5-
obase
▁intracellularly
▁stenosis
▁cystic
51
olesterole
▁28,
▁Physiol
▁quanti
bino
▁functionally
▁Asn
▁discs
▁13.
▁mechanics
▁resul
▁PU
ohns
▁enzyme
truction
▁ubiquit
▁considerably
▁quail
oglutarate
▁bending
▁0.2-
▁discontinuous
▁superco
▁schiz
ipid
▁schedules
ipit
▁connective
ifluo
▁homology
▁neurom
▁proteolytic
▁practic
agonist
▁50,000
▁phantom
keratins
▁unmodified
monstr
▁segmental
▁transgenic
aryn
0-
▁(99
▁luteum
.10
▁formulated
▁raises
▁leukemias
etaz
physe
▁elucidate
-2)
dil
▁uninfected
stant
▁nevertheless
nour
▁xanthine
▁overload
▁hypothyroid
hyde
lipoxygenase
enzymes
▁determination
atrial
▁0.86
50
▁transplant
▁absorb
▁incubation
▁synaptic
entia
▁(5.1
▁AKR
rosis
osom
glyc
▁proteoglyc
antial
▁trabec
KD
tempor
▁CML
▁(58
▁lavage
▁perin
▁arteriolar
▁Laboratory
rotin
▁2.5,
▁hirsutism
▁unstimulated
▁morphology
▁corticosteroids
▁lesions
0%,
ucleated
▁owing
▁EDTA
▁streptozotocin
▁Nit
RIA
▁veratridine
galactose
Hb
▁trapping
▁intercal
lamb
enterolog
▁physici
oung
atids
▁ionophore
ynthe
▁intermedi
▁rostral
▁habits
▁Subst
pI
▁cataract
crystall
rone
▁thrombus
▁bicarbonate
▁thromboemb
▁antec
gesic
▁mV
▁gemfibrozil
▁neutrophils
▁lineage
▁boutons
▁natri
transfer
▁incontinence
-7
▁0.38
▁oligonucle
▁precipitated
ulants
▁lympho
▁microenviron
llate
▁acet
▁salbutamol
▁caro
▁puber
▁pyridoxine
uity
▁venous
adenine
▁Almost
▁abrogated
▁retin
dihyd
▁burns
anoids
▁Thyroid
▁kPa
▁classified
▁cream
ancies
▁2.1
generation
tradiol
▁etiologies
▁singly
▁73
▁foods
▁carbamazepine
▁(5%
▁sial
▁hypertonic
▁anionic
▁chol
▁secretions
early
▁cereal
▁stratification
▁Improvement
▁chronically
▁-0.7
aryl
cens
▁hydroxyl
▁nodular
oprol
▁peptide
▁spanning
▁aflatoxin
aric
▁mitochondria
▁toluene
▁cortex
aerobic
▁maneu
▁reiter
▁distin
▁femur
lymphocyte
irectional
divid
uronal
▁protective
▁heterogeneous
▁accumulate
▁47%
▁5.5,
-4.
▁115
▁kidneys
oplastic
▁Leuk
▁investigated
▁hypertensives
operfusion
▁supple
▁GHRH
▁colloidal
▁Basal
▁nausea
▁Plas
▁Phe
mole
▁serology
ications
chymal
▁azithromycin
▁responds
▁leprae
amellar
cyte
▁tablets
▁euth
▁swimming
urnal
▁Alz
oplasm
▁strain
WBC
▁scle
▁elderly
▁urtic
platinum
(1)
Gly
idin
acrine
▁2.5-
▁facilitated
▁collagens
▁fluoxetine
tric
tetr
agarose
▁12
▁calf
▁protracted
▁myof
obacterium
ithine
methionine
opath
▁TNP
▁streptococcal
▁1966
kers
▁bim
▁implic
acer
.0)
attached
porting
▁supernatant
andard
▁NMR
GlcNAc
▁complementation
▁metallothionein
onitrile
▁cutoff
odopa
▁spermatogenesis
▁SCH
ammonium
▁440
▁0.001
atched
▁carcin
-75
luc
ults
▁189
carbox
▁harvested
▁monocytic
icillin
▁suction
lys
127
▁interne
▁intermediates
▁stratif
apsular
▁cine
▁550
▁Streptococcus
▁dissolved
abin
clonal
▁antidepress
zine
19)
▁fibrillary
▁uncomplicated
▁conjugate
lational
▁stomach
▁cereb
▁microbial
▁jejunal
leuk
▁sph
androgen
yel
▁immunity
clerotic
▁amyloid
60)
▁spores
araldehyde
arb
▁chimeras
obarbitone
▁illness
▁agar
▁incap
▁amin
stin
deficiency
rophy
phot
isomer
ensin
:00
▁depressor
▁agonists
coupled
▁Measure
64
▁ACh
▁ischaemic
▁16%
▁(95%
▁infections
▁rIFN
anded
usp
oprosthe
▁congenital
▁immune
▁volatile
▁24)
▁0.02)
▁110
-25
ithin
▁coincident
▁insufficient
EBV
▁stimulus
▁slows
▁fibers
▁stimuli
▁immunotherapy
thmia
.4%
▁clon
flurane
eal
/6
▁segreg
▁illumination
▁allevi
▁epic
▁radiographs
▁responded
▁antigenicity
▁MCF
▁ions
▁10(
▁prostaglandin
weekly
▁infancy
▁dimethyl
▁monit
anuary
muc
permine
mokers
▁Bloc
apeutic
▁rises
▁Flu
ometr
▁permissive
▁200
▁82
assi
▁drops
arterial
▁scaven
gold
▁Chronic
▁sulfur
▁taurine
▁EB
▁cholecystectomy
▁chorionic
▁monomer
▁implant
▁ovulation
fibr
▁arginine
ureas
▁rhythmic
▁(1986)
▁superc
gic
▁10.8
▁Subjec
administration
dione
osaminidase
▁RSV
▁multicenter
ardia
▁varicos
ipolar
▁lute
pation
▁somatic
▁erythemat
▁prescribed
▁avoiding
▁satisfactorily
▁reinfection
▁myotubes
▁79%
▁hemorrhage
azoxan
▁16.1
ceptual
▁Recombin
▁cesarean
acies
▁chicken
▁diastole
3.1
▁granuloma
▁elastase
▁inhibin
▁freed
methylated
tious
trypsin
urium
▁vaccines
▁adolescents
Ts
▁Cul
▁smears
▁axillary
2-
▁autoradi
rophic
▁weigh
ardias
▁cytolysis
▁paw
▁antisera
▁ovulatory
▁Fetal
onegative
▁inability
▁Golgi
▁marginal
▁sarcomas
▁-2
▁controlling
▁Subjects
relaxation
▁(199
anic
▁Shig
▁quies
▁overview
olesterolemic
vastatin
amid
itriptyline
omyel
▁washed
▁diabe
▁heating
▁lobes
▁ulnar
-3)
▁107
▁Angi
pended
▁antitumor
▁arbor
▁wells
▁ND
▁97%
▁ornithine
▁invasive
vivors
retion
▁anticoag
uclear
enh
▁struc
▁pneumonitis
▁buccal
retin
roat
▁5%.
▁identically
▁cephalospor
▁anomaly
iphene
gain
▁menopause
▁exhibited
▁rosette
▁cryst
Lys
-3.
aginal
IgM
▁chemicals
▁Tn
Hep
olestero
▁HCl
▁parturition
▁electroph
▁primate
lycemic
▁(0.8
▁deaths
500
▁isoprenaline
▁healthy
▁caud
▁androgens
▁dihydropyridine
▁saliva
▁7%
▁Dise
ohydrate
trated
▁reoperation
amilies
▁intrahepatic
pyrid
▁1988,
▁plex
titution
▁metaphase
▁clearance
▁199
PTH
▁Increas
olic
▁15-
▁255
▁10.2
▁deletion
▁elong
razole
treated
▁savings
-11
rostened
▁Biochem
dIns
pH
▁monos
▁kits
▁insulin
▁dysp
oprost
▁nip
▁nigro
▁propagation
▁pneumococcal
▁jejunum
▁subclinical
▁122
▁conservatively
▁sigmoid
▁subtilis
effectiveness
▁126
▁PCR
▁organism
103
▁retrie
▁rhe
▁lactose
▁7.9
▁innerv
▁Thirteen
ucle
▁lysis
▁topo
ticle
▁Prol
0.9
modified
▁responsiveness
acetic
ulose
▁RI
▁104
▁agon
▁micrograms
dense
▁10(3)
0.0
lood
guing
▁aluminium
titu
▁accelerated
endorphin
▁pulsatile
▁Newly
onary
gestrel
▁spikes
▁nutrients
▁gp
▁inflamm
▁secretagog
▁DNP
▁stere
▁99
▁embol
▁PMA
▁rods
▁vicinity
coun
▁60-
potential
▁microvascular
tilled
▁DNase
▁HVA
▁TPA
▁EPSP
▁promising
▁steep
orded
▁6
quam
▁nec
sive
▁50,
▁42,
▁epit
ulmonary
▁ANG
▁detox
▁synapses
kinin
designated
pendent
▁celiac
idem
▁asthma
▁resembling
▁50-
▁cyc
▁88
▁administered
lusion
▁parental
thromb
ralazine
▁reinfor
▁granule
▁plotted
ivac
▁138
▁7
▁afferents
▁autoregulation
uppression
glycero
imentary
▁mg
▁platelet
▁hyperplastic
▁contour
▁intraocular
▁photoaffinity
▁induces
versity
▁340
▁mesenchyme
▁extracorporeal
▁noninvasive
▁glycine
▁neuropeptides
ilateral
maximal
▁tetrac
0,
orec
▁promoting
▁Bacillus
▁opac
▁defibrillation
hydroxyd
aneth
▁ate
▁aneuploid
▁candidiasis
▁TSH
▁(84
Ep
▁differentiation
toli
▁ecz
▁1.16
planchnic
rologic
phyrin
partic
▁caregi
ALT
▁excluded
▁superficial
ruc
ropha
▁cac
▁nascent
exper
▁ANP
▁dissected
▁tectum
calor
▁isomer
▁circumferen
▁biological
oA
▁pancreatitis
akary
ronch
havi
therapeutic
▁feasibility
▁predominated
▁HBe
▁schem
▁effec
▁anastomoses
PAP
▁Pb
alities
▁0.2%
▁hered
▁lam
▁chromosomal
▁promoters
renz
▁dinucleotide
▁phenotypic
▁arousal
▁Individual
ratic
▁saphen
itoring
odynamic
icidal
▁protocols
▁potentiate
▁proes
7,8-
▁cadmium
▁prerequisite
▁digiti
adily
▁0.25%
▁successive
▁sporadic
▁absorbance
otassium
▁BA
glutinin
▁constitute
▁CDDP
anol
▁rupture
▁pipette
.1
▁14.5
▁resorption
▁shar
wann
▁capability
▁(300
▁somatostatin
▁IGF
▁deformation
-6)
facturing
dyle
testinal
▁assessing
▁altered
▁anxiolytic
▁postin
▁indis
▁semiqu
▁phenyl
Phe
2).
▁penile
▁Mg
▁0.005).
imurium
▁fluxes
▁3,4-
▁methodologies
5,
▁coag
▁Bacteroides
▁Prolong
eclampsia
▁hepatotoxicity
▁monocyte
▁allerg
CAM
▁polymer
▁prothrombin
▁BAL
▁serotype
gonal
▁mice
ifug
atrop
▁microv
▁28%
▁maneuvers
5]
▁diminish
oprotein
resolution
▁statistically
▁infertility
▁176
dR
▁hamsters
▁anemic
▁improves
tiary
▁synthesized
▁(63%)
iliac
▁osteoarth
▁supras
▁uptake
▁Carb
iatal
▁63
phosphate
amic
▁interventional
botic
▁denti
acetamide
▁ionized
trib
▁fractional
▁intracellular
nish
basal
▁CNS
▁resusc
proven
▁stringent
naph
▁mRNA
▁spectroscop
leucine
teria
▁weaker
omatis
▁31,
▁rifampin
▁extrap
▁seventh
conditioned
▁reveal
▁interp
▁uncoupling
14,
▁cyclase
▁omeprazole
poor
▁undetected
directed
▁sero
15.
▁amel
▁valvul
adren
emak
inephrine
phyloc
▁enanti
asting
ioma
▁pyraz
▁remnant
▁psi
▁precursors
▁carboxyl
▁washing
▁cytomegalovirus
▁reperto
▁preferen
arachnoid
tual
▁obstructive
25
vely
gene
▁Experiments
nary
▁amygdala
▁myeloperoxidase
encephalic
otransferase
▁DVT
▁antiserum
▁effusions
▁19,
-2,
▁PRL
▁metastasis
▁victims
▁ducts
▁Thin
oproterenol
opoietic
butyl
▁ouabain
▁corresponded
▁treating
▁effectors
reactivity
antagon
uptake
▁ero
yltransferase
BAL
etitive
inositol
criptional
iper
▁Muscle
▁untranslated
▁revertants
▁phenobarbital
▁lumin
teroid
▁anes
▁CDC
▁injected
PEG
went
osteroid
▁phosphoprotein
▁Ure
portant
osensory
plasma
truc
▁assembled
reacting
3%
▁atherosclerotic
▁65%
▁cytosol
natally
▁hexokinase
▁paren
▁pharyng
▁PBL
ediatric
▁PVN
▁comparative
▁expense
▁anterograde
▁thoracotomy
▁facial
▁facilit
')2
▁clearances
▁aspartic
▁111
▁5.5%
ovulatory
-8,
▁cytostatic
▁1977
▁Mutations
atified
▁175
rospinal
▁125
▁electrolytes
▁isolation
▁leuk
▁soma
trisphosphate
▁interv
acid
▁neurochemical
induced
atching
▁intraluminal
▁transplantation
▁atrium
▁stiff
▁goat
▁inadequate
▁2,3,
▁pneum
▁Testing
ongue
▁Experimental
▁mediating
ivocal
▁vegetative
availability
▁masked
▁5000
▁101
▁exacerbations
▁curriculum
xate
▁midbrain
▁sati
▁LPL
yto
▁serially
▁revealing
hexyl
duc
renin
▁electrophoresis
lysine
entile
▁(29
▁IMP
▁microspheres
▁patent
(3
▁suprac
▁0.7
Ci
▁footprin
▁Prac
ucine
attern
▁subcutaneously
▁afl
▁chamb
▁adenoid
▁lamb
▁gluc
▁cerevis
tose
▁effectiveness
▁antis
-1.3
▁Combin
atell
functional
▁traced
▁diarrh
▁efflux
agastrin
ofib
▁nonspecific
▁inters
▁defibr
(2)
▁percutaneous
▁70.
▁paradox
mentation
▁fibronectin
ygotes
▁tryptophan
jug
9]
▁ket
▁1.07
▁inhibiting
▁wheat
inase
▁exclusively
▁0.05%
-19
▁ureteral
pliance
▁(76
▁Bam
▁reti
imetidine
contracted
versely
▁(1:
▁ingestion
creatinine
average
IgA
indol
▁lipase
▁histories
▁degranulation
▁(36
standardized
▁150-
▁tubes
▁cathepsin
▁Exercise
▁homogeneity
▁Different
▁beverages
▁eating
▁congen
odynam
▁inositol
dependently
▁particulate
▁cruz
▁contracture
▁23
tracellular
▁21-
▁endarterectomy
▁diagnoses
▁endoscopic
▁progestogen
▁latent
▁22)
▁(1.0
▁Isolated
pendicular
▁accumulation
▁myocardium
▁oxalate
▁RBF
▁oxidized
within
▁posture
▁lesion
lli
▁transplanted
▁gon
▁lumbar
▁deviations
▁inversion
▁fourfold
▁surgically
▁recru
▁oleic
▁Benz
▁febrile
▁devoid
▁pharmac
bearing
▁(63
▁prostaglandins
