oscopy
ulatory
▁airway
eight
oscop
▁fetal
▁muscles
▁1.
lastic
onin
▁findings
▁stenosis
omized
dominal
sial
bility
▁hemodynamic
▁genes
▁pelvic
▁PV
versely
▁undergoing
▁thoracic
▁pyl
aints
▁exposures
atients
▁injected
▁pH
▁atrial
aryngeal
▁cancers
▁disruption
▁experim
▁maternal
▁considerably
▁reductions
pite
▁emerg
▁complic
▁determinants
erin
lec
▁rati
▁15
▁GM
▁atten
▁diagnosis
crimin
.7
▁MHC
omal
▁adequate
athy
MN
▁cardiac
rated
▁undertaken
▁tooth
armac
▁regimen
▁hypertensive
49
▁dietary
▁cumulative
chol
BG
ycl
▁preparation
thal
▁diagnosed
▁ultrasound
▁Clin
jug
ocyt
▁vaccine
▁cerebral
gative
▁leukocyte
mature
patient
▁spontaneous
▁concer
▁carb
▁mell
▁glomerular
leu
2%)
osts
ortic
▁remo
▁differing
▁PT
▁multiv
▁coronary
▁intensive
▁glut
▁biological
▁chor
▁ACE
▁spinal
▁TA
▁substances
▁screened
▁satis
▁20
▁facial
ults
▁aneurysm
▁500
ditions
▁percutaneous
odialysis
▁umbilical
BV
▁anticoag
▁congenital
▁indication
treatment
▁hypog
▁prophylaxis
phrine
ctive
▁inversely
▁leuk
▁colorectal
▁preparations
▁influenz
▁testicular
urine
▁chemotherapy
▁adjusted
▁uptake
▁presenting
▁Increas
▁pathology
onomic
▁limb
▁adjuvant
▁diabetes
▁elic
▁HLA
▁catheter
▁hormonal
▁hormone
.5
▁hepatocytes
▁clinic
▁spon
▁CM
▁intrap
▁prophyl
▁32
▁neutroph
▁chan
▁distin
▁diagnostic
▁nal
▁overl
ercise
▁elu
▁amyloid
vents
▁normo
rophob
25
loro
▁physicians
▁relap
▁contral
▁wound
▁plaque
▁RT
▁assessing
▁31
▁benz
▁sensory
▁homogeneous
▁oxide
▁2.5
▁reag
▁inhibitors
▁organisms
▁liver
▁dental
▁predomin
tin
renal
▁cephal
▁syndrome
acr
agic
▁chloride
▁acidosis
onyl
.2%
ept
▁positively
loid
▁pulmonary
▁implantation
▁pneumonia
▁implant
▁pressures
▁dosing
▁remission
▁chemotactic
entan
▁PI
10
▁neutrophil
▁chond
▁drinking
▁predictive
▁herpes
-6
▁mellitus
0-
ycin
ocl
1)
▁postoperatively
▁judged
▁heterogeneous
▁eliminated
▁GV
▁venous
rous
itr
▁diabetic
13
rogen
unctional
derly
▁systolic
53
▁labeling
acet
▁pyramidal
vul
▁metabol
6%
14
▁aorta
▁severely
▁discrimin
▁tas
bacco
▁moderately
ontal
▁healthy
ogra
▁intrav
▁mamm
itary
▁establ
▁identif
▁MV
▁illness
cine
▁abnormality
▁PE
spective
ocytes
▁schiz
▁impairment
▁metastasis
ostic
itin
▁150
ergic
uvant
▁infusion
tak
inemia
▁excre
TNF
▁medial
arge
19
▁alcohol
▁immature
▁ventilation
tial
entric
▁cyt
cence
▁prognostic
60
▁antib
ses
▁surviv
urea
seud
▁HPV
▁infiltration
ximal
2).
▁prol
▁NP
▁IgM
erative
▁gland
▁Bec
▁haem
ulin
sized
BM
▁epid
ventricular
▁fracture
▁pathological
▁receptor
▁uncom
opl
▁determination
glyc
▁potency
▁elderly
▁latent
▁poten
▁demonstrating
iol
▁cortisol
ritis
arent
▁elimination
▁imaging
▁urinary
▁LV
▁systemic
9,
▁substituted
▁TG
12
▁progression
▁manifestations
▁insulin
56
▁Sout
▁amin
xia
ficial
57
tact
iasis
ociated
▁parame
idne
adily
▁morphology
idation
▁undergo
▁rhythm
▁saliv
monary
ophren
▁LC
angl
▁tobacco
▁8.
▁tissues
oes
▁macrophage
▁hepatic
▁pathogenesis
onography
75
▁describ
▁bypass
alian
▁participate
▁intraven
▁myocardial
▁assis
asic
ingle
ologic
▁metabolism
▁melanoma
erate
positive
▁40%
mitted
immun
▁contralateral
▁pall
▁mechanisms
-1,
ithi
▁excision
ocytic
▁inflammation
▁inh
▁abnormal
▁monit
▁bac
trib
tle
▁RBC
▁BP
▁unex
22
tec
4-
▁abnormalities
▁congen
▁cocaine
▁paras
▁TC
oidal
70
▁enhanced
▁challen
000
▁injections
▁strategies
mL
urgical
ration
▁carcin
usp
▁vascular
TG
▁portions
▁pharmacological
▁mucosal
40
▁reactions
▁peripheral
▁MRI
dial
intestinal
▁disorders
ariate
▁Serum
oglyc
▁chronic
▁enhance
▁BM
▁mortality
atid
▁fatigue
▁bab
▁beneficial
▁ultim
▁cultures
▁40
iable
rection
operative
ially
▁Addition
▁modest
tur
▁deprivation
▁decreas
▁proteins
▁recipient
▁reproduc
ctomy
▁48
romes
ighted
▁characterize
pendent
ilical
▁differentiation
▁randomized
▁glycoprotein
▁surf
mong
omical
aemia
▁compliance
▁3-
▁physici
lix
▁barrier
▁smoking
▁pregnancies
▁mucosa
ploy
▁plac
mia
▁risks
radi
▁influences
▁stimulation
▁Lys
igaret
osity
▁AMP
▁specificity
mittent
▁undetectable
▁reac
▁cyst
▁adherence
▁olig
taken
▁dose
▁lobe
▁nutritional
▁reagents
▁placenta
▁traum
▁infection
ivation
▁85
▁inflamm
▁corneal
▁hepatitis
▁onset
Phe
▁repl
▁lymph
▁selectively
dle
▁Acute
6.
▁complication
▁assay
▁34
tries
▁anastom
▁50
-2
activation
controlled
▁exis
EA
▁physiological
▁arterial
▁correlates
▁synthe
▁surgical
adder
▁200
▁biopsy
▁demonstrates
olution
atonin
▁reperfusion
▁tumors
▁influenza
▁confined
▁investigated
▁parental
oag
▁mediated
yro
heal
▁deficits
sensitive
▁examin
▁dys
▁evaluating
32
▁13
▁meal
-3
▁opioid
▁malignant
▁behavioral
▁HA
atitis
▁Treatment
▁prospective
bly
▁efficacy
▁CMV
DH
▁symptoms
▁resection
▁putative
▁prognosis
▁ischemia
5.
▁seiz
▁Intra
▁tracer
arb
▁14
▁pregnant
▁excluded
sion
▁pati
duction
▁horm
opic
▁ET
▁sour
tum
▁affects
ochem
▁cognitive
▁Afric
▁sensitivity
▁trend
▁enl
▁diseases
emic
ovascular
echan
▁endometrial
▁Hb
0.5
immune
▁perin
▁ratios
▁27
▁intra
inated
▁isch
icine
▁antic
▁LDL
oprote
▁cystic
▁agonist
▁poorly
ensitive
▁infected
-5
▁graft
▁16
▁lipid
▁impair
urys
▁nutrition
▁epinephrine
▁satur
▁irradiated
entif
▁classified
▁Compared
▁histologic
▁differentiate
lusion
atine
sia
tus
oplasm
▁ECG
duced
RP
tead
sor
▁temperatures
▁discus
regulated
▁angi
▁lumbar
▁strom
▁achie
▁skeletal
▁rheumatoid
▁dex
80
oradi
▁recurrence
▁perc
▁questionnai
▁oral
iatric
rele
▁vaginal
rox
▁atheros
Tc
kely
esity
▁ambulatory
▁10-
▁nodules
adequ
▁tissue
▁inhibition
▁zinc
GF
▁Pretreatment
ximum
ressed
utaneous
▁hypertension
roup
▁ure
▁exce
▁healing
▁aging
▁acqui
▁chest
▁nasal
▁genetic
▁cen
duc
vely
▁sequential
▁malign
▁sepsis
oplasmic
▁hypoxia
▁turnover
▁CK
ectomy
▁fati
▁embryo
ograms
ialysis
▁ovari
centr
▁discharge
ymp
▁adhe
▁chemot
2)
▁variability
▁corne
▁Taken
▁auditory
amine
▁intense
duce
ucle
▁radiotherapy
▁alveolar
ethyl
sive
▁lith
sies
reast
oic
▁examinations
imens
lux
alc
▁ile
4)
▁investigations
ensity
asone
ostatin
▁thromb
odies
eak
▁phenotype
▁hypo
▁99
opausal
▁PP
lym
otherapy
▁protective
vascular
▁cate
▁comparative
▁transplantation
ypical
▁intervention
plantation
▁sexes
▁polymorph
sess
▁gastric
▁disappearance
▁unde
▁diminished
▁arteries
▁bloc
ameth
natal
▁ulcer
▁lumb
▁chloro
▁rectal
▁tox
▁pancre
▁dexamethasone
sych
▁adverse
▁alteration
ascular
idity
▁VO
▁57
▁mitral
▁examination
invasive
▁insertion
▁kidney
▁oes
▁exposure
20
▁75
aryn
crib
ocular
oracic
▁saline
▁Comparison
▁atropine
▁analys
▁subgroups
▁melan
▁ae
risk
▁retention
▁autoimmune
ophilic
osal
ministration
▁carcinoma
▁morbidity
▁trauma
otomy
0%
▁elevated
▁stab
osin
▁displacement
▁PCR
▁ischem
oprotein
▁infil
erating
ocial
▁predic
▁throm
▁synergistic
menopausal
▁stimulate
eric
▁uter
▁cerv
5-
▁childhood
sy
▁therapy
▁oxygen
rents
▁lipoprotein
▁immunode
hyd
▁impaired
▁gradi
▁pancreatitis
▁allergic
▁favorable
▁carbohyd
▁toxic
oplas
▁anemia
▁periodontal
▁ethanol
▁increas
▁affecting
▁gangl
▁12
oxid
▁interv
▁deficiency
▁hepar
olic
ophag
30
▁adults
▁shor
olute
▁abdominal
▁compli
▁mothers
▁LD
▁PF
▁AI
NH
▁cervical
44
▁vitro
▁instr
4).
acts
▁asthma
▁invasive
lymph
ateral
hest
28
▁19
versity
▁7%
▁survived
toc
▁unilateral
▁transi
▁endothelin
osomal
▁effectiveness
atoid
▁transient
▁feeding
otyp
▁lesion
▁prevented
▁extre
acil
▁subtype
▁fiber
rates
▁analyses
amination
otype
HB
▁50%
▁adequ
▁predominantly
21
▁aor
8%
▁scin
▁supple
ogenous
▁thi
▁reconstruction
▁microv
8.
▁perfusion
▁emergency
▁consistently
▁sustained
▁vagal
itant
▁mineral
▁aden
0.
▁canc
lood
atient
▁1.6
ospor
▁umb
▁medication
▁contex
▁vitamin
▁defic
▁stimuli
iant
inic
▁lacking
▁follic
▁silic
▁synov
▁ventric
usal
▁DS
▁pineal
▁atrophy
▁simultaneous
▁hypothe
▁biopsies
▁phe
▁follicular
▁immune
genic
▁perip
▁suppression
▁glyc
▁hig
▁identifying
bladder
▁phenomenon
▁thickness
tein
asive
▁arth
iably
▁sulf
clerosis
▁morb
▁ultras
▁adenocarcinoma
▁esophageal
▁numb
▁reflux
▁reper
tomy
ulates
▁acids
▁unstable
15
▁cohort
▁injuries
▁nerve
nai
rosis
▁immun
▁recurrent
estis
occal
▁salivary
▁100%
clin
▁nig
5%
▁cann
▁differen
▁(5
▁30
▁collateral
▁stu
▁metabolic
▁bronchial
▁2
▁ventricular
▁ganglion
▁clinically
educ
▁prospectively
.2
▁oste
▁iso
tors
rectomy
ications
▁discon
.6
▁evoked
▁unrelated
▁obese
geal
▁PB
▁aspir
orac
▁phy
ilized
▁postoperative
onary
▁concom
▁biop
1-
▁testis
▁atr
▁localized
▁anomal
▁reproducible
asal
▁etiology
▁follicle
▁2.
lated
▁pituitary
▁intake
▁histological
▁molecular
▁85%
▁atherosclerosis
▁prevention
▁TGF
▁artery
▁compartment
ropriate
▁knee
▁retrospective
▁restor
▁physician
zard
48
feren
▁anat
▁neurological
▁immunological
▁drain
▁infarction
▁2-
▁heterogeneity
▁utilization
▁deter
▁quantit
▁laboratory
▁regis
▁elucidate
▁edema
▁thyroid
vation
▁physiologic
ochemical
MG
▁progressive
▁cereb
icin
34
▁pate
illus
ocar
▁eluc
opa
▁inhib
▁circulation
▁resonance
idated
▁Whereas
▁saturated
▁experi
▁hCG
▁Tum
herent
helin
stim
dition
▁symptom
▁multic
▁correlated
▁nursing
▁profound
▁structural
▁implic
olysis
▁pronounced
▁fold
▁benign
▁progn
▁inadequ
keletal
quid
uscular
▁micron
dose
▁reveals
▁scanning
▁decreasing
gth
▁preval
▁fractures
▁dysfunction
▁accumulation
ectom
▁NH
lact
▁antibiotic
▁diet
▁behavi
▁infar
luent
▁athe
▁glucose
▁complementary
▁7
▁occurring
▁Increased
▁recur
ancies
▁Patients
atest
venous
tained
bic
4.
BP
▁selective
hep
yroid
▁bip
phic
kers
RH
erated
▁screening
▁mobility
▁shif
▁ventil
▁Significant
▁receptors
ineal
▁peripher
urther
otor
arly
▁attrib
▁fixation
▁ey
aturated
▁esophag
▁bronch
tual
99
▁prostatic
omes
ureus
▁obesity
▁cardiomyopathy
▁limbs
▁carriers
rine
▁6
resting
▁intermittent
▁encoun
▁cere
▁cardiomy
oride
▁bilateral
▁concentrations
▁pneumon
atment
▁lesions
▁monitored
▁Clinical
▁pregn
mg
▁molecule
▁4
▁provid
aired
▁interc
▁mutations
ographically
2,
▁regulate
▁bacter
▁ischemic
▁regimens
▁seizures
▁presumably
▁anatomical
▁hepat
▁bone
29
▁theore
▁regar
▁presum
DNA
▁regulation
▁infections
▁thir
▁oxy
▁5-
▁9
▁characterized
▁proliferation
▁7.
sis
▁exogenous
▁metastatic
▁hep
▁discrimination
▁implicated
▁distal
▁PD
▁tumor
antial
-9
rophy
regulation
helial
▁21
▁contamin
▁necrosis
othelial
▁tolerated
bac
▁contributes
▁compartments
▁drin
▁RP
amic
▁vein
▁80
▁deficit
hea
gic
apse
sions
▁stomach
▁3
▁surgery
itic
▁hyperg
▁mann
▁molec
▁synerg
▁differentiated
▁heterogene
▁scans
astric
aemic
▁septum
idate
▁overe
▁quantitative
otropic
▁respon
itro
3,
▁aerobic
▁tiss
▁1-
▁assays
▁smo
gland
▁cyclosporine
aneously
▁stimul
▁ket
▁elevation
▁postnatal
mental
tic
2%
▁ane
cessive
▁sph
tinu
oplasty
entical
▁heparin
tent
odynamic
▁facilit
▁neon
▁15%
omat
▁cigaret
▁pathologic
▁preliminary
▁synthesis
▁neph
▁homogene
iotic
omotor
itus
▁cardiovascular
orectal
▁adoles
operatively
▁severity
veolar
bral
olism
iary
▁prevalence
anding
icient
lyc
▁somat
▁mono
▁rele
▁spati
jected
▁sampl
▁operative
▁embry
2/
▁prolonged
▁viable
▁aureus
▁facilitate
▁subjected
aline
▁serum
ocardial
▁heal
LV
ygen
▁detectable
.8
▁35
ochemistry
▁tolerance
▁22
taining
▁intram
coun
▁outs
▁preoperative
tive
pH
▁reas
ometr
echn
oplastic
▁hypers
acted
iminary
▁intrinsic
▁injur
▁accurately
00
onium
occi
▁specimens
owever
▁Overall
plic
ceptive
▁measuring
▁11
▁rhe
50
monstr
▁amyl
▁statistically
▁catheters
ignific
▁advan
▁muc
anol
▁toxicity
enic
EGF
▁arthritis
-1
odal
▁vaccination
mend
▁displ
▁acute
▁availability
erad
▁porcine
lys
▁latency
▁8
▁survival
itamin
27
▁lob
▁100
▁enhancement
▁gradients
astom
▁depression
eled
induced
ophil
▁dissection
▁reduc
▁connective
▁locus
MV
▁modulate
▁indications
▁mg
▁echocardi
▁glomer
▁transfusion
▁cutaneous
▁tomography
ensory
▁HL
▁gluc
orts
▁reveal
▁dilated
▁deterioration
▁superficial
▁Neither
▁alterations
▁creatine
▁maintaining
▁pancreatic
▁substance
31
gely
▁pyram
▁correlations
▁involvement
fusion
▁inhibit
▁membrane
▁hypox
▁infants
spectively
▁spont
▁nucleus
rolog
▁substantially
cardi
▁4-
▁depr
tions
▁laser
▁soy
olated
requ
▁fibers
▁tes
nec
▁Tran
▁ovarian
▁clus
orrh
▁pediatric
▁endothelial
▁scre
tration
▁usefulness
▁5.
rogenic
ilateral
▁platelet
▁prel
▁pig
1,
iciency
▁HSV
tro
▁techniqu
▁mL
▁HP
ergy
▁nonc
▁responsiveness
▁enti
ayed
▁proce
▁chol
onate
trop
atories
▁glands
ropine
▁stren
▁ana
associated
▁trials
▁susceptibility
▁intravenous
▁anxiety
▁premature
▁urine
tical
▁nec
▁angiography
thma
athe
▁psychiatric
ociation
▁implications
▁sti
▁muscle
▁HIV
▁Cyt
▁recor
▁60
ication
▁decline
1.
▁surge
respon
▁longitudinal
▁endometr
▁tumour
▁hypoxic
▁10
▁requi
▁practition
▁MI
▁excretion
▁rhy
▁swelling
▁insufficiency
▁tumours
ocyte
pir
▁pharmac
ullary
7%
usive
▁incidence
▁hemorrh
▁pregnancy
lysis
▁activated
▁clinical
▁beha
itone
▁somatostatin
▁underst
effective
oxic
▁inhibitory
▁controlling
▁prostate
▁agon
▁pneum
▁somatic
2.
eces
▁diffic
▁Additional
▁excl
tensive
▁cardi
▁onc
sts
▁pathway
opamine
16
olved
▁preservation
▁2,
▁relapse
tectable
▁bowel
▁concomitant
▁deaths
▁aortic
▁metastases
▁consensus
ture
▁functioning
3-
▁inflammatory
▁melatonin
▁supplementation
▁previ
▁antibodies
tage
▁neonatal
▁mild
ejun
▁secretion
occus
▁shorten
eration
▁NT
ocaine
entral
ologically
▁Doppler
▁practic
▁complications
▁0
acting
▁79
▁dyn
▁HC
▁preferen
▁irradi
▁comparisons
▁symptomatic
▁metast
▁evid
▁morphologic
▁exhibit
▁vag
▁drugs
▁estrogen
matched
▁disorder
▁treating
▁adop
2-
▁hypot
ergency
▁conclusions
▁1
▁Dop
▁neurop
▁correspon
opathy
▁IgG
11
ilic
9%
▁endoscop
▁normalized
.8%
▁5
▁decreased
tation
athyroid
▁sten
▁doses
▁carotid
▁renal
fos
▁vaccin
hemical
ituitary
▁moderate
▁valve
piration
▁femoral
ogens
▁fatty
▁arter
▁restric
tif
incip
▁chlor
▁drainage
▁wee
namic
▁determining
▁comparable
ronch
hern
▁opi
mentation
mented
jun
▁tric
▁fever
▁spine
▁lipids
▁1.7
▁phag
stolic
▁molar
▁examined
illary
35
▁fetus
▁assessment
▁stom
osom
▁cathe
▁eosin
▁deterior
▁bladder
yel
▁therapeutic
trol
▁treatments
▁underg
