1-2
▁anaesthe
timal
oscopy
eptides
▁validity
▁quantitatively
▁striatal
ulatory
▁airway
▁20-
PSP
oyl
admill
▁immunosorbent
eight
▁electrode
oscop
▁fetal
▁muscles
azem
▁solub
oproterenol
▁lysosomal
▁1.
ylephrine
▁1.5
aicin
lastic
onin
▁findings
directed
▁retina
▁protoc
lowering
▁Phen
▁vulnerability
oactive
▁residency
independent
▁Salmonella
▁Stimulation
▁stenosis
▁58
ochle
robial
vertebral
▁FEV
95
▁constitutional
omized
NK
▁VA
▁shortening
▁halothane
dominal
▁neurolog
▁prophylactic
▁pylori
▁AIDS
▁hazard
▁viewing
sial
▁algor
openia
▁(50
odium
bility
▁hemisp
-6)
▁androgen
▁gamma
tagland
▁NaCl
▁inducible
▁adenoma
▁autosomal
▁hypothalamic
uric
▁substantia
▁methylation
▁hemodynamic
▁genes
▁transloc
▁(197
▁measurable
▁pelvic
▁safer
▁backs
trate
▁VLDL
▁amph
diabe
ochondr
▁Experiments
vant
▁Phy
▁afferents
▁PV
ourable
versely
▁anesthe
▁isolation
▁sial
▁glycoproteins
8-
7)
▁recombination
PTH
istrib
▁OC
cyclic
▁undergoing
▁Lym
▁septal
▁Cushing
otomies
edded
▁facilitated
gesterone
▁suppressing
▁advisable
▁thoracic
▁Staphyloc
▁pyl
▁flexion
tability
▁3.5
ilep
▁reproduction
aints
rehen
▁autonomic
▁exposures
▁perfused
▁enzymatic
inhib
▁chemically
▁esophagitis
atients
▁pretreatment
▁injected
▁pH
▁limiting
▁atrial
▁yeast
aryngeal
▁pathways
retion
▁cancers
▁disruption
▁inspection
▁correcting
▁interleukin
▁oxid
▁experim
flammatory
▁eti
Cu
▁fibrob
▁maternal
▁considerably
▁raises
▁diagnos
▁Immun
▁coag
▁reductions
▁isoform
▁Percutaneous
▁mediate
▁thems
ocked
vae
uresis
tonic
▁parag
▁84
▁isolates
pite
▁ultr
trial
▁responded
▁insensitive
▁guanine
▁lineage
▁mimic
oxia
▁emerg
motic
▁complic
▁additive
▁autopsy
▁(3)
▁determinants
▁catheterization
▁catalytic
erin
▁heterologous
lec
▁rati
oate
▁produc
▁15
▁GM
▁atten
otin
▁diagnosis
crimin
.7
▁solely
▁MHC
arbox
2(+)-
▁arginine
omal
reed
ipine
▁adequate
▁lithotrip
-4-
athy
MN
onol
▁4%
▁cardiac
rated
▁undertaken
.3%
▁1.9
comitant
▁accumulated
▁tooth
ivocal
▁197
▁unexpl
armac
▁regimen
▁caud
▁hypertensive
ipher
49
▁triti
▁dietary
▁ketamine
▁desensitization
▁95
▁supernatant
▁cumulative
▁extrac
▁Radi
chol
BG
ycl
▁serotonin
bearing
▁osteoporotic
▁brains
▁margins
rocy
-50
hydroxyp
▁restenosis
uccessful
▁preparation
▁prazosin
▁adolescence
thal
▁diagnosed
▁transduction
▁resistant
osamine
anyl
formin
▁ultrasound
contrast
▁quantified
▁(9
illic
▁Clin
puts
▁extracellular
▁deliveries
▁surfact
▁confound
phosph
▁tonsil
ecu
▁prosthe
jug
ocyt
tives
kelet
▁vaccine
▁diarr
▁cerebral
▁validated
▁micros
▁rehabilitation
orax
▁depleted
▁heavier
nutrition
cAMP
▁(25
▁breakdown
gative
arrhy
▁leukocyte
▁(4)
▁cytometry
responding
▁tracers
mature
▁iliac
patient
▁spontaneous
▁dislocation
▁corticosterone
▁islets
coated
▁suspensions
▁cultured
▁concer
retin
valence
shaped
▁successive
nucle
▁fluorescence
▁Systolic
▁intracellular
▁Cys
▁placebo
▁carb
rants
▁nonspecific
▁HS
▁mell
▁MK
▁excitation
▁axons
▁noradrenaline
▁glomerular
▁(7
▁juvenile
▁RS
-67
illar
▁pulses
altered
tabol
▁babies
leu
2%)
osts
ithiasis
GD
omethacin
ortic
▁respec
▁sple
▁hydroly
▁packing
▁connec
otypes
▁remo
▁subunits
retro
▁rigorous
▁proximal
▁differing
▁PT
▁multiv
▁biliary
virus
▁foci
▁coronary
atrial
▁sero
▁intensive
▁glut
▁consequent
▁surfactant
▁adipose
tiveness
▁streptococci
76
▁biological
riend
▁DT
▁hams
▁substitu
▁substanti
▁neonates
▁-2
▁chor
▁patches
▁dopaminergic
▁ACE
trition
▁reversal
ubiqu
tization
▁spinal
▁concordance
adren
▁4.6
▁retin
▁underlie
▁Sixty
▁TA
▁substances
▁screened
actin
▁HU
▁prevalences
uclear
▁verapamil
▁satis
▁cerebrospinal
▁20
▁facial
ults
economic
aginal
▁(4
▁aneurysm
▁500
▁lymphocyte
▁3.2
▁behavioural
▁SCH
ditions
atical
-40
▁direc
▁adhesions
otoxicity
▁percutaneous
▁repaired
erence
▁deposits
▁(95%
odialysis
▁umbilical
ffinity
ifferen
BV
▁anticoag
▁cleaved
▁congenital
▁repetitive
drug
▁indication
kDa
treatment
chlor
▁insufficient
▁dilatation
▁endoc
▁enhancer
iliary
▁hypog
▁prophylaxis
phrine
rogenase
▁phon
▁intervertebral
43
ctive
estive
▁inversely
▁carbohydrate
▁deem
▁haemorrhage
▁leuk
▁colorectal
▁preparations
▁atmospheric
▁influenz
amethasone
▁Eff
▁AE
▁radiological
▁vomiting
▁testicular
urine
▁ACh
▁7-
▁uro
▁Prospective
rogra
rocal
ubted
▁Failure
▁AGE
kinje
▁chemotherapy
▁adenosine
▁epitopes
▁thresholds
▁stimulating
gnetic
▁adjusted
isol
ovine
▁uptake
▁transpor
▁OT
▁presenting
▁Increas
▁62
▁determinant
▁focal
▁pathology
onomic
▁subcutaneous
▁neoplasm
▁limb
inj
▁bacteri
facial
▁adjuvant
▁inactiv
▁neoplasms
▁glutamate
arate
tension
▁microns
▁antibiotics
▁catab
▁cortex
▁diabetes
-17
▁6.
▁macropha
▁elic
orin
▁modulates
orpor
▁2.2
atase
▁HLA
treated
▁catheter
▁radiograph
▁hormonal
▁hormone
.5
▁hepatocytes
▁cirrhotic
tice
▁granulocyte
▁carbachol
▁migraine
▁clinic
4,
▁visually
identical
▁spon
rophenyl
esting
▁phagocytic
▁CM
Daw
▁intrap
▁frozen
▁prophyl
clinical
▁32
▁perceptions
▁neutroph
▁chan
glutin
tub
▁ischaemia
truction
▁accessory
▁76
▁inhalation
plasia
dehyde
▁subtraction
▁PCO
lasses
▁phospholip
▁distin
▁1,25
▁diagnostic
atell
KD
▁nal
mur
▁Meas
▁Cycl
▁DG
▁microb
lected
▁overl
ercise
opsy
▁elu
▁amyloid
▁dib
vents
CMV
oglobin
▁BA
▁promoter
kage
▁resear
▁normo
cutaneous
▁isolate
▁telephone
▁amino
▁oligos
▁nervous
coup
cyt
▁employing
rophob
▁(3
25
rometry
bloc
loro
-10
▁biologically
▁physicians
▁calcified
▁myo
▁78
▁37
▁relap
ultural
itol
▁irritation
▁reversed
omatous
▁surviving
▁Pseudomonas
▁contral
-2-
generation
▁intraper
.0
▁blot
▁ossification
ellosis
▁wound
▁plaque
▁RT
▁cytotox
▁characteris
▁veins
▁linkage
▁spind
▁assessing
▁heroin
-9)
veness
▁chloroquine
▁31
▁72
▁motility
▁cranial
▁messen
▁sulphate
▁benz
▁sensory
▁homogeneous
▁oxide
▁2.5
▁selen
hetamine
▁extensively
▁reag
▁inhibitors
▁kD
▁organisms
▁liver
flamm
▁preventive
▁dental
linking
▁40%,
▁clinics
rati
▁predomin
▁sensi
▁radiol
uppression
▁33
kade
▁mast
▁VP
▁lumen
tin
endorphin
protein
▁ascites
▁fentanyl
renal
ogenes
phosphatase
▁cephal
▁equilibr
▁guided
▁syndrome
ertion
▁6)
ectin
▁monoclonal
ercul
5%)
acr
agic
▁congestive
▁chloride
cents
▁acidosis
▁66
onyl
mTc
.2%
▁rejection
ept
▁positively
97
MDA
lobin
loid
▁nm
esthe
▁infectious
tages
▁promoting
oxone
rosophila
▁FH
▁Hear
olol
tumor
,000
▁acco
▁discom
▁Kd
selec
▁pulmonary
▁chori
▁palli
▁polyethylene
▁carc
▁compound
▁0.02
aturation
▁demographic
▁extensor
▁implantation
▁pneumonia
▁IgE
labeled
▁implant
▁inactive
▁antagonist
aning
▁0.001),
▁(198
▁pressures
▁dosing
▁remission
▁monke
▁divalent
▁GI
▁deposition
▁chemotactic
entan
oids
oclonal
▁mmol
linked
▁mucos
▁surgeon
▁25%
absorption
▁genotype
▁Elec
ochrome
▁meth
▁Protein
▁0.01),
▁PI
▁TCR
▁centers
CDD
10
adm
aminase
▁incom
▁oxidative
adenosine
▁neutrophil
▁occupational
▁hamster
▁chond
▁seb
▁drinking
▁synovial
▁clearance
oxif
idym
▁predictive
▁herpes
tivities
tate
fts
▁wheat
▁depressive
lycemia
-6
▁subjec
trical
pinephrine
▁Accordingly
▁phenyl
▁mellitus
ocusing
tron
olone
ylline
▁innerv
thrombin
▁serine
▁neuro
▁Tc
ignificant
aluation
▁tol
IgG
ofol
▁lysosomes
▁concentrated
▁Tn
0-
ycin
▁reacted
ocl
1)
▁supra
itoneum
▁(16
▁postoperatively
▁GF
▁utilizing
▁judged
▁heterogeneous
▁Differen
Rs
▁SNP
uding
othermic
▁Large
▁professionals
▁APD
▁hospitalization
▁eliminated
▁4.1
▁GV
▁plasma
transplantation
▁0.05).
▁chromat
orotic
▁Cardi
▁strepto
▁galact
▁venous
rous
▁20.
alues
itr
▁diabetic
▁cytokine
wk
▁progesterone
▁theophylline
▁stere
13
▁intragastric
▁respiration
oxy
rogen
▁murine
cepti
unctional
▁79%
6%)
derly
▁differed
▁diabetics
▁systolic
lasts
▁corresponded
▁linearly
53
▁labeling
2+]
▁paralle
arginine
otropin
DG
selective
osynthe
acet
▁pyramidal
▁immunohist
▁transplants
increased
-3)
▁RB
vul
▁pene
edle
▁metabol
▁parotid
▁superoxide
▁alanine
▁immunoprecipit
6%
14
cyst
▁degraded
physiological
hop
▁aorta
graft
▁stain
▁ureth
▁adenine
▁catalase
▁adenylate
galact
▁oligonucle
▁strains
▁cava
▁concanavalin
▁cerebellar
▁severely
▁discrimin
▁duct
▁tas
titis
perfusion
▁antegrade
▁persis
bacco
▁0,
hion
▁monocytes
▁amplification
▁dentists
▁moderately
▁rebound
▁anomalies
▁luminal
ontal
▁pS
▁targe
-1-
▁aggregation
MIC
▁tear
▁healthy
ogra
.9
▁intrav
▁mamm
▁endoscopic
▁unchanged
itary
▁envelope
▁1985
ensitization
▁establ
▁identif
▁49
▁MV
▁dismut
▁colonoscopy
▁illus
erum
▁illness
cine
▁abnormality
WB
antigen
went
ophils
▁striated
▁immunodef
transformed
iatum
▁cardio
▁warrant
▁PE
▁chains
onuclear
spective
▁acidic
ocytes
▁schiz
▁rabbits
.4
▁impairment
▁metastasis
oxin
37
▁plexus
ymme
▁extraction
▁synapses
▁46
5,
ostic
▁Magnetic
itin
▁150
▁identi
▁bile
▁abortion
▁kerat
▁0.5
-60
▁vasoconstric
ergic
▁anesthetized
▁dimer
▁symme
uvant
tric
▁promin
▁infusion
▁transurethral
tak
inemia
wenty
fused
noise
▁excre
▁attributable
▁DN
tively
▁24
TNF
▁inactivated
▁coincidence
▁obstructive
▁alcoholic
▁pigmented
▁(18
keleton
▁surgeons
vival
▁neurons
▁medial
trimental
arge
▁demands
Mu
▁PG
▁Therapeutic
▁Inte
19
▁alcohol
▁immature
▁ventilation
▁thal
▁rCBF
roin
▁apprec
tial
▁sham
entric
zation
▁cyt
NAc
tional
cence
▁24-
▁prognostic
▁ranged
▁withdrawn
ternational
60
tryptamine
▁antib
ses
acerb
▁dox
heres
lasting
oskeletal
▁surviv
urea
▁obstruction
anic
▁axonal
seud
▁199
▁GD
▁HPV
▁parap
▁hippocampus
▁crest
otypic
▁infiltration
ximal
▁prostaglandins
▁depres
ithms
▁disks
▁suscepti
2).
▁prol
▁corpus
▁retard
▁NP
tivation
▁(0.
▁IgM
erative
▁ongoing
▁bonds
▁exerted
▁gland
cephal
▁CCK
▁electrocardi
icated
▁Bec
ostatic
▁haem
-7)
▁17
▁contractions
▁peaks
▁88
ulin
sized
chym
lective
kinase
BM
infected
▁epid
▁lobectomy
▁technically
▁unaltered
▁ejection
ventricular
▁occl
▁unsuccessful
ysm
▁secretory
olesterol
▁acyl
▁fibre
▁fracture
▁utero
pies
▁Pregn
▁pathological
▁preven
▁receptor
▁counteract
▁thigh
▁Streptococcus
38
▁reflecting
▁terminus
▁excessive
▁uncom
Cer
▁splic
8+
opl
▁determination
▁yiel
▁asymptomatic
▁endoplasmic
▁tryp
glyc
▁potency
tracellular
etween
▁epi
▁conduction
partate
▁predicts
▁RNAs
▁elderly
▁spleen
tebral
▁disturbance
trum
dies
▁latent
▁endotoxin
ogenetic
▁poten
▁fetuses
▁demonstrating
▁electrophoretic
▁agonists
iol
▁conditioned
ocele
orepinephrine
▁tonic
▁cortisol
ritis
▁highl
▁contraction
arent
▁elimination
▁imaging
▁structurally
▁neurologic
▁toge
▁excitatory
ithm
▁urinary
▁hypertro
▁normotensive
▁brainstem
▁LV
▁(0.1
▁systemic
effec
▁predominant
▁myc
9,
tryp
▁PET
▁calmodulin
▁detec
▁substituted
urium
▁phospholipase
▁IBD
▁TG
12.
12
portun
▁progression
▁Plas
▁calcification
osidase
▁feasibility
▁manifestations
april
▁breathing
micro
▁insulin
56
▁Sout
▁exten
▁multicenter
▁phosphate
▁oxidation
▁ICS
▁unin
▁amin
IIIa
xia
▁3.8
▁potent
mide
▁abundance
▁ipsilateral
▁fluoride
ficial
57
tact
▁localization
iasis
▁55
LH
▁abl
▁schizophren
▁IA
▁sphinc
limb
▁adolescents
ociated
▁Km
▁phosphorylation
ophy
▁parame
idne
adily
istically
▁morphology
▁scintigraphy
▁PSA
▁isop
▁diaphragm
idation
▁undergo
▁monkey
odgkin
tidine
▁rhythm
phyl
▁hemoglobin
▁saliv
▁pelvis
isture
monary
reactivity
thase
-3,
▁encouraging
▁neo
▁contrac
▁(20
Glu
ophren
▁Denmark
▁testes
▁ADH
▁protocols
▁LC
▁appendicitis
angl
hyp
▁overex
▁tobacco
▁8.
▁tissues
oes
▁antibody
▁epiderm
▁Ket
▁syngeneic
▁macrophage
ardless
▁electr
▁hepatic
▁conjugates
▁lep
▁lowering
sequent
▁disrup
▁blast
▁67
▁attenu
phth
tics
▁moisture
saturated
▁6%
▁pathogenesis
Ps
onography
▁organic
esium
▁Escherichia
▁allele
75
▁overweight
▁opportunities
▁describ
▁transcrip
▁aberr
▁CGRP
▁shunt
4%)
▁cytosolic
siological
alanine
iated
▁microc
▁bypass
alian
▁Hg
▁saturation
▁aeruginosa
▁morphological
▁participate
▁10(
▁nuclei
glum
IU
▁retardation
▁intraven
odiaz
▁crystal
obarb
OA
▁myocardial
▁Inclusion
▁balanced
▁assis
▁buccal
▁Changes
gents
dotoxin
▁labelled
asic
▁projec
FG
ingle
ologic
▁epididym
ocarcin
turally
▁analogue
▁NAD
sA
sities
▁metabolism
▁melanoma
erate
positive
▁40%
mitted
istar
immun
phragm
▁ery
▁contralateral
▁discontinued
▁hypertrophied
relations
▁collec
/100
▁pall
▁arom
▁mechanisms
-1,
herence
ithi
▁excision
▁Tests
uation
▁intrag
▁psychosocial
▁brady
▁3%
▁explored
▁diagnose
2),
Leu
ylation
▁8-
▁25
▁experts
▁musculoskeletal
ocytic
▁topographic
siveness
▁inflammation
polyacrylamide
enicillin
▁inh
▁10(5)
▁genome
▁subf
pyr
▁abnormal
▁bipolar
▁subjective
rone
tally
producing
tium
▁indus
▁monit
enh
ulae
▁IVF
obl
▁degeneration
HM
▁myeloid
▁HR
▁VC
▁bac
▁sequenced
olarization
oinositi
gesia
trib
▁curative
tle
▁filtration
▁sarcoplasmic
▁RBC
▁peptic
▁BP
▁unex
▁Eight
▁ethyl
▁questionnaires
▁adhesion
▁-1
▁ileum
▁typh
22
▁electroly
tec
lateral
69
4-
▁10%
oglobulin
▁Impro
▁abnormalities
▁consolidation
▁functionally
▁frac
exis
▁Wistar
▁complexes
▁congen
▁Operative
▁intrac
▁epithelium
ervice
bred
▁plur
▁4,
▁cocaine
▁paras
▁papillary
▁TC
uterine
▁Intravenous
▁CFU
▁clonal
oidal
▁thyroidectomy
▁chamb
▁mV
70
▁tryptophan
▁neurob
▁enhanced
▁(2
▁tachyc
▁challen
▁FD
▁cartil
rophic
000
▁fibrillation
▁definitive
▁injections
▁sodium
▁histology
▁comprehen
lobulin
▁0.05),
▁adolescent
▁geniculate
▁palpation
unced
▁strategies
ergen
▁4.0
▁synap
mL
▁cholera
urgical
▁coeff
ration
▁carcin
usp
anav
▁vascular
TG
▁ward
▁triglycer
▁inositol
pharose
▁reversible
▁pleural
▁30,
▁portions
▁waist
▁solubilized
oblastic
▁0.7
▁pharmacological
▁mucosal
40
▁retur
▁reactions
▁behaviors
erop
onatal
mobil
opramide
▁peripheral
▁expiratory
opath
▁Throm
tiv
▁wrist
▁1)
▁MRI
dial
▁bic
lycemic
atation
intestinal
▁disorders
ariate
atinine
▁synthesize
▁Serum
oglyc
kephalin
▁ligands
▁chronic
▁enhance
▁conductance
▁BM
▁pancreas
amide
▁indeterminate
▁astro
essive
▁AH
▁mortality
▁responding
atid
▁expend
5,000
▁PEEP
BK
▁stratification
▁fatigue
▁bab
-2,
▁elast
▁targeted
▁beneficial
thmatic
amel
▁ultim
▁cultures
▁chromatography
▁reconstituted
▁40
▁8%
▁adaptive
anine
]-
iable
rection
▁25-
▁unil
arrhythmic
operative
ially
▁laboratories
▁detachment
phthal
▁histone
▁suggestive
▁cows
ethylene
▁sarcoma
▁consis
▁autoradi
rangement
▁Addition
▁emotional
▁conformational
▁Inhibition
▁modest
▁140
▁muscul
-30
▁headache
▁physically
▁97
carcin
ophore
▁doctors
▁papill
▁insuff
▁phosph
▁reticular
▁nurses
▁cadaver
.0%
▁atresia
▁exons
▁tris
PV
▁descending
▁jejun
▁blocker
▁inoculated
▁acquisition
▁labelling
▁calcitonin
tur
esthetized
/2
▁managing
▁regurgitation
timulation
▁degrad
▁cys
▁deprivation
epti
ipramine
▁decreas
▁advances
▁suppressed
-450
opam
▁Previous
▁5.5
▁proteins
▁subunit
▁dorsal
enol
▁preferentially
▁recipient
▁medullary
▁reproduc
ctomy
▁48
▁expressing
▁reproductive
romes
/1
▁fmol
ighted
▁characterize
pendent
▁CABG
idazole
▁35%
ilical
▁enlarge
▁SB
▁differentiation
▁statis
▁oligo
itoneal
▁randomized
▁succin
▁rationale
iosis
▁thymidine
▁immobilized
loride
urgery
▁frontal
▁versa
hydr
▁mum
ymptom
▁glycoprotein
▁tyrosine
▁surf
▁Treatments
▁undo
orbol
Ly
endri
▁glu
icardial
▁defects
mong
yrox
omical
▁susceptible
104
▁180
▁thromboembolic
tents
▁preincubation
▁Leu
aemia
▁compliance
ophageal
2+-
▁3-
▁subpop
▁physici
lix
▁barrier
▁lens
▁manufacturers
▁Sequ
▁magnesium
▁laparoscopy
▁smoking
▁pregnancies
▁mucosa
▁constitutes
lycer
▁contamination
ploy
▁autoanti
lectomy
▁plac
▁lis
mia
otox
▁entero
yste
▁microM
▁topical
▁64
▁researchers
▁acyclovir
▁risks
radi
▁antagonists
▁influences
ropo
sectional
stress
otri
▁musc
▁granul
▁TB
▁rash
▁intramuscular
▁microbiological
otide
▁endoscopy
▁posi
epam
oric
bular
▁fragile
▁stimulation
▁cochle
▁Engl
▁panc
▁transiently
▁Lys
▁sarc
igaret
anish
mig
osity
▁AMP
▁newborns
▁specificity
▁lute
▁phage
mittent
▁mitogen
▁undetectable
trin
acement
▁PHA
▁negl
▁hemo
▁reac
▁cyst
astatic
▁venti
▁lungs
▁triglycerides
NM
otoxin
▁(1
testinal
▁adherence
iron
▁olig
taken
▁splen
fed
▁enhancing
▁amyloidosis
▁1000
▁hapl
▁dose
▁lobe
▁cleavage
▁nutritional
▁ethnic
▁replication
▁pump
▁comprehensive
iliac
▁reagents
▁accel
▁0.6
▁spectroscopy
ondr
ustained
ufficient
tering
toxin
▁placenta
▁mediation
acylglycerol
▁traum
▁PCT
▁myocytes
▁infection
▁urea
ivation
▁3.9
▁stimulatory
entanyl
embran
▁leukotri
▁guinea
-3-
seal
▁85
▁financ
▁deletions
▁inflamm
▁antiser
▁acces
▁corneal
▁hepatitis
▁onset
Phe
▁repl
▁lymph
▁ascertained
-8
▁selectively
gans
operox
▁desm
deoxy
▁affinity
dle
aspartate
▁Acute
▁endogenous
▁protease
▁intermediates
▁196
ostat
6.
▁regulatory
▁transmembrane
▁Dopamine
▁selectivity
▁antisera
▁complication
▁fibroblasts
▁2.8
▁assay
ellar
eliac
▁replic
▁34
▁circadian
▁traumatic
▁modulation
▁11,
olgi
▁thym
tries
▁readings
▁pertussis
▁chicken
▁Phe
▁subcellular
▁anastom
arose
▁ml
▁50
▁proton
7,
-2
▁sustain
activation
▁exercised
▁conservatively
iflu
▁chewing
▁preferences
▁tubular
▁insult
▁lithotripsy
▁FSH
itively
controlled
▁exis
▁transplanted
▁concentrate
truc
9%)
▁experimentally
iferative
▁PRP
EA
▁physiological
-8)
▁conducting
tific
ometrial
▁innervation
▁arterial
▁metastas
▁induces
▁correlates
▁synthe
▁physiology
▁determinations
▁myel
▁therap
tach
▁cation
▁Alcohol
idase
▁surgical
▁cef
adder
▁LF
▁benzodiaz
ACS
▁worsened
clamp
▁200
▁accep
▁biopsy
▁demonstrates
▁EEG
olution
iplin
atonin
▁drops
▁palp
▁0.3
▁molecules
▁ole
tened
▁percentages
▁reperfusion
▁desirable
▁tumors
▁influenza
1/2
ostasis
▁confined
▁plaques
▁HeLa
▁investigated
▁implicate
▁attemp
▁constr
▁thiol
▁parental
oag
▁artic
▁APC
▁mediated
yro
aptic
▁spectro
heal
▁deficiencies
ifedipine
▁deficits
▁adduc
teine
versus
sensitive
▁resting
▁ect
▁1986
4),
▁proteolysis
▁examin
▁dys
▁residue
▁shar
▁evaluating
▁anaesthesia
32
▁13
▁0.1
▁averaged
▁basal
minal
▁focusing
pig
oscopic
▁ablation
▁circumferen
▁absorption
▁NMR
▁fron
▁63
▁meal
▁ineffective
birth
-3
▁duoden
▁comprised
▁segreg
patients
▁leukemic
▁acet
▁opioid
+)-
▁malignant
▁scoliosis
▁suture
▁HA
▁behavioral
▁copper
▁peptide
IGF
gene
▁transfected
weighted
ipit
atitis
▁AVP
▁burden
▁Treatment
roscop
▁acetylcholine
▁prospective
bly
subunit
phosphor
66
▁laparotomy
▁efficacy
Ia
▁lipoproteins
nine
lox
▁glutamine
▁affec
heric
▁CMV
▁cruc
DH
▁paradigm
tig
ylate
▁viability
▁exclusion
▁HCC
▁198
chemical
ensitivity
▁reabsorption
▁ori
▁depletion
▁symptoms
▁resection
▁putative
1-3
thle
ritin
▁vena
▁prognosis
osterone
either
▁reactivity
▁menopausal
lyce
hospital
▁peritoneal
▁offspring
▁GFR
mol
▁RH
▁ischemia
▁stimulates
thmic
▁aromatic
▁novo
5.
glycerol
▁sulfonyl
▁lectin
▁detergent
▁seiz
▁intracranial
hydro
▁immunofluores
▁radiographic
▁qualit
▁Intra
▁evidenced
▁tracer
▁Greater
arb
▁14
othel
▁Paget
mega
geneic
▁15-
▁sedimentation
▁pregnant
▁duplex
▁elec
▁natri
alsy
▁meals
▁polypeptide
▁excluded
▁coex
▁prono
sion
▁pati
duction
▁2)
▁subc
▁45
▁horm
▁natriuretic
opic
▁dismutase
▁Incubation
phasic
▁chl
tussis
3),
thmia
▁prednis
▁125
▁needle
tribution
rae
ectomized
▁lymphoid
▁depress
▁ET
▁irrit
years
▁broader
▁sour
▁ACL
iciencies
▁oocytes
▁Recent
rying
tum
▁affects
▁lyso
-11
▁potentiated
ochem
▁pharmacists
▁3.4
▁42
▁2.7
RF
0)
yroxine
▁genetically
▁cognitive
▁Afric
▁oss
hemia
romycin
dered
▁sensitivity
irradi
▁Exposure
▁exo
▁preoperatively
iability
▁cannulae
▁contractility
icep
orest
▁evacuation
▁rated
▁underestimated
-24
▁enrol
evoked
▁GH
▁trend
adrenergic
▁enl
▁diseases
▁amygdal
▁phenotypes
emic
ovascular
▁laparo
echan
▁islet
cele
▁olfactory
xiety
▁hospitals
▁dors
▁phosphodies
▁endometrial
▁mitochondria
▁Surgery
▁atmosp
azol
▁Hb
▁cues
0.5
▁PTH
▁dissociated
Ala
ivariate
▁acceptor
immune
ayers
ocrine
▁refractory
.9%
▁pulse
▁perin
▁exon
▁fulf
▁axillary
▁ratios
idine
▁52
▁27
▁intra
inated
▁isch
▁dramatic
▁loci
▁ferritin
icine
9-
silon
▁interstitial
▁antic
gluc
terase
rever
▁motone
▁LDL
▁fertil
oprote
▁cystic
▁agonist
▁poorly
▁mRNA
▁UTI
▁EGF
-1)
▁BV
ensitive
mediately
▁slices
▁infected
itance
-5
▁justified
▁Cd
plication
▁radiolabeled
▁follicles
▁glutathione
▁crystall
▁nifedipine
▁gaps
opi
▁graft
pread
▁peroxidase
▁thrombin
▁16
▁augmented
▁lipid
▁impair
▁inpatient
riton
RB
udin
luores
hydrop
urys
▁nutrition
▁epinephrine
rocytes
▁intercostal
▁satur
luc
▁stric
▁kidne
▁calves
▁corticos
▁inges
ortal
▁irradiated
▁barriers
entif
ticular
▁thereafter
▁adducts
▁IGF
▁classified
.3
orec
▁proteolytic
chymal
▁3'-
▁degen
▁Compared
▁dendrites
▁improves
▁counseling
▁histologic
renaline
▁differentiate
lusion
1/
yses
atine
▁platelets
▁6,
enzymatic
sia
▁wors
tus
oplasm
▁mammals
▁2.1
diagn
▁ECG
▁implanted
▁improving
▁Evid
▁autop
▁individualized
-16
▁aspartate
▁manu
duced
ylase
amous
RP
tead
▁capsule
sor
▁temperatures
▁discus
oxygenase
regulated
▁preterm
lead
▁decisive
17
▁angi
amn
▁tet
▁cations
▁develops
▁lumbar
▁strom
▁achie
tran
▁skeletal
▁adjustments
▁PKC
▁inoc
▁precursors
▁rheumatoid
▁dex
80
oradi
titu
nRH
▁SDS
threatening
▁recurrence
▁LN
▁perc
osyl
▁questionnai
astolic
opres
▁oral
iatric
▁immunocyt
frequency
▁(17
0.0
▁melanomas
▁hypotension
ococcus
rele
▁vaginal
ffer
▁continence
rox
▁atheros
Tc
tradiol
▁termination
kely
esity
▁weekly
▁MEP
ecyl
▁eliciting
lapping
▁cohorts
placement
olamine
siology
▁ambulatory
ACh
▁10.
▁10-
▁kine
▁glucocorticoid
▁pacemak
incubation
▁0.01).
▁73
▁suspic
▁diarrhea
▁Vmax
▁predis
ulfonyl
▁survivors
▁dramatically
LN
feron
▁cGMP
▁coeliac
ectable
itrate
▁recons
▁nodules
adequ
sAg
▁filament
▁coexistence
▁unevent
▁tissue
▁inhibition
▁zinc
▁epidermis
▁horiz
+/
reement
▁phagocytosis
icidal
▁alkal
GF
overed
▁Pretreatment
▁weakly
RNA
ithelial
▁7.5
ximum
degree
▁myelin
▁wash
ressed
67
4%
▁IHD
utaneous
▁disadvantages
opia
▁0.0001).
▁prostatectomy
hap
▁COS
▁hypertension
▁PAF
restric
▁cervix
rophyl
▁(12
▁athle
roup
▁microsomal
▁ure
ygdal
▁heavi
▁pK
▁Fifty
brain
▁underwent
▁exce
▁apparatus
▁healing
▁intrarenal
▁Twenty
▁aging
▁adhere
▁indi
▁ubiqu
▁acqui
▁infarct
▁episodic
dimer
assay
▁chest
▁nasal
ipitation
▁postulated
▁micrograms
especially
▁genetic
otent
▁cen
duc
roxim
vely
vated
uin
▁sequential
▁baseline
KA
xone
▁colonization
erox
ylcholine
▁BALB
resistant
▁competi
▁disulfide
▁specialist
▁symp
clerotic
▁malign
▁sepsis
oplasmic
odg
▁chec
▁hypoxia
▁turnover
▁CK
▁virtually
ifferenti
ectomy
▁aspiration
▁80%
omatic
▁cloned
▁fati
erent
▁intestinal
▁embryo
ocamp
ograms
▁exhibited
▁6-
ialysis
ocytosis
▁ovari
▁hypothyroid
▁deple
uppres
▁supine
▁errone
centr
adication
▁discharge
ucleation
ymp
▁adhe
▁transmitter
▁apical
▁chemot
2)
▁variability
▁plates
▁71
liters
▁corne
▁digestion
▁Subjec
▁stimulated
▁liposomes
▁Taken
▁auditory
▁ageing
▁kidneys
pinal
rested
amine
▁diges
▁Leydig
▁citrate
ubation
▁synthetic
▁intense
▁bp
alact
labelled
duce
okine
▁mediating
uron
hering
▁histologically
▁lesser
ucle
▁synapt
▁10(-8)
ocortical
▁radiotherapy
▁inappropriate
▁alveolar
▁encour
ethyl
Gl
sive
▁lith
6).
ylamide
sies
▁intraoperative
reast
oic
exposed
produc
▁endot
▁strand
▁reactive
▁examinations
imens
lux
▁prednisone
alc
▁ile
4)
▁fluores
▁43
▁histidine
▁investigations
ensity
▁athletes
▁regulating
asone
▁audit
▁cure
ostatin
▁thromb
▁fluor
▁nucleotide
releasing
(2+
odies
eak
▁phenotype
phot
▁suspected
omerular
▁cytosol
▁plas
▁hypo
▁202
▁ewes
adiol
▁trypsin
lue
▁subpopulations
venth
8%)
▁vasoactive
odial
▁gait
acchar
▁5)
▁palsy
▁0.25
ipient
opes
yrid
angi
84
▁exacerb
▁accelerated
▁infused
81
▁lactate
▁alkyl
▁99
▁parathyroid
-19
PB
sistent
opausal
▁PP
unctions
lym
▁cavity
otherapy
▁protective
vascular
RD
evaluated
▁cate
▁comparative
▁transplantation
ypical
▁perme
▁hemorrhage
▁Biol
▁monocyte
▁iod
▁collagenase
ocul
▁intervention
plantation
▁incub
irubin
achid
▁mammalian
ials
▁macrophages
▁87
rals
▁sexes
▁rigidity
▁nmol
▁2.3
▁ionophore
▁projections
oA
▁dopamine
▁lymphadenectomy
▁(19
ecre
▁canine
oceptor
▁synthetase
▁distinguishing
24
urate
▁polymorph
▁pulp
▁rotational
▁uremia
▁DH
usate
diabetic
aminidase
floxacin
severe
amuscular
▁fibrin
▁dendritic
▁occlusion
▁habits
sess
▁gastric
▁palliative
▁disappearance
ognition
▁ultrastructural
▁ventral
▁2.9
▁haemorrh
▁unde
ropha
▁discusses
▁competitive
▁tert
▁oxidized
▁smokers
▁PGF
▁cytoch
Cs
▁2.6
▁21-
▁anesthesia
attern
▁diminished
ancre
▁Measure
▁thrombolysis
functional
responders
▁arteries
tition
▁immuno
▁bloc
ameth
▁pmol
natal
▁myocardi
anad
▁ulcer
▁pharmacy
▁lumb
▁chloro
responder
▁surrog
▁rectal
▁tox
▁practically
ilization
▁cisplatin
▁anticipated
pT
▁analyzed
▁bleeding
electro
▁pancre
▁hydrophobic
▁dexamethasone
insulin
▁substrates
irrh
chicine
▁clinician
▁paren
▁immunoblotting
sych
▁alkaline
▁derm
▁biochemistry
▁alve
▁adverse
ocellular
▁ascertain
▁alteration
umulation
ascular
idity
▁quin
▁201
▁organs
▁phenomena
▁VO
▁gad
▁resusc
▁cryst
xate
▁resemb
ritish
▁peptides
onuclease
▁Preoperative
▁57
▁analgesia
▁erythrocy
▁mitral
▁hydrogen
opha
▁EA
▁Initi
▁discre
▁optimum
▁endpoints
▁workload
▁acquire
▁examination
invasive
▁insertion
▁cochlear
▁kidney
idement
rease
▁differs
▁acetab
▁TSH
▁periodon
oxygen
▁Dil
▁cyclase
▁acetate
▁oes
▁exposure
▁1.8
20
▁polyps
▁seas
▁75
▁specialty
▁GVHD
aryn
essential
▁(13
crib
ocular
oracic
▁conceptual
GH
olateral
▁nurse
▁cAMP
▁saline
▁.05)
▁Comparison
atectomy
▁38
resist
▁differentially
istal
acrylamide
rolase
▁atropine
▁AO
uptake
▁absorbed
▁abuse
▁(40
▁hypothalamus
teral
▁analys
quine
▁ANP
▁subgroups
▁immunos
▁mammography
▁moles
▁conduc
▁alcoh
▁melan
+/-
▁ae
modulin
▁ocular
minis
▁followup
▁rigor
risk
▁splenectomy
▁LHRH
ucose
▁retention
▁UL
▁amylase
olytic
effectiveness
▁gels
▁autoimmune
ophilic
▁glycos
osal
▁elicit
▁19-9
ministration
▁widening
trover
▁carcinoma
▁morbidity
▁trauma
▁persisted
otomy
Tyr
anuary
accharide
▁immunobl
0%
▁elevated
▁progressively
ostomy
seven
▁stab
▁conclusive
▁tamoxifen
▁possi
ositi
▁rabbit
osin
▁supernatants
▁displacement
▁irrespective
▁omega
ospitals
amycin
▁contractile
▁PCR
▁propensity
▁ionic
▁ischem
▁18
oprotein
▁mature
▁infil
erating
ece
tivity
ocial
ulmonary
grees
▁predic
▁throm
▁kinases
▁synergistic
▁inward
orable
onucle
helium
▁contracep
epit
menopausal
▁rup
▁stimulate
romed
eric
▁heparinized
▁uter
ressing
▁mesenteric
▁cerv
▁suspicion
▁epidemi
5-
utyr
▁0.4
hers
▁uterus
▁childhood
▁vesicle
▁angioplasty
sy
▁therapy
clonal
reatine
▁cyan
lyl
▁oxygen
rents
▁lipoprotein
▁immunode
chloro
hesive
▁(5-
hyd
idis
▁impaired
conjug
assi
▁sedation
▁elong
▁noncom
▁gradi
▁Considering
▁pancreatitis
▁allergic
▁identifies
ograp
▁PH
▁probes
guided
-5)
▁wk
▁crude
containing
▁chole
▁favorable
teric
▁dialysis
uridine
▁carbohyd
▁Thromb
▁vancomycin
▁toxic
relevant
▁lact
acking
▁CTL
median
▁fructose
othane
▁conclu
urse
▁recr
oplas
▁myoepithelial
▁anemia
▁ppm
utin
8)
▁periodontal
▁ethanol
▁3.6
▁juven
▁belie
▁consultations
dine
atheter
▁iatrogenic
▁transported
▁heteroz
▁SEM
▁debr
ellum
▁engraftment
▁increas
-6-
▁affecting
▁bronchoscopy
heum
▁antigenic
▁gangl
▁Cells
▁12
▁defective
▁deficient
MH
oxid
▁luteal
▁interv
▁deficiency
▁caudal
otom
ulose
▁allogeneic
▁adjunct
▁hepar
▁stimulus
olic
▁dextran
ophag
▁initiation
▁microscope
▁sphincter
▁mutant
chloride
▁consecu
ylic
30
▁prolif
▁metabolites
▁purification
FU
▁3.1
▁bronchi
▁adults
▁shor
▁modif
amino
olute
immunization
▁abdominal
▁proliferative
▁spike
▁respondents
▁compli
▁homogeneity
▁mothers
▁LD
.4%
▁nail
▁blockade
▁PF
▁Chest
urane
▁(24
▁AI
enkephalin
▁oxygenation
avage
▁multim
▁silicone
▁scl
▁glucocortic
otoxic
▁addi
▁carcinogens
lep
rief
▁intest
▁synchronous
tructural
tyl
▁postin
dimethyl
trip
AH
▁TNF
▁Respon
▁beating
▁MH
▁ouabain
usions
NH
▁plasminogen
▁RI
▁UT
▁cervical
▁peroneal
44
▁vitro
▁instr
▁HBV
▁activate
▁NGF
WL
▁preventing
▁gastrin
▁synaptic
otting
▁5,
4).
▁markedly
▁hepatocellular
▁HCMV
▁ocul
acts
▁amn
IgM
▁asthma
atched
uded
acrine
▁keratinocytes
reactive
▁cG
▁endarterectomy
ofluores
▁HG
▁cytoplasmic
▁RNA
▁9-
▁forsk
▁allogra
▁invasive
▁cholecystectomy
lymph
▁splenic
▁saturable
▁exchan
▁82
CRP
ateral
▁disper
▁vaccines
9)
▁concurrently
hest
▁restorative
▁progres
28
▁subun
▁centr
FV
receptors
▁19
BH
▁disulf
versity
▁acad
▁prenatal
▁mim
anded
▁abolishes
▁0.2
prising
▁phenotypic
oventricular
tected
restricted
▁7%
▁survived
drome
▁3)
6)
▁calor
toc
▁unilateral
phila
▁transi
Ki
▁endothelin
▁Hz
osomal
avail
▁deformity
▁sympathetic
mediated
▁eluted
▁eradication
▁effectiveness
▁Chemical
▁geriatric
iotics
atoid
▁transient
▁4)
▁temporarily
▁tuber
▁vivo
▁feeding
▁TP
otyp
▁prescribing
▁lesion
▁discordant
▁enlarged
▁gangli
▁prevented
morph
▁excimer
▁tubulin
▁extre
▁4.4
acil
▁hap
▁MAP
▁subtype
▁fiber
▁untreated
rates
▁7.4
▁analyses
▁Medicaid
amination
otype
uvate
▁striatum
HB
▁utilized
▁50%
▁Sprague
▁osmotic
▁adequ
planted
▁arteri
phosphatid
▁predominantly
itals
21
ostal
istribution
▁microscop
▁genomic
asting
injected
▁shallow
▁mobilization
▁aor
▁avascular
▁30-
8%
▁scin
oreceptor
zyme
▁immunized
respective
▁paradig
▁supple
▁7,
TK
▁linkages
VT
▁dihydro
▁Phosph
▁spectra
ogenous
▁thi
pecific
▁discomfort
▁HPLC
irub
thymidine
▁refrac
▁reconstruction
▁wt
▁pressor
▁microv
▁preclude
▁immunore
8.
sue
▁perfusion
▁emergency
▁consistently
stem
▁analogues
▁sustained
▁vagal
▁objec
▁residues
acetyl
▁metoclopramide
ranolol
itant
▁hemorrhagic
▁ester
▁emphasizes
▁mineral
iaz
▁aden
▁53
0.
▁canc
lood
▁Atropine
▁(+/-
tabl
▁VD
88
▁spor
ropathy
▁oils
-12
atient
cysteine
trating
▁sequel
▁antagonized
▁1.6
ospor
▁umb
▁medication
▁contex
▁tubule
▁exacerbations
▁vitamin
▁mutants
▁NADP
▁defic
unts
▁6.5
▁Evidence
▁inactivation
omycin
▁stimuli
iant
▁currents
▁kcal
erance
keto
igel
inic
▁oxidase
▁44
▁56
▁marrow
▁lacking
▁follic
▁70
▁silic
omies
▁newborn
▁12,
glutination
▁asymme
tious
▁synov
▁ventric
▁overlapping
usal
▁polypeptides
▁airways
ections
▁sigma
divid
carinic
▁duodenal
▁isot
ocrit
tib
▁DS
-1.
▁Estrogen
ressive
▁pineal
▁atrophy
▁ultrasonography
▁BS
▁simultaneous
aid
▁chel
▁HTLV
▁hypothe
▁interferon
▁biopsies
▁minority
▁strips
▁NPC
▁granular
▁phe
▁multifactorial
▁CRF
▁hyperplasia
▁polyclonal
▁illustrates
▁ASA
▁follicular
▁immune
CoA
▁wean
▁creatinine
▁cats
▁aort
▁Removal
▁responsive
▁CSF
genic
▁perip
abies
▁suppression
▁PCP
▁glyc
▁Samples
▁menstr
wes
▁meaningful
aminated
oplast
ylated
▁hig
tituted
▁identifying
valent
▁pyruvate
▁ultra
bladder
▁phenomenon
▁cytology
▁thickness
▁Rats
/10
▁HM
tein
▁anastomotic
▁Neurop
▁Improvement
▁Bone
▁cysteine
▁sev
▁puber
▁misleading
▁Physicians
terologous
▁ELISA
asive
▁arth
▁deformities
iably
▁adi
tase
icide
▁consequently
▁sulf
clerosis
▁prolactin
▁LT
▁reticulum
▁mutation
▁0.06
▁tachycardia
▁morb
▁ultras
▁thrombo
phosphonate
▁adenocarcinoma
▁phenylephrine
▁bacterial
▁esophageal
▁constitute
▁intub
venty
▁Certain
▁immunomod
▁numb
▁irradiation
▁reflux
▁defec
▁suicide
▁reper
▁nitrogen
apeu
▁20%
▁quanti
▁Tumor
oxidation
tomy
ulates
0,000
▁tube
roso
▁NI
▁acids
uran
▁4.8
▁LTB
arbonate
▁0.02).
▁sciatic
▁erythrocyte
▁postsynaptic
ocon
cture
▁unstable
▁Tyr
ureth
▁perception
▁insurance
stro
▁3'
▁macrom
15
▁FT
orubicin
▁cohort
▁cortical
▁thromboemb
transfer
kines
▁(15
▁6.0
▁injuries
rologic
▁activating
▁nerve
▁alleles
vac
▁Mg
nai
▁inherent
▁(0.0
▁Pregnancy
piratory
▁95%
alp
ching
inephrine
▁GE
▁indetermin
▁plastic
rosis
▁ruptured
semin
▁spermat
▁immun
uble
▁abdomen
▁recurrent
▁adrenal
▁surround
▁(8
▁TT
secre
▁hydrox
▁msec
▁immunoprec
estis
▁awa
▁Continu
▁seventh
▁cytotoxicity
occal
▁salivary
ANP
▁acin
▁epsilon
▁100%
osus
fine
oretic
ecal
▁motif
▁recombinant
▁1.1
clin
▁reliably
LB
▁repor
▁pleomorphic
▁nig
enal
oconstric
▁cuff
IH
▁MCP
asses
5%
itudinal
▁electrical
iloride
▁dissociation
▁cann
omod
▁Ia
▁intermedi
▁differen
▁referral
▁(5
itonin
▁30
ATPase
ologous
▁detecting
▁collateral
▁chick
▁irrever
▁stu
▁muscular
▁resorption
ocin
▁ranging
▁adjustment
▁metabolic
▁atres
▁eosinophil
▁ANF
▁evac
▁propranolol
illaries
eclampsia
▁bronchial
▁2
ampl
▁ventricular
▁virul
▁ganglion
▁clinically
▁ALT
▁reticul
implantation
▁glycerol
educ
▁prospectively
▁cesarean
▁investigating
.2
educed
▁94
▁brush
▁4.2
▁oste
▁iso
tors
▁lax
trus
▁naltrexone
▁Experim
uretic
illance
licular
▁adhering
-4
rectomy
▁cycloheximide
ications
▁discon
▁indis
▁-0.5
▁overestimated
ophylline
.6
molecular
▁EG
▁baro
▁evoked
▁amo
▁gastro
▁unrelated
requency
▁obese
▁tubes
dents
▁inhibin
geal
▁tendency
▁PB
▁surgically
thyl
▁microcirc
lycerol
▁aspir
(2+)-
▁[125
▁69
▁mononuclear
▁divertic
orac
▁bacteria
clim
▁phy
eptid
▁(11
▁clonidine
osomes
ilized
▁accounted
olipoprotein
▁nM
▁deoxy
▁postoperative
▁chemo
onary
▁90%
ovirus
fluoro
▁dehyd
trative
▁concom
rotid
▁retinal
▁fist
azole
affinity
▁reagent
onor
methionine
▁biop
1-
ducts
olenic
▁eosinophilic
▁testis
▁bradykinin
ncy
▁psychological
▁atr
▁localized
tracted
▁hepatoma
ellular
▁anomal
eptidase
▁microvascular
▁reproducible
hyde
topril
econd
filtration
▁proteoglycan
▁reasonably
asal
▁etiology
+,
▁.00
▁probe
▁follicle
▁nicot
▁Calc
▁feasible
▁atri
▁exclusively
▁2.
▁antigen
lated
▁pituitary
▁NF
▁vulnerable
phyloc
▁granulosa
▁spikes
▁ultrason
arcoma
▁masked
▁induce
▁assayed
▁circulating
▁intake
▁volunteers
otroph
▁pharm
▁racial
▁prostagland
▁histological
(1
▁promoters
▁PMN
▁poin
reased
▁lymphomas
▁EMS
▁molecular
▁85%
▁Staphylococcus
reness
▁coval
entary
▁centrifugation
▁disparate
▁atherosclerosis
▁65
▁400
.7%
▁mitochondr
▁radicals
olec
▁endothelium
▁ech
▁prevention
operated
Ds
dihydroxy
ocardi
▁phospholipids
odil
▁TGF
tile
▁ammonium
▁artery
▁compartment
ropriate
greater
diagnosed
▁ventricle
▁knee
▁parie
▁retrospective
▁restor
vian
▁physician
acetic
zard
▁embryos
48
feren
acin
▁(100
▁socioeconomic
ographs
▁shifted
▁anat
discharge
urc
▁nons
▁lys
▁PVR
▁neurological
hepatic
▁perox
▁8,
▁enteral
▁immunological
▁drain
▁phosphatidyl
▁infarction
▁epitope
arean
idney
▁cigarette
▁disrupt
)2
6,
▁VL
▁HCM
▁0.04
▁12-
▁precipit
▁2-
ipr
▁Histologic
0%)
▁satisfactory
▁heterogeneity
acial
▁colonic
▁allergen
▁cholest
▁utilization
▁xen
scherichia
▁antitumor
▁deter
▁quantit
▁polyp
▁laboratory
Ba
▁fibres
-2)
▁conformation
8).
▁regis
5).
uginosa
▁exceeded
▁elucidate
▁96
carb
edullary
▁dendri
▁fibrinogen
▁standardized
epithelial
▁edema
moid
▁98
▁guan
▁terminals
▁thyroid
vation
▁amiloride
phosphamide
clusive
▁microm
▁physiologic
▁buc
ochemical
▁proct
anavalin
▁sinus
MG
ometh
glutinin
▁cessation
▁progressive
▁undergone
▁dial
▁cereb
rowth
▁GA
icin
26
▁inhibitor
BW
▁beats
▁160
34
▁pate
▁advancement
illus
▁atrium
ocar
▁eluc
opa
derived
▁inhib
▁circulation
▁phosphatase
▁resonance
54
Nase
▁qualitative
idated
▁cholestasis
▁Whereas
▁GTP
ocomp
Mg
▁annulus
▁interventions
▁saturated
orbent
HN
▁Delayed
▁appreciably
▁uterine
▁experi
▁hCG
vail
▁Tum
herent
▁LAK
▁isomer
▁migrated
tative
matic
▁1/2
pation
▁physi
▁microgram
ropriately
▁translocation
helin
-1).
▁osteoporosis
▁conditioning
▁MT
▁recessive
▁institutional
▁predictors
stim
100
▁hyperp
▁resec
▁plasm
▁2.0
▁86
sibility
▁41
dition
▁Golgi
▁symptom
▁multic
▁NADH
▁placental
▁modestly
▁kinetics
▁correlated
▁nursing
▁profound
▁structural
eroxide
▁aneurys
▁implic
olysis
1%
▁adminis
▁CPAP
diol
▁pronounced
▁erythrocytes
▁radioactive
86
▁fold
otassium
▁empirical
▁benign
▁progn
▁fractional
PAGE
▁kDa
▁36
▁inadequ
▁naloxone
fron
aryotic
deficient
▁endocrine
phosphate
keletal
quid
ATP
▁assessments
fected
▁ovulation
▁pM
▁eyel
▁microtub
toph
▁mening
▁adrenergic
▁interference
▁Forty
omyel
uscular
-9,
▁4.3
platin
▁maturation
▁anae
arer
▁KCl
7.
▁micron
▁EDTA
dose
▁reveals
▁Swed
▁weigh
▁spontaneously
▁23
▁scanning
▁decreasing
gth
▁strain
▁preval
▁deform
▁fractures
▁Kupffer
▁dysfunction
▁(54
▁immobil
▁loosening
▁monol
elves
▁accumulation
adherent
ectom
▁reviewed
▁cortic
LF
▁NH
▁apop
▁gestation
terminal
lact
opathological
▁amplified
▁antibiotic
▁initiated
▁lamina
▁kinase
▁arachid
tially
▁DP
▁19%
▁enriched
▁70%
▁diet
▁stromal
▁ligation
▁neutrophilic
phrag
oblasts
rins
▁behavi
▁NADPH
▁infar
▁(1)
luent
▁substitutions
▁forebrain
▁surveys
▁GnRH
▁athe
▁lysis
ectomies
▁polyacrylamide
▁cigarettes
.2%)
▁10(-6)
▁glucose
▁complementary
razole
▁brom
leukin
▁tended
▁grading
ymptomatic
▁7
▁occurring
▁excreted
ipolar
▁selec
▁Increased
▁donors
throm
ranial
▁recur
47
genesis
▁epidermal
ancies
▁10(-4)
uccess
▁myof
▁toxin
▁diastolic
▁Patients
▁1.4
▁disparity
▁quantif
atest
▁cholinergic
tox
▁orally
▁Effective
▁calf
▁conservative
▁antagon
+.
▁Fc
▁TRH
venous
tained
▁incubation
bic
▁bilirubin
4.
riched
▁arachidonic
ught
▁choline
receptor
rological
▁Conversely
3%
ffin
-20
▁cerebellum
▁ascorb
BP
▁selective
▁91
▁93
hep
yroid
immunoreactive
▁hemodialysis
▁bip
▁histopath
ecan
▁inev
tized
phic
▁sulph
electric
▁ulc
kers
RH
▁suspension
macropha
erated
▁NMDA
▁screening
▁5'-
23187
▁mobility
3%)
▁shif
▁resuscitation
▁thickening
ignant
esic
anserin
▁gallst
-18
▁ventil
▁Significant
▁thymocytes
▁diluted
essation
▁plantar
8,
▁receptors
▁abolished
eptide
atibility
His
▁rheum
▁myocardium
▁stillbirth
▁lam
3)
ineal
▁peripher
nthe
▁inters
▁galactose
ologists
▁adenomas
ardia
▁penetration
▁NB
urther
▁pT
otor
▁120
ulitis
RIF
arly
Hu
iotensin
▁idiopathic
7%)
▁adrenaline
▁administered
▁excit
thyroid
▁attrib
▁steroid
▁transferrin
▁60%
▁seroton
▁elongation
▁fixation
enin
▁hypothal
acental
▁Vac
roximately
▁encodes
queous
▁ovary
sus
rein
ailure
ervical
▁ey
▁exhibits
▁attendance
▁carbox
aturated
▁(14
activated
▁compressed
▁cytokines
▁esophag
▁bronch
▁endarte
cells
3.
▁nerves
density
▁gout
ffeine
▁recipients
▁tubules
operoxidase
▁eating
idium
tual
99
1).
▁shortened
▁axon
▁controversial
▁ligand
epine
▁prostatic
▁catecholamines
▁effector
omes
sors
eradish
ureus
▁membran
▁Triton
▁obesity
trexone
▁0.05
▁cardiomyopathy
▁limbs
▁carriers
LISA
▁radioimmuno
▁likelihood
▁births
toid
stimulated
tility
▁90
isomer
rine
▁spectroscop
▁6
▁TAA
-4)
▁unexplained
78
resting
opressin
▁basolateral
▁compounds
▁gradual
▁vasodil
▁intermittent
arterial
▁Weight
▁encoun
ophys
▁squamous
▁cere
luding
▁cirrh
▁lidocaine
▁developmental
▁livers
▁depolarizing
assium
ifed
▁substrate
oea
▁epit
▁amputation
thmias
▁triglyceride
▁hetero
onset
tant
▁cardiomy
▁tetr
▁coel
sul
adex
oride
▁widespread
▁casein
henyl
▁similarities
▁bilateral
▁plasmids
▁concentrations
▁testosterone
▁pneumon
atment
▁predicting
▁standardi
▁permeability
arous
3).
▁RV
mixed
▁lesions
evaluation
▁monitored
▁allograft
erally
▁Clinical
▁tertiary
▁homogen
▁depic
▁gonad
Tn
▁Biochem
opolysaccharide
hig
▁mice
▁pregn
mg
▁occlusal
erican
kine
oprec
▁guidelines
umerous
▁80-
▁phorbol
agal
▁leukocytes
▁molecule
▁Cox
▁equivocal
▁Twelve
ogenicity
▁postmenopausal
▁ACTH
olus
▁4
fat
▁malignancy
▁preferable
▁provid
▁Thirty
erable
vating
▁dyst
alas
tically
▁docum
▁mesen
aired
▁polymerase
ocyan
▁interc
▁potentiation
▁poisoning
▁mutations
ographically
▁carboxyl
▁sliding
2,
▁influx
▁regulate
▁bacter
▁forskolin
ensities
▁anaerobic
▁neoplas
.5%
estern
▁ischemic
▁regimens
▁Biochemical
▁gon
▁inoculation
▁GMP
▁seizures
▁presumably
▁strep
▁anatomical
▁hepat
ffinities
▁acupuncture
▁esters
▁0.00
▁monos
▁shifts
transferase
andard
▁isoelectric
ompan
▁inotropic
▁bone
▁grafts
▁solvent
▁revealing
▁14,
▁reser
29
▁warr
▁theore
▁regar
▁hypoglycaemia
▁Plasma
▁presum
▁Steady
▁biosynthe
emak
-14
▁mutagenesis
▁Adverse
DNA
▁hemat
▁regulation
▁chromosome
brom
▁infections
▁thir
▁oxy
VR
▁5%
▁5-
▁failures
coh
▁9
▁1.3
▁synthesized
tiazem
▁characterized
▁proliferation
titial
▁granules
▁7.
▁monkeys
▁aspec
orphic
▁undetected
7-
erents
▁RIA
IDDM
urin
▁tow
sis
▁gluten
▁exogenous
titution
▁mediates
▁carcinomas
gulation
▁metastatic
▁hematopoietic
▁hep
▁potassium
▁seizure
elec
▁modulated
▁resected
▁discrimination
▁mAb
▁particulate
▁32%
▁dissec
▁neoplastic
▁implicated
▁OSA
▁distal
loxacin
▁PD
▁tumor
▁gains
antial
▁fibr
▁0.01)
▁atm
-9
rophy
▁paralleled
unting
Kd
regulation
helial
▁uncommon
1%)
▁Inhib
ynthe
▁reductase
▁frog
▁suppressor
entricular
▁unaffected
▁Medicare
▁stained
▁21
approximately
tensin
onine
(+)-
▁contamin
ichia
-13
▁cholesterol
▁necrosis
▁1.2
▁microscopic
▁arti
▁surveillance
▁kb
▁sequencing
othelial
till
▁65%
tention
▁titer
iper
▁colony
▁PDGF
▁tolerated
▁slic
▁fibronectin
bac
▁contributes
▁compartments
entists
▁drin
APC
23
▁RP
totic
39
▁outflow
amic
gm
▁vein
▁bicarbonate
ameters
▁monomer
▁80
hydroxy
▁prolongation
FN
inol
▁deficit
▁aimed
▁UV
▁seropositivity
▁passive
hea
▁regeneration
▁questionnaire
▁verteb
gic
▁provocation
osine
▁envelop
▁implantable
▁decarbox
abin
▁discern
plied
apse
▁unrel
▁retrograde
sions
▁cancell
▁insertions
encephal
▁stomach
▁3
▁surgery
▁purified
itic
▁clones
▁lamb
▁plasmin
▁fluorescent
aminergic
▁lipase
gthen
▁trough
▁hyperg
▁0.01
▁unres
▁trophoblastic
▁CRP
ococci
500
▁51
▁mann
ducing
ronchial
▁molec
▁synerg
▁respiratory
▁differentiated
2+,
▁heterogene
▁proteinase
▁scans
▁enzyme
▁evolving
-[
▁encouraged
▁organism
-1),
astric
▁analysed
omers
▁77
aemic
oleic
▁awareness
▁cryp
▁3.7
▁phosphatid
▁septum
idate
▁hydrolysis
achol
▁BD
▁secreted
▁inhal
▁overe
▁2.4
▁labial
▁10(-5)
▁trache
▁fasting
rected
▁lethal
blind
mitter
▁disability
▁vegetable
▁quantitative
▁cataly
▁IH
▁rotated
▁progen
Ti
otropic
▁methionine
apeutic
▁respon
itro
3,
▁neutrophils
▁conjunction
omonas
▁IgA
.1
▁10,
▁aerobic
▁abundant
▁28
▁familial
▁autologous
▁tiss
▁phospholipid
olip
▁1-
▁assays
▁diltiazem
▁smo
gland
▁cyclosporine
aced
rospinal
Hb
AIDS
aneously
▁stimul
▁thorac
▁12%
▁ket
▁mediators
PAP
▁regulated
▁elevation
▁unre
▁1:
▁postnatal
7).
▁(-)-
mental
▁renin
tic
▁basement
▁inhibited
▁WK
2%
▁ane
▁altered
idin
tection
rosine
▁sclerosis
▁calcium
▁idi
cessive
▁Educ
▁sph
rague
▁fluc
▁alp
▁mitogenic
▁aspirin
tinu
oplasty
▁aggregates
▁suspicious
entical
TPA
ithin
▁effec
▁coagulation
Ra
▁cancellous
▁aggres
▁heparin
tent
odynamic
▁0.05)
▁metabolite
▁facilit
▁neon
crip
▁PGE
ubicin
▁20,
▁15%
trac
▁1.6%
omat
▁cigaret
▁tracing
roma
xual
admium
▁pathologic
▁dimethyl
▁fitness
▁preliminary
▁ascer
▁monolayers
▁synthesis
▁neph
▁VT
▁30%
▁confron
▁homogene
iotic
omotor
▁1,
▁birthweight
itus
▁DSM
ositive
▁cardiovascular
▁supervision
▁puls
▁ganglia
regn
orectal
▁EMG
▁adoles
▁steroids
operatively
ogenic
▁depolar
▁severity
▁cyto
▁asthmatic
ulant
veolar
affec
▁filaments
▁gonadotropin
bral
▁epilep
rangements
▁HDL
oxide
olism
▁immunosuppres
iary
▁enzymes
onstric
▁prevalence
▁duplic
▁.0
anding
▁biphasic
▁immig
▁CAM
▁hernia
▁achievement
▁hypertrophy
▁AII
opathic
icient
lyc
obacter
employ
▁somat
▁forearm
ervations
▁undes
▁clinicians
deple
ervative
oung
▁mono
odynam
▁rele
▁spati
tural
jected
traction
▁diffuse
enzyme
▁fluids
ulcer
▁sampl
▁aqueous
▁operative
renol
▁contaminated
▁embry
▁15,
▁antec
▁virtu
2/
▁cyclic
▁prolonged
▁viable
▁aureus
▁interf
▁messenger
tality
legia
vaginal
▁struc
ococcal
▁1/
▁facilitate
lastoma
▁allevi
▁subjected
▁derange
▁reflec
▁synthase
peptide
amyl
aline
▁depolarization
▁biosynthesis
iciently
were
▁serum
rotic
ineph
ocardial
▁collagen
▁tibial
▁heal
▁hydrophob
2318
▁conges
▁89
LV
zymes
acyl
▁hypother
faction
▁potentials
ygen
▁detectable
.8
▁35
▁injec
▁consol
▁tolerance
▁caro
ochemistry
▁22
▁Contrary
adrenoceptor
▁reproducibility
taining
▁intram
▁muta
coun
chers
▁absorb
▁outs
ubtedly
▁TK
▁preoperative
phenyl
▁glycogen
▁actin
▁pathologically
terone
▁cited
iferol
siologic
▁MG
tive
pH
sibly
onad
▁reas
▁Hep
ogl
▁microtubules
odic
▁overexpression
▁decades
ometr
echn
oplastic
cellulose
plants
uminal
undibular
▁hypers
lesion
▁Thir
▁deletion
▁vasopressin
▁proportions
acted
▁torsion
iminary
▁intrinsic
yridine
▁lec
ofl
▁neuromuscular
▁VIP
▁gestational
▁injur
ulph
▁attenuated
▁reflex
▁accurately
ivary
▁leukemia
00
▁junction
onium
▁(6
occi
▁radiography
growth
subs
monella
▁elicited
▁68
▁streptoc
▁estimating
▁specimens
owever
▁CSA
▁Overall
▁sequentially
▁minerals
▁spermatozoa
▁ingestion
plic
ocys
ceptive
▁0.9
▁cirrhosis
▁chromosomal
olecular
ioid
tingu
▁mec
utaneously
▁measuring
▁11
unar
ivered
▁rhe
ollicular
50
monstr
terol
▁amyl
roscopic
▁estradiol
▁intestine
oneph
▁plex
▁dischar
▁statistically
▁epileptic
▁0.001)
▁catheters
ignific
▁advan
▁angiotensin
▁reactivation
▁cytoplasm
injured
▁progestin
▁chorio
▁muc
anol
▁toxicity
enic
▁coexist
▁81
EGF
▁trophob
▁subsp
▁commerc
bumin
▁arthritis
ogenesis
tiz
amus
-1
otre
odal
▁vaccination
▁prevalent
ocompatibility
85
▁nitro
▁diets
▁lymphocytes
mend
pregn
elvic
▁isoforms
▁displ
▁antiserum
▁compe
▁acute
▁antigens
▁availability
▁constric
▁retic
erad
molec
▁porcine
lys
▁GER
▁encephal
saccharide
▁gp
▁latency
▁blin
▁lamin
▁precedes
mber
▁electrophoresis
acer
▁8
uoden
▁oxytocin
▁survival
itamin
27
depleted
▁lob
▁mixtures
▁perfusate
▁100
▁vesti
▁nicotine
▁neurotrans
▁enhancement
▁induc
▁gradients
▁resour
▁plasmid
astom
▁Americ
▁neuronal
hemo
▁anastomosis
▁implants
▁depression
sively
▁differe
▁mitochondrial
eled
induced
ophil
bodies
▁dissection
▁detrimental
ths
▁reduc
▁connective
▁phospho
36
▁immunoreactive
enhanced
otrexate
uated
▁dehydrogenase
▁schem
▁specimen
▁vesic
▁recombin
imide
▁ESR
ystolic
▁locus
▁(10(
0%,
▁gynec
stimulating
MV
▁embryonic
▁assessed
▁moiety
▁leucine
▁modulate
▁disturbances
inely
▁complaints
ochemically
▁VE
▁sut
▁Comparisons
▁femur
▁gallstones
▁overd
▁construc
▁indications
aminop
▁CEA
▁dilution
5'-
▁mg
oice
tocin
amet
▁BAL
▁echocardi
/3
▁glomer
▁transfusion
oreactive
tence
▁attained
turb
▁hippocampal
▁prescrib
CAM
▁discontinu
▁uncontrolled
▁discriminative
reported
▁cutaneous
0,
opulation
▁tomography
ensory
▁HL
▁clamp
▁gluc
▁junctions
▁diabe
▁thymus
ventional
orts
▁1987
▁reveal
oprol
▁vege
▁dilated
▁bolus
▁SG
osides
▁apolipoprotein
▁infec
▁deterioration
farct
▁7.2
▁superficial
itre
ifol
▁MAb
▁socio
.2%).
▁pacing
▁upstream
▁5.0
▁proteoglyc
▁outward
orative
▁modality
consuming
▁Neither
▁alterations
▁creatine
▁astrocytes
etan
▁resis
3+
utroph
ulum
▁maintaining
▁mitotic
▁granule
▁hemisphere
▁carboxy
▁coated
tamine
▁syndromes
▁pancreatic
tenance
▁FV
▁intravenously
▁relaxation
▁substance
tructive
estim
31
gely
▁pyram
▁correlations
▁favourable
▁100-
▁involvement
▁hydroxyl
▁bovine
fusion
methyl
▁59
▁dodecyl
▁carrier
phil
▁irr
igible
▁indicative
46
▁cis
▁inhibit
Ev
▁attending
▁electroph
▁anatomy
▁membrane
▁MN
▁hypox
nitro
▁cartilage
▁infants
▁mmHg
▁transplant
▁chronically
▁mumol
▁balloon
spectively
▁lymphoma
▁pter
▁spont
▁fibroblast
▁needles
▁adap
▁nucleus
tam
▁0.0
CBF
▁preferential
rolog
▁myosin
robic
▁mM
▁establishing
▁AMI
▁substantially
cardi
ucine
▁coupled
▁segmental
▁4-
▁inadequate
▁homology
earing
adrenoceptors
▁depr
EAE
arity
thym
▁indomethacin
90
ileptic
cholesterol
▁appropriately
tions
▁pretreated
▁autoradiography
▁angina
▁laser
▁soy
▁captopril
▁abilities
olated
ifugation
▁delivering
requ
▁fibers
▁FS
▁tes
partum
▁causative
affected
▁chromatin
▁dete
nec
▁cardiopulmonary
▁colonies
▁hygiene
▁Tran
▁4.5
▁deduced
▁leuc
▁poorer
▁mandatory
▁instability
▁ovarian
▁EBV
▁clus
▁2%
▁suppor
orrh
apamil
▁glial
(5
▁homogenates
▁gyn
▁IFN
urred
glucose
▁intrauterine
nee
▁3,
aminob
▁paired
osome
▁cros
▁pediatric
▁5.2
▁endothelial
umbar
▁hyperther
HIV
▁Concomitant
▁pharmacokine
▁scre
▁thyro
ozo
tration
▁usefulness
▁5.
▁admission
▁nude
▁linoleic
rogenic
▁acetyl
▁killer
▁encourage
embr
▁lateral
▁ions
adian
ilateral
▁hydroxylase
trypsin
▁platelet
▁prel
▁pig
▁promising
imination
▁pyro
1,
iciency
▁HSV
tro
▁directional
▁techniqu
▁mL
▁0.8
atab
▁codon
Ts
▁causal
▁HP
-7
▁ascending
▁yielded
toxic
ergy
▁nonc
aventricular
▁caution
ADP
▁responsiveness
▁stellate
▁enti
FH
▁viral
▁identically
oderm
▁mRNAs
▁(0
tioned
urons
▁stret
ayed
teroids
▁isoproterenol
▁continuously
▁CB
▁analogs
osocial
▁neurones
▁resul
▁WHO
▁proce
▁chol
onate
▁epidemic
▁schizophrenia
CSF
trop
▁immunoglobulin
atories
▁glands
▁instrum
dibular
▁elastic
▁inserts
▁progest
ropine
▁sca
▁anticoagulation
▁incorporation
▁RF
▁stren
/6
▁ana
associated
▁adhesive
ximide
▁rIL
▁amines
▁0.
▁CsA
idol
▁hybridization
Ka
▁MRC
▁suppres
▁providers
▁paraventricular
▁Recently
iferation
▁residual
▁0.03
▁fibrosis
▁trials
▁arrhythmias
plas
rozen
▁susceptibility
▁intravenous
cein
▁anxiety
ocarcinoma
▁premature
hist
▁hybrid
trast
omiting
gments
▁analges
▁urine
▁Contr
▁sequelae
▁fragility
▁adren
▁subtypes
ydig
tical
illation
▁250
▁epithel
▁initiating
▁nec
obarbital
anin
▁recordings
▁75%
▁indicators
▁angiography
▁vesicles
thma
▁diaz
atible
▁polymorphism
orption
ranged
athe
450
▁emissions
echanical
ifferentiated
▁3.
▁psychiatric
ociation
hydrox
▁pigs
▁implications
oluble
hydroxylase
▁sti
▁biochemical
▁homoz
▁pharmacokinetic
▁transcription
▁Slow
▁assurance
▁declined
▁muscle
▁yr
▁HIV
▁Cyt
urethral
▁cyclo
▁recor
▁-0.
▁microscopy
uary
▁optic
▁110
▁60
romy
-100
GI
▁coronal
oside
▁reflects
ynaptic
ication
45
▁colloid
▁0.15
▁spermatozo
▁10(-7)
enopus
▁decline
1.
▁staging
stant
▁surge
Dawley
posure
▁enucleation
ygo
▁depressed
▁(30
respon
▁precursor
▁longitudinal
resses
▁endometr
▁TD
▁neurom
olipid
▁humoral
viral
▁leakage
▁perinatal
▁anatomic
▁histamine
▁ribosomal
▁tumour
▁83
▁hypoxic
▁tuberculosis
▁10
▁activator
-5-
▁enrolled
umulative
6-
▁requi
tory
▁practition
otides
▁MI
▁transcripts
2+.
▁lactation
▁LPS
▁excretion
▁capillary
luded
▁rhy
▁swelling
▁vasomotor
79
▁[3
▁laparoscopic
▁pulmon
▁tRNA
▁insufficiency
▁conserved
thanol
▁diagnoses
ocor
▁morphine
oxane
▁difficul
▁complemented
▁Trial
▁polymer
▁unresectable
loon
thio
▁catechol
▁tumours
ocyte
pir
▁5'
plastic
ronectin
▁perone
▁sucrose
▁PAS
▁soluble
▁fractions
▁pharmac
▁manipulations
SCC
orrhagic
onit
heximide
Fs
▁Muc
▁cerebrovascular
ullary
2+
7%
terolog
ceptions
usive
▁Strep
▁afferent
▁incidence
▁hemorrh
▁pregnancy
▁inver
▁Patient
▁genotypes
lysis
▁activated
▁controver
▁aldosterone
ivoc
▁clinical
tinguishable
▁beha
acetate
▁harmful
▁Emergency
athetic
2;
itone
erations
▁unc
▁incorporated
▁screw
▁(2)
▁somatostatin
-80
▁underst
▁Insulin
lytic
▁3.0
effective
inesterase
maximal
ameter
▁vibr
▁carbohydrates
▁MBC
▁Chronic
▁(10
oxic
▁cytotoxic
▁0.000
▁ventilatory
▁inhibitory
.1%
uanti
▁minimize
▁controlling
▁pathogen
▁visc
▁tracheal
encl
trated
LDL
▁uncomplicated
▁prostate
anthine
▁tymp
ipid
▁agon
▁47
tine
▁clon
▁pneum
▁ald
▁mutagen
▁somatic
▁adip
icients
▁spi
2.
eces
▁SLE
▁diffic
▁radiolab
▁trigg
ionine
▁Additional
icardi
▁0.001).
4+
000.
▁excl
glut
▁oligonucleotide
-0
tensive
ifug
▁cardi
genital
▁helix
▁onc
▁pigment
▁densities
sts
▁regurg
▁pathway
opamine
16
▁hamsters
▁vascul
▁erythropo
hypertensive
olved
▁74
ffec
▁pHi
▁preservation
▁repeats
▁2,
ocortic
inally
ropyl
▁relapse
▁infect
▁GSH
tectable
▁unselected
thel
▁demonstration
▁0.001
▁bowel
▁withdrawal
trates
oresis
▁hipp
▁psychotic
physiologic
▁radioactivity
▁inducing
▁biom
▁perfor
▁concomitant
▁10(6)
-25
ygous
▁PMA
amines
▁deaths
▁restoration
▁phosphorylated
▁enhances
▁LOS
▁histopathology
▁agar
▁lutein
gmental
▁anion
▁29
▁degradation
▁iodine
sorb
▁larvae
fec
globulin
▁mandibular
▁manifestation
adrenaline
▁contribut
▁45%
▁aortic
▁sugges
▁1989
▁metastases
▁HCO
▁pep
▁maximally
▁dye
inositol
▁consensus
▁adequately
▁necro
ture
▁functioning
▁sulfate
3-
▁LVH
▁speculated
▁blockers
▁inflammatory
▁laminin
▁melatonin
trous
▁1.0
▁inapp
▁supplementation
cad
▁previ
▁decisions
tures
▁affinities
olones
▁stroma
▁antibodies
▁tau
tage
▁sedentary
▁glucagon
orphin
▁BMI
▁neonatal
▁rupture
▁abor
▁mild
jec
opulmonary
bacter
▁multivariate
organic
▁hormones
▁3.3
▁nosocomial
▁lowered
▁catecholamine
ejun
▁Glu
▁arrhy
▁SHR
▁HN
▁secretion
sian
occus
▁circumference
▁antero
▁shorten
▁conjugate
▁39
▁BW
eration
amate
▁NT
▁CNS
▁rostral
▁Findings
▁prostaglandin
▁extracts
▁54
VL
▁continuing
ocaine
▁endemic
entral
ologically
isqu
▁Doppler
▁microsomes
▁scinti
+-
▁systematically
▁practic
▁Surgical
▁decarboxylase
▁epithelial
▁immunity
ields
▁interrup
▁complications
ibi
graftment
Glc
tens
▁0
▁RM
acting
▁rostr
▁79
▁eryth
▁26
accharides
▁inhibiting
▁incubated
▁gly
▁dyn
▁HC
plete
▁hazards
phadex
▁preferen
▁diame
▁irradi
▁rats
+]
1),
▁Vitamin
▁minimally
▁comparisons
▁PEG
acid
iatic
▁diversity
▁distinctly
▁ADP
sorption
▁symptomatic
rhy
▁linole
-15
▁metast
▁evid
▁neuron
aterally
▁tach
▁PRL
▁morphologic
semb
razosin
▁interfere
▁exhibit
▁coli
▁dosage
▁[14
▁vag
▁drugs
▁promo
immuno
▁estrogen
matched
uctose
▁disorder
ereb
▁treating
18
▁adop
▁HB
▁phi
5),
2-
▁ammon
▁cholec
▁hypot
▁aerob
▁supplemented
▁outpatient
oagulation
ergency
▁conclusions
▁1
▁Dop
▁systematic
meth
▁1988
myc
▁hydroxy
▁kappa
▁electrodes
▁inducer
▁1-2
▁neurop
MRI
▁appendic
▁cue
diastolic
▁cDNA
▁warranted
▁correspon
opathy
Hg
opoietic
▁Purkinje
▁IgG
▁cytos
11
▁membranes
▁phosphor
ilic
▁hygi
▁efflux
9%
opoly
▁parasite
▁intraperitoneal
▁avoiding
eal
▁approx
▁endoscop
▁positioning
▁normalized
thre
▁peroxidation
▁streptococcal
▁hemodynamics
5)
ilibr
.8%
▁5
▁cellular
▁decreased
▁GBS
▁hospitalized
▁libr
▁amput
tation
▁cytochrome
▁parietal
▁derangement
inergic
erine
▁mug
ucl
▁immunization
▁staining
▁precur
▁vacu
aldehyde
teroid
kground
▁tension
plemented
▁heme
▁intact
tetr
otone
athyroid
▁sten
:1
▁doses
▁inhibits
▁supernat
▁carotid
oratory
etitive
▁apex
▁Severe
forming
kephal
▁presynaptic
▁slowed
▁renal
▁OA
▁sperm
tophan
aceous
▁tubercul
▁mammary
erals
fos
▁gallbladder
FGF
.5%)
ginine
▁potenti
▁nucleotides
▁ration
▁vaccin
▁vitamins
hemical
▁circumferential
▁enzym
▁donor
▁titers
▁monophosphate
optic
▁conjugated
▁7.0
▁61
ituitary
▁lavage
▁moderate
▁isometric
embrane
eptin
▁Kup
▁graded
▁130
▁hypothyroidism
▁31-
▁Nine
Gly
▁chromosomes
▁vertebr
obal
▁valve
▁caffeine
▁albumin
enteric
illin
▁sediment
▁glycine
piration
▁femoral
ogens
▁exert
▁outcomes
▁fatty
sulf
▁infusions
▁arter
▁restric
▁negatively
▁evaluations
▁cyclospor
ogeneic
tif
incip
▁sickness
55
▁chlor
▁lambs
▁600
▁drainage
▁irreversible
kinin
Ga
▁transcript
▁+/-
vices
▁plateau
responsive
▁TBI
urally
▁wee
▁preceded
namic
▁therapies
▁hippocamp
▁hind
▁noc
▁thromboxane
taz
▁soybean
▁4.
ordance
▁determining
▁dele
▁92
tetra
▁labeled
▁comparable
▁ips
▁tympanic
trogen
ronch
▁termed
▁norepinephrine
hern
▁muscarinic
rectal
ceptual
▁opi
mented
mentation
▁unlabeled
jun
▁LS
▁1%
▁overdose
▁increasingly
▁tric
▁decreases
▁glomerul
▁fever
▁ATPase
▁peroxide
▁transcriptional
▁thrombosis
▁DST
▁MIC
ietic
▁spine
Ns
athione
▁kinetic
▁13-
65
▁predictor
▁lipids
HF
tured
▁genic
125
▁1.7
▁phag
▁capillaries
stolic
▁molar
▁debridement
▁supplement
▁examined
▁unm
SPECT
ustif
▁elevations
stranded
▁transforming
anking
illary
35
▁binds
▁tidal
▁fetus
tance
▁GABA
▁abd
%),
uncture
▁practitioners
▁placent
.6%
ylchol
▁IIb
▁assessment
▁pyr
▁overlying
▁Tes
▁stom
▁medulla
osom
ohyd
elan
tinguish
phosphon
ensi
IFN
▁cathe
▁HI
▁routinely
▁methyl
phosphorylation
▁Effec
▁eosin
▁monolayer
▁TPA
▁DF
▁RAR
▁adenocarcin
tisol
▁deterior
▁bladder
yel
fib
▁regen
plies
▁keratin
abain
▁lysine
amily
▁interacted
ediatric
▁viruses
tral
▁Mn
ositol
neumon
▁challenges
▁astrocy
▁relating
▁therapeutic
trol
▁homologous
▁nonadherent
▁pools
▁fluctu
▁LH
benz
▁treatments
▁underg
▁300
-2.
▁(0.5
