▁immig
▁interpersonal
▁widening
lycemic
▁unres
▁metastasis
.0
incip
erin
gans
▁pathways
▁PMA
▁10.
ardia
▁melanomas
▁electrocardi
▁epid
lore
clusive
▁amn
▁oesophagitis
▁muscarinic
▁coval
19
▁hypers
tructural
LDL
▁analyses
▁underlie
spective
▁vagin
▁physicians
ectomies
500
▁resected
amn
uminal
▁ubiqu
2+
▁libr
tur
Dawley
guided
cad
▁dramatically
-8)
▁hormonal
nutrition
▁extensor
.7%
omal
oxin
▁isop
clerotic
▁DH
▁hemorrhage
▁epithelium
▁OA
▁adjunct
relations
anine
▁hetero
▁diges
▁aqueous
2%
▁haemorrh
▁IBS
hicle
▁Phy
▁advisable
▁insertion
▁overe
▁endoscopic
69
▁rhe
▁serine
▁thereafter
▁contaminated
▁struc
fec
meth
▁salivary
mixed
▁correcting
▁chole
▁medication
▁Rats
▁slowed
▁cyclospor
▁overd
▁porcine
▁Phe
▁projections
▁intramedullary
silon
topril
ipid
ensi
▁livers
ACS
▁meal
eclampsia
▁metastases
▁cumulative
▁guan
▁synov
obic
minis
▁aldosterone
▁manifestations
▁stimulus
▁agar
lasts
▁colonies
ailure
▁3-
▁determining
▁pronounced
MN
eration
▁suggestive
ocon
▁12-
ulates
IgM
ocarcinoma
▁decreas
▁scoliosis
▁aerob
▁opi
55
▁fatty
ressed
▁cholec
transformed
▁iliac
ivocal
▁noradrenaline
gments
▁atmospheric
entanyl
▁retrospective
▁phosphatid
▁sulfonyl
Vi
▁injected
▁somatostatin
▁neo
▁nicotine
▁persisted
▁concomitant
-7)
duce
▁pyram
▁fetus
gain
CMV
▁packing
mur
▁radiological
pharose
prising
▁ocul
▁reversible
ressing
anav
▁carotid
arbonate
▁bronchial
▁hind
nosis
▁mutagen
▁0.0
▁97
▁resear
versal
▁schizophrenia
rowth
▁construc
dimer
sych
▁cues
▁glands
▁hypoglycaemia
ylamide
▁Nine
rous
▁scre
phragm
rength
▁guidelines
ecan
▁HeLa
▁revealing
▁gallstones
ygen
wk
▁Immun
ults
onin
erad
3),
▁epidemic
▁iso
orac
tics
conc
▁transloc
▁haem
infarct
▁PID
itudinal
▁exogenous
alities
▁infect
linic
▁DG
▁indicative
ohy
▁bab
stimulated
fine
▁remission
▁PTH
▁glycerol
▁surfact
▁stratification
ostatic
▁endarterectomy
▁occlusion
mortality
▁19
ocyte
▁incom
▁Paget
▁pharmac
Ti
quid
atase
▁estrogen
▁alcoh
actin
WB
ethyl
▁SGA
▁reversed
inatal
▁activate
▁perox
sequent
▁epidermal
▁pyl
arean
ivation
+)-
▁consol
▁pressures
▁CSA
ylline
▁localities
▁debridement
sy
▁enteral
▁cann
▁PCP
ithi
▁apex
▁cations
▁membrane
reased
vian
ymp
▁complaints
▁59
▁collagen
icardi
▁lactate
▁phosph
ithiasis
vals
PAGE
▁polyacrylamide
▁challenges
▁Bone
iatric
cephal
osome
▁stomach
▁Ultrasound
▁excitation
▁vesicles
▁challenging
▁endotoxin
▁fibers
▁controversial
▁preferable
▁prolactin
▁polyp
▁catechol
▁vagal
urgery
▁ovari
▁excision
▁patellar
▁correlations
▁20-
▁overex
▁(7
▁symptoms
10
▁fiber
exis
▁amyloidosis
tagland
▁secretory
▁subsp
threatening
idis
▁ensured
▁IUD
▁conclusions
mg
▁32
tophan
hest
▁coli
▁arti
▁sequelae
oglobin
▁reactions
▁fibrosis
generation
▁thal
▁genes
▁sustained
▁zinc
▁ile
▁histamine
▁postoperative
▁codon
▁allele
▁acco
lec
▁conserved
trac
eric
thrombin
▁aneurysm
▁HMO
▁comprised
crib
▁cortisol
▁tetr
▁membranes
▁impairment
chol
▁musc
▁maternal
atisfaction
▁cereb
ilic
ollicular
▁dramatic
▁nec
▁endothelin
ewish
▁dyn
opam
osidase
ometr
▁clinician
atine
▁vancomycin
▁biliary
▁insurance
▁shortening
▁mumol
▁4)
omers
▁gradients
ipher
▁spontaneously
▁buccal
▁94
▁minerals
amination
vascular
▁9
▁surgical
▁homogeneity
▁irradi
▁intermedi
ocele
▁naloxone
▁impaired
terone
▁absorption
ogenes
onary
▁NB
Ara
▁preservation
SSA
roin
▁myocardium
97
▁femur
.3
▁conservative
nitro
▁prednis
olic
▁hypo
▁psychological
▁differentiate
▁ranged
orotic
▁solub
▁nig
▁deciding
▁hypertension
▁cultures
▁progression
8%
▁DP
▁symptom
▁spontaneous
▁inhibits
tebral
ystolic
▁remin
ocarcin
▁pharmacological
ulum
▁mM
diol
phyl
▁heroin
MRI
▁10,
anol
▁malignant
21
▁disability
rever
▁arteries
▁LN
▁averaged
asal
containing
GD
toph
▁epidermis
▁unm
▁preliminary
▁resection
▁MRC
ochemical
siveness
▁1.3
rated
▁leuc
8).
▁biochemistry
▁scaled
terminal
tive
▁biological
56
▁behavioural
tin
▁TB
osal
▁tumor
▁osteoporosis
aryn
▁monophosphate
ocompatibility
▁doctors
linked
▁tyrosine
▁exchan
▁Alcohol
▁196
oural
▁inad
jejun
▁adenylate
▁manufacturers
▁abd
▁Cardi
▁Failure
▁produc
appropriate
bumin
▁pertussis
▁nitrogen
oves
▁chromosomal
acet
itin
▁lob
▁undergo
▁MHC
▁traum
ocytes
rolog
▁recess
▁77
▁inevitable
▁chloride
▁fibrillation
RP
▁dimer
66
▁cigaret
▁19-9
ovirus
▁lys
▁1989
inusoidal
gluc
▁amy
▁breakdown
▁granul
▁widespread
▁gad
▁sucrose
▁PGE
▁granulosa
▁trials
alsy
IU
1/2
udin
▁dete
▁dodecyl
coated
0.5
▁acceptor
treated
galact
▁82
▁VL
▁negatively
onuclease
▁2.8
▁discontinu
ateral
▁determination
tering
WL
▁1986
▁attending
versity
▁prednisone
odies
ropha
.1
chym
▁merits
▁portions
▁anaesthe
▁risks
▁tox
▁TSH
ophag
▁inotropic
protein
▁antib
▁unevent
ronch
▁neoplastic
▁Steady
ubicin
itively
atients
▁drops
▁reagents
ocamp
odil
sis
23
▁adi
▁electroph
▁stromal
▁protective
▁employing
▁prevalence
idol
uccess
▁unselected
▁enzym
forcement
▁hypothal
ocrine
▁responding
▁89
▁oxytocin
▁withdrawal
▁mann
▁recr
atell
tle
▁ole
diagn
▁oxidation
▁fron
6%
▁parie
▁8
▁confound
▁detec
▁moisture
▁intact
zyme
essive
deple
▁(10
▁vaccines
aminated
▁glu
▁Comparison
▁oxide
iary
▁yeast
▁isot
▁eosin
▁tubules
▁laxity
2/
▁fluor
▁analyzed
▁33
diabe
tus
▁Continu
▁panc
▁intracranial
▁addi
diabetic
▁fixation
▁presum
▁Excessive
terol
▁subjec
▁stab
uation
▁kb
SPE
arental
isure
reement
trogen
▁PAF
▁gastro
ffs
▁corneal
▁capillary
opressin
▁progesterone
▁glut
▁uncontrolled
▁continuously
▁constitutional
▁21-
AO
▁Streptococcus
tral
orin
▁2)
ayed
▁evac
ropine
unctional
controlled
▁poisoning
oactive
▁diffuse
oglobulin
▁IMR
▁eluted
▁urine
▁cere
hea
yel
▁spectroscopy
oxone
dition
▁phon
▁stroma
▁oss
▁spleen
▁Ia
▁10(
ensities
ophageal
ropyl
▁CFU
▁susceptible
stolic
▁thickness
▁endometrial
ogeneic
▁2.2
▁lacking
▁specialty
▁permeability
▁Pretreatment
8-
urin
▁BS
100
esting
▁ANP
omain
attern
ubation
▁LC
gely
▁transi
SCC
tomy
▁derange
entists
▁isch
▁characterized
▁mL
▁plateau
▁Elderly
▁tympan
▁adolescent
▁PCO
umbar
▁unprotected
▁innervation
otre
bodies
urgically
▁patella
▁excreted
CRP
70
▁mRNAs
▁consequent
▁enlarged
atoid
▁chol
mide
etus
▁surge
▁75%
▁concentrations
▁loci
▁identi
lead
itamin
▁gradi
▁resting
▁positively
▁distinguishing
uality
▁HB
▁surgically
▁GF
ications
tious
▁apop
▁endemic
▁reevaluated
▁mediate
▁ammon
▁allevi
CGP
▁pulmonary
▁caution
▁discriminative
▁extracts
opathy
▁enhancement
▁parap
▁cartilage
▁aggres
▁Overall
▁advised
▁liver
▁coincidence
▁attrib
lusion
▁comprehensive
▁radiolab
osyn
intestinal
▁PB
▁constr
urethral
agal
identical
HM
▁7,
▁nervous
▁pathway
▁safer
▁angiotensin
tation
▁incubation
sul
▁(20
▁Consideration
obarb
▁idi
molecular
ulatory
▁reduc
lys
▁prognostic
▁unstable
▁viability
▁enriched
risk
▁UTI
53
.6%
urgical
RB
▁explored
▁adipose
▁dilatation
erating
▁suppressor
gents
ediatric
▁haemorrhages
▁uneventful
rief
▁epsilon
thanol
▁rigor
▁gonadotropin
▁satur
▁examin
▁adenomas
roscop
4)
▁AMI
sial
▁injec
▁fibrinogen
▁effector
▁4.1
▁margins
▁decreasing
iferol
anding
atible
▁Sprague
▁inflammation
▁practition
▁68
rhy
▁mono
▁cuff
▁neurotrans
▁chronic
▁hyperg
▁24
kine
▁acquire
▁localized
▁albumin
▁cardiomyopathy
▁solely
▁soybean
maximal
▁eosinophil
iatum
hypertensive
tured
▁selective
etan
▁2.4
trop
▁0.03
▁causal
▁epidemi
bular
virus
osin
VR
▁theophylline
▁oxy
▁phi
brom
otroph
▁detergent
romycin
tual
ejun
▁tracers
▁survival
▁cortic
▁intravenously
trypsin
▁presenting
▁mitochondria
ficial
▁HU
▁unexpl
▁neoplasm
▁CSF
▁90%
▁reproductive
▁ischemic
alian
▁screw
▁diarrhea
▁cavity
▁chemically
▁HM
▁infected
sions
verages
▁junctions
▁transrectal
▁deaths
▁attenu
▁disorder
ditions
ocular
inol
▁tubule
▁subunits
uary
orphin
▁injections
▁myoepithelial
ignificant
eroxide
▁GH
yses
lyc
▁bovine
rangement
ocked
▁amin
tened
▁laparoscopy
▁analogues
▁peripheral
▁exis
▁OCD
.5%
placement
erop
rying
-3
▁arrhythmias
otor
▁adherence
tically
▁intrarenal
▁21
omiting
▁36
▁demonstrating
▁clinical
▁recombin
ticular
urred
▁predictor
ospor
▁deoxy
▁substrate
▁(25
tility
▁describ
▁interstitial
▁10
▁3.4
▁treating
▁enrolled
/1
▁desirable
▁cultured
crip
▁diluted
5).
▁optic
tition
odium
ginine
▁peroneal
▁evid
timal
SCE
onatal
-24
ffin
sia
▁depres
▁GnRH
ancreas
plic
sies
▁oes
▁overlying
eal
pH
tality
▁tumour
▁examinations
▁kinetic
ximal
▁APC
▁51
▁inhalation
▁homogene
▁clinic
▁mobility
3.
▁episodic
ylate
▁complaining
osynthe
▁HTLV
▁emphasizes
▁achie
imide
▁diabe
▁renin
lected
-450
sts
HIV
▁lumbar
odal
6.
24
▁elevation
▁leisure
ailing
▁catecholamines
tradiol
▁atm
▁Poor
▁tris
lymph
uvant
▁abdominal
.7
▁Eff
arous
ucle
▁subtype
▁morphologic
▁Forty
▁hypothyroid
▁acqui
▁seizures
▁melan
▁mitochondrial
▁Discre
▁reductions
▁1.6%
▁immune
▁assessment
▁diabet
helial
ostic
▁ventric
ithms
tection
iferation
▁hemisp
▁Kupffer
icients
▁epitope
▁morphine
▁laboratory
▁lobe
semin
tative
▁kappa
embrane
linking
▁angiography
bility
▁interc
5,000
yrox
▁anxiety
▁infar
ocellular
▁gastrin
thma
omedullary
iably
▁ambulatory
HU
▁irreversible
▁Elec
ctomy
▁ceph
0,000
▁0
▁spont
▁veins
hemical
▁glucocortic
ineal
▁HS
▁molar
▁presumably
phth
▁OT
▁leukotri
▁bloc
▁agon
▁SHR
▁identically
ocrit
▁fluorescent
toxin
▁preoperative
▁intestinal
pation
hepatic
▁managing
▁morphological
trial
ymme
oretical
evoked
▁neuro
mend
▁KCl
▁underestimated
▁corticos
▁1,25
▁depicted
tabol
▁retard
▁lact
▁Mn
elvic
▁MV
opia
▁digestion
▁graft
▁antagonists
▁sulph
agic
tinu
▁nursing
▁unex
▁respec
ohyd
▁adver
renol
▁genetic
▁undoubtedly
▁childhood
genital
▁(54
▁laparotomy
ithm
rophilic
lastoma
▁hyperfiltration
▁SBA
romes
▁(4)
ivary
xual
enon
echn
sively
▁synthetic
▁aort
employ
▁paren
▁follic
▁suscepti
ocardial
▁quantif
▁dopaminergic
▁Sout
1%
▁perceptions
ravid
▁renal
oprote
▁analges
▁pH
▁hemisphere
eptide
ithelial
▁congen
▁systematically
▁elec
▁300
▁emotional
▁ongoing
tents
uded
ught
▁deterior
▁Bec
▁Previous
acin
▁stenosis
▁lipid
▁compressed
▁Improvement
▁sarc
▁Mucosal
▁Contr
▁stom
ochondr
-1)
lycer
uvate
▁erythrocyte
▁leu
▁laparoscopic
▁footprint
cessive
▁intrag
BV
▁binds
9%
trast
▁ATPase
▁selectively
▁LVH
orption
-19
trated
opathological
▁masked
hydroxy
▁compliance
▁GCS
▁iatrogenic
▁disulf
▁thrombosis
▁macropha
DH
▁Addition
▁mug
oracic
▁cyto
▁1.2
trex
▁intram
▁phospho
▁inward
reness
▁researchers
▁25
▁births
▁replic
anish
40
▁axons
HF
▁(13
elves
▁antibodies
▁immunoprec
▁plates
ociation
iasis
▁heteroz
▁Tests
onuclear
▁ventricle
stem
▁lamina
▁tert
▁pigment
▁hemodialysis
truc
tabl
▁pathologists
affinity
▁warrant
ercul
▁1/
ineph
▁onset
bac
▁rated
tance
▁(0.1
▁SB
▁recur
▁attenuated
▁implicated
orative
▁cholinergic
ternational
▁biosynthesis
▁4-
-67
Leu
▁hazard
▁influenza
▁luminal
▁distinctly
▁HP
▁shifted
onset
centr
▁subgroups
ration
▁silic
▁FDG
▁unaware
▁professionals
▁hypoxia
ferential
thyl
▁esophagitis
▁CCK
▁superoxide
▁wean
▁myo
ressive
ophys
ignific
▁phospholipid
tively
assium
uran
▁synovitis
▁detecting
▁6%
▁reticular
▁complic
▁contributes
renal
▁donors
acetic
filtration
▁caud
▁Swed
nthe
ellosis
▁Greater
▁tow
▁norepinephrine
▁disper
▁evacuation
romed
▁deletion
▁monkey
▁identif
▁forsk
▁bacter
▁systemic
▁radiotherapy
7%
geal
ATP
▁occlusal
▁amino
▁lysine
hesive
▁GMP
opha
increased
▁infil
▁fibr
▁parasite
hospital
▁cef
▁cystic
▁uni
▁prosthe
tact
▁0.00
titu
tase
kinin
▁Thirty
8+
lowering
▁broader
osts
▁glutathione
▁parag
▁distin
▁irradiation
▁valve
▁preventing
▁hernia
ofol
▁deficit
▁ascer
▁epiderm
urement
▁fold
IFN
ourable
49
▁reproduc
▁50%
▁immunomod
▁chl
▁aggregates
rectal
trus
▁suprap
encl
▁intermittent
▁bacteria
▁heavi
▁modestly
clinical
amic
stant
▁prognosis
anin
▁carbachol
99
▁intensive
▁ect
economic
tage
▁isoforms
▁lumen
▁timely
Tn
▁uro
▁hemodynamics
▁gestational
▁rigorous
▁establishing
▁defective
ucose
▁48
▁reveal
adication
44
▁acetyl
methyl
▁morphology
▁mmHg
▁6,
▁normo
▁rati
▁inhibin
myc
rement
▁immunisation
▁cancers
ilical
▁progen
pyr
jun
▁longitudinal
▁divertic
▁thrombolysis
▁bleeding
▁lysis
dered
▁platelet
▁infec
▁minimally
▁0,
▁expertise
estis
▁indicators
▁3.1
hered
▁effectiveness
▁IIb
odiaz
plo
tric
▁interfere
▁TK
▁CMV
▁resour
▁Chest
uresis
▁motif
entif
▁autop
▁1%
▁cys
▁antiser
.8
▁cephal
versely
▁methionine
▁WHO
▁Magnetic
▁shunt
▁accel
▁ischem
▁Excess
▁Kup
▁terminals
▁receptor
▁immunological
NAc
▁encourage
plete
▁Samples
sized
▁underst
▁adop
▁warr
respon
▁Cushing
▁sciatic
▁designing
▁responsiveness
▁depletion
▁uptake
-1,
▁bp
▁cardiomy
▁18
ilized
▁35
▁endoc
▁malign
▁sore
▁inositol
▁phenotypes
▁Increas
Ba
▁pathologies
▁implanted
afe
phil
ophore
▁chromat
▁fluoroquin
▁cytotoxic
oids
chloro
▁glomerul
▁messenger
▁hamster
asses
▁Radi
▁biopsy
▁pacing
▁ethyl
▁findings
▁Tumour
▁0.01
cein
▁coex
▁providers
itr
▁lowering
Kd
idate
▁63
▁relap
▁testosterone
▁physically
▁initiated
.3%
▁colorectal
ulcer
mand
osine
▁periodon
rk
avage
cretion
ploy
igravid
▁wrist
severe
▁isomer
▁empirically
▁1,
aminidase
▁stellate
▁sampl
▁neoplasms
▁lept
▁discom
▁excl
▁medial
oresis
▁polyethylene
▁RH
▁hypoxic
▁preterm
▁amines
▁heterogeneous
▁exhibits
athione
▁98
riend
ensit
3%
▁pedigree
▁judged
olytic
▁immunization
▁herpes
▁microscopy
▁discrimin
▁4.2
▁ionic
▁fentanyl
▁examined
▁adenosine
▁Educ
osides
ozo
6%)
igaret
▁arachidonic
▁mediating
▁therap
others
uclear
deoxy
▁amph
▁pT
▁macrophage
hist
▁endoscop
▁immunobl
oplast
▁80-
▁-2
olec
heum
▁interv
▁decisions
▁nicot
▁splen
▁subtypes
▁skeletal
▁0.05)
▁inducing
▁depr
operatively
▁pathologic
osyl
▁3)
ATPase
▁microns
▁vegetable
▁undes
atitis
▁poorest
▁.00
aldehyde
enic
tries
9)
median
ocom
▁apolipoprotein
39
▁needle
▁emergency
▁implantable
▁mucosa
▁fibroblast
iol
NAP
modulin
▁Experiments
▁pretreated
▁pter
▁Muc
▁shortened
▁HI
▁synap
▁fluctu
resist
phasis
peptide
▁decarbox
▁endoplasmic
▁reticul
ogens
PV
▁gamma
▁rabbit
imens
mentation
34
legia
rospinal
▁migraine
icep
▁decisive
asting
ffinity
▁blockade
▁assayed
▁adhering
▁implications
▁muscul
▁deformity
-40
vate
▁pharm
-11
▁acidosis
▁activated
▁xen
▁impair
▁10(-7)
stress
▁TBI
▁ventilatory
icient
▁practically
tiv
▁specimens
▁barriers
▁visually
▁influx
▁oxid
▁rationale
▁polypeptide
▁probes
amethasone
▁immigrants
▁physiology
▁fluids
▁tas
▁perone
▁0.6
fos
onol
saccharide
▁indication
ylated
otassium
▁mesenteric
nI
bacco
▁modulate
▁merit
▁arter
▁uncom
▁solubilized
cells
drome
▁suspicion
ifol
endot
▁juvenile
▁vulnerability
▁indications
especially
MG
▁cadaver
▁PCOS
▁Phen
▁indetermin
tam
▁perin
ometh
▁acetabular
▁slic
ffer
opa
▁abnormal
ectomized
ylchol
▁cholecystectomy
▁hemat
uppres
▁IFN
▁Severe
▁chicken
erally
▁oxidase
illin
▁recurrence
▁Meas
idin
▁smoking
▁pren
▁healing
▁soy
▁delivering
▁NMDA
▁brady
▁granulocyte
▁dye
▁Inhib
▁activator
thyroid
▁autoradiography
▁dischar
▁supernat
▁antagonized
oxane
▁carcinoma
overall
▁accessory
▁absorbed
esic
yloid
▁adjuvant
dies
▁utilized
hion
epam
▁12,
▁transferrin
▁propensity
erated
▁radiolabeled
▁85
▁agonists
▁aureus
ophy
transferase
reated
ritis
▁uremia
uncture
▁fluoride
▁somat
▁steroids
▁phagocy
▁Fc
▁cG
▁immunos
▁abilities
▁cirrh
▁600
▁preval
▁duodenal
ubted
responsive
▁NN
ancre
▁unin
uated
▁0.001)
amycin
▁recor
▁fibrin
antial
▁saturated
ropriately
▁vena
▁cyclase
mobil
helium
35
acts
omized
ofluores
▁purification
▁cyst
▁comparisons
onomic
▁recipients
▁radiograph
▁hepar
▁7.
rologic
▁exacerb
▁socioeconomic
hering
▁worsened
olism
▁cervix
▁subunit
▁BW
▁AI
▁bedside
rins
31
▁stimul
▁obese
sibly
alues
▁urinary
▁gastric
▁etiology
uin
▁kinase
ranolol
▁carboxyl
▁hygiene
3%)
acting
nai
kground
ospitals
▁PRP
EGF
▁immunore
▁ventilation
▁analogue
hydrop
▁tendency
▁BP
▁FSH
▁fluc
▁neurob
tional
aem
▁immuno
▁Strep
RD
▁hormones
ervations
▁kidne
▁Tumor
▁phosphorylation
monstr
▁autologous
oscopy
▁infiltrative
▁parotid
▁lam
▁differentiation
▁asymptomatic
▁kerat
▁transfusion
▁attendance
osomes
dents
▁deliveries
▁pancreatic
-3,
osom
▁perme
iron
ophil
▁2.7
deficient
othermic
▁eti
▁catheterisation
▁gait
▁spectro
8)
▁advan
jec
apeu
▁Changes
▁suspic
neal
▁predominant
inally
scherichia
▁spind
▁APD
▁insulin
▁sebaceous
▁vaccin
▁histological
dine
oxide
independent
onance
▁viewing
▁inspection
oprol
▁pineal
Cs
olipoprotein
▁cytosol
▁awareness
0-
acted
▁advancement
▁cohort
▁occl
▁suture
▁disparity
hop
▁SCH
▁deformities
opsy
amily
-16
▁prox
▁sexes
anavalin
▁altered
▁MAP
omat
▁initiation
▁assessing
▁ancestor
glutinin
▁athle
▁rostr
▁NH
thym
oxia
▁inappropriate
▁ambul
atibility
▁breathing
resting
▁genomic
▁atheros
▁beverages
▁organisms
▁annulus
▁carbohydrate
▁adequate
▁inadequate
▁[14
▁concom
▁Incubation
▁lesion
▁genetically
▁conservatively
▁Hg
▁carrier
▁familial
sian
ocyt
LV
▁techniqu
▁enzymatic
▁inactiv
▁examiners
ologic
▁counteract
▁systematic
▁insuff
alanine
▁implic
36
immunoreactive
-12
▁glycos
▁plex
ulae
▁sarcoma
▁selen
▁predictive
▁thyroidectomy
phosph
▁alve
▁ration
WBC
▁HSV
▁controlling
▁anticipated
▁withdrawn
▁intrac
fused
ACh
▁catab
▁modif
onor
▁infectious
▁compli
▁medicines
▁afferents
vements
ulose
acrylamide
▁76
▁captopril
▁omega
▁stret
▁(12
▁ADH
plastic
▁myeloid
othane
▁sulphate
athy
releasing
gene
aints
▁scl
▁Delayed
▁muscular
ept
▁utero
ycin
▁horm
oag
▁ischemia
▁sphincter
▁lesions
▁intrinsic
▁nosocomial
▁murine
SAH
LB
erations
ighted
▁secretion
onstric
hort
Ra
turally
▁ml
▁entero
▁hepatocytes
▁inhibitors
mediated
▁granular
-1.
▁0.01),
▁degeneration
▁inducer
▁oocytes
▁practitioners
▁FT
▁establ
▁inhibited
▁aging
▁phospholip
▁Effective
▁periodontal
▁(10(
▁CTL
roscopic
▁38
▁microtubules
▁physici
▁dietary
▁surrog
▁basal
▁thems
▁gyn
▁coeff
▁radioactive
arer
.9%
▁Patients
▁complication
▁UT
vertebral
▁20%
▁1.5
sA
omical
▁facial
▁telephone
▁endot
▁jejun
▁LH
▁bladder
▁oxygenation
▁crystall
ethylene
▁improves
▁questionnaire
▁descending
RM
GF
▁pig
▁micron
▁96
insulin
xia
ocial
▁endometr
▁prostate
▁gallst
▁intravenous
▁shar
▁waist
▁thromb
▁uncomplicated
▁identifying
▁laboratories
▁marrow
▁oxygen
angi
▁affec
▁pyr
genesis
▁tracer
▁vaginal
▁pharmacokinetic
▁deple
urc
▁resuscitation
ducible
▁basement
▁coel
ociated
illary
acchar
5.
▁reser
▁viruses
iological
▁adhere
▁retin
▁deletions
ologists
loride
1.
▁hydroxylase
▁orally
▁cation
tioned
▁antigens
TG
phosphorylation
▁congenital
inemia
▁achievement
▁determinant
▁kidneys
▁contractions
ocin
▁87
▁cure
▁congenitally
▁differs
▁rese
▁brains
▁undisturbed
▁LV
▁beha
▁6.
tetra
▁thrombo
▁VT
▁polypeptides
▁splenic
ximide
▁oligo
ustained
▁hazards
▁horiz
▁endothelium
▁Vitamin
seven
orpor
▁dilution
▁refractory
▁CABG
▁membran
▁immunofluores
▁potentiation
▁endarte
▁catheters
▁Routine
oate
▁diversity
▁acetate
▁microsomal
▁VAS
▁rotated
▁axon
iciency
ostat
▁hemis
▁reflex
zymes
▁septal
Au
adrenergic
▁injuries
lated
-0
CCT
whe
▁bolus
apeutic
ocortic
▁3.8
▁neurolog
hetamine
urally
ronous
chond
hyd
▁glomer
orts
▁overexpression
adenosine
15
▁antegrade
▁osteoporotic
▁epitopes
trum
retion
aemia
▁reacted
▁implicate
▁toxic
flux
▁detectable
▁acute
mega
▁RAR
▁trophob
ffeine
▁1.7
▁moist
▁3'
▁perception
▁microb
▁15
unctions
▁Neither
▁abl
▁adhesive
▁homogeneous
▁0.000
▁amplification
▁neutroph
▁tissues
▁filament
▁peroxidase
▁perinatal
▁synchronous
▁pharmacy
kelet
delayed
▁diminished
450
▁ane
gative
▁50
▁Mothers
▁5.5
▁previ
▁subf
▁dissec
▁virtu
ergen
tical
▁defects
▁cartil
treatment
ifugation
▁corne
cAMP
▁backs
▁cros
hyp
▁mucos
▁oligos
pinal
▁discordant
oes
▁chloroquine
oride
▁accumulated
▁HCM
▁habits
▁Removal
▁pancre
ipr
▁canc
▁therapist
apamil
▁10(-5)
osus
▁colloid
APC
▁yr
GH
▁gaps
▁predominantly
ixation
▁differed
itoneum
▁1.0
Nase
▁precipit
2+,
▁adren
▁ingestion
▁(17
-18
▁Clinical
▁NP
.2%
▁EA
▁enucleation
sistent
▁ANF
▁dial
▁Calc
▁promoter
▁venti
othelial
opolysaccharide
scopy
▁Increased
▁RV
erate
▁scanning
▁chond
▁ket
▁killer
▁halothane
▁astrocytes
▁pathogenesis
▁microm
▁neutrophils
▁microscopic
ophilic
▁ey
tif
▁ACTH
▁HC
▁lithotripsy
▁consequently
▁inadequ
▁suppressed
ognition
▁cytokine
▁Afric
▁caregi
glum
▁potentials
obal
▁immunized
iciencies
▁dental
ositive
▁LT
▁prostatectomy
▁aden
titis
▁rehabilitation
▁2,
LH
▁adenocarcin
▁inver
▁adults
▁arrhy
▁(6
▁overlaps
tural
brain
▁20
▁progres
yrid
37
▁isolation
acial
▁dose
▁postulated
▁terminus
▁targe
12
▁PF
▁anatomy
▁estimating
▁contractility
▁heterogeneity
▁peripher
gmental
▁angioplasty
▁echocardi
▁surviv
▁alteration
▁facilitate
▁cancell
▁RI
▁5%
▁acin
itary
▁tympanic
geons
48
▁unaffected
▁rostral
▁readings
ceptive
▁PEG
VH
▁Engl
tryptamine
▁papillary
▁analogs
ching
0%
▁corticosterone
▁magnesium
requency
▁accumulation
▁7.5
▁11
▁dys
▁electr
▁trauma
rozen
▁pylori
Cu
▁amylase
▁herp
▁Neurop
KA
▁preclude
seal
▁survived
ymptomatic
▁laminin
7)
▁inev
▁histopath
▁peptic
▁physician
▁angi
ibi
▁3.7
▁protoc
▁equivocal
cepti
▁nerves
▁visc
▁ET
▁baseline
▁feeding
▁nucleotides
▁discon
trib
erper
▁probe
▁PSA
▁57
either
tran
-4
▁suppor
▁Recurrence
▁hypertro
▁fractures
lycemia
secre
loon
CAM
▁nasal
licular
▁thromboembolic
irubin
▁diagnostic
trexone
▁carbohydrates
rae
onad
17
▁nail
TPA
▁tailored
fat
inj
retro
ditional
ctive
▁eliciting
▁angina
ulin
▁0.3
▁glycogen
atid
fron
▁Kd
ritin
▁thymocytes
▁apoptotic
BP
diastolic
otype
▁antisera
▁retinal
▁67
▁vasoconstric
oskeletal
5)
▁transurethral
▁adolescents
LN
▁44
▁3.
▁fractions
2),
urea
+]
trimental
67
1),
▁baro
▁diagnosed
▁chemotactic
arrhy
▁heterogene
▁fetuses
▁COS
▁7
▁platelets
▁investigations
uptake
ulfonyl
tenance
▁intraper
▁facilit
▁mmol
01
▁anticoagulation
dominal
▁NMR
▁RT
essment
ithin
▁dexamethasone
▁usefulness
▁babies
OA
▁mutants
▁endothelial
▁spon
illus
omonas
aluation
▁defic
▁plasmids
-20
ogenic
▁arginine
terolog
▁availability
occus
nucle
opath
▁rabbits
▁undergone
▁postsynaptic
▁lumb
▁CEA
1-
▁emotions
▁rhythm
mig
▁plas
▁Vaccin
adex
gastric
veness
▁progn
1-2
▁depressive
▁fatigue
birth
tivities
oyl
▁activating
▁consistently
▁retur
atched
renaline
herence
▁Blockade
▁201
▁nonadherent
▁degrad
▁tamoxifen
▁remo
▁inhibition
▁optimizing
▁menopausal
▁alp
utyr
herent
Mu
▁4.
▁histidine
assay
▁wee
MIC
quine
▁ips
▁mediation
▁bone
▁latency
▁carc
stro
anded
▁encour
▁1.
▁polymerase
▁tracheal
▁recurrent
▁variability
▁clearance
▁endoscopy
▁pathological
abies
hesis
▁radiographic
odialysis
enzymatic
▁intra
▁ortho
operative
7%)
▁loosening
▁exert
enkephalin
▁ASA
▁aspiration
▁morbidity
odial
▁grafts
▁surveillance
rophob
▁conclusive
▁cirrhotic
▁PRL
▁pyruvate
Ala
▁antagonist
perfusion
dial
ucleation
stranded
▁sulfonylurea
▁balloon
ulitis
oxic
▁accelerated
▁70%
iable
tected
▁intercostal
▁adenine
▁responded
sive
▁hypotension
▁evolving
20
▁mandatory
▁dihydro
xate
astom
▁adjustments
▁mAb
▁intake
ocol
luc
▁lambs
▁compartment
▁topical
undibular
ochem
illar
overed
▁immunosuppres
were
amines
▁deficient
▁carb
▁polyps
▁prescrib
erum
ervice
▁analysed
▁-0.
▁urea
▁intrauterine
▁NPC
▁3.2
▁2%
ichia
olectomy
lood
mented
odynamic
▁IA
▁contrac
fication
▁calf
ths
venth
▁effec
▁GI
ipient
▁examination
tumor
▁enzyme
▁copper
▁[125
▁relied
▁bilateral
oreceptor
rosine
▁ulcer
ardless
roxim
▁biases
▁excimer
▁125
▁overlapping
▁distal
▁orthopaedic
ologous
tracellular
sus
teine
▁accep
▁wt
▁calcified
▁synapses
▁sero
▁islet
▁assessed
▁palp
▁HR
▁deter
▁calcium
▁fist
▁reflux
▁circulation
edullary
TK
▁underwent
oxid
ocor
elong
tally
▁encouraged
▁homoz
sion
▁antagon
inergic
▁plastic
andard
▁Measure
▁prostatic
oratory
▁residency
▁0.001).
▁labelled
density
▁bic
acement
▁(50
▁AGE
▁unsuccessful
▁investigating
▁predictors
▁correspon
fected
ustif
▁nucleotide
▁DSM
▁mice
▁adequately
▁excit
▁physiologic
iotic
endri
▁STI
IIIa
Hg
▁FV
aventricular
tension
▁Fifty
ectom
▁contractile
▁15-
▁infections
1-3
stim
▁embryos
▁follicle
educ
ocardi
▁plasmin
▁vasodil
reast
▁Taken
▁functioning
mediately
▁fetal
▁adduc
formin
▁nifedipine
graft
ostomy
atinine
▁PH
Gl
▁bacterial
erox
▁antigenic
▁microcirc
▁transcription
vaginal
▁galact
▁airway
▁preferentially
▁corresponded
7,
▁lamb
▁pigmented
lact
cutaneous
▁fatality
rection
/10
▁predic
▁ESR
▁monkeys
▁pulmon
ervative
▁leukemic
LISA
▁ovarian
entricular
RH
▁indi
▁molecules
▁nulliparous
▁sedimentation
▁(5-
▁ICM
▁chemo
9-
▁kinetics
ognitive
april
▁esophageal
morph
▁BD
▁mammary
(2+)-
▁highlights
educed
ivered
▁incub
opoietic
olon
▁Preoperative
acrine
irrhotic
▁hepatic
▁trough
Phe
▁neurological
asic
▁interacted
astatic
▁pleomorphic
▁intervertebral
▁transcript
▁iod
▁fractional
▁intervention
▁PV
▁5)
erts
▁embryo
acid
ameters
tors
▁purified
▁titers
▁thyroid
▁Healthy
lysis
ultural
▁catecholamine
▁immun
▁conformation
ducts
▁APTT
▁adjusted
ochemically
▁MAb
phasic
▁poorer
▁astro
▁persis
▁Compared
emory
▁chlor
▁abdomen
menopausal
▁BALB
▁HPV
▁phosphate
▁virtually
▁coexist
▁juven
idity
▁degraded
xiety
▁evoked
▁glyc
▁lipoproteins
▁antec
▁AMP
▁lipoprotein
immune
▁interleukin
▁synthase
▁RNAs
▁ureth
▁aspir
▁putative
▁disruption
▁Prospective
erence
▁6)
▁atropine
matic
thymidine
▁Chemical
protective
▁mandibular
▁trache
▁nodules
enicillin
▁1:
▁shorten
BK
▁cataly
▁connec
▁pyramidal
operoxidase
▁aspirin
▁allogra
▁requi
▁unre
oblastic
▁abundant
▁illness
otyp
▁nonc
4+
▁embryonic
resses
onate
▁encounters
▁55
▁ascending
▁pediatric
▁maintaining
▁umbilical
tituted
ronectin
]-
lue
▁retention
▁profound
tach
molec
otomies
tice
uretic
-1-
Ts
▁GSH
▁0.9
feron
▁constric
▁latent
▁objec
▁viable
phic
▁infused
▁PT
▁reconstituted
▁CsA
▁Thromb
▁rup
▁cruc
▁42
▁NADPH
urse
▁reflecting
arcoma
idement
▁swelling
▁irrever
-3)
tivation
arginine
yroid
▁5
▁differen
glyc
ocyan
went
earing
▁prophylactic
▁degradation
SPECT
▁86
▁nal
▁intrapartum
gm
leu
▁muscles
▁spectra
▁CRF
▁0.1
▁10%
▁plexus
fts
▁acetab
estigated
acetyl
osamine
olum
unts
▁lectin
▁promoters
Daw
▁sympathetic
▁yielded
otomy
▁caregivers
▁toxin
▁predomin
▁enrol
▁mitochondr
▁immunity
▁opioid
▁phosphor
▁subun
▁chromatography
▁Accordingly
▁lute
-9)
alact
▁reveals
▁2.
▁oxidative
PAP
ullary
▁nude
ogenesis
▁standardized
▁colonization
LU
▁HAM
▁aiming
piration
▁steroidal
-17
▁27
▁GVHD
▁gangl
76
▁ART
saturated
phosphor
▁repl
▁dissociation
idation
▁ultim
▁translocation
▁atri
▁anticoag
mental
▁likelihood
adequ
▁illus
tions
▁monitored
▁Roux
▁metoclopramide
iotics
▁Salmonella
chondral
tory
▁cytochrome
75
umulative
▁carriers
zole
ece
▁seb
tetr
activation
▁induce
ophylline
bacter
▁transient
▁Large
▁GABA
▁nons
,000
▁diabetes
▁synovial
▁nuclei
tages
olamine
▁Tran
▁ultrastructural
▁deem
▁MG
fusion
ileptic
coup
-7
▁erroneous
▁melanoma
graftment
▁newborn
▁gestation
▁disulfide
▁experi
▁fulf
▁shallow
▁clinics
▁gels
ignant
clamp
▁carcin
▁vein
taining
tic
▁tonsil
▁ultrason
▁isolate
usive
arge
▁pigs
▁erythrocytes
▁90
▁56
▁(95%
rotein
▁motone
▁heparin
▁glycine
hers
▁quin
▁consis
inely
aminase
utin
▁Significant
▁myc
▁responsive
▁myof
▁interf
ncy
▁prenatal
ertion
▁34
▁tooth
vail
▁sclerosis
▁labial
acerb
▁lesser
rone
▁auditory
▁reflec
▁ultra
▁triglycerides
anuary
▁cyt
▁follicles
▁phage
▁lysosomal
▁VO
(2+
pinephrine
cores
urys
▁sediment
▁frac
selective
5'-
▁Certain
▁rash
▁Chronic
▁1.9
▁infection
▁hams
▁misleading
icin
▁creatine
olecular
▁transpor
ellum
▁infusions
2,
▁venous
othel
▁lax
▁failures
▁caudal
▁assay
robic
▁cen
▁inoc
▁HDL
▁endogenous
gesia
▁alleviate
▁cytos
▁fasting
▁schiz
unar
▁1-
amel
▁medullary
▁hipp
▁cows
▁glucocorticoid
▁2
▁reag
opamine
▁severely
▁CAM
regn
▁transforming
▁29
▁aggravation
▁chamb
▁dox
▁0.06
.6
idase
▁proportions
nowled
itals
▁intestine
▁belie
▁Concomitant
▁benz
▁consultant
enol
Ka
▁(18
iaz
▁validity
onography
▁antigen
ensitivity
gement
▁lymphocytes
elan
tyl
motic
▁nonoperative
▁trend
▁migrated
▁adenoma
noise
▁fertil
▁gluc
▁polymorphism
▁52
▁26
25
▁myel
▁SUP
rapid
ygous
uccessful
▁atten
divid
dle
▁eyel
▁tryptophan
▁perip
▁necro
▁plantar
▁Considering
▁pulse
▁(0.0
approximately
▁acetylcholine
adrenoceptors
▁asymme
-9
▁tubes
▁transcriptional
▁mortality
ffinities
▁blocker
▁repaired
farct
globulin
▁demonstrates
▁uterus
▁depleted
▁survivors
▁spinal
▁excre
▁peptides
▁alkaline
▁headache
toxic
▁invasive
.4
▁pretreatment
▁VP
▁allergic
tensive
▁stimulated
▁beneficial
▁5'
▁lyso
▁surveys
▁4%
▁preven
2.
▁uninjured
FU
▁(3
▁palpation
▁monit
▁abortion
ulting
itally
▁provid
▁substanti
3-
▁tuber
ilateral
ensitization
▁regar
▁physi
anthine
illaries
lapping
rested
produc
▁hemodynamic
▁cytotoxicity
cyt
▁MCP
lateral
Ns
▁ligand
peri
uron
▁RM
atest
▁7.0
▁mammography
▁1.8
▁abuse
▁substituted
NM
▁heme
ancies
▁irritation
▁preconditioning
▁stren
90
athyroid
▁fibroblasts
▁hydrogen
▁elu
itro
▁influences
▁71
tized
▁81
occal
▁0.05),
▁deemed
ocl
gulation
▁frozen
▁PI
tate
▁Stroke
▁hig
roup
▁gallbladder
▁perc
physiological
▁olfactory
▁isoform
▁everyday
▁atherosclerosis
▁uncovered
0.
46
edle
▁anesthesia
dibular
atment
▁GM
▁phenotype
▁residual
▁Escherichia
▁racial
receptors
orax
▁Larger
▁burden
mation
sess
▁administered
▁sequel
associated
▁sliding
▁participate
sorption
▁ipsilateral
000
oic
▁anatomic
▁eyelid
▁Denmark
▁monounsaturated
omes
▁staging
ensity
heric
▁65
▁ionophore
▁perfused
▁callus
▁ETA
▁500
▁Serum
▁incorporation
▁blast
▁BAL
ducing
oprec
▁benign
hydr
▁strain
amine
▁pS
▁inhibitor
titial
▁PAS
▁docum
discharge
▁impacted
▁septum
▁supra
▁exhibit
▁electrodes
▁indomethacin
▁Experim
▁phorbol
▁suspension
hydroxylase
DNA
▁strom
▁throm
▁pep
▁metabolite
▁hippocamp
▁coupled
(5
▁disparities
▁interp
▁consultations
kers
▁intense
▁FD
▁ester
▁implants
▁androgen
▁60%
▁musculoskeletal
▁simultaneous
▁electrical
geneic
▁chromatin
▁perfusate
▁epilep
iliary
▁Eight
▁shig
▁31
icardial
▁TAA
carb
▁cathe
▁creatinine
▁leucine
▁contamin
▁insertions
▁discer
▁complications
siology
LF
cence
▁injur
dose
oconstric
▁carcinogens
▁augmented
▁1987
▁ethanol
genic
▁reactivation
▁GD
immuno
▁nmol
icacy
▁chel
▁3.3
▁settle
▁directional
▁clinically
▁axonal
▁cDNA
▁procedural
▁plasma
▁fractured
▁biom
functional
vival
onit
▁unexplained
▁pediatrics
encephal
▁utilization
ifedipine
wes
▁saliv
▁preceded
roximately
▁ppm
▁precedes
▁thym
ocusing
▁pmol
▁1000
▁surrogate
orbol
▁justified
mitter
▁ketamine
angli
▁competi
▁autonomic
epit
tructive
ycl
▁discre
▁microvascular
tead
▁undetectable
▁gp
▁envelope
plication
▁adolescence
ographically
/2
derived
romy
▁sple
▁calmodulin
▁workload
▁THA
▁hamsters
bearing
uoden
▁neoadjuvant
▁sepsis
▁maturation
trical
▁3,
▁torsion
▁adoles
blind
▁declined
▁Adverse
oluble
4%)
▁83
ylase
ipine
▁linoleic
▁Contrary
▁tubular
▁elevated
▁suppres
▁22
▁arth
vant
▁autoxidation
▁quantitative
▁Pregn
zation
▁.05)
▁3.5
lobulin
▁circulating
enhanced
▁gly
▁tachyc
neumon
eptid
ochrome
▁ouabain
▁interferon
ipit
▁pressor
▁discussions
oxif
▁interventions
▁60
▁88
lasting
▁focusing
opulation
▁retrograde
▁(2
▁ICS
▁inequ
▁strategies
▁Weight
▁parame
olones
▁sodium
▁tiss
▁interrup
▁shifts
▁GE
urane
▁detachment
▁prevention
▁unco
▁therapeutic
▁eliminated
FH
▁beats
clonal
19-9
▁46
▁intraoperative
idney
polyacrylamide
▁nM
arly
▁facilitated
-10
▁limiting
▁tau
▁6
▁70
▁involvement
▁(8
regulated
▁poten
▁identifies
oplastic
▁feasible
▁errone
▁PCI
BH
▁bowel
▁measuring
▁cohorts
▁speculated
▁cerebrovascular
▁transplanted
TU
▁pall
nine
▁consangu
tub
absorption
▁reposition
▁37
▁elong
▁Intra
lyl
▁influenz
▁hepat
▁inflammatory
▁proteins
▁ALT
tent
AIDS
▁lymphomas
rogenic
▁GV
phosphamide
rotid
pite
▁sedentary
▁plaque
▁appreciably
▁undiagnosed
▁PHA
▁Whilst
▁197
▁suicide
▁athe
▁symme
▁epit
▁spike
▁10-
▁receptors
▁pate
posure
▁inters
olgi
▁unic
unting
▁therapies
econd
▁unchanged
)2
rague
▁vesicle
▁sickness
lesion
tib
▁Older
▁potassium
▁GPs
▁resec
ostal
▁bip
▁pharmacists
▁pharmacokine
arb
ipolar
▁cate
tisol
2+.
▁concentrate
86
▁repetitive
sar
▁stillbirth
natal
oung
▁drin
▁collateral
yro
▁hygi
▁underline
acetylcysteine
▁198
▁ruptures
0%,
▁splenectomy
▁vitro
▁dorsal
omod
▁EO
parative
▁disadvantages
▁abolishes
ostasis
▁cytokines
▁AVR
▁vasopressin
5%)
▁assays
4,
▁scans
owever
▁slices
incubation
▁intragastric
hei
etitive
▁ejection
▁Physicians
stages
▁citrate
▁FH
▁dehydrogenase
elfare
▁electrophoretic
erent
▁glutamine
erus
▁subcutaneous
opes
partate
ialysis
otropic
▁tissue
puts
erator
rans
▁MT
▁immunode
orubicin
osomal
▁polyclonal
▁fracture
.1%
▁5.
rele
▁sour
▁5.0
▁arthritis
▁reviewed
▁Golgi
7-
▁cancellous
▁corrections
thre
▁multiv
resistant
▁(1
jug
▁RIA
▁ileum
▁necrosis
▁multifactorial
▁alanine
Tyr
▁barrier
▁Continued
-5-
married
▁supplemented
▁meth
loid
eces
1).
▁filaments
▁ultras
.5
▁HIV
▁fibrob
▁neonates
6)
cyst
▁hypertrophied
▁expressing
▁weekly
alc
osterone
▁MEP
▁lungs
rof
plantation
▁brom
ussion
amate
▁regurg
▁laparo
adren
▁95%
tiveness
▁complemented
GU
▁reductase
anese
▁extraction
▁Glu
▁differe
▁rectal
▁improving
▁innerv
▁resusc
ture
▁ethnic
▁PE
▁phy
venous
-30
▁inherent
▁Pregnancy
otypic
▁SNP
▁Cox
▁numb
umulation
▁streptococcal
ipitation
ceptions
-2,
▁Mg
▁41
▁UV
▁ineffective
▁duoden
▁hydroxy
▁brush
▁ae
timulation
0,
▁peaks
uscular
▁quanti
▁soluble
glumine
detected
illation
▁DT
▁normotensive
▁hypothalamic
▁appendicitis
▁olig
amet
▁dendritic
▁affinity
▁1988
mol
▁tymp
▁regulate
▁Alternative
▁satis
▁postoperatively
▁organs
Ia
oretic
0)
▁noncom
▁Biol
▁neuronal
▁analys
▁tomography
ococcus
▁electrode
arbox
▁superficial
▁chains
▁practiced
▁paired
▁testicular
ecal
1/
▁trigg
onous
artum
otent
▁Trial
pS
▁leuk
rectomy
mitted
knee
/3
▁pulses
▁AGA
▁individualized
▁fragile
▁HL
tein
urther
oscop
▁derangement
▁nomenclature
▁Lys
▁hypot
▁monolayers
-1
▁Trauma
-15
ysm
responder
ologically
▁rats
▁algor
4).
▁substantially
ropathy
▁5-
▁amput
tization
▁mechanisms
hemo
▁tes
itrate
6,
▁autoanti
▁amyloid
glycerol
taken
ylation
trition
▁strains
▁trypsin
ocomp
clin
PSP
▁colony
eak
▁64
▁vivo
▁rheum
▁10(-4)
▁ery
▁transcripts
▁equilibr
clim
▁mamm
▁16
▁hospitalization
▁supple
▁0.4
▁eluc
▁ewes
▁characterize
▁deduced
▁CNS
acer
▁versa
iology
▁relating
ochle
▁oxidized
▁2.3
▁systolic
abain
▁Trials
▁10(6)
▁anaerobic
▁conductance
▁axillary
▁cytology
▁synthetase
▁striatum
▁MH
▁PCT
▁reagent
▁hyperplasia
▁autosomal
dimethyl
▁melatonin
▁elic
-6)
▁hypothyroidism
23187
aryngeal
▁discomfort
riched
▁ventil
▁(19
▁13-
▁apparatus
▁choline
▁exten
▁calcification
accharides
turb
▁thorac
▁lec
▁recordings
▁Cycl
▁affecting
▁pelvis
hep
itant
▁66
▁PD
▁squamous
unced
SAP
▁pHi
thmatic
ses
▁cue
responders
▁dyst
ustment
oxygenase
▁promising
▁placebo
▁depressed
5),
rogra
otox
▁19%
▁knife
▁phosphatidyl
▁LOS
-2.
tak
KD
ially
▁1.4
▁crystal
effective
▁communications
▁cholest
ynaptic
kely
▁precursors
olysis
phosphonate
▁Atropine
atient
%),
▁circumferential
▁promo
wenty
▁inhibiting
▁virul
▁ech
lectomy
▁rebound
ioid
▁complementary
▁contral
relevant
▁aspec
injured
omies
▁sulf
▁malle
▁Clin
▁morb
▁GER
gesterone
▁Histologic
▁OC
▁behaviors
▁predicting
▁fever
▁FHR
▁secreted
▁chemotherapy
▁expenditures
▁intrap
▁lithotrip
▁monol
▁dendrites
▁doses
▁vascular
▁succin
125
▁glomerular
▁accurately
aemic
▁hep
▁morbid
ochemistry
▁HN
▁cirrhosis
itic
forming
▁vitamins
igel
▁hypothe
▁compound
KI
▁suturing
▁induc
▁prono
pir
▁spine
▁EDTA
▁nitro
chloride
CoA
▁behavi
▁lith
teral
▁encephal
▁TPA
▁bicarbonate
▁implant
▁surgeon
▁intraperitoneal
▁placental
ojejun
▁evaluating
+/
irradi
▁incubated
▁anesthetized
45
▁duct
▁diaz
cents
▁undergoing
▁peptide
-4-
▁vacu
ranial
▁carbohyd
▁pati
linolenic
usp
plied
atation
▁NADP
oxy
▁vitamin
▁assurance
▁fructose
+-
▁splic
▁palliative
etween
angl
81
▁400
▁syndrome
▁drinking
aline
▁ADP
▁cerebellum
▁tumors
▁HG
oping
▁11,
isture
▁compe
9%)
▁gon
▁scintigraphy
opulmonary
athetic
itonin
tiazem
▁exposure
▁validated
FV
tivity
▁0.5
▁39
▁ETS
▁Medicaid
ximum
▁bac
tability
▁mixtures
▁demands
▁attemp
oceptor
▁connective
▁outcomes
2+-
▁allerg
orectal
sities
▁radiol
▁15%
seud
▁cholesterol
▁induces
▁medulla
▁multivariate
▁paradigm
plants
▁ligands
omotor
▁warranted
aminergic
▁hybrid
▁unde
▁fulfill
▁anatomical
▁ACE
▁radiography
▁scin
oxygen
▁recessive
▁appendic
▁cognition
▁TD
▁VLDL
▁enti
assi
Tc
▁spor
▁pneum
tussis
itures
dehyde
.4%
▁suppressing
itoneal
▁kDa
tures
▁reas
▁exceeded
ypical
platin
▁proliferation
iciently
rometry
▁neurologic
▁NAD
▁percutaneous
-100
▁Plas
sibility
▁arteri
▁RB
luent
pregn
isol
▁circumference
▁atrial
ifferenti
cele
▁curative
▁excluded
▁abolished
▁IgE
▁sial
▁inoculated
teric
vices
keletal
14
mTc
EO
▁mitotic
▁poses
2-
▁cytotox
▁globally
▁hydroly
▁adminis
▁therapy
▁EMS
eptides
▁viral
▁SLE
nRH
▁110
cine
hern
▁coag
iated
estern
▁pulp
tox
ograms
BG
arrhythmic
▁selectivity
ceptual
ayers
ubiqu
▁mutations
bic
▁manipulations
▁phosphorylated
▁GTP
ylcholine
▁cyclic
ecu
▁regurgitation
▁stimulating
▁thyro
▁natriuretic
▁polymer
arers
▁unilateral
▁40
greater
▁phosphatase
▁collagenase
▁VLBW
onucle
eptin
3,
▁leukemia
▁seas
▁detrimental
ariate
▁Dil
▁absorb
▁differing
▁enhancing
▁autoradi
▁appropriateness
▁meals
▁biopsies
positive
▁introduces
▁0.7
▁immunohist
oradi
▁ventricular
activated
▁contex
▁biphasic
Hb
▁precur
▁proce
▁linkage
▁embry
▁comprehen
▁NT
ergency
▁monke
▁neurones
▁prostates
ampl
▁metabolic
lobin
▁inhib
embran
orable
▁forskolin
▁vasomotor
▁neoplas
testinal
▁aorta
amide
▁envelop
ocar
▁placent
Cer
inephrine
omethacin
▁healthy
TNF
▁+/-
inated
▁adhesion
mates
▁ure
▁inactive
▁incorporated
▁quantit
▁leukocytes
acclim
▁amputation
amous
▁BMI
▁prostagland
▁62
▁bronchoscopy
▁cerv
▁depression
▁alveolar
▁obesity
▁7-
▁adhesions
▁competitive
icit
▁IgG
▁Evid
(1
vein
▁30-
▁retina
▁replication
▁PVR
▁discus
echan
▁randomized
uric
arity
▁elucidate
Nor
▁aneurys
▁adverse
▁resul
ameter
▁surgery
enzyme
acyl
▁dehyd
▁eradication
ophren
adm
▁TRH
▁naltrexone
▁indefinitely
▁seventh
athe
implantation
tence
▁luteal
▁hCG
▁predicts
▁diarr
▁synerg
ograp
tially
ymptom
▁densities
▁concurrently
ineural
▁Percutaneous
istal
▁recons
▁reversal
16
▁kD
▁turnover
▁circadian
▁(100
gland
kDa
▁chronically
▁chec
▁targeted
▁guided
rine
▁inclusive
oxidation
▁conges
▁exon
cyclic
▁depress
▁cryst
olone
▁discern
▁molecule
embr
gth
ifug
▁intest
▁bradykinin
▁aimed
▁statistically
▁Estrogen
▁eosinophilic
ials
ogra
otide
▁obstruction
aminop
ercise
▁palsy
▁(14
▁insult
chymal
▁hippocampus
▁conditioned
▁8-
▁financ
▁lateral
▁ligation
▁keratin
▁socio
▁drugs
▁noc
▁structurally
▁Plasma
otom
phosphon
erine
▁correlates
genes
itone
ubtedly
▁placenta
▁actin
erative
arent
▁3%
▁contributory
▁cytosolic
▁striated
▁staining
▁enhanced
▁0.05).
odgkin
orest
▁CM
▁subjected
▁RF
▁MI
▁hyperp
▁endpoints
electro
duc
▁abnormality
▁nonspecific
▁underg
emak
▁bipolar
▁2.1
▁phospholipase
▁47
trate
omia
▁abnormalities
leukin
tron
▁macrom
▁(0.
▁drain
▁inactivation
▁continence
▁conduction
▁solvent
▁HA
▁mature
entary
▁reactivity
▁72
▁substrates
▁Inhibition
▁7%
▁retic
essential
▁inclined
estim
▁encoun
▁centrifugation
▁mediates
▁sedation
▁uniformity
ureus
▁radioimmuno
▁lethal
▁phenyl
▁functionally
▁cisplatin
▁poverty
ituitary
▁overl
ucine
▁temporarily
infected
coh
▁volunteers
fed
▁screening
ivariate
cold
▁TT
ogenous
ureth
▁Ket
odynam
immun
urine
▁proteoglyc
▁susceptibility
▁gluten
minal
▁linkages
▁warrants
micro
aid
▁Biochem
rological
▁electrophoresis
oclonal
RNA
▁feasibility
▁plur
▁cited
▁phenomenon
hydro
ococci
weighted
armac
▁supernatants
▁ageing
▁operative
▁peris
phrine
▁stu
▁mRNA
▁labeling
eptidase
▁moiety
▁atresia
▁chor
▁homogenates
6-
▁RBC
▁pancreas
hydroxyp
▁180
▁desm
▁verapamil
HN
▁paralle
Ly
▁progestin
throm
▁enhance
4.
lox
▁theore
▁astrocy
acylglycerol
vating
▁thymidine
▁reflects
▁strand
ortal
▁MRI
▁thromboemb
immunization
▁DST
▁concordance
rease
▁(2)
glutin
▁PP
▁motility
▁depolar
▁epileptic
▁consecu
▁volumetric
ulph
▁cannulae
▁(16
▁canine
▁buc
▁harmful
valent
▁colonoscopy
▁reimplantation
▁molec
▁rhy
▁radioactivity
Wo
▁proposes
ffec
▁vaccine
tine
▁(9
▁enhancer
▁donor
▁TA
▁efficacy
.8%
▁0-1
▁regulation
▁displacement
erents
tryp
▁supernatant
▁cGMP
▁atr
▁Staphyloc
▁seiz
aptic
adrenaline
▁infusion
trover
regulation
▁WK
phenyl
loxacin
▁0.001
illic
heal
▁posi
▁onc
▁thiol
▁excretion
.9
▁disturbances
▁sham
▁mucosal
▁1.1
▁intracellular
ropriate
▁Slow
receptor
FGF
▁microgram
▁SEM
luded
adily
glucose
▁antiserum
lastic
▁2.0
▁preferences
titution
00
▁physiological
▁AE
▁positioning
kines
▁metabolism
▁birthweight
▁frontal
duction
vasive
▁minimize
▁dentists
▁depic
▁anat
His
▁smokers
▁measurable
2318
▁Patient
hydrox
▁TG
entral
▁Additional
phyloc
▁0.25
chers
isqu
tocin
ionine
▁calves
▁regis
▁Cyt
lyce
▁immunodef
▁prevented
fentanyl
▁subpop
7.
▁histologic
▁tension
▁tubercul
▁mothers
▁VC
▁vulnerable
aginal
idine
▁causative
▁striatal
▁nutr
pT
▁proximal
▁metastatic
keto
▁apical
▁centr
NK
kage
rophyl
▁histopathology
▁0.01)
▁mV
entical
▁unemploy
▁coexistence
ilization
▁anemia
▁fati
▁hippocampal
-5
▁IGF
▁modest
traction
▁palli
▁metastas
▁disparate
atab
olipid
rected
▁decreased
ections
invasive
▁emerg
▁inh
trous
cale
electric
▁glycaemic
▁VD
▁3.6
fluoro
▁experim
▁sti
▁exhibited
anic
grees
tial
▁saturation
labeled
luores
▁engraftment
bly
▁commerc
transfer
till
▁neuron
▁perfusion
▁discontinued
▁trophoblastic
olute
▁dele
▁moles
mong
▁undetected
▁nm
acetate
▁causation
▁stimulates
illance
-2)
▁psychiatric
thmic
▁ECG
▁NF
▁thir
▁micromet
▁pituitary
▁cardiac
eliac
4%
▁elderly
tens
iplin
▁Cytoplasmic
▁UL
▁stimulatory
▁malignancy
▁synthesized
▁colonic
istrib
▁illicit
:1
▁genotypes
▁preventive
aired
▁follicular
▁adhe
▁8,
▁cysteine
▁monocyte
▁modality
▁unrel
▁bonds
totic
▁pine
▁Twenty
achid
usate
▁inadvertent
iosis
lep
otides
years
▁papill
2).
▁2-
▁shif
▁saline
▁neurons
▁BA
▁sut
▁hap
dihydroxy
▁restorative
diagnosed
▁hypog
▁ganglia
▁exacerbations
▁crest
uctose
▁undo
olution
▁microsomes
▁msec
▁exclusively
▁instrum
▁progest
▁pneumon
▁tear
▁elimination
amino
▁microscope
teroid
▁poin
▁metabol
ometrial
▁SG
▁31-
▁hern
▁Tum
▁cyclo
coun
▁atrophy
▁Hep
▁admission
▁rigidity
▁unresectable
itance
▁pancreatitis
▁hypertensive
versus
▁Tes
▁dosing
▁ACL
▁SDS
esity
▁Surgery
▁inapp
facial
▁agonist
▁Cd
▁hydrolysis
▁pregn
▁ganglion
chlor
opres
-6
▁conducting
patient
▁concer
▁paras
tum
▁sustaining
evaluation
78
▁umb
ields
▁dosage
▁cholestasis
▁Impro
semb
FN
Ps
▁detach
▁mec
▁potentiated
▁ascertainment
▁collec
ifed
▁beating
toc
▁elicited
▁Tc
oplasmic
ranged
▁deform
ceptibility
▁multim
▁complexes
88
sensitive
hig
28
HB
▁severity
olved
▁glutamate
ensory
▁4.0
▁Doppler
▁thickening
utroph
▁cutaneous
▁structural
▁phenylephrine
tectable
siological
▁78
2+]
▁ultrasonography
▁pene
▁prophylaxis
▁fibre
▁breasts
oglyc
▁perfor
▁(4
▁homologous
▁newborns
▁relapse
8%)
▁regulating
▁vag
▁resemb
otoxic
▁decreases
Ta
BW
27
otactic
▁supplement
▁anesthe
namic
▁prevalent
▁Analy
teroids
nisone
▁favourable
▁aggregation
oice
▁paraplegia
ocytic
▁psychotic
▁investigated
11
▁hybridization
▁Americ
▁respondents
ectable
▁junction
opoly
▁EG
lycerol
▁peroxidation
▁repor
▁inhibit
▁spikes
▁100%
▁raises
▁favorable
▁0.
▁calor
▁moderately
▁immobil
▁confron
▁highl
▁Whereas
▁vaccination
orepinephrine
amyl
▁microM
▁caro
adiol
▁Evidence
trip
▁untreated
▁kcal
▁tracing
▁Thir
▁subtraction
epti
▁200
▁TC
▁labelling
26
▁sequentially
▁fragility
▁cerebral
ectin
▁needles
▁Vmax
▁surf
ynthe
4-
anis
▁manifestation
▁opportunities
▁PEEP
loro
▁DS
TSP
valence
▁AVP
tribution
▁heavier
eck
▁cardio
▁questionnaires
vul
▁specialist
▁exo
vents
79
▁atres
▁instability
▁integrating
▁cava
▁14
erable
▁syndromes
▁acet
duced
▁disorders
echanical
▁cellular
▁TCR
iloride
▁physiotherapy
80
▁cryp
lym
▁anomalies
▁preoperatively
-8
faction
▁mineral
▁intraven
▁conceptual
▁7.4
acking
▁(5
▁aerobic
▁electroly
▁resistant
▁dilated
▁inpatient
-6-
radi
eled
▁potent
▁alkyl
lytic
▁uterine
▁wash
▁microtub
▁79
▁cortex
▁Km
▁counseling
helin
ivoc
▁degen
▁technically
▁mitral
▁differentiated
▁characteris
▁cortical
▁250
▁behavioral
▁spectroscop
mittent
▁phagocytic
▁wk
▁exposures
▁flexion
▁utilisation
▁tube
▁antitumor
▁chest
degree
▁respon
▁yiel
▁cocaine
▁13
opram
▁uncover
enin
▁4
-2
▁transmembrane
▁instr
▁Leu
▁eryth
▁oste
▁adrenal
-80
▁regulatory
84
▁sten
acr
CBF
urons
▁clones
▁phag
▁spermat
▁neutrophil
▁segmental
▁linole
▁restric
▁uter
joy
ogenicity
glut
tig
.2%).
▁geniculate
▁hapl
esthe
▁4.5
▁potenti
tro
▁synaptic
▁avascular
▁RP
▁pump
thmias
▁developmental
▁inflamm
▁recombinant
ifferentiated
▁concentrated
▁depar
▁RNA
▁referral
▁psychotropic
▁24-
▁pathologically
▁GFR
▁dysfunction
▁shor
rosclerosis
▁VA
▁Emergency
▁wound
▁amo
plas
▁99
▁nurses
ogenetic
▁stained
▁anastomosis
tant
▁precursor
▁inserts
▁chemot
▁erosive
▁mast
▁Randomized
▁apprec
tidine
▁DFS
▁Wistar
▁artic
▁Comparisons
ufficient
▁oils
otypes
▁6-
FG
▁3.0
monella
▁LF
-[
occi
▁prospective
odg
▁outward
CSF
▁wors
▁limbs
rati
▁substances
tific
idium
▁fatalities
▁gynec
▁insufficiency
▁awa
▁surround
▁monolayer
rehen
cored
▁tryp
▁constitutes
▁compartments
▁nutritional
kephal
▁lipids
▁reproducibility
▁VE
acil
▁adequ
iant
kephalin
▁dex
▁consensus
▁rCBF
▁cesarean
▁muta
▁mum
▁FS
▁guanine
▁(0.5
entan
▁groin
xide
▁28
▁confined
▁confronted
Ga
atical
atheter
▁mg
▁correlated
oplasty
▁athletes
▁Dop
▁inges
85
orrh
▁weigh
▁caffeine
▁satisfactory
▁disks
▁reasonably
-13
-9,
EA
rosis
▁capped
▁termination
▁mild
▁proteolytic
▁regen
▁possi
adrenoceptor
▁glial
ellular
▁somatic
UF
Ev
▁pregnancies
▁documenting
▁cytoplasm
PB
▁alleles
▁continuing
ipar
▁cyan
▁clon
▁afferent
▁lipase
▁mitogenic
▁treatments
▁PAN
▁routinely
▁EBV
▁45
▁impacts
▁tol
▁excitatory
▁pylorus
▁IgA
▁Treatment
▁clipping
▁Medicare
▁PCR
▁adip
ervical
.2
odic
▁mononuclear
omycin
▁NaCl
▁25%
▁Triton
▁PKC
30
▁rejection
operated
▁residues
▁ruptured
otherapy
oA
▁LD
▁epi
olenic
▁poorly
▁adenocarcinoma
iotensin
▁diame
▁unc
▁dissection
▁acyl
▁subchondral
anyl
▁hemorrh
pendent
▁IVF
hyde
▁endocrine
▁reticulum
▁leakage
▁efflux
▁VIP
usal
▁thymus
▁mutagenesis
▁prol
▁implantation
▁deposition
▁sensorineural
5-
57
▁radicals
NH
▁IH
physiologic
monary
erals
▁anomal
▁neurom
▁PET
veolar
▁prel
▁stain
▁40%
yste
growth
▁mutation
▁NGF
▁eating
mature
-14
▁cleavage
▁catalytic
aterally
oreactive
▁coeliac
olip
▁mammalian
copic
estive
oderm
osocial
/100
▁2.9
▁islets
▁85%
tives
▁IBD
ostatin
RF
derly
orrhagic
GI
▁32%
▁reproducible
▁respiratory
▁PMN
pies
▁17
▁wheat
8,
thase
▁messen
▁transcrip
selec
essation
▁micrograms
▁35%
▁diabetic
adherent
rocytes
▁extre
▁isoproterenol
▁institutional
▁transfected
idated
▁develops
▁hypertrophy
otropin
▁ascertained
0.0
▁cochlear
matched
▁muscle
▁extrac
orphic
▁homology
▁normalized
inic
65
▁enzymes
▁traumatic
▁sperm
▁PBB
▁20.
luding
▁irradiated
▁Biochemical
pap
sor
sorb
▁mellitus
▁resorption
▁stere
▁tobacco
▁regulated
▁dib
▁biochemical
▁lamin
▁infiltration
▁suspected
▁cycloheximide
aturated
▁differentially
▁clamp
▁12
comitant
oprotein
oidal
ondr
tamine
▁tumours
▁tolerance
32
▁attributable
ovine
50
▁conduc
▁Surgical
▁testis
▁Acute
sectional
▁undertaken
vation
inhib
▁-0.5
▁nucleus
oplas
▁monoclonal
▁regimens
TN
▁tidal
▁ald
uginosa
bral
▁incidence
incidence
MH
thal
▁respiration
▁monomer
phosphate
truction
cysteine
▁disappointing
▁dopamine
razosin
ventricular
▁disagreement
▁Hear
▁surgeons
▁manu
inositol
▁gynecological
▁antibiotics
▁provocation
▁suspicious
irub
▁defec
▁ovary
▁chan
▁pathogen
icated
▁femoral
▁psychosocial
feren
bladder
▁0.04
▁(198
lux
vac
urium
▁Findings
▁reperfusion
▁regeneration
uding
riton
▁proliferative
▁preferen
▁experts
▁atmosp
▁initiating
▁symptomatic
▁vesic
glutination
▁lobectomy
▁genotype
▁occupational
evaluated
▁currents
▁alcoholic
▁ventral
astolic
▁emissions
12.
oside
▁triglycer
▁proton
▁presynaptic
terase
▁minority
0%)
IH
▁diets
▁oligonucle
▁questionnai
▁lens
▁labeled
▁lifelong
rals
atent
BM
▁clus
▁6.5
▁contraction
▁53
▁optimum
▁glycoproteins
▁inactivated
▁neph
imental
▁passive
▁cyclosporine
▁antibiotic
▁reactive
▁reper
▁GBS
▁ranging
▁mutant
contrast
▁neonatal
▁Dopamine
▁lymphadenectomy
▁localization
3)
▁adrenergic
otri
-0.5
tensin
▁followup
▁comparable
astric
aning
ietic
▁30%
▁polymorph
▁0.001),
▁demographic
-60
tained
▁ramus
▁fluorescence
crimin
oagulation
jected
aceous
1%)
obl
▁Therapeutic
▁paradig
▁residue
apse
ectomy
▁BMP
▁contralateral
eight
oproterenol
▁metabolites
▁overestimated
▁thoracic
▁mening
▁guinea
henyl
olateral
▁approx
▁filtration
▁epinephrine
-5)
rogen
▁pregnant
mL
▁ultrasound
umerous
producing
lix
tolerated
▁avoiding
amus
ergy
1,
▁transplant
▁substance
▁Vac
phrag
▁neon
▁genome
tingu
▁projec
▁ascertain
ministration
▁lis
▁Inclusion
▁potency
▁macrophages
▁stimulation
▁(197
▁Adherence
▁serum
atrial
▁amiloride
▁granules
Ds
▁fmol
▁Cells
▁substitu
▁stric
8.
.2%)
▁chorio
idem
▁temperatures
▁Throm
▁(1)
onyl
rents
ocul
▁deterioration
▁inhibitory
▁triv
▁chewing
▁cloned
▁3'-
spectively
▁arachid
▁nurse
okinetics
▁plasmid
▁phe
elec
▁inhal
▁screened
responding
▁increasingly
ectasis
▁ablation
▁epithelial
▁dors
▁(15
osity
imination
▁preparations
icine
▁74
heximide
▁anion
▁asthma
▁sigma
▁prophyl
▁monocytes
▁plac
▁natri
▁triglyceride
▁seropositivity
▁intramuscular
▁inclin
inactivation
▁mediated
rants
▁ward
▁aeruginosa
▁haemorrhage
▁technologies
▁hypox
▁LS
▁UF
▁multic
▁HLA
▁subcellular
▁cis
ventive
DG
bred
▁exclusion
thle
▁myocardial
otoxin
▁progressively
ointing
▁mitogen
usions
60
IGF
▁graded
oplasm
▁propranolol
orec
ingle
▁consolidation
▁selec
▁focal
▁reconstruction
▁smo
▁mimic
olated
▁overdose
arthritis
ropo
▁tRNA
▁difficul
▁0.02
▁thresholds
▁immunoglobulin
idne
▁geriatric
opausal
▁methyl
atonin
▁corrective
▁prolonged
rophy
▁appropriately
▁(0
+,
trol
affected
plasia
▁plasm
▁7.8%
opi
phthal
▁LPS
endorphin
▁infarction
▁1
ondral
▁immature
▁metast
arate
alp
▁49
▁73
MV
effectiveness
▁hydroxyl
clerosis
▁deficits
▁adjustment
▁30
uble
▁accounted
vated
otting
accharide
▁outflow
5%
▁discharge
enh
▁[3
▁tet
▁ana
▁parental
epine
▁steroid
▁Hb
mutant
▁reac
▁(3)
ritish
▁sugges
▁carbox
▁autoimmune
▁diastolic
▁contribut
▁knee
▁amyl
▁cigarettes
▁irr
▁BPs
▁adaptive
▁EGF
▁rotational
▁thrombectomy
▁acids
▁arom
▁comparative
▁sev
▁glucose
▁DN
▁fitness
benz
▁diagnose
▁synergistic
▁8.
ellar
ilep
▁58
lasses
▁2.5
▁5'-
▁weakly
-3-
▁aberr
olarization
▁mell
achol
▁advances
emic
▁diagnoses
▁acupuncture
▁blot
43
▁inversely
roma
▁immunoreactive
▁classified
olol
antigen
▁enl
▁Tren
VL
▁silicone
▁43
▁gonad
▁reproduction
▁myosin
induced
▁transplantation
▁parathyroid
▁carcinomas
▁laser
▁EEG
▁esters
▁nutrition
104
icide
3).
▁reliably
▁comprehension
enteric
acental
▁Intravenous
▁proct
▁occurring
obacter
▁postmenopausal
▁promoting
onium
▁acidic
▁assessments
▁prostaglandin
subunit
oleic
▁ulc
▁hormone
razole
▁coronal
ascular
ygo
▁100
▁restor
▁heal
▁regimen
▁sensi
aturation
iatic
bloc
anking
ication
▁erythrocy
ulmonary
▁PGF
heres
▁dislocation
fib
▁ACh
▁quantitatively
▁Recent
▁aortic
▁CK
▁exercised
▁synthesis
▁hepatitis
omatic
▁10(-8)
tile
▁arterial
▁.0
▁additive
▁sustain
rocy
▁esophag
▁4,
tect
▁54
-2-
▁sensitivity
▁BV
▁serotonin
▁challen
omerular
rogenase
azol
▁ions
▁standardi
▁dialysis
▁subc
▁hydrox
arotid
▁cardiovascular
▁neutrophilic
ortic
ecyl
obarbital
5,
olesterol
▁fluores
▁refrac
▁molecular
▁HCMV
▁markedly
▁determinants
ofl
oric
▁streptococci
▁Treatments
tration
▁gains
▁cervical
▁transduction
asone
▁modulation
▁140
▁myocardi
▁hydrophob
urate
▁preferably
ective
thel
ilated
▁grading
▁phospholipids
▁cognitive
▁imaging
▁199
▁tach
▁balanced
▁92
▁bronchi
▁statis
▁clonidine
▁tolerated
▁HPLC
▁alcohol
▁RS
consuming
kade
▁resis
▁referrals
hemia
▁neurop
rC
▁adap
▁GA
▁homogen
▁(+/-
IgG
azem
▁LDL
otin
▁qualit
carcin
▁Systolic
22
▁PDGF
prepared
ylic
13
tec
(+)-
▁benzodiaz
▁circumferen
▁synthe
▁AO
▁superv
▁LHRH
▁glucagon
▁pathology
▁verteb
-1).
▁Operative
hap
▁granule
oblasts
▁strep
▁encouraging
▁expend
▁frog
▁prospectively
▁abor
▁150
rates
▁chromosomes
▁infants
sue
esium
▁IHD
reatine
▁10(-6)
Gly
▁thrombin
▁patches
AH
▁meaningful
▁anastomotic
▁lavage
▁decades
pig
▁myocytes
oscopic
▁dendri
2)
tiz
▁intrav
▁120
istar
itus
▁thromboxane
▁Improved
▁blockers
-4)
▁decline
▁deserves
siologic
directed
▁aor
MDA
erance
▁spi
▁bile
▁illustrates
▁evaluations
▁40%,
ilibr
▁cAMP
▁deficiencies
▁outpatient
9,
stimulating
gic
▁rele
entric
▁recipient
▁diseases
▁organism
▁foci
adder
irrh
▁gland
▁TGF
▁unil
▁microv
▁crude
atories
igible
▁recombination
▁histologically
▁Hz
otone
▁(30
azole
▁depolarization
▁artery
▁promin
▁edema
▁desensitization
▁prescribing
queous
▁biop
zard
▁muc
ontal
▁PG
▁outs
▁chick
ococcal
▁TNF
▁plasminogen
▁pneumonia
▁ultr
▁hemorrhagic
▁estradiol
▁sulfate
ylephrine
cholesterol
▁fibres
▁acad
▁DF
▁202
Hu
▁prolif
▁strepto
idazole
erican
▁OSA
kinase
▁lowered
▁MN
▁perforations
▁progressive
▁antibody
▁0.8
▁hemoglobin
▁cerebellar
tention
▁(11
▁gout
Ki
kinje
▁disrup
▁toge
▁84
18
▁myelin
▁CPAP
▁resonance
▁discrimination
▁lymphoid
▁thigh
ositol
okine
opl
▁8%
▁toxicity
▁blin
▁endos
▁overweight
arcin
ophils
▁practic
▁tibial
itol
lective
▁tertiary
▁corpus
▁coagulation
▁hydrophobic
asive
▁1.6
▁61
▁oral
▁2.6
▁affects
▁suppression
isomer
▁0.05
▁sph
▁moderate
▁diffic
▁bypass
▁23
▁kidney
trative
▁multicenter
reported
▁fibronectin
▁thi
▁diagnos
▁chori
▁deficiency
▁tended
sors
requ
▁75
ompan
▁vomiting
▁pelvic
▁problematic
aneously
▁alterations
▁debr
▁infarct
opramide
▁attentional
▁sinus
▁0.2
aced
▁bronch
iliac
▁80%
▁1)
▁encodes
▁pregnancy
▁irrit
▁micros
▁AIDS
cture
▁protease
▁HCC
▁kine
▁lymphoma
ergic
▁inoculation
▁isolates
▁extracellular
ensitive
▁biosynthe
▁sequencing
▁spati
Fs
nec
ifferen
▁lymph
▁catheter
▁prevalences
▁tuberculosis
▁chloro
1)
▁microc
▁NPH
transplantation
▁5,
reactive
▁mim
/6
▁conformational
VT
▁anae
▁exce
▁liposomes
▁paraventricular
▁indeterminate
phos
▁acyclovir
lecting
▁symp
ochlear
▁gangrene
▁0.01).
sulf
▁increas
▁uncommon
pecific
▁insufficient
▁postnatal
▁lymphocyte
rophenyl
▁organic
ventional
▁relaxation
nee
▁centers
opathic
▁cardi
▁93
▁basolateral
uterine
▁nerve
▁Prophylactic
▁69
▁supervision
▁stimulate
▁leukocyte
▁79%
2%)
piratory
▁allogeneic
▁phosphodies
carinic
▁definitive
ocytosis
rotic
atectomy
▁specificity
openia
opic
▁hospitals
▁Protein
▁rheumatoid
cardi
iability
▁MBC
3+
▁glycoprotein
▁clinicians
▁discusses
▁hemo
▁NADH
▁anastom
ocaine
▁hypothalamus
▁microbiological
▁diagnosis
iper
▁displ
effec
operox
▁compounds
▁drainage
▁considerably
trin
ecre
ameth
▁supplementation
▁deprivation
▁heparinized
▁empirical
▁ELISA
vely
▁genic
▁stimuli
planted
▁tachycardia
▁(24
▁ratios
▁cats
54
▁restenosis
▁disappearance
▁sequential
endan
HG
mia
▁cytoplasmic
tracted
utaneous
▁microscop
▁audit
▁topographic
ronchial
▁modulates
▁seroton
▁3
itness
▁limb
ovascular
▁NSC
▁disrupt
istically
▁assis
▁chromosome
▁preparation
ormone
affec
▁upstream
ovir
▁conclu
labelled
▁IgM
▁BM
▁unrelated
▁spermatozo
▁95
▁coronary
ochondral
▁peritoneal
▁tric
▁sensory
29
adian
▁metformin
▁ossification
▁antic
rox
▁diet
▁premature
xone
▁Progression
▁hospitalized
▁locus
olus
▁80
moid
▁CRP
iminary
