▁decline
▁minimize
▁TC
▁fractures
▁complementary
▁involvement
▁intensive
entif
erated
▁prognostic
ithm
eration
▁molec
▁chol
▁atten
▁Streptococcus
reast
▁referral
odynamic
▁hypoxia
▁chan
▁cigaret
▁reproduc
▁lumbar
▁abnormality
▁remission
▁1.6
▁AMI
▁Neither
▁ischemia
icin
▁congenital
owever
▁Patients
hyd
▁alterations
Cu
piration
ulatory
▁ure
▁progestin
▁chemotherapy
acr
hep
▁decisions
▁drinking
▁elimination
▁receptors
▁Addition
ilic
dial
placement
lux
radi
▁benz
▁ovari
▁adhesive
sess
5.
opathological
▁adequate
▁differentiate
igaret
▁pharm
osomal
▁toxic
ropriate
▁platelet
yel
▁mec
ulates
▁cirrhotic
▁predicts
▁Concomitant
▁Severe
▁reconstruction
▁pylori
▁pharmacological
▁schiz
▁elevation
▁PCR
asting
▁fentanyl
sities
ogra
▁minority
wk
▁DF
oic
▁HCC
▁iliac
▁HL
▁unc
▁protective
▁cancers
atine
▁TB
▁amyl
▁incidence
▁implications
▁rhy
opamine
▁rectal
▁illness
78
reness
illus
▁mechanisms
requ
▁glu
▁therapy
weighted
ectom
▁strom
▁normalized
▁decreased
▁extre
▁anastomosis
▁perception
▁seizures
▁asthma
▁neurological
atories
ilateral
ergency
romed
ighted
oprotein
ronch
▁34
atoid
▁surge
otype
▁infusion
treatment
▁TK
atients
▁7.
▁contex
vac
▁chloro
▁psychological
▁mutations
34
▁4-
▁atm
▁trend
▁suppressing
▁multivariate
▁cann
▁comprehen
duced
cysteine
tant
1,
hers
▁recipient
▁surgeons
▁facial
iasis
▁traum
omies
▁lipoprotein
▁7
▁Phe
▁diabetes
▁injected
▁GD
▁immature
▁nig
▁pyramidal
▁radiotherapy
▁fiber
ontal
birth
▁NB
▁heparin
gic
▁immune
▁cervix
▁laboratories
▁tumor
▁99
▁molar
▁comparisons
▁accumulation
oplasmic
ypical
ximum
uran
▁deter
▁resection
educ
eces
▁transfusion
▁mono
sies
▁distin
▁Throm
▁facilit
▁WHO
▁elevated
▁chest
yroid
▁outs
▁deterior
▁diagnosed
▁lith
hern
eled
▁Dop
▁MV
▁suppression
iatric
▁ration
thle
0.
immune
Hb
▁atmosp
▁chor
▁positively
-5
▁latent
effective
▁Removal
▁pH
arate
▁selectively
49
▁prenatal
▁ae
▁physician
▁RT
▁parame
▁thickness
▁laparotomy
▁10
▁continuing
▁8
▁tas
jug
ceptive
ophilic
▁vena
mia
▁autosomal
▁chloroquine
▁hyperg
▁impair
tec
▁osteoporosis
▁0
▁pronounced
▁CRP
thma
▁dexamethasone
ctomy
centr
▁modality
▁distal
▁intramuscular
ascular
▁uter
▁favourable
▁adequ
pendent
▁influenza
▁adoles
enic
▁aor
tif
▁postnatal
ocardial
▁heterogeneity
itro
aired
▁debr
▁thi
▁classified
▁11
comitant
odies
HF
ropriately
▁hemodialysis
rae
▁muscle
▁polymorphism
▁peripheral
▁12
seud
▁cate
ycin
▁chond
▁pathologic
67
ventricular
▁injur
BW
▁specificity
cine
thre
▁Sout
4.
toc
▁selective
▁meals
heric
▁parental
▁distinguishing
▁ile
GF
▁prostate
ophren
65
▁Clinical
▁statistically
.8
▁regis
▁LC
▁connective
▁pathway
▁ongoing
7.
▁gland
▁tumour
▁poorer
▁graft
▁biopsies
▁spati
armac
▁OA
▁genetic
.5
ancre
▁GM
▁Intravenous
tration
▁axillary
▁heavi
▁Significant
▁PET
▁correspon
▁stimul
▁femoral
▁gyn
urine
onate
▁prednisone
▁oxide
versity
▁aging
ocul
▁5.
▁exce
regn
▁muscul
▁subtype
bly
icient
itary
▁locus
▁NH
▁synovial
▁confound
5-
vated
gm
.2%)
MH
▁aspiration
▁prospective
▁oste
▁paradigm
▁mucosal
▁vein
▁rhe
▁isch
aneously
stolic
erin
▁aimed
clerosis
▁lobe
▁depression
▁pathology
▁structural
erating
0-
iminary
▁correlations
▁substances
▁diagnostic
▁advances
▁prospectively
▁hepatocytes
▁affects
▁organisms
▁hypers
xone
▁cathe
▁predictors
▁Afric
▁questionnai
▁genotypes
aemic
11
▁DS
▁withdrawn
menopausal
▁presumably
▁colorectal
▁NT
▁validity
icated
▁implantation
▁solely
▁healthy
▁impaired
▁MHC
▁soybean
▁infected
▁beha
▁prognosis
▁reagents
▁32%
▁undergone
▁postoperative
15
▁scanning
DH
▁CK
▁ventricular
1-
erance
▁tolerance
osom
▁adequately
▁systematically
▁abilities
20
▁psychiatric
gents
▁ultras
oplasty
▁severity
DNA
▁concentrations
▁pyl
eal
▁calcification
▁uncomplicated
▁demands
▁sampl
ocytes
▁accurately
arly
▁Tran
hemical
EA
▁HM
crimin
0%
▁chec
▁35
anding
▁onset
▁excision
▁1-
▁ovarian
▁HLA
▁infil
acerb
otomy
dition
00
▁herpes
ophag
▁Increased
rophob
▁intraoperative
▁underg
▁diffic
▁laboratory
▁1.7
occus
▁tris
▁PT
▁analys
▁susceptibility
lusion
ostic
▁scin
▁trials
▁cardiac
▁GI
▁cerebrovascular
▁evaluations
▁cortisol
▁100%
▁irrit
sequent
Hu
▁synov
onit
▁underst
▁smoking
rosis
▁initiating
▁influences
▁relapse
▁7%
▁consistently
Ps
itic
-67
functional
▁colonization
▁indicators
oscopy
economic
▁facilitated
ampl
uded
▁reductions
▁concentrate
▁overlapping
▁determination
▁PV
▁sustained
angl
▁moderately
▁elic
▁nec
▁phenomenon
▁discus
▁tol
▁placenta
sive
▁rati
echn
sions
▁30
▁investigated
oscop
quid
athe
geal
uccess
▁molecular
3-
▁ana
bac
▁85%
▁unilateral
urys
versus
▁heterogene
▁lis
tact
▁alve
▁unres
▁arteries
▁glucose
▁ket
itus
▁membrane
2.
▁10-
2).
▁hospitalized
▁ASA
ortal
tic
▁physiologic
ographically
▁athletes
▁adults
EGF
▁screening
50
agic
▁disorder
▁lesion
▁screened
▁lymph
eptin
othel
yses
▁considerably
tens
▁pati
▁reproducible
▁enrol
lyc
tig
▁practitioners
▁instability
ceptions
▁satur
▁31
▁epinephrine
▁wors
▁desm
▁discharge
▁VE
▁15
▁attrib
▁pregnant
xia
▁subgroups
▁promising
▁athe
▁carb
▁focusing
▁Compared
▁reduc
▁nursing
▁complaints
▁phy
mg
sor
▁carcinogens
BM
▁preoperative
LV
▁cereb
▁contral
▁resusc
gely
entical
tum
▁demonstrating
▁familial
IU
His
▁overl
▁NP
tin
clin
▁cyst
▁bipolar
▁comparable
▁habits
▁Surgical
▁PB
▁renal
▁insertion
lact
▁exclusion
▁pancreatic
▁inadequ
▁increasingly
▁angiography
ocular
▁sphincter
▁APC
erad
imens
associated
▁stu
▁serum
▁barrier
▁contralateral
21
▁HP
▁morb
▁bip
vascular
▁periodontal
▁diet
▁decreasing
▁multic
▁corneal
▁utero
▁manu
▁progn
▁meal
▁FT
▁raises
▁disability
▁aortic
▁fever
urin
regulated
▁progressive
▁saliv
sensitive
▁ascertain
mature
▁diseases
▁horm
atonin
▁porcine
▁mandibular
sus
amination
▁repl
▁thrombo
-6
▁2
▁causative
▁surveillance
▁TGF
▁feasibility
ignant
▁aerobic
mitted
▁somatostatin
▁wee
▁embry
BP
▁recur
▁physicians
54
mend
▁oes
bic
amn
entric
▁mothers
▁decades
▁mg
▁elu
▁catheters
▁anastom
▁gradients
▁differentiation
trop
▁septum
acental
▁aureus
▁microv
▁chori
▁genic
NM
ociation
▁abd
▁cephal
▁somat
omotor
relations
▁beneficial
thal
▁limbs
▁occl
▁endothelial
▁emerg
ially
▁IgM
urgical
▁19%
▁promoting
sis
▁ane
▁IgG
▁PE
▁scre
▁muc
▁hepar
▁obese
▁inflamm
▁LN
▁discon
▁IA
▁needle
gmental
ullary
Mu
75
▁hypog
▁consensus
▁morphologic
▁enl
tors
▁ACE
ulae
▁metabolism
▁toxicity
years
▁50
▁interventions
▁reag
▁8.
▁oxy
▁concurrently
▁lesions
▁sedation
PAP
▁150
▁umb
▁fetal
keletal
▁neutroph
iotic
2-
▁LS
▁rotational
▁multicenter
▁uncom
eric
olved
▁biom
▁micron
▁ablation
▁abdominal
▁glut
quine
zard
ithi
embr
▁abnormal
vents
▁adolescents
▁thoracic
▁nonc
▁inducer
▁characterize
▁201
oracic
▁TG
▁ventilatory
▁hypothe
acil
ploy
▁5-
▁malignant
▁cardiovascular
▁hygiene
.8%
▁paradig
▁encour
▁Acute
ration
▁hazard
omal
opathy
ogens
76
▁schizophrenia
▁bac
▁mobility
occi
▁atrial
▁assays
▁respondents
▁retention
▁trophob
▁ambulatory
▁postoperatively
▁cere
▁canc
ilization
▁relap
▁prevention
tering
idney
▁traumatic
▁doctors
▁mucosa
▁19
▁regulation
▁leukocyte
▁neutrophil
▁elucidate
▁stimulate
duce
▁hemodynamics
▁15%
▁pneumonia
▁deficit
mL
▁bacter
▁amput
▁stroma
▁haem
6%
▁antic
▁tymp
▁reliably
olute
▁ET
iciency
ocar
▁autoimmune
▁cultures
▁hypertensive
spectively
▁abuse
▁ethanol
onomic
lym
HM
.7
56
▁bloc
filtration
▁unde
▁drugs
VT
▁preservation
▁epid
aid
▁infections
▁physici
▁sti
lix
▁metabol
▁caution
entan
▁births
▁survived
▁sequelae
9-
0%,
▁ventil
▁influenz
renal
▁lumb
▁evid
tead
▁spi
atched
▁glyc
bral
▁fatty
▁metastatic
phrine
▁failures
▁metabolic
▁ADH
▁geniculate
▁tes
aryngeal
entary
acted
▁availability
▁endometr
oxif
▁sclerosis
▁hemodynamic
▁nasal
sial
idate
▁cesarean
▁aneurysm
▁arthritis
ressing
xual
▁silic
▁dose
▁seiz
ostomy
▁5
▁shortened
resting
▁dilated
▁substance
▁drain
mittent
14
mide
▁mitral
▁develops
9,
▁gradi
trol
stim
▁longitudinal
BV
▁kidney
▁encoun
▁effectiveness
▁inadequate
▁urinary
sue
1)
onyl
▁challen
▁desirable
▁aorta
▁reactions
97
idation
▁symptoms
▁benign
▁comprehensive
▁irradi
▁79
▁mild
rehen
▁inhibin
tomy
▁perinatal
▁excluded
▁thigh
feren
3,
alian
ortic
totic
▁intake
▁surveys
BG
▁analyses
vail
▁awa
▁endoscopic
▁rated
jected
▁undertaken
▁receptor
▁clinical
▁differentially
▁endothelin
▁preparations
itance
▁nutrition
▁agon
▁preval
ximal
ilical
▁RB
▁thrombolysis
olism
▁nerve
▁paraventricular
ogenous
2%)
▁knee
rele
▁deficiencies
▁Pretreatment
▁perip
▁activated
▁ey
DG
monary
▁compartment
▁targeted
▁spon
▁sour
omod
amine
▁retrospective
▁experim
▁bladder
▁dys
ressed
▁widespread
▁13
▁disorders
▁SG
▁examined
idis
▁glands
▁clus
30
asone
ficial
▁gallst
itant
positive
sion
▁restor
▁morphology
▁synchronous
▁synerg
▁healing
▁molecule
▁implic
▁prostatic
oxic
veolar
▁insufficiency
▁endoscop
adherent
6.
▁HI
▁mL
lesion
idne
▁2.5
▁adherence
▁childhood
▁14
▁occupational
▁explored
▁biop
8%
▁potency
▁reac
▁suggestive
▁overe
versely
▁salivary
▁monitored
IIIa
▁acids
vation
oxid
atment
▁exis
▁bilateral
▁normo
▁outpatient
▁anatomy
onor
▁scintigraphy
▁cutaneous
fron
▁ultim
Tc
hea
derly
▁circumferen
▁sexes
RP
▁distinctly
▁surgeon
oxia
▁Treatment
▁adjusted
29
▁200
▁saline
▁pregnancy
▁spinal
▁neurop
fos
▁investigating
▁supplementation
▁causal
operatively
trib
tinu
▁drin
ureus
▁responsiveness
▁stimulation
▁pelvic
▁congen
▁80
▁labeling
osin
▁describ
▁mineral
▁anxiety
▁intram
otropic
lys
tate
ministration
▁dyn
jun
ses
2/
▁inversely
▁polyethylene
▁contamin
ococcal
▁ultrasound
32
trip
usive
osity
▁turnover
▁phagocytic
▁restenosis
▁implicated
ecre
▁cigarettes
ropine
▁inappropriate
▁dysfunction
itr
▁aden
▁pregnancies
19
clinical
inely
▁affecting
▁endoscopy
AIDS
▁testis
intestinal
▁plaque
▁umbilical
orac
▁symptom
▁enlarged
▁SCH
tus
▁1.
▁pelvis
▁adenocarcinoma
▁socioeconomic
▁chlor
▁SLE
9%
▁evoked
▁pulmonary
▁Chemical
▁ulcer
▁48
▁pharmac
▁cyclosporine
▁peptic
▁efficacy
onary
mental
▁estrogen
erine
▁remo
▁tubes
▁phenotype
▁ventric
▁leuk
inic
ysm
▁recessive
▁practition
▁advan
ayed
▁gangl
▁ultrasonography
▁32
urther
▁MI
.2
▁pulp
▁neurologic
▁PP
▁carc
▁inh
▁tooth
▁inflammatory
▁HS
▁tissues
4).
▁limb
▁intrav
▁neon
▁sten
53
▁vaginal
encl
▁BM
opic
2%
amic
▁polymorph
tive
▁syndromes
▁reveals
iosis
▁uptake
▁infarction
▁numb
▁systematic
▁carotid
urea
▁quantitative
▁Comparisons
▁crest
▁perc
tation
NH
▁arter
Ts
▁preparation
▁enrolled
▁surgically
oplas
▁hCG
▁laser
moid
▁infants
▁findings
othelial
▁validated
▁bypass
▁anemia
▁saturated
▁disappearance
▁20
▁carriers
▁Clin
isol
-2
helial
▁insertions
▁assis
▁expend
▁ECG
8.
▁tidal
▁consequent
▁maternal
▁arth
▁elderly
▁injuries
▁hypot
▁compliance
entral
80
▁hepat
▁coronary
▁LV
otyp
controlled
iary
▁emergency
▁anat
▁ketamine
▁rhythm
▁ratios
▁experi
oung
namic
ocial
▁localized
oag
opi
▁defic
▁Samples
▁pathological
▁esophag
▁predomin
▁cava
occal
▁multim
▁carcinoma
mong
▁lipids
ostatin
▁superficial
▁AI
anin
▁socio
▁glomer
▁hypertension
▁variability
▁Large
▁gastric
▁thickening
▁intense
▁resected
▁irradiated
isqu
▁disruption
▁amputation
oglyc
▁tumors
▁minimally
▁Contr
▁poin
lymph
eliac
▁tertiary
rox
erate
▁85
▁collateral
▁pineal
▁exacerb
▁hemorrh
▁secretion
▁amines
sych
▁tibial
▁techniqu
▁regulate
▁21
▁endemic
▁unsuccessful
utroph
ication
▁nucleus
▁facilitate
▁fluor
▁regimen
▁modest
▁cardi
inated
ffer
olysis
sts
▁acqui
▁diagnoses
▁hig
▁VO
▁60
taken
▁tumours
▁GVHD
ivation
▁melan
▁fixation
▁4
▁achie
▁laparo
▁OT
▁transient
ologically
MG
▁metast
▁Tes
roup
▁routinely
▁inhib
activation
▁reactivation
tyl
opausal
spective
otherapy
▁obesity
ensory
PB
rates
natal
▁examination
atient
ycl
▁pyram
▁utilization
▁Kup
▁diabetic
▁MG
▁predic
▁biopsy
▁microb
▁follicular
69
▁practically
▁circulation
▁tamoxifen
▁parotid
sia
▁oxygenation
▁sciatic
herent
▁apex
pite
▁excre
▁intrag
▁mann
▁behavioural
▁thromb
▁atheros
uterine
▁randomized
MV
▁confined
▁complications
▁inapp
▁circumference
▁Accordingly
▁excretion
▁predicting
▁ascer
40
▁preliminary
▁angi
orax
▁therapies
iably
▁homogeneous
▁stomach
▁balanced
▁recurrence
▁concer
▁chemotactic
▁anomalies
▁deprivation
▁arterial
▁LD
▁survival
▁segmental
estis
▁chronic
asal
sized
▁CM
▁lacking
▁Doppler
2)
▁anomal
▁hypoxic
▁cocaine
ospor
▁physically
aventricular
itone
▁hospitalization
▁reveal
▁diluted
▁radiological
▁simultaneous
omes
▁artery
ithin
▁intrauterine
lood
-3
anic
asive
▁2-
▁embryo
▁venous
▁tracer
idity
▁reflecting
heal
echan
▁improving
▁instr
▁outcomes
▁epidemic
▁moderate
andard
▁stab
uccessful
asic
▁malign
▁putative
▁histological
▁tric
▁spikes
▁slowed
▁indicative
idated
▁recor
▁AMP
▁dissection
▁adenomas
▁hepatitis
57
risk
▁employing
▁predictor
ustif
▁inflammation
▁bowel
▁alveolar
▁Chronic
▁conservative
▁ischemic
graft
▁favorable
incip
erative
omerular
▁unrelated
▁lob
tries
▁femur
▁sequel
ditions
▁guidelines
aryn
▁profound
▁RBC
urc
rolog
▁GFR
matched
ications
▁establ
▁rheumatoid
▁abnormalities
▁buc
▁vaccines
▁adjuvant
tur
▁enti
phosphon
ochemical
lep
▁juvenile
licular
▁contaminated
ials
▁hemisphere
▁microcirc
ocaine
▁PEG
▁11,
▁oral
▁21-
▁Whereas
▁soy
▁feasible
60
▁dosing
▁irr
ronchial
▁palli
▁infar
▁predictive
▁measuring
ivariate
▁recurrent
vul
000
abies
ocyt
▁unex
ensity
▁gains
▁unm
itin
atab
▁discontinued
▁spine
anol
▁MN
ochemistry
chol
plic
▁viable
▁regimens
▁Serum
enhanced
bility
▁cholest
▁57
▁chloride
▁feeding
▁demonstrates
otent
adily
ingle
-0
▁opi
▁chemo
aemia
acet
▁urine
▁spont
▁Tum
immun
▁abdomen
▁auditory
odal
▁complic
▁pneumon
▁presum
itamin
▁adop
▁genotype
oidal
arean
▁40
▁therap
▁consequently
tial
▁Patient
atest
ituitary
razole
▁ganglion
▁pate
echanical
▁Additional
▁adenoma
▁Lys
▁mellitus
99
▁grading
▁adjustment
bacco
▁undergo
▁atr
ervical
▁preventive
ologic
▁deterioration
osocial
induced
▁measurable
▁synergistic
▁impairment
▁thresholds
▁hep
▁conclusions
70
▁FS
▁treatments
▁correlated
tle
RH
▁manifestations
olated
▁smo
alc
glyc
▁proteins
oes
cardi
▁chemot
kade
▁eluc
▁intraven
▁rele
▁HC
▁premature
▁displ
▁throm
ymp
ilized
▁eliminated
dle
▁clinically
▁shif
▁examin
entanyl
▁neph
▁percutaneous
astric
alues
▁opioid
fat
▁Bec
coun
▁controversial
▁adhe
aline
▁FV
▁maintaining
▁reperfusion
▁anticipated
▁algor
▁theore
▁echocardi
tak
patient
▁determinants
lated
ometr
▁MRI
tained
▁enhance
rated
▁controlling
▁provid
lasting
▁hemorrhagic
28
▁melanoma
cessive
tro
▁suicide
tical
utaneous
▁aspir
▁GF
▁carbohyd
ults
0.5
roma
▁deaths
▁characterized
▁prel
ucle
▁adolescent
▁systolic
PV
crib
HB
▁500
▁bab
▁anatomic
▁perin
rophy
▁microvascular
▁heal
▁vomiting
▁pig
cence
▁examinations
▁synthe
threatening
7%
▁BP
uation
▁biological
icine
▁diversity
▁rehabilitation
▁thorac
inj
▁cerebral
▁assessments
▁morbidity
respon
79
anyl
▁behavi
▁phe
ercise
lective
urgery
pir
rous
▁phag
tent
▁sepsis
▁comparative
▁discrimination
▁resour
olic
▁2,
▁multiv
onium
mentation
onad
▁pathogen
amily
▁stom
▁alcohol
▁relating
arent
▁emotional
▁headache
vival
▁bronchial
▁improves
▁sensitivity
▁iso
▁Comparison
▁treating
▁indications
2,
▁cardiomy
▁streptococci
▁Biochem
cture
▁HPV
▁stimuli
▁ethnic
▁exposures
loro
▁intrinsic
ameth
▁surgical
▁amyloid
▁zinc
▁thromboemb
kage
▁modulates
omiting
▁necrosis
▁exposure
ensitive
ectomy
arge
▁cues
▁testicular
▁PD
▁surviv
leu
▁DG
bladder
▁Taken
▁cardiomyopathy
▁increas
▁acute
▁pneum
opl
▁nutritional
▁inhibitory
plantation
▁metastases
▁9
ophil
▁PH
nec
▁haemorrhage
▁shorten
ocyte
▁Cox
▁progression
▁Hb
▁metastasis
oratory
▁interc
▁pall
kely
▁judged
▁IIb
uptake
▁hormonal
WL
▁trauma
▁psychosocial
▁fibers
▁physiological
▁amin
lec
▁onc
▁75
diagn
▁glycoprotein
▁pituitary
▁fracture
BK
▁eosin
▁intrap
uvant
▁PRP
▁topical
▁syndrome
omat
▁discrimin
onset
▁estimating
▁Tumor
▁ward
iliac
oprote
arb
▁PI
▁agonist
▁immunode
▁bronch
▁buccal
▁resuscitation
▁VA
▁genes
tions
▁fetus
▁sequential
▁plac
▁tracing
▁Continu
▁79%
▁interv
kers
▁vascular
▁vaccination
▁MH
taining
▁mediates
22
▁thyroid
▁surgery
tensive
▁systemic
▁inhibition
▁peripher
▁proliferation
▁pancre
ece
▁microm
▁ventilation
▁PF
▁differen
▁supplement
25
4)
▁usefulness
▁pediatric
tein
atid
▁unexpl
▁nodules
luent
▁unil
▁burden
▁mediated
athyroid
▁uncommon
▁staging
icide
▁intra
▁22
▁tiss
responding
▁antibiotic
▁cohort
ritis
osts
ariate
Phe
▁inhibit
48
tectable
uscular
.2%
osal
▁muscles
genic
▁cure
rogenic
▁infiltration
▁differing
▁27
ethyl
▁heterogeneous
▁satis
▁vitro
▁respon
cents
▁functioning
▁linoleic
▁allergic
▁2.
▁reflux
phic
oxidation
▁occurring
▁vaccin
▁endometrial
▁physiology
▁dietary
▁subjected
GD
▁questionnaires
▁substituted
▁operative
▁40%
ialysis
atitis
▁3
illance
▁definitive
▁myo
aturated
85
▁assessing
▁anticoag
▁inver
▁(5
antial
regulation
ovascular
▁swelling
▁eating
rogen
▁enhancing
oplasm
invasive
▁thir
▁approx
▁investigations
▁RP
ograms
▁appreciably
ociated
▁1
▁margins
▁sut
physiologic
▁tomography
iol
▁kerat
▁temperatures
▁specimens
uncture
▁perfusion
elan
▁Swed
▁cerv
ture
▁apop
▁homogeneity
▁carbohydrates
▁carcin
▁cumulative
helin
▁previ
▁Phy
▁exogenous
orts
▁lipid
lastic
▁sph
▁liver
odialysis
▁compli
acting
▁contributes
▁clinic
venous
▁GV
▁cen
▁pancreatitis
ancies
12
▁poisoning
▁mell
responders
▁attending
▁parap
operative
▁concom
adder
-1,
▁reproducibility
▁doses
▁edema
ept
emic
▁weigh
rectomy
oride
-1
ctive
▁macrophage
ulin
▁corne
▁latency
▁valve
▁Bone
▁wound
▁glomerular
valence
adequ
▁supple
▁poten
▁PCP
ofol
alsy
▁likelihood
▁deficits
acts
▁decreas
▁hypothyroidism
ameter
▁hygi
▁overex
▁manifestation
▁flexion
▁follicle
▁evaluating
▁pS
▁curative
▁shor
gland
-9
▁atherosclerosis
▁reagent
▁esophageal
▁prevalence
▁preoperatively
▁detectable
▁spontaneous
ocarcinoma
lysis
yro
▁fati
prising
▁atrophy
▁mortality
IgM
▁differentiated
▁homogene
27
▁intervention
▁insufficient
▁participate
16
▁haemorrh
▁restric
▁invasive
▁50%
▁tox
▁etiology
▁myocardial
urate
ignific
▁clinics
inemia
esity
▁scans
rine
▁stren
▁stenosis
▁CMV
▁risks
rection
rogra
1.
▁HIV
▁extensor
hest
alp
▁quantit
omized
▁subf
▁leakage
▁depressive
▁undergoing
▁vaccine
▁preferen
▁hypo
onin
opa
▁radiographic
▁LDL
ochem
▁implant
▁prophylaxis
▁intermittent
▁nal
nutrition
sian
ergic
▁prolonged
▁follic
▁exhibit
ineal
▁practic
31
▁establishing
▁Phen
▁reper
▁transi
▁acidosis
▁COS
zation
Ds
▁requi
▁athle
▁modulate
orectal
▁PCO
▁determining
duction
▁adverse
▁prophyl
ateral
▁assessment
▁6
ivocal
TG
▁substantially
▁deform
▁eosinophil
▁preterm
▁cystic
▁awareness
▁therapeutic
atrial
▁HA
▁challenges
aints
oric
▁deficiency
▁DT
ergy
romes
▁concomitant
iant
ureth
▁fulf
▁prol
illary
matic
▁identif
▁3-
diol
▁regar
mTc
▁prevalent
▁pregn
44
▁tracers
loid
CBF
35
▁indication
▁catheter
▁drainage
perfusion
TNF
▁dental
rested
rati
▁antibodies
oscopic
▁tolerated
iable
duc
13
▁gluc
▁cervical
▁cognitive
MIC
▁immunological
▁periodon
▁inhibitors
enol
▁linole
monstr
oplastic
eight
▁skeletal
usal
istically
▁cytology
▁excl
▁neo
▁Overall
mented
▁airway
ejun
▁suture
▁infection
athy
▁adaptive
▁epileptic
▁enhancement
▁ischem
▁16
▁cyt
▁unstable
▁compartments
▁nurses
▁fatigue
facial
unctional
▁fold
▁aort
▁medial
▁displacement
▁diagnosis
▁intravenous
▁diminished
▁bone
▁behavioral
pation
VL
▁histologic
▁reas
▁monit
gth
▁newborns
ygen
orrh
▁melatonin
▁paras
▁antib
▁cadaver
▁creatine
▁abortion
▁pressures
▁olig
▁sensory
apse
tual
▁constitutes
▁depr
OA
▁correlates
▁pathogenesis
▁symptomatic
▁gallbladder
▁hormone
▁injections
Ki
▁alteration
▁mamm
▁VL
ipher
▁complication
▁presenting
eak
▁predominantly
▁prevented
▁postmenopausal
▁fitness
▁HSV
▁sulf
▁RS
▁somatic
oradi
ediatric
aluation
essive
▁TA
▁tissue
▁prophylactic
▁Increas
▁100
aginal
▁Kupffer
▁atropine
▁nurse
nai
▁plates
otor
▁vag
▁bronchi
atectomy
.6
▁synthesis
▁insulin
▁proce
▁inherent
MN
▁surf
▁demographic
▁anatomical
omical
onography
ocl
olution
▁oxygen
dominal
usp
▁poorly
▁ESR
▁vagal
▁cochlear
rents
▁coex
▁medication
▁neonatal
atell
▁juven
▁behaviors
▁assay
▁perfor
▁migrated
▁hypox
enh
▁sequentially
ocytic
▁tobacco
▁cuff
46
gative
▁enhanced
▁portions
tage
vely
▁undetectable
dose
ologists
▁resonance
▁hepatic
▁vitamin
▁identifying
▁Cyt
▁dex
▁immun
sy
KD
10
▁imaging
pH
▁PSA
▁strategies
▁transplantation
4-
▁gly
▁severely
▁babies
orin
▁Intra
hospital
iciencies
5%
atical
fusion
astom
