▁leu
▁unre
▁pren
AO
▁manipulations
▁HN
▁preferen
▁tooth
▁1.6%
▁streptococcal
ociation
▁UTI
osocial
▁coeliac
▁100%
▁amines
▁tissue
▁cyt
isqu
▁shor
▁regis
urred
▁lipids
▁contex
▁Tests
ravid
▁discrimin
▁inadequate
transplantation
▁lesions
▁breasts
▁ration
itudinal
▁topographic
anol
▁overweight
TNF
adherent
▁illicit
▁DSM
opramide
▁Emergency
▁ruptured
itoneum
▁initiating
tration
▁chori
1-
▁sickness
▁flexion
protective
APC
loro
▁perin
▁HPV
▁quantit
50
▁indicative
oplastic
▁avascular
gulation
▁prognosis
▁thir
ditions
▁oral
▁birthweight
▁hepat
▁cathe
▁manifestation
▁minimally
▁Bone
▁symptom
▁Comparison
omod
▁morb
16
▁substance
facial
ulatory
▁aureus
▁adjustment
▁infections
▁HI
▁discern
ectom
▁BM
oscop
▁beneficial
▁vascular
▁reagent
▁prophylaxis
▁bloc
▁empirically
25
▁conducting
▁equivocal
AIDS
▁inhibin
▁adoles
intestinal
▁biochemistry
▁contralateral
▁tear
tive
▁Tumor
▁TC
▁seventh
▁reper
▁depr
oprotein
▁modality
▁hemodynamics
▁SLE
economic
ochondral
▁clinical
▁predictors
▁DT
thre
▁guidelines
▁Paget
▁periodontal
▁preparation
lood
occal
▁tiss
▁pH
pite
▁NP
▁excretion
▁inversely
▁carb
ometrial
▁underlie
▁paraplegia
▁debridement
-2
placement
▁60
urgery
▁gland
atoid
▁causative
acial
▁subsp
ept
ses
▁suspicious
rectomy
▁7
▁endoscopic
▁preoperative
▁putative
▁enucleation
▁DG
▁enhanced
rection
▁sebaceous
emory
forcement
noise
▁demographic
▁FHR
antial
▁Clin
▁IHD
▁synovial
▁100
joy
▁cate
▁Swed
onography
▁glycoprotein
▁Muc
▁elderly
44
acts
ths
overall
▁gallst
cessive
▁buccal
▁haemorrhages
ectomies
oxia
▁hypers
nisone
▁Biochemical
icit
ailing
TK
▁adhere
▁discomfort
increased
▁11,
PV
-0
eliac
▁vitamins
▁vitro
▁anat
▁overexpression
onous
iated
▁musc
▁individualized
yses
▁evacuation
▁sedation
▁500
derly
▁19%
▁Stroke
bacco
estive
▁cannulae
▁vitamin
▁thresholds
▁splenectomy
agal
hemical
LF
▁physiology
▁gluc
▁99
▁chemotactic
▁overe
▁experim
▁severely
▁enl
▁satur
▁0
reement
NAP
▁geniculate
▁cerebrovascular
▁appendicitis
idne
▁labial
▁lifelong
▁cancell
▁progest
monary
▁seiz
▁ageing
reated
▁CK
ocyte
▁pathological
▁Chest
▁enlarged
▁viewing
▁ascer
▁deemed
▁seropositivity
cine
▁cue
atine
▁adenomas
▁preventive
aired
▁illness
▁diabet
▁uptake
▁oes
▁pneum
onance
2).
▁laboratory
▁synthesis
▁TAA
▁substituted
▁disability
▁discharge
▁empirical
▁IUD
▁attrib
▁pyram
▁hepatitis
▁sut
▁cyst
▁undes
▁behavioural
Ia
▁proliferation
HF
athyroid
BW
ignific
▁conclusive
▁irradi
▁poorer
▁shortened
▁sustain
▁impacts
▁sustaining
▁cytology
▁adenocarcinoma
atitis
▁autoxidation
▁experi
illic
chers
aline
▁practition
29
ipher
▁19
▁Trauma
▁MBC
▁unemploy
▁nosocomial
▁metoclopramide
▁reflecting
▁IgG
▁communications
▁Cushing
▁poin
flux
arent
▁34
▁aimed
immun
▁encounters
ophag
▁MN
▁heavier
conc
▁surrog
▁nasal
ectomy
▁RS
▁Vac
▁fitness
▁Pregn
mittent
▁adver
encl
▁glomer
▁adhesions
▁influenz
▁IIb
▁pathologic
▁callus
▁timely
VH
▁synovitis
GD
itone
▁27
ration
opausal
▁cardiovascular
▁ket
▁bip
dominal
▁neurolog
▁concomitant
▁Patients
iatic
tum
▁pigmented
▁detectable
vul
▁LD
▁peripheral
▁laparotomy
▁emphasizes
▁propensity
▁VA
▁infiltration
RM
20
▁PCT
▁GCS
▁likelihood
ochlear
▁GD
▁phy
▁nonadherent
▁premature
ectable
▁inver
▁justified
▁modest
▁obese
▁enhancing
▁moles
▁repl
▁acute
▁synergistic
ropine
▁rotational
▁retention
▁85%
▁tomography
asive
▁Vaccin
▁Neither
ture
▁overestimated
▁regimens
▁topical
▁NB
▁overd
EA
32
ochem
▁cardio
odynamic
▁Percutaneous
▁aging
7%
ocyt
phth
▁PCP
▁balanced
urc
▁detrimental
▁oss
iminary
▁athletes
▁lymphadenectomy
▁bone
▁immun
▁instability
▁assays
erop
morph
▁synchronous
▁heavi
fusion
trib
▁unex
▁evaluations
tries
onad
lectomy
▁PE
▁specificity
asting
seud
erad
▁ae
▁examin
▁affecting
▁warrant
ially
▁exclusion
angl
19
▁stellate
tained
▁venous
▁differen
elong
▁perceptions
cretion
itively
rolog
▁melanoma
▁Older
▁trend
▁melanomas
▁bronchial
▁immunode
78
eled
▁implicated
glum
mend
▁conceptual
acetylcysteine
▁testicular
▁disappointing
▁Kupffer
▁etiology
astric
▁controlling
namic
-1,
▁deformities
▁tumours
▁cues
mitted
15
▁mucosa
▁disparity
▁NT
othel
▁decline
RP
nowled
ycl
yel
▁labeling
▁202
veolar
▁disappearance
▁pelvis
▁amyloid
▁facilitate
▁treating
▁PV
▁eradication
▁inclin
obic
onin
▁airway
▁inducer
verages
▁excre
orts
▁disagreement
ameth
anish
illance
▁preparations
ressive
▁responsiveness
▁glu
atonin
▁tes
ications
▁bedside
▁glucose
ollicular
pies
▁relapse
irrhotic
▁adop
parative
▁unstable
▁PCR
▁documenting
▁phon
▁specialist
▁circulation
ipar
▁spine
yloid
▁urinary
vail
▁weigh
▁misleading
▁discontinued
▁fractures
▁examiners
uality
olved
▁inev
▁pregn
erican
▁Consideration
bic
▁cystic
Ev
▁Routine
▁unic
incip
graftment
▁definitive
▁Roux
▁VC
▁reproducible
ineural
xual
ostic
▁Excess
▁eluc
▁nec
▁endothelial
▁pancreatic
eptin
anding
▁deciding
iology
rents
▁unexpl
▁cholecystectomy
▁consol
▁bac
▁MEP
▁births
inactivation
▁fetal
▁Impro
▁periodon
CMV
▁7.8%
▁chemot
ibi
aceous
ygen
▁valve
iotic
▁determining
▁biopsies
▁awa
▁prescribing
▁conclusions
▁muc
trexone
lusion
▁intrinsic
lux
▁TA
▁carcinoma
▁PEEP
EGF
▁biopsy
▁ECG
▁involvement
ineal
▁globally
▁hazard
▁fixation
▁pulmon
▁emissions
▁ventilation
▁alp
▁urine
nec
▁unprotected
▁atmosp
▁40%,
immune
▁carcin
ventricular
▁appendic
▁gastric
▁deter
cyst
▁hypox
amet
gic
▁tol
▁regulation
bac
arge
ventive
▁emerg
osal
▁plantar
▁gradients
▁depicted
▁onc
asses
bladder
▁organisms
▁adhesive
▁auditory
▁relied
▁drin
▁professionals
trast
12
2/
amic
▁PB
▁Discre
zard
bly
▁stu
▁viable
ocarcinoma
▁experts
obal
▁moisture
▁Alternative
▁indications
▁LDL
▁alveolar
IU
▁catheters
▁neon
▁ruptures
Wo
illary
▁phenomenon
ologically
▁hemisphere
tors
▁concer
▁metastas
ervice
.7
▁cholestasis
▁75
▁determinants
ceptual
acr
idis
otyp
▁skeletal
rants
tus
aginal
▁practiced
ocol
opl
▁exacerb
▁laser
sequent
▁LN
others
0.5
▁continuing
▁gout
aid
▁Large
bral
gland
▁moderately
ituitary
▁CM
▁discordant
gents
erum
▁atm
▁pter
▁beating
▁lis
▁anomalies
▁injections
ultural
▁enhance
▁retrospective
▁35
rapid
▁gynecological
1.
UF
▁needles
consuming
▁hypo
▁nurse
▁preoperatively
-9
omat
atients
ostomy
▁ascertainment
tected
oride
ronch
▁chronic
▁antic
▁atropine
▁FDG
▁hypertensive
▁Analy
especially
28
▁settle
ACS
▁excl
▁Improvement
▁geriatric
ulting
▁causation
▁thorac
▁highlights
BG
clinical
ervical
▁Excessive
▁morphology
▁introduces
crib
▁micromet
odic
▁Continu
▁inhibitory
▁MRI
idem
▁Cox
vertebral
uran
▁uneventful
▁previ
▁acupuncture
rosclerosis
ocked
▁oligo
▁newborns
▁challen
olution
4-
▁AGE
▁susceptibility
▁normo
▁nursing
▁diagnostic
▁develops
▁myoepithelial
▁apex
▁pressures
▁throm
▁inserts
▁bladder
urys
▁aor
HM
inol
rested
▁mann
▁lobectomy
▁overlying
ondral
▁rash
▁poisoning
▁therapist
▁preterm
▁lymph
ffs
▁Randomized
▁monitored
tur
▁unilateral
fat
ostal
▁ramus
▁randomized
responding
▁aort
inj
54
treatment
▁lith
5.
▁scoliosis
▁cigaret
▁stratification
▁transient
ogens
acted
▁esophagitis
ontal
▁gad
▁mandatory
▁pati
ypical
xia
tect
▁undoubtedly
▁pyramidal
▁compressed
▁reimplantation
rates
lapping
odial
▁rhy
▁alleviate
cardi
piration
▁simultaneous
27
lead
GI
57
▁reposition
▁plates
nai
▁seizures
▁hernia
0%
▁TD
▁spi
▁encourage
▁surge
▁recurrent
▁creatine
sul
▁ceph
▁infusion
▁Preoperative
atrial
▁Contr
hig
▁defic
▁haemorrh
genic
▁CSA
BP
opram
9-
glyc
19-9
onol
▁MV
▁carc
icin
copic
.2%).
▁thickness
stolic
arean
othermic
▁85
abies
▁rese
occus
mand
▁HSV
▁alcohol
erts
helial
▁drugs
endan
▁reac
uin
▁BV
000
▁unsuccessful
▁fracture
▁minority
2-
▁cadaver
▁microvascular
▁bab
▁platelet
osyn
▁sequentially
urin
oratory
▁hemorrh
▁histopathology
erine
▁abolishes
trative
▁congenitally
rying
MG
▁muscle
▁malignant
▁ambulatory
Ba
▁activated
oplasmic
▁infected
urally
▁fibers
▁amputation
▁rati
▁bowel
▁IMR
▁adequate
KI
imental
▁depression
▁laparo
▁follic
▁migraine
comitant
▁scl
▁muscul
esity
▁avoiding
▁suspic
▁imaging
▁dislocation
▁trauma
▁adolescent
▁8
▁Tumour
▁microbiological
▁evoked
▁PRP
▁diagnoses
gth
▁derangement
▁gluten
rae
▁ensured
PAP
lact
Tc
▁screw
oxidation
▁thi
▁mucosal
104
oscopic
▁abnormality
▁palliative
▁controversial
▁prevalence
▁colorectal
▁complications
romes
▁Afric
delayed
▁disadvantages
inated
▁heterogeneity
▁autosomal
▁ultrasound
aturated
▁tolerated
ensitive
▁tumors
▁2
trip
▁pleomorphic
▁palp
▁perinatal
▁risks
▁orthopaedic
▁explored
opsy
▁implicate
▁concentrate
▁constitutes
▁sedentary
▁considerably
erated
sue
▁disparate
▁telephone
▁hormone
duced
▁prednisone
▁broader
centr
▁improves
▁oxygenation
▁relap
▁cardi
▁placenta
▁microm
▁drinking
▁neutroph
ducible
gement
onset
▁cardiomy
▁reevaluated
▁somatic
▁colonization
ceptive
▁ART
edullary
rosis
▁HP
igravid
▁progressive
▁atten
hep
chondral
▁radiological
▁chemotherapy
▁comprehen
▁presumably
▁prostates
HG
▁ablation
idated
76
▁Inclusion
▁peroneal
▁CAM
DG
tage
▁prenatal
▁gallstones
itant
▁HS
▁ventricular
▁scanning
mixed
▁tracing
▁characterize
erally
tions
▁preferably
▁thrombolysis
▁iso
ocar
nI
▁PVR
hemia
ials
▁Mothers
▁rectal
ulcer
▁undetectable
olum
▁OSA
▁pathway
years
ighted
▁Intravenous
1-3
▁protective
▁lumbar
-3
▁inequ
▁Considering
ipolar
▁prophyl
andard
▁nig
▁undergoing
▁cava
ocytes
▁pig
▁operative
▁enrolled
▁ethnic
▁rigor
▁aneurysm
ureth
mutant
▁hypog
rength
▁7.
▁50%
▁inclusive
▁ACE
▁5-
▁embry
▁prol
▁Dil
fentanyl
▁derange
▁PT
▁leakage
▁HCM
▁perforations
keletal
▁4-
hei
▁decisions
rogen
clim
▁sulfonylurea
urgically
▁receptor
▁nutritional
▁7%
▁modestly
CCT
implantation
ocardial
▁demonstrating
itr
▁survival
▁impaired
▁rCBF
▁GI
21
▁hypoxic
▁kerat
▁undergo
▁synerg
detected
▁reas
sy
NH
▁deaths
▁consequently
▁chloroquine
okinetics
sions
▁constitutional
▁FS
otomy
diagn
▁theore
▁correlations
49
▁Doppler
▁mammography
▁chloride
22
▁ambul
ignant
▁surf
▁distal
▁referrals
▁1-
kers
opulation
▁behaviors
▁GV
Ki
▁neonatal
zation
MV
▁findings
▁cognitive
spectively
▁drainage
▁pulmonary
▁judged
▁amin
Vi
rement
▁inspection
opathological
▁48
rine
▁homogeneous
TSP
▁complaining
▁Prophylactic
attern
▁meal
phic
▁epinephrine
▁Phy
▁oxy
atment
▁ischemia
enin
▁mothers
▁cerebral
▁radiotherapy
eclampsia
▁pylorus
tific
hap
▁provid
sial
▁adjuvant
▁IBS
▁suppressing
▁morbid
tig
thma
▁consultations
▁PCO
▁restor
roup
osin
▁facilit
lowering
▁dex
7.
▁habits
▁lobe
▁underline
▁latent
▁RB
rophyl
▁affects
▁arter
▁abl
istically
.5
▁spinal
onatal
▁Whilst
▁gallbladder
ocom
▁Effective
atent
▁shig
▁Findings
▁Severe
▁lithotrip
▁stomach
▁selective
▁establishing
urther
▁occl
sts
▁investigating
▁aerob
▁immunomod
▁APD
▁cognition
▁routinely
severe
plo
perfusion
▁clinics
vation
▁medial
▁aden
▁uncommon
▁bronch
▁transrectal
ercise
▁proce
MH
icacy
▁salivary
ensory
jug
tolerated
▁prolonged
gely
iferation
▁abd
▁toxicity
plantation
▁thrombo
ognitive
▁recurrence
▁maintaining
operative
▁EMS
▁discer
▁deliveries
▁2.
▁specimens
▁positively
▁assay
▁DS
▁immune
▁mortality
▁localities
▁molecule
▁membrane
▁slowed
embr
▁chl
▁poten
▁sequential
▁mg
▁paraventricular
inic
Ps
ovir
▁conservative
BV
formin
▁limbs
▁tubes
▁fever
▁attending
▁GPs
infarct
▁cortisol
▁sensory
▁erosive
▁rationale
▁amyloidosis
rectal
▁lacking
otype
neumon
▁discussions
▁MH
▁fatigue
▁VD
▁expertise
▁intraven
onomic
undibular
icine
▁portions
▁participate
▁infil
00
1,
ingle
▁diabetes
▁thickening
IIIa
mig
▁PCI
▁delivering
▁thigh
orectal
▁acidosis
ensit
▁distinctly
WL
anese
knee
▁evolving
▁atres
▁psychosocial
▁ventil
▁facial
eal
▁tibial
iasis
tens
▁perception
84
56
▁thromb
feren
▁physiologic
valent
▁ETA
olute
▁stimul
▁dysfunction
▁manufacturers
▁colloid
▁agonist
arotid
elfare
▁microcirc
▁advisable
acental
▁elu
ropriate
▁needle
▁Operative
▁somatostatin
arer
▁insulin
▁alterations
▁schiz
▁gaps
▁masked
1)
anyl
▁depressive
▁epidemic
▁SB
▁AVR
▁tidal
▁tailored
RH
▁phagocy
▁3-
opia
▁mamm
▁eosin
etus
aneously
WBC
idity
tle
oxid
▁intrav
ucle
▁Concomitant
stem
TN
▁polymorphism
▁bronchi
aemic
▁vaccine
▁comparable
ilical
responders
▁sequel
▁dissection
▁proteins
hesive
▁tymp
▁HCC
▁pelvic
▁deterior
▁ICS
▁histologic
▁linole
▁vancomycin
▁21-
identical
oretical
▁cited
osomal
▁ortho
either
▁correspon
▁myo
▁morbidity
▁backs
herence
▁waist
▁insurance
▁DN
▁nodules
versus
clerosis
tebral
dose
eces
oag
ilated
erals
▁Recurrence
▁harmful
ifol
ocytic
irrh
▁NH
▁enti
▁supervision
▁correcting
▁wound
▁intra
▁endoscopy
opamine
▁diagnose
▁HAM
ospor
▁OT
▁precedes
▁silic
▁fentanyl
lasting
▁regulate
crimin
▁synov
▁glands
▁fluor
pT
▁1.6
▁treatments
ailure
iciencies
▁circumferen
▁Steady
oxic
ococcus
▁Patient
▁2-
▁uniformity
ophren
▁perfusion
0-
pap
appropriate
lected
▁emotions
▁prospective
▁surveys
Ka
▁physically
▁aspir
utaneous
▁leuk
▁BD
controlled
alian
▁HMO
▁reag
▁DST
▁80-
rk
otactic
▁leukocyte
▁dyn
hea
Phe
▁percutaneous
▁mild
usal
▁NSC
▁reductions
10
▁40
▁validated
▁pine
▁arterial
▁Failure
tak
RD
▁warrants
▁encour
▁anatomical
opi
▁barriers
itus
▁distin
▁ane
▁FH
stant
▁pathologists
▁PAN
entical
▁OC
atectomy
phrine
▁proposes
▁WHO
▁mec
4).
▁GFR
4.
olism
▁meaningful
▁validity
▁patella
▁achievement
▁discriminative
▁cereb
▁arteries
▁linoleic
iary
▁biop
epit
▁awareness
▁syndromes
46
▁interc
tin
arity
▁genes
▁extensor
▁caregi
legia
▁shorten
sian
linolenic
▁heroin
▁cervical
▁peris
▁carriers
odynam
▁adhe
▁decreasing
▁endometrial
▁steroidal
olic
▁AE
▁thrombectomy
idney
aluation
▁heterogeneous
sized
▁moist
▁limb
lateral
▁suprap
urse
▁exercised
▁Dopamine
evaluated
oscopy
▁ultrasonography
erative
asal
.2
sar
totic
▁PI
▁FT
▁DF
usive
▁physician
▁saturated
▁concentrations
▁differing
ocl
▁elucidate
ofol
omiting
▁outpatient
▁fold
▁endpoints
▁metformin
▁inherent
▁AMI
▁examined
atheter
▁metast
▁diagnosed
retion
▁analys
▁mediates
heric
ustained
linic
pation
.2%
▁psychotic
▁MI
tent
▁4
▁interpersonal
▁angiography
guided
ithms
SPE
▁functioning
▁deterioration
▁psychological
▁plur
▁sti
▁fulf
▁inevitable
ilic
drome
eight
acking
▁radiography
oung
▁lob
▁ile
ormone
▁clinician
▁resuscitation
▁acetab
5%
mL
▁surgery
▁symptoms
▁2,
▁mobility
▁monit
▁atheros
▁metastasis
Ta
▁promising
▁amput
▁implications
▁ICM
DH
▁MRC
▁disorders
▁disruption
▁57
▁saline
▁secretion
▁implic
.8%
▁anastom
▁exogenous
▁outcomes
olones
▁inhibit
▁glomerular
▁2.5
▁oxygen
▁dentists
LN
▁nail
▁arth
▁Therapeutic
▁intervertebral
▁contaminated
▁chol
▁linkages
ceptibility
▁plaque
▁resusc
▁insufficiency
▁uncontrolled
▁anemia
▁profound
▁poorest
▁adaptive
▁diversity
▁reproduc
2.
▁adequ
▁UL
▁fiber
▁LV
FV
▁demonstrates
▁comparative
chol
▁strategies
▁pedigree
▁relating
▁tet
▁psychotropic
▁chan
▁subgroups
▁tamoxifen
ocul
genesis
ministration
▁endometr
chond
▁capped
▁Kup
▁oils
▁NN
▁tow
▁Removal
▁interp
▁onset
▁contribut
▁radiographic
rehen
▁interventions
▁dilated
▁Progression
▁extre
entan
▁counseling
▁fati
estis
cored
▁differentiate
▁appropriateness
erable
arly
ceptions
▁deem
▁margins
▁14
▁biom
▁tuber
▁perfor
▁thromboembolic
▁monounsaturated
tation
spective
▁deficiency
uptake
▁Cytoplasmic
▁describ
▁concom
▁neoadjuvant
▁smo
▁drops
▁vaccines
▁atmospheric
▁abdomen
cents
▁PCOS
▁BMI
▁satis
▁nulliparous
▁PET
▁readings
ults
▁abnormal
nee
▁stab
▁pregnant
▁11
diol
invasive
▁iatrogenic
▁gyn
▁rehabilitation
▁hepatic
▁30
▁metastases
RB
▁CPAP
ctomy
▁suture
▁intragastric
emic
▁amy
▁anticoagulation
▁overlapping
reness
▁workload
diagnosed
▁systematic
▁IA
ulates
▁79
▁identif
▁abilities
▁ultrason
duce
▁identifying
▁preservation
▁bipolar
▁hospitalization
gain
eck
▁providers
ortal
hop
▁uncovered
▁inappropriate
▁supplementation
6%
01
▁MHC
▁usefulness
▁unde
▁palpation
▁carcinogens
SCC
helin
▁heterogene
▁feasibility
▁consangu
angli
▁emotional
▁adhering
97
▁Chronic
▁accurately
ufficient
urea
▁challenges
▁reasonably
▁overdose
ocular
▁advan
tic
rophob
ojejun
taining
thal
▁anticipated
phosphon
▁aspiration
▁neutrophilic
leu
▁episodic
lix
cence
▁RBC
▁confron
omedullary
▁chor
atest
rated
stages
luc
itally
▁chole
▁reveals
▁favorable
▁counteract
gmental
▁dietary
▁grading
▁indefinitely
LU
sies
▁modif
▁invasive
effectiveness
▁mucos
entif
elan
▁PID
matic
VL
onium
▁regimen
▁failures
▁vulnerable
▁schizophrenia
iplin
▁ventilatory
regulation
▁accumulation
▁dental
▁mell
scopy
cutaneous
▁coronary
▁VO
▁Medicaid
▁coincidence
▁Comparisons
▁recessive
▁Estrogen
▁cigarettes
cele
enic
ocial
▁APTT
cale
oskeletal
▁palli
▁beha
adequ
▁resear
FH
▁APC
▁complic
▁engraftment
GU
▁Thromb
▁subtraction
▁Cyt
▁complementary
▁investigations
▁impacted
▁merit
▁audit
▁HU
itamin
jejun
reported
arthritis
▁multifactorial
▁molec
▁irr
▁PF
ece
▁ulcer
▁remin
oves
▁intensive
▁Accordingly
oglyc
▁Continued
tomy
hering
armac
▁financ
▁10
▁divertic
▁complemented
▁pediatric
ertion
rogra
▁follicle
onit
Ns
▁gait
▁injur
▁transi
versely
oic
2)
▁emergency
▁NPC
urgical
▁exhibit
▁desirable
▁supple
▁sev
.8
rophy
▁liver
▁dosing
evaluation
▁progestin
ineph
isure
▁immature
essment
omical
▁hepar
▁pineal
occi
▁hyperfiltration
lys
▁cirrhotic
▁unexplained
▁postmenopausal
▁deform
▁opioid
ducts
▁surgeons
▁1
ussion
xiety
▁esophageal
▁umb
vements
▁benz
itin
tate
▁outs
▁perone
EO
▁9
▁intram
oprote
lysis
▁necro
itary
▁therapeutic
ophilic
▁encoun
atab
▁atr
▁erroneous
▁prox
▁abortion
▁intrap
▁confined
▁medicines
▁tissues
oracic
▁unin
▁inadvertent
▁contributory
phasis
▁bilateral
▁diseases
▁unil
30
WB
▁pituitary
▁underestimated
▁physicians
omia
▁longitudinal
ancreas
SSA
▁naltrexone
▁21
▁PSA
▁preval
▁compli
▁cultures
▁hypothe
▁Ket
▁employing
utroph
▁anxiety
faction
erations
▁ultr
▁adenoma
mation
hest
hospital
▁tas
contrast
▁parap
erance
sis
▁Throm
▁rotated
▁consensus
hemo
▁prevention
70
▁conservatively
▁haem
▁circumference
▁12
▁intrauterine
▁improving
▁metastatic
coun
▁discusses
▁leisure
NM
▁phe
▁exis
atched
fication
▁microv
▁displ
-6
▁glyc
umbar
▁porcine
▁unaware
▁toxic
heum
▁tobacco
▁thyroid
▁pylori
▁cardiomyopathy
educ
ropriately
▁transurethral
9%
▁Physicians
Hb
▁opi
hern
▁atherosclerosis
▁Ultrasound
▁ovari
▁chond
▁scre
adily
pH
▁SBA
▁adequately
▁phenotype
versity
▁Larger
▁vaginal
▁Alcohol
▁verteb
roma
▁ultim
ociated
▁evid
▁cholest
tyl
mental
erator
tead
▁1.7
▁amyl
▁questionnaires
ureus
.2%)
▁echocardi
▁effectiveness
ascular
▁hemodialysis
▁microc
erate
▁undiagnosed
▁exce
▁wors
▁predicts
▁predictor
▁Tes
▁physici
▁circumferential
▁inflammatory
itance
▁ure
▁contral
ancies
▁complaints
ithin
▁examination
tec
▁remission
▁shallow
stro
▁knee
▁PP
His
▁necrosis
degree
oplasty
▁substantially
▁resour
▁superv
▁adjunct
▁progression
▁UF
▁measuring
▁bypass
▁mono
▁ovarian
tering
▁ESR
▁antib
▁modulate
omotor
▁thoracic
▁surrogate
▁perip
▁soybean
monstr
▁carbohyd
inusoidal
urine
40
▁resection
sess
ternational
▁cancers
ication
81
▁minimize
▁mediated
▁expenditures
▁pS
ameters
vely
▁underst
▁herp
quine
▁uremia
iol
▁irradiated
▁diagnosis
teric
oradi
▁poverty
▁Pregnancy
▁unm
▁deserves
oural
▁requi
▁interv
▁packing
▁synthe
▁infection
IH
▁suppression
▁fragility
▁referral
iliac
▁OA
iron
itic
▁postoperative
▁adults
ections
▁volumetric
▁parental
▁hormonal
▁Greater
▁severity
4)
▁corrections
▁normalized
▁inflamm
▁eyelid
▁therap
Nor
ditional
▁BMP
▁cann
▁unresectable
▁cohorts
▁intrapartum
▁PEG
▁feeding
▁excision
▁ancestor
▁fatalities
clin
▁nonoperative
erper
uncture
fos
9,
▁instr
▁VL
stim
▁reflux
ergy
▁staging
▁preliminary
gm
▁diffic
▁coexistence
imination
aryngeal
HN
discharge
▁dys
ervative
▁hep
▁tonsil
▁hig
▁epileptic
▁merits
▁recur
▁RAR
▁anomal
▁characterized
▁LVH
▁attendance
KD
ficial
▁practically
12.
▁somat
▁polymorph
▁tric
effective
▁sustained
▁knife
▁neoplasm
▁reconstruction
jun
▁cervix
▁Denmark
kage
▁predic
osom
▁Treatments
▁hypoxia
▁racial
▁sequelae
▁endarterectomy
▁phag
▁deficit
matched
▁anastomotic
oidal
ferential
▁paras
Hu
▁3
▁intense
▁variability
▁neph
▁spontaneous
▁athe
65
▁ACL
▁multivariate
▁Samples
acclim
regulated
▁caregivers
owever
▁triv
▁cephal
▁HM
lyc
Ti
uded
ayed
▁noncom
▁inad
esting
▁Adherence
DNA
quid
▁nutr
▁predictive
resses
▁depic
▁chewing
▁Slow
SAH
▁ischem
toc
▁caro
-1
Ly
▁increas
loid
olysis
▁polyethylene
▁Tran
▁peripher
erus
ectasis
olenic
1-2
▁mitral
inatal
▁exacerbations
▁discon
▁preferences
▁ASA
romed
ardless
orac
▁inapp
▁inhibition
rati
ochemical
oric
amination
▁systematically
▁encouraged
alities
▁scin
vents
▁pharmacy
▁(5
▁safer
▁MCP
enh
▁stimulation
echanical
vant
sion
▁osteoporotic
▁Contrary
oes
▁ascertained
▁inh
▁postoperatively
tact
▁Hb
▁revealing
kely
▁vagal
▁epi
ologic
▁UT
uterine
▁olig
▁insertion
▁BP
▁deprivation
vaginal
▁Improved
KA
vating
▁healthy
natal
▁carotid
▁unrel
TU
▁supplement
▁ocul
onate
astom
threatening
▁iliac
▁optimizing
▁HA
igaret
▁IgM
2%
▁heparinized
▁pancreatitis
▁pathogen
▁reliably
entanyl
▁undo
dimer
▁anatomic
▁trophoblastic
▁shif
▁dexamethasone
uccess
▁poses
▁swelling
▁acqui
▁tumor
▁reagents
▁eosinophil
▁Trial
▁nal
otent
▁insufficient
▁institutional
ethyl
0%,
fine
were
inemia
▁ketamine
▁technically
xide
▁cerv
▁cyclosporine
entric
▁sensitivity
rox
▁alteration
▁genotype
apse
▁Biochem
CBF
▁immunological
▁psychiatric
odialysis
▁bacter
▁distinguishing
8.
▁ultras
34
employ
▁inpatient
▁assis
▁VE
arers
ustment
▁identifies
▁clipping
ustif
▁prevalences
▁multiv
▁nomenclature
nosis
▁estrogen
moid
opa
ervations
peri
idate
▁immunisation
▁integrating
▁GF
▁CMV
inely
vascular
▁subjected
▁IBD
istal
▁cuff
▁familial
licular
▁genotypes
▁musculoskeletal
▁pathologies
▁osteoporosis
▁menopausal
▁recor
▁diagnos
▁undergone
▁debr
▁vag
8%
▁Engl
▁50
echn
▁selectively
▁TGF
▁renal
ampl
▁reproducibility
6.
▁apop
vac
▁predomin
▁cochlear
▁reactivation
▁Poor
▁opportunities
▁Blockade
▁pulp
▁biological
istrib
▁physiological
▁correlates
▁atrial
▁coronal
iably
2%)
▁OCD
▁fulfill
▁incidence
▁classified
▁Whereas
elvic
▁predicting
▁contributes
▁hygiene
▁undetected
▁atresia
▁lept
farct
▁hypothyroidism
▁tertiary
▁IH
ophil
▁screening
▁LF
▁melatonin
▁LS
ucleation
itro
loride
asone
▁congen
▁stren
48
▁beverages
vals
▁EO
▁provocation
alc
rotein
▁Dop
▁soy
▁rheumatoid
FG
▁AO
▁FV
▁moderate
▁restenosis
igel
▁adolescence
▁survived
jected
▁hemorrhagic
▁acad
omies
▁trials
oplas
ogenous
IgM
▁hemis
▁remo
▁epid
▁hern
▁modulates
▁collateral
▁dose
arous
glumine
PB
▁advances
▁hypoglycaemia
▁macrophage
▁assessment
▁aiming
mortality
▁spikes
athy
mature
▁implantable
▁malle
ritish
▁childhood
xone
hicle
▁continence
▁pronounced
▁NPH
idement
venth
▁desm
▁vagin
▁cumulative
▁intravenous
ycin
oleic
cold
▁AGA
zole
▁homogene
dents
▁immigrants
▁prospectively
ograms
▁septum
▁preconditioning
▁IVF
▁causal
(5
▁uter
▁regar
itures
▁ana
Au
rophilic
ronchial
▁acetabular
riend
▁homogeneity
▁sciatic
▁canc
▁annulus
▁manu
dial
opam
▁31
▁elic
▁sphincter
▁intrag
▁tox
▁gangrene
ipid
ivation
operatively
▁strom
▁compartment
▁201
▁detachment
▁detach
reast
oagulation
▁TBI
itness
▁glycaemic
ocaine
▁disparities
▁follicular
▁19-9
▁undisturbed
▁oste
▁Clinical
▁gynec
menopausal
ognition
▁neurologic
estigated
atid
▁MG
▁connective
▁spati
▁32
▁Delayed
▁stimulate
rals
▁fetus
▁prostatic
wk
sensitive
▁LC
gesia
▁identically
▁GER
▁micron
▁comprehensive
▁pregnancy
▁maternal
▁aggravation
enzymatic
▁excluded
▁postnatal
▁assurance
clusive
ulae
acet
lective
▁loosening
▁subf
▁surviv
▁vasomotor
usions
omatic
odal
otom
ensity
▁reduc
▁artery
▁COS
▁enteral
regn
iosis
▁serum
▁arthritis
incidence
▁parag
▁followup
▁diminished
▁HLA
3-
urethral
▁pharmacological
▁targeted
▁Compared
▁minerals
vated
▁decreased
▁segmental
orable
vate
▁intramuscular
▁medication
▁athle
asic
▁correlated
▁utilisation
▁adherence
▁statistically
▁catheterisation
▁intermittent
▁metabol
▁torsion
otomies
▁suggestive
arental
▁unrelated
prepared
▁RH
iatric
▁Treatment
▁adverse
▁SG
rC
▁elimination
tif
▁Addition
▁gains
▁surgeon
▁metabolism
▁streptococci
iant
▁Additional
▁superficial
▁parotid
▁pancre
odies
▁tert
patient
▁managing
▁rated
ught
▁withdrawn
▁zinc
▁decreas
▁aerobic
ctive
▁concurrently
sych
luent
ixation
▁Increased
▁clinicians
▁Phe
▁mL
▁illustrates
▁vein
▁measurable
▁endoscop
BK
▁investigated
erating
▁exposures
▁influences
▁ALT
mg
requ
▁intramedullary
▁axillary
▁sepsis
injured
▁eosinophilic
▁cohort
▁buc
ubtedly
▁myocardial
▁hyperg
▁pT
hesis
▁calcified
▁mandibular
GF
▁cen
▁colonoscopy
▁expend
Mu
HU
yroid
▁infarction
▁nucleus
▁intraoperative
ometr
▁curative
▁parame
▁syndrome
▁Streptococcus
atient
ovascular
▁lipid
▁Histologic
▁Trials
astatic
-9,
ximum
otherapy
▁biases
iable
▁Taken
▁adjustments
▁rigorous
umulative
▁neurological
plic
▁malign
ressed
▁focusing
▁fluoroquin
▁sampl
utin
cture
tial
ilized
oice
oplast
▁locus
▁hemodynamic
53
▁reactions
▁crest
▁evac
trex
sus
▁embryo
▁injected
▁pneumonia
sities
▁Medicare
▁evaluating
olated
▁Bec
▁stroma
▁GM
▁Eff
▁facilitated
▁preferable
physiologic
▁cutaneous
▁scaled
▁AMP
mong
▁consequent
▁exposure
▁confound
▁problematic
▁restric
enol
VT
▁implant
hers
▁temporarily
genes
▁diabetic
ostat
ejun
▁Cycl
▁juvenile
▁juven
▁warr
▁Healthy
▁gangl
ressing
▁unres
ourable
pir
vein
▁implantation
▁latency
▁carbohydrates
▁hypertension
▁advised
▁sore
▁utilization
positive
▁abdominal
mented
CGP
▁resected
lastic
▁nurses
TG
▁Vitamin
enhanced
▁resis
▁laxity
▁Tren
▁questionnai
edle
75
▁manifestations
▁temperatures
acting
▁deficiencies
anin
VR
▁ey
▁laboratories
80
▁indetermin
▁indication
icated
▁prophylactic
vasive
▁Systolic
heal
▁antegrade
athe
▁resonance
▁RP
mentation
▁laparoscopic
▁irrit
▁differentially
▁stillbirth
▁depress
▁striated
▁tympan
▁disrupt
▁appreciably
tant
ortic
2,
▁clus
▁allevi
reatine
▁hCG
▁32%
lec
▁guided
ococci
▁receptors
▁Elderly
▁palsy
rins
▁trophob
▁tumour
▁inflammation
omal
arb
aning
ulitis
▁consultant
graft
▁coex
▁elevation
▁recess
essive
▁chloro
▁catheter
rous
▁deformity
▁Prospective
▁paradigm
▁endemic
▁genic
▁presum
▁apoptotic
▁perc
ocele
▁atrophy
▁discom
▁heal
▁eyel
Ga
trimental
▁depar
uvant
▁intercostal
urate
stress
▁testis
▁endothelin
▁-0.5
▁GBS
gastric
▁behavioral
trop
11
opic
▁doctors
▁radiograph
lep
▁autoimmune
▁occurring
entral
▁versa
▁spont
ivocal
▁sensorineural
▁transfusion
▁cure
▁neurop
▁intrarenal
usp
▁pharm
neal
uccessful
▁obesity
▁hypertrophied
▁uncomplicated
atories
ellosis
▁HL
iferol
mTc
▁technologies
▁STI
prising
3,
▁haemorrhage
▁fractured
rof
▁practic
▁rhe
entary
▁specialty
ergic
▁22
▁stenosis
atical
▁ratios
▁ADH
▁multic
opathy
▁cesarean
▁designing
omerular
lesion
▁physiotherapy
acerb
▁substances
essential
▁turnover
▁hypot
tection
▁suicide
duc
▁diluted
▁Adverse
▁mellitus
ameter
▁pyl
ecre
▁intervention
MIC
ective
acer
▁corne
activation
▁abnormalities
tib
▁sten
alsy
▁seb
▁antec
saturated
▁20
▁occupational
60
functional
acil
▁traumatic
geal
mia
kade
nutrition
▁RT
▁Atropine
▁TG
adder
▁interacted
▁kidney
anis
▁respondents
▁0-1
▁VAS
▁chlor
▁directional
▁infect
▁abuse
genital
▁Mucosal
▁surgically
▁vegetable
▁antibiotic
▁suturing
aemia
▁achie
▁wrist
▁challenging
▁impairment
▁edema
aints
ubted
ochemistry
orative
▁warranted
▁Chemical
tual
lore
relevant
ateral
▁discus
▁exo
uscular
▁endarte
▁presenting
▁surveillance
echan
▁unselected
▁sexes
radi
▁LOS
orin
▁enrol
ritis
▁Significant
▁infants
ioid
▁prostate
69
▁eating
uding
▁hazards
▁immig
tach
▁undertaken
▁pall
▁confronted
▁oxide
▁systolic
ancre
tro
▁antibodies
immunization
▁congenital
▁sliding
▁GE
▁15%
▁assessing
atell
▁histological
▁sour
trol
▁herpes
udin
▁impair
▁PAS
▁excimer
cores
▁corneal
▁headache
▁quantitative
▁smoking
▁inhibitors
-5
▁Certain
▁lithotripsy
▁reproduction
▁attentional
▁ischemic
dle
▁underg
LB
AH
▁paradig
▁vomiting
▁placent
artum
▁babies
▁differentiation
▁FD
▁tympanic
amily
▁determination
eration
▁decisive
umulation
▁prescrib
▁availability
▁vulnerability
ointing
entists
ediatric
▁insertions
▁HC
▁TB
▁poorly
▁approx
▁prostatectomy
ergency
▁TK
SCE
▁femoral
lym
▁BPs
▁worsened
▁(54
▁15
OA
▁patellar
▁benign
▁promoting
phosphonate
hyd
▁ossification
▁indeterminate
▁socio
▁pharmacists
▁inclined
▁angi
▁muscles
▁doses
endot
▁enhancement
arate
weighted
99
▁rebound
▁widespread
uated
▁socioeconomic
▁sph
▁cere
responder
▁nonc
ileptic
▁structural
onary
eak
ithi
▁ET
▁Phen
▁ascertain
▁inadequ
▁aorta
sia
▁acids
▁5
▁mediation
induced
seal
▁cancellous
ialysis
▁16
▁disks
▁uncom
ploy
Ra
▁laparoscopy
orest
ographically
▁procedural
▁advancement
▁unevent
urement
▁overex
▁SNP
▁acquire
▁vaccination
▁therapy
respon
▁prevented
▁thyroidectomy
venous
31
CRP
econd
▁everyday
▁HCMV
▁Surgical
adication
▁intake
▁establ
MN
▁31-
hered
ulin
tein
▁elevated
▁SCH
eric
▁discrimination
▁potency
▁predominantly
otor
▁efficacy
ogra
ulfonyl
pS
▁restorative
▁rele
▁chemo
▁molecular
▁hepatocytes
▁utero
▁esophag
ffer
iological
▁agon
▁silicone
othelial
▁prevalent
▁consistently
▁residency
▁spon
▁molar
▁fatality
▁isch
osts
SAP
Ts
▁algor
erin
valence
▁uninjured
ipient
aryn
aventricular
▁tris
▁demands
▁pneumon
▁preclude
▁pathology
▁tracer
osity
▁GVHD
relations
MRI
14
▁gly
▁13
mur
▁footprint
agic
amine
▁uni
omized
▁multicenter
▁corrective
geons
▁respon
Ds
▁meals
▁anastomosis
imens
▁reveal
▁gradi
tensive
▁localized
▁disorder
▁rhythm
▁eliciting
▁drain
▁metabolic
herent
▁sclerosis
ivariate
mates
▁estimating
▁indicators
▁diet
▁comprehension
▁multim
▁SUP
aminated
ithm
Fs
▁unc
risk
ariate
oping
▁Increas
retro
▁inhib
▁79%
▁allerg
▁40%
alp
13
▁5.
▁AI
▁chec
▁sulf
Cu
rone
▁ganglion
35
▁positioning
▁1.
▁irritation
▁lesion
▁proct
▁therapies
▁clinic
ysm
otropic
▁hospitalized
isture
▁blin
▁Pretreatment
arcin
ilization
▁Lys
▁DFS
LV
▁widening
ymp
▁decades
▁physi
▁wee
▁occlusal
orotic
▁scans
ograp
ullary
▁saliv
5-
▁plac
tectable
roin
▁uncover
▁techniqu
▁eliminated
▁prel
▁infar
▁feasible
taken
▁speculated
▁traum
▁favourable
ocusing
▁barrier
85
▁ethanol
▁80
▁PD
ystolic
▁Acute
razole
▁phagocytic
▁injuries
▁peptic
▁anatomy
▁graft
▁subchondral
lymph
afe
▁insult
▁nerve
tical
▁researchers
▁visually
phos
▁Magnetic
unctional
yro
▁solely
▁clinically
▁HG
enon
▁contamin
sive
Tn
HB
▁errone
▁pathologically
▁Weight
▁Tum
▁highl
▁150
▁vaccin
iciency
▁endos
vival
▁bronchoscopy
▁Educ
▁endoc
▁RM
ewish
ilateral
▁melan
illus
▁trough
ohy
▁Neurop
ventional
sor
▁cocaine
ologists
ococcal
mide
icide
▁screened
gative
▁appropriately
▁calcification
▁microb
▁ongoing
▁migrated
▁chorio
onyl
pendent
▁8.
omain
ivoc
▁CRP
aem
▁vena
ithiasis
0.
ivary
▁asthma
orrhagic
▁compliance
▁rigidity
▁sulfonyl
BM
▁displacement
cad
▁SGA
▁allergic
▁aortic
▁prognostic
.6
▁stimuli
rele
gments
▁behavi
▁femur
dition
▁CABG
▁comparisons
▁chest
▁glut
cysteine
ositive
▁deficits
tam
orrh
renal
▁BS
▁subtype
▁ventric
carcin
▁pathogenesis
unar
-67
▁HIV
▁tracers
▁anticoag
filtration
▁neutrophil
▁pharmac
▁scintigraphy
olectomy
▁adjusted
▁transplantation
▁lipoprotein
▁Intra
▁nutrition
▁hygi
▁coexist
▁coel
bility
lated
▁practitioners
67
married
▁THA
▁lumb
oplasm
▁6
▁ward
▁numb
▁overlaps
▁Serum
omes
▁oesophagitis
▁surgical
▁PBB
▁recipient
versal
SPECT
▁pate
▁10-
▁tolerance
duction
isol
▁adolescents
▁systemic
▁heparin
birth
thle
▁mutations
▁acyclovir
▁umbilical
▁PH
▁ETS
▁infiltrative
▁alve
hort
▁compartments
associated
▁concordance
atisfaction
▁polyps
whe
onor
▁progn
▁pregnancies
▁fatty
▁repaired
oxif
▁suspicion
▁mechanisms
▁unco
▁assessments
▁caution
▁pediatrics
▁encouraging
▁groin
ronous
▁overl
resting
anic
-0.5
▁examinations
79
▁stom
▁reperfusion
orax
▁neo
▁burden
rans
rogenic
alues
Cer
▁morphologic
▁200
▁thromboemb
▁lax
▁healing
orphic
▁differentiated
uation
▁Overall
ximal
▁Surgery
olon
▁complication
▁genetic
▁Sout
▁analyses
icient
estim
lecting
▁cardiac
▁consolidation
▁raises
▁symptomatic
Ara
▁influenza
▁mineral
ostatin
▁horm
fron
amn
▁fragile
▁VLBW
tinu
idation
▁increasingly
