▁glucose
▁exten
▁experim
▁2
▁LH
▁placenta
hydro
icep
▁stab
▁statistically
2-
phyl
▁intervention
▁reduc
inergic
▁prolif
-12
▁diarrhea
▁cytoplasm
anded
▁7
ifedipine
erating
▁3.
▁molecules
5%
molecular
tence
▁successive
▁11
▁heterogene
tition
▁smo
▁catheter
▁asthma
▁standardized
▁inhibitor
▁Tran
ectin
acid
embran
▁uterine
▁deaths
oag
▁intact
▁clinical
▁attenu
encephal
▁lactation
▁clamp
tase
atase
plication
hyde
apeutic
iasis
sies
▁Twelve
▁bab
▁angi
▁74
▁bleeding
▁tas
▁carbox
▁PRL
▁graft
tryp
▁possi
-450
▁enl
▁recombinant
hep
atment
▁gon
▁ineffective
rophob
feron
▁0.01
▁coronary
oprotein
▁mmHg
%),
dial
-10
erin
▁poorly
▁interv
jun
▁kidneys
▁smokers
hest
etan
▁neurop
sors
▁inhibitory
▁yiel
dine
▁trache
aicin
uminal
▁adren
aryn
▁110
opha
▁pulse
roup
▁acco
▁screening
oxic
▁fibr
▁1.3
▁pneumon
▁slic
0-
▁assessed
jected
ocin
▁4%
▁ulcer
▁symptom
▁supplemented
▁lec
▁dyn
▁0.01).
olic
▁controlling
▁secreted
ogens
tral
▁LPS
▁mammary
▁hormone
nine
taz
▁38
coated
tact
▁prolonged
▁hippocamp
▁antibiotic
▁decreases
eptides
▁blockade
▁mortality
▁paren
ication
oprote
▁aden
▁healthy
rogen
tention
gluc
▁sedimentation
▁acquisition
▁stained
▁pathology
olism
oyl
olus
robic
▁4.5
▁muscle
▁parame
▁elicited
rocy
▁immunity
▁schiz
▁premature
▁conditioning
▁predic
▁Measure
ositol
bacco
▁yielded
▁opioid
99
tors
cyt
▁functioning
▁eliminated
CAM
▁70%
▁bolus
trogen
▁dexamethasone
▁alcoholic
ulin
▁kidney
▁fluorescence
fts
▁theore
Rs
▁ACh
ancies
▁197
acyl
▁positively
▁anaerobic
▁1.
▁saliv
▁contral
▁0.4
reased
▁inducing
▁ethanol
onine
▁normalized
▁dilatation
loid
▁ppm
oplasm
▁ACTH
umerous
▁1
▁suscepti
lyce
▁87
▁polymer
▁cerv
▁ket
▁hypertensive
-3-
▁(100
BM
▁aor
▁hypertrophy
amic
▁Nine
▁subunit
▁immunobl
trib
▁Additional
▁unrelated
▁cephal
▁excessive
phil
▁decreasing
▁cAMP
▁67
ocrine
DNA
idine
minal
00
odium
▁Plas
responsive
▁Recent
itary
ymptom
trated
▁progesterone
▁testicular
▁glycoprotein
2+]
.5%
fec
amel
ochemical
▁stain
▁mast
▁elevated
▁cohort
▁inhibit
▁NaCl
▁consis
▁96
bic
▁lymph
▁radioactivity
▁gland
▁lamin
osom
▁82
tics
▁yeast
▁probes
▁decreas
orpor
▁ventral
▁identif
vices
▁Km
▁4.2
▁88
▁cancers
▁(198
▁practic
idate
▁promoter
▁involvement
▁cytotoxicity
density
▁underst
opausal
▁hemo
gic
adily
-14
ximal
▁196
▁injections
▁potassium
▁arteri
plied
tioned
▁6.5
▁pati
onate
namic
cessive
▁RNA
▁potency
mL
▁metabolites
▁spine
▁beneficial
▁physici
▁muta
34
pregn
▁evaluating
onstric
▁developmental
▁accounted
olol
▁cleavage
▁suppressed
▁antagonist
chloride
▁interc
▁uterus
▁analgesia
▁lute
▁follic
▁Mg
▁recurrence
▁angina
▁oxygen
▁differing
▁parental
▁viral
urgical
containing
crimin
▁LT
▁herpes
▁77
▁paired
▁cyst
omat
▁unstable
▁40%
▁quantitative
▁morb
19
erent
mend
▁hepat
▁induce
tality
▁moderately
▁evid
▁phag
crib
80
jec
esity
▁experi
▁mell
▁saturation
▁satur
▁tomography
2%
▁comprised
ituitary
▁graded
chol
▁molecule
▁activator
▁potentials
▁prevalence
▁4.0
▁microM
▁estradiol
▁quantified
▁mamm
tory
▁Doppler
▁1.2
▁dehydrogenase
▁hemodynamic
athy
▁resonance
▁adhe
-7
▁lys
geal
tic
tility
▁Addition
▁fasting
risk
avage
▁(8
ecal
▁diaz
▁classified
ichia
tisol
▁ori
▁intense
icient
tif
▁intake
▁exce
▁comparisons
▁cataly
▁behavioral
▁infants
▁calf
▁accumulation
▁cytoplasmic
utaneous
ionine
▁captopril
ostic
regulation
▁elic
▁contamin
▁artery
cence
tives
▁resection
seven
▁0.15
▁fluc
40
▁nifedipine
osts
▁atropine
▁cavity
▁ane
▁cyclosporine
▁reflux
▁excluded
▁electrical
▁TGF
▁antibody
▁EGF
chym
▁phospholipid
ylamide
▁fluores
ulmonary
▁BAL
▁neurotrans
▁pretreated
▁carbohydrate
iciency
▁nuclei
cardi
▁infarct
▁diabetes
▁alcohol
▁irradi
ospor
loro
▁cardi
ximum
▁rabbit
▁60%
▁magnesium
▁55
topril
▁+/-
▁chromat
▁stom
infected
▁newborn
▁TNF
osal
▁99
-2
▁affec
▁2-
▁reas
▁blockers
▁sampl
posure
epti
1-
▁childhood
49
▁8%
▁averaged
▁acqui
▁(10
▁reser
tual
▁disorder
unts
▁conclusions
reactive
▁duct
▁congestive
▁infection
▁gastro
truction
cyclic
▁cartilage
▁pigs
▁ultim
rogenic
▁intracellular
▁metast
gene
▁brainstem
▁proce
opathy
▁lipids
▁affects
▁pathways
▁lymphoma
arbox
▁venti
▁ischemic
ventricular
-5)
▁dietary
▁concentrated
▁15,
ynaptic
▁500
▁cDNA
▁intest
▁gangl
kinin
▁monit
tamine
▁diame
10
▁suppression
ffin
▁15-
ncy
▁5,
odil
▁89
venous
▁7.5
▁46
▁LDL
▁thromb
ergency
idated
▁600
amino
▁microscopy
▁coated
reast
itro
ocyt
▁(0.5
▁substances
▁adrenal
▁IgM
▁mmol
▁thi
▁PV
▁lavage
▁extracts
13
▁cann
▁plaques
mature
▁alterations
▁rati
▁8-
▁antiser
▁prophylaxis
11
▁nucleotides
▁10(
entral
iaz
▁defic
▁nicot
otropic
▁plasminogen
olesterol
▁pharmacokinetic
▁stimul
▁bronch
ascular
▁cis
▁progression
▁diagnostic
▁describ
▁plasmid
▁relapse
tile
▁repl
osity
▁neuro
▁depletion
▁pregnancy
ighted
▁1987
quid
echn
▁islet
itals
usate
▁guinea
▁30
▁fibrin
▁PT
▁fibrob
▁differentiate
bral
▁3.3
▁glutamate
▁dendri
▁breathing
▁latent
▁differed
▁contralateral
ocytes
centr
▁uro
▁transcripts
▁HR
ogra
▁5'-
orectal
▁Leu
▁survival
▁depressed
▁persis
hea
kDa
▁organic
▁3.9
ochondr
▁prospective
timulation
asone
itonin
▁nerves
▁diminished
zard
▁impairment
▁arrhy
▁systemic
▁purified
▁Clinical
▁dosage
▁coli
orrh
▁numb
.0%
▁24-
tine
zyme
usp
(1
▁steroids
-1-
amate
▁dete
selec
▁spinal
▁erythrocy
▁300
tivation
▁influx
000.
ginine
▁severely
▁140
▁marrow
▁polyp
▁carcinoma
tein
▁1:
▁cutaneous
▁infectious
▁0.9
▁cathe
esium
▁percutaneous
▁catechol
ocon
effec
glyc
▁inactiv
usive
▁metabolite
roscopic
▁hypothal
entricular
▁ELISA
▁unchanged
ctomy
▁stimulated
▁assay
osome
▁distal
endri
versity
▁regurgitation
terol
ylate
▁antigens
▁implicated
tenance
▁ischemia
▁perip
▁nmol
epam
▁mothers
transferase
▁nm
▁acute
▁compartments
▁bacteria
gesterone
▁0.001).
▁hypertro
oceptor
aryngeal
ranial
▁resting
▁2.6
▁supernat
rotic
oplasty
opa
-100
▁cytosolic
idazole
-17
invasive
▁apical
▁1.7
ayed
▁dehyd
thma
testinal
▁rup
▁47
▁genetic
tions
idin
▁scans
inesterase
45
22
▁arteries
▁retrospective
seud
▁admission
▁vaccin
osin
romes
▁dex
ometh
▁glyc
▁injected
▁4
▁excl
▁lumbar
▁ovari
27
▁sulfate
▁tobacco
▁intra
ATPase
5%)
▁phosphate
▁presum
effective
▁protoc
▁(95%
ses
erad
▁molecular
▁receptor
▁analyzed
rected
▁identifying
▁allele
4%)
oglyc
▁100
39
▁IFN
▁discontinu
▁chains
illus
▁renin
alian
▁unilateral
amycin
▁qualitative
.5
adiol
lact
acting
erox
▁20,
piratory
+,
emic
▁postoperative
itant
▁intravenous
▁soy
ocarcin
trop
▁casein
▁histologic
▁dys
▁suspected
▁laboratory
tradiol
▁biopsies
▁exhibit
▁adhesion
▁bovine
▁substanti
▁obstructive
30
tical
aneously
receptor
▁hydrogen
▁tended
hist
▁ranged
▁lymphocyte
▁angiotensin
ipr
onomic
▁fixation
450
▁stimulate
▁intestinal
ellular
▁atr
duction
otoxicity
▁35
opath
▁poten
▁proton
▁lactate
4)
▁behavi
fusion
0.0
▁enti
▁precur
▁4)
▁recurrent
insulin
▁tube
omized
directed
iatric
matched
▁80%
oscop
▁PMN
irubin
▁aspirin
▁carcinomas
▁58
0%
acchar
aemic
▁neoplas
▁plasmin
▁hypertension
aline
atients
▁41
▁0.001)
▁phosphatase
Gl
▁biop
▁microscopic
lobin
entical
illar
yel
88
▁insulin
▁17
transfer
erate
▁epithelium
throm
▁attrib
astric
2%)
▁peritoneal
▁therapeutic
▁degrad
RP
▁hypoxia
▁abnormal
▁citrate
▁enhance
4+
▁0.04
▁complexes
▁regulating
95
dered
8)
▁cys
▁substance
▁20
▁immunization
▁colorectal
acil
acts
▁rhythm
▁wk
▁disturbances
▁elec
▁optimum
▁progn
▁direc
▁deple
▁oxidation
ATP
.1%
.3
▁cen
1%)
▁virtually
▁Americ
26
osyl
DH
▁substrate
▁rheum
▁risks
▁tumour
▁inges
▁DS
olute
ociation
▁findings
6-
piration
4),
▁infections
illary
partate
▁correspon
▁reveals
▁10,
2+
▁cervical
olution
▁hypoxic
yroid
▁recons
▁conduction
inic
▁prophyl
ologous
▁auditory
▁MT
▁attributable
▁macropha
▁bicarbonate
inated
▁mum
▁challen
ordance
ucl
▁dihydro
▁lith
▁infil
▁granul
▁AI
oride
2.
sibly
hyd
pite
▁ovarian
▁measuring
▁plasm
exposed
yro
ocaine
▁0.000
▁duplex
▁mumol
turb
▁markedly
▁pyr
timal
ethylene
tabol
▁maintaining
scherichia
tle
▁epiderm
▁survived
treated
▁pancreatitis
ylase
▁liver
▁kinase
tomy
▁nons
▁prevented
▁glut
▁concer
▁postoperatively
arrhy
ropriate
▁contracep
▁quanti
yroxine
accharide
▁amiloride
rine
omotor
▁infusion
▁resul
▁uncom
▁cytoch
▁hemoglobin
▁Hg
▁ventricular
omes
ceptive
▁regulatory
▁intram
irub
▁histamine
▁knee
▁natri
ialysis
▁Sixty
▁catalytic
.6
▁discon
▁induc
rein
▁fracture
ocomp
▁20.
siveness
▁NP
▁45
▁demonstrates
▁proximal
tration
▁phorbol
▁fetal
9,
35
tituted
ariate
ofl
▁produc
▁(14
▁0.3
▁macrophages
4%
▁regulate
▁infusions
▁assis
▁pressures
atid
▁ions
tro
pig
ecu
▁71
▁dysfunction
▁reactive
▁techniqu
yste
robial
▁ect
tub
cholesterol
occus
▁33
▁potent
titu
▁reproducible
▁peroxidase
▁hep
▁HLA
LV
▁anesthesia
▁fatigue
ipine
tically
athe
lym
▁0.05
▁spor
flamm
▁decreased
▁selective
lasses
▁Treatment
▁recombin
▁immunized
▁transi
▁exposure
5,
▁imaging
▁aerobic
bodies
echan
overed
tent
bacter
▁(40
onyl
+)-
▁exclusively
▁ventilation
eight
toc
▁insufficiency
▁congenital
antial
▁toge
▁sepsis
▁struc
▁subc
▁0.02
▁intensive
plete
erence
▁retard
▁phosphor
▁stimuli
▁wheat
12
▁cystic
vul
▁genome
▁atrial
▁electroph
labeled
hydr
▁3.4
lec
▁depolarization
▁HIV
titis
▁unex
aemia
▁moderate
otherapy
▁spleen
▁sinus
rox
▁hypot
▁1989
3),
adren
▁noradrenaline
▁fibroblasts
▁differen
▁reper
▁nervous
▁placental
mentation
▁tach
▁bloc
▁100-
▁reproduc
6)
arbonate
▁37
oidal
-13
▁pretreatment
▁extre
acet
▁29
▁predictive
ensitive
▁edema
▁preven
apse
▁acetylcholine
▁reflects
sensitive
induced
▁oes
▁reactions
apamil
ergy
oderm
▁considerably
phrine
.3%
▁statis
▁ech
▁pump
▁transplantation
tally
▁inactivation
keletal
▁14,
▁feeding
atation
▁preoperative
▁73
ameth
▁cartil
▁GTP
oic
inemia
▁norepinephrine
53
▁neutrophils
▁ure
▁deter
▁bacterial
▁nodules
▁indication
▁alcoh
▁supplementation
▁metastatic
▁0.1
▁persisted
.9
▁neonates
▁healing
▁morbidity
▁triglycerides
▁mAb
▁cultured
olated
▁sero
▁4.3
▁GnRH
▁toxic
vian
▁Patients
▁mild
ifed
▁medial
BP
osynthe
▁VT
amine
FU
▁endothelial
▁35%
otype
▁ald
▁vascular
▁nerve
hypertensive
epine
▁ATPase
-19
hydroxy
▁gestational
ophren
▁perfusion
▁sodium
iotics
▁cats
▁soluble
tur
▁57
▁evoked
▁endoscop
unced
▁inters
tures
omycin
▁31
▁hipp
romycin
▁histology
▁esophag
▁physician
▁prostatic
▁differentiated
gely
▁prognostic
▁fibrosis
▁abnormalities
ocl
▁91
▁blot
▁prospectively
▁toxin
▁thrombosis
▁preparations
lusion
▁construc
fed
▁Thir
:1
▁aortic
▁4,
▁consistently
▁abolished
▁valve
organic
▁3.0
▁IGF
icin
▁analogue
dle
aturated
▁HB
bly
▁Bec
▁HSV
▁relaxation
▁hemorrhage
▁shif
trin
▁compli
▁inflammatory
azole
▁dosing
mg
▁ascorb
▁51
stim
unctional
▁dental
adrenergic
ilibr
▁PTH
▁14
tively
▁clonidine
lycemia
▁deposition
▁proportions
patients
immuno
▁preval
▁angiography
ocyte
sor
ylated
educ
▁0.0
agic
▁(25
thyroid
-6)
▁predomin
aminase
5-
▁chest
▁pep
▁mice
otroph
▁hig
▁multic
7%)
▁injec
▁subun
-1)
▁2.
▁heal
rometry
▁verapamil
▁quin
▁199
▁regurg
▁canc
▁correlates
▁limb
acin
▁synthetic
▁polypeptide
ducing
▁utilizing
GH
86
tec
▁adenosine
▁encephal
ilic
igaret
▁organs
▁ovulation
1.
lue
▁degradation
▁lipid
▁simultaneous
▁alveolar
▁FSH
2,
▁ingestion
rief
otre
▁infarction
▁7.
Hg
▁0.5
ylchol
▁albumin
▁3,
▁adults
vascular
lox
/10
▁retention
orts
▁antagonists
limb
tative
125
▁stimulus
▁0.25
ycin
▁deficiency
▁12,
▁probe
▁(3)
▁currents
▁0.03
▁monocytes
adrenaline
▁frac
▁Evidence
▁recordings
21
toph
▁250
▁symp
▁infected
▁exis
▁glycos
▁GA
▁demonstrating
-50
hydroxyp
▁Hep
ochem
ploy
▁facial
▁hybrid
▁cyt
▁succin
olved
▁26
▁kinetics
plasia
▁predominant
uppression
▁aspartate
▁65
atoid
plas
▁arthritis
hyp
▁20%
▁bowel
▁GM
▁panc
.8
eptid
ensitivity
▁tiss
▁BP
oside
gthen
ocardial
▁pancre
-2.
▁protective
▁nicotine
▁analys
usal
▁incom
▁concentrations
anine
▁0.01)
MG
ergen
▁agonists
onography
▁hepatocytes
▁estrogen
▁anat
▁horiz
▁morphological
▁lob
▁sugges
sess
tivities
▁13
▁Eight
▁asthmatic
▁Meas
rowth
▁exhibited
▁projec
sions
▁enzym
▁ventil
▁sple
▁(12
otypes
▁drugs
▁hospitals
▁throm
▁elu
38
▁cardiovascular
▁ligation
▁elastic
teroid
+-
▁presumably
tin
oscopy
▁efficacy
▁Increased
astolic
▁prol
▁4.8
▁HP
aptic
▁61
▁36
▁fatty
ogenesis
4,
▁ocular
onin
▁chlor
FN
▁0.2
▁22
▁mutant
▁detecting
uresis
▁circulation
▁excision
▁blocker
▁influenz
▁Subjec
▁peptide
▁cryp
olarization
tensive
▁5%
▁vasoconstric
▁65%
▁Fifty
lyc
mental
▁urinary
▁randomized
derly
▁strep
▁hams
trol
uretic
icine
▁preventing
▁Comparison
▁haem
▁therapy
▁refractory
thal
▁3%
▁basal
▁differentiation
lysis
▁placebo
▁(5
▁morphine
▁neonatal
▁thir
▁underg
.2%
▁neon
▁rele
▁(50
▁vivo
eak
▁dissociation
feren
▁cros
helium
▁requi
▁anesthe
▁carb
mitted
-4
▁hypox
tinguish
▁activated
positive
5),
▁synthesis
▁sham
▁cytochrome
▁thrombin
otassium
▁stren
▁tox
ureus
▁(6
▁screened
▁4-
3%)
▁erythrocyte
enal
▁2%
tak
▁gluc
▁locus
pread
▁4.
▁PP
▁inhibits
▁triglyceride
▁connec
▁pregnancies
▁defects
▁impair
sy
osine
nec
▁clearance
▁induces
▁responsive
▁18
▁centers
▁initiated
ept
▁emerg
▁complication
▁outflow
20
▁(0.0
-16
▁contraction
▁identi
▁inhibition
▁.0
▁nucleotide
▁alkaline
▁mineral
▁drin
▁5
▁calcium
athyroid
luding
rosis
ocardi
ucine
▁reductions
▁incub
▁peroxide
▁underwent
▁anemia
0,000
truc
olamine
otri
ilateral
rological
ucle
▁controver
▁cyto
▁12
tus
▁emergency
▁(19
▁49
▁residual
▁duodenal
thyl
▁2.4
▁extrac
operatively
0,
lytic
0)
▁ana
gans
▁respiratory
▁cranial
genic
▁[3
▁mitral
▁0.05).
▁aorta
▁endocrine
▁0.06
lys
▁lateral
▁horm
▁creatinine
▁vesicle
gland
▁decline
▁TC
thmatic
▁acetyl
ithi
▁rabbits
iotic
▁5.0
▁chromosome
spective
▁somatic
56
helial
▁diets
benz
▁pneumonia
▁scanning
oglobulin
▁regulation
▁immunoreactive
▁rhe
▁cortic
acted
adder
▁medication
▁mL
▁histological
▁isch
▁normotensive
▁athe
3)
4).
▁diet
▁embry
ondr
hydrox
resistant
▁0.05)
osamine
produc
▁mV
rolog
arly
▁1000
▁inoc
▁decarbox
▁platelet
▁bladder
▁Plasma
▁aspec
▁objec
28
acrylamide
▁tryp
23
▁20-
▁thyroid
opamine
▁clinically
▁mutation
▁vesic
▁selec
▁sour
▁intub
▁qualit
▁mM
sibility
acetic
otoxic
▁prednis
sion
▁intrav
▁centr
▁pathologic
▁promin
diabetic
▁27
ositi
▁carriers
ereb
▁phosph
▁duoden
▁inhib
osus
-1.
olysis
ologically
▁congen
▁obesity
▁abnormality
▁laser
▁conges
▁40
,000
▁inhibited
▁2.8
▁necrosis
ulph
17
aminop
60
▁complic
▁3.1
▁neuronal
▁0
▁micrograms
▁6-
▁tumor
MN
▁surgery
oretic
▁ventricle
idase
RF
▁intestine
▁affinity
▁mitochondr
▁elevation
sistent
▁meal
▁nutrition
▁1.5
▁undergoing
-8
▁examinations
3).
▁(1
ficial
.4
▁remo
ulose
peptide
▁onset
▁attemp
respective
▁phenyl
▁traum
▁metabolism
-2)
▁treating
▁vag
▁nutritional
orepinephrine
▁interleukin
▁localized
▁bronchial
▁scre
uble
▁oxytocin
planted
urther
▁elderly
▁bone
▁3)
▁oste
▁90
▁questionnaire
NH
ovine
▁16
-5
tural
sulf
▁myc
tussis
▁antic
▁secretion
ration
▁peptides
▁sperm
▁6,
▁(17
▁declined
▁reveal
gth
▁94
▁limiting
toxic
▁regar
▁Twenty
14
▁drain
8%)
▁5-
▁ejection
▁pathway
▁antibodies
▁illness
▁recipients
▁antibiotics
▁maternal
▁offspring
grees
ecyl
▁severity
▁analyses
▁fluoride
▁diabetic
▁86
ults
▁syndrome
▁esophageal
▁fever
▁25%
assi
▁pituitary
▁PG
▁concomitant
▁synaptic
achid
▁cigarette
▁electrophoresis
atinine
▁metastases
▁saturated
glut
tinu
duc
RNA
oneph
armac
/3
▁aggregation
bearing
▁acidic
▁bypass
▁pate
asal
▁deoxy
▁assessing
atitis
100
▁renal
reactivity
▁practition
▁32
tional
▁hydroly
▁stric
elec
▁sti
▁intracranial
▁2,
▁labeling
▁focal
▁cultures
▁operative
▁PI
0.
ochrome
▁5.
▁amn
▁nitro
▁ey
▁deterior
ocytic
odal
retin
▁substrates
▁68
▁arterial
▁ae
terone
▁bip
CSF
▁regulated
▁hepatic
ropathy
ensi
adequ
▁myel
romy
▁ulc
itrate
tious
▁90%
ipramine
▁pneum
epithelial
▁53
▁1986
ranolol
occal
▁caffeine
▁fractures
▁femoral
▁extracellular
▁chor
▁heterogeneity
▁incorporation
intestinal
▁cortex
acr
▁ambulatory
▁reductase
▁docum
ffeine
2/
▁retin
▁subjective
▁effectiveness
▁effec
▁7%
▁infec
dose
▁vein
tents
▁1)
7)
oes
▁depression
▁pigment
eptide
▁39
▁transplant
▁19
▁glomerul
oids
▁PD
▁cytos
▁accep
teroids
▁aspir
nai
▁capillary
▁collec
▁exceeded
leukin
ovirus
▁ischem
▁lowering
▁7,
protein
▁membran
▁gastric
ications
▁instr
acetyl
▁brom
bac
▁immunoglobulin
oluble
▁IgG
3%
ercise
▁benz
8,
otides
ylcholine
▁determining
▁spon
▁(20
▁adherence
▁calor
▁neutroph
▁relap
▁repor
▁adap
▁pig
ardia
-80
.7
ofluores
mediated
▁susceptibility
rates
▁fibres
▁sequenced
▁inhibitors
1,
▁15%
▁5.5
▁chronically
▁respon
entric
▁staining
▁mammalian
tance
▁immunos
ophil
iloride
▁sulf
▁adequ
spectively
ilized
▁(10(
▁eryth
amuscular
▁1.8
otting
glutin
enic
opres
amous
sive
▁metabol
▁200
▁dye
▁establ
▁implic
rologic
itin
▁serum
▁hypo
▁obese
▁multiv
actin
ograms
▁HL
opic
ectomized
▁hemorrh
▁previ
ypical
▁incidence
activated
ophys
uron
▁kDa
▁granules
▁3.5
LDL
▁incubated
▁mitochondrial
hion
▁Significant
lycerol
derived
openia
▁adminis
▁lumb
unctions
ritin
▁75
▁6%
▁bic
okine
▁circulating
▁atten
rease
amus
▁bilateral
500
viral
▁testis
▁intrap
tiv
phic
▁lungs
▁brush
▁diagnosed
▁polymerase
▁elimination
▁noc
▁intermittent
hetamine
8.
▁recr
cepti
lastic
ostatin
▁enzymes
▁insertion
mediately
ogenicity
uric
▁displ
lux
▁urea
▁reperfusion
▁colony
hydrop
▁400
phosph
▁muc
tized
▁donors
▁10-
tabl
▁specimens
idne
▁adip
iol
▁leuk
crip
▁-0.
asic
▁shor
▁7.2
▁6
olec
▁plac
/100
▁systolic
orbol
▁irradiation
▁(18
▁thereafter
oA
▁70
sA
ture
▁contractions
affec
▁suspension
▁axons
▁influenza
▁pertussis
amination
▁squamous
flammatory
▁excretion
▁chemically
▁ester
▁instrum
▁indomethacin
molec
-1
luores
ulum
ffinities
oclonal
▁increas
▁volunteers
esic
▁peripher
generation
▁baseline
▁(15
▁rats
▁diastolic
ymptomatic
▁97
▁mening
plantation
▁30%
▁phy
▁calcitonin
▁electroly
▁micros
57
▁sensitivity
otide
GF
▁synthesize
▁ultrasound
urea
clin
▁(16
▁patches
▁cyclase
-20
▁1.4
▁lesser
▁pyl
queous
▁tissue
▁homologous
▁45%
▁ml
▁paralle
ostatic
▁mucosal
▁antib
▁echocardi
▁malignancy
tial
▁viruses
▁ultras
▁perox
000
▁50%
▁hydrolysis
▁Hz
▁wound
▁examination
▁4.6
▁variability
ylic
▁glucocorticoid
▁idiopathic
▁polymorph
tran
acrine
▁unaffected
▁secretory
▁indus
▁adjusted
▁adoles
▁83
▁PGE
forming
]-
▁66
▁retic
▁MRI
▁trials
▁clones
ayers
▁plas
lasts
▁transient
▁compounds
arent
3,
▁inversely
▁(1)
assay
▁chick
▁terminals
lated
ocamp
▁nig
rated
▁cumulative
▁restric
asive
▁epit
respon
▁seiz
1).
▁chemotherapy
▁endothelium
lymph
▁assays
▁nonc
▁MIC
▁vitro
▁airway
▁hybridization
▁pregnant
ocellular
▁Calc
▁3.2
▁amino
▁seroton
▁monke
▁mellitus
▁accurately
▁amplification
▁tetr
titution
▁osmotic
▁plateau
▁veins
floxacin
▁smoking
▁(11
amines
obl
tained
phosphate
▁antagon
▁indi
▁42
▁diabe
4.
▁Overall
▁2.0
stimulating
amethasone
▁esters
▁somat
▁precursors
▁altered
▁coeff
rents
▁Serum
▁expressing
▁analges
ithelial
▁immun
▁arter
▁BM
rogenase
2)
▁murine
▁junction
estern
▁adi
6%
idation
▁1.6
▁85
requ
▁superficial
▁diseases
.2
▁cessation
▁differe
15
90
▁retur
-2,
▁embryos
tured
▁prostagland
▁trypsin
▁AIDS
▁transferrin
brom
tron
▁neutrophil
▁5)
▁structural
▁correlated
yrox
▁76
▁phenomenon
▁acces
▁caud
▁mediated
lood
▁rectal
semb
▁tes
motic
▁3
▁surround
8).
▁pmol
▁hyperp
▁198
▁PCR
▁pathogenesis
▁ferritin
▁ventric
▁contractile
▁79
▁48
▁IgE
ocar
▁coagulation
acement
-18
▁inh
▁2.2
alact
▁30-
▁prono
▁phospholip
▁fetus
▁cloned
igible
▁adenylate
kely
tox
▁hetero
henyl
▁ranging
▁-1
▁uptake
▁thickness
carb
teral
till
mia
6,
eled
absorption
▁spontaneous
▁membrane
▁2)
plic
▁maturation
aturation
▁160
▁parathyroid
▁resec
▁synthe
treatment
ophilic
▁colonic
dominal
▁(30
plies
xia
orac
opl
.6%
▁compound
duced
▁HPV
▁cytotoxic
-60
▁resistant
▁NH
ontal
tiz
▁collagen
▁triglycer
▁steroid
▁Fc
▁mitochondria
▁tric
▁34
▁physicians
▁splen
▁genes
▁residue
natal
▁Thirty
otomy
1/
▁lidocaine
leu
▁methionine
admill
▁hyperplasia
▁kine
▁consensus
▁percentages
▁fiber
▁permeability
affected
▁retinal
iminary
renol
ociated
▁chloride
43
▁proliferation
otrexate
▁125
▁GH
24
dehyde
▁rheumatoid
▁creatine
-6
eration
▁84
eroxide
▁thym
▁LV
▁grafts
fected
▁histopath
▁carotid
▁28
▁bacter
▁glucocortic
▁reflex
7,
▁ganglion
▁acet
▁assessment
▁satis
▁25-
▁150
▁oxy
▁ligand
▁1-
▁23
sively
▁10
▁postin
bladder
▁suppres
▁contex
▁sarc
oxide
▁derm
▁conjunction
resist
▁leukocyte
achol
▁bile
▁responsiveness
ritis
teine
▁interf
▁disturbance
▁cyclic
roximately
▁nM
venty
ocortic
▁stimulation
▁fluids
▁Forty
▁gamma
opressin
▁deterioration
▁130
▁tachyc
▁vesicles
▁subunits
▁synthesized
▁80
▁omega
▁supple
▁mRNA
▁titers
▁wee
.0
ateral
▁conductance
mega
▁symptoms
ignificant
▁characteris
▁2.5
▁remission
▁acids
▁Compared
▁mechanisms
▁exogenous
▁malignant
75
partum
▁defec
▁gradi
▁3.8
▁competi
▁92
▁reversed
▁erythrocytes
▁62
▁(9
▁regimens
▁electr
▁6.
tation
ogenic
▁chol
olone
▁weakly
lyl
luded
yrid
roscop
▁progressive
yridine
.9%
▁fibrillation
-1).
taining
▁64
▁achie
▁electrodes
▁inhal
25
urys
▁microns
ygen
▁symptomatic
tiveness
▁Dop
▁ery
oxy
▁normo
▁spont
▁Staphylococcus
trover
▁reticulum
methyl
▁neph
RH
9%)
▁amo
olip
▁wash
itol
▁vitamin
▁residues
▁latency
veness
iability
▁suppor
▁shorten
▁menstr
Cs
▁PB
▁pregn
LH
renal
▁IgA
▁cholesterol
sized
▁24
▁reviewed
pendent
▁2.3
erated
▁venous
lycer
▁clus
▁judged
▁splenic
▁1,
ctive
▁fati
▁hyperg
▁doses
▁excre
▁perfused
▁HDL
drug
▁TP
▁hormones
▁hydrox
april
▁reproductive
▁rhy
▁subcutaneous
▁atrophy
▁hypothalamic
▁chronic
▁progres
assium
▁favorable
stimulated
▁advan
-2-
▁filtration
▁enhanced
/2
roxim
▁mann
▁epithelial
MV
▁HA
▁gels
▁3.7
▁concom
▁amph
44
▁implants
▁consecu
itamin
▁replication
terase
▁strategies
▁examin
▁mutations
essation
2).
tagland
▁binds
▁ratios
▁angioplasty
▁(4)
18
(+)-
illin
▁inflamm
▁incorporated
ymp
▁kinases
tum
▁pulses
▁diagnosis
▁metabolic
▁85%
▁drainage
▁1.0
thmic
▁microscop
▁enhancement
kinase
owever
▁lumen
▁tuberculosis
▁quantif
▁endometrial
48
▁pleural
▁hypotension
▁benign
55
▁prognosis
▁5'
trial
pir
▁fractions
angl
pH
orbent
8-
▁adop
ohyd
▁15
▁responded
.4%
▁enzymatic
▁fibers
▁nucleus
▁limbs
▁59
▁transcrip
▁pH
▁glands
▁78
▁nec
▁regimen
▁actin
ogl
adm
thmias
-25
▁biological
immune
▁potenti
▁dissection
▁Neither
▁adverse
▁intraven
▁1.1
ortic
▁pelvic
▁determination
tric
associated
pinephrine
▁agon
▁cef
▁bac
pecific
0%)
stolic
▁comparable
ophy
▁(0
▁95%
ronectin
▁72
▁glutathione
▁Clin
avail
onary
ocys
ocial
ergic
▁diffic
▁oxid
onucle
▁hypers
31
ingle
▁subgroups
trical
wenty
▁biosynthe
▁experimentally
▁discrimin
▁arth
▁tissues
elves
▁120
LISA
▁preparation
trum
▁reac
▁dox
xate
▁acetate
▁MI
▁hepatitis
ocytosis
esthe
▁chan
cine
▁compartment
▁affecting
▁zinc
entif
▁dimethyl
▁deficit
▁overl
▁adenocarcinoma
▁investigated
odies
▁recor
▁93
siological
▁cereb
▁untreated
tension
idity
rhy
▁surf
5.
▁1%
▁81
▁proteins
BH
▁PE
▁60
▁LD
ffec
▁tolerance
ilep
▁withdrawal
orption
▁androgen
▁9
went
ditions
.7%
gative
kine
▁mature
mong
▁lesion
▁cerebral
▁hepatocellular
▁isolates
▁cate
▁(3
▁cellular
iant
▁reactivity
tially
immun
▁accel
kers
▁depres
chlor
iotensin
ticular
enicillin
▁presenting
ffinity
▁Initi
osomes
▁labeled
▁peripheral
▁Hear
▁cortisol
ogenous
▁eti
incip
▁Recently
▁perin
▁(24
▁olig
oresis
mol
▁54
itus
▁manifestations
omethacin
▁tolerated
▁clinic
▁dors
arge
▁testosterone
ymme
restricted
▁vasodil
▁impaired
6.
▁cytotox
▁inadequ
▁recur
▁aging
istar
▁biochemical
▁(4
tivity
▁98
ompan
ronch
▁excit
ectom
▁commerc
▁gonad
ospitals
trac
▁cyclospor
▁AMP
)2
▁propranolol
ophageal
atient
▁conduc
▁malign
anol
anding
▁hepar
7%
▁trauma
▁paras
ially
tracted
rosine
▁balloon
▁allergic
36
opes
▁69
▁glucagon
▁lact
oracic
coh
sia
▁decarboxylase
rotid
▁substitu
atible
▁0.8
▁uter
6%)
▁pharmac
▁mobilization
ching
32
▁2.1
▁endot
▁invasive
▁puls
▁molec
osterone
▁12%
lobulin
▁enzyme
▁complications
▁muscles
monstr
itoneal
▁0.
▁cardiac
aced
▁aqueous
▁GABA
▁antigen
▁mono
adian
▁perme
▁glomerular
▁pediatric
eric
▁subjec
▁Increas
▁methyl
▁questionnai
▁mucosa
terminal
▁exchan
▁oxidase
omal
▁functionally
▁expiratory
▁8.
▁thems
▁disorders
arb
-24
▁weekly
▁antiserum
▁temperatures
▁surge
▁homogen
▁occurring
meth
▁vaginal
▁8
plants
1%
▁Hb
bumin
▁facilit
▁monitored
▁2.9
3-
▁44
oprol
9%
sych
▁compliance
▁reversible
▁distin
azol
▁coag
embrane
▁discus
▁transcription
▁equilibr
▁promo
dition
▁meth
▁perc
29
kines
HB
▁pronounced
tage
imens
▁etiology
opathic
/6
2;
▁myocardial
▁absorption
BG
shaped
▁chromatography
66
uoden
▁lacking
/1
otropin
oxid
▁1.9
▁exposures
uscular
oconstric
▁tumors
1),
▁(2)
▁choline
▁immunosorbent
▁prostaglandin
ressed
▁contrac
▁phosphorylation
▁CSF
loxacin
▁amin
ulatory
▁1/
.8%
▁kidne
▁enhances
▁lymphocytes
aired
erative
▁carbohyd
▁luteal
▁receptors
▁turnover
enteric
▁arti
▁occlusion
▁monoclonal
iable
47
▁0.7
ifferen
▁injur
▁(0.
▁localization
▁adequate
micro
▁stu
▁reticul
▁gradual
-3
-1,
linked
-9
▁Escherichia
▁sten
ovascular
▁vaccine
▁Afric
▁comparative
▁anomal
▁indications
▁heparin
▁leukotri
▁preferen
▁detectable
▁cere
▁gonadotropin
▁clon
▁immuno
▁lipoprotein
▁50
5)
osomal
bility
▁pharmacokine
▁radiol
7).
vents
ucose
▁epidemi
▁administered
▁75%
▁morphology
ipit
minis
▁enlarge
▁psychiatric
▁cirrh
▁guan
▁tooth
oxin
▁initiation
▁conclu
▁endogenous
arrhythmic
▁supra
▁2.7
▁10.
ologic
▁agonist
▁idi
▁Whereas
ulant
▁gestation
▁surgical
ensity
▁cruc
ectomy
ynthe
0.5
▁saline
▁oral
olytic
▁13-
▁biphasic
mittent
anking
▁(7
▁95
athione
itone
▁continuously
▁predominantly
▁dramatic
▁phosphatid
odiaz
radi
▁beats
▁characterized
▁termination
▁predis
▁implications
37
▁donor
1)
▁salivary
amide
duce
EA
otoxin
coun
▁intrac
▁opi
▁intermedi
▁microgram
▁capsule
▁quantit
tensin
oplasmic
▁epid
▁injuries
adrenoceptor
thmia
nthe
▁glomer
▁synap
▁0.00
4-
ubation
▁subjected
▁cognitive
▁biopsy
▁mg
ellar
deficient
ignific
▁neurons
ographically
hemical
sectional
▁stenosis
▁alanine
▁efflux
▁arrhythmias
▁infar
▁nonspecific
16
▁urine
ylation
3.
sis
odynamic
versely
6).
alc
▁-2
ometr
blind
▁iod
rous
oxygen
orec
▁discharge
mented
▁rejection
zymes
▁innerv
▁sustained
▁iso
onuclear
▁3.6
▁12-
▁myocardi
ophag
▁nitrogen
▁kinetic
▁nasal
▁ECG
▁nursing
▁artic
▁pancreatic
▁incubation
▁precursor
▁inflammation
▁FEV
▁immune
▁TSH
5).
▁dorsal
▁respec
▁pulmonary
▁anxiety
ropha
▁myosin
▁43
▁hypothe
enzyme
▁52
otox
▁56
▁10%
▁EG
TG
▁substantially
▁lowered
▁treatments
ycl
▁stomach
▁targe
▁physiological
athetic
▁prolactin
▁strain
▁Insulin
▁25
▁immunore
▁carcin
BV
veolar
▁abor
▁specificity
▁vaccination
wes
-15
▁abdominal
▁obstruction
▁hemat
▁63
▁7-
▁copper
▁trend
▁dose
menopausal
2),
affinity
▁3-
▁serotonin
▁undergo
▁hypothyroid
▁investigations
▁cortical
▁tyrosine
▁posi
▁lutein
▁cryst
▁tubercul
▁dele
▁platelets
apeu
▁asymptomatic
▁affinities
vation
vely
▁detec
ocor
▁dopamine
▁sensory
▁fetuses
monary
rele
▁membranes
▁3'
▁bilirubin
▁interferon
inally
▁phenotype
▁examined
itr
controlled
▁sympathetic
tingu
traction
▁linearly
▁cyclo
▁transfusion
▁ADP
▁leukemia
▁embryonic
operative
greater
50
▁strains
▁tension
▁postnatal
▁hypog
▁provid
▁orally
▁beha
▁(2
fib
urine
eces
ethyl
otyp
9)
70
tice
7-
▁allergen
nRH
▁Immun
▁melanoma
8%
trition
▁4.4
▁anticoag
otor
tive
▁21
earing
▁sediment
▁skeletal
▁sensi
estis
▁aureus
▁toxicity
▁absorb
▁longitudinal
▁modest
oplas
▁100%
oglobin
releasing
▁lesions
median
.1
▁melan
▁usefulness
▁constr
▁reflec
▁plasma
▁mutants
▁autoimmune
▁0.6
▁4.1
▁prevention
