▁PMA
▁5.2
▁progen
▁14,
▁extracellular
aline
coh
ozo
▁genomic
▁precursor
▁Treatment
▁2,
▁iso
osine
radi
olarization
▁excre
bly
piration
acted
▁sci
▁13-
▁protease
▁edema
aryngeal
idespread
▁inositol
▁potenti
▁2)
▁tubules
ucine
ture
romycin
entral
▁(20
▁phospholipase
▁anae
benz
▁septal
oconstric
▁provid
▁seizures
fts
▁adenocarcin
▁abnormality
▁ori
oxane
▁(3
ariate
▁lutein
▁conges
▁histamine
Gly
▁cultured
▁adjustment
▁140
thma
▁intraven
▁epitope
▁proce
▁suppres
ochem
.7
24
▁increas
/3
▁35%
opoietic
▁paired
60
▁immuno
▁venti
▁aerobic
▁addi
▁saliv
7,
▁.00
ophren
▁pathway
▁erythrocy
▁metabolite
asic
▁lipoprotein
uted
▁embryonic
▁resto
▁pigs
▁hippocampal
NAc
oplasm
divid
EG
▁dendri
▁thyro
queous
▁metabolic
▁sensi
▁efflux
▁donor
▁(3)
tention
angl
▁Hg
▁cyto
▁hydrolysis
carinic
▁histological
▁excision
▁femoral
▁TGF
▁elastic
pinephrine
▁supra
▁prophyl
▁proteins
rates
▁LPS
▁canc
▁arteries
tron
25
▁irradiation
inhib
▁enal
ofl
▁DH
▁0.
tents
▁mammalian
▁immature
▁proteoglyc
▁Doppler
▁brom
grees
▁targe
eces
▁cutaneous
1)
ffe
▁glutathione
▁Sixty
▁94
ovine
▁receptor
adrenoceptor
▁conjunction
▁metast
▁potentials
4%)
ontal
▁incubated
▁hyperp
5%
tein
▁granule
▁79
tig
▁chromatography
▁10,
▁amplification
▁heme
▁serum
xia
▁prostate
tial
▁operative
▁comparative
▁acqui
▁advan
▁antigens
▁obstructive
/6
▁(4
▁subun
pH
▁yr
ygen
▁morphology
▁NF
▁mice
phosph
▁2.0
▁uter
▁fibrinogen
encephal
▁(10
▁relap
NH
▁regar
▁influenz
ietic
▁37
▁propranolol
▁motone
odies
▁cerebral
tained
spectively
▁synaptic
▁0.05).
▁interc
18
▁reproducible
anding
▁-0.
ocortic
monstr
versely
onc
▁prenatal
▁responsive
▁0.01).
▁neph
35
▁substitution
▁extrac
▁methotrexate
-9
▁deficient
/1
▁10-
▁3)
▁AMP
▁determinant
7).
▁bene
▁9
▁neonatal
lasts
▁etiology
clonal
▁prol
▁spati
yrid
▁defic
tensin
ituitary
-2,
▁gastro
timulation
ylcholine
▁0.00
▁compartment
ffeine
▁tas
▁(5-
▁casein
▁(1
▁heparin
▁Bac
▁cytotox
▁tended
▁creatine
▁36
▁ovulation
▁vasopressin
-[
▁LV
▁anastom
orectal
▁deposition
▁impair
pig
inflammatory
0,000
rein
▁glut
scherichia
▁cyclic
lym
▁exposures
▁scans
▁mM
▁fluoride
omal
bacter
▁TSH
▁retrospective
▁construc
immuno
enteric
yel
oscopy
rected
associated
▁32
▁guan
▁enl
tead
3,
Leu
▁obese
▁aggregation
.0
▁bilirubin
▁oes
▁subgroup
protein
olated
opa
▁devi
▁5.
▁24-
chlor
dominal
▁correlations
▁retin
phosphamide
▁Binding
▁61
▁discharge
▁rabbit
phosphate
▁125
▁bronchial
▁therapeutic
29
orphin
▁chond
acrylamide
tics
▁alveolar
▁alteration
▁predominantly
▁0.4
ethyl
▁thal
▁colorectal
meth
▁hemat
▁identif
▁lar
oxic
▁aden
▁Mn
MV
hion
apeutic
▁mitochondrial
▁derivatives
vices
vation
▁7
▁65
oxin
ropine
▁recipients
urons
otypic
▁frontal
tured
luded
▁envelop
urgical
▁6-
▁nutritional
tine
▁pyruvate
phyl
▁behavioral
▁lymphoma
▁transient
▁9-
▁48
▁melan
titu
▁potent
▁actin
▁75%
ctive
▁additive
olol
85
▁intrinsic
viral
▁100-
▁paren
▁irrever
▁tolerated
chloride
openia
▁inhibitor
▁diffic
▁loci
onuclease
▁glutamate
▁noradrenaline
▁soy
estig
itus
▁spinal
oderm
▁spectroscop
enic
opro
▁experimentally
▁malign
▁trache
▁defective
▁hydroly
▁efficacy
▁4%
roscop
rhy
ogenic
0.
operatively
▁inhibition
otomy
▁55
▁glomer
▁endoscop
▁histology
yro
17
▁adren
▁epiderm
ensitization
▁demonstrates
▁HC
▁HLA
2).
▁progression
obarbital
▁Increased
▁abnormalities
▁stimulation
TNF
▁immunobl
▁elicited
ylation
orac
tomy
DH
▁biochemical
▁predictive
▁assemb
onary
▁estradiol
▁defec
▁maturation
plasia
oprote
▁coag
lated
▁vaccination
hydroxy
▁fibroblast
▁esophageal
▁nucleus
uppres
cells
ionine
▁ech
▁caffeine
ocytosis
▁congestive
▁198
irub
▁functionally
▁0,
acetate
▁0.001),
▁Fc
▁5'-
39
▁epithelial
LH
▁carbohyd
blind
▁biop
▁29
▁glomerul
▁ane
ginine
▁tyrosine
independent
▁residues
▁Hz
▁reser
▁pyr
▁glycol
orpor
stimulated
▁anaesthe
-1).
▁systemic
ifed
.8%
▁PCR
▁inten
ohyd
▁19
tility
eak
▁antagonist
▁cerebellum
insulin
▁mononuclear
uminal
▁manifestations
▁suppressed
rotid
▁coval
▁contrib
vitamin
6-
(2+)-
▁hypox
▁aspirin
▁epidural
▁8.
plantation
taken
renal
▁lectin
▁(19
▁angiotensin
sA
▁sugges
▁maternal
▁colonic
▁diabe
labeled
trol
▁6
-80
▁120
▁Chan
▁chromatin
diabetic
▁proximal
▁13
estions
▁junction
ilibr
▁simplex
bearing
▁positively
icine
inergic
▁indomethacin
▁VIP
▁lith
▁mRNA
▁PF
ipramine
▁ECG
BH
tration
keletal
▁cavity
obarb
▁adenocarcinoma
▁antiarrhythmic
▁disturbances
▁numb
▁sucrose
▁probes
epithelial
▁inh
▁hetero
till
anking
▁papill
otroph
▁(95%
▁40
▁reacted
10
▁pathologic
▁multivariate
▁15
▁transi
▁tachyc
invasive
median
▁cervical
▁accumulation
▁aspec
▁responsiveness
▁PV
▁placental
▁refractory
▁peptides
affinity
▁mitochondr
inesterase
epam
nai
-5-
otide
ignificant
▁inotropic
lycer
ocomp
▁95
chymal
-12
▁secreted
▁cystic
▁sediment
▁infar
tative
▁triglycer
▁herpes
romes
▁0.01
▁hepatocytes
▁gluc
▁galact
▁developmental
idine
▁nephropathy
▁fibres
▁3.1
▁comple
▁4.8
ophilic
ipine
▁discon
▁59
▁murine
-2
▁determinants
▁incubation
▁tib
▁metastases
occus
▁hCG
▁derm
99
ilized
28
▁Thy
▁TRH
▁hydrophob
virus
▁epidermal
atation
▁outflow
vents
▁83
itone
▁somatic
▁erg
▁ouabain
▁localization
▁binds
▁pall
diastolic
▁hams
▁phy
▁standardized
tum
▁displacement
▁malignant
olip
teroids
▁steroids
▁ure
▁objec
▁vaccin
▁scre
▁3.4
▁1.7
lue
throm
▁intensive
▁3.7
▁tubular
▁cortic
▁permeability
urrent
ulant
ritis
▁econ
▁morb
icin
▁distrib
▁Km
▁plasmin
▁entero
-2-
▁simult
▁physiological
trition
ipr
▁posi
75
▁hydrophobic
▁familial
rangement
tural
dose
ergy
athetic
rele
ositi
▁toge
▁substanti
450
▁converting
nthe
▁EBV
▁chloride
receptor
olism
▁immobil
-20
lastic
▁recor
▁preferentially
▁64
▁lethal
▁hepatic
▁lysine
▁ultim
▁variability
▁preven
▁memb
▁NMDA
▁nec
▁carcin
olateral
feron
tries
eration
hetamine
▁lipids
ectomy
-11
osin
▁immunohist
▁0.0
▁proteinuria
accharides
▁35
▁fron
▁saline
Nase
▁infil
▁differe
38
orbol
▁surgically
▁gon
usate
▁vascular
tiv
ATPase
▁wk
▁3.8
▁monocytes
rosine
▁veins
9,
▁DF
▁differentiated
▁dysplasia
▁hippocamp
1%
▁replic
▁phospholipids
▁SHR
▁fati
▁impaired
▁perfusion
1.
+/
tisol
▁induces
▁1.
intestinal
▁ELISA
risk
▁natriuretic
oreceptor
estis
idation
mental
▁follicles
RNA
▁chec
atest
▁mediate
▁analges
ergency
▁offspring
ATP
▁sequenced
▁tox
▁bip
oreactive
▁soluble
genic
dition
ctomy
▁haem
▁hepar
▁inoculated
▁utilization
▁pharmacokine
▁blot
▁1.9
▁smokers
iatum
▁ANF
▁incom
umerous
▁synthe
arate
▁striatum
▁mmol
tructural
▁kinetic
idase
aemic
▁(1)
drug
▁supernat
▁alkaline
▁controver
▁islets
▁regression
▁atheros
sulf
▁(14
etitive
▁spectroscopy
ocaine
▁1.5
▁sequential
▁testosterone
robial
▁lamin
2+.
erent
2318
▁colonies
▁pancre
▁elevations
▁18
otoxin
seud
8,
ylase
fused
86
oxone
▁implicated
▁verte
cholesterol
▁hypertro
tional
▁undergone
▁coated
▁(15
vian
▁collec
cine
▁1990
▁lyso
▁perfused
▁cholinergic
▁ineffective
▁aspartate
▁prostaglandin
▁clamp
tive
adder
omotor
eded
sions
▁dete
23
▁implanted
▁encephal
▁virtu
▁(7
crip
ints
▁clinically
bral
▁physicians
▁23
▁cruc
▁fibrosis
▁bolus
iol
▁libr
▁spon
▁PKC
▁promoter
▁39
▁3.2
▁muc
▁emerg
▁monoclonal
▁dialysis
erence
▁atrial
erents
leb
0.0
▁infusion
▁regurg
▁68
▁77
'-
tussis
▁reticulum
▁disrup
▁complication
▁catheter
kephal
▁biopsies
▁HSV
sia
▁optic
produc
ylate
▁endothelium
gely
essel
thmias
minis
▁detec
adiol
▁subunit
tens
▁0.1
▁livers
▁heterogeneity
▁0.03
lasses
▁acidic
siological
▁consis
▁nasal
▁angina
▁airway
▁insulin
▁measurable
ypical
opus
▁interstitial
elves
▁epidemi
Hg
thyroid
▁CG
▁glycoprotein
ignific
agic
▁93
inally
iary
▁BP
▁lysosomal
incubation
thmatic
rophy
▁dietary
95
▁retention
▁lipid
▁correlate
ociation
▁peri
▁immunized
ochondr
2+]
▁Afric
▁(13
▁transcripts
spective
▁histopath
partate
aneously
▁thrombin
osomal
▁excitatory
sectional
▁follicular
▁inser
▁catalytic
▁neutroph
▁circulating
▁expiratory
▁immunore
2%)
27
▁Plasma
▁1,25
orrh
▁limb
▁mAb
ration
▁hydrochloride
olone
-1,
▁thereafter
tric
▁neurologic
▁brainstem
7%
▁macrophages
rocy
▁ethanol
11
▁hypot
▁neurons
▁epsilon
▁CTL
amphenicol
molecular
▁cytoch
mediated
▁cDNA
▁olfactory
▁1/
FU
urea
▁4.5
48
▁Measure
titial
▁1.1
▁LDL
20
▁0.05
▁acetyl
▁6.
▁secretion
▁33
▁25
▁endometr
16
▁spleen
▁69
▁perme
turally
acr
ighted
▁sham
▁penicillin
▁[125
▁adap
▁1:
azol
▁membrane
▁tiss
70
▁polyp
▁hypertension
▁urinary
roscopic
▁mimic
vely
▁(0.5
▁199
2+-
▁cartil
▁arrhythmias
▁kinase
eptid
▁connec
▁sti
▁prono
▁supplementation
▁pretreated
▁54
▁irregular
ceptive
▁contraction
ardia
onstric
ximal
▁promin
plate
▁tachycardia
toph
luding
lox
▁dilatation
▁recombin
3%)
▁analyses
phosphor
olysis
▁skeletal
osidase
▁antic
▁equilibr
▁alcoholic
ubation
1-
▁deficit
▁tumors
▁cerv
▁canine
▁NMR
▁nuclei
ophageal
▁kidney
▁prevalence
▁undergoing
▁Biol
▁ulcers
oglobin
resist
galact
▁moderately
▁(2
▁compart
▁RV
▁fibrillation
▁fibroblasts
▁hepat
▁prolif
amines
▁underst
-14
▁phosphor
▁90
▁nicot
▁cAMP
▁attenu
▁sulf
jug
induced
menopausal
,000
▁congen
.0%
dehyde
usp
▁EGF
▁contralateral
▁staining
▁locus
▁AVP
▁hypotension
glutinin
rine
opo
▁lysis
▁ATPase
▁exten
▁+/-
▁1986
▁epinephrine
▁6%
lobulin
▁toxin
▁stren
▁hamster
▁respiratory
▁cohort
▁competi
▁expres
▁hypo
itant
▁IFN
▁Increas
4-
aturation
▁panc
▁antibiotic
▁antisera
9).
urys
loon
igaret
▁HDL
▁hepatocellular
▁onset
tiz
▁SEM
▁allogra
tel
sies
▁electrophoresis
atoid
▁aqueous
▁enriched
▁progn
rectomy
▁menstr
▁duct
▁persis
▁bile
rozen
▁analgesia
▁vitamin
itrate
reactivity
2-
▁oxid
tact
▁nitro
▁97
▁glial
▁agonist
oretic
31
▁fluorescent
uria
erance
▁satis
▁4.1
tability
▁enalapril
epine
▁somatostatin
▁hemorrhage
▁salivary
terase
▁frac
▁nm
-450
▁73
▁cGMP
▁abundant
opamine
▁fibronectin
▁intraper
▁8
tamine
▁quantitative
Phe
▁proliferative
cyt
▁transloc
▁ablation
onyl
▁radioactivity
▁rup
▁duoden
opoly
modulin
▁secretory
chym
▁thymidine
▁nucleotides
▁encoun
aminop
▁immunode
▁neuron
trib
▁adherence
▁phosphatase
▁organisms
▁blockade
▁junctions
osomes
▁gland
▁difficul
ducing
▁affinities
ocys
▁adrenal
sors
rogenic
flamm
asal
▁progesterone
▁spre
bility
▁Golgi
▁mann
56
▁strom
▁twofold
arbox
oA
▁drainage
▁dye
▁2.8
▁inhibiting
▁wt
releasing
amus
▁morphological
▁eosin
▁progres
▁TPA
prising
▁molar
▁preferen
trop
34
▁cortisol
ithelial
▁intestinal
▁(5
▁creatinine
▁duplex
▁regulated
toxin
▁agon
▁infused
▁tumours
▁attenuation
▁arth
▁leukotri
▁medulla
otre
▁cytokines
▁subunits
▁0
NK
▁Fifty
▁98
oluble
ifedipine
omical
romy
▁strep
▁calves
acyl
▁thym
▁myosin
tent
uron
.3%
.1%
▁diets
▁1.8
000
▁antagonists
▁neon
▁PCO
▁25%
▁refrac
tak
▁adhesion
opathic
erate
▁enamel
▁4,
▁dosage
osynthe
▁wee
glycerol
▁vein
tumor
▁estrogen
8-
tryp
▁microsomal
cence
atible
▁pertussis
viron
▁discrimin
▁dimethyl
▁occlusion
ylline
▁EB
▁phosphatidyl
▁inflamm
▁pulmonary
▁inactivated
▁demonstrating
▁mV
▁alcoh
eptidase
asive
▁leuk
▁seroton
▁250
▁BALB
owel
trin
▁TCR
▁Ig
▁prolonged
▁quin
ocellular
▁organs
▁EEG
▁lumbar
trical
hydrop
▁glycine
▁rabb
▁symp
▁CI
▁potency
▁inspiratory
tral
▁clus
▁Evidence
▁prognosis
obacter
▁cytosol
▁summ
thymidine
treated
▁enhances
duce
▁cleavage
▁polymer
▁RA
oride
▁fixation
▁sperm
tically
-3
▁400
▁filaments
positive
atif
▁95%
▁inflammatory
▁mmHg
▁adip
topril
▁unilateral
aturated
▁(50
▁antiser
▁defects
▁pituitary
▁comparisons
osterone
▁epidemiological
▁fluorescence
▁citrate
▁regulating
▁injec
▁qualit
bac
stim
▁digoxin
▁cen
idated
greater
▁3.0
▁31
▁ventricle
▁favorable
▁88
▁10
osom
derived
iotensin
▁axon
ifferen
cessive
▁reduc
▁laminin
ellar
orec
kele
▁peroxide
▁apo
▁polym
▁proportional
antial
otyp
otypes
▁ventil
▁evid
▁solub
otides
tition
▁contracep
▁inactivation
▁elic
▁hyperthyroid
anad
▁ipsilateral
ovirus
▁PGF
▁chor
▁tach
▁deletion
▁ischemic
▁Cells
heres
▁.0
▁4.3
▁hypers
vic
hyp
icep
▁50%
▁allergen
phil
▁deple
▁membran
▁lam
▁TS
anol
ticular
▁anesthetized
brain
▁percentages
▁kappa
▁fung
▁schiz
sistent
GH
▁epilep
ipit
▁Subjects
-100
5)
▁PB
▁4-
rox
▁mortality
▁precursors
▁receptors
▁focal
▁digestion
olec
lytic
tors
▁cortex
▁scanning
▁Serum
tally
▁Initi
phenyl
olgi
transferase
uting
▁heteroz
▁reproduc
▁5.6
ospor
▁3%
▁16
▁usefulness
polyacrylamide
eptides
▁exogenous
▁KCl
iae
▁Elec
▁dele
:1
natal
▁CNS
unctional
▁uncom
helin
▁ANP
ogenetic
▁pathology
amicin
▁15,
▁peptide
▁apprec
▁investigations
▁definite
phal
ocular
sensitive
▁inflammation
enal
▁identi
▁7%
acetyl
▁10(-6)
zard
tructive
▁contex
6)
▁tumour
teroid
▁regulate
19
ulatory
▁pretreatment
nitro
▁fractures
▁hepatitis
.9%
▁reflecting
▁normo
▁characteris
anthine
inic
fusion
▁concentrations
ayers
▁commerc
lyc
sibly
▁retina
▁hippocampus
▁epit
▁predic
▁islet
▁105
▁induction
duction
operative
▁mL
.9
▁erythrocyte
tical
▁vesic
otrop
▁Alz
rosis
ifug
26
▁lateral
▁duodenal
▁depolarization
tracted
ylamide
albumin
▁hap
▁reac
▁1,
-5
▁granules
43
otoxicity
▁cyt
▁chromosomal
▁96
▁hypoxic
▁intra
▁hybridization
kely
▁relapse
▁treadmill
rever
▁endometrial
acrine
▁medial
mega
yste
▁chronically
ylated
▁3.6
atine
owever
-1
▁thymus
▁PGE
▁kinases
▁intrap
apanese
adian
ameth
loid
▁synthesize
▁monkeys
resting
▁afferent
ethylene
▁8-
▁transcriptional
▁myc
minal
2+,
▁(16
▁6.5
▁25-
uric
▁arterial
▁neutrophils
timal
▁mammary
▁histologic
centr
▁exer
▁dosing
0-
embrane
▁20-
▁4.6
▁resistant
restricted
▁conductance
mol
lux
.5
ometh
▁infarct
▁limbs
esti
▁reversed
▁incorporation
IGF
erb
testinal
▁triglyceride
▁IgA
wenty
▁ligand
▁intub
▁activator
electro
Pa
▁lidocaine
abain
▁(40
▁transfected
aptic
▁RR
eroxide
▁intake
▁remo
▁43
tin
▁infarction
%).
▁plas
trated
▁acyl
▁3.9
▁respec
▁alanine
▁immunofluores
▁110
▁NGF
▁arrhy
▁(21
tioned
▁isch
leukin
ffinities
▁AIDS
▁antibiotics
ncy
▁87
▁neuronal
glyc
6%
osyl
▁41
immune
▁gels
▁intravenous
▁transplant
tages
idazole
ocytic
▁cytotoxic
▁promo
phyloc
▁balloon
▁reticul
▁crude
▁tissues
▁adhe
ronch
▁urine
▁ambulatory
loxacin
▁smo
ilateral
traction
▁eti
operox
▁rati
▁diazepam
▁sero
thase
▁aneurys
hern
▁complications
▁adi
50
▁asymptomatic
▁adduc
osts
▁choline
▁pneumon
▁99
8)
▁dex
ectin
sion
irubin
trum
45
▁ventricular
▁abdominal
9%)
▁SDS
▁lipoproteins
venty
▁10(
▁platelet
▁12,
achid
▁postnatal
oic
▁pancreatitis
▁pelvic
amide
toc
arial
acid
▁lep
▁(6
tively
▁graft
▁Bec
▁600
▁gradients
40
itoneal
dibular
▁immunosorbent
▁implantation
▁2%
▁aureus
ogenous
partum
entricular
▁hypog
▁irradiated
▁gestational
▁asymme
▁thir
▁cellular
▁rupture
▁phosphorylation
▁conduction
▁lavage
▁MHC
▁concom
taz
▁neurones
▁kb
▁26
▁amp
kground
▁10.
▁2.2
lip
7)
reased
methyl
tis
▁hyperplasia
▁(9
▁triglycerides
▁saturation
▁perin
ffinity
55
▁NADP
roximately
▁PMN
bic
▁intram
iotic
▁anat
▁49
▁echocardi
▁selectively
▁28
▁76
▁deviation
▁reductions
ophil
▁aortic
▁carbox
gia
onine
▁cumulative
▁27
gene
quisition
▁hep
▁shif
▁extre
▁lymph
oglyc
90
odiaz
oidal
▁1000
▁ovary
thym
aicin
▁preparations
cepti
▁inhibitory
▁sial
▁clearance
▁pec
▁7.2
ulmonary
▁influx
▁metabolism
▁inversely
▁verapamil
wes
.6%
anine
cribed
▁chol
▁psychiatric
ercul
▁jejun
RH
actin
▁ery
▁hypertensive
▁benign
▁hypothal
occi
▁1-
deficient
▁potassium
▁TC
▁successive
▁bypass
olipoprotein
ullary
14
▁allele
hep
▁biosynthe
▁mucosal
▁nig
▁capsaicin
oplasmic
▁exhibiting
pyr
▁detecting
▁plaques
▁transfusion
illation
chol
▁autoradi
teine
9)
2/
▁0.05)
▁intracellular
ayed
▁quantified
itin
ministration
▁deoxy
enzyme
tensive
▁cocaine
oneph
▁cathe
-25
uresis
▁intermittent
lec
ventricular
▁ultrasound
crimin
esity
▁superoxide
▁aor
ocar
ropha
▁cerebellar
5%)
▁ingestion
sively
oscop
▁rhy
▁symptom
▁clon
▁carbohydrate
▁cryp
respective
▁bic
CoA
▁zinc
.6
▁isot
ochemistry
▁potentiated
hyd
▁dihydro
▁macrophage
▁athe
▁unex
controlled
Ig
▁conformational
▁biliary
tophan
rophob
▁contrac
▁pharmacokinetic
▁bladder
▁translocation
linking
▁eluc
▁susceptibility
athe
ulose
▁linearly
▁Wistar
oproterenol
▁pathogenesis
▁hypertrophy
atients
▁complexes
ilep
▁elevated
▁ACTH
otropic
▁axons
▁adverse
▁diaz
▁1988
▁IgG
▁plex
sive
▁71
opres
▁pla
▁microscopy
65
▁hypothalamus
▁ocular
adrenergic
▁synthetase
ucl
din
▁multiv
-8)
ffin
▁Previous
▁ions
▁34
▁rejection
▁mucosa
▁fibers
▁rheum
▁forsk
3),
▁(2)
yroxine
▁acces
5.
4,
▁screened
▁Hyp
▁correlated
PSP
▁tetr
▁discus
▁experim
▁glycos
100
otting
▁currents
▁ligands
-16
generation
▁prostatic
▁preoperative
▁inadequate
▁immun
▁preceding
tabl
ellular
▁immunodef
▁pharmacological
▁enlarge
-2)
▁splic
▁pH
▁messen
▁markers
▁inducing
▁cann
tur
crib
HDL
▁anemia
▁longitudinal
occal
bumin
▁4.0
▁glycogen
▁specimens
▁(100
▁reflex
▁dissemin
▁cloned
▁0.6
ensi
LISA
▁succin
▁rabbits
▁afferents
+)-
▁glutamine
▁immunoprec
▁pharmac
ifferenti
▁(11
▁70%
mature
▁BAL
▁rats
oxid
▁statis
▁homogenates
ditions
▁gradual
osal
athione
▁isolates
april
thel
▁(8
▁150
▁ejection
▁oste
athyroid
opathy
▁10(-5)
ocamp
▁cef
▁apparatus
ologic
▁1.0
iasis
otin
▁reactive
▁phenotype
▁7.5
▁lowering
▁transplantation
▁10(-7)
ocardi
amphen
ropriate
▁excised
▁challen
▁5
ficial
inephrine
▁iod
uoden
trover
formations
▁pati
idate
▁unrelated
▁nonc
▁cation
odil
▁Whereas
▁heterogeneous
▁analysed
▁1985
ields
iversity
▁substrates
▁lymphoid
▁dehyd
▁3'
▁72
iotics
▁0.04
▁diminished
▁epithelium
effec
▁ow
▁ascorb
cAMP
ereb
▁endotoxin
▁amn
▁obstruction
ilization
▁occupational
tion
hydrox
▁facilit
▁calcitonin
▁subcutaneous
idne
▁ovari
▁bacterial
▁produc
▁leukotriene
▁metastasis
▁untreated
ilic
▁postin
▁synthesized
▁fluores
bladder
▁NP
▁influenza
▁drin
▁simultaneous
otrexate
▁hypoxia
▁tran
▁0.25
▁intestine
kinase
▁restric
▁5,
▁ranged
stolic
infected
plants
▁astrocy
▁75
▁biopsy
ogeneic
veolar
▁cancers
truc
▁GH
▁hydrogen
▁natri
▁guinea
4).
▁nitrogen
▁antagonized
3%
▁opioid
▁contractile
▁diarrhea
▁diabetic
ymme
mitter
▁4.4
▁augmented
▁stu
▁Inhib
affec
▁92
ulph
▁pene
▁recons
▁indi
▁dendritic
tivation
roxim
▁inhibited
▁possi
NB
▁(30
▁statistically
2+
▁ket
▁oligonucle
ologous
omized
▁-1
▁mutants
▁normotensive
▁biphasic
▁12-
8+
▁foc
▁ratios
▁anesthe
selec
▁cyclosporine
▁leukocyte
▁7.
▁diffuse
▁cardiac
▁44
▁interf
▁oxidase
▁remission
▁compe
▁endocrine
▁micrograms
iminary
▁vivo
nucle
▁3.3
▁plasminogen
▁elec
ymp
▁(0.
▁100
▁inactiv
helium
4%
▁500
▁3,
▁LC
▁carboxyl
▁hypothalamic
henyl
kDa
saccharide
▁uro
▁cysts
oracic
▁47
▁(18
▁perox
▁theore
▁anion
labelled
▁saturated
▁0.001).
▁inhal
▁Kd
▁morphine
avail
▁vacu
(2+
▁pyl
containing
▁practic
▁adop
onin
glucose
▁1.6
▁46
veness
▁attenuated
oceptor
▁30%
▁40%
▁concomitant
0%
▁amin
▁viruses
80
▁(22
▁HPV
2,
-7)
tual
4),
enicillin
▁norepinephrine
▁membranes
▁unchanged
eric
▁20,
▁TA
▁ACh
nec
▁retic
)2
-1)
▁injections
helial
▁20%
▁erythrocytes
▁proton
▁precipit
rologic
tase
▁infections
▁protoc
▁PAF
monary
▁pate
▁percutaneous
renol
▁muta
▁turnover
▁follic
brom
imens
▁dors
▁reflec
▁graf
53
kephalin
▁nal
▁hydroxylase
gative
▁metabolites
▁repro
▁androgen
▁[3
▁monke
▁peritoneal
▁mitral
▁serotonin
▁78
ofluores
▁parental
▁epitopes
ellum
▁antagon
tives
▁studi
▁asthma
▁hypoth
▁hyperg
▁200
▁injur
▁injected
lys
amethasone
bular
▁Comparison
illary
▁Mg
▁65%
▁combin
athy
▁infec
8%)
entif
echn
▁attrib
obl
▁transcription
-4)
▁cephal
▁intravenously
irc
▁exceeded
clo
▁substitu
otone
onucle
▁assay
▁incub
▁labelled
silon
▁stimulus
▁89
▁esophag
▁adequ
activated
▁ischem
▁basal
13
▁hormonal
▁cros
▁91
▁homogeneity
▁oxide
▁quanti
▁-2
regulation
planted
adequ
▁adenosine
▁TP
▁comprised
▁blocker
▁160
▁exis
▁sarc
▁arteri
certain
▁steroid
vice
▁elimination
▁interferon
tero
titis
acting
▁uptake
▁luminal
▁urea
utaneous
▁splen
▁occurrence
▁FSH
▁albumin
▁62
▁phorbol
▁NK
siveness
▁prostagland
▁uterine
amel
-10
lyl
aric
oglobulin
ociated
▁dorsal
organic
▁stric
aryn
▁glycoproteins
▁vasodil
▁cartilage
▁examin
▁chromat
atitis
▁reper
▁dilution
▁coagulation
uretic
▁suppressor
▁phosph
▁angiography
▁progressively
esthe
▁nM
lyce
6,
▁([
▁exce
▁Vmax
▁weakly
▁plateau
▁tubercul
▁testicular
▁ferritin
/100
▁coronary
▁residual
▁0.15
tif
▁cys
▁oxidative
▁superficial
osamine
▁2.6
esium
▁catechol
▁orally
▁projections
▁subpop
omonas
hydroxyp
tence
▁conjug
▁msec
▁bloc
▁precur
ectom
▁enzyme
▁attemp
88
IFN
▁homologous
▁benz
▁Hear
▁predicting
trates
▁methyl
▁nucleotide
plas
▁adrenergic
▁thrombosis
▁supple
▁homogene
tox
▁latent
-24
▁intracranial
uncture
▁differed
▁0.9
lycerol
▁subjec
▁bac
▁compli
▁variants
lier
Ala
▁interpre
▁ammon
mobil
▁glomerular
▁noc
ipro
▁toxicity
▁ovarian
otropin
▁blockers
/-
▁0.5
▁electrodes
▁molecules
tization
▁fmol
ucle
iloride
▁LT
ithi
erating
trogen
▁mutagen
▁dox
▁intrav
▁omega
▁regimen
elec
-1.
▁decreased
▁pulses
▁80%
▁coh
ejun
▁characterize
tinguish
resistant
assium
▁oxidation
▁synap
-19
▁(24
▁acet
ocor
▁polypeptide
.2%
▁examinations
▁neutrophil
▁fluids
▁duc
tious
▁ligation
▁synovial
▁PRL
▁0.000
▁retard
▁(12
yridine
▁bran
imin
MN
▁5.0
scher
-6
▁brady
▁agonists
-60
▁exhibited
▁GnRH
▁indus
epti
molec
▁oocytes
entical
▁300
▁neoplas
▁pmol
▁ester
acylglycerol
▁VO
▁myocardium
amycin
oxygenase
▁antiserum
ostatin
responsive
▁ald
5,
▁2.1
▁fluc
ureus
▁symptomatic
▁chemotherapy
acchar
▁vaginal
▁adenylate
▁parathyroid
thmia
▁luteal
▁conclu
▁bronch
ostatic
▁mening
ographically
▁concurrent
▁2.9
▁cirrh
sibility
▁undergo
ocyt
▁2.4
▁5)
▁unde
micro
odium
gluc
▁modulation
ronectin
▁centr
feren
2;
▁tuberculosis
▁subc
▁sampl
▁Significant
-15
trus
▁mellitus
▁electroly
57
▁kine
lycemia
otox
ocyan
ylic
(+)-
admill
mittent
▁proteolytic
went
▁mediated
▁anomal
BV
▁acetylcholine
▁pacing
acin
▁2.7
▁descending
▁insufficiency
tiveness
olus
▁expressing
orbent
ximum
3-
▁2.
tabol
lob
rowth
▁gonad
ortic
▁cytosolic
odal
▁indicators
ynaptic
▁pleural
gth
▁dissection
▁leukocytes
tures
▁mug
▁thyroid
▁ulcer
▁fas
▁acetate
66
▁acco
unced
▁Hyper
pharose
▁Escherichia
▁phosphodies
▁cirrhosis
oradi
▁sympathetic
0,
▁LD
▁ionophore
▁prolactin
▁enzymatic
ritin
▁termination
LDL
▁indications
▁53
▁cardi
▁peripheral
clin
eptide
▁enzym
▁1%
▁monkey
▁immunoglobulin
▁cytoplasm
directed
oate
▁fracture
astom
ffec
▁sensory
▁glucose
▁ile
▁calmodulin
▁requi
trate
▁apical
▁cysteine
▁1.4
ochemical
▁induc
▁regurgitation
stimulating
▁GTP
▁embryo
▁immunization
▁myocardi
oplasty
cious
▁cyclospor
▁consecu
glutin
▁interv
-4-
▁transferrin
omers
osome
36
▁lymphocyte
▁(17
▁acute
▁caudal
vity
▁100%
▁techniqu
amuscular
yrox
rease
▁cranial
▁analogues
21
ophys
rogenase
thi
▁prosthe
ropathy
▁electr
▁bp
3).
lysis
asone
▁postsynaptic
▁thoracic
15
▁mutations
gans
▁optimum
▁Patients
▁42
▁severity
7.
44
tingu
▁capsule
▁prophylaxis
▁purified
▁opi
exposed
.2
glut
▁transpor
itamin
Cs
▁shorten
▁recordings
▁oligos
▁vitro
▁lactate
▁compounds
clic
▁compartments
▁obser
▁projec
▁0.05),
▁dodecyl
▁unstable
ocytes
gland
▁postoperative
.7%
aemia
▁nonspecific
▁10%
▁bovine
▁1.3
▁cardiovascular
▁autologous
▁5'
4.
emia
▁poten
▁pep
cephal
atid
▁antigen
trial
▁collagen
▁phospholipid
riched
▁9,
▁lymphocytes
▁beha
▁supernatant
▁monol
▁implic
iability
▁85%
▁implants
pecially
▁atropine
▁sple
▁hormones
phrine
tance
retin
terone
▁oxytocin
▁lumb
▁incidence
▁Nine
▁ionic
▁direc
peptide
icardi
▁tomography
▁monitored
▁detectable
▁hydrox
▁magnesium
utable
illi
▁reproductive
leu
▁analogue
arrhythmic
▁electroph
▁11
▁1.2
▁tumor
▁ect
-3,
erated
rosemide
▁autoantibodies
▁pediatric
-6-
ordance
▁disturbance
▁15%
▁sinus
venous
▁45%
cardi
olamine
▁impairment
▁disapp
▁hemo
piratory
▁3.
▁Subjec
▁arginine
▁aldosterone
▁82
12
etan
-8
absorption
6).
▁putative
▁MIC
▁NADPH
▁Compared
▁enti
▁reperfusion
tions
▁stimuli
▁fasting
▁3
▁resonance
▁abolished
▁5.5
▁retur
▁cytoplasmic
opressin
▁granul
inositol
▁1
▁phag
▁assayed
▁ganglion
acetic
▁pregnancies
▁84
▁inactive
▁dissec
▁paralle
derly
-50
▁vasoconstric
▁196
▁0.01)
▁motility
▁197
▁exchan
▁accounted
ergen
▁6.2
▁ATP
orepinephrine
▁lamb
myc
▁carcinoma
ecyl
▁sulfate
▁parame
▁shortening
▁tRNA
achol
phasic
ogra
versity
▁unclear
▁LH
▁plasm
▁fractions
▁cataly
▁qualitative
▁idiopathic
Ca
dies
▁7-
▁NH
▁14
▁disulf
▁differentiate
ults
▁shor
▁22
▁retardation
+)
esic
▁58
▁amiloride
▁infectious
▁administered
▁gamma
▁anticoag
▁arter
▁elu
%),
sorption
▁nifedipine
ositol
▁hormone
▁spectro
▁evaluating
79
▁fetal
▁forskolin
HB
oside
▁immunos
▁IGF
tivity
ensitivity
▁recombinant
1/
▁decarbox
ivered
atum
ogl
▁fibrob
▁lactation
4)
▁(4)
▁hazard
tory
▁8%
▁throm
▁initiation
coun
▁proliferation
▁clones
▁wean
▁presumed
▁assis
alian
▁repres
▁inters
mentation
5).
▁5%
0)
▁RNA
▁leakage
▁ADP
▁localized
▁onc
▁Clinical
▁contamin
▁amo
▁terminus
.3
▁hemorrh
▁ventilation
▁contractions
▁CCK
37
▁attributable
zymes
1/2
▁accep
▁asthmatic
tus
▁stimulates
unctions
tice
▁(0.1
▁lesions
▁12%
▁cortical
vascular
▁homology
▁cyst
▁ventral
▁80
▁ulc
▁70
▁distal
▁satur
▁contral
▁quantitatively
▁affec
opausal
▁lec
▁venous
▁arachidonic
acet
▁metabol
6.
▁osmotic
▁immunological
32
▁placenta
ynthe
▁receptive
▁resemb
▁Plas
▁metastatic
taining
▁micros
xate
tized
▁acutely
▁perip
▁acids
urine
▁fibr
gment
▁myocardial
▁alk
uscular
▁90%
oprec
erebral
▁arthritis
▁autoimmune
▁hypothe
▁sph
▁sten
▁infusions
▁spor
oactive
▁substrate
eared
▁inver
▁atrophy
▁phenyl
▁chloro
▁phosphorylated
▁fatigue
yroid
terminal
▁newborn
embran
amino
dia
pir
▁differentiation
7-
▁anaerobic
ometr
▁microns
▁Americ
▁specificity
bacco
astric
▁heterogene
▁antibody
▁cG
▁latency
▁radiolab
▁angi
▁obesity
▁glands
▁tes
▁antibodies
2.
▁51
▁lumen
▁invasive
▁disappearance
5),
▁intermedi
▁ae
▁(10(
▁conduc
tro
▁premature
▁suppor
▁phospholip
ophy
▁pathways
bodies
▁carbachol
pine
▁exon
treatment
▁inoculation
▁strains
adrenaline
ranolol
lobin
▁enzymes
▁chromosomes
▁multic
atment
amate
urther
▁radiol
ymptomatic
omethacin
▁esters
▁intramuscular
▁1)
▁thre
▁38
▁subgroups
▁splenic
▁TNF
▁glucocortic
▁valu
2%
▁0.06
▁endot
▁predominant
1),
▁depolar
/10
▁vesicle
▁cytos
8.
▁subjective
▁hemoglobin
4+
▁synerg
▁50
▁avail
▁electrocardi
▁caud
ogens
oplas
▁stenosis
immun
▁cyclase
▁45
tec
▁underg
▁malignancy
ocrine
▁elevation
▁effector
aminase
sible
▁24
-4
▁tric
▁trac
platin
▁lobe
▁ppm
selective
▁glycerol
atase
▁predis
▁mobilization
armac
8).
apeu
jun
▁thromb
▁0.3
▁extraction
2)
loro
phen
▁(0
▁insuff
▁synthesis
▁60
▁atten
vul
▁resection
▁inges
mend
▁VP
▁microM
3.
▁dysfunction
▁differenti
-13
posure
▁fatty
▁graded
assay
oyl
olytic
5-
geal
turb
atinine
itonin
astolic
▁endogenous
2),
▁NaCl
▁inhibitors
▁-3
▁Thir
▁81
▁viral
▁thi
▁genome
ergic
tially
adenosine
▁fractional
adily
▁plaque
teral
▁pigment
▁fetuses
etal
▁arachid
▁deficiency
DNA
▁Meas
tran
ymptom
▁lamina
▁stained
▁infants
itro
▁selec
arrhy
mediately
tetr
▁quantit
▁8,
zyme
▁decreasing
atient
kine
▁30-
▁prognostic
▁2
▁prospective
▁stimulatory
▁spontaneous
▁ips
▁10(6)
▁IgE
approximately
▁replication
deoxy
illus
lusion
roph
▁ischemia
titution
reactive
oclonal
▁substances
▁doses
▁immunoreactive
(1
▁macropha
▁cytochrome
iciently
osus
ocl
onography
▁mutation
▁perc
▁expon
truction
arbonate
▁deterior
ochrome
▁Hb
▁12
pregn
▁evoked
onate
endri
▁arti
▁homogen
▁distin
▁ach
▁reactivity
▁PTH
▁subsets
tisone
▁atypical
▁analogs
▁gastric
motic
▁ultras
▁74
tation
▁gestation
▁capillary
▁bir
▁correlates
▁carriers
illin
kines
▁insertion
▁microgram
avage
/2
▁retinal
fec
ocardial
▁(+/-
▁instrum
▁tryptophan
adm
▁4.2
▁(198
sych
bloc
.8
▁docum
▁similarity
▁conditioned
▁amino
▁embryos
▁renin
▁recurrence
▁deterioration
pecific
otri
▁monomer
▁corne
▁necrosis
▁lact
▁conditioning
utyr
▁cholesterol
▁quantif
▁60%
▁radioimmuno
7%)
▁fibre
▁excretion
▁0.001)
patients
terol
▁Twelve
▁HPLC
ograms
▁dissociation
▁clonidine
▁fetus
tagland
▁ethyl
jec
▁thems
▁pneumonia
▁deli
▁somat
▁diagnoses
▁chan
1%)
▁ventric
▁depletion
erative
▁melanoma
ept
nine
otor
phic
alc
▁mumol
▁15-
▁confir
1,
▁auditory
▁Calc
▁extracts
▁reag
▁differen
▁6,
▁undertaken
ucose
▁tryp
▁Insulin
▁Stu
▁microscop
▁neurotrans
▁valve
▁aorta
▁suppression
▁criter
ospitals
ocin
▁kinetics
▁0.2
▁Forty
ostic
22
▁coli
▁transverse
oprol
erad
▁IU
▁molec
▁chlor
▁elimin
▁kidne
enia
▁CRF
reas
OH
thmic
etween
dine
rometry
▁rheumatoid
odon
▁diastolic
▁MRI
▁affinity
estion
▁markedly
1).
ocyte
tinu
gic
▁Leu
erin
ondr
▁anesthetic
▁inward
▁decarboxylase
ecu
▁reductase
-5)
▁MAP
▁platelets
illar
tub
▁CSF
▁decreases
ichia
tidine
TG
▁resul
▁hypothyroid
▁sepsis
ophylline
▁20.
▁eryth
▁establ
quine
aminergic
olesterol
duced
▁rectal
▁trig
▁surgical
omat
▁microsomes
▁dexamethasone
▁serine
▁unaffected
-7
▁methionine
▁sulph
pendent
▁cows
▁filtration
▁prospectively
semin
▁alterations
▁neurop
▁underwent
8%
▁calcium
▁myelin
iatric
coated
▁abor
49
▁cyclo
▁dopamine
▁pneum
icillin
▁1989
▁amph
▁30
▁polymorph
▁gp
▁terminals
▁cate
▁embry
echan
30
▁Tran
▁mitochondria
hemical
▁placebo
]-
▁52
▁adminis
▁chamb
▁prednis
▁pressures
▁7,
▁captopril
▁substantially
▁bowel
▁spermat
okine
physiological
affected
oxide
tic
33
▁5.4
sess
▁Thirty
▁stimulate
▁bicarbonate
▁0.01),
▁chemot
ompan
plemented
▁sedimentation
000.
▁calor
apamil
▁nodules
▁4
▁glucagon
Tc
ycin
tituted
limb
-18
▁angioplasty
▁glucocorticoid
▁struc
▁21
kinin
luores
6%)
▁hemodynamic
▁plasmid
utions
▁vesicles
▁dendrites
istar
ogenesis
adic
gesterone
▁questionnai
▁conformation
▁yiel
-17
▁degrad
qui
▁adenomas
▁cyan
▁gradi
▁1987
▁donors
▁reas
cyclic
▁inadequ
▁sodium
▁systolic
tradiol
jected
▁mell
ovascular
▁3.5
ipitation
▁purification
9%
hydro
▁physici
▁porcine
subunit
▁minus
overed
▁56
hyde
otoxic
▁phosphatid
uvate
▁randomized
▁recom
.4%
▁trypsin
0.5
namic
dial
+,
▁66
▁phosphate
▁slices
▁Immun
▁20
▁carotid
oxygen
▁HL
▁intest
▁(25
▁immunity
fected
▁Addition
▁hipp
▁polyclonal
▁inoc
ectomized
▁mU
tality
▁oxy
▁averaged
mia
▁postoperatively
ecal
▁stimulating
▁microtub
antigen
Rs
▁microscopic
oag
▁cereb
▁Cd
-40
▁polymerase
▁neonates
▁stimulated
quid
▁effec
▁traum
alanine
erox
thrombin
mented
▁restor
▁2.5
ophag
nRH
omycin
▁stimul
▁decreas
▁nmol
alact
▁0.02
accharide
lymph
▁kidneys
LV
▁ganglia
▁irradi
▁gonadotropin
▁muscarinic
▁innerv
onuclear
47
azole
▁depr
▁renal
▁actu
▁allergic
▁grafts
▁assays
trac
▁keratin
▁lesion
▁chromosome
▁neurological
▁17
▁judged
ocarcin
▁spontaneously
▁residue
ionic
▁Experim
▁[14
▁differing
▁HB
▁(0.0
MDA
▁labeling
▁recurrent
▁reversible
hea
▁yielded
▁disper
▁Staphylococcus
▁polypeptides
▁suscepti
▁susceptible
▁incomplete
acil
125
0%)
thyl
opha
▁GABA
ogenicity
▁assessing
▁FEV
▁lute
▁0.8
▁antigenic
▁86
dle
▁uterus
▁isoform
▁titers
▁63
▁persisted
odynamic
-6)
▁elong
▁isoproterenol
▁4.
▁67
▁bacteri
▁0.7
-2.
▁2-
▁cis
▁upstream
▁cisplatin
▁reversal
gthen
toxic
▁supplemented
▁depres
▁Neu
▁anesthesia
▁degradation
-1-
▁mutant
onomic
3)
-3-
▁biosynthesis
▁Hep
▁congenital
▁glyc
▁pancreatic
▁imaging
▁conserved
ropyl
▁GSH
▁discontinu
rotic
hypertensive
▁accumulated
▁induce
-3)
▁IgM
▁corticosterone
uble
rene
tivities
maximal
rents
▁astro
▁degeneration
▁thrombo
▁repor
rological
▁bilateral
▁generalized
▁synthase
ylchol
hydr
▁4)
▁recr
▁thresholds
▁rhe
▁polyc
▁pathological
▁proportions
idin
▁specificities
▁pancreas
▁abnormal
▁mono
▁beats
oprotein
▁questionnaire
ialysis
▁olig
uvant
▁leukemia
▁EG
▁chemically
lact
essation
uppression
▁5-
▁horiz
CSF
mL
▁molecule
▁inhibit
▁effic
ophore
▁selective
▁subjected
lood
▁endothelial
reast
scop
00
ulla
clerosis
adren
▁artery
▁peroxidase
▁85
▁57
▁previ
▁mRNAs
▁carcinomas
▁2.3
▁regimens
▁cytotoxicity
▁monit
▁intrac
▁yeast
dered
ranial
entan
oresis
500
▁cessation
▁transcrip
assi
fib
▁myel
▁130
▁micron
▁dehydrogenase
▁reflux
tension
▁assessed
floxacin
▁nicotine
-30
inemia
tage
▁fibrin
otassium
▁gangl
▁ana
ifugation
electric
▁testis
siologic
.5%
▁inhibits
▁secrete
▁squamous
▁resec
▁diame
▁morbidity
ygous
▁lys
▁kDa
.4
▁3-
flammatory
▁radiotherapy
▁marrow
carb
orption
▁interleukin
▁calf
▁propor
▁accel
robic
.1
lastoma
