▁anaesthe
oscopy
eptides
▁validity
ulatory
▁airway
▁20-
oyl
eight
oscop
▁fetal
▁muscles
▁solub
oproterenol
▁1.
▁1.5
lastic
onin
▁findings
▁retina
▁protoc
▁Phen
independent
▁stenosis
▁58
omized
▁VA
▁shortening
dominal
▁prophylactic
▁pylori
▁AIDS
▁hazard
sial
▁algor
▁(50
odium
bility
-6)
▁androgen
▁gamma
tagland
▁NaCl
▁adenoma
▁autosomal
▁hypothalamic
▁hemodynamic
▁genes
▁transloc
▁measurable
▁pelvic
trate
ochondr
▁Phy
▁PV
versely
▁isolation
▁anesthe
▁sial
▁glycoproteins
8-
7)
▁undergoing
▁facilitated
gesterone
▁suppressing
▁thoracic
▁pyl
▁flexion
▁3.5
ilep
aints
rehen
▁exposures
▁perfused
▁enzymatic
inhib
atients
▁pretreatment
▁injected
▁pH
▁atrial
▁yeast
aryngeal
▁pathways
▁cancers
▁disruption
▁interleukin
▁oxid
▁experim
▁eti
Cu
▁fibrob
▁maternal
▁considerably
▁raises
▁Immun
▁coag
▁reductions
▁isoform
▁mediate
▁isolates
pite
▁responded
oxia
▁emerg
▁complic
▁(3)
▁determinants
▁catalytic
erin
lec
▁rati
▁produc
▁15
▁GM
▁atten
▁diagnosis
crimin
.7
▁solely
▁MHC
arbox
▁arginine
omal
ipine
▁adequate
-4-
athy
MN
▁cardiac
rated
▁undertaken
.3%
▁1.9
comitant
▁accumulated
▁tooth
ivocal
▁197
▁unexpl
armac
▁regimen
▁caud
▁hypertensive
ipher
49
▁dietary
▁ketamine
▁95
▁cumulative
▁extrac
chol
BG
ycl
▁serotonin
▁brains
▁margins
rocy
▁restenosis
uccessful
▁preparation
thal
▁diagnosed
▁resistant
anyl
▁ultrasound
▁(9
▁Clin
▁extracellular
▁confound
phosph
ecu
▁prosthe
jug
ocyt
▁vaccine
▁cerebral
▁validated
▁micros
▁rehabilitation
orax
nutrition
cAMP
gative
▁leukocyte
▁(4)
responding
▁tracers
mature
▁iliac
patient
▁spontaneous
▁cultured
▁concer
valence
nucle
▁fluorescence
▁intracellular
▁placebo
▁carb
▁HS
▁mell
▁axons
▁noradrenaline
▁glomerular
▁(7
▁juvenile
▁RS
-67
▁pulses
tabol
▁babies
leu
2%)
osts
GD
omethacin
ortic
▁respec
▁sple
▁hydroly
▁connec
otypes
▁remo
▁subunits
▁proximal
▁differing
▁PT
▁multiv
▁biliary
virus
▁coronary
atrial
▁sero
▁intensive
▁glut
▁consequent
tiveness
▁streptococci
76
▁biological
▁DT
▁hams
▁substitu
▁substanti
▁chor
▁ACE
trition
tization
▁spinal
adren
▁retin
▁TA
▁substances
▁screened
actin
▁verapamil
▁satis
▁20
▁facial
ults
economic
aginal
▁(4
▁aneurysm
▁500
▁lymphocyte
▁behavioural
▁SCH
ditions
atical
▁percutaneous
erence
odialysis
▁umbilical
ffinity
ifferen
BV
▁anticoag
▁congenital
▁indication
kDa
treatment
chlor
▁insufficient
▁hypog
▁prophylaxis
phrine
rogenase
43
ctive
▁inversely
▁carbohydrate
▁haemorrhage
▁leuk
▁colorectal
▁preparations
▁influenz
amethasone
▁radiological
▁vomiting
▁testicular
urine
▁ACh
▁7-
rogra
▁chemotherapy
▁adenosine
▁epitopes
▁thresholds
▁stimulating
▁adjusted
isol
ovine
▁uptake
▁transpor
▁OT
▁presenting
▁Increas
▁62
▁focal
▁pathology
onomic
▁subcutaneous
▁limb
inj
facial
▁adjuvant
▁inactiv
▁glutamate
arate
tension
▁microns
▁antibiotics
▁cortex
▁diabetes
-17
▁6.
▁macropha
▁elic
orin
▁modulates
orpor
atase
▁HLA
treated
▁catheter
▁hormonal
▁hormone
.5
▁hepatocytes
▁cirrhotic
tice
▁clinic
4,
▁spon
▁phagocytic
▁CM
▁intrap
▁prophyl
clinical
▁32
▁neutroph
▁chan
glutin
tub
truction
plasia
dehyde
▁PCO
lasses
▁phospholip
▁distin
▁1,25
▁diagnostic
atell
KD
▁nal
▁DG
▁microb
▁overl
ercise
▁elu
▁amyloid
vents
oglobin
▁promoter
kage
▁normo
▁amino
▁oligos
▁nervous
cyt
▁employing
rophob
▁(3
25
bloc
loro
-10
▁physicians
▁myo
▁37
▁relap
itol
▁reversed
▁contral
-2-
generation
▁intraper
.0
▁blot
▁wound
▁plaque
▁RT
▁cytotox
▁characteris
▁assessing
veness
▁chloroquine
▁31
▁72
▁benz
▁sensory
▁homogeneous
▁oxide
▁2.5
▁reag
▁inhibitors
▁organisms
▁liver
▁preventive
▁dental
▁clinics
rati
▁predomin
▁sensi
▁radiol
▁33
kade
▁mast
▁lumen
tin
protein
▁fentanyl
renal
▁cephal
▁equilibr
▁syndrome
ectin
▁monoclonal
ercul
5%)
acr
agic
▁chloride
cents
▁acidosis
▁66
onyl
mTc
.2%
▁rejection
ept
▁positively
97
MDA
lobin
loid
▁nm
esthe
▁infectious
tages
▁promoting
oxone
olol
tumor
,000
▁acco
selec
▁pulmonary
▁chori
▁palli
▁polyethylene
▁carc
▁compound
aturation
▁demographic
▁extensor
▁implantation
▁pneumonia
▁IgE
labeled
▁implant
▁inactive
▁antagonist
▁0.001),
▁(198
▁pressures
▁dosing
▁remission
▁monke
▁GI
▁deposition
▁chemotactic
entan
oids
oclonal
▁mmol
linked
▁surgeon
▁25%
▁genotype
▁Elec
ochrome
▁meth
▁0.01),
▁PI
▁TCR
10
adm
▁oxidative
▁neutrophil
▁occupational
▁hamster
▁chond
▁drinking
▁synovial
▁clearance
oxif
▁predictive
▁herpes
tate
fts
▁depressive
lycemia
-6
▁subjec
pinephrine
▁Accordingly
▁phenyl
▁mellitus
tron
olone
ylline
▁innerv
thrombin
▁serine
▁neuro
ignificant
aluation
▁tol
ofol
0-
ycin
▁reacted
ocl
1)
▁(16
▁postoperatively
▁GF
▁judged
▁heterogeneous
▁Large
▁hospitalization
▁eliminated
▁GV
▁plasma
▁0.05).
▁chromat
▁venous
rous
alues
itr
▁diabetic
wk
▁progesterone
▁stere
13
oxy
rogen
▁murine
cepti
unctional
▁79%
derly
▁differed
▁systolic
lasts
53
▁labeling
2+]
▁paralle
otropin
DG
osynthe
acet
▁pyramidal
▁immunohist
-3)
▁RB
vul
▁pene
▁metabol
▁parotid
▁superoxide
6%
14
physiological
▁aorta
graft
▁adenylate
galact
▁strains
▁cava
▁severely
▁discrimin
▁duct
▁tas
perfusion
▁persis
bacco
hion
▁monocytes
▁moderately
▁anomalies
ontal
▁pS
▁targe
-1-
▁aggregation
MIC
▁healthy
ogra
.9
▁intrav
▁mamm
▁endoscopic
▁unchanged
itary
ensitization
▁establ
▁identif
▁49
▁MV
▁illness
cine
▁abnormality
antigen
went
▁immunodef
iatum
▁PE
▁chains
onuclear
spective
▁acidic
ocytes
▁schiz
▁rabbits
.4
▁impairment
▁metastasis
oxin
37
ymme
▁extraction
▁46
5,
ostic
itin
▁150
▁bile
▁abortion
▁kerat
▁0.5
-60
▁vasoconstric
ergic
▁anesthetized
uvant
tric
▁promin
▁infusion
tak
inemia
wenty
fused
▁excre
tively
▁24
TNF
▁(18
▁surgeons
vival
▁neurons
▁medial
arge
▁demands
Mu
▁PG
19
▁alcohol
▁immature
▁ventilation
▁thal
tial
▁sham
entric
zation
▁cyt
tional
cence
▁24-
▁prognostic
▁ranged
▁withdrawn
60
▁antib
ses
acerb
lasting
▁surviv
urea
▁obstruction
anic
seud
▁199
▁GD
▁HPV
▁parap
▁hippocampus
▁crest
otypic
▁infiltration
ximal
▁depres
▁suscepti
2).
▁prol
▁NP
tivation
▁(0.
▁IgM
erative
▁ongoing
▁gland
cephal
▁CCK
▁electrocardi
icated
▁Bec
▁haem
-7)
▁17
▁contractions
▁peaks
ulin
sized
chym
lective
kinase
BM
infected
▁epid
▁ejection
ventricular
▁occl
▁unsuccessful
ysm
▁secretory
olesterol
▁acyl
▁fracture
▁utero
▁pathological
▁preven
▁receptor
▁thigh
▁Streptococcus
▁reflecting
▁uncom
▁splic
8+
opl
▁determination
▁yiel
▁asymptomatic
▁tryp
glyc
▁potency
▁conduction
partate
▁predicts
▁elderly
▁spleen
trum
dies
▁latent
▁endotoxin
ogenetic
▁poten
▁fetuses
▁demonstrating
▁agonists
iol
orepinephrine
▁cortisol
ritis
▁contraction
arent
▁elimination
▁imaging
▁neurologic
▁toge
▁excitatory
ithm
▁urinary
▁hypertro
▁normotensive
▁LV
▁(0.1
▁systemic
effec
▁predominant
9,
tryp
▁PET
▁calmodulin
▁detec
▁substituted
▁phospholipase
▁TG
12
▁progression
▁Plas
▁calcification
osidase
▁feasibility
▁manifestations
▁insulin
56
▁Sout
▁exten
▁multicenter
▁phosphate
▁oxidation
▁amin
IIIa
xia
▁potent
mide
▁ipsilateral
ficial
57
tact
▁localization
iasis
▁55
LH
▁IA
▁adolescents
ociated
▁Km
▁phosphorylation
▁parame
idne
adily
istically
▁morphology
▁scintigraphy
▁PSA
idation
▁undergo
tidine
▁rhythm
phyl
▁hemoglobin
▁saliv
▁pelvis
monary
thase
▁neo
▁contrac
▁(20
ophren
▁ADH
▁LC
angl
hyp
▁overex
▁tobacco
▁8.
▁tissues
oes
▁antibody
▁epiderm
▁macrophage
▁electr
▁hepatic
sequent
▁disrup
▁67
▁attenu
tics
▁pathogenesis
Ps
onography
▁organic
esium
▁Escherichia
75
▁transcrip
▁describ
▁cytosolic
siological
alanine
▁bypass
alian
▁Hg
▁saturation
▁morphological
▁participate
▁10(
▁nuclei
IU
▁intraven
obarb
OA
▁myocardial
▁balanced
▁assis
▁buccal
▁Changes
gents
▁labelled
asic
▁projec
ingle
ologic
ocarcin
▁analogue
sA
sities
▁metabolism
▁melanoma
erate
positive
▁40%
mitted
istar
immun
▁ery
▁contralateral
▁discontinued
relations
▁collec
/100
▁pall
▁arom
▁mechanisms
-1,
ithi
▁excision
uation
▁intrag
▁psychosocial
▁brady
▁explored
2),
Leu
ylation
▁8-
▁25
ocytic
siveness
▁inflammation
▁inh
▁genome
▁subf
pyr
▁abnormal
▁bipolar
▁monit
enh
ulae
obl
▁degeneration
HM
▁HR
▁bac
olarization
trib
▁curative
tle
▁filtration
▁RBC
▁peptic
▁BP
▁unex
▁Eight
▁questionnaires
▁adhesion
22
tec
69
4-
▁10%
oglobulin
▁abnormalities
▁frac
▁complexes
▁congen
▁intrac
▁epithelium
▁4,
▁cocaine
▁paras
▁TC
uterine
▁Intravenous
oidal
▁chamb
▁mV
70
▁enhanced
▁(2
▁tachyc
▁challen
▁cartil
000
▁definitive
▁injections
▁sodium
▁comprehen
lobulin
▁0.05),
▁adolescent
▁geniculate
unced
▁strategies
ergen
▁synap
mL
urgical
▁coeff
ration
▁carcin
usp
▁vascular
TG
▁ward
▁triglycer
▁inositol
▁reversible
▁portions
▁0.7
▁pharmacological
▁mucosal
40
▁retur
▁reactions
▁behaviors
mobil
▁peripheral
opath
▁Throm
tiv
▁1)
▁MRI
dial
▁bic
atation
intestinal
▁disorders
ariate
atinine
▁Serum
oglyc
kephalin
▁ligands
▁chronic
▁enhance
▁conductance
▁BM
▁pancreas
amide
▁astro
essive
▁mortality
atid
▁expend
BK
▁fatigue
▁bab
-2,
▁targeted
▁beneficial
▁ultim
▁cultures
▁chromatography
▁40
▁adaptive
anine
]-
iable
rection
▁unil
operative
ially
▁laboratories
▁suggestive
▁cows
▁consis
▁autoradi
rangement
▁Addition
▁emotional
▁conformational
▁modest
▁muscul
-30
▁headache
▁physically
ophore
▁doctors
▁insuff
▁phosph
▁nurses
▁cadaver
▁tris
PV
▁descending
tur
/2
▁degrad
▁cys
▁deprivation
epti
▁decreas
▁advances
▁suppressed
-450
▁Previous
▁proteins
▁subunit
▁dorsal
enol
▁recipient
▁reproduc
ctomy
▁48
▁expressing
romes
/1
▁fmol
ighted
▁characterize
pendent
ilical
▁differentiation
▁statis
itoneal
▁randomized
iosis
urgery
hydr
▁mum
ymptom
▁glycoprotein
▁tyrosine
▁surf
orbol
endri
▁glu
▁defects
mong
omical
▁susceptible
tents
aemia
▁compliance
ophageal
2+-
▁3-
▁subpop
▁physici
lix
▁barrier
▁lens
▁smoking
▁pregnancies
▁mucosa
▁constitutes
lycer
ploy
▁plac
▁lis
mia
otox
▁entero
▁microM
▁topical
▁64
▁risks
radi
▁antagonists
▁influences
▁granul
▁TB
▁intramuscular
otide
▁endoscopy
▁posi
epam
oric
bular
▁stimulation
▁panc
▁Lys
▁sarc
igaret
osity
▁AMP
▁newborns
▁specificity
▁lute
mittent
▁undetectable
trin
acement
▁hemo
▁reac
▁cyst
▁venti
▁lungs
NM
otoxin
▁(1
testinal
▁adherence
▁olig
taken
fed
▁enhancing
▁1000
▁dose
▁lobe
▁cleavage
▁nutritional
▁ethnic
▁replication
▁pump
▁comprehensive
iliac
▁reagents
▁accel
▁0.6
ondr
tering
toxin
▁placenta
▁traum
▁infection
▁urea
ivation
▁stimulatory
entanyl
embran
▁guinea
-3-
▁85
▁inflamm
▁antiser
▁corneal
▁hepatitis
▁onset
Phe
▁repl
▁lymph
-8
▁selectively
gans
▁desm
deoxy
▁affinity
dle
▁Acute
▁endogenous
▁protease
▁196
6.
▁regulatory
▁antisera
▁complication
▁fibroblasts
▁assay
ellar
eliac
▁replic
▁34
▁traumatic
▁modulation
▁11,
olgi
▁thym
tries
▁chicken
▁Phe
▁anastom
▁ml
▁50
▁proton
7,
-2
activation
▁tubular
▁FSH
controlled
▁exis
▁concentrate
truc
▁PRP
EA
▁physiological
-8)
▁arterial
▁induces
▁correlates
▁synthe
▁physiology
▁myel
▁therap
▁cation
idase
▁surgical
▁cef
adder
▁200
▁accep
▁biopsy
▁demonstrates
▁EEG
olution
atonin
▁0.3
▁molecules
▁reperfusion
▁desirable
▁tumors
▁influenza
▁confined
▁investigated
▁attemp
▁constr
▁parental
oag
▁APC
▁mediated
yro
aptic
▁spectro
heal
▁deficiencies
ifedipine
▁deficits
▁adduc
teine
versus
sensitive
▁resting
▁examin
▁dys
▁residue
▁evaluating
32
▁13
▁0.1
▁basal
minal
▁focusing
pig
oscopic
▁ablation
▁circumferen
▁absorption
▁fron
▁63
▁meal
birth
-3
▁duoden
▁acet
▁opioid
+)-
▁malignant
▁behavioral
▁suture
▁HA
▁peptide
gene
weighted
ipit
atitis
▁AVP
▁burden
▁Treatment
roscop
▁acetylcholine
▁prospective
bly
subunit
phosphor
▁laparotomy
▁efficacy
lox
▁affec
heric
▁CMV
DH
▁paradigm
tig
ylate
▁exclusion
▁HCC
▁198
ensitivity
▁depletion
▁symptoms
▁resection
▁putative
thle
▁vena
▁prognosis
osterone
▁reactivity
lyce
hospital
▁peritoneal
▁GFR
mol
▁ischemia
▁stimulates
thmic
5.
glycerol
▁lectin
▁seiz
hydro
▁immunofluores
▁radiographic
▁qualit
▁Intra
▁tracer
arb
▁14
othel
▁pregnant
▁elec
▁natri
alsy
▁meals
▁polypeptide
▁excluded
▁coex
▁prono
sion
▁pati
duction
▁2)
▁subc
▁45
▁horm
▁natriuretic
opic
phasic
tussis
▁125
▁needle
rae
ectomized
▁lymphoid
▁ET
▁irrit
years
▁sour
iciencies
▁oocytes
tum
▁affects
ochem
▁42
RF
▁cognitive
▁Afric
▁sensitivity
▁preoperatively
iability
▁rated
▁enrol
▁GH
▁trend
adrenergic
▁enl
▁diseases
emic
ovascular
▁laparo
echan
▁dors
▁endometrial
▁mitochondria
▁atmosp
▁Hb
▁cues
0.5
▁PTH
ivariate
immune
ayers
ocrine
.9%
▁pulse
▁perin
▁fulf
▁axillary
▁ratios
idine
▁52
▁27
▁intra
inated
▁isch
icine
9-
silon
▁interstitial
▁antic
gluc
terase
rever
▁LDL
oprote
▁cystic
▁agonist
▁poorly
▁mRNA
▁EGF
-1)
ensitive
mediately
▁slices
▁infected
itance
-5
plication
▁follicles
▁glutathione
▁nifedipine
opi
▁graft
▁peroxidase
▁thrombin
▁16
▁lipid
▁impair
luores
urys
▁nutrition
▁epinephrine
▁satur
▁kidne
▁inges
ortal
▁irradiated
entif
ticular
▁IGF
▁classified
.3
chymal
▁Compared
▁improves
▁histologic
▁differentiate
lusion
yses
atine
▁platelets
▁6,
sia
▁wors
tus
oplasm
diagn
▁ECG
▁implanted
▁improving
-16
▁manu
duced
ylase
amous
RP
tead
sor
▁temperatures
▁discus
oxygenase
regulated
▁preterm
17
▁angi
amn
▁develops
▁lumbar
▁strom
▁achie
tran
▁skeletal
▁PKC
▁inoc
▁precursors
▁rheumatoid
▁dex
80
oradi
titu
nRH
▁SDS
threatening
▁recurrence
▁LN
▁perc
osyl
▁questionnai
astolic
opres
▁oral
iatric
▁(17
rele
▁vaginal
ffer
rox
▁atheros
Tc
tradiol
kely
esity
ecyl
placement
▁ambulatory
▁10.
▁10-
▁kine
incubation
▁0.01).
▁Vmax
feron
itrate
▁recons
▁nodules
adequ
▁tissue
▁inhibition
▁zinc
+/
GF
overed
▁Pretreatment
RNA
ithelial
▁7.5
ximum
▁myelin
▁wash
ressed
67
4%
utaneous
▁COS
▁hypertension
▁PAF
▁cervix
▁(12
▁athle
roup
▁microsomal
▁ure
▁heavi
brain
▁underwent
▁exce
▁healing
▁Twenty
▁aging
▁indi
▁acqui
assay
▁chest
▁nasal
ipitation
▁micrograms
▁genetic
otent
▁cen
duc
roxim
vely
vated
▁sequential
▁baseline
xone
▁colonization
erox
ylcholine
▁BALB
resistant
▁competi
▁symp
▁malign
▁sepsis
oplasmic
▁chec
▁hypoxia
▁turnover
▁CK
▁virtually
ectomy
▁aspiration
▁80%
▁cloned
▁fati
erent
▁intestinal
▁embryo
ocamp
ograms
▁exhibited
▁6-
ialysis
ocytosis
▁ovari
▁deple
uppres
centr
▁discharge
ymp
▁adhe
▁apical
▁chemot
2)
▁variability
▁plates
▁corne
▁digestion
▁stimulated
▁Taken
▁auditory
▁kidneys
rested
amine
ubation
▁synthetic
▁intense
▁bp
alact
labelled
duce
okine
uron
▁lesser
ucle
▁radiotherapy
▁inappropriate
▁alveolar
▁encour
ethyl
sive
▁lith
ylamide
sies
▁intraoperative
reast
oic
produc
▁endot
▁reactive
▁examinations
imens
lux
▁prednisone
alc
▁ile
4)
▁fluores
▁43
▁investigations
ensity
▁athletes
asone
▁cure
ostatin
▁thromb
▁fluor
▁nucleotide
(2+
odies
eak
▁phenotype
omerular
▁cytosol
▁plas
▁hypo
adiol
▁trypsin
lue
acchar
opes
▁exacerb
▁infused
▁lactate
▁99
-19
PB
opausal
▁PP
unctions
lym
▁cavity
otherapy
▁protective
vascular
▁cate
▁comparative
▁transplantation
ypical
▁perme
▁hemorrhage
▁Biol
▁iod
ocul
▁intervention
plantation
▁incub
achid
▁mammalian
ials
▁macrophages
▁sexes
▁nmol
▁2.3
▁projections
oA
▁dopamine
▁(19
ecre
▁canine
oceptor
▁synthetase
▁distinguishing
24
urate
▁polymorph
▁pulp
▁rotational
▁fibrin
▁dendritic
▁occlusion
▁habits
sess
▁gastric
▁disappearance
▁ventral
▁haemorrh
▁unde
ropha
▁competitive
▁21-
▁anesthesia
▁diminished
ancre
▁thrombolysis
functional
responders
▁arteries
tition
▁immuno
▁bloc
ameth
▁pmol
natal
▁myocardi
▁ulcer
▁lumb
▁chloro
▁rectal
▁tox
▁practically
ilization
▁anticipated
▁analyzed
▁bleeding
▁pancre
▁hydrophobic
▁dexamethasone
insulin
▁substrates
▁paren
sych
▁alkaline
▁alve
▁adverse
ocellular
▁ascertain
▁alteration
ascular
idity
▁quin
▁201
▁organs
▁VO
▁resusc
▁cryst
▁resemb
▁peptides
▁57
▁erythrocy
▁mitral
▁hydrogen
opha
▁discre
▁examination
invasive
▁insertion
▁cochlear
▁kidney
rease
▁TSH
▁periodon
oxygen
▁cyclase
▁acetate
▁oes
▁exposure
▁1.8
20
▁75
▁GVHD
aryn
▁(13
crib
ocular
oracic
GH
olateral
▁nurse
▁cAMP
▁saline
▁Comparison
atectomy
▁38
resist
▁differentially
acrylamide
▁atropine
uptake
▁abuse
▁hypothalamus
▁analys
quine
▁ANP
▁subgroups
▁immunos
▁conduc
▁alcoh
▁melan
▁ae
modulin
minis
risk
▁retention
olytic
▁gels
▁autoimmune
ophilic
▁glycos
osal
ministration
▁carcinoma
▁morbidity
▁trauma
▁persisted
otomy
accharide
▁immunobl
0%
▁elevated
▁progressively
ostomy
▁stab
▁tamoxifen
▁possi
▁rabbit
osin
▁displacement
amycin
▁contractile
▁PCR
▁ionic
▁ischem
▁18
oprotein
▁mature
▁infil
erating
ece
tivity
ocial
ulmonary
grees
▁predic
▁throm
▁synergistic
onucle
helium
menopausal
▁stimulate
romed
eric
▁uter
ressing
▁cerv
▁epidemi
5-
utyr
▁0.4
hers
▁childhood
▁angioplasty
sy
▁therapy
clonal
▁oxygen
rents
▁lipoprotein
▁immunode
hyd
idis
▁impaired
assi
▁sedation
▁elong
▁gradi
▁pancreatitis
▁allergic
▁PH
▁probes
▁wk
-5)
containing
▁favorable
▁dialysis
▁carbohyd
▁toxic
▁lact
▁CTL
▁conclu
oplas
▁anemia
▁ppm
8)
▁periodontal
▁ethanol
▁juven
▁belie
dine
▁SEM
▁debr
▁increas
-6-
▁affecting
▁antigenic
▁gangl
▁Cells
▁12
▁deficient
MH
oxid
▁interv
▁deficiency
▁caudal
ulose
▁hepar
▁stimulus
olic
ophag
▁initiation
▁sphincter
▁mutant
▁consecu
30
▁prolif
▁metabolites
▁purification
FU
▁bronchi
▁adults
▁shor
amino
olute
▁proliferative
▁abdominal
▁respondents
▁compli
▁homogeneity
▁mothers
▁LD
.4%
▁blockade
▁PF
▁AI
▁oxygenation
avage
▁multim
▁glucocortic
▁addi
▁carcinogens
lep
rief
▁intest
▁synchronous
tructural
tyl
trip
▁TNF
▁MH
▁ouabain
NH
▁plasminogen
▁cervical
44
▁vitro
▁instr
▁activate
WL
▁synaptic
otting
▁5,
4).
▁markedly
acts
IgM
▁asthma
atched
uded
reactive
▁cG
ofluores
▁cytoplasmic
▁RNA
▁forsk
▁allogra
▁invasive
lymph
▁exchan
ateral
▁vaccines
9)
▁concurrently
hest
▁progres
28
▁subun
▁centr
▁19
▁disulf
versity
▁prenatal
▁mim
anded
▁0.2
prising
▁7%
▁survived
▁3)
6)
toc
▁unilateral
▁transi
Ki
▁endothelin
▁Hz
osomal
▁sympathetic
mediated
▁effectiveness
▁Chemical
iotics
atoid
▁transient
▁4)
▁vivo
▁feeding
otyp
▁lesion
▁enlarged
▁prevented
▁extre
acil
▁hap
▁subtype
▁fiber
▁untreated
rates
▁analyses
amination
otype
uvate
▁striatum
HB
▁utilized
▁50%
▁adequ
planted
▁arteri
▁predominantly
21
▁microscop
▁genomic
asting
▁aor
8%
▁scin
oreceptor
zyme
▁paradig
▁supple
▁7,
VT
▁spectra
ogenous
▁thi
pecific
▁refrac
▁reconstruction
▁wt
▁microv
▁immunore
8.
sue
▁perfusion
▁emergency
▁consistently
▁analogues
▁sustained
▁vagal
▁objec
▁residues
acetyl
ranolol
itant
▁hemorrhagic
▁ester
iaz
▁mineral
▁53
▁aden
0.
▁canc
lood
▁(+/-
tabl
88
-12
atient
cysteine
▁sequel
▁1.6
ospor
▁umb
▁medication
▁contex
▁vitamin
▁mutants
▁NADP
▁defic
unts
▁inactivation
omycin
▁stimuli
iant
▁currents
erance
inic
▁oxidase
▁44
▁56
▁marrow
▁lacking
▁follic
▁70
▁silic
omies
▁newborn
tious
▁synov
▁ventric
▁overlapping
usal
▁polypeptides
divid
carinic
▁isot
▁DS
-1.
▁pineal
▁atrophy
▁ultrasonography
▁simultaneous
aid
▁hypothe
▁interferon
▁biopsies
▁minority
▁phe
▁polyclonal
▁ASA
▁follicular
▁immune
CoA
▁creatinine
▁cats
▁aort
▁Removal
▁CSF
genic
▁perip
abies
▁suppression
▁PCP
▁glyc
▁Samples
ylated
▁hig
tituted
▁identifying
bladder
▁phenomenon
▁cytology
▁thickness
/10
▁HM
tein
▁cysteine
▁Bone
▁ELISA
asive
▁arth
iably
▁adi
tase
icide
▁consequently
▁sulf
clerosis
▁prolactin
▁LT
▁reticulum
▁mutation
▁tachycardia
▁morb
▁ultras
▁thrombo
▁adenocarcinoma
▁bacterial
▁esophageal
▁numb
▁irradiation
▁reflux
▁defec
▁suicide
▁reper
▁nitrogen
apeu
▁20%
▁quanti
▁Tumor
oxidation
tomy
ulates
0,000
▁tube
▁acids
uran
arbonate
▁sciatic
▁erythrocyte
cture
▁unstable
ureth
▁perception
▁3'
15
▁FT
▁cohort
▁cortical
▁thromboemb
transfer
kines
▁(15
▁injuries
▁nerve
vac
▁Mg
nai
▁inherent
▁(0.0
piratory
▁95%
alp
ching
inephrine
rosis
▁spermat
▁immun
uble
▁abdomen
▁recurrent
▁adrenal
▁surround
▁(8
▁hydrox
▁msec
▁immunoprec
estis
▁awa
▁Continu
▁cytotoxicity
occal
▁salivary
▁100%
ecal
▁recombinant
▁1.1
clin
▁reliably
▁repor
▁nig
oconstric
▁cuff
5%
▁electrical
▁dissociation
▁cann
omod
▁differen
▁referral
▁(5
▁30
ATPase
ologous
▁collateral
▁chick
▁irrever
▁stu
▁ranging
▁adjustment
▁metabolic
▁eosinophil
▁ANF
▁propranolol
▁bronchial
▁2
ampl
▁ventricular
▁ganglion
▁clinically
▁reticul
educ
▁prospectively
▁cesarean
▁investigating
.2
▁oste
▁iso
tors
trus
▁Experim
uretic
illance
licular
-4
rectomy
ications
▁discon
.6
▁evoked
▁amo
▁gastro
▁unrelated
▁obese
▁tubes
▁inhibin
geal
▁tendency
▁PB
▁surgically
thyl
▁microcirc
lycerol
▁aspir
▁[125
▁mononuclear
orac
▁bacteria
▁phy
eptid
▁(11
osomes
ilized
▁accounted
▁nM
▁postoperative
▁chemo
onary
▁90%
ovirus
▁dehyd
▁concom
rotid
▁retinal
azole
affinity
▁reagent
onor
▁biop
1-
▁testis
ncy
▁psychological
▁atr
▁localized
ellular
▁anomal
eptidase
▁microvascular
▁reproducible
hyde
filtration
asal
▁etiology
+,
▁.00
▁probe
▁follicle
▁nicot
▁feasible
▁exclusively
▁2.
▁antigen
lated
▁pituitary
phyloc
▁spikes
▁induce
▁assayed
▁circulating
▁intake
▁volunteers
otroph
▁pharm
▁prostagland
▁histological
▁PMN
▁poin
reased
▁molecular
▁85%
reness
▁coval
entary
▁atherosclerosis
▁65
▁400
.7%
▁mitochondr
olec
▁endothelium
▁ech
▁prevention
Ds
ocardi
▁phospholipids
odil
▁TGF
tile
▁artery
▁compartment
ropriate
greater
▁ventricle
▁knee
▁retrospective
▁restor
▁physician
acetic
zard
▁embryos
48
feren
acin
▁(100
▁socioeconomic
▁anat
urc
▁nons
▁lys
▁neurological
▁perox
▁immunological
▁drain
▁phosphatidyl
▁infarction
▁epitope
arean
idney
)2
6,
▁VL
▁12-
▁precipit
▁2-
0%)
▁heterogeneity
▁cholest
▁utilization
scherichia
▁deter
▁quantit
▁polyp
▁laboratory
▁fibres
▁conformation
▁regis
5).
▁elucidate
▁96
carb
▁dendri
▁fibrinogen
▁edema
moid
▁guan
▁terminals
▁thyroid
vation
▁microm
▁physiologic
▁buc
ochemical
▁sinus
MG
ometh
glutinin
▁progressive
▁undergone
▁cereb
rowth
▁GA
icin
26
▁inhibitor
BW
▁beats
34
▁pate
illus
ocar
▁eluc
opa
derived
▁inhib
▁circulation
▁phosphatase
▁resonance
54
Nase
idated
▁Whereas
▁GTP
ocomp
▁interventions
▁saturated
▁appreciably
▁uterine
▁experi
▁hCG
vail
▁Tum
herent
▁migrated
matic
pation
▁microgram
ropriately
▁translocation
helin
▁osteoporosis
▁MT
▁recessive
▁predictors
stim
▁hyperp
▁resec
▁plasm
▁2.0
▁86
▁41
dition
▁Golgi
▁symptom
▁multic
▁placental
▁kinetics
▁correlated
▁nursing
▁profound
▁structural
eroxide
▁aneurys
▁implic
olysis
1%
▁adminis
diol
▁pronounced
▁erythrocytes
▁fold
otassium
▁benign
▁progn
▁kDa
▁36
▁inadequ
fron
deficient
▁endocrine
phosphate
keletal
quid
ATP
▁assessments
fected
▁microtub
toph
▁adrenergic
uscular
platin
▁maturation
▁anae
▁KCl
7.
▁micron
dose
▁reveals
▁Swed
▁weigh
▁spontaneously
▁23
▁scanning
▁decreasing
gth
▁strain
▁preval
▁deform
▁fractures
▁Kupffer
▁dysfunction
▁monol
▁accumulation
adherent
ectom
▁reviewed
▁cortic
▁NH
▁apop
▁gestation
terminal
lact
opathological
▁antibiotic
▁initiated
▁lamina
▁kinase
▁arachid
tially
▁19%
▁70%
▁diet
▁behavi
▁infar
▁(1)
luent
▁surveys
▁GnRH
▁athe
▁lysis
▁cigarettes
.2%)
▁10(-6)
▁glucose
▁complementary
razole
▁brom
leukin
▁tended
▁grading
ymptomatic
▁7
▁occurring
▁selec
▁Increased
▁donors
throm
ranial
▁recur
▁epidermal
ancies
uccess
▁toxin
▁diastolic
▁Patients
▁1.4
▁quantif
atest
▁cholinergic
tox
▁orally
▁calf
▁conservative
▁antagon
▁Fc
▁TRH
venous
tained
▁incubation
bic
4.
riched
▁arachidonic
▁choline
receptor
rological
3%
ffin
-20
BP
▁selective
hep
yroid
▁hemodialysis
▁bip
tized
phic
▁sulph
kers
RH
▁suspension
erated
▁screening
▁5'-
▁mobility
▁shif
▁resuscitation
▁thickening
ignant
esic
▁gallst
▁ventil
▁Significant
▁diluted
8,
▁receptors
▁abolished
eptide
His
▁rheum
▁myocardium
▁lam
3)
ineal
▁peripher
nthe
▁inters
ologists
▁adenomas
ardia
▁NB
urther
otor
▁120
arly
Hu
iotensin
▁administered
▁excit
▁attrib
▁steroid
▁60%
▁seroton
▁fixation
▁hypothal
acental
roximately
queous
sus
ervical
▁ey
▁carbox
aturated
▁(14
activated
▁cytokines
▁esophag
▁bronch
cells
3.
▁nerves
▁recipients
▁tubules
▁eating
tual
99
1).
▁shortened
▁axon
▁controversial
▁ligand
epine
▁prostatic
▁effector
omes
sors
ureus
▁membran
▁obesity
▁0.05
▁cardiomyopathy
▁limbs
▁carriers
LISA
▁radioimmuno
▁likelihood
▁births
stimulated
tility
▁90
rine
▁spectroscop
▁6
-4)
78
resting
opressin
▁compounds
▁vasodil
▁intermittent
▁encoun
▁squamous
▁cere
▁cirrh
▁developmental
▁livers
assium
ifed
▁substrate
▁epit
▁amputation
thmias
▁hetero
onset
tant
▁cardiomy
▁tetr
oride
▁widespread
henyl
▁bilateral
▁concentrations
▁testosterone
▁pneumon
atment
▁predicting
▁permeability
▁lesions
▁monitored
▁Clinical
▁tertiary
▁homogen
▁gonad
▁Biochem
▁mice
▁pregn
mg
kine
oprec
▁guidelines
umerous
▁phorbol
▁leukocytes
▁molecule
▁Cox
▁postmenopausal
▁ACTH
olus
▁4
fat
▁provid
▁Thirty
tically
▁docum
aired
▁polymerase
▁interc
▁poisoning
▁mutations
ographically
2,
▁influx
▁regulate
▁bacter
▁forskolin
▁neoplas
.5%
estern
▁ischemic
▁regimens
▁gon
▁seizures
▁presumably
▁strep
▁anatomical
▁hepat
▁0.00
transferase
andard
ompan
▁inotropic
▁bone
▁grafts
▁reser
29
▁theore
▁regar
▁Plasma
▁presum
▁biosynthe
-14
DNA
▁hemat
▁regulation
▁chromosome
▁infections
▁thir
▁oxy
▁5%
▁5-
▁failures
coh
▁9
▁1.3
▁synthesized
▁characterized
▁proliferation
titial
▁granules
▁7.
▁monkeys
▁aspec
7-
erents
urin
sis
▁exogenous
titution
▁mediates
▁carcinomas
▁metastatic
▁hep
▁potassium
elec
▁resected
▁discrimination
▁mAb
▁32%
▁dissec
▁implicated
▁distal
▁PD
▁tumor
▁gains
antial
▁fibr
▁0.01)
▁atm
-9
rophy
regulation
helial
▁uncommon
ynthe
▁reductase
▁suppressor
entricular
▁unaffected
▁stained
▁21
approximately
tensin
(+)-
▁contamin
ichia
-13
▁cholesterol
▁necrosis
▁1.2
▁microscopic
▁arti
▁surveillance
▁kb
othelial
till
tention
▁colony
▁tolerated
▁slic
▁fibronectin
bac
▁contributes
▁compartments
▁drin
23
▁RP
totic
amic
gm
▁vein
▁80
hydroxy
FN
▁deficit
▁aimed
▁UV
▁passive
hea
gic
osine
plied
apse
sions
▁insertions
encephal
▁stomach
▁3
▁surgery
▁purified
itic
▁clones
▁lamb
▁plasmin
▁fluorescent
aminergic
▁hyperg
▁0.01
▁unres
▁CRP
▁51
▁mann
ronchial
▁molec
▁synerg
▁respiratory
▁differentiated
2+,
▁heterogene
▁scans
▁enzyme
-[
astric
▁analysed
omers
aemic
▁awareness
▁phosphatid
▁septum
idate
▁hydrolysis
achol
▁secreted
▁overe
▁10(-5)
▁trache
▁fasting
rected
blind
mitter
▁disability
▁quantitative
▁cataly
▁progen
otropic
apeutic
▁respon
itro
3,
▁neutrophils
▁IgA
.1
▁10,
▁aerobic
▁28
▁familial
▁autologous
▁tiss
▁phospholipid
olip
▁1-
▁assays
▁smo
gland
▁cyclosporine
aced
Hb
AIDS
aneously
▁stimul
▁thorac
▁ket
PAP
▁regulated
▁elevation
▁1:
▁postnatal
mental
▁renin
tic
▁inhibited
2%
▁ane
▁altered
idin
rosine
▁sclerosis
▁calcium
▁idi
cessive
▁sph
tinu
oplasty
entical
ithin
▁effec
▁heparin
tent
odynamic
▁0.05)
▁metabolite
▁facilit
▁neon
crip
▁PGE
▁15%
trac
omat
▁cigaret
▁tracing
roma
xual
▁pathologic
▁fitness
▁preliminary
▁ascer
▁synthesis
▁neph
▁30%
▁homogene
iotic
omotor
▁1,
itus
▁cardiovascular
▁ganglia
regn
orectal
▁adoles
▁steroids
operatively
ogenic
▁depolar
▁severity
▁cyto
veolar
affec
▁filaments
bral
▁HDL
oxide
olism
iary
▁enzymes
onstric
▁prevalence
▁.0
anding
▁hypertrophy
opathic
icient
lyc
obacter
▁somat
oung
▁mono
▁rele
▁spati
tural
jected
▁diffuse
enzyme
▁sampl
▁aqueous
▁operative
renol
▁contaminated
▁embry
▁virtu
2/
▁cyclic
▁prolonged
▁viable
▁aureus
▁interf
tality
▁struc
ococcal
▁facilitate
▁subjected
▁reflec
▁synthase
peptide
aline
▁depolarization
▁biosynthesis
iciently
▁serum
rotic
ocardial
▁collagen
▁tibial
▁heal
▁hydrophob
LV
acyl
▁potentials
ygen
▁detectable
.8
▁35
▁injec
ochemistry
▁tolerance
▁22
adrenoceptor
▁reproducibility
taining
▁intram
▁muta
coun
▁absorb
▁outs
▁TK
▁preoperative
phenyl
▁glycogen
▁actin
terone
siologic
▁MG
tive
pH
onad
▁reas
▁Hep
▁decades
ometr
echn
oplastic
plants
uminal
▁hypers
lesion
▁Thir
▁deletion
▁vasopressin
acted
iminary
▁intrinsic
▁lec
▁injur
ulph
▁attenuated
▁reflex
▁accurately
▁leukemia
00
▁junction
onium
▁(6
occi
▁elicited
▁68
▁estimating
▁specimens
owever
▁Overall
▁sequentially
plic
ceptive
▁0.9
▁cirrhosis
▁chromosomal
tingu
▁mec
▁measuring
▁11
ivered
▁rhe
50
monstr
terol
▁amyl
▁estradiol
▁intestine
▁statistically
▁epileptic
▁0.001)
▁catheters
ignific
▁advan
▁angiotensin
▁reactivation
▁cytoplasm
▁progestin
▁muc
anol
▁toxicity
enic
EGF
▁trophob
bumin
▁arthritis
ogenesis
tiz
amus
-1
odal
▁vaccination
▁prevalent
85
▁nitro
▁diets
▁lymphocytes
mend
▁displ
▁antiserum
▁compe
▁acute
▁antigens
▁availability
▁retic
erad
▁porcine
lys
saccharide
▁gp
▁latency
▁lamin
▁electrophoresis
▁8
uoden
▁survival
itamin
27
▁lob
▁100
▁neurotrans
▁enhancement
▁induc
▁gradients
▁resour
▁plasmid
astom
▁neuronal
▁anastomosis
▁depression
sively
▁differe
▁mitochondrial
eled
induced
ophil
bodies
▁dissection
▁reduc
▁connective
▁immunoreactive
enhanced
▁dehydrogenase
▁vesic
▁recombin
▁ESR
▁locus
▁(10(
0%,
MV
▁embryonic
▁assessed
▁modulate
inely
▁complaints
▁VE
▁sut
▁Comparisons
▁femur
▁construc
▁indications
▁mg
▁BAL
▁echocardi
/3
▁glomer
▁transfusion
oreactive
tence
turb
▁hippocampal
CAM
▁discontinu
▁cutaneous
0,
▁tomography
ensory
▁HL
▁clamp
▁gluc
▁diabe
▁thymus
orts
▁1987
▁reveal
▁dilated
▁bolus
▁SG
▁infec
▁deterioration
▁superficial
▁socio
▁pacing
▁upstream
▁proteoglyc
▁modality
▁Neither
▁alterations
▁creatine
utroph
▁maintaining
▁hemisphere
tamine
▁syndromes
▁pancreatic
tenance
▁FV
▁intravenously
▁relaxation
▁substance
31
gely
▁pyram
▁correlations
▁favourable
▁involvement
▁bovine
fusion
methyl
▁59
▁dodecyl
▁carrier
phil
▁irr
▁indicative
46
▁cis
▁inhibit
▁attending
▁electroph
▁anatomy
▁membrane
▁MN
▁hypox
nitro
▁cartilage
▁infants
▁mmHg
▁transplant
▁mumol
▁balloon
spectively
▁lymphoma
▁spont
▁fibroblast
▁adap
▁nucleus
▁0.0
CBF
rolog
▁myosin
robic
▁mM
▁establishing
▁AMI
▁substantially
cardi
ucine
▁coupled
▁segmental
▁4-
▁inadequate
▁homology
earing
▁depr
thym
▁indomethacin
90
tions
▁pretreated
▁angina
▁laser
▁soy
▁abilities
olated
ifugation
requ
▁fibers
▁FS
▁tes
▁causative
affected
▁dete
nec
▁hygiene
▁Tran
▁4.5
▁poorer
▁instability
▁ovarian
▁clus
▁suppor
orrh
apamil
▁gyn
▁IFN
glucose
▁intrauterine
▁3,
osome
▁cros
▁pediatric
▁endothelial
▁Concomitant
▁pharmacokine
▁scre
▁thyro
tration
▁usefulness
▁5.
▁admission
▁linoleic
rogenic
▁acetyl
embr
▁lateral
▁ions
ilateral
▁platelet
▁prel
▁pig
▁promising
1,
iciency
▁HSV
tro
▁techniqu
▁mL
▁0.8
atab
Ts
▁causal
▁HP
-7
▁yielded
ergy
▁nonc
aventricular
▁caution
▁responsiveness
▁viral
▁enti
▁mRNAs
urons
▁stret
ayed
teroids
▁isoproterenol
▁continuously
osocial
▁neurones
▁resul
▁WHO
▁proce
▁chol
onate
▁epidemic
▁schizophrenia
CSF
trop
▁immunoglobulin
atories
▁glands
▁instrum
ropine
▁incorporation
▁stren
/6
▁ana
associated
▁adhesive
▁amines
▁0.
▁hybridization
▁suppres
▁paraventricular
▁residual
▁0.03
▁fibrosis
▁trials
▁arrhythmias
plas
▁susceptibility
▁intravenous
▁anxiety
ocarcinoma
▁premature
hist
▁hybrid
omiting
▁analges
▁urine
▁Contr
▁sequelae
▁adren
tical
illation
▁250
▁initiating
▁nec
obarbital
anin
▁recordings
▁75%
▁indicators
▁angiography
▁vesicles
thma
▁polymorphism
orption
athe
450
echanical
▁3.
▁psychiatric
ociation
hydrox
▁pigs
▁implications
oluble
▁sti
▁biochemical
▁transcription
▁declined
▁muscle
▁yr
▁HIV
▁Cyt
▁cyclo
▁recor
▁-0.
▁microscopy
▁optic
▁60
-100
oside
ynaptic
ication
45
▁decline
1.
▁staging
▁surge
▁depressed
▁(30
respon
▁precursor
▁longitudinal
▁endometr
▁leakage
▁perinatal
▁anatomic
▁histamine
▁tumour
▁hypoxic
▁10
▁activator
▁enrolled
6-
▁requi
tory
▁practition
otides
▁MI
▁transcripts
2+.
▁LPS
▁excretion
▁capillary
luded
▁rhy
▁swelling
79
▁[3
▁tRNA
▁insufficiency
▁conserved
▁diagnoses
ocor
▁morphine
▁polymer
loon
▁catechol
▁tumours
ocyte
pir
▁5'
ronectin
▁sucrose
▁soluble
▁fractions
▁pharmac
onit
▁cerebrovascular
ullary
2+
7%
ceptions
usive
▁afferent
▁incidence
▁hemorrh
▁pregnancy
▁inver
▁Patient
▁genotypes
lysis
▁activated
▁aldosterone
▁clinical
▁beha
acetate
athetic
itone
▁unc
▁incorporated
▁(2)
▁somatostatin
▁underst
lytic
▁3.0
effective
maximal
ameter
▁carbohydrates
▁Chronic
▁(10
oxic
▁cytotoxic
▁0.000
▁ventilatory
▁inhibitory
.1%
▁minimize
▁controlling
▁pathogen
encl
trated
LDL
▁uncomplicated
▁prostate
anthine
▁tymp
▁agon
▁47
tine
▁clon
▁pneum
▁ald
▁mutagen
▁somatic
▁spi
2.
eces
▁SLE
▁diffic
▁radiolab
ionine
▁Additional
icardi
▁0.001).
4+
▁excl
glut
-0
tensive
ifug
▁cardi
▁onc
sts
▁pathway
opamine
16
olved
ffec
▁preservation
▁2,
ocortic
inally
ropyl
▁relapse
▁GSH
tectable
thel
▁bowel
▁withdrawal
oresis
▁hipp
physiologic
▁radioactivity
▁biom
▁perfor
▁concomitant
▁10(6)
ygous
▁PMA
amines
▁deaths
▁phosphorylated
gmental
▁anion
▁29
▁degradation
fec
▁mandibular
▁manifestation
adrenaline
▁aortic
▁sugges
▁metastases
▁dye
inositol
▁consensus
▁adequately
ture
▁functioning
▁sulfate
3-
▁inflammatory
▁melatonin
▁1.0
▁inapp
▁supplementation
▁previ
▁decisions
tures
▁stroma
▁antibodies
tage
▁glucagon
orphin
▁neonatal
▁mild
jec
▁multivariate
▁hormones
▁lowered
ejun
▁arrhy
▁SHR
▁secretion
sian
occus
▁circumference
▁shorten
▁39
eration
amate
▁NT
▁CNS
▁prostaglandin
▁extracts
▁54
VL
▁continuing
ocaine
▁endemic
entral
ologically
isqu
▁Doppler
▁microsomes
+-
▁systematically
▁practic
▁Surgical
▁epithelial
▁immunity
ields
▁complications
tens
▁0
acting
▁79
▁eryth
▁26
accharides
▁inhibiting
▁incubated
▁gly
▁dyn
▁HC
plete
▁preferen
▁diame
▁irradi
▁rats
1),
▁minimally
▁comparisons
▁PEG
acid
▁diversity
▁distinctly
▁ADP
sorption
▁symptomatic
rhy
▁linole
-15
▁metast
▁evid
▁tach
▁PRL
▁morphologic
semb
▁exhibit
▁coli
▁dosage
▁[14
▁vag
▁drugs
▁promo
immuno
▁estrogen
matched
▁disorder
▁treating
18
▁adop
▁HB
2-
▁ammon
▁hypot
▁outpatient
ergency
▁conclusions
▁1
▁Dop
▁systematic
meth
▁1988
myc
▁kappa
▁inducer
▁neurop
▁cDNA
▁correspon
opathy
Hg
opoietic
▁IgG
▁cytos
11
▁membranes
▁phosphor
ilic
▁hygi
▁efflux
9%
eal
▁approx
▁endoscop
▁normalized
thre
▁hemodynamics
5)
ilibr
.8%
▁5
▁cellular
▁decreased
▁hospitalized
▁amput
tation
▁cytochrome
inergic
erine
▁mug
▁immunization
▁staining
▁precur
▁vacu
teroid
kground
▁tension
▁intact
tetr
otone
athyroid
▁sten
▁doses
▁inhibits
▁supernat
▁carotid
oratory
etitive
▁apex
▁Severe
forming
kephal
▁slowed
▁renal
▁OA
▁sperm
tophan
▁tubercul
▁mammary
fos
▁gallbladder
ginine
▁potenti
▁nucleotides
▁ration
▁vaccin
hemical
▁enzym
▁donor
▁titers
▁61
ituitary
▁moderate
embrane
eptin
▁Kup
▁hypothyroidism
▁Nine
▁chromosomes
▁valve
▁albumin
enteric
illin
▁glycine
piration
▁femoral
ogens
▁outcomes
▁fatty
sulf
▁infusions
▁arter
▁restric
▁evaluations
tif
incip
▁chlor
▁drainage
kinin
▁+/-
vices
▁wee
namic
▁therapies
▁hippocamp
▁hind
▁soybean
▁4.
▁determining
▁dele
▁labeled
▁comparable
▁ips
trogen
ronch
▁norepinephrine
hern
▁muscarinic
▁opi
mentation
mented
jun
▁LS
▁1%
▁increasingly
▁tric
▁decreases
▁fever
▁ATPase
▁transcriptional
ietic
▁spine
athione
▁kinetic
65
▁predictor
▁lipids
HF
tured
▁genic
125
▁1.7
▁phag
stolic
▁molar
ustif
▁supplement
▁examined
▁unm
illary
35
▁binds
▁tidal
▁fetus
tance
▁GABA
▁abd
%),
uncture
▁practitioners
.6%
ylchol
▁IIb
▁assessment
▁pyr
▁Tes
▁stom
▁medulla
osom
ohyd
elan
phosphon
ensi
IFN
▁cathe
▁HI
▁routinely
▁methyl
▁eosin
▁TPA
▁DF
▁adenocarcin
tisol
▁deterior
▁bladder
yel
▁keratin
abain
amily
ediatric
▁viruses
tral
▁Mn
ositol
▁astrocy
▁challenges
▁relating
▁therapeutic
trol
▁homologous
▁LH
benz
▁treatments
▁underg
▁300
▁(0.5
