ominant
▁5.2
▁14,
▁CAD
ordin
aline
coh
▁inconsistent
▁Treatment
▁Likewise
▁2,
▁iso
erving
▁depressive
radi
▁excre
bly
-22
▁19%
piration
acted
▁HbA
▁sci
▁43%
▁uric
▁deleterious
▁13-
▁edema
aryngeal
▁discomfort
TSH
▁(31
▁(46
▁criterion
idespread
▁Eleven
▁potenti
▁2)
odic
ture
▁-4
romycin
▁63%
▁topical
entral
▁(20
oconstric
▁provid
▁ultrasonography
▁abnormality
▁ori
▁juven
▁(3
ariate
▁lutein
▁conges
▁histamine
▁cultured
▁adjustment
▁140
thma
▁intraven
▁proce
▁suppres
ochem
.7
comitant
thre
▁8.0
24
73
▁carbohydrates
▁syndromes
▁increas
/3
▁benzo
▁35%
▁32%
▁modifying
▁paired
60
▁venti
▁aerobic
▁saliv
7,
▁staging
atectomy
ophren
allium
olig
▁spasm
▁2000
▁antis
average
asic
▁neoplasm
▁lipoprotein
uted
▁67%
tensives
oplasm
EG
queous
traum
ocyst
▁metabolic
▁sensi
▁infertility
▁(3)
tention
angl
▁Hg
jac
▁126
▁histological
▁excision
▁empir
▁femoral
▁elastic
▁supra
▁prophyl
rates
▁800
▁canc
▁tubes
tron
25
▁enal
ofl
▁anatomic
odine
▁disclosed
▁0.
tents
▁(2.5
▁Doppler
▁spi
▁brom
▁transmitted
eces
▁cutaneous
▁arose
1)
▁wors
ffe
▁Sixty
▁94
▁streptococcal
▁receptor
▁logistic
▁conjunction
regn
▁metast
4%)
▁suture
ontal
▁hyperp
5%
tein
▁5.1
▁79
tig
▁10,
▁amplification
▁serum
oxifen
xia
▁thyroxine
tial
▁operative
▁comparative
▁acqui
▁advan
▁saphen
▁0.18
▁ureter
▁obstructive
/6
▁(4
pH
ygen
▁extensor
▁Phen
thromb
▁mice
▁124
phosph
▁2.0
▁uv
▁uter
▁ascorbic
▁antidepress
encephal
▁(10
0.9
▁relap
▁Coronary
NH
▁(300
▁influenz
▁37
▁propranolol
etent
odies
▁cerebral
tained
▁suggestive
spectively
▁inappropriate
▁exag
▁interc
18
▁reproducible
opril
anding
▁-0.
ocortic
versely
42
inase
onc
▁prenatal
▁responsive
▁0.01).
▁neph
▁enrolled
▁osteoporosis
35
▁substitution
▁extrac
▁methotrexate
▁23%
-9
pran
▁LR
▁corticosteroid
/1
▁10-
▁3)
▁discontinued
7).
▁9
▁neonatal
▁etiology
▁unexplained
amole
▁restenosis
▁prol
yrid
arynx
▁defic
tensin
▁Leuk
conver
▁gastro
timulation
ecre
▁outpatient
▁0.00
▁compartment
ffeine
▁tas
▁casein
▁(1
alp
▁heparin
▁Bac
▁tended
▁creatine
▁36
▁ovulation
▁55%
▁readings
▁LV
orectal
▁deposition
▁impair
pig
inflammatory
aryl
0,000
rein
▁glut
scherichia
▁folate
lym
▁exposures
▁scans
▁circumference
▁occlusive
▁fluoride
omal
bacter
▁TSH
▁retrospective
▁construc
ferrin
enteric
tency
yel
0%.
oscopy
▁loos
▁mec
rected
associated
▁32
▁enl
3,
plasty
▁obese
.0
▁bilirubin
▁cuff
▁subgroup
protein
anin
olated
opa
▁devi
▁5.
▁24-
omial
chlor
dominal
▁retin
▁Gluc
nisolone
▁61
▁newborns
▁discharge
articular
▁125
▁bronchial
▁therapeutic
raine
78
cortisone
29
▁DMP
tics
▁predominantly
▁0.4
▁supr
ethyl
▁emo
▁colorectal
▁immunotherapy
▁normalization
tening
meth
▁133
▁hemat
▁identif
▁lar
oxic
▁aden
▁clinics
oreal
hion
▁resis
▁propionate
vices
vation
▁7
adone
▁enlarged
▁65
oxin
▁polys
▁sheath
▁recipients
▁crosso
▁corticosteroids
8;
71
tured
luded
▁distinguishing
96
urgical
▁6-
▁vigorous
▁nutritional
andard
▁8.1
tine
▁Eighty
▁behavioral
lamydia
▁transient
▁microb
▁9-
▁48
▁melan
▁potent
▁actin
▁CAP
▁75%
▁antimic
ctive
eliac
▁abscess
▁pellets
▁6.4
acental
olol
2,000
meas
85
glycoprotein
viral
▁100-
▁paren
/7
▁tolerated
chloride
openia
▁inhibitor
▁diffic
▁improves
oporosis
idis
▁computerized
▁soy
(2
itus
farin
▁spinal
oderm
▁0.5%
▁bathing
enic
0.2
opro
▁experimentally
▁malign
▁hydroly
▁bup
▁efficacy
▁4%
roscop
rhy
ogenic
0.
early
ospasm
embry
▁postmortem
operatively
▁83%
▁55
▁glomer
dL
▁endoscop
▁histology
yro
17
▁adren
▁demonstrates
rance
▁89%
▁HLA
2).
▁progression
▁Increased
▁abnormalities
▁stimulation
titute
alsy
▁atopic
▁prednisone
▁Multiple
▁immunobl
▁superf
orac
tomy
▁116
DH
▁biochemical
▁predictive
▁Examination
onary
▁estradiol
administered
roscopy
promoting
▁defec
plasia
▁coag
▁10.5
lated
▁vaccination
▁57%
▁concurrently
▁esophageal
rays
ionine
▁ech
▁coordination
▁caffeine
ocytosis
▁pathophysiology
▁congestive
▁198
irub
▁functionally
▁cytology
0%).
39
▁Transi
LH
▁71%
arean
▁Streptococcus
oprost
▁carbohyd
blind
▁biop
▁29
▁glomerul
▁ane
ameter
▁reser
▁pyr
amid
▁glycol
orpor
-1).
▁serotypes
▁systemic
▁inducer
tigu
ifed
.8%
▁fulf
▁PCR
▁inten
▁19
tility
eak
▁antagonist
▁revascular
insulin
uminal
▁manifestations
▁suppressed
▁psor
▁hygi
▁Combin
▁contrib
▁bipolar
vitamin
▁carc
6-
▁hypox
sian
▁aspirin
▁epidural
▁8.
renal
▁(19
▁angiotensin
sA
▁lacked
▁sugges
▁maternal
▁colonic
▁Acad
▁diabe
trol
▁6
ventilation
▁Estim
-80
▁120
diabetic
▁accid
▁proximal
▁13
estions
▁confound
▁(1.2
▁junction
vail
tosis
▁simplex
▁40-
bearing
▁positively
icine
inergic
▁indomethacin
▁73%
▁lith
▁sensitivities
▁persist
▁0.1,
▁systematically
ipramine
-70
▁ECG
BH
▁ranitidine
▁absorp
tration
keletal
▁commercially
merc
▁cavity
▁5.3
ithm
▁adenocarcinoma
▁86%
▁antiarrhythmic
▁disturbances
▁numb
▁probes
epithelial
▁inh
psych
▁hetero
till
▁136
anking
otroph
▁(95%
▁40
0.4
lipid
▁(1.5
10
▁pathologic
▁shortened
▁multivariate
▁15
▁transi
▁21%
▁epidemiologic
invasive
median
▁cervical
▁aspec
▁responsiveness
▁PV
▁hyperlipid
▁12.5
azep
▁paroxys
▁placental
▁refractory
4;
inesterase
epam
nai
▁0.35
▁gyn
ignificant
lycer
urgery
ocomp
▁95
hydropyridine
-12
▁secreted
▁cystic
▁sediment
▁infar
tative
▁IB
▁triglycer
▁herpes
romes
▁0.01
▁(1.6
▁gluc
▁developmental
idine
▁nephropathy
▁3.1
▁comple
▁4.8
ophilic
ipine
▁discon
▁59
▁cerebro
-2
▁tib
▁metastases
▁derm
oung
99
edema
28
▁Thy
atation
Bs
▁outflow
vents
▁83
yrib
itone
▁somatic
▁erg
▁129
yzed
ronchial
aminophen
andida
▁standardized
tum
▁WHO
▁malignant
▁hypercalcemia
sus
teroids
▁steroids
▁ure
▁objec
▁vaccin
▁scre
▁3.4
▁1.7
throm
▁60-
▁intensive
▁3.7
yses
▁cortic
▁chloramphenicol
▁evaluations
urrent
▁4.7
▁Haem
ulant
ritis
▁econ
▁morb
▁fertility
▁42%
icin
▁plasmin
▁concep
▁simult
▁gonadotroph
▁pharmacologic
▁physiological
ipr
▁posi
75
kage
expressed
▁familial
tural
dose
ergy
rele
▁instruc
ositi
▁aluminum
▁toge
responding
▁substanti
450
▁converting
▁99%
▁0.19
▁chloride
ervical
olism
▁weighed
-20
▁recor
▁0.30
▁64
▁hepatic
▁ultim
▁variability
▁definitive
▁62%
▁Abnormal
▁allergens
▁preven
▁memb
▁nec
▁carcin
▁37%
lactam
gated
feron
vival
eration
hetamine
▁lipids
ectomy
urin
▁Assess
osin
▁0.0
▁proteinuria
▁1983
xual
▁comprising
▁35
▁luteinizing
sensitivity
tations
▁differe
38
▁surgically
▁gon
▁Holter
usate
▁vascular
tiv
▁infancy
▁wk
▁3.8
▁antid
▁1.5-
0%),
▁veins
9,
▁DF
▁differentiated
▁validity
▁dysplasia
1%
▁fati
▁impaired
▁perfusion
1.
ubs
▁relaxant
tisol
blood
oste
osition
▁1.
intestinal
▁ELISA
parathyroid
risk
▁solitary
estis
idation
mental
▁chec
▁overt
▁Epid
▁analges
ergency
▁offspring
▁stratified
▁sequenced
▁tox
▁bip
▁soluble
genic
orphine
9-
dition
ctomy
cemia
▁pharmacokine
▁blot
tizing
▁1.9
▁smokers
▁AFP
▁incom
umerous
arate
▁mmol
▁paradox
▁benzodiazepines
idase
aemic
▁(1)
drug
▁seropositive
▁controver
▁regression
sulf
ysm
▁(14
ocaine
▁1.5
mortem
▁testosterone
robial
erent
quit
▁115
▁palp
▁pancre
▁elevations
▁18
anic
seud
8,
ylase
▁(250
86
▁implicated
▁verte
cholesterol
▁hypertro
tional
▁undergone
lep
▁coated
▁(15
▁vulgaris
▁98%
horm
vian
PCR
cine
▁1990
▁36%
▁ineffective
▁aspartate
▁uncommon
▁prostaglandin
▁clamp
tiguous
tive
adder
▁tymp
omotor
▁92%
eded
sions
23
▁encephal
▁(7
crip
▁nondiabetic
ints
▁postural
tant
▁Ninety
59
▁clinically
bral
▁physicians
▁23
▁cruc
vaccin
▁fibrosis
▁Scale
▁bolus
iol
▁spon
▁39
▁recruited
▁3.2
▁muc
▁emerg
erence
▁atrial
▁Prel
leb
0.0
▁infusion
▁regurg
▁unusually
▁93%
itidine
▁68
▁77
tussis
▁perinatal
▁dipyridamole
▁complication
▁700
▁biopsies
▁HSV
sia
produc
ipheral
▁couns
gely
uprofen
ilin
thmias
▁tac
▁detec
oprolol
tens
▁0.1
▁heterogeneity
▁0.03
▁acidic
▁consis
300
▁nasal
▁angina
▁promp
▁airway
▁algor
▁insulin
▁measurable
ypical
▁81%
▁84%
▁ciprofloxacin
opus
onazole
elves
▁epidemi
Hg
thyroid
▁schizophrenia
▁CG
▁glycoprotein
ignific
agic
▁intrauterine
▁referral
▁93
inally
thmatic
▁dietary
95
▁retention
▁lipid
▁88%
▁correlate
ociation
▁peri
▁immunized
▁Afric
spective
▁histopath
partate
▁elas
osomal
▁adversely
▁bronchodil
sectional
▁inser
▁neutroph
▁39%
▁hypoglycemia
▁expiratory
2%)
▁admissions
27
cents
▁31,
gus
orrh
▁limb
▁Hyd
▁musc
▁carbam
ration
▁hydrochloride
olone
cysteine
▁subf
▁thereafter
tric
▁neurologic
▁brainstem
7%
▁Myocardial
▁90-
rocy
11
▁hypot
etoprotein
amphenicol
molecular
▁cytoch
▁bioavailability
▁48%
▁hematoma
▁-7
▁1/
urea
▁4.5
▁meningitis
48
astatin
▁Measure
▁1.1
▁ampicillin
▁LDL
20
▁0.05
▁acetyl
▁Evaluation
▁6.
▁contaminated
▁33
corrected
▁perioperative
52
▁bromocriptine
▁1.5%
▁25
16
▁69
amn
▁58%
acr
▁13%
ighted
▁sham
▁penicillin
▁gentamicin
epines
▁Bacter
▁69%
▁adap
▁1:
azol
▁11-
▁tiss
70
▁rhin
▁polyp
▁hypertension
▁urinary
roscopic
vely
▁(0.5
▁199
▁cartil
▁arrhythmias
▁kinase
▁omeprazole
ecretory
▁glycosylated
▁grouped
▁sti
4/
▁supplementation
▁pretreated
▁instrumented
▁surgeon
▁transluminal
▁54
▁retinopathy
▁irregular
▁aberrant
ceptive
▁contraction
▁Increasing
ardia
onstric
▁illnesses
▁incis
ximal
urnal
obenz
▁promin
luding
lox
▁1970
▁dilatation
▁54%
3%)
▁analyses
olysis
▁skeletal
▁antic
▁alcoholic
1-
▁deficit
▁tumors
ischemic
▁cerv
▁MM
▁lithium
▁formulations
ophageal
▁kidney
1;
▁resour
▁prevalence
▁immunoblot
▁undergoing
▁ulcers
oglobin
resist
▁moderately
ealand
▁(2
▁compart
▁24%
▁fibrillation
▁hepat
amines
▁underst
-14
oratory
▁90
partic
▁nicot
▁gases
▁attenu
▁sulf
induced
menopausal
,000
▁congen
▁esophagus
.0%
usp
94
▁hypotension
▁102
rine
opo
rocyte
▁exten
▁1986
10,
▁6%
lobulin
▁stren
▁respiratory
▁cohort
▁colonization
▁expres
▁hypo
itant
▁Increas
4-
aturation
▁panc
▁antibiotic
9).
▁doubling
urys
igaret
▁HDL
▁64%
▁hepatocellular
▁onset
tiz
▁7.7
tel
sies
▁Tissue
atoid
.00
▁aqueous
▁progn
▁0.09
▁equivalents
▁menstr
▁duct
irds
▁persis
▁analgesia
▁immunocomp
▁vitamin
itrate
reactivity
2-
-36
tact
▁nitro
▁97
▁agonist
oretic
▁physiology
31
uria
erance
▁satis
▁4.1
▁flora
reness
▁enalapril
epine
▁hemorrhage
▁salivary
▁anticonvulsant
terase
▁frac
▁73
opamine
▁8
▁quantitative
cyt
▁titration
▁ablation
onyl
▁19,
▁fecal
acterial
▁rup
cis
▁duoden
▁reliability
gents
67
▁manu
aminop
▁erythromycin
trib
▁adherence
▁routinely
▁7.9
▁gland
llate
▁44%
ducing
▁affinities
▁91%
ocys
▁adrenal
▁17-
sors
rogenic
▁caloric
flamm
asal
▁progesterone
▁supplements
▁Investig
▁spre
bility
68
▁therapeu
▁mann
56
▁diarrh
lies
▁twofold
arbox
▁drainage
▁dye
▁2.8
▁Caucas
releasing
amus
▁furosemide
ampl
▁progres
▁practitioners
prising
▁0.13
trop
34
▁cortisol
ithelial
▁intestinal
▁electrolyte
▁(5
▁creatinine
ycline
▁intolerance
▁duplex
tate
▁averaging
▁agon
-65
▁attenuation
▁hematologic
struc
▁heterozygous
▁arth
▁leukotri
▁53%
otre
▁0
▁poin
▁Fifty
gressive
7),
▁98
▁benzodiazepine
oluble
esophageal
ifedipine
valence
romy
elan
tent
.3%
.1%
▁diets
▁1.8
000
5%),
▁antagonists
▁neon
▁PCO
glycer
▁discontinuation
▁25%
opathic
erate
▁enamel
sives
▁hydrocortisone
▁dosage
▁wee
▁nadir
▁vein
▁agglutination
▁estrogen
8-
cence
atible
▁Alzheimer
▁pertussis
viron
▁Subsequently
▁dimethyl
▁EB
▁dermat
▁inflamm
▁pulmonary
Cu
▁demonstrating
▁alcoh
▁leuk
▁psychosocial
▁seroton
▁250
ventil
owel
trin
▁Ig
▁discriminate
▁prolonged
▁quin
▁CHD
ocellular
▁lumbar
inj
▁48-
induc
trical
hydrop
▁symp
54
▁CI
eprazole
▁(50%)
▁inspiratory
tral
▁clus
▁Evidence
▁prognosis
▁summ
treated
▁enhances
duce
ocarcinoma
▁RA
▁aneurysms
oride
onvul
▁fixation
▁menstrual
▁latex
tically
-3
▁400
positive
atif
▁95%
▁inflammatory
▁allergy
▁adip
topril
▁capsules
▁unilateral
aturated
▁(50
▁defects
▁pituitary
▁comparisons
▁145
osterone
▁epidemiological
▁citrate
▁regulating
▁injec
▁qualit
bac
stim
▁digoxin
▁-10
▁cen
idated
greater
▁3.0
▁31
▁favorable
▁88
▁10
▁1500
▁Disease
osom
▁cerebrovascular
iotensin
ifferen
cessive
omerular
▁reduc
▁efficac
orec
▁peroxide
▁polym
▁30.
onit
antial
otyp
otypes
▁ventil
omiting
▁evid
tition
▁contracep
atell
▁elic
▁hyperthyroid
anad
ovirus
▁chor
▁tach
▁ischemic
▁amphetamine
▁4.3
▁hypers
vic
hyp
icep
▁50%
▁allergen
phil
▁insufficient
▁membran
▁TS
anol
▁233
ticular
▁unres
▁percentages
tigo
▁fung
▁schiz
▁slowing
sistent
▁questionnaires
GH
▁genotype
▁sputum
ipit
▁postpartum
▁Subjects
-100
sequent
5)
availability
▁4-
rox
▁mortality
▁precursors
▁receptors
▁focal
▁hygiene
▁anhydr
olec
lytic
tors
triglycerid
▁scanning
▁Serum
tally
▁Initi
▁ank
▁HI
uting
▁initiate
5%,
▁reproduc
▁0.07
▁5.6
ospor
▁3%
▁-6
▁Diagn
▁0.9%
▁7.6
▁16
▁usefulness
teroidal
iae
▁prophylactic
:1
▁33%
natal
unctional
▁uncom
▁pathology
amicin
xime
▁15,
▁hydrophilic
▁investigations
▁definite
phal
▁inflammation
enal
▁identi
agin
▁7%
zard
▁132
▁contex
6)
▁inherent
▁analgesic
teroid
▁sexually
▁Preliminary
▁DBP
▁regulate
19
tection
▁saphenous
ulatory
▁pretreatment
▁fractures
▁hepatitis
.9%
▁reflecting
▁antimicrobial
▁Seventeen
▁normo
▁characteris
inic
ffer
fusion
▁concentrations
ayers
:3
▁commerc
lyc
sibly
▁predic
▁islet
reduced
▁parac
Gs
▁105
▁induction
duction
▁epilepsy
▁constituted
operative
▁mL
▁Subsequent
▁(44
.9
▁erythrocyte
10)
▁sedim
tical
▁131
uretics
otrop
▁Alz
▁discharged
rosis
idic
26
▁lateral
▁duodenal
atosis
-35
tracted
▁Maximum
albumin
▁genotypes
▁dyspnea
▁reac
▁1,
-5
43
▁malignancies
▁cyt
otoxicity
▁(47
▁assessments
▁96
achn
tering
▁insoluble
▁targeting
▁hypoxic
▁intra
kely
▁relapse
▁treadmill
▁compositions
thirds
▁endometrial
administration
acrine
mega
▁ascertain
yste
▁sampled
▁chronically
ylated
▁3.6
antibody
owever
-1
▁tracts
▁kinases
▁intrap
apanese
adian
ameth
loid
▁synthesize
ethylene
▁8-
▁135
▁40,
▁qualitatively
thood
▁myc
12-
▁(16
▁6.5
▁reticulocyte
tiary
▁59%
▁25-
uric
▁socio
▁arterial
orh
timal
▁histologic
centr
▁exer
▁dosing
0-
plementation
▁20-
▁4.6
▁euthyroid
▁resistant
400
restricted
▁61%
mol
▁conductance
lux
▁lapa
.5
ometh
▁infarct
▁limbs
esti
63
▁reversed
▁fluor
▁keto
erb
▁31%
▁triglyceride
▁IgA
tropin
kets
amphetamine
▁intub
▁activator
▁rotavirus
Pa
▁96%
▁lidocaine
▁(40
▁RR
▁114
▁intake
▁remo
▁43
tin
▁34%
▁infarction
%).
▁plas
▁augmentation
trated
uran
▁diuretics
▁3.9
▁salbutamol
▁respec
▁alanine
▁yielding
odds
▁110
iteal
▁(21
tioned
▁isch
▁(1.4
leukin
ffinities
▁antibiotics
▁3).
77
▁87
6%
▁palsy
inyl
osyl
▁41
elic
▁vaccinated
immune
▁gels
▁6.6
uled
▁intravenous
pregnant
athioprine
▁transplant
idazole
▁118
▁balloon
▁reticul
▁investigators
ronch
▁urine
▁ambulatory
loxacin
▁smo
ilateral
traction
▁eti
▁rati
▁diazepam
▁sero
▁complications
▁adi
measured
50
▁asymptomatic
osts
▁choline
▁pneumon
▁99
ruc
▁mildly
8)
▁dex
▁Intr
▁febrile
ectin
sion
▁SG
irubin
trum
45
▁emphasized
▁ventricular
▁abdominal
9%)
▁atenolol
plast
▁postprandial
▁dermatitis
havi
▁(150
▁13,
venty
atical
▁genital
▁12,
retic
76
0.7
▁postnatal
oic
▁pancreatitis
▁pelvic
amide
▁Functional
toc
arial
acid
▁lep
▁(6
leuk
salt
▁adjus
tively
▁graft
▁examining
▁Bec
▁600
40
▁(28
▁immunosorbent
▁128
▁2%
▁aureus
ogenous
partum
entricular
▁hypog
effects
▁gestational
▁thir
▁predictors
▁rupture
50)
▁Levels
lives
▁BCG
▁lavage
▁concom
taz
▁resol
▁26
▁amp
▁10.
▁2.2
lip
7)
reased
methyl
IgA
tis
▁hyperplasia
▁(9
▁triglycerides
▁saturation
▁manifested
▁progressed
▁tamoxifen
▁123
▁perin
55
▁HS
bic
▁intram
iotic
urate
▁anat
▁49
▁Ace
▁25,
▁echocardi
▁28
▁76
▁deviation
▁reductions
▁protr
▁interfer
ophil
▁estimating
▁atherosclerotic
gia
onine
▁cumulative
▁27
quisition
▁hep
▁extre
▁lymph
▁tetracycline
90
odiaz
ureth
oidal
▁1000
gression
aicin
▁preparations
abies
cepti
▁inhibitory
▁pec
▁7.2
▁metabolism
▁summarized
▁inversely
▁verapamil
wes
.6%
anine
cribed
▁chol
▁psychiatric
actin
▁ery
▁hypertensive
years
▁benign
▁hypothal
800
▁1-
osocial
FSH
▁incomp
phor
deficient
▁potassium
▁TC
▁successive
▁bypass
oxif
▁compares
▁Exercise
14
▁14%
▁allele
hep
abd
▁nig
▁0.11
▁capsaicin
▁exhibiting
▁detecting
▁plaques
aund
▁transfusion
▁euth
chol
▁127
▁occult
9)
2/
ressing
ayed
▁quantified
itin
opathological
▁enlargement
▁deoxy
enzyme
butamol
tensive
oneph
-25
uresis
▁intermittent
lec
ventricular
▁ultrasound
esity
▁77%
ocar
▁stool
rosy
aginal
▁discom
5%)
▁ingestion
sively
oscop
▁rhy
▁107
▁symptom
93
▁clon
▁carbohydrate
▁195
▁cryp
▁progestin
respective
▁bic
▁zinc
.6
▁intracerebral
hyd
▁secretagog
▁dihydro
▁unex
controlled
Ig
5;
46
▁preexisting
lamp
▁microbi
600
▁pharmacokinetic
▁bladder
▁(1.0
▁susceptibility
▁0.24
▁50,
ulose
▁linearly
▁mEq
smokers
▁hypertrophy
atients
▁preterm
▁estrogens
ilep
▁elevated
individual
▁competence
▁adverse
91
▁diaz
prandial
▁erythematosus
▁IgG
sive
idney
▁71
opres
▁350
0.3
▁pla
▁deform
65
tene
▁0.1%
▁0.08
▁ocular
adrenergic
ucl
din
▁multiv
ffin
▁34
▁mucosa
▁rheum
▁(27
3),
▁(2)
yroxine
▁117
▁acces
5.
4,
▁screened
▁Hyp
▁hypotonic
▁correlated
▁(39
▁17,
▁discus
glycerin
▁experim
▁glycos
100
otting
▁Myc
-16
generation
▁prostatic
▁datab
9;
▁preoperative
▁inadequate
▁immun
▁preceding
▁stres
▁enlarge
-2)
▁pH
▁6.3
▁markers
oxyl
▁inducing
▁cann
tur
crib
▁(0.4
HDL
▁anemia
▁longitudinal
▁grains
occal
bumin
▁4.0
▁thromboemb
▁(100
▁reflex
▁dissemin
▁hydrop
▁hypercal
▁deoxyrib
▁(42
▁0.6
ensi
LISA
▁succin
-125
▁pharmac
▁voluntary
-0
▁(11
▁70%
mature
▁rats
oxid
92
▁statis
ditions
▁gradual
osal
▁exaggerated
▁isolates
april
▁(8
▁postmenopausal
▁150
▁ejection
▁oste
athyroid
opathy
▁nonpregnant
▁cef
ologic
▁1.0
▁ionized
iasis
▁reactive
▁phenotype
▁7.5
▁lowering
▁(33
ituit
ocardi
▁interventions
amphen
▁excised
▁challen
▁5
▁Factors
ficial
▁attain
ophen
▁schedules
▁coenzyme
▁Sixteen
▁vomiting
trover
atology
acute
formations
▁pati
▁Survival
idate
/24
▁unrelated
▁nonc
odil
iline
▁Whereas
ococcal
▁1985
▁persistently
▁nausea
▁dehyd
▁Concentrations
essive
▁72
▁radiographic
iotics
▁0.04
▁diminished
tyl
effec
▁ow
▁ascorb
ereb
▁1.25
▁perit
▁amn
▁obstruction
ilization
▁occupational
tion
hydrox
▁calcitonin
▁tibial
▁subcutaneous
idne
▁bacterial
▁produc
▁enteric
▁leukotriene
▁Calcium
▁untreated
sue
ilic
▁postin
▁pts
▁synthesized
bladder
▁NP
▁influenza
▁drin
▁simultaneous
▁Thirteen
otrexate
▁tran
▁0.25
okinetic
▁restric
▁calcification
▁TI
▁5,
arachnoid
▁ranged
▁17%
plants
▁75
▁biopsy
▁cancers
-45
▁hydrogen
▁41%
▁guinea
4).
▁nitrogen
▁gonadotrophin
▁22%
3%
▁opioid
ausea
▁diarrhea
▁diabetic
▁smears
▁5.8
▁4.4
▁stu
affec
▁92
▁indi
▁29%
tivation
odia
▁possi
NB
▁(30
▁statistically
▁ket
▁vertebral
▁dysp
omized
▁-1
▁66%
▁normotensive
▁biphasic
▁12-
▁foc
▁warfarin
tia
▁modalities
▁abdomen
▁ratios
▁28%
selec
▁cyclosporine
▁leukocyte
▁87%
▁7.
▁exhaus
▁cardiac
▁44
▁interf
▁remission
▁(56
▁endocrine
iminary
▁3.3
▁Tiss
▁plasminogen
▁elec
ymp
▁(0.
▁100
4%
▁500
▁3,
blockers
▁hypothalamic
▁uro
▁cysts
oracic
-50%
▁gynec
▁47
▁(18
▁perox
▁theore
▁saturated
▁112
aturia
▁abd
▁0%
▁extracorporeal
▁inhal
▁morphine
avail
▁97%
▁pyl
containing
▁scientif
▁18%
▁practic
▁adop
ystic
onin
idone
▁1.6
vated
▁46
▁stepwise
veness
▁incision
▁elective
▁30%
▁40%
▁concomitant
0%
▁amin
▁asymmetric
▁Nineteen
▁hereditary
▁viruses
pressing
ithin
imeth
80
▁perforation
enol
▁(22
athiop
▁Swed
▁appropriately
▁bactere
▁ejac
▁HPV
ionate
▁microvascular
2,
tual
4),
▁arrhythmia
enicillin
▁membranes
▁unchanged
eric
▁20,
▁contraceptive
nec
▁retic
-1)
cus
▁injections
▁competent
▁20%
▁proton
rologic
▁infections
▁protoc
monary
▁pate
▁conception
▁percutaneous
IU
▁glucocorticoids
▁anticoagulant
brom
imens
▁dors
▁reflec
▁crom
eryth
▁-5
▁PEG
▁graf
53
gative
▁14-
▁repro
▁audi
▁androgen
▁peritoneal
▁mitral
▁78
▁parental
69
▁dehydration
▁antagon
tives
14)
▁studi
▁HBsAg
inoc
▁asthma
▁rehabil
▁hypoth
▁hyperg
▁200
▁injur
▁clinicians
▁injected
lys
amethasone
▁Comparison
▁6.9
▁dosages
illary
▁65%
▁8.2
▁combin
▁malformations
athy
▁144
▁noninvasive
achnoid
▁infec
8%)
entif
echn
▁attrib
obl
▁transcription
▁cephal
▁MH
ortal
irc
▁exceeded
▁tertiary
▁pneumoniae
blocker
onucle
▁assay
▁incub
▁Significantly
▁stimulus
▁(23
▁89
▁esophag
▁18,
▁adequ
chlorothiazide
ucas
▁basal
▁jaund
▁TM
13
▁cros
▁38%
▁91
▁homogeneity
▁quanti
▁-2
regulation
▁antioxid
adequ
cys
▁78%
▁TP
▁ICU
▁comprised
▁blocker
▁160
oscopic
▁(48
▁exis
▁arteri
certain
▁steroid
vice
▁elimination
5%).
▁interferon
tero
▁ovaries
▁endoscopy
titis
acting
▁uptake
▁urea
▁108
utaneous
roma
▁splen
▁74%
▁occurrence
▁sut
61
▁albumin
▁neutropenia
▁hyperthyroidism
▁62
▁50-
siveness
muscle
▁uterine
amel
-10
8),
lyl
aric
50,
oglobulin
ociated
▁dorsal
organic
▁lipophilic
▁stric
aryn
▁serolog
odop
▁cartilage
▁examin
atitis
▁articular
aturity
▁coagulation
uretic
▁phosph
▁angiography
▁immunogenic
0.1
rofen
lyce
6,
▁exce
▁weakly
▁plateau
▁tubercul
▁testicular
▁ferritin
/100
▁coronary
▁residual
▁0.15
tif
▁cys
84
▁superficial
▁exclusion
HF
osamine
▁2.6
esium
galy
▁orally
▁exacerb
/4
hydroxyp
▁tol
▁bloc
triglycer
▁precur
ectom
▁sonography
▁enzyme
▁attemp
88
▁Approximately
▁daytime
▁benz
41
▁Hear
▁predicting
trates
▁methyl
plas
▁thrombosis
▁supple
tox
▁latent
-24
estrogen
▁intracranial
uncture
▁differed
▁sedation
▁0.9
0.6
▁subjec
▁bac
▁neuropathy
▁compli
lier
▁threefold
hers
▁sequelae
▁cyclooxygenase
▁prescribed
▁glomerular
▁noc
ipro
yclic
▁toxicity
▁ovarian
▁withdrawn
▁poisoning
otropin
▁blockers
▁0.5
▁hyperb
▁electrodes
ucle
00,
iloride
▁LT
ithi
erating
trogen
▁dox
▁encephalopathy
▁intrav
▁omega
▁regimen
elec
-1.
▁decreased
▁pulses
▁80%
▁coh
▁caries
▁21,
▁Seventy
tinguish
ypro
resistant
▁0.23
assium
9.
sant
-19
▁(24
▁acet
▁thrombus
ocor
▁CHF
.2%
▁examinations
▁neutrophil
▁fluids
▁duc
tious
▁ligation
▁addic
▁synovial
ritic
▁retard
▁(12
yridine
▁bran
imin
▁5.0
scher
-6
▁agonists
-60
▁exhibited
uccess
eptic
▁indus
epti
molec
entical
▁300
▁dias
amol
▁ester
othal
▁Fifteen
amycin
responsive
5,
▁2.1
▁fluc
Ts
ureus
▁symptomatic
▁chemotherapy
acchar
▁vaginal
▁adulthood
▁parathyroid
thmia
▁luteal
▁bronch
ostatic
▁mening
ographically
▁concurrent
▁2.9
lamy
gm
▁hyperglycemia
sibility
▁undergo
120
ocyt
phosphon
▁2.4
▁durations
▁5)
micro
odium
gluc
traumatic
▁adolescent
▁adhesive
▁chorionic
feren
2;
esin
▁tuberculosis
▁subc
▁sampl
lac
▁Significant
-15
▁mellitus
▁electroly
▁hypocal
disc
▁confirming
57
lycemia
otox
ylic
▁lupus
admill
mittent
went
▁anomal
BV
acin
▁2.7
▁semen
▁insufficiency
tiveness
olus
▁expressing
orbent
▁(70
ximum
3-
▁2.
lob
rowth
▁aspiration
▁torsion
▁gonad
ortic
odal
▁indicators
▁pleural
▁9.0
gth
▁dissection
tures
▁thyroid
▁ulcer
▁fas
▁79%
▁parox
▁acetate
66
uterine
abdominal
▁Hyper
83
▁Escherichia
▁seronegative
0,
▁LD
▁prolactin
▁nitroglycerin
ritin
-0.
▁termination
LDL
▁indications
▁53
▁cardi
letion
▁peripheral
clin
establ
▁fibros
eptide
▁1%
▁tetrac
▁verbal
▁immunoglobulin
xone
initi
directed
IgM
▁47%
▁fracture
.9%)
ffec
▁surveyed
▁autosomal
▁glucose
▁requi
▁polysaccharide
▁1.4
ochemical
▁induc
▁regurgitation
stimulating
▁immunization
oplasty
cious
▁cyclospor
▁consecu
▁16,
▁(10.
▁transferrin
inamide
36
▁(17
▁acute
▁tec
vity
▁flexor
▁100%
▁techniqu
azepam
amuscular
yrox
rease
▁cranial
agonist
▁polyethylene
▁electromy
21
ophys
thi
ropathy
▁bradycardia
▁electr
3).
lysis
asone
▁(75
15
▁emulsion
▁optimum
omies
▁Patients
▁42
▁severity
7.
44
tingu
▁capsule
▁prophylaxis
onset
hospital
▁9.
exposed
.2
itamin
Cs
cellular
▁terat
▁shorten
▁doubled
orrhea
▁recordings
azolam
▁vitro
▁streptococci
▁neurogenic
▁10,000
clic
▁compartments
▁compounds
▁obser
▁unstable
▁aerosol
ocytes
▁glutamic
▁postoperative
.7%
▁nonspecific
▁10%
▁1.3
▁cardiovascular
▁xyl
4.
64
emia
▁poten
▁pep
▁choles
97
/12
▁antigen
trial
▁9,
▁lymphocytes
▁neutralizing
▁beha
ocated
iability
▁85%
dor
▁implants
pecially
▁atropine
▁sple
tance
retin
odipine
terone
▁8.4
10.
▁170
▁oxytocin
▁lumb
▁incidence
▁Nine
▁direc
▁amniotic
peptide
▁pooled
▁4).
▁tomography
▁marginally
▁Chronic
▁monitored
▁106
▁detectable
▁hydrox
onad
▁magnesium
utable
illi
▁reproductive
leu
▁analogue
▁diuretic
arrhythmic
▁11
▁1.2
▁tumor
▁unil
economic
▁ect
erated
rosemide
▁autoantibodies
▁bacteremia
▁pediatric
▁paral
▁serologic
0%,
ordance
▁disturbance
▁15%
▁formulation
venous
▁45%
olamine
▁impairment
▁ankle
▁endo
▁hemo
piratory
▁3.
▁Subjec
-23
pli
▁82
12
etan
-8
absorption
6).
▁pyrid
▁MIC
▁puncture
▁Compared
▁enti
▁0.12
tions
arrh
▁fasting
▁3
▁resonance
▁CRP
▁5.5
▁retur
▁acros
▁Infection
▁103
▁granul
▁1
ongest
acetic
▁crossover
▁pregnancies
▁84
ytoin
-50
▁vasoconstric
▁196
▁197
▁accounted
▁exud
ergen
▁6.2
kelihood
▁8.5
▁carcinoma
▁sulfate
▁(43
tential
▁11,
achol
versity
▁unclear
▁plasm
▁113
▁insignificant
▁fractions
▁imipramine
▁qualitative
▁idiopathic
Ca
responders
▁7-
▁14
▁differentiate
ults
▁modality
▁shor
▁22
▁retardation
▁perfor
▁spikes
▁8.3
▁ascer
esic
▁58
▁amiloride
▁infectious
▁administered
▁pylori
▁anticoag
▁arter
ophilus
▁Reduc
▁7.1
%),
▁nifedipine
▁hormone
▁evol
▁evaluating
79
▁82%
▁fetal
HB
▁circulatory
molality
▁immunos
▁inversion
tivity
ensitivity
▁metoprolol
ported
1/
▁decarbox
atum
▁percentile
ogl
▁lactation
▁visualization
4)
▁(4)
▁hazard
tory
▁8%
▁throm
▁initiation
coun
▁72%
▁24,
▁Factor
▁presumed
▁assis
alian
▁repres
mentation
90)
5).
▁Mortality
orated
▁5%
0)
▁adipocytes
▁preventive
▁traumatic
▁Statistical
▁leakage
adjusted
▁OA
▁antidepressant
Ds
ediatric
▁identifiable
▁localized
▁fla
▁protec
▁Clinical
oretically
▁enrol
▁alternating
▁disseminated
▁contamin
▁washout
▁amo
.3
▁hemorrh
▁ventilation
▁5.7
▁contractions
37
▁attributable
zymes
onegative
▁accep
▁asthmatic
tus
▁27%
yclo
▁increments
tice
-1.1
feeding
▁lesions
▁12%
tissue
▁cholest
vascular
▁cyst
▁Combined
▁80
▁dermal
▁ulc
▁70
▁distal
▁satur
▁abnormally
▁affec
opausal
▁venous
▁hir
▁1980
74
acet
▁(45
6.
▁137
▁osmotic
32
▁placenta
▁6.1
Hb
▁receptive
▁metastatic
taining
▁micros
▁Haemophilus
xate
▁uniformly
▁acutely
▁perip
▁hospitalization
▁acids
urine
▁subarachnoid
parathyroidism
▁(4-
▁fibr
gment
▁myocardial
▁confirms
uscular
▁90%
erebral
entia
▁4.9
▁births
▁arthritis
▁(32
▁autoimmune
72
▁thrombocyt
angiotensin
▁socioeconomic
▁(1.3
sied
▁hypothe
onor
▁sten
▁infusions
▁spor
▁predictor
3/
eared
oxazole
▁inver
▁atrophy
▁phenyl
▁fatigue
10-
yroid
▁Lymph
▁newborn
▁Positive
▁radiological
dia
embran
▁0.5,
eal
pir
7-
▁anaerobic
▁Americ
▁hospitalized
▁specificity
bacco
astric
▁heterogene
▁antibody
▁serological
▁11%
▁latency
▁CN
▁electrolytes
▁angi
▁obesity
▁glands
▁tes
▁antibodies
2.
▁51
▁lumen
▁invasive
PV
5),
▁intermedi
▁16%
▁ae
▁outpatients
▁endemic
indolol
cture
▁conduc
tro
▁premature
▁suppor
▁ligament
ophy
▁methodology
bodies
▁irrig
-34
▁cytologic
pine
▁0.10
treatment
▁strains
ranolol
lobin
▁enzymes
▁multic
acerb
urther
ymptomatic
omethacin
▁esters
▁intramuscular
▁stratif
ods
omegaly
▁1)
converting
▁thre
▁38
▁subgroups
▁splenic
▁microorganisms
▁glucocortic
▁valu
2%
▁0.06
▁predominant
▁dextro
rowing
1),
▁(38
/10
▁vesicle
8.
▁subjective
▁hemoglobin
▁Candida
terin
fetoprotein
▁50
▁avail
▁Patient
▁endometrium
ogens
/8
▁stenosis
immun
▁45
vac
tec
▁underg
▁dementia
▁malignancy
ocrine
▁elevation
▁Higher
aminase
sible
▁24
-4
▁tric
▁trac
▁OC
▁rheumatic
▁7.8
OA
atrial
▁ppm
▁rehabilitation
▁9.5
▁predis
▁mobilization
armac
8).
0.8
▁occl
SAID
jun
▁thromb
▁0.3
2)
loro
phen
▁(0
diagn
▁critically
▁cla
18,
▁60
▁atten
vul
▁resection
▁inges
mend
▁0.22
▁arous
3.
▁dysfunction
-3.
▁retrospectively
▁differenti
-13
posure
▁fatty
▁graded
oyl
olytic
5-
▁111
entified
geal
onephritis
turb
orsal
itonin
astolic
▁endogenous
2),
▁multim
▁spleens
▁prednisolone
▁inhibitors
▁-3
▁Thir
▁81
▁viral
▁thi
▁trimester
▁deox
ergic
▁RS
tially
adily
▁unresponsive
teral
▁pigment
▁fetuses
etal
▁neoplasia
▁deficiency
DNA
▁Meas
tran
ymptom
▁infants
itro
▁bronchitis
▁selec
arrhy
mediately
▁grading
▁quantit
zyme
▁121
▁EE
promazine
▁Sodium
▁decreasing
atient
▁94%
kine
▁GAD
▁30-
▁prognostic
▁2
▁prospective
strain
▁deviations
▁spontaneous
farction
illus
lusion
roph
▁ischemia
▁clot
titution
reactive
▁substances
▁doses
(1
▁cytochrome
osus
iagn
ocl
onography
▁perc
▁multin
▁uncomplicated
arbonate
▁deterior
ochrome
▁Hb
ysts
▁12
▁trich
pregn
▁incid
onate
▁arti
▁ach
▁reactivity
▁subsets
tisone
▁atypical
▁0.20
▁gastric
▁hypothyroidism
motic
▁causal
▁avoidance
▁ultras
▁74
▁9.2
tation
▁gestation
▁Consequently
▁capillary
▁bir
▁monotherapy
▁correlates
▁carriers
illin
▁insertion
avage
/2
▁retinal
fec
▁Surgical
▁inhaled
threatening
ocardial
▁intran
▁instrum
adm
▁4.2
sych
.8
opi
▁initiating
▁renin
▁recurrence
▁deterioration
▁cran
pecific
otri
aternal
▁280
▁oxygenation
ected
▁8.6
▁lact
▁conditioning
▁cholesterol
▁quantif
▁60%
7%)
▁excretion
patients
terol
▁Few
▁Twelve
ograms
▁sequentially
▁clonidine
▁fetus
jec
entile
▁168
▁thems
▁pneumonia
▁deli
▁diagnoses
▁chan
1%)
zation
razole
erative
▁melanoma
ept
nine
otor
phic
alc
▁demonstrable
ermal
▁15-
▁confir
1,
▁0.75
▁auditory
▁Calc
▁extracts
▁56%
▁differen
▁6,
▁efficacious
ucose
iazide
▁amput
▁Insulin
atab
▁hered
▁microscop
▁neurotrans
▁valve
3;
▁suppression
▁criter
ospitals
ocin
9),
▁109
▁0.2
▁Forty
ostic
▁weighing
22
▁coli
▁transverse
oprol
erad
▁IU
▁chlor
▁influenzae
▁elimin
▁kidne
▁0.17
enia
▁nonf
▁NSAID
▁46%
▁obstetric
reas
OH
thmic
▁multicenter
orin
dine
rometry
▁rheumatoid
odon
▁diastolic
▁MRI
▁adolescents
estion
▁markedly
▁LN
1).
ocyte
tinu
erge
▁helical
gic
▁apnea
▁Leu
ostomy
▁undere
erin
▁subclinical
▁anesthetic
▁surgeons
▁decarboxylase
ecu
-5)
▁PSA
▁maneu
illar
▁40.
▁decreases
ichia
TG
▁resul
▁gonadotrop
▁hypothyroid
▁sepsis
▁20.
▁eryth
▁establ
quine
▁poorer
▁osm
olesterol
duced
▁rectal
▁trig
▁surgical
omat
▁dexamethasone
ller
▁unaffected
-7
▁alcoholics
▁methionine
▁119
yx
▁filtration
▁prospectively
▁neurop
▁underwent
8%
▁calcium
▁therapies
iatric
coated
▁1986.
▁abor
▁peaked
49
▁cyclo
▁dopamine
▁ESR
▁pneum
icillin
▁1989
▁amph
▁30
▁suction
▁cate
▁embry
echan
30
▁Tran
▁2.5-
▁placebo
ternational
▁52
▁Reduction
▁prednis
▁pressures
osclerosis
▁Fourteen
▁7,
▁captopril
▁cured
▁(500
echanical
▁substantially
▁PLP
▁bowel
▁11.5
eptin
▁ND
mokers
okine
▁acetic
98
weighted
oxide
tic
-90
33
▁5.4
sess
opr
▁Thirty
roscopically
▁bicarbonate
olesterolemia
ochrom
plemented
▁extrap
▁sedimentation
000.
wk
apamil
▁calor
▁nodules
▁4
▁lacks
▁heavi
ycin
tituted
limb
-18
▁angioplasty
▁glucocorticoid
▁struc
▁21
▁endoscopic
6%)
stin
▁margins
▁100,000
utions
▁colitis
▁pulsed
▁validated
▁vesicles
istar
gestin
adic
gesterone
▁questionnai
▁Ultras
▁serotonergic
-17
qui
▁adenomas
▁gradi
▁Relative
▁1987
▁donors
▁reas
moking
cyclic
▁inadequ
▁sodium
▁systolic
jected
▁mell
ovascular
▁3.5
▁manipulation
9%
hydro
▁physici
vular
▁minus
▁56
▁embolism
▁incontin
otoxic
▁randomized
▁smear
▁maturity
▁recom
▁suppressive
▁(80
.4%
0.5
rati
dial
▁radionuclide
▁66
▁8.8
▁phosphate
▁20
▁carotid
▁10.0
oxygen
▁100,
▁HL
▁(25
▁immunity
▁intest
▁Addition
▁adul
▁mU
▁oxy
aind
▁(26
▁averaged
▁gly
apsulated
mia
▁postoperatively
ecal
▁Oral
welling
▁Injection
▁lis
Rs
▁microscopic
oag
▁juvenile
▁incontinence
▁cereb
fat
▁neonates
quid
▁LM
▁101
▁effec
▁traum
injection
mented
▁2.5
ophag
infection
▁cesarean
fraction
▁scalp
-1.0
omycin
▁stimul
brile
▁nocturnal
▁opioids
▁decreas
▁0.02
▁arousal
accharide
▁kidneys
LV
▁hyperch
▁gonadotropin
47
azole
▁sorb
▁renal
▁neutrop
▁68%
▁allergic
▁104
▁assays
trac
▁lesion
apid
DV
▁220
▁17
▁judged
aryng
ionic
▁effusion
▁esterase
▁differing
▁HB
▁(0.0
▁chlorpromazine
▁recurrent
▁reversible
hea
pain
▁yielded
▁Staphylococcus
▁0.14
▁Arter
▁suscepti
▁endoc
▁incomplete
acil
0%)
thyl
▁anomalies
ogenicity
▁assessing
▁FEV
▁lute
▁0.8
▁diffus
pation
▁86
dle
▁uterus
▁titers
▁63
▁persisted
▁4.
▁67
▁bacteri
▁0.7
-2.
▁2-
▁minimally
▁desm
▁cis
SDS
gthen
toxic
▁supplemented
▁depres
▁Neu
▁anesthesia
onomic
3)
▁persists
▁Hep
▁congenital
▁glyc
▁pancreatic
▁imaging
▁transaminase
upus
▁Ib
▁discontinu
ughter
hypertensive
▁muscul
organisms
▁induce
▁IgM
▁122
▁9%
uble
tivities
▁implying
otent
rents
▁sorbitol
62
▁thrombo
▁repor
▁bilateral
▁generalized
hydr
▁4)
▁recr
▁thresholds
▁rhe
▁polyc
▁fum
▁proportions
▁26%
idin
▁dairy
▁specificities
6),
▁abnormal
▁mono
▁beats
perature
oprotein
▁questionnaire
▁EG
▁chemically
lact
essation
uppression
▁5-
▁horiz
mL
lude
▁molecule
isol
▁inhibit
▁effic
▁sput
58
51
▁selective
MH
▁tablets
lood
reast
scop
-6,
00
▁Fib
ulla
adren
▁artery
clinical
▁neurolep
▁85
▁57
▁previ
▁carcinomas
▁2.3
200
▁50%,
▁regimens
▁monit
▁intrac
▁yeast
▁excluding
▁relapses
▁amputation
ranial
▁52%
dered
▁headache
500
▁cessation
▁recurrences
assi
fib
▁Increases
▁130
▁sugars
▁reflux
tension
ignant
▁assessed
floxacin
▁nicotine
▁buc
▁Interestingly
▁reliably
▁hysterectomy
inemia
▁fluoro
tage
▁adequately
▁encomp
otassium
▁ana
▁eccentric
▁hemorrhagic
▁testis
.5%
▁76%
▁secrete
▁squamous
▁resec
▁swit
▁morbidity
▁tendon
▁Severe
etine
.4
▁3-
flammatory
orption
▁interleukin
▁calf
▁propor
tensity
othi
.1
