▁nmol
urosporine
▁79
CABG
▁unreliable
▁ethnicity
orpor
▁Compound
▁20%.
galactose
amental
ritin
▁rectif
▁91%
39
ields
sizing
phosphorylated
DHT
echan
ureus
▁endonuclease
ervoir
heparin
ithi
▁chelator
▁trimester
▁inulin
▁categorized
▁extracts
▁(4%)
GH
16
▁5-10
▁sarc
▁hyperplastic
▁17
▁yielded
84
ditions
▁tryp
▁156
sectional
▁bronchoconstric
▁topo
▁decompression
▁Smoking
▁stimul
▁illnesses
testosterone
▁probes
▁surveyed
▁Thyroid
▁fibrob
▁organs
▁45,
roximal
havioral
▁feline
▁inpatient
▁antagonize
proteins
onography
▁4-
yx
▁capsaicin
▁275
ingers
opecia
sied
phalan
▁indeterminate
▁cerebro
▁microm
▁6),
▁suckling
▁glycol
▁retur
▁excretion
CSF
quat
▁(7%)
▁glomerular
esity
▁transfusion
▁3.6
▁aspec
ocomial
blocking
▁diminution
▁1,25
▁testicular
▁(1988)
▁overe
trient
▁lectins
▁equipotent
-7,
▁inducer
▁parenchyma
predic
ysm
▁Risk
▁enflurane
▁ruminal
▁oleic
▁manifestations
▁(10(
▁plethysm
tyl
urnal
▁rup
▁precedes
▁viability
ussion
▁2.2
▁aspartic
▁flunarizine
▁1.8
▁electrocardi
▁SOD
▁1.18
valvular
▁graded
▁glands
▁synergism
dil
-801
▁salic
▁myosin
▁24%,
obl
ymp
iatic
▁immersion
differentiated
▁uninter
tyline
▁bene
▁lysate
▁Therapy
▁subsets
▁aggres
▁metabol
▁800
aryotic
▁5),
irubinemia
luores
utyric
arcin
▁hypercalciuria
▁1.33
▁enzymic
ylate
▁kPa
▁intracoronary
gestation
▁1.17
▁endocarditis
tryptophan
▁toxicity
▁electrodes
▁195
▁recom
▁vagal
▁ultracentr
initi
▁NIH
▁5.6
▁threefold
▁corticos
▁ligand
▁Tox
▁perc
▁Pseudomonas
▁exclusion
tic
induced
▁KD
▁puberty
▁5.0
▁potentiated
▁osteoblast
▁distinguishable
PLC
▁comparative
▁pathophysiology
ysed
▁harvested
▁untrained
▁congenital
icep
▁aggregated
TCA
▁pathways
▁optimum
13.
▁conditioning
▁5.5%
▁overweight
▁asial
▁abnormality
▁nasopharyngeal
emetic
▁territ
▁-5
▁calibration
itonin
▁167
▁capillaries
▁palp
dehyd
▁surgically
athered
estradiol
uble
▁(58%)
▁symptom
▁manifestation
ipitation
▁retrospective
▁Absolute
utin
▁circumferential
▁164
▁TATA
95
▁pharyng
▁abr
DH
▁nonm
▁0.01)
▁modality
▁confirmatory
.6,
▁athle
▁lovastatin
▁symmetrical
tolerance
▁morphogenesis
irone
▁(500
▁deficiency
▁investigating
armac
▁PLP
tep
▁ack
▁menopause
urement
ystatin
ASA
▁avidin
▁resonances
ocyan
ADP
▁satisfactorily
-600
▁hybridized
▁barbit
ullary
ensin
▁pallidum
susceptible
▁practic
▁paralysis
▁summarized
▁99%
▁Chan
guanine
▁penetrating
▁paral
▁reactivity
▁hygiene
▁cardiomy
▁gum
ficial
▁ribonucle
▁dyst
entanil
obacillus
▁9.0
▁181
▁irregularities
6)
ilts
▁interacted
▁Accordingly
▁nicotinamide
▁isoenzymes
apeu
▁gp
▁aspartate
▁renovascular
▁cytotox
▁bism
▁oxy
ietic
▁4.2
uminal
▁genitourinary
▁incision
producing
▁rumin
ranolol
▁NP
arrhy
idase
ypeptidase
otonic
▁allografts
▁pollic
loid
▁titer
▁inhibit
▁contradic
▁0.75
acet
▁phosphoprotein
▁Enalapril
increased
▁selec
▁electrogenic
▁4.4
cus
▁Afric
▁unstimulated
ETE
▁PIP
▁ileum
▁adrenalectomy
▁6.0
zard
▁HBV
▁Eleven
▁ovulation
▁recr
▁standardization
▁83%
▁(50%)
HM
reflex
▁pooled
▁Ig
arial
-[3
ancomycin
▁signaling
lebrand
imidazole
▁kinase
▁coping
▁CaCl
osaminidase
▁tibia
▁contras
30,
ubicin
▁analyzing
ensory
DG
ulsive
▁chromosomes
▁diuresis
▁maneu
oclonal
pran
genic
vitro
▁Hg
uretic
ocyt
-13
▁soybean
trum
▁aneup
▁vertebral
▁(16
▁uridine
ocine
rophob
▁abrup
thin
▁granulosa
12
▁sinusoidal
adic
▁21,
iodothyronine
▁11.2
7).
▁compartment
▁pathological
.0)
▁PaO
▁virion
▁10)
specificity
▁antiarrhythmic
bisphosphate
▁GMP
▁opioids
merc
mandibular
cAMP
▁microsomal
▁vaccin
59
▁Vmax
oxine
▁infarcts
▁spontaneously
▁interpretations
itone
▁innervated
▁sarcomas
▁11)
▁Exposure
▁topically
▁intran
▁seminal
▁(1.0
usate
▁radioactive
▁gilts
▁originate
▁satur
▁striatum
viron
▁SKF
▁oligodend
▁pathology
ofil
▁thromboembolism
▁microelectrode
▁cys
osarcoma
-80
▁cohort
ocysts
.3)
▁responders
ognition
▁bilateral
▁LMWH
▁pectin
▁sequel
▁nevi
occlusion
-26
igand
acin
▁16.
▁histamine
omethacin
▁Cys
▁pathophy
▁duplication
▁kb
▁resto
▁accessibility
orporation
ECG
▁HC
▁monovalent
ogenous
▁Diabetes
▁pharmacologic
▁subjec
kinase
▁variability
▁institu
▁erythropo
fective
▁shunting
▁carbonate
acetyl
▁explants
nowled
▁Sensitivity
▁micron
▁6)
glucosamine
economic
▁splanchnic
▁gly
monophosphate
▁trough
measured
abin
▁speculation
oxone
▁endogenous
▁continuation
▁papaverine
▁0.79
▁morb
cGMP
esin
responsiveness
▁exhibited
▁conservatively
▁phyto
▁codeine
▁stereotyp
▁upstream
helium
▁serially
▁airflow
galy
ocycline
▁haem
▁ventricul
uronium
▁schistosom
▁intakes
26
▁ulnar
▁intracellularly
fluorouracil
frontal
▁DN
40)
planch
surgery
erver
▁progestin
letion
▁contraception
▁myc
either
▁immobilization
000,
▁myocardial
▁butyrate
ylase
▁mosaic
▁qualitatively
▁7.9
▁atropine
▁meningococcal
▁Previous
transformed
▁Screening
▁anthrop
▁POMC
▁replication
.0,
▁nephro
50/
▁hypothermic
maximal
▁acquiring
▁tendencies
▁cytometric
▁localized
▁9.4
▁1969
▁abbrevi
hormone
ffeine
91
Gal
▁hyperpolarizing
tection
▁Intracellular
▁RFLP
▁recognizing
▁mann
AChR
incubation
▁discharged
tivation
RCA
▁cycling
▁amounted
▁remodeling
farction
▁Increasing
prednisolone
enolpyruvate
▁vascul
effec
▁parasite
▁78%
▁suscepti
ainamide
▁elective
▁triglyceride
cessive
▁rigidity
▁responsive
▁gastr
▁100-
▁CaM
▁IFN
▁stimulate
▁distal
▁mRNAs
▁adenoma
▁fungal
.7.
▁312
▁prednisone
▁subclasses
▁Stro
4+
▁staphyloc
▁lae
▁strom
assively
▁herpes
▁Cellular
▁decreases
▁274
▁hyperbil
▁metronidazole
▁neutrop
▁dimer
▁Klebsiella
▁scalp
▁AFB
▁spores
▁GTPase
▁0.45
lec
asic
tracellular
▁hybridomas
▁1/
▁(64
▁hexamethonium
▁endoscopic
2;
▁lam
▁GLUT
omn
▁sedative
▁pancreatic
teroides
▁pore
▁2%
▁anesthetized
▁antecedent
iprofloxacin
▁syndromes
▁opiate
▁3.5
hemical
helin
▁2-3
imetic
astatic
▁Intravenous
transplantation
▁pretreated
▁paced
mide
cyst
early
:1
▁sporo
▁chromatographic
▁synchronous
▁propor
▁laminae
pretreated
▁stimulated
▁behavioral
▁Genetic
▁conditioned
-2
▁nicotinic
▁utilization
▁percentile
oporotic
ardia
oventricular
▁detrusor
tensin
▁64
2+]
▁1988
▁polysaccharide
icardial
▁hypotonic
▁immunity
▁Infants
osomal
▁CoA
▁immunostaining
sors
▁lymphoblastoid
▁vitreous
▁6
▁leprae
gans
▁(2
ffinities
emius
▁kinetics
ibenclamide
arous
▁papilla
▁transfectants
▁0.4
▁justif
▁2.4
rotein
▁exert
▁intercal
▁2,3-
yrin
▁envelop
▁equi
▁questionnaires
▁11,
gestational
▁dyes
▁endo
▁subtype
oprec
▁solvent
assays
phs
▁depended
▁hamster
▁Escherichia
buffered
ostomy
2/
▁troponin
ischem
aneously
▁isot
▁photon
▁chlorpromazine
▁intercellular
▁acyl
▁hypot
▁46,
xiety
▁TMP
▁148
▁criter
▁choleste
▁mesang
▁appreciably
92
▁phosphorylation
inhibitory
LH
▁stres
ethanol
Hu
asone
▁glucagon
▁spas
▁resorption
▁dextro
▁endoscopically
atening
:6
▁epithel
▁quantification
oxetine
mur
ximum
crist
orate
▁vena
▁kainic
▁TGF
rangement
quid
▁(39
▁natriuresis
7,000
fos
▁nedocromil
lovir
globin
▁trigg
▁posti
▁Acid
▁pleural
▁instantaneous
▁refractory
thromb
▁antacids
▁Taken
enic
▁Topical
▁masked
▁Biochem
▁490
esthe
▁4.0
▁plexus
pulse
LR
▁COOH
▁(10(-5)
▁colonization
▁semin
ACA
▁Recurrent
otrip
▁insensitive
aethyl
▁predicting
▁unfol
▁sial
▁warran
lecainide
▁scin
▁autoregulation
ubertal
7]
quinone
▁valpro
arying
▁RNase
98
▁bacterial
▁Longer
562
glycoprotein
▁erythropoietin
MTV
▁ascites
▁protocols
▁patency
alasin
▁accid
▁extravascular
▁7.8
▁PB
▁nitrate
▁occupational
ocular
▁synaptic
entif
omotion
▁227
▁Melan
▁infarctions
isite
trin
▁prednis
▁prol
▁tetra
▁discrimin
▁rho
▁declining
▁4.3
▁57
▁aureus
▁contractions
ulae
▁(2%)
pectively
50.
▁histochemistry
▁subnucle
spar
▁divergent
▁sorting
▁5.6%
▁pools
-6
78
▁precipit
urred
▁pregnenolone
etidine
▁Factor
▁stepwise
▁stenosis
▁(79
▁NHL
sisted
partate
▁1.5
▁palpable
phyloc
▁undes
▁atherosclerosis
gesic
▁1.4
osomes
modulin
▁secretion
▁advancing
pigs
phine
▁OKT
▁specificity
▁foci
▁potent
▁expectancy
▁impairment
9]
▁cytolysis
▁streptozotocin
HIV
▁HBe
ithin
▁103
▁3.0
▁Ia
oten
▁FN
▁thrombolysis
icardi
▁antrum
▁nec
Ds
▁extracellular
▁orthoped
odil
deriv
urin
.4%)
igarette
▁echocardi
▁lining
tality
dL
placebo
▁euth
▁homeostasis
▁amiodarone
▁albeit
mL
▁(4.8
▁ligament
▁spro
▁hypoxia
llate
ilum
otoxic
▁preliminary
▁instillation
▁hypercal
▁ANP
ystokinin
▁carbamazepine
physe
▁mell
▁ataxia
▁0.5).
receptors
▁transfected
▁attrac
▁32%,
▁additive
▁immunoglobulins
idation
▁chondrocytes
0)
otide
▁nasopharynx
rolateral
tices
)-2-
dopamine
▁affective
ophyll
▁(41
tetr
▁exercised
subunit
iatum
adapted
▁deviations
rosis
oagulation
▁inflow
▁42%
oretical
alcoh
▁elastic
▁benzodiaz
▁visually
▁suppres
▁immobilized
▁gallstones
▁vulg
lases
▁95%,
▁43%
examin
▁strepto
▁abolished
▁micrograms
▁aspirin
ithium
▁downstream
▁tamoxifen
▁percentages
▁Oral
▁4.9
▁Multiple
itoneally
graphy
▁mediastinal
oprost
▁cytoskeletal
▁1973
▁luminal
▁ves
▁Delayed
▁swabs
▁HMG
orded
umarin
▁SPF
▁fores
CDD
median
▁relaxants
▁valvular
gulation
aminated
▁introduc
ralfate
kground
▁7.3
▁degranulation
▁disloc
▁transcribed
▁rods
▁(80
oblastoma
▁Immediately
▁carcinomas
▁85
tants
▁amine
▁fourfold
▁lymph
▁10(9)
male
▁10(
dU
enclamide
▁19.
11
2]
▁macromolecules
▁0.42
▁insignificant
acron
▁intermediates
▁stimulates
Ki
silon
▁shunts
▁polyadenylation
▁pate
▁113
▁hemorrhages
▁85%,
tivity
▁solitary
▁alternating
▁4.5%
▁commerc
▁puber
oxamine
▁gag
▁satis
▁derivatives
▁silicone
▁offspring
▁modulated
regulatory
▁staphylococci
linic
▁EH
▁ampicillin
▁attenu
▁propyl
6).
▁desensitization
aminase
(3
▁buc
▁cofactor
▁dilution
▁antral
▁precursor
GTT
▁vancomycin
imens
carbox
adecan
▁charcoal
85
▁complication
▁ventral
▁vigorous
▁60.
▁PBL
▁vegetative
▁(60
▁(0.01
▁0.02).
opulmonary
▁0.03
24,
▁56,
gmental
▁precordial
▁hyperplasia
▁eosinophils
enec
▁linoleic
ovine
▁anteced
lytic
▁mitochondria
▁Engl
ocl
▁expressing
▁prematurity
ductive
▁enrol
▁Evid
suppres
▁PLC
▁resected
carb
▁Failure
▁prolonged
▁venous
▁plasminogen
▁tomography
hered
1-4
▁prerequisite
▁imbal
233
14)
▁nonsur
SOD
▁accumulated
obases
3.
▁methimazole
▁infrequ
otrophic
▁psi
▁89
ogra
▁pem
▁dosed
▁cavity
▁donors
▁sarcolemmal
▁ferrous
IgG
ylamide
dotoxin
▁cooperativity
▁umbilical
▁alkylation
shock
HB
tib
acrylamide
▁endoscopy
DV
▁titr
-8.
▁systemic
▁exchan
▁tPA
73
▁Nuclear
▁pancre
▁0.04
▁rickets
▁ultrastructure
▁penile
▁consuming
▁aggregation
▁diploid
enone
ture
▁303
▁hered
▁uteri
resting
siella
ospasm
▁3.3
resistant
▁stimulus
▁pyel
▁Copenhagen
▁lability
▁expon
▁Postoperative
4)
▁Suc
ystag
▁lysed
▁intrath
titude
omycin
erating
omegalovirus
ubular
▁allergens
chloro
umption
▁retardation
▁1.09
▁amplitudes
himb
ittac
uanti
▁antagon
▁grouped
▁tes
▁favorably
▁monitored
rement
went
▁turnover
▁19
oreactive
▁surgical
titudes
▁vagotomy
▁subnormal
▁74
▁herp
imurium
▁Effects
▁confined
▁weighing
▁endocardi
PaO
▁arteri
▁comprehen
cis
▁determinant
▁juven
▁1980
grams
▁spirometry
tetradecanoyl
97
▁comparisons
ulmonary
-2,
▁skeleton
4%
ectomy
▁predominantly
▁androgen
▁innerv
▁80,
▁anticholinergic
▁3.2
▁Surve
otre
▁enrichment
eric
▁mellitus
▁neutropenia
enal
chool
▁starch
erb
▁1990
▁9)
▁zymosan
alian
▁Ps
mortal
▁Apgar
azone
orrheic
-800
▁0.81
▁enlarge
mittent
▁cann
ositol
▁kappa
ympathetic
▁pharmacodynamic
▁12
▁stoichiometry
▁cromoglycate
▁hepatomegaly
▁Multiv
▁198
-38
operoxidase
illar
,000,
▁tolerated
▁.0
▁autoantibodies
▁Fourier
pirone
▁enroll
▁136
filament
▁3),
▁supplemental
opoly
▁PGD
▁serotypes
▁methoxamine
▁30,
▁Perc
urate
othyronine
kephal
▁voluntary
▁refrac
▁preovulatory
olerance
microglobulin
▁preoperatively
▁0.56
arboxylic
oside
▁jejunal
▁284
80)
▁-1
▁sheath
▁Extensive
▁thyroidectomy
▁splic
▁seroconversion
▁diabe
trous
alcip
▁evoke
uin
▁diastole
▁350
otent
enoic
▁exceeded
▁HTLV
▁0.3
▁55
▁experimentally
-2).
▁indo
▁quantitatively
▁rotational
rospinal
ipital
▁lith
▁femoral
▁ovary
dii
▁helix
▁emboli
▁Ace
▁83
▁Myocardial
▁(3%)
▁motility
▁alkal
▁Cardiac
▁(21
▁amphib
ece
▁aeti
sive
potassium
▁229
▁-20
▁rectum
▁nonsmoking
▁triphosphate
ometh
▁premature
▁ori
▁subunit
endazole
uthen
▁0.86
▁myristate
▁preganglionic
▁grafting
▁neurochemical
oea
▁atresia
▁proce
▁rifampin
▁antagonist
▁supernat
loidy
▁monocytes
yoto
ocardial
roxic
▁0.11
▁EPSP
atil
▁IIa
▁unlabelled
olamine
▁monkeys
▁aldehyde
eeding
▁histologic
smoking
▁latencies
lyce
▁phosphorylase
▁111
▁overload
▁hypercap
ograft
▁MHC
▁diaphragm
▁nocturnal
▁1.44
▁elevations
▁ionophore
▁Sixty
▁regenerated
44,
oic
▁Concentrations
▁-0.6
▁marrow
▁molar
-17
▁anomal
tinent
▁avoidance
▁supple
▁aneurysm
▁asthmatics
concentration
▁resection
▁muscarinic
▁BK
▁monit
amycin
▁compe
lysine
▁neonatal
-96
▁Injury
▁RU
▁jaundice
odeoxyuridine
▁overestimated
▁transmitted
▁washout
▁colliculus
▁73%
▁uterus
▁deline
▁bipolar
oxide
▁indefinite
▁134
istar
elan
opausal
▁Depression
▁aerobic
▁pneumonia
▁sedimentation
▁acids
▁73
tenosis
terminus
▁plasm
▁defects
▁agon
▁thre
▁CTP
▁BMD
heresis
▁immunohist
tional
▁appendicitis
ifug
olec
▁mesoderm
creatinine
▁heterodim
esterified
▁hyperpolar
iotensin
▁1977
inally
oblastoid
▁regurg
▁Platelet
natally
ncies
▁4.3%
▁conflicting
▁locus
▁cava
mortality
olytic
▁kidne
▁Gly
▁MCF
urons
▁308
uronic
lamb
▁31,
sparing
▁Strep
▁characteris
▁theore
▁investigators
▁Fifty
▁sphero
▁malign
fractionated
(2+)-
▁restenosis
Fs
▁lithotrip
▁Chlamyd
azoline
77
▁transduction
38
▁scientif
roitin
▁cessation
▁adhered
-19
▁fulminant
▁efficacy
▁23,
▁dipyridamole
▁relevance
▁maturation
▁anticancer
▁similarity
▁mineralization
atinine
▁argues
▁tolerant
▁(86%)
▁underestimated
▁Hyper
tine
▁65%
▁electrolyte
▁histidine
encephalic
▁subend
▁fasted
▁tuber
+,
▁intrad
▁venules
▁cremaster
trig
olone
▁bac
lated
▁80%
▁3,
-70
▁transp
▁enterotoxin
cholanthrene
kinesia
onitrile
opolysaccharide
atitis
2)
▁ischemia
amylase
▁illumin
▁anorexia
▁anore
▁prolactin
gesia
ylated
▁dibutyryl
▁migrating
sodium
MIC
alic
▁alprazolam
▁xylitol
opeptide
▁quinidine
▁filamentous
▁21.
rene
▁permeable
sively
hydraz
opsy
▁junctional
▁1,25-
▁Individuals
▁multim
▁(=
▁pector
oglyc
▁diminished
▁nitros
dUrd
leu
▁Biophys
▁calcium
erance
TRH
▁meiotic
▁radiolabelled
motor
▁validated
ometrically
lob
-8,
▁collateral
▁benzoyl
identified
ejun
▁exchanges
▁physiologic
PDGF
▁drainage
tropine
tene
-8)
▁GER
▁spectroscop
▁(6)
▁3.7%
▁migraine
▁laterally
▁alveolar
▁Ade
receptor
▁hypocal
▁pKa
▁injur
toriness
▁hypertrophied
▁uni
otamine
▁formulations
▁assessments
▁27,
tosis
heres
calor
eptides
▁cortic
▁concomitantly
▁profoundly
▁electrode
99
▁subpop
radi
8%
cyte
ipril
▁Initi
embran
▁poorer
thema
▁Cul
illary
-2.
▁elimination
otypic
Pa
phenyl
▁19-
-21
▁anoxia
▁10(-10)
apeptide
▁unbound
▁hGH
▁18
ogenes
▁regained
predominant
▁pM
▁parasites
▁notic
.9%)
▁hypog
▁(46
▁nipple
▁conjunctiv
▁NaF
versus
atriptan
tilb
uodenal
▁1990.
▁anaesthesia
▁Ninety
▁solids
▁aqueous
immuno
adap
▁TC
tetric
Nase
▁unchanged
▁parap
▁0.1%
ophysiological
▁Diabetic
▁Meas
-36
▁hepatocyte
mented
rosemide
▁stu
▁-3
▁critically
posure
▁adenocarcin
▁homoz
▁0.43
▁necropsy
▁CHF
▁Eighty
▁allogeneic
▁mares
▁postre
▁senile
aryng
▁efferent
▁prepro
heal
4%)
.1
thi
▁evol
uppression
▁0.05)
LG
▁DNase
400
▁predominant
opia
▁112
sulph
▁cysteine
▁spectroscopy
olateral
▁nutrient
▁toxin
ofuran
▁irritant
▁37.5
▁intrinsic
▁metastasis
▁catecholamines
▁Eco
otropy
▁lactate
▁hepatitis
▁densit
dies
▁examin
▁schiz
▁sensory
▁sacc
▁cerv
▁nitrous
▁4).
▁specimen
▁postural
iably
oselective
tructural
mitter
▁phi
▁hepatotoxicity
emide
▁0.13
▁1.7%
▁MAb
▁SRIF
▁benzo
ACTH
▁mutagenicity
▁irradiated
idases
▁versa
▁facilitation
▁suppor
▁blunt
enem
▁Coronary
esium
▁illus
KD
ipar
▁116
▁relap
▁(24
▁connective
roblasts
▁Induction
▁Combinations
depr
▁sympathetic
▁actu
ludes
▁0.05%
▁transporters
▁LVH
tis
▁0.0
▁gon
vice
▁anterograde
uclear
tetrahydro
tious
▁140
▁shrin
▁chewing
▁routinely
characterized
▁3.
▁arthritis
tives
rometry
8,
/12
▁UTI
▁immun
▁jaund
partic
Ox
▁apex
▁1987.
▁ghosts
▁dith
▁nontoxic
tiguous
▁dye
▁presentations
▁0.35
▁restric
▁electr
▁cornea
othionein
▁atrophic
owever
▁lipase
VIP
▁fermentation
▁pmol
▁74%
responders
▁Neph
▁cytoplasmic
▁ophthal
15)
▁suggestive
▁unexpectedly
▁Adverse
ulph
▁8.2
▁Recombin
▁dissimilar
lowering
▁mening
injected
▁proliferating
▁thermodynamic
waves
▁750
▁acyclovir
specified
▁VO
▁Determin
▁9.9
▁catechol
▁joints
▁elemental
-)-
-99
▁nitroprusside
▁regulates
▁lipoprotein
odontic
oil
ugular
▁arabin
▁adop
erican
nitro
-(2-
▁fulfilled
▁sporadic
▁lambs
oxo
▁dor
ylobacter
hydroxyphenyl
▁aerosol
▁acetaminophen
▁deposition
tice
▁psor
▁ELISA
anad
lobin
▁1.10
oxin
▁vesti
▁binocular
▁systematically
▁DBP
▁chorion
▁corpora
▁androstenedione
epsia
▁6.5%
▁centr
▁sca
ayers
▁ultrason
▁1989,
▁Biochemistry
▁prostaglandins
kinetic
▁(52
testinal
937
▁tetrap
▁reversibly
▁metoclopramide
27
BV
▁plotted
▁constric
▁postin
otericin
▁diame
chid
▁pyram
▁amphetamine
▁88
▁paren
obutyl
anadate
▁repertoire
-60
oposide
gesterone
▁(43
▁adrenal
▁0.3%
▁(1.6
3.1
▁0.22
▁supr
▁myot
▁arthroscopy
▁(1,
▁fluorescence
oxazole
▁HAM
▁39%
ophilic
▁deficient
20,
▁fluctu
▁reproduction
▁230
▁Routine
▁expiratory
mole
▁inversely
▁1.35
▁plating
hene
▁70-
quisition
▁simult
▁lipoxygenase
▁acupuncture
▁hypnotic
▁antioxid
▁lateralis
▁lysates
▁suppression
1).
tual
▁increments
▁Electrical
▁frog
-150
25(
traum
▁Initially
▁polymorph
▁incremental
▁GS
▁discriminate
▁gyn
▁rectal
▁tumorigen
▁cisapride
Ly
▁inoculation
▁oxide
▁(41%)
▁contradictory
▁Epidemi
.2
▁spontaneous
▁derange
▁hypoxic
▁dyspepsia
▁(+)-
inamide
▁degrad
▁muscimol
▁placenta
▁1.07
olesterolemia
oxim
▁contraceptive
▁spleens
cemia
pregn
drome
▁inh
hea
▁diverged
atite
▁1,000
▁untranslated
▁4.8%
achid
▁0.97
▁dithi
▁progesterone
▁prel
totic
/8
▁possesses
▁emphysema
phetamine
▁oxidant
▁starvation
2+.
menopausal
▁125
▁2-
▁urodynamic
erate
uride
▁nominal
entgen
▁Recovery
▁lowers
▁superim
▁polarity
▁gonadotropins
associated
ypass
▁CPR
▁messen
ochemical
▁ophthalm
▁averaged
▁41
-27
▁lact
▁71%
▁decreasing
▁axial
▁hypoxanthine
▁overestim
▁stellate
tructions
▁occipital
weed
▁mediators
thase
▁peripheral
▁deform
▁membranes
posi
▁diagnos
tigu
▁dissemination
▁nutritional
▁Doppler
▁(9%)
▁footprin
72
umptions
oxif
racene
▁nong
10-
▁0.95
▁terfenadine
▁junction
haem
▁RIA
▁cotransport
▁LPS
▁PGI
▁deaff
5%).
▁smear
▁fractions
▁opioid
accharide
▁cigarettes
▁TCR
▁Mycobacterium
▁plas
▁amp
pyrine
PMN
▁autologous
▁29%
tric
▁deuter
adrenoceptor
▁saphen
▁1-2
3'-
▁omega
pleen
▁Gpp
▁transferase
▁derangement
▁GABAergic
avir
▁2000
▁phosphoryl
82
lymph
▁ganglia
▁[14
renz
▁benzoate
▁Rout
activating
▁instrum
▁electrically
ogenetic
initiated
▁DTH
▁neomycin
uling
▁(80%
▁anomalies
rophenol
▁blasts
▁sexually
▁33-
▁phage
▁Values
▁subcutaneous
osynthe
▁lidocaine
deoxy
ods
thrombotic
▁malignancies
-90%
▁modif
romatosis
▁Prolong
51
arcoma
▁vasopressin
thanol
6),
▁clomiphene
▁complications
ospitals
▁Stimulation
antom
▁progeny
▁abdomen
▁ECG
omerular
oag
▁tumorigenic
▁1.4-
inol
▁indirectly
▁benign
▁Arter
retic
pendence
alkyl
MW
▁Doses
▁comprise
osmotic
▁10(-4)
▁urea
▁resuscitation
acute
▁lign
▁narrowing
tamine
▁chimeras
▁angina
▁cephalosporins
▁ecz
PHA
apamil
teral
▁modeled
▁ultrac
▁pelvis
▁shortest
▁saphenous
▁stimulants
▁arbor
▁nonpregnant
otoxicity
▁peptide
▁Indomethacin
opeptidase
▁stimulatory
▁replicate
▁stric
▁nifedipine
▁circumflex
quired
▁insoluble
ensitization
ept
▁Depending
triglycerid
induc
▁Rates
▁DP
▁(0.6
irradiation
▁isomers
▁Muc
▁gastroenteritis
ediatric
▁manufac
▁Estim
1-2
▁6.
HN
▁arti
▁amoxicillin
▁oxidized
RNA
▁Plate
asses
▁modulates
▁293
5/
▁spp
▁concurrently
▁iat
▁soy
▁sigma
▁Pharmac
achnoid
▁rats
▁discontinuous
▁thyro
▁adoptive
lax
▁2,
▁direc
▁+/-
▁hemisp
▁ech
▁motoneurones
▁erythromycin
▁(27
▁proteases
▁seminiferous
arbonate
parathyroid
▁reagents
▁CAP
▁121
▁prostate
▁Higher
▁lymphoblastic
▁Magnetic
▁21-
▁0.60
▁GVHD
▁LPL
umbens
▁nitric
▁cerebrospinal
ilin
▁(99
synthe
▁CU
vix
▁Combination
▁(1.8
omagn
▁SCC
▁vanadate
▁2)
▁milder
imeth
▁cytometry
▁asparagine
▁82%
odies
▁hydrocarbon
▁-10
aminop
ipramine
duce
apular
▁hippocampus
▁Michaelis
▁278
▁flas
ycline
othel
luded
isomer
functional
▁carcin
isolated
▁Peripheral
thick
▁chromaffin
▁carcinoma
nexin
▁sepsis
▁80%,
127
ABP
▁(17
▁Hear
▁ergometer
adren
eded
▁anticoagulation
▁obesity
▁Nucle
▁reductions
romal
49
oderm
phyrin
farin
romycin
ovastatin
▁synthetase
omegaly
▁Resting
▁OM
▁lumbosacral
▁destab
30
▁cobalt
tinguish
▁Trich
▁phleb
▁7.2
▁phospholipid
lep
bladder
▁IU
▁HPV
aginal
▁esophagitis
▁pelvic
▁palate
▁allergy
ordial
▁unid
▁0.01).
BAL
▁parental
▁glaucoma
glycine
▁nigro
ureth
▁actinomycin
▁granulomas
zable
▁16%
acial
ocalcin
▁autoradiography
▁attenuated
adone
▁bioactivity
▁Comparison
▁bradycardia
▁1.15
▁cGy
standardized
lethal
1;
hers
dimethyl
▁urticaria
▁myel
▁yeast
▁Electron
▁recor
▁mucos
▁tric
▁Tiss
▁10%,
trical
▁obstructions
▁effluent
▁elec
▁islet
▁.001).
▁102
▁Entero
▁feces
▁energe
▁reactive
▁elab
azosin
▁Assessment
▁1974
▁1000
▁diffraction
▁cate
▁allergic
▁atelectasis
▁ventricle
▁Arterial
▁inspiratory
affin
▁reconstructed
▁developmentally
▁parity
▁1989.
▁estrogens
14.
▁afl
organism
▁diarrhea
▁kidney
▁interventional
ropathy
▁indexes
▁analgesic
opril
▁15%.
▁bronchitis
▁1:
▁collec
▁rearranged
▁segreg
▁51%
▁(60%
ofib
000.
▁sensitivities
▁leukocytes
voltage
▁mesenchyme
POA
osclerotic
▁virulence
▁nitrendipine
▁neph
▁encoun
▁myotubes
▁exacerb
othal
▁Thin
▁clinician
▁4.5
▁epididymis
▁Few
▁formaldehyde
▁abundant
-3.0
ilus
▁Surprisingly
olipoprotein
▁lesioned
onam
▁suppressed
▁catalyze
lox
/3
▁reviewing
▁subjected
▁owing
▁unsuitable
idone
▁neuropsych
▁6.5
Tn
▁vincristine
▁eluc
▁mannose
benzene
▁217
▁neurons
enia
▁40,
oste
▁cocaine
▁glycolytic
▁150
ordance
▁0.91
▁PGF
▁antagonized
▁reabsorption
▁ventilated
SEM
▁orific
▁reflux
▁proliferation
conjug
▁keratin
▁pHi
otor
troph
▁Thirteen
tracheal
▁stabilize
▁arises
▁preserving
opre
▁evacuation
▁caries
vices
▁EMA
▁atten
▁congruent
▁EF
▁cocul
▁biotinylated
▁uncomplicated
▁birthweight
▁trophoblast
▁multiparous
▁40%.
▁paradoxical
/9
iferative
▁neuros
diss
▁(5.3
▁lisinopril
▁TIL
▁remin
▁mosa
▁0.89
▁derm
▁germinal
▁Elevated
▁tentatively
▁recA
▁1.11
▁0.87
▁cilia
▁tymp
ontal
oxyp
▁renal
▁(30
▁chemotherapy
adox
amino
▁mAb
▁mediate
▁Crohn
▁Shig
▁AII
imodipine
▁drip
▁2'-
▁EPA
iparous
▁194
▁immature
▁potassium
pinephrine
▁0.36
▁aldosterone
▁primed
▁epitopes
▁hypo
▁glycosylation
▁catecholamine
riton
jected
udation
▁alve
entanyl
motic
45
athyroid
conditioned
▁epidermis
▁0.001).
lining
lymphocyte
▁vertigo
assemia
▁nonselective
MN
orrect
▁methylation
proved
▁Hybrid
▁phasic
▁incontin
▁antibiotic
ecan
▁characterizing
platinum
▁BW
▁ventrolateral
▁headache
▁isoprenaline
▁insufficient
▁bolus
6;
▁81
Cs
▁endotracheal
▁oocyte
▁injec
PGE
thoracic
ustained
▁nylon
-75
▁adul
lational
renal
▁serologic
▁Lyt
avage
▁crude
Gly
▁defibr
porting
▁utero
omyelitis
▁radionuclide
▁protracted
Ca
cens
▁aneuploid
▁melanin
orrhea
soluble
▁fibrill
▁isotope
929
▁PTS
▁23
ulose
▁TNF
▁(51
▁Patient
▁0.0001)
erum
▁900
ymmetric
▁hyperins
unctional
▁somn
▁100
▁hormonal
ysto
▁20)
/10(
5),
continu
lobulin
▁Prel
▁inflamed
/+
Trp
availability
▁gentamicin
13-
pharyngeal
orsk
odds
▁monolayers
▁transmembrane
▁organisms
uestion
▁reduc
▁deficits
▁endometr
oplasts
▁0.5
arby
-6.
▁6.7%
emory
cephalic
▁coordinated
MBP
▁CNS
▁granular
▁OV
ploid
▁indications
ipid
plate
▁10(9)/
itron
▁preservation
▁VLA
▁ventilation
lyc
.1%
▁foc
▁oesophag
▁anae
▁transcript
▁placental
▁dialys
itant
.6%)
androgenic
▁symp
▁cil
▁amines
▁vitronectin
copic
otomy
▁potentiation
▁IK
diol
entia
▁islets
▁dilated
▁unusually
▁alkylating
▁ORF
▁supras
ishman
ucleotide
Pu
▁oxygenation
▁colorectal
▁25,
▁bradyc
▁187
▁apparatus
▁assessed
▁chemotactic
▁DG
tituting
▁TCA
▁mixtures
▁28.
▁exerts
erine
▁simplex
▁lactulose
▁endocrin
titutes
▁peptides
▁extrusion
▁differen
▁MDA
molecular
▁Prevalence
19.
tissue
▁Swed
▁outflow
retion
orrha
▁resultant
▁attainment
▁PAS
pation
plasts
amide
▁casein
▁neuronal
LDL
microliters
▁replicated
▁gm
▁starved
omers
▁ChAT
▁choroid
▁immunogold
▁Ery
anding
▁pefloxacin
▁8%,
▁whereby
▁dynorphin
▁undetermined
astric
ruc
IGF
nourished
estig
▁cis
▁increas
▁triam
lycer
▁lys
piride
kinin
▁hyperlipid
-450
resistance
▁(1.9
▁pollicis
▁exudation
▁(2.0
▁pressor
▁typhimurium
TGF
▁ACTH
▁permits
▁enkephalin
')2
epti
▁spon
opharynx
ureas
iodarone
▁Trial
▁58%
amido
iliac
▁28-
▁186
▁melanoma
▁0.51
5'-
.5%)
▁lysosomal
▁analytical
▁salmon
▁(200
▁Langerhans
▁DSM
▁1)
▁innervation
algia
▁erythro
▁antero
▁DEAE
▁vege
arbox
▁facilitates
▁1.5%
▁isoflurane
▁awa
▁progressed
hemo
▁14.5
rometer
queous
ammon
▁constructs
-4
▁bacteri
▁HRP
▁inhibits
.6%
ofluores
tyrosine
▁12.5
▁Efficacy
atical
aterally
idov
toli
▁exaggerated
ocortical
tochem
▁distortion
▁effectors
▁iden
/100
▁midbrain
ogran
▁carvedilol
▁13%
▁deleterious
dIns
▁titers
▁16.1
▁catabolic
▁EBNA
NK
anav
odalton
▁occurrence
▁hypers
▁hypertension
▁budesonide
▁1.01
▁ureteral
▁47%
▁steroidogenic
▁carbohyd
▁castration
▁MgATP
adjusted
▁mucosa
tivated
iatr
1]
▁hemip
▁alleviate
ethylene
tering
▁cyclic
▁transi
▁absorbance
▁(25
▁autopsy
Ta
▁abd
▁quisqualate
▁simian
▁bisoprolol
▁antisecretory
▁averaging
▁peritonitis
▁49
▁188
▁Mast
ctive
perfusion
▁TT
▁calibr
▁condensation
▁titrated
idazole
choles
▁testes
osine
▁colic
ardiac
▁glutathione
▁zidovudine
▁sugges
ovalent
▁oint
urospor
▁lar
proven
▁colos
-2-
▁theta
▁ketanserin
▁Rele
oconazole
▁concentrations
▁choles
▁1.26
▁desmin
▁crosses
omain
▁WHO
▁nonp
▁resusc
▁propionate
▁interne
amid
HPV
▁gelatin
▁predictable
-7)
2(+)-
▁intragastric
▁arterial
▁Fewer
3-4
▁capsid
▁320
▁acyltransferase
▁mansoni
▁Acad
cence
▁fibre
▁cimetidine
1,000
▁1991
▁vitro
▁28%,
▁84
▁thromboxane
▁prosthesis
▁IDDM
▁mycobacter
▁bronchi
▁incubating
▁ulc
estrogen
▁albino
▁thym
▁ascer
▁glycos
obese
▁diarrh
▁4-5
%).
▁estrous
▁EPR
iomas
ospor
odal
▁ICa
▁prepubertal
▁rupture
▁glauc
▁specification
▁residues
▁(4.6
activated
▁hemodynamic
▁dietary
tro
enicillin
▁quantitation
▁tracer
atid
▁anatomy
ignificant
▁singlet
imetidine
hypertensive
▁somata
▁nebulizer
inoc
selective
▁7.6
▁successive
▁rosettes
▁regimens
ameters
▁bp
▁hapten
▁Continu
▁erg
▁diuretic
▁MIC
▁cardiomyopathy
vation
▁dosing
▁saturable
ofl
▁imipramine
▁subgroups
indolol
.0%
▁ADP
▁Ala
imetry
otid
▁myogenic
▁premenopausal
90
sus
42
iloride
▁tetan
▁Median
▁1.19
▁colchicine
▁RB
ervative
▁NR
▁medulla
econd
saccharide
inum
▁contracted
▁diurnal
inergic
orphin
▁regeneration
▁minimally
inj
▁reproduc
keletal
▁insulin
▁undetected
▁MN
HPLC
▁EGF
▁MBP
▁carboxylase
▁efficacious
▁phenol
abbit
▁55%
▁outgrowth
▁Gonad
▁downward
▁favoring
▁pigs
▁potenti
▁Seventy
▁triad
ameth
tocin
▁Prol
ypical
▁heterosexual
chloride
▁submandibular
▁0.17
▁dissemin
▁trachomatis
▁whee
▁construc
▁bedtime
▁hematoma
▁3'-
▁3-
▁ole
plantable
▁phages
ilization
-7.
-65
▁antagonistic
▁PTH
▁glucose
estion
▁Fischer
▁(1.4
▁datab
▁200
orrh
.8%)
▁cyanide
redoxin
▁synthesizing
▁adip
▁colonic
▁homogeneity
acting
▁radiologists
▁Insulin
MV
▁Sertoli
▁0.005
.00
lood
▁endometri
ogold
▁discomfort
▁Subjec
▁Measure
▁haemoglobin
adequ
▁hemorrh
▁infar
▁exons
▁FV
urgery
▁brady
▁pulses
▁yielding
▁9.3
▁putrescine
▁0.88
pharose
▁MCV
▁observational
ilep
imus
uted
cephal
▁inhibin
▁acinar
anthrene
▁arteriosus
ortical
▁elic
▁Regarding
▁denti
▁delays
▁sputum
iclovir
paired
▁-0.0
▁remission
ulants
▁striatal
▁hypother
mentation
▁dorsal
trone
himbine
▁amenorrhea
▁hypon
▁CBF
+/-
ogenic
▁50%,
▁17,
▁myocardium
▁ventilator
▁desaturation
otropic
▁transpos
▁[32
urrent
▁ligands
▁resembling
▁tran
uplex
mercapto
ofruc
▁somat
▁sonography
▁neurotensin
▁circadian
liters
▁mite
▁dissected
▁Intrac
▁occl
▁accelerated
yclo
endi
itability
▁EE
▁antim
▁mortality
▁heparin
▁palsy
okinase
▁clarified
▁pacing
▁ependym
▁facilitated
▁mosquit
▁demographic
▁thyrotropin
▁ceph
▁synov
-30
usually
entricular
▁(67
▁0.19
▁2.9%
10.
▁menses
EG
-1.2
▁plex
kelihood
igram
▁antich
▁erythema
▁122
▁antide
▁tubule
gely
▁Epstein
▁chymotrypsin
.1,
▁nal
-2+
clerotic
▁9.6
ithelial
2%)
gic
▁Bac
ylephrine
▁jugular
▁10(6)
▁oncogene
▁Pt
diagn
▁alkyl
▁exocrine
herol
obium
▁apolipoproteins
▁recombination
▁breeding
▁emerg
-72
▁adjusting
▁gingival
sions
arrh
itic
virus
▁PDGF
chicine
▁digested
geneic
▁anhydr
ylene
▁borderline
▁(2.5
oratory
14
gulatory
▁SCLC
osid
▁chimeric
11.
0.6
▁oriented
▁coated
kine
▁isometric
▁5.2
▁genomes
40-
▁acin
glycero
EDTA
acetic
▁tracheal
vitamin
ecal
viruses
▁SCN
atridine
▁recruitment
-20%
▁nitrite
▁cannula
▁encodes
omatosis
TNF
▁displacement
66
▁bFGF
▁mice
▁cotinine
ographies
▁permeability
certain
▁pneumon
▁endothelin
▁vitamin
thel
▁[1
▁transformations
7,8-
▁assayed
▁abl
ardized
▁pulmon
▁electromy
▁tol
thma
tact
ectin
▁HLA
▁microscopy
▁intravenous
▁hydroxyproline
▁24
▁heel
▁carboxy
▁intramolecular
▁pharmacokinetic
▁reperto
▁albuminuria
▁cochle
▁oesophageal
▁amygdal
▁puncture
▁2/
▁stimulating
hydryl
▁converting
ensi
▁neoplasms
▁trache
▁HCG
▁noncompetitive
glyc
planted
▁reflec
trated
/4
▁dischar
▁therapists
adin
▁fractionation
▁metaplasia
▁swit
▁epidural
ovarian
▁uniquely
gthen
▁Wistar
hydroxys
truction
-(1
mined
ocarb
▁positively
notic
bearing
▁maturity
▁optic
▁progenitor
▁42
▁Incidence
▁decayed
▁fluor
▁infil
imetric
fal
▁spermatogenesis
olam
▁phospho
phosph
▁provoked
▁hepat
▁IgA
▁molec
astatin
ANF
filaments
18)
▁celiac
uginosa
▁sarcoidosis
adder
▁furosemide
phospho
▁arb
erence
tified
▁(18
▁competi
oalveolar
▁AUC
▁28)
▁insuff
estrol
▁peroxis
▁incub
Glu
▁submaximal
▁ESR
▁FU
▁undertaken
▁cortex
▁inser
otone
▁employing
▁adenylate
▁subclinical
▁lactose
▁ducts
▁cytoskeleton
neutral
ycin
▁pneum
▁cultured
20
▁60-
▁refractoriness
vity
▁leukemia
▁(10(-8)
▁[35
rals
▁MDR
▁SLE
▁54%
xone
siology
▁Plasm
▁MPA
▁bactericidal
▁acetic
ilution
▁interleukin
upuncture
▁4.7
▁nondis
▁chemo
▁tomographic
ginine
roprus
▁allergen
lofen
46
tam
▁brainstem
▁mmHg
▁toge
stained
cardiac
reasing
▁anatomical
▁1,0
▁persisted
▁paramagnetic
▁caud
inhibition
regulation
▁propensity
▁Increas
ichloro
▁inactivation
atids
▁Physi
▁dystrophic
ohyd
▁chloroplast
▁apnea
▁progn
▁syncy
▁hep
-2.5
▁centrifug
-1.5
▁splenomegaly
alact
▁Sodium
osyl
▁otitis
▁Combining
▁ruptured
myristate
▁IVC
▁enlar
▁microv
▁1988.
▁adolescence
▁reinfection
▁leukotriene
▁Glut
▁subdural
electric
vessel
▁295
▁ejection
▁esters
▁(5)
▁aor
▁cytokine
▁1989
enhanced
iasis
▁3.8
▁syngeneic
▁chel
▁accumulate
▁calbindin
duction
resolution
▁adminis
▁21%
endothelial
facturing
reducing
▁lupus
▁identically
▁parietal
▁4.
▁retin
▁autoantibody
▁quantitative
▁infertile
▁serogroup
▁prompted
▁ICU
▁preeclampsia
▁densities
▁weaker
▁isotonic
▁falciparum
▁MU
orepinephrine
▁arous
thood
chrom
▁appra
▁(197
oembryonic
▁-0.4
acerb
▁5.1
▁2.7%
▁specimens
▁scintigraphy
▁HV
yroxine
akary
▁glycoprotein
Ls
▁provid
▁resin
▁empirically
▁Tumor
▁contractile
▁glycemic
▁submuc
▁supplements
▁Infusion
▁anesthetic
-0.
▁immunosorbent
▁brid
▁Activation
▁5.8
aminobenz
▁45%
▁1,25(
7)
▁Actin
▁pepsin
▁postsynaptic
▁postprandial
▁adipos
▁Radi
▁emin
lamydia
▁outpatients
▁paradigm
▁PEG
▁psychiatric
▁dialysis
▁sows
▁exploratory
▁pulsed
▁fluoride
▁biliary
▁Ure
▁cytosol
▁Cells
▁WT
▁impulse
perfused
▁choline
▁adversely
ffe
▁sulbactam
portion
▁cords
▁rRNA
wes
▁febrile
37
ergenic
edic
-4-
▁pectoris
tinction
▁seques
-11
hexidine
oppler
omical
▁sphingomyel
5).
▁faecal
▁13.3
▁foetal
▁cylinder
▁RA
▁TPA
brids
dehyde
50)
▁outbreaks
▁proteinase
ipine
toxic
CAH
▁sympath
trophic
▁PVN
translational
▁circumference
▁hydrogen
▁kinetic
infusion
▁Conventional
opo
▁multiplication
▁Isc
▁fractionated
▁hepatocytes
2(
terious
emias
▁mutation
plenic
ositive
▁indomethacin
▁18.
ximide
▁antihist
▁hydrolys
firmed
▁pyrid
▁frontal
▁42,
tility
▁simplified
retinal
carbons
ffer
▁chorio
accharides
▁Epidemiological
conver
▁intestine
/6
▁[(
▁redistribution
▁pathogens
▁splice
tonic
▁erythemat
ochondrial
▁computerized
▁diets
bility
oxifen
▁dimeric
phied
▁microliter
▁chorionic
▁coordin
19
lactate
lysin
▁maxima
▁transcriptional
▁1.04
anthine
unctions
▁hospitalization
▁adenoid
▁phospholipase
▁Recombinant
▁nip
▁LR
onor
▁irrigation
18
▁4,
▁0.16
HCl
oreactivity
▁acoustic
▁superfusion
ogluc
▁ovariectomy
odermal
▁dosage
▁cardioplegia
▁0.25
omorphine
▁179
-67
▁tectum
▁prostagland
▁Improved
ophilus
▁57%
▁karyotype
▁manifested
▁ciliary
achial
antial
▁Binding
▁Recommend
▁8.8
▁ances
GTP
▁aberrant
▁alginate
▁asymmetric
▁rosette
▁endings
▁vaccinated
arachnoid
embedded
spective
▁perif
▁apoB
cells
▁pacemaker
▁ventil
▁Neu
▁Retrospective
timulation
itrate
ivacaine
genesis
▁ineffective
170
▁pharmacokine
imotor
itin
▁baro
▁retinopathy
odgkin
▁epididym
feeding
strain
exponential
▁Centers
▁ultrastructural
atrop
▁Nine
▁mediast
overall
▁anxiolytic
acterial
havi
▁preincubated
▁76%
▁Increases
▁epidemiology
▁vasodil
partum
udin
▁eosinophil
▁exhaus
▁inactiv
ifugation
▁effec
▁relaxant
conduc
▁slices
▁Bmax
▁0.05),
▁enrollment
uprofen
oplasty
▁ow
tionally
▁activates
oxybenzamine
▁isotypes
enopus
▁LH
tectable
▁IIb
adrenal
0%).
▁unstable
▁coughing
▁acidosis
▁alcoh
dalton
▁lipoproteins
ifluo
▁referrals
▁reared
▁superco
mortem
▁glomeruli
gth
▁88%
▁househ
exy
plying
▁bulls
▁Vascular
▁fatty
ylcholine
glucose
▁augmented
▁incid
fractions
▁posture
▁1,4,5-
▁artery
▁naive
▁dex
▁synergistically
▁15.8
▁ect
▁homology
rength
▁histopathologic
-4)
▁Gd
▁Neuro
▁supernatants
▁parenchym
iesis
▁oviduct
race
▁nodules
▁fric
hemolytic
centr
▁fibers
▁polymerization
▁staphylococcal
ographically
▁pyramidal
▁fixation
▁spleen
▁quantified
▁223
azem
lymer
ocystis
ailure
▁enzymatically
▁fibro
▁platelet
▁pentoxifylline
aturated
atest
▁waveform
▁displaying
vember
macroglobulin
▁1.02
▁preferen
▁bronchial
occal
30)
dihydro
▁emphyse
▁synapse
▁0.63
▁Laboratory
▁hyperthermia
▁hematopoietic
targe
utable
▁perone
▁Histological
restricted
▁EA
▁commiss
gestin
fec
▁emo
▁recons
▁healed
▁asthma
▁Sepharose
▁osteoarth
▁synthe
convul
▁heterozygous
ventricular
occus
▁dystrophy
▁truncated
oleucine
ophil
BH
▁24)
▁apprec
oxyrib
▁chromophore
▁withdrew
▁hypothetical
obarbital
arone
▁diffic
▁thermos
reatine
okine
hexyl
tages
▁arrhythmia
aventricular
▁Rever
atases
▁ae
▁circumst
▁amel
▁encephal
▁IGFBP
▁separating
▁([
▁5.4
▁superf
▁IIA
amethyl
▁Effic
cessively
93
▁murine
▁ibuprofen
▁polymer
▁hemispheres
▁aetiology
ithromycin
▁digestive
▁lymphomas
▁Fraction
▁4-6
▁multic
etal
hydro
▁ultrasonography
uridine
prol
▁epitope
▁hippocamp
-10(
▁pellet
fted
▁penetrate
▁solub
▁obliter
▁(12.5
tration
.7%
▁disturbing
▁controver
▁Leydig
▁9.2
▁wk
icillin
▁hypothyroid
▁clind
8;
▁albuterol
▁secretory
▁Golgi
▁aneurys
▁grading
▁185
olization
imaging
esting
onit
▁intracor
▁herni
▁299
▁suprac
▁metabolic
elves
▁HBsAg
▁lymphocytic
▁elastin
▁urethane
▁confound
▁Cardi
9).
▁CsA
▁11.6
▁urethral
radiation
▁microorganism
.5,
coding
▁LTR
▁Cyclic
▁Reduc
▁phosphates
▁supplying
▁diagnosing
▁forebrain
▁membrane
▁rabb
▁neurom
▁Adding
▁insufficiency
Ala
▁organism
ubilized
▁labelling
twitch
▁microtubules
74
▁142
▁stripping
▁Natl
▁motif
31,
kines
▁(75%
▁0.90
▁multivariate
atoxin
▁differentiate
▁6-
▁BMI
▁0.016
▁ammonia
▁problematic
▁prono
▁0,
▁periv
▁18.3
▁coagul
▁psoriatic
▁pallidus
▁respiratory
▁principally
anat
▁grise
▁streptomycin
▁standardized
▁differe
0-
thickness
▁132
▁ana
▁recessive
DOPA
▁concentric
ranean
▁reser
hyde
lication
▁presynaptic
▁199
▁cesarean
▁44-
▁Staphylococcus
siologic
▁reac
ignant
erop
▁62
▁cyto
▁phenylalanine
▁EPO
▁analogous
▁ovid
ocorticoid
ymptom
▁nucleoside
apsular
▁Significant
▁cation
▁Renal
ucle
trative
herence
ximal
▁angiographic
glutinin
izin
PAC
oxon
▁dete
mercap
▁protects
acr
▁isoform
▁550
▁venti
VLDL
▁40%
▁99
▁extracorporeal
significant
▁interfere
▁mucous
ipheral
robic
▁PF
▁attitu
▁methotrexate
▁heterogeneous
▁FAD
▁cues
urea
▁preincubation
▁LS
-1,
▁61
ocamp
.8
▁spermatozo
▁benzodiazepine
▁terat
▁retrogradely
uled
odop
▁Stu
▁castrated
▁allyl
▁weaned
▁Concomitant
▁133
▁Phy
▁carin
indol
▁pregnancies
▁horiz
▁273
titute
▁NK
AFP
▁morphology
▁mec
EBV
COP
▁vasospasm
▁causal
▁intraperitoneal
▁interrup
▁Caucasians
ecia
▁radiographic
odine
ffin
▁6%,
ithm
▁intermedi
▁bir
▁cine
entan
▁serology
▁stenoses
▁gyr
▁PWM
▁ile
▁expenditure
mobil
▁Ventricular
▁gland
ogenesis
Dawley
▁neuroblastoma
▁lumin
▁caloric
▁hydroph
▁homolog
▁fibrillation
▁monomer
ochemistry
▁correlations
▁110
▁methacholine
▁resemble
▁alkali
▁isolates
▁alkaline
▁gluconeogenesis
umbered
-66
plementation
▁unmodified
▁occlusions
PGF
odopa
▁individualized
▁bathing
▁poten
▁phagocytosis
▁hypothalamic
oactive
▁(10.
aterals
▁uncoupling
▁gestation
atine
othalamic
▁weakened
▁(0.4
▁untreated
▁TK
▁autoimmune
utaneous
▁nephrotoxicity
▁CEA
▁2,4-
8,000
▁nucleolar
ECs
▁replic
PSPs
▁repeats
uscular
▁albic
nucleotide
ocarcinoma
rinary
heavy
CAT
▁Bloc
▁eradication
magglutinin
▁hydration
▁abnormal
oglut
oxidation
▁microenviron
▁Phosph
PMA
▁(5.8
20.
▁Iso
▁hydrochloride
▁pyr
▁columnar
teryl
83
▁carbam
enzyme
▁subfractions
▁neuroleptic
▁0.2%
▁succinate
▁hypop
▁GSH
▁haloperidol
▁309
▁retic
olus
▁tubulin
otassium
▁precur
▁RS
ituitaries
sorb
▁elicited
▁discharge
ELISA
▁biosynthe
sac
arate
▁CRH
▁quoti
▁bacterio
▁75
ATP
▁preparations
▁pentagastrin
carboxy
-5
antibody
▁cavern
▁eminence
▁sacrificed
▁Examination
▁hydrolysis
reast
00-
heum
▁rotavirus
▁333
▁249
olarization
bino
▁unex
▁Clinical
▁12)
umbar
▁euthyroid
▁15,
▁transthoracic
▁reticulocytes
▁restrictive
▁Molecular
/30
rofen
adecanoyl
ografts
▁5%
▁polym
▁blunted
▁abrogated
catal
releasing
▁200-
▁myelinated
▁157
▁VH
▁estrone
▁NH
tisone
▁melanogaster
onide
emin
▁incidence
▁Throm
▁extremity
lived
platin
▁spermatocytes
▁pravastatin
▁correlating
▁logar
▁alp
▁actuarial
versely
▁29,
aminobutyric
attern
oreal
▁tablets
▁Prevention
ubiqu
orbol
▁contralateral
▁1.9%
TSH
▁reconstituted
▁UDP
▁oxytocin
▁arrhythmic
▁excitability
▁(28
rocal
strual
▁hemopoietic
▁eccentric
▁acet
ophageal
naud
▁exon
▁eukaryotic
▁clot
labeled
▁bioactive
▁HbA
leuk
▁influenzae
6%)
▁microsomes
ositis
▁vasodilators
myr
orrhage
▁throm
particularly
kD
▁lor
aind
oreductase
▁amlodipine
genital
▁Hypertension
ophila
▁fluores
▁deposited
▁FK
▁ethyl
▁postulated
Hep
uppres
▁Uptake
▁degran
▁lacked
▁6.4
▁disrup
▁antisera
▁senes
▁intrathe
diabetic
▁remo
▁eradicated
adrenergic
▁universally
▁psoriasis
challen
▁Combined
▁sampled
▁PET
▁substantially
▁organelles
teroid
▁penetration
acements
▁activating
thanolamine
▁malformation
▁estrogen
roscopic
ditional
uculline
▁objec
3)
turally
▁hypothesize
▁clustered
▁deem
▁Calc
▁Simult
2),
▁endocrine
gestrel
▁referral
▁translational
amate
▁responsiveness
▁uter
ritten
▁superfused
▁deterior
vable
▁impulses
chest
▁epoxide
▁(38
-9
▁Tf
ociation
▁cardiople
dihyd
▁affinity
atif
▁polycystic
▁-12
cytochrome
embry
▁medullary
averine
ribosylation
rance
abec
▁effic
▁abduc
▁furthermore
▁staining
▁bridges
▁Exc
▁programmes
▁ascorbic
▁(77%)
▁Lymph
▁ingested
▁sequestration
▁promoters
kinje
▁salvage
▁Secondary
clin
▁classify
imazole
▁Morph
▁14.8
arynx
▁interneurons
▁displace
▁inflammation
▁planar
▁56
▁dopaminergic
▁hypoth
denat
▁IgE
ertion
▁0.2
▁tendon
8.
▁mitochondrial
▁175
▁amo
entary
▁laminar
ialysis
▁98%
▁seronegative
patients
derived
ococcal
▁20-
tigmine
HIAA
▁1978
▁probing
vival
osoma
▁ketoacidosis
incubated
eclamp
neumon
▁1,2-
6,000
▁cyclical
roma
▁ileal
ispanic
agit
▁dysp
96
nthe
▁propagation
▁airway
▁1.2,
▁linking
moderate
deoxyglucose
-2.2
▁flanking
▁analges
▁hydr
▁whey
junction
▁epithelium
▁labeling
iruses
▁ADR
phosphate
▁TRH
odynamic
▁perikary
▁56%
▁(300
ometr
trus
▁0.69
▁12.0
▁2.0
▁nephrectomy
MDA
▁neutralizing
onium
prising
▁decreased
▁artifact
▁Consistent
▁phosphoc
cellular
vertebral
aturation
▁viscer
ocytopenia
mineral
▁nonfatal
▁quantify
▁apical
▁sequential
▁lactic
HSD
▁histi
▁acetate
racheal
▁microliters
▁fibr
▁laparotomy
▁infarct
▁soma
▁captopril
▁danazol
▁depolarizing
versal
▁compart
▁CAT
▁sequenced
insensitive
▁enzymatic
▁secrete
▁presumptive
▁chor
▁(3),
▁LM
rometric
▁atopic
overed
▁confers
zation
myrist
geons
trition
akalim
▁kD
▁1-
▁tritiated
▁transcripts
struc
enterolog
▁95%
▁237
tiz
▁discrepancy
▁450
▁prenatal
gment
▁37%
▁thalamus
▁drinkers
▁(3
5%.
▁transforming
▁testosterone
▁RI
▁2).
▁prescrib
ocyanin
▁capsular
▁formulated
lamy
eminal
ygen
▁excreted
▁characterised
▁1975
potential
▁endocardial
▁genome
▁cruzi
-125
▁GHRH
▁neurites
erox
▁osm
▁PMA
tizing
▁mildly
▁enrich
aund
idym
actone
abilized
▁rhabd
▁dors
▁correspondingly
umptive
▁Bacillus
▁inapp
inyl
5%),
solubilized
▁hydroxyl
-(3-
erally
▁plasmin
▁46
▁ecological
▁excision
▁virulent
▁regenerating
▁decreas
800
▁cervix
65
▁conjugation
▁Medicare
▁thorac
▁.01)
▁52
▁conclusive
▁adhere
▁reper
reductase
ystagmus
18,
▁transferrin
▁serological
anoid
tened
▁microsp
▁ulcerative
▁inhibition
PPP
▁methadone
▁reversed
▁diethyl
▁consequently
polar
▁Acet
▁ranitidine
▁pulmonary
▁1.5-
▁laparo
▁ABP
▁subc
▁173
▁sulfated
oglycan
▁phospholip
▁Mortality
Kyoto
nisolone
▁micelles
nucleotidase
▁immunoreactive
▁laminin
▁occupancy
▁antipsych
▁arrhy
▁RP
▁pentobarbital
▁bic
ofol
▁metaphase
▁prednisolone
▁guanylate
▁glu
ipient
▁xanthine
▁nodal
▁histone
▁harves
selec
ctomy
-1-
▁chamb
▁disappearance
▁linearly
▁EDTA
▁aryl
▁oxidative
▁acrosome
▁ovari
▁compensated
▁9.8
▁arose
-3,
▁cistern
▁anomalous
▁autonomic
▁0.57
▁invasive
llig
▁Phosphor
▁hexokinase
▁cervical
▁Clostr
▁10(-6)
▁Purkinje
▁myof
linded
▁thoracotomy
▁Cardiovascular
▁Duc
▁myeloma
adal
▁ejac
▁terminated
▁115
▁dehyd
-18
▁NAD
▁superiority
ixime
▁gonorrh
▁convulsions
▁98
▁(1000
rectomized
▁48,
▁ALP
insulin
▁tuberc
▁HCC
▁competitively
12,
chol
9)
apsulated
▁deformity
uria
▁operon
deprived
hydr
bred
butyl
lymphocytes
tases
▁145
▁Retin
5-
▁(10(-6)
▁adrenaline
▁metr
allik
▁manufacture
reacted
▁verbal
fate
▁granulocyte
2+,
▁accessory
%),
▁acini
▁interdig
▁streptokinase
olgi
▁intracerebral
rox
rostenedione
▁slows
▁vesicle
▁stratification
igenic
othione
ogeny
▁endocervical
epi
▁Tc
▁6.8
leuc
▁postnatally
openhagen
▁curric
amn
▁subf
▁subtypes
▁interruption
ifferen
▁SPECT
onazole
▁MRSA
▁Gluc
▁Comparing
▁neurogenic
izine
tite
▁elu
▁ventricles
▁plasmal
▁chlor
▁PKC
▁ricin
▁streptococci
▁noncom
enteritis
obase
▁cholecystokinin
▁261
000)
▁(16%)
▁blot
▁infec
enin
▁0.7%
▁chromosome
▁30.
ograms
▁lympho
▁drastically
▁deposits
▁ABR
▁dimethyl
nine
oxic
▁equivalents
▁elution
ifers
▁hydrocephalus
yridamole
▁315
▁PEP
▁ARF
▁contraind
▁ambulation
▁ANG
▁guinea
.9%
▁originating
iferous
▁mutans
▁atenolol
▁19,
otriene
amphenicol
▁microgram
▁Leuk
▁antiviral
▁litters
▁rostral
▁vasoactive
▁autocrine
▁prophylactic
▁autoreg
lesion
aminophen
▁tenderness
▁Modified
▁neurob
hydropyridine
▁PCP
▁ganglion
-500
0%)
▁workload
▁pheochrom
orphic
▁clom
▁arachidonate
osom
coup
colem
▁hens
▁depletion
▁0.23
▁distorted
▁cysts
▁Kup
prin
oprol
amel
▁biosynthetic
▁adjustment
difference
▁5.9
▁proteolytic
▁66%
▁coh
▁proteins
-200
lective
(+)-
-50
▁Measurements
25).
translated
corticosterone
▁detachment
▁TB
▁micrographs
inflammatory
.4%
▁smokers
▁hypothermia
▁cystein
▁guan
▁statistic
▁endothelial
▁hypotensive
edle
▁posttreatment
▁monol
▁reperfused
-198
antagon
lastic
▁bile
▁1991.
ocrom
▁fluorescein
▁10(7)
▁neuropeptide
agic
onorgestrel
▁backbone
▁sacr
▁myeloperoxidase
▁holoenzyme
uality
adherent
▁197
▁factorial
▁bilayer
▁ERP
▁calcitonin
11,
▁arcuate
▁modulating
▁inbred
▁tolerability
▁(47
▁imidazole
▁220
▁80
▁clus
▁recombin
▁shocks
muc
▁Dental
osin
etitive
.5%,
▁neuropeptides
CRF
▁Neurop
▁EPSPs
5%
tiveness
▁Thy
▁angiotensin
grown
▁inotropic
▁amniotic
▁logistic
▁concom
▁bronchoscopy
▁physicians
▁antid
4;
▁0.8%
osal
▁hybridoma
helix
▁BFU
kage
▁orbital
traction
▁10-
▁hyperactivity
adminis
▁polyoma
▁testis
risk
oplasma
dic
▁hydroxy
otting
▁exocytosis
▁Possible
▁diuretics
tus
▁empir
▁8,
hepar
pig
▁hysterectomy
osus
▁homogene
▁AVP
▁developmental
▁plotting
▁20,
▁ICP
▁Biochemical
▁hypertro
▁studi
aceu
▁preven
▁1985
▁vestibular
mokers
▁sucralfate
1/2
sistent
▁lysosomes
▁PAI
archite
▁PV
▁synthase
▁endurance
▁extrinsic
▁potency
▁cGMP
▁137
▁RII
▁4.8
▁techniqu
▁cations
▁probed
▁(66
▁squamous
▁cmH
▁BLM
▁nitroglycerin
▁injections
▁substrate
interferon
▁diastolic
iuria
▁spindle
▁methodologies
conventional
▁irrig
glutination
▁Thirty
▁substanti
RNP
▁Purified
inducible
▁infin
▁paralle
mentioned
▁grafted
birth
▁contracep
sulfamethoxazole
▁234
▁bip
▁Viral
isqu
▁pec
▁heparan
uoden
▁hormone
sAg
-5-
▁capsule
"-
▁esterase
onance
▁2.6
nithine
▁secretions
oxane
▁hyal
1%
0.8
toid
ergy
roat
▁pallid
iotic
articular
▁3',5'-
rinone
-4.
▁ascertained
▁lineage
▁26.5
0%.
89
LAK
▁fundus
▁acetyl
veolar
▁Experim
encephal
▁abscess
▁Rats
ondr
macropha
▁haemat
dipine
▁hybrids
consuming
▁stool
ituit
▁16-
▁bim
▁intima
▁beats
ecu
▁mL
▁renders
▁6.7
▁sinus
▁chloride
otin
▁Behavioral
▁Haemophilus
▁digestion
▁biopsy
▁Biopsies
roxyprogesterone
▁hemodynamics
▁seropositive
▁13.9
▁induc
acid
terol
▁Nons
▁naloxone
▁condensed
▁Preliminary
▁(1986)
epines
▁tachy
▁sph
▁MAO
▁Elec
▁0.18
▁placebo
▁neuroendocrine
▁projecting
▁yrs
▁exacerbate
▁Subsequent
▁kits
1:
▁hemisphere
▁potentiate
▁adenine
+)-
▁(72
▁RSV
eroxidase
▁preferential
otides
▁0.001),
roxim
▁fertilization
▁progressively
▁sarcolem
▁61%
▁terminate
▁lipolysis
circuit
▁excessively
mmol
▁241
cetin
▁Approximately
▁solit
▁practiced
▁sarcoma
▁(10(-7)
▁Cumulative
myc
,000)
▁microelectrodes
▁10,000
▁gases
▁ornithine
NGF
▁resistances
▁adap
▁phrenic
▁scars
▁consecu
tension
▁apomorphine
▁63
▁proceeds
▁apoA
sepithelial
▁Nutrition
▁lesions
▁residual
HCV
▁(2.6
oblastic
▁haplotypes
usively
▁discon
▁transcriptase
respectively
▁secretagog
NAc
essation
▁embol
▁disulfide
alues
▁DOCA
tolerated
▁Increased
▁atrium
▁thems
▁polyethylene
iability
▁ewes
myocardial
gnetic
acids
plastic
▁covalent
1-
▁myx
▁gastrin
oglob
▁231
aldehyde
urium
▁10.2
▁periphery
tur
erge
ocytoma
▁trin
▁rhodopsin
▁underg
admill
▁conduction
irrel
▁splenectomy
▁cyclospor
▁allevi
▁430
▁67%
enzymes
▁discharges
tectomy
-88
▁larvae
(2)
idol
IgE
▁0.25%
ocaine
hydrox
▁follic
anum
vular
▁1.0,
▁endocytosis
▁fungus
▁Levels
▁fibrosis
Gi
▁Antibodies
▁tRNA
▁villi
otine
▁flagellar
▁3-4
▁disposal
ectomized
▁cortisone
▁conduc
▁nonsignificant
▁ganglionic
tronic
▁substantia
▁10,
▁ank
▁basilar
▁substrates
agas
▁nodule
gression
▁270
▁FDA
xyl
▁anticoag
▁gavage
▁peaked
▁mcg
▁induces
▁discontinu
▁CFU
▁angiography
0),
▁(94
Cys
▁ramipril
▁omeprazole
ths
▁Hep
atoid
▁ether
osol
▁CSF
pH
▁intrag
▁medically
▁aspiration
▁3.8%
▁Pregn
▁meperidine
▁calmodulin
mM
▁predominated
oluble
▁Hyd
▁chronically
▁Newly
ronch
▁antibacterial
▁tetracycline
▁antis
▁adherent
▁unresponsive
▁leukotri
cotic
ystolic
▁adsorbed
gated
▁unsaturated
oproliferative
biased
trates
iazide
▁triazolam
▁ammon
▁gradients
(1,4,5)
▁attendant
▁elas
uitable
rophic
▁etiologic
▁CAH
▁preferentially
54
qui
ologous
trexone
▁27%
▁myocardi
▁mastectomy
turb
▁MW
▁Fluores
▁lessened
mediately
▁concordance
-10
▁PtdIns
tronidazole
butaline
▁inosine
0.2
▁resear
▁13
omyosin
▁54
omedial
▁VL
▁erythrocytes
▁subcellular
▁pancreatitis
▁(90
▁sedim
▁antinoc
▁spati
till
timate
▁infectious
▁neurotrans
▁1.3
▁basal
▁dithiothreitol
SMC
apid
▁thyroiditis
xime
▁exposures
▁dib
▁0.02)
vive
▁embolization
carinic
▁anesthetics
▁fenoterol
▁methodology
▁ata
▁2),
▁disulf
▁(50%
ilical
500
▁(93
▁unclear
tails
▁goats
dihydroxyvitamin
▁stenotic
▁Subst
▁96%
▁antidepressants
raine
monary
▁enthal
▁proportions
▁lesion
▁ascorb
▁MLR
▁Tris
▁3,4-
▁antibodies
noradrenaline
▁mV
ductase
▁mutants
▁cerebrovascular
▁operative
600
▁200,
▁hyperb
phorbol
▁247
▁overlapped
▁cG
antigen
▁Alternatively
tence
orbent
/2
odium
▁poli
thle
▁undergone
▁296
nai
roline
▁phenotypically
opr
▁sclerotherapy
▁(54
astigo
▁menstrual
ignific
▁polymerase
▁improves
▁crossover
▁detects
▁stroma
▁scaven
asthen
▁9-
topril
tase
uron
▁blockade
▁amplified
▁negligible
oproterenol
▁streptococcal
oxygenase
▁77%
▁aberrations
▁FEV
assium
▁dichroism
▁prothrombin
▁lymphokines
romyces
▁nucleoli
▁disadvantage
▁scre
azol
▁chromatin
▁salbutamol
▁antidepressant
▁anticonvulsants
omatous
▁protons
▁paternal
▁recirc
▁mtDNA
▁discom
ceptible
▁thio
▁transmitter
acyclin
▁Tx
▁endoplasmic
poor
rati
▁phosphatidyle
rogra
fibrin
opoiesis
▁LMW
67
thirds
tential
▁Asp
▁rhe
5,000
▁triglycerides
16)
▁epicardial
▁proinsulin
▁pharmacy
quam
▁requi
severe
▁menstr
NMR
ydig
▁trig
▁PHA
phic
▁Continuous
assi
▁axon
▁25-
▁23%
vaccinated
guing
▁8.9
adders
▁bactere
▁chloro
trimental
seous
▁recruited
alc
▁infarc
▁randomised
▁0.44
▁17-
▁8-12
▁oleate
▁6).
▁0.001
▁glomer
▁AML
▁polyps
glutamyl
oreceptor
▁HF
exposure
CEA
▁sucrose
▁0.6%
ectomies
▁Antibody
oides
▁0.55
dA
▁granuloma
osome
▁168
▁degraded
▁pathogenetic
▁4000
umbers
▁(15
aminoglyc
▁(84
renol
▁1.56
▁perfused
IDDM
▁3)
yste
▁unsuccessful
▁examines
▁sphingomyelin
embrane
idespread
▁anes
erose
▁tau
▁regurgitation
phragm
▁Previously
▁constituent
toma
LPS
titution
▁0.5-
Cy
cancer
▁TIA
▁CAD
rolase
gangl
▁oscillations
Gln
onate
▁ADA
▁extrav
▁polyamine
5%,
▁myenteric
urc
▁Mutations
▁0.72
▁antipsychotic
▁CCK
▁databases
▁HM
responsive
orporeal
▁Considering
▁pipette
▁duodenal
▁Immun
▁rGH
▁discus
▁isomerase
ischemic
▁atrial
▁1970
bacter
-0
▁(1:
▁transmural
▁investigations
epid
▁Systemic
▁inositol
▁LDH
▁necrosis
disc
▁histograms
▁neurotoxic
▁Beta
omat
▁granul
▁69%
▁dinucleotide
▁respir
▁scarring
scop
▁bumetanide
▁creatinine
▁keratinocyte
▁apolipoprotein
▁pouch
ofluorescence
▁(1
Ci
unced
▁contractility
▁appraisal
▁subcortical
▁virgin
▁126
▁substitutions
▁produc
spectively
▁amitriptyline
▁proliferate
▁hypophys
irectional
▁permissive
▁epit
AIDS
▁hyperox
▁periventricular
▁outlet
noea
▁elast
▁excluding
▁negatives
tempor
▁oes
▁antithrombotic
▁stoichi
itoneal
-29
▁acute
AVP
▁Myc
▁chol
tative
▁postulate
▁subpopulations
lamin
▁adenovirus
tance
istal
MK
▁ppm
▁Forty
▁cystic
▁200,000
haled
onyl
▁Assess
▁Inde
▁squirrel
▁239
▁0.01
utroph
sufficient
sives
▁phon
-43
▁Abnormal
▁hypertonic
▁midazolam
▁acad
aminidase
▁haemolytic
▁denaturation
%);
ANP
issive
▁transfusions
▁adjustments
▁(50
▁balloon
ganese
63
▁adrenals
▁nonsmokers
▁progenitors
▁GH
▁2,3,
▁serotype
▁PCR
▁discontinued
▁infra
▁3-5
▁8
excluding
▁nephritis
▁ceased
▁ald
▁metabolically
▁poisoning
▁pseudop
RBC
▁reticulum
ulant
▁97%
ipit
athe
▁succes
vant
▁ECGs
idovudine
▁transient
▁Stress
▁400
osteroid
▁heterodimer
▁currents
vedilol
▁HER
▁ontogeny
ohydrolase
▁peptic
▁cholinergic
▁48
▁taurine
ostr
+.
terminal
GMP
▁ket
▁VIP
4]
▁filament
▁93
▁ane
cardi
▁adequately
▁dyne
▁5,
▁(3)
▁SMR
urther
▁Hepatic
.6
▁100,000
▁eluted
olab
▁superimposed
dia
ocytotic
▁autop
▁RBCs
athic
▁cisplatin
membrane
▁141
onitis
▁adherence
coated
vated
▁duodenum
▁adhering
▁suppressing
▁(75
▁cleaved
▁pene
-300
PRL
▁obstetrical
iological
▁0.66
tive
▁progest
▁(45
positive
amethasone
▁liposome
rotic
▁deformities
methylxanthine
▁qualitative
osocial
150
▁pumping
▁exceeding
olip
▁anxio
alities
▁imaging
▁nickel
▁45-
▁rhesus
▁mathem
▁allosteric
reacting
▁DF
chlor
▁conto
▁malformations
▁refined
needle
▁28,
▁collagen
▁cholec
▁undergoing
▁streptococcus
▁socio
▁0.27
hap
resis
▁0.38
▁serosal
▁thrombocyt
oresis
▁paroxysmal
tinu
▁teratogenic
▁quenching
▁uv
-32
▁hydroxylation
▁(37
onegative
▁cruz
▁triceps
urane
expressing
▁radiolabeled
▁infusions
▁collab
▁homogenates
erebral
▁LF
reas
61
▁unequ
hesus
▁persist
▁EAE
trol
RIA
▁(35
amuscular
fected
▁afforded
▁vasoconstrictor
▁stresses
tioned
▁infiltrate
compartment
▁2.8
benz
▁IAP
quamous
▁ipsilateral
▁ventromedial
▁60,
▁proteolysis
00,
▁glucone
▁extravas
▁endarte
▁adjus
-40%
▁Feeding
▁(4.0
▁analysed
ellum
▁Lp
▁expec
ivation
▁electroph
▁cytokines
▁lenses
chin
cysteine
▁haemodynamic
▁(125
▁thromboemb
▁citrate
▁(76
▁hemat
uantitative
▁leucocyte
▁alleles
timum
yrid
▁fum
ocap
oprostol
▁eicos
ritish
▁dox
▁biop
ivariate
▁orch
▁inflamm
▁polypeptides
▁cones
▁(5%)
▁0.26
▁deferen
▁Subjective
▁GnRH
▁glia
▁tetrodotoxin
▁examining
rences
-10)
▁presumed
▁promp
▁hipp
arose
▁kilobases
▁salicylate
:00
▁1.00
roscop
▁transpor
▁corticotropin
▁Angi
▁helices
▁strips
ylcholinesterase
▁50
opause
etan
thysm
▁opi
▁25
▁musc
infected
▁schedules
▁bronchodil
▁30-
▁conductances
tidal
illaries
▁infertility
▁anaesthe
peroxidase
▁vasodilation
▁interf
▁bilayers
▁unim
▁agglutination
▁adolescent
▁transported
▁disper
▁dexamethasone
ygdal
▁Cooperative
▁luteal
▁saliv
idinyl
▁leaflet
▁electrochemical
▁(95%
-5.
▁hypertrophy
▁feasibility
▁Lung
▁fec
phosphatase
2.1
osm
▁7%
itidine
tagland
glycer
▁neutralized
▁gels
▁phos
▁cardiac
▁phenotype
opamine
0).
▁hyperg
gradely
ungal
.2%
▁somatosensory
enicill
▁Urine
▁sodium
enyl
hepatic
▁transduc
▁parturition
▁postex
ovascular
3]
▁gliomas
▁spindles
▁globular
▁unwanted
▁peroxidase
generation
acchar
▁carboxyl
▁psychomotor
▁12%,
(1
▁Diabe
▁monolayer
▁ligation
▁epithelia
▁olfactory
▁tonic
tris
lier
▁solute
▁adiposity
▁40
opa
anate
▁doubled
rophenyl
▁conspic
▁dihydrofolate
insoluble
▁Ear
▁prophyl
▁precipitated
▁behavioural
▁(1989)
▁carcass
odone
00
opyran
▁11-
▁ischemic
▁clinicians
▁comple
▁15.
derly
amus
approximately
▁naproxen
▁splenocytes
opathic
oprim
▁10(-9)
yrosine
▁poin
ynaptic
▁uric
▁amyl
▁aggregates
▁Glc
▁AMP
ostatin
ministration
TN
▁antioxidant
▁Basal
ivac
▁asymptomatic
oleoyl
▁440
▁thymic
ameter
rease
▁Barrett
tryp
▁arising
▁ferric
valence
▁simvastatin
▁trich
▁reproducibility
▁homogeneous
▁sham
▁erythrocyte
▁descriptive
▁amph
▁transplants
▁inability
▁300-
pirin
illi
assay
▁(199
anthracene
▁confir
▁penicillin
embers
▁fertile
▁colonoscopy
▁0.28
oracic
▁posed
sial
iphenyl
androgen
▁deox
▁persis
▁hsp
timal
▁sequelae
▁2.9
▁characterize
▁243
uracy
rangements
▁photoreceptor
estive
▁Positive
▁niacin
▁anis
eak
▁CCl
▁Comparisons
EI
▁ulcers
fentanil
▁Extr
chym
▁1-3
▁Asn
uccin
▁vite
▁radiographs
▁discs
▁(3.0
lactam
▁axonal
aicin
▁thrombin
15.
▁monoclonal
▁implants
yses
▁phosphoinositi
Leu
▁ultr
▁heavi
kling
▁0.83
:4
▁biom
anoids
▁cotrans
▁criterion
lactams
▁aromatic
ocytochemistry
odialysis
alveolar
anazol
ostal
▁contrac
▁dodecyl
▁quotient
▁motone
▁metabolites
▁Rb
▁91
▁Mice
▁polarized
nary
▁morphometric
▁DBA
tagog
▁substitution
liteal
yrib
5;
otransferase
rotoxin
▁hydroxylase
▁ankle
▁0.2-
▁FITC
▁calcified
uracil
athy
▁anion
tics
4,5)
oblasts
tained
▁anomaly
cyclo
▁suspensions
▁Angiotensin
kerat
▁33
▁glut
▁Hyp
▁Subcutaneous
lives
globulin
performance
▁deterioration
▁1966
▁hygi
dine
▁sequentially
gol
aternary
▁PMN
▁aerosolized
▁mimicked
▁1982
▁enamel
cine
▁cyclase
▁experim
phage
▁(7
▁enhances
sych
transferases
astases
PAT
▁duplic
▁22-
▁SBP
lectomy
▁corticosteroids
welling
▁intox
▁colloid
▁Adenosine
▁pathway
tically
▁unres
▁tic
▁termini
▁RL
oidal
▁fertility
▁1.0
▁revised
▁lysozyme
▁glycoproteins
▁PCA
▁prerequ
tomycin
▁evaluating
ocrit
viral
▁bacilli
▁(0.2
▁adriamycin
ethoxy
▁0.05,
▁septal
▁poliovirus
▁mutations
CGRP
/10(6)
▁radiologic
orbid
▁disproportion
regulated
enoid
thmias
sA
▁LN
▁labelled
(-)-
▁predicts
carnitine
▁degen
3,000
▁thereafter
▁Inhibition
ietin
embr
13
▁jejunum
▁BSA
pended
▁cutoff
▁caudate
▁mongrel
▁enrolled
amphen
▁classifications
lac
olis
▁simultaneous
horm
bindin
fluo
transformation
▁plaque
alazine
▁autoradi
rague
ectable
▁conflu
linking
▁reserpine
▁repolarization
▁sulphate
▁intranasal
ographs
▁augmentation
▁pancreas
heric
▁eryth
▁juvenile
individual
▁Histologic
parative
▁contracture
amethonium
▁diminish
▁prescribing
▁0.64
▁corresponded
▁isozymes
ovol
▁alcoholism
ocortex
▁lineages
-1),
▁retention
▁(26
▁fibronectin
▁paraffin
▁anaesthetic
amicin
▁(65
▁molars
▁ovaries
▁pep
▁participates
▁contex
▁ips
▁postischemic
▁transaminase
stole
▁(-0.
yroid
opha
▁ovarian
▁9%
stro
▁233
56
ocyst
▁ureth
▁opac
▁(150
▁0.99
▁exten
lux
▁prescribed
ziness
erad
▁2',
▁AE
reactive
▁vicinity
▁arrhythmias
traumatic
phot
▁Chronic
▁discern
.2,
▁(97
▁gonadal
ensities
▁acceptor
indole
▁resolving
▁extrap
▁embryonal
▁hexose
▁conformations
▁lec
80
tailed
▁Cushing
▁reinfor
ighting
plasmin
▁12-
idne
▁phenylephrine
▁oligos
yridine
▁127
▁Depart
▁denatured
▁enzymes
▁asthmatic
▁CRP
tial
▁thalamic
▁Findings
▁adequ
obut
-3.
▁respec
▁RPE
flic
ilol
▁minus
▁hetero
▁structurally
SCLC
▁alternatively
▁prone
tumor
.0
1)
▁spectrometry
secreting
▁(5.0
▁sulfhydryl
▁Prolonged
▁estrus
tens
0.3
▁arteriolar
▁pups
▁leukocytosis
angerhans
▁Repe
▁11.0
▁hypotension
▁intron
CMV
▁sedentary
▁GV
casein
lip
▁Dip
▁crani
▁prevalences
▁pacemak
▁quisqu
▁32%
▁repor
▁deletions
olase
facial
▁NB
▁1.13
▁efflux
▁sigmoid
▁abortive
▁torque
clerosis
▁compli
▁cytomegalovirus
▁transepithelial
pecially
▁47
▁LAD
uates
▁neuropathic
onuclear
ycardia
netium
velength
▁intimal
▁pyrimidine
tryptamine
▁correc
▁plateau
othiocyanate
▁oligonucle
▁regurgitant
▁rigorous
▁100%.
▁circulatory
▁allo
amellar
▁openings
cyt
kilobase
▁vasoconstric
▁posi
▁1.25
▁Complications
▁Sequence
▁superv
thmatic
▁reinforcement
▁cured
sorption
ints
botic
urine
esti
▁droplets
isol
▁cytostatic
▁methanol
▁extrac
vus
▁stimuli
omann
epin
▁ceftriaxone
▁parame
onset
deficient
▁surfact
ainide
0.0
▁heavier
▁damaging
(6
▁arth
▁gynecological
▁ribosomal
▁electrophoretic
▁embryo
▁etoposide
ughter
▁Fc
luent
.1%)
lpr
rachial
temperature
tidine
uating
dent
itively
▁Groups
kade
▁hir
comitant
anserin
▁immunocomp
▁glycosyl
ohns
odend
▁fractional
licular
▁1.6%
erents
▁0.002).
▁SPL
▁mitogen
dT
▁flexor
olipin
yrate
▁consequent
▁nif
rane
▁collaterals
▁7,
▁Bovine
▁KCl
▁retroviral
▁uniformly
▁retrospectively
▁gonadotroph
68
▁traumatic
▁athymic
kele
▁(31
▁(32
▁spectrophot
mAb
yanodine
▁positioning
▁mitogenic
▁blister
-2.0
▁mitochondr
▁condens
▁12%
▁0.48
▁mutated
▁SRBC
ituitary
▁varicosities
▁transesophageal
▁triggering
▁radiolab
xia
trating
▁hydrophobic
▁atherosclerotic
▁zoster
▁14,
clinical
opharm
tally
lyl
minal
fts
▁ACh
▁hapl
uliar
▁denervated
▁Immunobl
2+)
torchid
ecyl
▁cytochromes
AII
▁38
determined
▁hypercalcemia
oxybenz
ostigmine
▁aneurysms
opramide
angiotensin
helical
▁bulb
+/
▁Whole
▁malignancy
opro
▁preterm
▁Compared
dependently
▁apoE
aric
▁vegetable
xual
tokinase
▁ventricular
▁EG
▁contaminated
▁tryptophan
oplas
-2)
▁cerevisiae
▁microscop
▁tac
▁retrie
▁(10%)
▁plots
▁FSH
▁barb
CCK
▁Analyses
3).
produc
▁halves
▁intramuscular
loxacin
uptake
▁1.12
▁4),
▁51
bumin
crip
▁duc
▁enteric
▁receptive
▁sensi
▁porcine
▁263
▁anticonvulsant
ochrom
▁reproductive
▁ouabain
plasma
oAbs
▁9,
▁osteoblasts
▁(9
▁progestogen
▁confounding
▁validity
▁stabilization
classified
▁pyro
▁Twelve
▁irritable
ourinary
rocy
lasses
together
▁prostatic
▁Electro
▁herds
▁iso
▁dias
osacral
▁lamb
mitoyl
▁mmol
▁Acute
oneph
▁panc
▁carcinogenesis
▁devoid
▁gonadotropin
▁pericardial
▁DHA
25)
▁microvilli
▁VE
inactivated
bral
▁anticoagulant
bruary
▁collagenase
▁monophasic
▁competence
▁0.07
▁HPLC
▁119
tenolol
▁28%
eliac
▁pyrophosphate
▁KA
▁lamellar
▁exercising
▁HindIII
▁nonsurgical
▁imbalance
▁RR
▁(0.5
▁reoperation
▁degenerative
▁(1%)
▁lecithin
razolam
dyle
endocrine
▁Leu
▁chimer
▁inhibitors
▁relieve
▁203
▁Prac
lasts
▁hap
anesthetized
▁acuity
rostened
oblas
roscopically
▁normalization
cortical
within
▁fibrinolysis
▁Investig
▁predisposition
▁Drosophila
▁conclu
▁6.6
▁strikingly
stem
▁haplotype
▁hepatic
▁Indi
▁eosinophilia
DPAT
▁inferred
▁ionic
▁univariate
▁kidneys
▁inducing
▁neuropil
▁itraconazole
ducing
▁NADP
nosis
▁8.1
tory
nitros
▁asbestos
▁oxime
isole
buterol
▁estradiol
▁GPIIb
▁dehydrogenase
▁90%.
▁labile
▁felodipine
▁paradox
/90
▁intoxication
▁Contr
▁newborns
▁implying
-37
Lys
▁39
▁Geor
▁supine
▁neurofilament
▁permeation
ocarcin
▁180
tebral
dione
▁impair
▁transiently
pont
ionine
▁polyunsaturated
▁spaced
▁maneuvers
▁chondroitin
▁Identif
rogenesis
peak
▁Caps
cemic
▁Exercise
▁depolarization
▁condyl
tonin
▁118
▁BH
▁administering
osclerosis
▁chromium
▁Disease
▁0.03)
atized
▁postinjury
▁hepatocellular
▁splenic
takes
▁CTL
▁locomotor
cnemius
eration
▁(1990)
▁recognizes
▁VLDL
tiary
▁spinal
▁astrocytes
uterine
▁Conversely
flanking
▁peroxisomal
CDC
▁segmental
▁formulation
aminases
ocul
▁magnesium
▁tyrosine
▁corne
▁Hb
osamine
▁immunoblotting
ribose
▁measurable
▁12.5%
▁spanning
▁drin
▁Survival
ferrin
▁worms
▁endpoints
▁ascertain
▁blocker
▁surfactant
Ile
obacterium
▁32
rowing
▁(20%)
▁GPI
▁dysfunction
▁Randomized
▁yearly
▁traced
LAD
▁hypere
▁Scale
▁163
▁dosages
▁limb
echn
romagnetic
▁forsk
▁manipulation
osidase
▁retarded
▁hydrolysate
romes
▁descending
▁68
subs
▁systole
▁inflammatory
orrhages
▁-0.5
▁identif
eryth
▁viral
toph
▁steroidogenesis
ibrate
▁92%
tig
eprazole
▁3).
▁postinjection
▁histologically
▁anticonvul
▁Tg
▁opportunistic
▁causative
▁antioxidants
▁strains
▁(2),
IFN
▁alters
▁diagnose
▁flavin
▁pediatric
▁allele
▁ration
▁HB
1.1
ypro
▁reflexes
sulfate
▁digests
▁pneumococcal
▁cartil
ygosity
▁abdominal
▁reliably
▁(63
▁vomiting
▁Multivariate
▁suboptimal
▁diabetics
▁TcR
▁ligated
ADA
glucosidase
▁cortisol
▁appropriately
6/
▁4.1
▁2.7
molar
▁Experiment
▁perturbations
coun
▁modulate
imol
▁Ae
▁oestradiol
▁phospholipids
▁tolu
sip
▁Comparative
▁boutons
luding
▁Kd
OA
▁tetramer
kely
▁5-
▁bronchodilator
avoid
▁parenchymal
▁Benz
▁doubling
triatal
▁7.
▁resembles
▁myocarditis
64
▁magnocellular
orsal
ejection
▁outward
ecutive
▁cran
▁1.75
▁(0.9
▁sero
▁NaCl
▁bicycle
▁AChR
▁folding
tria
▁unselected
▁glomerul
31
▁consis
▁bioassay
▁obstruction
▁mesothel
▁syncope
nRH
fibrate
▁inappropriate
▁Extracellular
▁candidiasis
emia
▁dermis
▁viscosity
▁0.65
:0
razosin
▁novo
iplin
idium
▁modifying
▁(20
▁Intr
competitive
piratory
▁sple
.1)
gluc
:3
ganglionic
bly
▁Differences
▁FMLP
▁Oc
hydroxylase
▁(34
▁antagonists
▁absorptiometry
ophys
perature
▁(89
glut
▁10-20
▁lobe
▁caffeine
▁thoracic
▁onc
▁70%.
▁econ
▁thiols
intensity
▁94
▁adrenergic
▁amyloid
▁indis
trast
▁cDNA
tially
▁haemorrh
▁recycling
▁nonex
▁Phe
▁cyst
0.00
▁conformational
▁exponential
▁palli
▁10.5
▁shortening
carbon
sibility
those
alciparum
▁Parkinson
ecum
▁barium
-12
▁hematologic
.3.
ranial
▁1.9
iteal
▁paraf
▁alk
▁Apo
▁8)
9;
alas
▁lethal
HRP
IAA
▁metals
▁amphotericin
▁lethality
chains
▁corticosterone
araldehyde
iatal
breath
meth
76
▁Interleukin
tensity
0%,
▁flexion
oglutarate
▁virul
▁Effec
repres
imentin
▁thrombotic
▁hydrolase
▁(89%)
▁158
▁methylene
atment
▁palmitate
▁hypercapnia
relaxation
▁fructose
▁pharmacology
▁76
hern
iliated
astom
schemic
▁120
▁Clinic
tise
erus
▁fluc
▁nucleus
▁1.2%
▁hyperch
optimal
▁15%
▁extensively
▁Bam
▁tracers
idating
▁insom
apeutic
ffinity
▁89%
chond
▁repressor
▁anab
-45
▁cranial
urgical
tococcus
▁uninfected
▁metoprolol
▁rearrangements
ceptual
▁immunoglobulin
▁dihyd
▁IA
▁(4)
gut
thymidine
▁covalently
▁papilloma
jective
▁15-
▁extremities
▁bending
pyrid
▁summ
▁baboons
▁disposition
▁herb
▁recurrence
▁rIFN
▁1.05
▁epidemiological
▁NN
▁Combin
▁concanavalin
assessed
▁9.
▁divalent
▁attained
▁unfav
▁intracellular
athiop
operated
trac
▁123
▁0.01,
▁epidemi
opathy
▁Evaluation
orh
▁cardioplegic
residues
▁cellulose
responding
▁nosocomial
▁implanted
▁ultras
▁seizure
▁92
ulence
▁infants
▁morbid
▁twitch
▁viruses
▁MMS
▁carotid
▁neon
▁stren
-13-
▁pathogen
geal
activities
weekly
24
▁154
▁combin
namic
erates
▁10(-3)
▁Severe
▁familial
cycline
iline
▁antec
▁4;
FV
▁Prob
▁altitude
biotic
▁capillary
ancre
▁VV
▁embryogenesis
▁depolarizations
▁interferes
▁angiogram
▁rT
▁Bronch
romethyl
▁disruption
▁spermine
PTH
utyryl
▁8),
▁tib
plas
▁(90%)
▁detecting
▁sebaceous
▁counterparts
▁gonadotrop
rele
▁oncogenes
pendym
galactosidase
agittal
▁Glyc
oneu
▁supervised
▁cytoplasm
opioid
▁0.9%
trop
▁(1)
▁branched
▁longus
odular
▁0.
▁AK
vents
▁insec
▁ANF
bromo
leural
▁somatic
▁uncovered
ometrial
▁Synthe
22,
▁latent
erebr
▁hydrocarbons
▁contral
▁0.6
▁peptid
leucyl
▁0.10
roin
▁nuclease
▁atria
▁glial
erbB
▁uncommon
▁compounds
dens
▁denat
▁adhesion
▁cleft
▁chlamydial
▁bromocriptine
▁Asi
▁cef
charomyces
▁Amino
micrograms
peritoneal
▁intervening
▁Epid
irubin
▁12,
▁surrog
▁1.06
teroids
▁10(3)
▁localize
▁catalase
▁(0.8
BSA
oate
▁stratif
▁scl
othelial
▁convul
ections
▁incidences
quinoline
ergic
regn
▁Abnormalities
▁100%,
▁160
▁14.
▁mucin
▁ADH
-400
▁microbial
▁smoked
arthritis
▁initiating
▁oxid
muscle
phila
▁roentgen
▁cytology
2,000
▁follicles
▁fati
▁kallikrein
propyl
▁lymphocytes
▁intracranial
utaneously
plast
▁slopes
▁potently
▁ARDS
▁oss
antile
▁libr
▁behaved
▁longitudinal
▁phosphorus
earance
NMDA
▁histology
▁worsened
▁GRF
▁sarcomere
▁(250
▁hydrophilic
▁kDa
odia
▁polymers
▁8.4
▁hindlimb
▁CML
▁HBs
▁(20%
▁intraven
▁69
▁immunocompetent
▁absorp
▁preexisting
▁immunologically
-5,
rotin
lyte
▁pituitary
▁platelets
▁malabsorption
bronchial
▁visceral
▁epidermal
▁exceeds
▁trypsin
glial
fluores
Tyr
▁beverages
▁dermal
▁280
▁clues
▁LV
▁0.78
▁fluids
▁altering
▁demyel
▁OH
▁psychotherapy
estim
wenty
▁deple
▁contamination
Vmax
▁aa
▁gallbladder
▁irradiation
tinguishable
ethylmaleimide
▁Treatment
▁Removal
▁promin
▁7.7
▁0.05).
▁decarbox
▁homologous
▁oval
andard
▁1600
iol
▁rhythmic
▁reactivation
ticularly
▁0.84
stin
oung
oscop
▁warts
▁diluted
ocrine
ropha
imolar
▁antiv
temporal
subunits
amers
▁voiding
oporosis
▁vertebrate
▁homocysteine
uvant
BW
▁malnutrition
▁bromide
29
▁diagnoses
▁abscesses
▁progression
▁16%,
17,
▁microspheres
▁eventual
retro
▁enteral
▁bronch
▁lymphocytosis
▁scanning
9.
▁constitutive
-25
pain
blastine
ocated
▁(8
▁10(-5)
▁parab
▁100,
▁HI
▁8).
▁perip
EAE
pressive
OHDA
▁soluble
ervations
asal
▁Subs
▁ovalbumin
▁hatching
ortal
▁discrepancies
▁dominance
▁hexa
otroph
▁antigens
ervated
▁recombinants
▁mononuclear
yzed
▁exacerbations
▁prophylaxis
tomy
ospinal
▁0.80
-7
tipation
▁geniculate
▁trophic
cortisone
▁mediator
▁diarr
▁pS
▁mitotic
81
▁conjugate
▁typh
▁secreted
ophore
▁11%
sequent
▁implantation
3%
▁quinacrine
phthal
▁ductal
▁monomers
▁feasible
▁coincided
▁cooperative
▁detox
▁norfloxacin
▁urine
▁1.3-
▁Respiratory
▁goat
▁8%
upus
flamm
▁268
▁hamsters
▁synapses
icul
▁thallium
NSAID
▁perce
odopsin
▁carinii
▁vulgaris
▁subcl
▁151
atient
ichia
alsy
▁isovol
leucine
rested
▁doxycycline
▁MV
azolium
olet
▁snail
▁regimen
▁allergenic
▁277
▁smo
▁circulating
▁stabilized
0%),
olig
▁(60%)
olated
adily
▁HS
▁AIDS
▁CABG
▁valves
▁blu
▁follicular
▁adduct
ytes
▁13,
▁0.02
▁lis
▁disrupted
irc
▁26
FEV
▁hydrolyzed
olymer
▁reapp
▁unfractionated
▁hypokal
FGF
▁(63%)
blast
plen
▁glutamine
romy
▁messengers
▁phe
▁catheterization
▁(-)-
▁Animals
▁underst
▁cholesteryl
edded
▁detergent
▁(33
versity
.5.
bilities
robial
▁WBC
electro
HV
▁0.15
▁heme
scher
▁genital
▁duoden
▁exudates
endorphin
▁appendix
▁epinephrine
▁differentiating
▁constitutes
▁debr
-8-
siveness
▁hippocampal
94
coronary
▁mesangial
▁fractures
▁lavage
▁ribosome
ophylline
▁elevating
▁70
guan
▁0.9
philis
▁gingiv
▁posttrans
▁daltons
▁1),
▁intrahepatic
▁specialty
pli
ivocal
▁peroxidation
iodine
▁musculoskeletal
▁intestinal
▁TS
▁ozone
inhib
▁MPO
▁covariates
▁ions
hep
restric
34
28
portant
6,
omically
administered
▁reductase
▁reagent
▁diabetic
▁thresholds
▁postpartum
▁fluoro
▁physici
▁isch
vaccination
▁crystall
pressure
▁crystalline
▁(1/
▁transverse
▁dehydration
▁radionucl
tec
▁inguinal
Gs
astine
▁polymorphic
▁dissoci
▁15)
oreg
▁thymocytes
▁0.7
▁prevalence
.7%)
nour
antigens
▁([3
▁conjunctivitis
methyl
tir
▁surrogate
▁galact
▁mEq
opeptides
▁nicardipine
▁(84%)
▁intensive
▁seroconverted
▁quanti
▁129
▁cigaret
▁BN
▁intra
▁inten
▁fmol
ocyanate
▁Growth
▁nonlinear
▁villus
▁unrecognized
crib
▁Milk
▁albicans
dR
▁digitalis
▁26%
▁immunod
▁desirable
lebsiella
▁phag
▁disturbed
rectomy
▁eliciting
6.
▁vivo
▁Diagnostic
▁Simultaneous
▁diffus
azolam
onucle
▁proceeded
olesterolemic
▁stiffness
▁interrelations
▁microns
7/
▁standardi
▁SIDS
▁tegmental
▁delineate
essional
▁anoxic
▁complexes
▁pneumoniae
▁Lym
romed
oplasia
▁PBMC
▁EB
▁uncontrolled
▁leucine
▁.05).
▁sulfon
ressing
osum
▁substances
▁coincident
▁1---
▁deliveries
▁adipocytes
▁124
▁oligosaccharide
plasia
micro
opian
sided
▁Willebrand
▁proliferative
rocyte
omethyl
12).
▁fibrinolytic
estions
▁8.0
▁photoperiod
▁lytic
▁programmed
unsaturated
depleted
mild
▁cuff
▁Selective
▁tetanus
▁cirrhosis
secre
anuary
▁gt
plasty
bA
0,000
▁promoter
rehen
▁solubilized
ovirus
oplatin
▁cholesterol
▁muM
▁obese
pore
▁dendri
▁CVD
▁displaced
▁MPTP
6%
average
▁morphological
ustif
CRP
▁potencies
peptide
▁embolism
▁44%
antibodies
philic
▁roset
idine
▁cytologic
▁exhaustion
omod
▁intraoperative
▁fibrinogen
fied
riamycin
▁IOP
oplastin
▁coagulation
▁neutroph
▁39,
clic
NB
contracted
▁galactose
▁sulfonyl
▁preload
▁psychosis
▁basolateral
▁abnormally
omatostatin
▁0.30
▁veratridine
▁1987,
atosis
▁sickness
▁90%,
-1
therapy
▁incomp
▁60
oxygen
▁esophagus
▁emergent
▁multin
70)
▁internalized
▁glioma
▁steadily
▁22%
▁nadi
diagnosis
itoring
▁severity
inase
▁seb
toxin
▁27%,
▁trabec
blinded
▁flora
▁serine
▁instability
▁urinary
glycerol
▁saline
▁leakage
▁dimers
▁hemag
gm
▁PCO
permissive
▁retinol
▁radiol
labile
▁extrahepatic
▁graf
tensives
▁gait
▁cardi
4,000
▁fura
pecies
▁struc
▁internalization
▁radioligand
treated
dopa
▁Muscle
artum
▁olig
▁MNC
▁quies
lue
infection
amagnetic
▁-0.
clo
april
thym
▁hematocrit
▁hazard
57
proline
dependence
MAb
resid
▁vesicular
▁reconstitution
ulon
▁plated
GV
olysis
vail
▁1).
▁lumen
▁Abdominal
▁abstin
:1)
▁chronotropic
▁leth
▁coeruleus
▁multil
▁1979
▁vein
25-
▁mA
uric
ocompatibility
nucle
amisole
▁duct
▁Significantly
thrombin
▁thymidine
dose
▁skeletal
▁2.6%
2318
▁plantar
▁144
menstrual
▁thromboembolic
▁inversion
▁immuno
lamyd
▁Antic
▁deficiencies
▁digestibility
▁hirsutism
▁transloc
▁ulceration
▁2
▁clamp
▁activators
▁cycloheximide
▁iodide
pI
▁(68%)
▁osteoclasts
▁recurrent
deficiency
▁pineal
▁.01).
▁(15%)
idated
.5
itamin
▁Antim
▁polysomn
▁(0.3
▁INH
▁22)
roph
▁pts
▁agonists
▁Metabol
▁spacing
orbidity
▁retinoic
▁amn
▁50-
▁0.40
▁noradrenergic
ophag
▁therapeutic
▁immunoprec
admium
▁symme
▁0.001,
etoprotein
atology
etition
▁denervation
▁Surgical
▁subtilis
▁contiguous
oxygenation
GFR
▁nonc
iatric
▁ternary
agarose
carbohydrate
▁phosph
▁conjug
▁2.
Hb
▁trout
oretically
▁impedance
▁atres
/7
▁amino
vinyl
▁33%,
▁Antis
▁chlo
phosphon
▁meningitis
▁196
ozo
cad
▁conductance
▁(6
▁3.9
▁Respon
▁ribs
▁attrib
trypsin
▁Oxygen
▁hyperglycemic
▁182
▁schizophrenic
▁triacylglycerol
▁junctions
▁stained
ystectomy
▁insomnia
▁600
▁traction
▁sulfate
▁occlusive
1%)
▁neurolep
▁NTS
▁avail
▁observers
▁luteum
▁weighted
▁normo
▁2-4
▁polymyxin
▁transporter
▁mesen
▁oligonucleotide
unctiv
ineal
cious
▁0.41
ochemically
iflu
▁vacuoles
▁alb
roxy
▁hypothyroidism
▁18%
▁0.46
▁accel
▁shif
▁tertiary
▁67
▁sexes
▁fibrillary
thre
▁Symptom
actam
▁markedly
▁paroxys
ratic
▁Registry
▁infrared
▁anap
orphyrin
▁eosin
▁105
▁promptly
-40
4.
▁counseling
▁Aspirin
hormonal
▁plasticity
Asn
▁vaccination
reasts
▁regulating
ophren
▁ubiqu
▁centrally
▁LTC
▁permeabilized
▁aminoglyc
centered
▁260
▁HSV
▁passively
neoplastic
▁cic
▁3',
▁5
▁interfer
▁catab
▁ethn
▁crom
▁constitutively
yronine
▁micromolar
dition
▁afterload
▁Fifteen
▁traum
▁Graves
▁nausea
▁anastomosis
▁gangl
▁inclusions
din
▁81%
▁therapeu
lies
▁Maternal
▁proton
baseline
▁vicin
▁msec
▁(22
▁Glu
▁PEEP
tested
▁fetus
8%)
ortic
▁reperfusion
acetamide
xanthine
▁warfarin
▁inpatients
▁decrement
▁Tryp
▁Dic
▁antiserum
▁SCH
▁pulsatile
cepti
Hg
▁blockers
▁246
900
▁transfection
▁ejaculation
2+
tensive
erule
▁paradig
blood
▁diltiazem
▁rhinitis
ulators
▁8644
PDE
▁phenobarbital
rogenic
▁keratins
keratin
▁Breast
▁cyclo
▁glucocorticoids
▁Patients
natal
▁NSAIDs
▁photoaffinity
hydroxy
▁injected
▁9.7
▁cardiomegaly
▁Atrial
▁intub
ixation
▁77
▁chl
▁plasmid
(1)
▁naf
90)
atell
▁micros
▁Skin
▁nonresponders
▁(4-
▁hypertensives
▁arachidonic
HSV
▁GFAP
siological
acetate
▁tryptic
▁0.33
▁ketoconazole
verages
▁spike
▁calf
▁hyaluron
▁neighboring
gued
1,
▁globin
▁dividing
▁mitral
▁Rapid
tical
▁assays
otrop
▁10%.
▁dysplasia
▁preschool
teric
▁tetrac
▁accumbens
coal
eptin
▁RAS
▁5'
▁lax
▁empirical
onine
▁HCO
iceptive
hyd
nutrition
ught
pyrene
▁corpus
▁TG
vic
▁FFA
ipolar
▁haemorrhage
71
▁intraocular
▁276
rostaglandin
idinium
▁Pneum
hospital
▁Diets
fluoro
▁Tran
▁contrib
SMR
▁(1.2
▁bloc
▁motoneurons
mRNA
athioprine
idem
▁wee
▁25%
enan
▁hormones
▁hypothal
▁mesencephalic
ologic
▁52%
▁dyspnea
moking
▁6.3
▁valproate
▁(23
▁(42
terin
ighteen
▁117
▁6,
▁possi
:2
▁epilepsy
FSH
▁3%
▁accep
▁50%.
▁cochlear
▁polyp
▁immunized
▁quantit
▁mammals
▁demonstrating
▁allogra
▁exud
▁murmur
▁dobutamine
▁20.
▁rifamp
▁2.3
▁189
pir
▁titration
▁irritation
CBF
▁bilirubin
▁000
GABA
▁(88%)
▁megakary
▁14%,
▁holo
▁hypoglycemic
▁nonspecific
fib
mitters
▁1.45
▁births
▁urokinase
stab
mia
▁IIB
▁flaps
▁297
▁(36
▁superoxide
▁brevis
▁mechanically
▁acceleration
erations
DNA
tization
▁269
▁microscopic
faction
▁hydrophob
▁aggra
trogen
▁Computed
▁coma
irradi
lute
onucl
▁elastase
▁72
▁wavelength
▁phenytoin
▁pO
▁nicot
▁torsion
▁hypogonadism
ocrin
▁reflex
ilateral
tate
▁FF
cein
▁reticulocyte
▁3.5,
toxicity
▁Glucose
▁endometrium
▁kary
▁cytotoxicity
▁estimating
scherichia
▁calcification
▁parox
▁warr
fat
IgM
▁sarcoplasmic
▁rhythms
▁LC
▁1986,
2'-
serum
ocysteine
▁reinner
▁93%
53
orin
▁disposable
▁adnex
lod
▁phosphorylated
▁simulated
▁axillary
▁microinjection
▁bismuth
▁undere
▁pollu
▁emphasize
-34)
mannose
mitochondrial
▁0.52
trisphosphate
osyn
thio
phyl
▁glandular
▁bouts
▁AO
▁fibroblasts
▁1-5
1),
▁autoanti
absorption
▁Cs
▁amelior
▁thiazide
▁kine
▁inoc
sensitivity
GlcNAc
malignant
enriched
▁(4
▁(1.5
▁regain
▁dips
▁(71%)
▁0.94
▁receptor
▁ingu
▁determinants
▁skinfold
▁salts
▁Obs
▁Cerebral
renolol
▁225
▁nucleotides
▁Invent
▁neurotoxin
▁imaged
tox
ocusing
▁regis
▁Antigen
opressin
▁Hodgkin
3,
▁noxious
▁NF
10),
▁streptoc
▁GFR
isomerase
▁trac
▁fragmentation
pine
▁electrom
▁susceptible
▁expres
odipine
▁distinctly
▁cystitis
ilic
atches
▁detergents
▁72-
▁blinded
▁dilatation
.3
▁retrograde
▁devised
Rb
▁Streptococcus
electrophoresis
0.4
basal
tability
▁adsorption
evoked
affinity
inhibited
▁radicals
▁visualized
▁inhibiting
▁synapt
▁DMSO
▁mutagen
▁5.7
▁EGTA
▁Spontaneous
omatic
▁glucosamine
sulf
plemented
6-
▁endoc
▁HL
(2-
▁bronchodilators
▁dextrose
omotor
▁5)
oproteins
lix
▁fluoroquin
▁invariably
▁0.29
▁vap
aryl
▁susceptibility
▁(49
▁definite
▁iod
▁fused
filtration
▁retinoids
▁discrep
▁polys
▁Improvement
▁moderately
▁antibody
▁amputation
tructed
▁thymus
corrected
orphine
▁amiloride
▁embryos
▁8-
▁predis
nitine
▁dermat
▁oxidase
▁sati
▁preoptic
▁1976
collagen
▁histo
90,
▁centrom
incidence
▁branching
▁AFP
advan
▁blastocysts
NOVA
obacter
audi
▁86
urrence
▁monomeric
▁germin
▁metast
ovis
-20
angl
aminopyridine
▁physicochemical
4/
odic
anavalin
▁ambulatory
▁212
▁lipid
▁ductus
▁decel
▁lute
▁diges
olinergic
▁71
tral
▁nitro
▁mercury
▁hypox
▁68,
▁procollagen
▁inadequ
▁bacteriuria
.2%)
▁MAbs
azole
uspid
troduction
▁MgCl
60)
-1.3
tition
romised
▁analogs
▁ascribed
▁detec
tilled
▁Interestingly
dominal
▁Holter
tation
▁atrophy
▁-0.3
eroxide
stress
▁forskolin
▁bicuculline
RH
blockade
▁rigor
▁precipitation
▁plexiform
▁-4
rever
aspartate
▁prospective
▁3;
▁toxicities
IIb
▁influx
▁ectopic
▁Trypan
▁maternal
▁veins
▁quantitate
▁tubercle
bronch
trate
fraction
dural
chymal
tole
▁(2-
serine
▁1.36
▁lectin
galact
▁airways
▁(10%
▁ellip
▁potentiating
▁prodrug
▁distin
▁dairy
▁immunogenic
CNS
▁(70%
tant
-30%
▁lumbar
lateral
ovir
othane
▁benzodiazepines
stimulated
ohnson
▁Immuno
MuLV
NIDDM
▁taurocholate
▁chemot
▁pharmacological
▁adipose
▁tumour
▁(75%)
(3)
eared
▁gout
▁serotoninergic
▁deli
▁PMS
hemoglobin
-100
▁hepar
tetra
▁antimic
▁immunobl
owel
▁IUD
▁BV
umerous
▁PU
▁1500
▁dispro
▁directional
odeoxycholic
orax
▁PW
vating
.5%
▁Concentr
HETE
▁TLC
▁ambul
▁Triton
▁influencing
▁solubility
▁(70
▁Optimal
▁limbs
uretics
▁coronary
epit
▁cholest
▁myocytes
ioid
▁retrovirus
amines
oxal
▁effusion
▁NM
▁hypertensive
▁shortened
triphosphate
▁noninvasive
▁specificities
▁Whereas
▁TCDD
▁questionnaire
▁rash
pendent
imethyl
oA
ACh
strand
▁antidepress
▁misoprostol
▁OA
illus
▁TA
344
▁ranged
phen
▁50,000
rogenase
▁positivity
▁emesis
▁hazards
▁alloster
▁intrac
▁CDDP
lycerol
▁inherent
TG
▁saturation
atural
▁intrap
▁8.3
▁contamin
▁supplementation
IIIa
▁fimbriae
omeric
▁nutrients
▁lobes
▁hemorrhage
▁72%
▁349
gonal
▁Statistical
▁heterozygotes
effects
▁evaluates
▁metatar
▁tachyc
▁iodo
▁183
▁cerevis
1.
▁encompass
itro
▁Eighteen
▁Experiments
▁thickening
▁psychosocial
▁perox
▁Bacteroides
▁myoblasts
HBs
▁tuberculosis
▁echocardiogram
▁fracture
▁36
psych
▁neoplastic
▁resections
▁infiltrating
phosphatid
▁measles
▁periplas
▁SG
▁apne
▁embryonic
▁descrip
atoma
▁HSP
▁ultraviolet
orectal
▁86%
▁valvul
▁NIDDM
▁practitioners
▁1.16
▁primates
▁genit
ereb
▁enzyme
alp
▁excitation
▁synthesized
▁macropha
IgA
▁adenocarcinomas
▁fluidity
▁precipitate
▁chickens
olich
▁(1987)
▁Gyn
▁dementia
▁(90%
iscal
rhea
▁PSA
▁fibrin
▁strand
▁Hispanic
pecific
▁granule
▁sphincter
compared
▁piper
anase
▁supernatant
▁exis
▁CK
▁Subsequently
▁dehydrated
▁termination
▁archite
▁bonding
▁unpredictable
▁cereal
cinolone
olesterol
physiologic
idin
▁azide
▁atypical
▁elevate
▁transplant
▁suppresses
GnRH
▁baclofen
▁glutamate
▁flashes
▁postoperatively
▁elevated
uvate
▁Indo
▁blin
▁toxins
imin
▁37
▁MAP
implantation
methylene
▁kd
▁preceding
60
reases
▁ODC
essel
▁digesti
▁superc
▁withdrawn
▁0.70
▁20,000
gia
▁osteoporosis
▁rost
▁apo
▁clindamycin
▁irrespective
organic
0.9
ocytosis
▁plasmids
idate
▁transection
5.
▁tubercul
clonal
▁glucuronide
▁develops
blocker
▁rheum
▁instruc
▁depolar
▁assemb
▁Recom
▁sti
▁bleomycin
▁sterile
▁elicits
▁NI
▁primers
atally
▁ATPase
▁interstitial
▁rejection
violet
▁palliative
7),
▁morphine
▁1,3-
▁buspirone
-44
▁glycine
ayed
▁stably
gag
▁108
▁difficul
▁BMT
▁questionnai
▁atheros
feren
▁80-
▁regen
▁AMI
▁CAPD
▁300
▁LTB
7%)
▁prolif
▁multis
8).
▁17.8
-[
▁tumor
roso
ynthe
leukin
amethoxazole
700
lora
blind
cribed
tochemistry
▁interfering
▁85%
-39
calcium
fron
▁biopsies
eptide
▁Laser
mature
▁frac
neph
▁0.1
▁daytime
concentr
trib
enediamine
▁Subjects
▁exer
inositol
▁0.025
▁perfusion
dip
esic
▁(28%)
andros
actin
▁ovulatory
endri
▁mediating
phasic
tubulin
odiazepine
▁Successful
▁rheumatoid
▁bifurc
otopic
▁responder
-35
▁follicle
▁homogenate
▁solvents
terase
1/
flurane
-1.6
▁Maximum
▁[125
▁endothelium
▁chicks
▁deoxyrib
▁azithromycin
▁hydroxyapatite
established
▁moieties
▁zinc
▁shor
▁focal
▁weaning
▁sympathe
103
▁1(
hepatitis
▁isolate
▁spliced
icine
rine
surgical
olum
▁genic
▁thermo
rected
▁corticosteroid
-48
▁electrolytes
-15
▁vesicles
fication
▁phosphatidic
▁intracerebro
▁EMG
graft
ompan
▁enti
▁hypogonad
contrast
▁alterations
▁subcutaneously
▁steers
ocellular
▁actin
▁rabbits
▁microvessels
▁104
21)
▁trabecular
parous
▁VF
▁gastrocnemius
atible
▁lutein
▁0.001)
▁3.1
osylation
2+-
▁arginine
▁immunotherapy
▁chond
▁immunologic
▁hype
▁possessing
years
▁complementary
▁pollen
▁microorganisms
▁epididymal
▁Enzyme
▁weakly
▁sarcolemma
▁ruptures
▁alteration
▁aminopeptidase
▁cyt
aemia
▁rises
▁varicos
▁resis
dle
▁interim
8)
▁MICs
erant
▁broil
gus
▁(6-
7%
▁neurologic
▁oxidoreductase
▁hypothesized
▁occlusion
jury
▁Staphyloc
▁coating
iagn
▁judged
▁articular
▁18-
▁255
.5)
▁RBC
lipid
osac
▁guanosine
▁defective
▁Tolerance
OH
▁epileptic
▁CRF
▁forelimb
gland
atisfactory
oprolol
▁pA
▁respondents
greater
▁sorb
▁lymphoma
00)
▁compares
/24
edocromil
15
ophils
iodo
tituted
entile
phylaxis
chemical
othre
valine
ysts
teria
3/
encephalon
▁systolic
▁unfolding
▁verte
▁influenz
▁encephalopathy
▁TNP
-201
▁lysine
▁crosso
▁ionized
aortic
▁diphen
▁equine
▁dna
▁monocytogenes
▁60%
▁Highly
▁worsening
▁emphasized
▁cytolytic
32
▁maize
▁accumulation
▁differing
tries
▁intras
umably
▁mIU
phrag
▁adhesive
residue
▁antigenic
▁serolog
▁arterio
ithine
▁selectively
▁SDS
▁ribosomes
vaginal
▁171
hig
▁ACI
▁1981
glucuronidase
esthesia
▁dentures
acted
▁compositions
▁immunoassay
hCG
MHC
1);
teroidal
▁sutures
▁fistula
▁sparse
hydrop
▁adi
▁Kine
(2
▁Thereafter
Menten
▁dilutions
▁statistically
specifically
▁Ile
▁55-
▁intravascular
▁0.14
▁leu
▁immunore
▁immunoprecipit
-50%
▁dorsolateral
▁transplantation
▁(1985)
▁duplex
52
▁(56
▁cerebral
ardias
▁201
tember
▁expulsion
affec
▁imid
▁30%
▁Transient
▁establ
▁assis
ygous
▁immobil
cade
▁stringent
▁alanine
operidol
Lac
demic
▁handic
feron
▁IBS
▁photoreceptors
entral
▁thal
osterone
▁Lactobacillus
aldosterone
▁neuron
▁APD
▁biologic
▁pK
23187
▁109
1-1
▁PAH
▁Physicians
tub
▁17.
▁CI
roxen
▁leukocyte
▁uncl
otoxin
70
▁hairs
▁virtu
mostly
▁doublet
▁staging
▁anaesthetized
ucas
▁underestim
▁EcoRI
▁dihydro
▁165
ocytes
smokers
ticular
icidal
▁chemically
derma
eptic
▁relapses
▁7-
▁methodological
▁MG
iciently
▁necrotic
2+/
▁anastomoses
▁LDL
prostaglandin
tocop
▁2.4%
▁clonal
200
ionate
▁Retro
▁persistently
▁basophils
nec
▁eczema
▁22
0.
▁hypothalamus
▁spermatozoa
▁79%
▁heifers
rophen
▁chord
▁intraper
▁isozyme
▁predictor
SAID
▁nadir
orated
tisol
fused
▁warranted
▁106
▁fetal
▁mU
ystitis
▁RV
▁(36%)
▁neutrophil
▁degeneration
▁dismutase
obarbitone
▁2.8%
▁BF
▁iris
arginine
▁emptying
▁fibrils
atching
erebro
▁cytochemical
▁unfavorable
operatively
agonist
/18
▁discontinuing
▁vWF
▁kinases
▁prolongation
▁unidirectional
methylation
▁primate
attached
▁congestion
▁protec
▁concomitant
-1.1
▁GTP
▁mimic
▁Bone
.3,
▁50%
cholesterol
50).
▁ventilatory
▁incubation
▁monoamine
▁corrob
▁diacylglycerol
▁10.8
▁mesenchymal
▁docum
▁venom
fiber
avail
▁diseased
▁tracts
]-
▁reliability
▁ASA
12.
▁Infection
ropriate
▁administered
aminob
▁acces
▁receptors
▁disadvan
▁melanomas
cultured
▁scans
▁pumps
▁communic
▁ara
▁rhabdomy
▁sperm
▁inconclusive
endix
▁GAP
▁fung
▁mammography
▁assessing
▁0.77
benzo
PAF
-1).
▁conjugates
aptic
▁radios
Tl
▁0.58
orubicin
▁steroids
▁concurrent
▁spherical
▁electrostatic
▁metabolism
▁histories
▁triflu
pendicular
▁Kinetic
322
omized
▁ketone
taz
▁oxym
▁Measurement
catalyzed
▁mAbs
▁130
▁Prospective
▁slowing
▁mononucle
11-
▁immunomod
maximum
▁clonidine
▁tec
▁hams
▁ubiquit
▁shorten
▁5).
inemia
dor
inemic
▁lowering
▁facilitating
respective
▁manu
▁competent
wk
ller
▁sclero
▁caro
elong
▁prevail
olism
▁nasal
2%
▁eradic
▁angioplasty
▁prognosis
death
-14
▁bacterium
▁postinfection
▁20%
▁synthesize
▁kain
▁10
hicle
atation
▁DOPAC
▁subun
▁jejun
▁ingestion
▁hybridization
▁mannitol
▁Female
ocardi
▁arthro
convulsive
▁myo
icin
▁nude
▁transcription
iphene
rogesterone
▁urtic
ucose
jac
▁purified
tia
▁endot
enters
▁septic
▁entero
▁tendons
razepam
tif
▁Seventeen
▁specifying
▁-2
▁mandible
anol
ifed
▁ethanol
▁lymphadenopathy
▁perikarya
▁temporally
▁50,
clamp
aceous
▁asbest
▁MM
converting
17
▁kilogram
▁resol
▁fluo
atum
optic
▁35-
▁clones
▁adjuvant
▁thymocyte
renin
▁Adherence
▁dilation
IH
▁infectivity
▁(53
▁baroreflex
uris
atectomy
▁redox
primed
▁neoplas
▁hemolytic
ceptive
▁10(-8)
▁asymmetry
adine
esophageal
▁NMDA
▁creatine
▁leuc
▁NSAID
▁counterpart
ivary
(+)
folate
iminary
grees
▁manganese
▁tachycardia
nitrophenyl
oblast
oscopy
▁intermittent
▁geographic
▁bovine
olipids
▁azathioprine
▁sequencing
bac
▁VP
yltransferase
▁Plas
▁(10
phoresis
trophy
▁insertion
hetamine
▁ICI
▁Kupffer
▁oils
▁diffuse
ucleated
exin
▁prosthe
▁neo
▁radiography
▁humoral
▁concep
otherapeutic
▁cryopres
minis
ervical
▁ambient
▁pars
turnal
LN
agonists
igl
▁(45%)
hydramine
▁recipients
▁biochemical
tiazem
▁buccal
▁illumination
▁headaches
▁250
▁digiti
terolog
adenoma
▁sensitiz
▁threonine
▁pyridoxine
▁7.4
oplasmic
7;
▁1.6-
incub
▁14%
▁leuk
▁mediates
ophores
▁proteinases
▁0.03).
▁cDNAs
▁granules
tention
▁aggression
▁phorbol
ochem
▁lymphaden
8),
alene
▁benzyl
▁relaxations
▁FD
▁ultrasonic
▁sut
▁chori
▁antenatal
▁agglutinin
▁Pretreatment
▁relapse
▁posth
-120
▁sci
▁dentate
▁mediated
▁eti
2.2
▁acutely
▁particulate
▁anaemia
▁chan
▁Adriamycin
▁edema
▁13-
▁diphosphate
▁psittac
▁ocul
echanical
▁stereot
4,5-
▁goiter
▁cerebellar
▁repro
▁tibial
▁PID
▁lipids
▁(1.3
▁propofol
86
▁MoAb
▁3.7
▁codon
▁forearm
▁outpatient
dialysis
eal
▁sensitized
lym
▁microelectro
▁incorporation
▁.1
▁leukemias
▁Meth
sants
▁stains
ected
▁cryp
▁upd
▁uterine
▁vesic
▁hemoglobin
Glc
▁disturbance
agin
48
uthenium
maleimide
▁macrophages
▁genetically
▁perforation
▁96
▁etretin
▁faeces
▁valu
▁Thr
▁0.02),
▁283
▁AH
▁antithrombin
Ep
▁enal
tiv
▁enlargement
▁spor
▁62%
3+
HDL
▁fetuses
▁resonance
▁explanations
▁146
disciplinary
lycemic
▁conjunction
ulline
quit
▁predictors
arcomas
visual
▁anatomic
3;
▁membranous
amol
ophasic
▁2.3%
▁EI
occi
▁lactating
▁AKR
▁laparoscopy
▁aluminum
▁carbohydrate
▁defibrillation
agastrin
▁immunoblots
▁ablation
roximately
▁Americ
▁epilep
3%)
▁ultim
▁evoked
prandial
▁femur
▁halothane
▁dissolution
olecular
▁210
▁PGs
▁0.54
▁dendritic
▁(57
▁1200
▁neutrophils
▁disclosed
▁Caucasian
▁intravenously
sibly
orec
▁mM
▁LT
▁218
▁fossa
▁immunoblot
ellar
▁chyl
▁weighed
▁adverse
▁serum
BMI
▁(0
▁saturated
▁80.
▁histological
▁cereb
oncogene
▁nebul
▁alkalin
▁intral
▁PaCO
▁motile
▁2.1%
▁merit
▁gyrus
▁leukemic
moid
Hodgkin
▁Evidence
▁dialysate
chase
▁identifiable
▁carnitine
organization
▁inoculum
olyl
▁(44
43
tent
▁exogenously
▁substratum
▁euk
▁histones
▁stent
▁aflatoxin
▁kHz
rophilic
▁functionally
onin
reased
.7
kDa
▁strands
▁incompetence
esicular
apine
trophin
▁cohorts
▁nondiabetic
▁IB
▁adduc
▁OD
hort
▁NGF
▁nicotine
▁extraction
▁chow
▁transients
▁agglutin
▁cyc
▁16
▁protoc
rocytes
▁analgesics
▁extravasation
▁acne
▁antimicrobial
duced
hydration
▁hydrox
▁24,
glutin
▁MCA
▁0.0001).
▁elucidate
▁parie
ynure
titial
ampl
▁0.49
▁ICAM
-1.0
▁obstetr
▁sulfonylurea
▁Enh
▁pathogenic
▁unrestricted
deple
fatal
albumin
▁sonographic
luc
▁calves
▁spermat
▁exhibits
▁catheters
▁rebound
▁155
▁ventric
▁7)
▁sciatic
▁beads
▁stripe
▁wean
▁anastomotic
fortable
▁detrimental
▁affec
▁PRA
▁SEM
pregnant
▁monke
▁fibroblast
ctomized
▁unin
▁palmitoyl
▁phosphodies
▁0.7,
▁emulsion
▁hyste
▁formalin
vastatin
oflav
▁Pros
vae
ircular
▁Factors
▁confluent
enteric
oceptor
▁(100
▁acco
▁radioactivity
▁distric
▁lacto
▁targeting
adenosyl
▁melan
eptidase
odon
▁remnant
pretation
▁-0.7
▁postmenopausal
▁anesthe
▁simulate
gian
▁overt
▁hemorrhagic
▁mitomycin
▁endoscop
▁commercially
activation
trodotoxin
▁postnatal
▁FS
▁carbonic
▁anhydrase
▁InsP
▁myometr
▁Gs
▁repetitive
pired
▁thaw
▁orthostatic
▁bombesin
58
▁coil
▁rHu
tomized
▁immunosuppres
▁maximally
▁attributable
▁87%
▁anemic
adenosine
▁5'-
▁HDL
▁doxorubicin
perg
▁kinin
▁(15%
ostic
▁microcirc
▁atmosp
ygo
▁Deletion
wann
▁flap
▁1:1
10)
tose
▁matur
▁PAF
GSH
▁intersti
tide
▁graft
▁analyses
▁lacks
▁1985.
105
▁myelin
▁(400
▁20.5
▁135
▁extras
▁34%
illin
▁loos
▁Decreases
▁reacted
▁propria
-1/
GRF
▁adenocarcinoma
▁pige
▁amacrine
isters
▁reticul
▁vitamins
▁kerat
squ
WK
▁Cyt
▁pharmacists
▁immunogenicity
iary
▁pati
epine
▁phenyl
SHR
▁(-)
ventional
▁138
▁hourly
▁preoperative
▁theoretically
▁glucocorticoid
irds
▁intolerance
▁hypokalemia
asthmatic
▁linole
ubs
▁infused
omyces
▁elongation
visc
verbal
▁inactivated
▁sphinc
isteria
▁effected
lectively
▁Various
ositi
▁TI
▁indicators
▁10(5)
systolic
butyrate
▁pubertal
▁reflecting
▁apop
▁cephalospor
ighted
▁organelle
▁granulomatous
brom
▁fumarate
-8
▁abolish
▁reservoir
▁Reduction
▁(10(-4)
▁reiter
▁prolapse
▁SHR
▁isoniazid
▁spermatids
otyp
limb
educed
▁intest
▁thir
▁1.4%
Bs
adequate
▁disabling
ophen
▁endotoxin
amyl
meas
▁170
▁(14
▁Differen
▁complexed
formin
▁disseminated
-90
▁parenteral
▁compensatory
ults
▁superficial
▁percutaneous
onas
schem
essive
▁defic
tured
▁3.5%
▁lymphokine
▁parotid
▁chemotaxis
sies
▁recurrences
▁mutant
▁PGA
▁TPN
▁-8
▁recurred
▁depres
▁thrombosis
▁2.5
lact
▁correlate
7-
▁fluoxetine
▁periodontal
▁glutaraldehyde
▁noradrenaline
▁vertebrates
tures
▁PLA
ibrio
▁phosphatidyl
▁covari
▁ratios
etence
▁larval
.3%
promoting
otoxins
▁lep
cristine
▁OT
▁285
▁limbic
▁sugars
pyruvate
▁(1).
▁prostaglandin
▁modalities
ellular
21.
▁hypoxemia
▁breakthrough
▁Likewise
otypes
mum
▁obstructive
▁cosmetic
▁irrever
dibular
athione
▁Relative
ecre
▁-15
idis
oreceptors
urk
▁occult
anish
▁intercourse
acil
▁phle
-3-
▁implant
othermic
388
▁indole
-4,
imination
▁phosphate
rologic
▁crest
▁cephalosporin
physiological
▁[3
▁lumb
-22
▁0.005).
odg
▁DNAs
▁impaired
iosis
36
▁burns
cyclic
ranged
▁triti
▁44
▁solubilization
▁micrometer
▁Sera
▁pathologic
▁cellular
isopropyl
▁(5
▁invasiveness
▁atri
▁guanine
edding
▁obser
125
▁blots
thymic
tron
▁discontinuation
▁208
rone
▁90%
▁postoperative
▁Oste
▁scavenger
▁pulp
▁statis
Cer
▁persisting
▁suture
olates
▁artificially
teine
▁41%
tigo
▁30%.
ticle
anic
▁(29
▁PPD
▁ketamine
▁translocation
▁Lyme
▁hepatotoxic
tilis
▁propranolol
oyl
▁inhibited
▁RNA
▁DNP
▁selectivity
▁infective
atization
▁inhaled
nee
monella
▁breaths
▁plaques
tations
ystic
▁Consid
anyl
)2
ophysical
▁ketoacid
▁enl
▁isotype
▁159
aternal
conjugated
▁arteriovenous
tions
▁delaying
mend
▁neuraminidase
▁sectioned
icides
▁visc
ymethyl
▁tumours
arum
▁0.67
opathology
▁acidification
lodipine
▁chromosomal
cytes
▁babo
▁Bec
▁coval
odeoxy
▁FGF
▁63%
▁unrel
▁5.5
▁Specificity
▁lamina
▁microb
odiaz
▁18,
tocopherol
▁Specifically
▁ointment
▁substituted
▁bilaterally
▁ryanodine
▁malate
0%
▁vasodilator
conversion
▁variants
tillation
▁ars
▁codons
1+
tense
▁eliminating
▁gemfibrozil
ported
▁Alz
▁regar
▁0.8
▁vasodilatation
▁intensely
salt
1.0
odip
▁mesenteric
▁osteoc
▁46%
▁proximal
▁bladder
inducing
pituitary
ocytic
▁attain
▁Maximal
21
iotics
achn
▁polyclonal
▁trach
▁osmotic
▁divertic
▁tricuspid
valent
▁MF
yelinated
▁liposomes
tium
iciencies
ilized
2-
▁5000
▁(78%)
hemagglutinin
▁epidemiologic
erent
▁perfusate
Ig
▁nascent
▁achieves
hydroxylation
-81
▁elevation
truc
▁amylase
▁chylomic
▁lithium
▁projec
23
▁0.12
▁thi
ulinemia
Barr
▁physic
▁trapping
▁cen
fusion
posable
▁melatonin
▁0.08
ogaster
▁microtub
histamine
ochondr
adm
▁tolerate
▁PRL
:30
▁adenomas
-1;
44
▁nore
▁tricyclic
cents
▁25%.
▁ovine
ohydrate
▁cathepsin
▁thromb
enil
▁tauro
▁dendrites
▁conformation
▁20
▁myocyte
▁enantiomers
▁ischem
▁obli
ubation
▁evolutionary
▁determinations
▁activator
▁wheezing
▁trichloroacetic
▁Pseud
ysin
▁analgesia
▁trophob
▁effusions
▁affinities
injection
▁polyc
dial
▁CG
▁constitute
▁positives
▁couns
▁scrotal
thmic
▁acqui
+]
▁occluded
▁thiol
▁divergence
▁ascending
▁glycosaminoglyc
▁95%.
▁quiescent
uccessful
▁49%
▁varicella
▁demonstrates
101
PW
▁nM
▁definitive
metabol
▁catalysis
▁cloning
alanine
▁colpos
mTc
▁dB
▁selenium
▁interpre
▁2.5%
▁33%
mega
▁Biopsy
▁prostatectomy
sorbed
uncture
lycemia
▁resul
▁spines
▁stratified
8+
▁chambers
▁6.2
▁detectable
▁mug
olesterole
▁10.7
▁9.5
▁anions
▁5.4%
▁mep
▁glucuron
▁catabolism
▁pirenzepine
▁59%
vascular
▁0.71
▁epsilon
sia
-1)
▁-6
rospor
▁amygdala
▁lipolytic
▁octa
ytoin
▁buffered
▁uptake
▁Samples
glutamate
▁ascorbate
▁34
ominant
▁Caucas
▁anastom
▁Recep
▁trypan
▁axes
▁68%
▁eryt
▁benz
▁-0.8
▁serologically
▁TM
epiandrosterone
atous
▁dissolved
▁proportional
stranded
lactamase
▁stereospecific
▁predictive
▁(8%)
untary
-1.4
▁saliva
restingly
▁uncom
ALT
▁[2
▁relapsed
▁REM
▁suicidal
opathies
▁revascular
▁diazepam
ocomp
▁cytosolic
▁1984
Km
▁invari
▁soleus
atchard
▁spi
apride
aemic
▁unipolar
▁Lact
azoxan
▁silica
▁5%.
rants
▁cruc
EPO
▁molecule
▁iodinated
▁phyl
▁carc
▁cobal
▁rati
iferation
▁27
etus
oretic
▁5.3
▁microvessel
▁3%.
▁0.98
▁Scatchard
physeal
-33
▁transitional
.3%,
▁cephal
▁neurop
▁aro
▁cytosine
ocin
amilton
▁initiate
▁lutea
▁kcal
alate
▁hypothe
angi
▁mumol
▁mans
obenz
▁staurosporine
▁supplemented
osan
▁glutamic
udine
▁paralleled
▁catalyzes
uctose
▁postmortem
▁hospitalized
phal
▁raphe
MLP
▁hypoplasia
▁paired
imidine
exposed
▁(69%)
▁implicated
▁(67%)
zymes
▁promo
▁1990,
▁quinine
▁uremic
acrine
▁stabilizing
▁intake
▁glycogen
▁intensities
▁densely
▁hepatoma
▁shrinkage
▁dissim
4-
▁Inhib
▁pH
▁monoxide
▁sinusitis
▁phenomena
-70%
▁deficit
LISA
phosphorylation
perme
rescine
▁umb
▁anaerob
▁antigenicity
▁prostheses
▁7).
▁monkey
albuminuria
▁unilateral
methoxy
▁ganglioside
ecretory
▁bowel
▁lymphocyte
▁0.06
CHD
▁helical
▁Hib
ralazine
▁100%
▁1%
▁(69
ostasis
reported
tero
ropine
▁numb
▁tonsillar
amilies
0.5
▁Progesterone
▁PAP
▁pea
▁elong
▁androgenic
elvic
▁fathers
EGF
▁intrauterine
▁respects
▁titres
transplant
ensitivity
Bmax
plants
tents
yron
▁normals
TPA
▁19%
▁1987
▁suppressor
▁phosphatid
injury
▁1986
▁genotypes
▁intrav
▁neurones
▁(3-
eradish
itriptyline
▁48%
▁ison
cortic
▁bupivacaine
▁necrop
▁multidrug
▁regulate
semin
▁176
erable
cture
otidase
▁rhy
88
▁nonsteroidal
▁Addition
▁nm
▁noc
NH
▁Functional
opulation
tak
▁aided
▁hyperther
▁192
cholic
crystall
▁expresses
LV
▁lactation
▁antitumor
▁mono
▁proline
▁ipratropium
EMG
▁fluxes
ocar
▁rIL
▁grafts
ealand
ritic
▁vertebr
macrophage
▁piglets
permine
▁conferred
▁somatostatin
▁electroencephal
▁evidenced
▁athe
immunoreactive
weighted
▁provoke
puts
▁Estimates
▁GAD
▁phagocytes
obronchial
▁DVT
▁strokes
asions
microns
▁motifs
phospholipid
▁15
achol
▁etiologies
uestionnaire
etween
▁cholera
▁CAL
▁SMC
▁perit
▁deletion
embryonic
tively
▁PTCA
▁splen
▁empiric
isoxazole
ducible
AO
▁18%,
▁radiotherapy
connec
▁fla
entesis
▁macromolecular
(1,
20-
▁filtration
▁medial
ergency
▁indicative
▁150-
▁confirms
▁osteopenia
▁lorazepam
▁14
▁anemia
omies
▁hrs
▁quinolones
abain
▁Carb
▁ethylene
▁(5%
▁GAL
10
▁mRNA
▁Epidemiologic
▁(24%)
oarth
▁infarcted
stu
▁cultivation
▁palmit
▁40%,
▁36%
▁Thir
abies
lys
▁unco
▁adren
ventral
▁10(-1
▁methylated
▁centrifugation
▁osmolality
imentation
yrene
▁intrathecal
▁fibres
▁infrequent
osts
adication
▁(8-
▁keratinocytes
▁neutralization
opam
▁phagocytic
▁enlarged
▁metabolized
▁pyridoxal
▁PEF
uronate
▁immunological
▁(71
ocriptine
▁dus
/1000
aline
▁cardio
▁pylori
phor
gene
▁grating
▁mobilization
▁CDC
▁CGRP
▁gastro
,2
rophy
▁histochemical
▁aort
▁seroton
▁Pertussis
ocys
▁10.
▁mandi
▁gastric
pontaneous
▁exudate
▁physi
▁dams
yramine
▁endarterectomy
▁40,000
▁newborn
onidine
▁corpuscular
▁choro
▁pertussis
▁heterogeneity
▁17.1
apo
ostatic
LTS
▁FcR
esarean
▁Replacement
-7-
▁tones
▁pressures
▁IgG
anine
henyl
▁sulfur
eclampsia
Tc
▁6%
▁oscillatory
anide
▁1,
▁lem
▁microU
▁ach
▁4.6%
▁contracting
▁hypoglycemia
▁DHT
▁94%
nitroso
▁incis
▁sarcoid
▁orally
▁cadmium
▁quail
▁evaluations
▁2.5,
▁differenti
▁apoprotein
assisted
▁EEG
▁CBA
▁androgens
▁uncoup
▁Alzheimer
▁GGT
▁visualization
▁sagittal
▁triglycer
PKC
lasting
▁facilit
adex
enten
▁treadmill
naph
▁enalapril
▁granulocytes
▁identifies
▁COS
opyr
coh
▁aorta
▁antif
▁neuropathy
▁blotting
tion
▁avian
▁semiqu
arachid
hydroxyp
▁ploidy
▁0.05
▁normotensive
▁natriuretic
▁coordination
▁excretory
elec
▁digoxin
▁kainate
roth
▁ischaemia
▁7%,
▁152
▁pigmented
▁unidentified
▁arachid
▁resec
4,
acquired
▁isomer
▁synovial
▁brachial
tropin
▁proteoglycans
▁monensin
openic
proton
▁8.
110
▁29
▁consul
▁necrotizing
oprecipitation
▁opson
Daw
adrenoceptors
stimulating
▁1985,
oxia
▁submucosal
▁(4.3
▁impairs
parag
▁repressed
reactivity
0.1
▁fentanyl
▁concentrates
▁stimulation
protein
▁Outcome
▁Mild
▁crystals
▁cytological
▁fertil
▁inad
▁similarities
▁regression
▁sterol
LU
▁1988,
▁psycho
▁incom
▁fusions
▁heterogene
1.2
reduced
▁iatrogenic
▁cytos
▁conjugated
yto
▁dissociated
plantation
▁1.1
phosphamide
▁antagonism
▁phenotyp
chlorophenyl
▁devi
▁1.21
ethyl
▁45
neuronal
guanosine
▁2-5
▁endemic
▁coag
▁audi
▁lateral
▁insemin
▁hCG
otyrosine
uccess
▁subendocardial
▁66
▁gluten
▁proteinuria
azepam
▁biopsied
▁Phen
▁equivocal
▁muscular
sible
ochrome
▁infrequently
▁leucocytes
▁indi
urban
▁comprises
atidyle
▁16,
rents
azep
▁colitis
▁bicarbonate
bile
▁90
▁keto
▁algor
▁sphing
▁hypotheses
▁acr
tein
▁rodents
▁inheritance
imide
▁tet
▁0.0001),
300
▁nephron
iception
▁appreciable
▁sedation
ensitized
▁catar
▁vitre
charged
piper
posterior
▁infiltrates
▁OC
▁cefaclor
▁depressive
▁perioperative
▁estrogenic
▁initiation
gative
tussis
▁tended
7,
▁nulliparous
▁1983
aryngeal
▁pores
/5
▁Marked
usp
substituted
-79
▁spectro
fine
▁unaltered
▁erythrocy
▁purity
▁menstruation
itance
▁31%
▁143
mediated
▁degradation
▁passages
▁ovulated
normally
▁pathogenesis
▁Estrogen
▁ubiquitin
▁ND
Ts
▁immunofluores
tabol
▁fluconazole
▁challen
▁ACE
▁midline
▁nonf
▁(0.1
inomycin
▁peritoneal
arental
▁monocyte
loidal
otom
exchange
▁epi
▁11
▁FH
47
trically
rowth
000
▁DMP
keto
▁dextran
▁osteoporotic
ymme
▁bronchoalveolar
atibility
aluation
▁LFA
▁differs
otropin
emak
▁PMNs
▁declines
14,
opterin
tabl
▁cholecystectomy
▁(5-
▁90.
ivered
ventilation
othi
▁0.21
▁macromolec
▁collagens
▁esophageal
-10.
▁neonates
stimulation
inone
FU
▁mutagenic
▁cows
▁139
▁suppos
▁chloroquine
▁12.
▁transfect
▁analyse
zotocin
▁HeLa
▁UT
rosal
▁enox
▁symptomatology
otox
▁adrenocortic
iversity
▁ultrastruc
▁DRG
▁mesenchym
▁psychopathology
zinc
▁dilat
rosine
▁immunos
(4
▁glyburide
labeling
▁thyroxine
▁spacer
▁shunt
oling
▁262
bran
aturia
▁HCl
▁predominance
icardium
endritic
▁induction
ropriately
▁0.00
cutaneous
onephritis
enol
▁8.5
ulses
loon
fibr
▁myofibr
athetic
▁glycosylated
▁40.
▁rehabilitation
aerobic
▁swelling
▁VAS
psin
▁CLL
hydroxybutyrate
cys
ellae
▁vascular
▁parathyroid
▁cancers
▁43
▁prescriptions
▁6.1
.2)
▁(12
▁CGS
treatment
containing
▁overex
▁methionine
▁proximity
1210
▁polarization
ausea
anese
▁binds
▁nigra
▁osteocalcin
▁gamma
ration
taining
▁EBV
▁desatur
▁retinal
▁Changing
▁onset
acti
▁cataract
▁Bacter
▁prolongs
3),
Hyp
▁seasonal
othiaz
)-1
▁depolarized
▁calor
▁tidal
▁(25%
Rs
▁isoforms
▁adducts
ogenously
▁intubation
▁RNAs
ylline
pressing
phosphor
▁immunocyt
▁dismut
opharyngeal
▁bypass
▁Inventory
▁GABAA
▁encephalitis
glia
▁arteries
▁bran
▁uro
▁vaccines
▁Nal
tilbene
hydroxydopamine
▁0.5%
mol
oscopic
▁tas
▁constriction
▁bioavailability
▁CHD
tradiol
▁0.59
caro
.4
▁carcinogenic
▁splicing
▁spind
▁restor
▁biology
▁diarrhoea
▁Repeated
umping
romic
▁cirrhotic
▁tyros
▁metformin
▁resour
▁synthesis
▁Cd
▁quantitated
▁doxazosin
▁hemo
phil
otrexate
▁underwent
▁10.4
▁vagus
▁modulation
▁induce
intestinal
▁10(4)
▁inhal
▁papain
▁Histamine
▁interacting
▁Responses
atropium
▁velocities
▁dizziness
▁Stroke
▁26,
▁suction
▁Transi
▁EDRF
▁primiparous
▁labial
▁electrophoresis
-31
antitrypsin
▁87
▁secretin
▁elongated
renic
▁48-
-1.
▁(92
▁differed
productive
▁ATP
▁transgenic
ogeneic
▁varic
▁vimentin
ponin
lipoxygenase
▁hydrop
▁antic
▁(62%)
▁appendic
▁necro
▁Schwann
▁Amin
Thr
▁albumin
▁natri
phosphatidyl
▁thyroglobulin
▁gonad
▁Haem
onary
▁deprived
divid
▁inters
pharmac
onuclease
▁(2)
lude
▁serotonin
ovulatory
▁clearances
▁diclofenac
etaz
adiol
▁lymphoid
▁unexpl
-1+
biotin
▁carbachol
▁reversible
▁reversing
hion
▁nodular
▁immunodef
.9
▁luteinizing
-9)
25
▁biotin
▁tris
▁NMR
▁hydroly
▁Testing
▁seizures
▁sialic
▁190
▁allelic
▁Chlamydia
▁cAMP
okinetic
▁reacts
▁cathe
cephalus
▁sprin
resist
▁yr
▁incubations
trients
ulitis
▁PRP
retin
▁characterizes
▁256
Cu
ospecific
directed
▁0.47
independent
▁Sprague
roglobulin
▁vacu
▁grains
▁IgM
▁metered
▁spermidine
▁340
▁diaz
▁Baseline
amphetamine
▁menopausal
obac
▁agarose
▁accelerate
▁enzym
▁trachea
79
▁47,
▁investigator
▁homozygous
▁carpal
-6-
▁stools
▁-9
▁sonic
opi
cellent
▁succinyl
▁neuromuscular
▁kcat
▁Dose
▁marginally
▁unil
osyltransferase
adenomas
▁incompletely
▁cytoch
▁adolescents
▁schizophrenia
▁colonies
therapeutic
▁gating
▁stretching
ulla
▁irradi
alim
▁fatigue
termined
▁horseradish
▁(13
oflu
rological
▁alcoholic
▁disturbances
▁Pb
imbr
rosy
▁carbox
operative
▁levamisole
9%
tized
▁5.5,
▁fron
▁Isolated
▁reti
erin
umented
▁acetone
▁Numerous
▁convol
▁adenosine
▁lymphatic
▁Candida
▁mitosis
▁cytochrome
▁24%
▁172
▁Incubation
▁166
▁progres
▁purine
▁spiral
turition
▁(0.0
▁reticular
▁zym
▁286
cholate
▁markers
obarb
▁radioiod
▁intrarenal
▁canc
omegal
▁Calcium
titu
▁mandibular
roxicam
▁biphasic
▁cytokeratin
▁progen
▁(82
▁Steroid
▁acidic
▁cortical
▁polypeptide
itum
▁integrin
▁eighth
alb
▁coex
(2+
▁moiety
IU
▁BCG
▁microf
▁40-
▁DMBA
▁waking
▁macroscopic
enedi
▁cleavage
▁retina
osensory
▁dobut
▁Lipid
▁0
▁isoleucine
▁tach
entified
▁proliferated
▁unnecess
▁8.6
▁iliac
▁venography
▁carbonyl
▁abnormalities
▁clu
▁confirming
▁entorhinal
▁trimeth
▁fascic
▁58
▁Salmonella
▁proes
otherap
(5
▁VSV
rography
▁qualit
▁radiograph
▁transaminases
▁suppressive
▁trimethoprim
▁Fourteen
▁TP
WBC
▁iodine
▁previ
▁projections
▁gangli
▁spastic
▁metastases
▁constituents
pinal
▁subgroup
ylchol
▁hydrocortisone
orac
▁cerebellum
veness
▁liters
hips
▁conserved
ylation
▁interv
etent
▁molecules
BMD
▁(55
dense
120
▁CSA
zyme
▁macrophage
carotene
▁adenylyl
▁cholinesterase
▁retard
▁myelogenous
▁deoxy
▁positional
▁anat
▁overestimate
allium
▁scle
▁Alter
▁inward
▁paw
▁sput
▁sickle
▁carcinogen
▁infusion
▁162
▁Nineteen
▁Aden
▁migrate
▁screened
EPs
gents
kinson
▁11.8
▁infarction
▁-7
tructive
growth
▁agonist
cele
▁colloidal
▁desm
▁readings
lop
▁inhalation
pyr
aethylammonium
ophor
ventive
immune
▁nig
ometers
▁reside
TCR
▁ery
▁cisternae
▁21
▁70.
rates
:5
ochromatosis
▁favourable
▁Mg
phrine
▁blas
oxid
amole
▁phy
▁asymme
arrhythmic
acholine
uronal
▁margins
▁ionomycin
▁millili
▁synerg
▁prognostic
▁bronchospasm
RIF
▁Ultras
▁(1),
▁MRI
▁stratum
osteroids
▁deviation
▁(1.7
triglycer
▁analogues
acillin
▁Serum
keleton
▁intrat
▁trigeminal
▁cylind
▁antigen
▁oocytes
▁myopathy
▁metic
▁evaluable
▁glucocortic
▁Physiol
▁clon
▁subdi
▁CHO
▁Nit
▁reversal
▁43,
▁equilibration
Mg
▁150,
▁exag
▁proteoglyc
▁antibiotics
▁interventions
▁obstetric
visions
▁bacteriophage
▁sediment
meg
▁4.6
▁internally
oplasm
rae
tency
▁macrom
▁fimbr
imid
yclic
▁tiss
▁MH
▁ester
loride
▁sulcus
▁physiologically
3-
▁backgrounds
▁adver
▁incubated
▁fluorescent
renaline
▁9
Gy
▁clonogenic
rotid
-3
▁Tum
▁groove
▁certainty
▁differentiation
▁phenotypes
▁sulf
▁dissec
▁subacute
formyl
tors
▁infancy
ergen
▁Tissue
▁priming
sero
35
▁IGF
dered
▁neurokinin
62
▁correlated
▁22,
gressive
orenal
ogenicity
▁persistence
▁DD
▁undergoes
▁215
▁chec
▁differentiated
▁proteoglycan
▁stimulator
▁pretreatment
▁NADPH
▁myotub
▁equilibr
-6,
acyl
pril
▁admissions
▁perinatal
▁genotype
-1000
altered
▁3.4%
▁asparag
▁exogenous
▁erythroid
▁TSH
tural
andida
amidine
▁0.09
butamol
calmodulin
▁Dietary
▁inhaler
▁TDI
▁clinically
▁aden
▁(95
distal
▁131
▁valproic
▁intractable
140
▁WK
▁quadrup
▁epiderm
▁2.1
oplastic
▁immortal
▁syring
▁geriatric
0,
.3%)
▁larynx
vul
▁Intra
2:
▁(40%
tracted
▁harb
oxyl
▁transformants
▁oste
▁erosion
suppressor
▁microfilaments
▁perfor
Phe
▁0.24
▁eug
▁effector
▁attemp
timulus
inesterase
▁influenza
▁ROS
▁(+/-
▁inhibitor
ifedipine
▁infections
▁vaccinia
lusion
▁constipation
▁193
▁neurotoxicity
throm
▁monotherapy
▁prospectively
▁colectomy
▁reas
▁0.20
olipid
▁cep
▁topography
▁cellul
▁isoproterenol
▁polyacrylamide
▁malignant
▁chloramphenicol
▁xyl
igaret
'-
allikrein
ROS
▁Torr
▁4
▁13.2
▁PDE
▁galanin
enzym
▁Sixteen
▁0.74
bodies
▁glycerol
▁Statis
▁singleton
▁muc
+)
▁miti
iterranean
formations
▁excre
tivities
▁isoenzyme
▁smears
coag
▁gastritis
▁Pulmonary
▁monos
▁efficac
onvul
▁65
▁rheumatic
▁acros
opropyl
-5)
ymal
▁gluc
-52
▁stationary
▁inver
▁peri
Ace
▁inadequate
promazine
▁antiser
▁17.3
▁Virus
tism
leb
antoin
▁reciprocal
▁elucidated
▁amput
limiting
▁(62
▁(198
ervo
▁aromatase
▁cardiopulmonary
▁adrenoceptor
▁mutagenesis
polyacrylamide
▁presently
▁electroly
ococci
phosphates
▁instrumented
plates
ifferentiation
▁steroid
▁HCV
▁monocytic
oradi
▁prosthetic
▁DCA
tually
▁papillary
▁neutron
▁compartments
▁Preincubation
▁Chrom
▁tubules
▁guanidine
ociated
▁pI
androsterone
ochle
▁compressive
idney
▁implic
▁defec
kelet
22
▁53%
▁analogue
glycerin
▁targe
▁valine
9%)
elic
▁Apparent
sul
▁264
▁secretagogues
isal
▁ureter
▁deoxyribonucle
▁overexpression
▁clustering
▁catalytic
▁oximetry
▁autosomal
▁thromboplastin
▁pellets
▁bony
▁semen
tribution
ollagen
divided
▁NADH
▁neoplasm
▁deduced
aneth
-6)
▁aerob
opathological
▁0.5,
▁bundles
immunized
▁singly
seud
▁coli
iffusion
Kd
idia
▁206
▁capsules
▁0.62
▁schist
▁SMS
ducts
▁fibros
▁phosphatases
▁irregular
anking
ropyl
rP
coupled
▁absorpti
trial
▁axons
5]
▁cyan
▁pneumonitis
▁NG
▁Dex
▁stal
▁BD
▁.2
idic
▁endogenously
▁platinum
▁BP
▁satisfactory
▁capacities
▁augmenting
anin
▁laryngeal
▁dP
▁gynec
▁Mn
▁microvascular
▁(11
▁60%.
ognitive
sian
▁Statistically
▁gonadotrophin
▁cutaneous
▁antifungal
100
)],
eptid
▁enhancer
▁subdivided
▁bif
oglobulin
ronchial
-78
▁broth
illation
▁114
▁strep
▁Tn
opres
▁Inte
/1
reness
OV
▁spre
▁quaternary
▁freezing
▁spasm
▁1986.
reening
▁glycolysis
▁surgeon
olac
▁assay
▁10%
pG
▁cholangi
▁Sephadex
idiotypic
▁excised
zine
▁catalyzed
criptional
4'-
affected
▁modestly
arean
▁arousal
▁undetectable
▁dihydropyridine
PSP
▁predic
▁COPD
ncy
▁parasympathetic
▁pyruvate
▁Raynaud
▁adaptive
▁AChE
fetoprotein
ritical
▁microscope
▁spikes
olol
edema
▁practitioner
▁MLC
▁memb
oprotective
▁considerations
propanol
▁exce
parathyroidism
▁attenuate
openia
▁Finnish
ariate
ordination
▁topical
▁polyamines
▁0.34
expressed
ucine
▁isoelectric
▁rhod
▁Experimental
cellulose
▁hematuria
▁transcrip
▁protease
▁terminus
▁Lys
fibrozil
▁prevalent
itus
▁(40
tum
▁LHRH
▁exponentially
▁Surgery
▁cavities
5,
▁periodon
▁recordings
▁hemolysis
▁embry
▁stromal
▁corneal
▁(2,
▁distension
▁75-
4.1
▁adrenocortical
▁7),
otomized
▁7.5
fir
▁gonococcal
drug
▁LD
▁scinti
▁regulated
▁pyl
▁decarboxylase
▁228
bic
ygotes
▁contraceptives
▁undergo
▁1.7
▁bacteremia
epithelial
▁putative
▁folate
▁nitrocellulose
▁38%
▁abrog
oprosthe
▁Adequate
▁mating
▁64%
▁cadaver
▁depr
▁5.
▁rota
HF
▁glyc
▁nucleotide
▁antidromic
▁cataly
▁221
vian
phadex
▁levodopa
▁interp
azepine
▁Proc
arterial
▁lipophilic
▁septum
▁erythematosus
▁polymy
tte
▁bladders
-24
▁0.82
.8%
▁clotting
▁(+)
▁4)
lline
▁acrome
▁11.
▁esophag
▁17.7
▁5%,
▁preceded
razole
rhy
emble
▁xen
▁49,
▁cyclosporine
▁enhancing
▁lapa
venty
▁pall
▁chromatography
ughters
opar
▁Tyr
▁Thi
omatis
▁eIF
▁subclass
▁locomotion
▁90-
-100%
▁astro
▁oestrogen
irradiated
itudinal
▁rumen
generating
▁cla
ordin
CHO
▁selen
9,
spectrum
▁tympan
▁oblique
▁restraint
ercul
▁pigment
▁recombinant
▁vagin
junctional
▁favors
▁pim
▁metallothionein
▁Ib
▁thyroid
Ti
▁cloned
▁cyclooxygenase
atories
▁remn
DTPA
▁deferens
yro
exercise
▁hydroxyp
▁intramuscularly
▁(19
▁metabolite
▁dioxide
oviruses
▁hyperp
▁antidi
▁accounted
▁retinas
WB
▁carriers
diagnosed
▁cascade
rometh
▁Consequently
▁localization
effectiveness
▁transplanted
utions
▁fibrillar
▁prazosin
relations
▁radiological
▁synaptosomes
eruleus
onad
▁prostacyclin
▁dehydro
▁deaminase
▁tubes
▁peric
riched
omonas
▁adrenoceptors
ifferentiated
55
▁classifying
trip
▁Immunohist
olem
raconazole
▁complementation
▁.001)
▁500,
immun
▁regulator
▁pyraz
▁1960
ficially
graphic
▁brom
▁irreversible
eces
▁hypocalcemia
omyel
▁supra
▁muscul
bacco
▁101
▁atopy
▁introns
Ba
▁microgra
▁afferent
cryst
▁(0.25
ocyte
tran
apatite
ardipine
▁9.1
trimester
▁(1.25
▁elicit
vivors
rof
-]
▁sulph
ronectin
▁papill
▁AGA
▁(25%)
▁brach
▁oxygenated
osage
▁leukotrienes
▁ECM
▁resuscitated
stolic
uresis
▁Fetal
PAP
prisingly
infused
zot
▁preventive
▁thrombi
antagonist
▁(1.1
▁grossly
▁thrombus
▁97
▁Vitamin
ikary
alyzed
romedial
▁Protein
▁unde
▁astrocy
▁underlie
▁ero
▁Ringer
invasive
sue
▁10(-7)
▁libitum
choline
▁sensitization
▁monoc
umulative
CFU
▁22%,
▁nociceptive
▁encompassing
▁angi
(-)
▁ciprofloxacin
▁1
▁30%,
synaptic
▁rehabil
-2'-
tin
▁650
▁0.76
▁parv
taken
▁(85%)
▁remod
tophan
▁intram
▁termed
▁malaria
▁1.2-
▁surgeons
▁Fib
▁auditory
▁fecal
▁1.6
▁idiopathic
▁vaginal
urones
enolone
▁thiaz
compart
▁glycer
▁benzene
▁promotes
▁Biol
osylated
benzyl
▁biologically
▁segregation
buride
▁prefrontal
▁mammary
oterol
▁yiel
▁arteriography
▁1,25-(
▁moreover
▁genomic
▁methyl
▁amin
▁collic
▁Injection
▁parat
▁pontine
▁multicenter
kets
▁7.1
25,
olitis
▁phosphor
▁dissociation
▁-40
▁sten
▁30
ocortic
▁cirrh
▁globulin
▁twins
▁psychophysical
▁fas
▁phantom
▁oxidation
▁anisotropy
otri
▁10.0
ionyl
▁depleted
DCK
thyroid
opus
ylic
▁myeloid
▁84%
▁myoglobin
▁illustrate
▁hemodialysis
ragment
9),
▁(48
hypophy
▁leukaemia
▁82
▁metastatic
▁attenuation
inic
▁Eryth
▁comparatively
▁clamping
-5'-
▁iontoph
▁(0.
▁Plasmodium
▁cytogenetic
▁EIA
diabe
VH
▁microM
irub
▁3.4
▁interc
enching
▁clarify
▁cac
▁caudal
▁107
▁(72%)
▁1.24
thiazide
▁favorable
▁ulcer
▁.00
HLA
▁negatively
50,
▁Urinary
▁LTP
▁inducers
▁evid
▁freshly
▁linkage
▁gallst
▁subarachnoid
▁respiration
▁17%
asive
ocalization
umic
acental
0/
-34
▁ure
orption
iptine
medicated
▁exceptionally
olestero
turing
▁unaffected
▁selective
▁aberr
▁reacting
▁carp
-28
▁28
▁twofold
▁optimally
▁205
▁3
ymptomatic
▁carcinogens
▁microp
▁osteoarthritis
▁rhin
▁incomplete
▁endometrial
Tu
▁examinations
▁inoculated
▁secreting
oxyn
▁polymorphism
floxacin
▁theophylline
▁1.03
▁(140
8]
▁13.
chlo
▁lyso
▁dispersion
acycl
▁gangliosides
ancreatic
▁swab
PCR
adrenaline
ffec
▁ipr
tomies
-3)
▁3000
▁oedema
▁CPB
▁stimulant
1.5
▁etiology
▁6.9
ucl
▁neoplasia
rays
ylyl
▁intraluminal
▁CIN
▁gestational
MH
▁potentials
▁inactive
▁344
▁paracrine
atase
supplemented
▁facet
▁uve
▁amide
iae
ventil
▁transposition
▁differentially
▁intraepithelial
▁95
▁0.61
▁cytochalasin
▁perturbation
▁compromised
▁LAK
stim
▁afferents
esthetized
atients
▁randomization
▁refine
brile
▁(76%)
▁BALB
▁cumulative
ressive
▁shedding
▁nitrogen
▁35%
▁curet
▁thrombolytic
▁adjunct
venous
▁homogen
▁hereditary
rosophila
ocor
esides
▁aortic
arine
thmia
▁carbohydrates
▁arrhythm
▁comprised
▁piroxicam
▁(3.8
tomas
helial
▁mitogens
▁adulthood
ogens
▁serotonergic
▁papillomavirus
melan
▁0.75,
▁phenotypic
▁Systolic
▁unexplained
▁bup
▁chlorhexidine
▁mucus
▁anesthesia
▁1.08
glucuron
ropath
▁70%
▁dispersed
▁residue
▁lysis
▁retains
▁Dys
▁saturating
▁4.2%
▁1964
▁loci
▁attenuating
▁nephrotic
▁irreversibly
▁awak
▁randomized
▁remarkably
▁maxillary
▁favored
▁gradi
10,
▁purification
/10
▁inducible
urys
inescence
▁prostatitis
▁MRL
▁ocular
▁arterioles
aturity
omial
utyr
▁pell
.10
▁syphilis
▁hypertrophic
▁KB
▁75%
▁neurite
▁insertions
heximide
oxicillin
ATPase
▁75%,
LTB
kephalin
thms
▁MK
▁213
tening
titis
▁myofibrils
▁cyclosporin
▁exchanger
▁contraction
▁10(-2)
5)
▁Percoll
taldehyde
▁subunits
▁centres
▁canine
▁pla
▁fibrous
▁dichro
▁0.50
▁oligomers
ogl
▁asymp
▁silic
▁Ultrastructural
▁overlapping
▁fulmin
vac
▁DH
erative
▁nephropathy
▁cartilage
jun
PRA
inephrine
▁atyp
molec
▁Adh
▁mucosal
▁acetylcholine
nons
▁inverted
operiod
▁GI
▁thrombo
▁(49%)
▁resum
▁employe
▁deprivation
▁protamine
platelet
▁renin
8-
▁continuity
▁0.01),
▁1-4
▁resembled
▁Monoclonal
▁1.2
BK
▁histopath
▁7
▁persists
▁abor
ropo
ifferenti
▁(32%)
▁congestive
▁periodontitis
▁4.7%
▁infiltration
▁clearance
▁tubular
loro
▁rabbit
▁synap
▁1%.
rophyll
chers
atonin
vely
ostat
tead
▁addic
▁Sulf
ulcer
▁indus
aminergic
▁240
electron
ordant
▁cardiovascular
▁3.2%
▁modulatory
▁exhibiting
▁durations
▁hematological
PIA
2.
▁nuclei
erving
▁78
▁cationic
▁physiology
▁Plasma
▁distor
▁perpendicular
CoA
culture
ectom
omal
▁biosynthesis
▁MMC
50
▁GABA
uran
robenz
ritis
-64
▁encomp
adenine
▁distinguishing
▁unlabeled
lycero
▁reag
renzepine
▁resistant
piration
unar
sant
yocardial
75
▁donor
▁cramp
▁transducer
▁paraventricular
▁thiop
▁ammonium
ulatory
planchnic
▁PEFR
ntolamine
▁immunochemical
▁59
astolic
methionine
▁GE
ermal
tist
0.7
▁baroreceptor
ococcus
▁calorie
▁swine
▁inactivate
rendipine
onstric
▁antin
▁membran
▁desipramine
▁128
▁resemb
▁560
rein
pA
4),
▁incontinence
19)
▁mammalian
▁blastoc
dividual
▁(58
▁substitu
▁isop
▁vinblastine
▁sampl
▁80%.
▁Diagn
▁demonstrable
▁elimin
▁3'
▁tritium
gran
yel
oglycerate
oligo
rotal
dC
▁placent
▁Older
▁schizophren
achy
isobutyl
rozen
▁catheter
terone
▁microtubule
▁pons
40
450
lysis
vate
▁subpopulation
▁oncogenic
▁occlusal
▁contributes
▁norepinephrine
[3
establ
▁virions
ongest
ternational
lyb
▁tremor
▁physiological
▁livers
purified
▁lamin
abd
ophy
▁Thromb
▁manipulations
▁31
▁11.5
▁wors
▁Clostridium
▁Membrane
▁muta
▁myrist
▁inhibitory
onatal
dG
blockers
▁hepatectomy
cretion
▁accumulates
onomic
▁0.1,
encl
orhinal
33
roids
▁amplification
▁dermatitis
▁dele
▁BAL
▁excitatory
▁Intensive
▁xenografts
PV
SDS
▁quin
onc
▁0.4%
jec
▁177
▁235
▁phentolamine
▁multiv
▁valve
▁subjective
▁ovariectomized
▁0.005),
▁0.93
▁epithelial
▁Brain
▁succin
/-
▁sclerosis
▁generalized
▁laboratories
▁connec
7.
▁journals
▁repression
oglobin
controlled
▁beha
▁biochemically
▁enteroc
▁yolk
▁tetanic
▁dentin
▁perin
Sepharose
trover
venth
▁HepG
41
▁Trp
itre
▁filaments
otrophs
▁interacts
hyp
yrox
benefit
▁polymorphisms
▁TEA
Ni
,000
9-
quine
transferase
▁rostr
omere
▁209
▁exerted
osition
MSH
▁2:
▁heterologous
▁usefulness
▁morphologically
▁(31%)
uting
azin
▁precursors
▁53
▁gradual
operox
americ
▁7.5%
▁147
▁therapies
▁coenzyme
130
ronate
▁caregi
thyl
atellite
▁homose
▁ferritin
apanese
▁wedge
▁circumferen
▁nonin
roscopy
▁triamcinolone
▁wards
trations
▁alopecia
tage
▁Km
administration
▁hyperlipidemia
inopril
▁messenger
▁Enal
▁advan
▁emergence
▁radioimmuno
▁7.0
▁500
sities
▁dopamine
▁hyperglycemia
▁(5.1
▁disapp
ilding
▁reproducible
labelled
▁WGA
▁clinics
95%
▁epidemic
▁conges
▁enanti
▁Localization
hosts
▁700
▁3/
umetanide
lactating
etine
▁fungi
▁diameters
▁ADCC
ogenin
osides
5%)
▁0%,
ongue
▁leprosy
ocholine
▁Enterobacter
▁(18%)
▁tetr
▁enriched
▁nucleic
▁orifice
▁neocortex
otrypsin
chlorothiazide
▁parac
enkephalin
▁tox
▁sorbitol
▁neurological
▁calorimetry
crimin
▁24-
▁disten
▁repaired
▁cros
▁0.005)
▁osmolar
nish
▁addi
▁Chemical
jug
examination
neu
▁immunization
▁neuropath
▁153
▁CMV
amet
▁unrelated
▁phosphatase
bloc
ophosphate
ioma
ipr
▁pharmac
acylglycerol
▁alcoholics
▁1/2
▁adhe
▁8.7
▁.000
▁inges
▁PN
▁latency
mental
gA
▁cres
▁fivefold
entical
▁peroxide
atified
▁hairy
▁thirds
▁35
Ra
▁reproduced
▁coexis
attrac
▁Gln
▁abstinence
▁hyperthyroidism
▁sulfoxide
orotic
▁nox
▁curative
▁distrib
▁Sero
oskeletal
▁calculi
▁Saccharomyces
-23
▁polyaden
▁.05)
▁compensate
▁extre
▁LTD
▁monophosphate
▁synergistic
▁inconsistent
▁immunode
▁257
ometri
▁bradykinin
▁aeros
zoster
opoietic
tel
▁tandem
12-
ammonium
oprote
▁sphe
▁symptomatic
oflurane
▁equimolar
estis
▁ribonuclease
▁polymerases
▁Veterans
sensitive
meter
▁wt
terologous
▁oxalate
ideoxy
▁hyponatremia
▁4%
tilage
atrial
▁2%.
▁CN
▁hypoglyc
▁PFC
ionic
sion
oxan
proliferative
diastolic
tRNA
▁topoisomerase
oride
monstr
▁rearrangement
▁comprising
▁ofloxacin
▁congen
▁lengthening
vaccin
threatening
▁salivary
rostagland
▁biased
flammatory
▁Flu
▁20%,
atab
ilibr
▁banding
▁2.5-
othyroid
/20
aggreg
▁aids
daily
▁APC
lastoma
153
▁correlates
▁schem
▁vibration
▁latex
▁ischaemic
▁spectrin
▁10(8)
▁0.2,
▁Cox
▁avid
oconjug
▁antisense
▁chemilum
▁cytotoxic
presenting
▁anionic
▁doses
omiting
Au
▁Bacterial
▁agar
heat
oconstric
▁laevis
indings
▁PGE
▁252
▁interferon
HCO
▁GDP
4).
▁tissues
-16
▁Krebs
BMT
Fc
▁tumors
▁14-
▁identi
▁anaerobic
SBP
sess
▁constituted
xate
▁lifest
epam
▁allograft
▁DHEA
▁yohimbine
opped
▁0%
▁shear
othreitol
▁lengthen
▁coded
2,
▁360
phenylalanine
▁perme
▁bursts
▁repres
▁pestic
▁perivascular
▁HN
lamp
▁quantif
▁hyperthyroid
▁0.000
▁BamHI
adian
▁transluminal
tingu
olones
roprusside
hans
▁terminals
▁65%,
bular
▁heteroz
dihydroxy
▁morphologic
tenti
▁fulf
▁socioeconomic
▁inorganic
▁migrated
oprotein
▁angio
▁conception
▁vasculature
oinositi
▁originated
▁extensor
▁discriminant
▁verapamil
▁MHz
toc
▁demonstration
alose
▁chym
▁chromat
▁dissection
ulfonate
▁rodent
69
organisms
▁morbidity
iplinary
esia
▁contour
▁reentr
▁genesis
aryn
▁ultrasound
▁monocyt
▁colocal
▁1.
▁arter
▁microbi
87
▁speculate
▁fasting
molality
erated
brain
2).
exis
▁endos
▁aeruginosa
▁3.6%
▁protr
▁Hz
abdominal
▁GST
ipro
hydroxyd
▁injecting
