▁arteries
ocarcinoma
plantation
rophob
▁somatic
▁prospective
▁injur
▁specimens
▁pigmented
▁cuff
▁zinc
▁SCH
omotor
vertebral
operatively
isol
▁ablation
identical
ypical
▁unde
▁chloroquine
▁judged
▁synchronous
▁uncom
onatal
▁trophob
coun
inic
uted
▁histopathology
▁neurologic
▁implicated
ochemical
oidal
▁ALT
▁awa
▁contral
▁pathway
▁NB
lac
▁sexes
ritish
▁chewing
▁Concomitant
gth
▁creatine
▁epi
eptin
▁ket
▁cohort
▁ile
▁Muc
▁IB
phal
▁NPC
opro
▁extre
▁implant
osomal
▁lis
qui
adder
▁postmenopausal
▁placenta
▁prednisone
clinical
▁pathologic
▁thromboembolic
ocul
▁workload
erb
ostic
▁allevi
oxic
▁polymorph
▁ganglion
▁HPV
▁palp
▁GFR
arean
estig
▁laparoscopic
▁ultrason
▁adolescence
▁echocardi
▁nal
▁chemo
ostal
ections
▁secretion
▁microc
either
▁radiography
▁differen
▁fetus
Tc
entary
▁fracture
▁RM
bral
imination
formin
otent
oxif
▁necrosis
▁distal
▁disruption
▁preliminary
▁positively
Ts
▁lipid
▁immun
▁undergo
ophren
▁impaired
▁contributes
▁catheter
▁endoscopic
gative
▁deformity
atrial
▁Kup
▁displacement
▁excre
▁mann
▁concordance
ocyt
▁inflammation
sive
tak
▁abnormalities
▁ischemia
▁endothelin
NB
onc
▁scl
ostatin
▁endarterectomy
▁lar
Tn
▁leuk
regulation
▁eosin
ortic
eration
▁consequent
▁pall
▁MHC
induced
▁Thromb
FH
BV
▁perip
ressive
occi
▁injected
zard
▁comprehen
uterine
▁paraventricular
▁underestimated
▁pharmacists
totic
cad
▁schizophrenia
▁inadequ
▁RH
bac
▁homogeneous
▁athe
▁unilateral
▁atres
▁WHO
ults
▁summ
▁phon
▁diminished
▁necro
▁coexistence
▁PCO
▁sphincter
▁underlie
▁increas
▁abl
▁seropositivity
versely
▁benz
▁rhy
oglyc
▁subf
hips
▁mediates
▁tertiary
▁glut
▁progest
▁simult
▁hospitalized
▁cortisol
▁ratios
econd
▁Magnetic
▁perin
opam
▁mortality
▁microvascular
encl
olones
▁recor
▁adenocarcinoma
▁efficacy
▁acqui
▁compressed
tus
▁hepatic
▁glycoprotein
oten
immune
▁nonadherent
▁ovarian
▁tumour
▁enteral
ilical
▁gallst
▁musc
▁ambient
▁invasive
sies
▁lithotripsy
▁demographic
▁hypertensive
opramide
▁eradication
▁MV
▁dysfunction
▁neutrophil
▁Biochemical
▁gynec
▁characterize
otomy
▁tracers
▁thi
▁juvenile
▁rebound
epit
▁intensive
▁pharmacological
dominal
diagnosed
▁metastatic
osition
tur
▁hCG
▁MRI
▁progn
▁rheumatoid
tinu
▁naltrexone
aturated
▁combin
▁acids
operative
▁scin
responders
▁intragastric
▁discriminative
▁contrib
▁episodic
▁diagnose
▁adjustment
HM
▁detachment
oxia
▁cadaver
▁Tumor
▁multicenter
vic
▁transient
▁ultrasonography
urgery
▁reagents
▁resected
utions
▁aorta
▁crest
invasive
▁inten
trative
atural
illary
▁Clinical
erable
▁coh
▁tumor
estis
▁cannulae
lasting
regulated
APC
▁spon
▁Considering
▁Chemical
severe
▁proportional
cis
▁reductions
cents
▁discern
ocardial
atients
▁resuscitation
▁angiography
▁hygiene
ygen
tebral
Cy
▁curative
controlled
▁regulate
▁correlates
▁RA
lax
NH
▁cardiomy
▁physiologic
▁tracer
▁Alter
▁saturated
▁BV
▁TG
▁empir
▁repres
tin
▁subgroups
▁laparoscopy
▁Preoperative
ergy
▁pressures
▁fatty
▁TB
▁reflux
ximal
itance
ulitis
▁Failure
ectable
urine
iferation
rae
hemical
rins
▁effic
▁ceased
lyc
▁distrib
▁cigaret
▁ACE
▁pyl
▁FD
▁pylori
▁reas
▁heterogeneous
aneously
▁congenital
occal
▁silicone
▁retention
▁relapse
▁proliferation
▁atresia
tein
▁subjected
undibular
▁endemic
▁differentiated
▁deli
osal
▁herpes
▁cancers
▁perinatal
▁reproduc
▁valve
urrence
erate
▁Vitamin
▁underg
ometr
▁bir
▁fati
▁HCC
▁socioeconomic
irc
▁fractures
oic
▁susceptibility
relevant
▁measurable
▁assessing
ivary
vice
hospital
▁pathologically
tum
▁insertion
▁metastas
dic
▁avail
▁ossification
▁biop
▁propensity
aemia
▁correlate
▁CMV
▁decreas
▁thir
tero
ociated
kage
▁engraftment
othelial
▁sequentially
iary
▁reliably
acting
▁VE
▁precedes
atient
▁bronchoscopy
istal
ophil
▁conservatively
▁ketamine
nec
▁surgeons
▁chloro
▁repro
▁moderately
▁satur
esia
▁medial
ropriately
phen
ronchial
tig
▁OA
▁questionnaires
▁athle
▁opi
▁metoclopramide
▁neutroph
ergency
stolic
fat
▁predictive
ameth
▁contamin
▁aneurysm
cardi
utroph
▁calcified
▁distin
▁derange
mia
▁exo
opathy
xone
▁identif
▁predictor
ventricular
urethral
▁isch
▁glu
▁ane
▁adhesive
▁unil
▁elic
aminated
▁outpatient
▁hypertrophied
▁ventric
▁severity
anding
graftment
▁neurop
▁pathology
▁collateral
▁discrimin
▁quantitative
▁mitral
▁exercised
osin
▁interv
▁Surgery
▁empirical
▁physiological
TNF
▁bladder
▁homogeneity
alc
▁adjuvant
▁monitored
▁synovial
▁discus
▁hormone
atoid
▁correlations
▁predominantly
▁influenza
▁CK
▁ure
TG
▁alve
▁AO
▁amin
▁cholestasis
▁hazards
▁enucleation
yses
▁desirable
▁resol
▁HU
vents
▁pH
▁Trial
▁cervix
hap
ivation
▁PCR
▁differing
▁perc
idate
aluation
HB
▁thre
▁enti
asone
▁PV
▁challen
lateral
▁behavioural
▁glands
▁schiz
▁aureus
iol
▁IH
effectiveness
▁cocaine
▁eliciting
▁recom
▁ageing
spectively
▁inheritance
▁microbiological
▁concurrent
odic
ectomy
oscop
rosis
▁discon
xia
▁excision
▁tubes
▁intrap
ignant
oplastic
Ka
▁endarte
ofol
▁ACL
▁intrav
cribed
ected
ineal
tected
urrent
ipient
Ba
▁gyn
▁pneumon
▁segmental
▁pregnancies
mL
cence
▁Phen
xual
atical
▁headache
▁intram
▁CSA
▁appendic
▁gait
crimin
▁peptic
▁melanoma
▁contralateral
▁rigorous
▁APC
▁eosinophil
▁hypog
▁withdrawn
diol
▁lith
▁abdomen
ivariate
▁Throm
▁disadvantages
ocytic
▁definite
▁coeliac
lusion
▁HC
regn
uccess
▁PCP
▁LD
▁symptom
clin
▁carc
abies
▁overexpression
▁discom
EG
TB
▁psychosocial
▁elucidate
▁Biochem
treatment
▁myo
▁BD
oskeletal
▁hypothe
▁inherent
▁pulmon
▁unselected
▁pathological
▁predicts
▁consol
▁cumulative
▁compartments
▁hep
▁bronchi
▁endometrial
▁Streptococcus
owel
▁glomerular
▁minimally
diagn
onset
ilization
▁migraine
opamine
▁iso
ipid
▁phe
▁interventions
▁Steady
uncture
gments
▁vitamin
umably
SCC
lead
hern
▁heterogeneity
▁masked
trip
▁omitted
implantation
MH
▁MCP
sych
duction
sensitive
KD
▁ration
▁unstable
omod
▁hemisphere
▁tric
▁FH
▁excretion
▁concomitant
▁exacerb
elan
▁unresectable
▁substantially
resting
▁dietary
▁platelet
▁haem
tis
▁kerat
▁practitioners
uscular
▁immunomod
▁complications
▁utero
▁anatomy
▁gluten
▁plantar
▁estimating
▁unsuccessful
▁glucose
▁ovari
natal
▁mucosal
▁strom
osocial
▁abnormal
▁DG
▁transfusion
▁localized
▁HN
oracic
▁metast
▁haemorrh
▁blin
▁tidal
helin
▁PF
▁perfusion
quid
▁renal
▁chec
▁sclerosis
▁chond
▁modif
▁advan
▁techniqu
▁aor
▁morphology
vely
▁nucleus
▁canc
taining
▁sulf
▁indicative
▁symptomatic
▁assays
▁obese
▁overex
▁remo
tration
▁physici
▁enlarged
▁deprivation
▁substitution
birth
▁cue
▁gradi
ropriate
▁attrib
Ca
▁IA
▁sci
▁onset
▁endothelial
▁eosinophilic
ovascular
▁colonization
olism
▁respondents
▁LC
▁aerob
vul
iferol
▁specificity
▁mandibular
▁vitamins
▁follicular
gment
▁Dil
▁swelling
odynam
omiting
▁mediated
▁calcification
lact
▁dentists
▁buccal
▁pter
▁laboratories
gic
ressing
amn
▁tumors
▁occl
▁anomalies
▁poisoning
▁VO
▁ascertain
urther
▁hygi
radi
▁cigarettes
lood
IgM
▁pulmonary
▁genotypes
▁NP
▁oils
othel
herence
▁reperfusion
unctional
oxidation
▁Ket
farct
otor
▁coronal
quired
▁referral
▁cerebrovascular
▁sequel
▁membrane
osts
▁feasible
▁esophagitis
ophag
▁irradi
▁surgical
▁intermittent
▁foc
▁carcin
▁PSA
▁anatomic
▁Compared
▁RB
omical
▁inflamm
OA
enzymatic
ivocal
▁beha
▁HS
isqu
acerb
▁pati
▁gland
▁TBI
genic
atectomy
idated
▁cephal
▁tas
▁tol
▁modality
ysm
idation
resses
▁physi
▁Adverse
▁restenosis
fir
reast
bility
rene
rogra
▁multifactorial
▁endoscopy
adily
▁inhibition
▁diffic
▁induction
atories
▁putative
▁LVH
▁socio
ilic
▁hazard
▁evaluating
▁chemotherapy
▁AE
rehen
▁GI
pendent
mur
seud
▁implicate
▁neoplasm
▁tissues
▁shorten
ocl
ths
▁suppression
▁systematically
▁HL
ximum
scop
▁births
opi
▁ascer
illic
▁ae
▁selective
▁communic
▁differenti
▁heavi
phosphonate
itoneum
▁emerg
venous
▁elevation
▁pS
▁VD
▁metastasis
▁investigations
▁acetab
▁intrarenal
▁LS
▁antic
▁accumulation
▁MH
onary
▁mediation
▁gastric
▁anat
mentation
▁intra
acted
▁repaired
▁inapp
▁bronch
ocusing
▁IU
▁arterial
bladder
▁bipolar
▁anticoagulation
mittent
▁reproducible
▁vomiting
inj
▁Ig
eded
▁studi
▁saliv
▁deficits
▁transi
Cu
esity
cine
▁Dopamine
▁hepar
▁selectively
▁lumbar
ternational
stro
▁thorac
▁perone
▁malignant
▁multiv
embr
▁constitutes
▁pancre
▁prescrib
▁stimuli
▁recurrence
▁numb
▁stu
▁MM
din
romes
▁hemodialysis
rophy
▁HCMV
versity
▁annulus
▁IgM
▁geriatric
phic
▁nosocomial
roph
▁exposures
▁OT
▁serum
▁clinics
glyc
injured
▁ulcer
▁transplantation
▁Bone
▁lipoprotein
▁diagnoses
▁HM
▁improves
tif
▁ventricular
▁alterations
▁predictors
▁pT
erving
▁fas
▁irritation
▁topographic
▁coronary
sities
atonin
▁hypers
▁synthe
ods
▁resour
▁shor
▁hypox
▁followup
rested
▁polyethylene
▁preterm
lowering
▁poorer
fine
▁incidence
echn
toc
▁preparations
bly
▁Addition
erad
▁ethanol
▁circumferential
▁latency
hyd
▁soybean
▁prognosis
▁cava
▁acute
▁definitive
▁genic
▁ADH
Hu
▁preoperatively
▁discordant
asive
▁validated
▁chl
activation
gulation
▁disks
▁Significant
andard
▁radiographic
▁immig
lep
▁agonist
▁heavier
▁differentiate
▁parap
▁parental
mide
▁neph
▁inver
▁ach
onium
viron
othermic
▁ventilation
eal
ycin
▁examin
▁subsp
erating
▁cathe
▁deficiency
duced
▁intravenous
▁Lys
▁reflecting
▁allergic
▁laparo
erican
▁Neu
genesis
erance
▁emphasizes
▁cues
▁retrospective
▁uncommon
▁biochemistry
comitant
ilized
▁manifestation
▁birthweight
▁GBS
▁adop
▁intrauterine
▁urinary
▁vancomycin
▁hyperg
gents
dition
▁diabetic
▁physicians
▁regimen
▁trough
erations
▁modulates
yroid
Cer
omal
oprote
▁compartment
▁distinctly
taken
▁polyps
bacco
lys
▁comple
▁poin
▁prospectively
▁predicting
▁TK
▁nig
tent
erative
▁immunode
▁corneal
▁salivary
orax
▁uter
▁onc
chol
owever
omatic
oscopy
▁amyl
▁obesity
▁atherosclerosis
ologic
otrop
▁follic
▁shif
icin
▁modestly
▁ultim
▁mell
▁elimin
▁suture
▁hypo
▁haemorrhage
▁endoc
▁multivariate
▁provid
fron
▁neon
▁enrolled
▁olig
▁exce
▁illustrate
unar
▁comparative
▁macrophage
graft
▁hypertension
▁rCBF
▁chan
▁worsened
ococcal
earance
▁deterioration
umulation
ensory
atab
▁pedig
▁influenz
alues
▁clinician
▁cerebral
▁depic
▁microb
ocaine
oplasty
▁contex
ospor
▁Cox
hers
▁analyses
ulatory
▁Severe
ught
iably
▁utilization
▁radiotherapy
anol
▁prol
itin
▁ventil
eces
cture
dle
heal
crib
retion
▁thresholds
▁compart
rants
etal
▁resear
hemo
ustif
oscopic
ministration
▁paradigm
▁recurrent
ophilic
eak
▁chori
Ig
▁evol
▁overlying
essive
ullary
▁Doppler
▁adhesions
▁cyclosporine
▁disapp
▁leakage
▁trophoblastic
▁chemot
tained
▁Removal
▁cann
▁injections
onomic
▁concurrently
oprotein
▁morb
▁hemorrh
onate
weighted
▁smo
▁bilateral
▁ultrasound
PV
▁neonatal
attern
▁prevalence
glum
▁edema
▁congen
▁compli
▁Intravenous
▁neo
▁unres
▁morbidity
▁autoimmune
▁mellitus
▁vasomotor
▁subtype
▁debr
▁thyroidectomy
▁removes
▁pelvic
oride
ococci
▁causative
▁streptococci
▁coex
urc
▁leukocyte
phrine
sus
▁heroin
ithm
▁satis
▁inflammatory
▁homogene
▁detectable
▁vaccination
astom
ervative
▁periodon
▁disappearance
urin
▁DF
iatic
▁polymorphism
▁atrophy
HF
atest
▁surgeon
▁sedentary
ethyl
▁sti
lym
▁atrial
▁substituted
tions
▁Regarding
▁oxy
▁NH
▁occupational
▁Phe
ileptic
wk
▁undergoing
▁determinants
▁limb
▁demonstrating
▁employing
▁thickening
▁adverse
▁Prospective
▁impair
▁newborns
lysis
dose
▁interc
▁allo
ochemistry
▁biopsy
▁questionnai
▁consequently
ept
▁Hb
▁cen
▁PET
▁torsion
▁rehabilitation
tant
eclampsia
▁lipids
▁Estrogen
oratory
oxid
▁intraven
▁muc
ilateral
renal
rogenic
ymp
cyst
▁cholest
▁infusion
▁undetectable
▁immunological
▁lumb
▁cardiomyopathy
pir
▁evoked
utin
▁postoperative
▁TC
▁femoral
fos
▁Vac
▁infants
▁RS
▁subtraction
illus
▁esophageal
▁vena
lec
▁adjunct
▁hemodynamics
erals
lob
ocular
ograms
atment
▁reproduction
▁epinephrine
▁metabol
▁usefulness
vail
threatening
▁reper
▁cutaneous
carcin
utaneous
▁aspiration
▁supple
EGF
otomies
▁deformities
▁deliveries
▁overe
▁gallstones
geal
▁sut
▁ultr
▁screened
▁opioid
anic
DNA
▁preoperative
trexone
onit
▁spinal
▁quantit
vity
uran
versus
▁heparin
▁unex
uptake
luc
▁visually
gmental
duce
aryngeal
▁regis
▁insulin
▁AMI
▁vascular
▁graf
▁carbohydrates
▁mL
orin
yro
ithms
▁directional
▁IVF
mature
armac
stim
▁esophag
▁confound
▁dexamethasone
▁perceptions
▁imaging
▁testicular
▁sulfonyl
▁uremia
seal
▁rectal
▁topical
▁stimulation
lective
▁fulf
▁glomer
adherent
▁progestin
▁insufficient
▁polym
▁sev
omial
DH
▁Treatment
phosphon
entral
oag
vival
▁somatostatin
▁TA
onography
acental
sion
CRP
▁recessive
ficial
▁Ara
▁prostatic
▁operative
▁tamoxifen
ontal
atine
anin
▁preservation
sess
▁assessments
▁tes
▁positioning
▁LN
▁regimens
▁pharmacy
▁identifies
▁premature
hea
▁reac
years
▁oss
cysteine
▁anastomosis
dimer
▁distinguishing
▁pulp
licular
▁manu
▁Tran
▁turnover
▁postnatal
rine
reported
▁complemented
olated
▁cate
▁chol
▁gradients
▁intake
pine
▁LV
▁endometr
athe
▁clinicians
▁gluc
▁hepatocytes
▁airway
▁artery
nai
odies
▁insufficiency
▁tibial
itamin
▁synthesis
▁alveolar
▁irradiated
nee
▁prescribing
ejun
▁Samples
▁anemia
▁proce
▁CPAP
otropic
adequ
onyl
▁pneumonia
anyl
BK
▁cochlear
rates
▁abnormality
▁agon
ourable
▁testis
▁theore
keletal
odial
▁endpoints
▁deficit
▁sensory
▁flexion
uvant
▁oxygenation
▁adenomas
▁histological
ffer
RH
▁anastom
istrib
moid
▁audi
erated
▁fibers
Tu
▁morphologic
▁ruptured
▁nonc
oru
agit
itively
▁stenosis
uting
▁colloid
oplas
lix
▁versa
▁parotid
▁grouped
▁persist
oplasmic
ectom
fusion
valence
lectomy
▁hypoglycaemia
▁potency
thre
acr
opa
▁preventive
▁MG
igel
blast
▁splenectomy
▁algor
▁complication
▁inversely
▁prevalent
omized
▁FV
trol
▁inpatient
reatine
tection
▁PEG
▁postoperatively
▁uncomplicated
ervical
lymph
ameter
▁prolonged
▁urine
▁clus
▁stren
▁Serum
▁adhere
▁IIb
▁spi
▁depr
▁menopausal
▁soy
enol
▁correlated
▁molec
▁CAM
gm
IU
▁cervical
▁peripheral
▁detrimental
orectal
▁mutations
▁uncontrolled
opsy
lip
▁indications
▁adherence
oradi
▁feasibility
▁prenatal
MRI
functional
▁impairment
▁oligo
▁ambulatory
▁glyc
▁toxicity
▁DN
▁Findings
▁resusc
▁vaginal
▁oes
▁staging
odal
▁prostate
▁subgroup
▁abolishes
▁infiltration
▁intrinsic
▁phy
enin
cious
▁FS
hep
▁carbohyd
▁regar
urate
ocele
lastic
▁atten
▁vitro
▁SG
▁deterior
▁acad
ureus
monary
▁variability
cessive
▁colorectal
▁etiology
certain
▁Chan
inol
▁peroneal
antial
▁evolving
▁pla
MV
rectal
gely
▁myoepithelial
▁coel
ucle
tate
agic
tries
▁Tum
▁uptake
▁exer
atell
lesion
▁caro
▁APD
CBF
urea
▁pneum
▁scintigraphy
▁micron
▁hemodynamic
▁cytology
gesia
▁ana
inemia
▁ASA
▁ECG
ellosis
▁BP
rele
▁encoun
▁carotid
▁paradig
anish
estion
opulation
▁arth
▁spati
▁inhibit
▁resection
ithin
▁Cushing
▁Physicians
▁anticoag
▁asthma
▁requi
▁bene
▁aort
heric
▁proteins
LV
▁VL
▁thromb
▁pyramidal
contrast
▁metabolism
ceptual
▁drin
▁Afric
▁chole
dent
▁pyram
▁tran
udin
▁RBC
ampl
▁Atropine
▁Pregn
iatric
▁chlor
veolar
ographically
▁antibiotic
athy
▁grading
▁elimination
gression
tering
▁phag
▁ocul
▁systemic
tectable
▁cohorts
vascular
iasis
heum
opia
▁geniculate
leu
▁cholecystectomy
ergic
▁concom
▁markers
▁vaccines
▁predic
ancre
▁fixation
▁palliative
▁fragile
▁causal
phe
ostomy
adication
▁metastases
▁autosomal
gland
▁dilated
▁aerobic
▁confined
▁infections
▁synergistic
ocyte
▁unexplained
▁Alternatively
itro
▁stratification
▁rotational
ctomy
▁PRP
▁evid
aline
fal
▁melan
emia
positive
▁equivocal
▁favourable
angl
▁neurolog
▁HG
dor
ritis
▁discharge
sequent
▁antibodies
▁seb
▁Asp
▁genotype
▁hernia
imin
olysis
▁criter
ighted
teric
▁iliac
▁phenotype
▁unrelated
▁ventilatory
ociation
tic
▁Chronic
▁preferable
menopausal
▁hypot
derly
eric
▁ow
▁hypoxia
onol
▁biom
▁spontaneous
idne
▁Phy
prising
▁IgG
▁microv
▁intraoperative
▁relap
onor
▁melanomas
▁sph
▁routinely
▁bypass
▁amp
opausal
▁Ear
▁preferen
▁catheters
bic
▁cyt
▁latent
▁deform
▁rati
chers
▁drainage
▁linoleic
gia
razole
▁AMP
▁prophylactic
▁endoscop
GV
uccessful
asic
▁tec
▁desm
▁pancreatic
▁ischem
▁surgically
sions
▁infil
feren
ints
▁favorable
▁cerv
▁receptor
sian
spective
▁thromboemb
atitis
entical
aryn
nutrition
▁experim
▁practic
otyp
▁atheros
ystolic
▁follicle
▁cereb
▁placent
▁palsy
▁LDL
▁previ
▁elu
acet
▁amput
loride
▁unexpl
▁undergone
▁adolescents
urys
▁HI
▁intrag
▁molecule
▁thyroid
▁modulate
▁restor
▁nasal
FV
thma
▁highl
▁bronchial
▁provocation
atial
▁gly
▁investigating
▁infarction
▁anastomotic
urgical
Ra
▁doses
▁overlapping
▁cyst
▁streptococcal
▁angi
venth
▁vagal
rone
▁pathogen
▁connective
ogenous
▁ultras
▁Pretreatment
▁concentrations
▁resis
▁therapies
▁radiograph
▁cesarean
vated
helial
▁rigidity
▁therapeutic
▁neurological
▁oxide
▁synerg
▁sequential
▁verte
▁Systolic
▁melatonin
▁perfor
associated
▁enl
▁pancreatitis
▁cardiovascular
▁GV
itic
▁carcinogens
▁COS
romed
jug
▁initiating
ariate
▁skeletal
▁appreciably
▁sequelae
▁diluted
astric
▁inappropriate
KA
▁tumours
▁CI
▁Patient
usp
▁myocardial
▁warr
▁epidemic
iotic
▁hypoxic
Ia
Ki
vac
▁bowel
quit
▁intramuscular
▁physiology
▁amyloidosis
▁inducer
▁hormonal
ithiasis
▁saline
aemic
rox
lux
▁cla
tific
Pa
▁hepat
iosis
▁percutaneous
osom
oagulation
▁reactivation
trast
▁erg
mend
atheter
estions
astatic
▁prel
▁randomized
▁femur
arous
▁sten
▁prognostic
▁stroma
▁pate
▁migrated
reness
▁scanning
MN
▁manipulations
▁appropriately
ucleation
▁bloc
▁epileptic
esting
▁assay
agin
▁amyloid
▁mucos
▁exis
▁remission
▁peri
▁cirrhotic
intestinal
▁alp
tation
▁differentiation
ventional
centr
▁behavioral
ortal
▁confir
▁resonance
▁facilitated
ochem
sia
▁nutritional
CMV
oplasm
▁BMI
▁rash
▁inserts
▁malign
▁juven
jun
▁decreasing
▁responsiveness
AIDS
rents
▁histologic
▁acceleration
▁microm
▁sedation
sible
▁pineal
▁mammography
▁syndromes
physiologic
▁stimulate
▁Bec
mixed
▁extensor
▁margins
▁nodules
▁needles
▁substances
▁dissection
▁tomography
▁exogenous
▁cardiac
▁readings
lated
▁stellate
▁Comparisons
omerular
▁discontinued
▁pharmac
▁stimul
▁supplementation
▁verteb
▁lesions
tec
tual
tel
mental
▁ascertained
▁prostatectomy
stress
atif
igaret
▁exclusion
▁bac
ocar
▁MN
vant
▁Hyp
▁shortened
▁undes
ailure
▁pituitary
kade
ithi
orrh
tors
immun
▁tolerated
▁decreased
amet
▁organisms
▁decisive
ediatric
entanyl
▁underst
▁nec
▁atropine
dia
entif
▁inhibitors
umulative
entan
▁develops
▁sickness
▁depressive
▁reagent
ipolar
iciencies
▁Contrary
▁buc
▁Surgical
▁hospitalization
▁indicators
▁reproducibility
adic
▁circumferen
▁warranted
loid
BW
eared
▁inhibitory
▁SLE
ituitary
MIC
ollicular
enic
▁enhancing
▁tuber
idis
ulae
onad
luent
▁specialty
raine
▁scans
▁labeling
▁examinations
▁Whereas
▁antec
▁receptors
▁corne
aginal
▁Engl
▁evaluations
ioid
sial
▁parame
▁circumference
▁occlusal
▁apop
▁pelvis
clo
tage
TK
▁longitudinal
▁carcinoma
tial
▁abdominal
▁palli
▁pleomorphic
ogra
▁thoracic
▁aden
▁progression
namic
▁statistically
▁striated
sul
▁establ
▁Taken
▁throm
▁mucosa
orac
ialysis
▁scre
DG
▁eluc
▁disparity
▁PEEP
yel
▁Histologic
monstr
mig
tensive
dial
piration
aceous
▁trac
▁HLA
▁embryo
▁adjustments
uin
▁tiss
▁suggestive
▁locus
▁adolescent
pH
▁Comparison
▁tymp
rectomy
▁occurrence
orphic
▁gangl
▁HSV
tical
▁axillary
▁assis
▁Intra
echan
▁microcirc
ecre
▁hepatitis
▁systolic
odialysis
ureth
▁traumatic
idement
▁Multiple
▁fentanyl
quine
▁restric
▁Contr
acil
aventricular
▁laparotomy
asses
reas
▁inadequate
▁DSM
▁venous
▁prophylaxis
tro
▁adenoma
▁Kupffer
ococcus
olenic
▁valu
echanical
zation
▁estrogen
Ds
itant
▁CRP
▁osteoporosis
▁silic
▁anomal
▁oste
▁differentially
▁Increased
athyroid
relations
▁reag
▁GVHD
▁bip
tion
▁hypothyroidism
▁comparisons
itus
jected
▁multim
▁suppressing
▁auditory
tyl
iplin
▁lesion
▁Swed
▁abd
▁aortic
▁rationale
▁Acute
▁lobe
▁vaccin
▁inh
ditions
cutaneous
facial
pation
roin
ustained
▁porcine
▁tox
▁anatomical
▁normo
trimental
▁memb
▁implantation
▁prophyl
▁rhe
tam
atid
▁traum
▁sacr
▁molar
▁dex
tead
▁somat
▁PAS
▁umb
thle
▁carriers
▁apex
iliac
erine
idney
▁counseling
Phe
itone
ronch
▁linole
trop
▁reduc
▁unclear
▁contaminated
▁metabolic
erin
▁discomfort
rati
▁defic
▁plaque
roma
▁cystic
LF
cus
▁superficial
ogens
▁ischemic
alsy
▁umbilical
ceptive
▁simultaneous
▁tib
▁adaptive
▁chloride
▁PB
▁elevated
▁insertions
▁linkages
icine
▁lymph
▁dosing
ration
▁SNP
tomy
▁speculated
PAP
▁septum
▁Cyt
arate
tens
▁cardi
▁embry
▁acyclovir
kely
▁mono
▁Patients
▁limbs
▁atmosp
▁familial
▁periodontal
IIIa
▁overweight
▁VC
economic
▁conceptual
▁arter
▁radiological
odon
▁vulnerability
mented
occus
▁inhibin
▁RP
opathological
tive
▁pathogenesis
▁synov
loro
▁monit
imens
▁adequ
▁ESR
legia
iminary
▁fatigue
▁wee
▁graft
▁hemorrhagic
▁poten
ostat
▁amputation
▁maternal
▁MEP
▁interacted
alp
asal
responding
▁amines
ducts
▁heterogene
▁UL
sue
▁enrol
▁instability
▁manifestations
▁multic
eliac
▁immature
ocytes
▁LF
ture
cele
▁muscul
ACS
alian
omies
▁thrombo
orative
perfusion
▁variants
▁undertaken
noise
ctive
Hb
oung
▁complementary
transplantation
▁phagocytic
vation
ayed
▁infar
▁CABG
▁biopsies
▁RAR
▁fluor
▁facilit
▁Continu
▁vein
ropine
ivoc
▁psychiatric
▁chor
▁deficiencies
onin
erally
▁implic
omat
▁adequately
▁seizures
▁gallbladder
▁divertic
▁chemotactic
▁validity
▁spikes
▁dislocation
kele
odynamic
enhanced
▁tris
▁kidney
▁lithotrip
▁demonstrates
▁wors
clerosis
oplast
▁acidosis
ece
▁OC
▁sepsis
▁consolidation
ignific
ervations
risk
trib
filtration
▁arthritis
▁fetal
▁milieu
tact
▁clinically
▁adhe
▁sciatic
▁pediatric
▁Increas
▁TGF
▁thrombolysis
mTc
▁benign
▁Accordingly
▁mec
▁alteration
▁intercostal
▁sampl
