▁decreased
▁Treatment
▁infants
▁trauma
▁diseases
▁perceived
▁socioeconomic
▁specificity
▁thyroid
▁reviewed
therapy
▁laboratory
▁feeding
▁gestational
▁mmHg
▁ovarian
▁amputation
▁cTnI
▁symptom
▁valve
▁aneurysm
▁lesions
▁pelvic
▁vaccination
▁necrosis
▁maternal
▁stenosis
▁recurrent
▁graft
▁creatine
▁uptake
▁anticoagulation
▁attending
▁LOS
▁mutation
▁cohort
▁syndrome
▁therapy
▁secretion
▁abdominal
▁eligible
▁trend
▁receptor
▁inflammatory
transplantation
▁fentanyl
▁metastases
▁myomas
▁deformity
▁morbidity
▁hypertension
▁demographics
▁spontaneous
▁relapse
▁pregnancy
▁saline
differentiated
▁dose
▁fixation
▁prognostic
▁surgical
▁resection
▁needle
▁vitamin
▁infusion
▁interventions
▁tertiary
▁renal
▁rectal
▁incidence
▁gastric
▁admissions
▁imaging
▁guidelines
▁mortality
creatine
▁tumor
▁carotid
▁transfusion
▁chemotherapy
▁intraoperative
▁Doppler
▁disorders
▁artery
▁differentiated
▁ethnic
▁sensitivity
rectal
▁mild
▁aortic
▁clinic
▁symptomatic
▁assessment
▁discharge
▁prevention
▁pregnant
▁infections
▁transplantation
▁headache
▁vaginal
▁venous
▁perfusion
▁initiation
▁axillary
▁rats
▁hCG
▁remission
▁diet
▁medication
▁tissue
▁reperfusion
▁mothers
▁injuries
▁screening
▁nursing
▁Scale
▁specimens
▁VAS
▁enteral
▁Patients
▁questionnaire
▁leukocyte
▁coronary
▁exposure
genes
▁providers
▁ventricular
▁retrospective
▁biopsy
▁reflux
▁contralateral
▁scans
▁radiotherapy
▁bleeding
▁physician
▁chronic
▁gestation
▁centers
▁intravenous
▁appendicitis
▁pulmonary
▁tumours
▁mucosa
▁Compared
▁moderate
▁facial
▁lymph
▁diabetic
gastric
▁fetal
▁vascular
▁gluten
▁cholecystectomy
▁atrial
▁questionnaires
▁outcomes
▁bypass
▁concentrations
▁prevalence
▁pressures
thyroid
▁oral
▁ischemic
▁healing
▁Median
▁complication
▁gastrointestinal
▁insertion
▁baseline
▁spinal
▁adjustment
symptom
▁intervention
▁Overall
▁epinephrine
vascular
▁carcinoma
▁severity
▁metastatic
▁logistic
▁odds
▁hypertensive
▁isolates
carcinoma
▁onset
▁deprivation
▁knee
▁hormone
▁smoking
▁genes
▁complications
▁pyloric
▁findings
▁Medicare
▁tube
▁bronchiectasis
▁fractures
▁preoperative
▁multivariate
symptomatic
▁adults
▁influenza
▁acute
▁surgery
▁patella
▁metformin
▁symptoms
adequate
▁palsy
▁residency
▁survival
▁acupuncture
▁examination
▁plasma
▁therapeutic
▁peripheral
▁disorder
▁alcohol
▁insulin
▁angiography
▁fracture
▁mice
▁Retrospective
▁vaccine
morbidity
▁asthma
▁tumour
▁postoperative
▁metastasis
▁antibiotics
▁demographic
▁Clinical
▁intensive
▁serum
▁lesion
▁atrophy
▁biochemical
▁examinations
▁arterial
▁admission
▁laparoscopic
▁invasive
▁neonatal
▁kidney
▁ischemia
▁cardiac
▁clinics
▁ultrasound
▁physicians
▁practitioner
▁urine
▁wound
▁adenocarcinoma
▁adequate
▁insurance
▁radiographs
▁diagnosed
▁bilateral
▁limb
stenosis
▁classified
▁diagnosis
▁predictive
▁prostate
▁pulse
▁systolic
▁liver
▁prospective
▁ratios
▁tomography
▁examined
▁elevated
▁glucose
▁deaths
venous
▁urinary
▁resonance
▁diabetes
▁bone
▁obese
perfusion
▁PET
▁emotional
▁emergency
▁parotid
▁adjusted
▁obesity
▁gland
▁recurrence
▁depression
▁ward
▁pancreas
▁inflammation
▁placebo
▁drugs
▁clinical
menopausal
▁investigated
▁muscle
▁cardiovascular
▁airway
▁screw
adjusted
▁hospitalization
▁elderly
▁ventilation
▁schizophrenia
▁infection
▁tumors
▁menopausal
▁professionals
▁bowel
▁Patient
▁awareness
▁sectional
▁cancers
▁cervical
▁Cox
▁respondents
