▁substrates
adm
mend
▁inapp
gluc
▁biochemistry
▁reac
ocyt
feron
▁heavier
▁assurance
▁homogen
tained
▁Magnetic
▁microscopic
▁endot
ureus
entists
hesive
sial
ecu
onor
▁fragile
▁thromboemb
orin
▁progression
▁births
orax
▁preservation
▁tracers
▁brom
▁regar
▁lactate
▁Medicare
▁49
▁aureus
▁radiological
tection
lateral
▁hybridization
▁basal
.8%
▁monke
oplastic
▁cardiac
▁pathologic
osomes
▁mice
▁resistant
▁multic
emia
▁(12
coh
▁abdominal
2+-
▁collec
▁possi
fine
▁underg
▁mec
alanine
▁phag
▁interf
▁Addition
▁scanning
▁advancement
mediated
▁utilization
▁pT
▁ketamine
effec
ectomized
▁transcription
▁overlaps
▁effec
benz
▁rati
▁preventive
terminal
▁pulmonary
▁yr
▁filtration
▁2
/6
ucle
▁exacerb
▁monoclonal
olism
eptin
omical
cephal
▁gallbladder
▁AIDS
▁cohort
▁injec
▁combin
▁Trial
dehyde
▁individualized
▁20%
▁deform
bic
▁44
▁suggestive
▁prevalence
▁myocardium
▁deple
▁perone
▁irradi
▁400
▁localization
odynamic
▁deterior
orepinephrine
guided
▁anomal
cutaneous
plasia
planted
duced
othermic
▁sperm
▁facilitated
independent
tub
▁VL
idated
▁multifactorial
athy
▁(54
▁hydrophobic
▁melan
▁staging
▁tamoxifen
▁neoplas
▁respondents
itally
diol
▁endothelial
cine
evaluation
▁spati
idement
▁(7
econd
onin
SPECT
onuclear
▁discern
sors
▁BV
ostat
▁methyl
hea
▁prolonged
▁compressed
▁propensity
▁heavi
▁10,
▁suppres
orbol
phyl
▁Neu
estion
ronch
neumon
ondr
▁abolished
▁histological
hospital
▁undo
▁ips
▁lipid
▁ACL
veolar
▁deterioration
▁recipients
▁avascular
▁GFR
trum
▁polym
tec
thyl
▁CRP
farct
▁Whereas
▁ultras
▁endothelin
▁microscop
urrent
▁symptom
▁carriers
▁adverse
eal
▁donors
virus
kage
5,
▁(10(
7-
▁indomethacin
▁cytotoxic
-1)
▁socioeconomic
eared
▁decreases
▁kidney
▁endoscopy
vely
.2%)
.8
▁muta
▁11
▁12
▁adminis
▁polymerase
xiety
leu
▁GBS
▁isoproterenol
▁identifies
iatum
6%
▁ASA
▁HCMV
▁Percutaneous
entif
pecific
▁somatic
▁colloid
ensitivity
▁monitored
-12
oglyc
▁consecu
▁vegetable
▁juven
▁proliferation
▁homogeneous
▁nuclei
▁(2)
▁eosinophil
▁transcripts
-450
adiol
iplin
-4-
▁glomer
alsy
▁transi
▁70%
▁coh
▁esophageal
▁supernat
versity
▁actu
▁masked
▁38
▁quin
HB
responder
▁cleavage
▁serum
▁emphasizes
▁enlarged
▁adequately
▁disapp
▁polymorph
▁estradiol
▁Lys
▁radiographic
▁sulfate
esic
ociated
ucleation
-7
▁cartil
ths
gans
plantation
eces
otent
▁brady
▁Histologic
▁blockade
earance
▁assemb
acrylamide
diagnosed
umulation
▁digestion
omiting
uria
▁defic
▁coronary
▁reacted
▁molec
cAMP
ilical
▁phagocy
▁0.4
▁challen
▁embryo
▁locus
ourable
lobin
▁deletion
▁obser
PV
▁spikes
esium
▁depolarization
▁predictor
▁serotonin
▁catalytic
▁wk
▁heroin
sul
▁Operative
thre
MRI
▁immig
cysteine
▁radiograph
▁Mg
▁ech
iol
inephrine
▁expres
▁topographic
▁1
imin
▁correlations
▁cystic
▁erythrocy
▁causal
▁identif
56
▁contraction
▁8.
▁discom
▁eyel
▁fibers
▁secreted
years
▁VC
ochem
▁selectively
0%
▁stu
tens
▁annulus
▁conceptual
LH
nutrition
entricular
▁inflammatory
umbar
ymp
▁Physicians
▁linkages
vity
-100
▁ablation
▁promoter
▁fibr
heum
▁drin
reased
29
oplas
▁fetus
▁gradi
▁(15
▁bronch
▁biopsy
gland
57
▁Medicaid
oyl
▁epithelial
▁supplementation
▁1.6%
▁receptor
▁organisms
-19
▁cyto
▁effic
raine
▁unexpl
▁subsp
2%)
crip
tryp
lasting
▁6
▁physiological
onucle
lapping
consuming
▁fluorescent
▁clinics
▁athle
▁studi
yro
▁ceased
▁thromb
ancement
▁chromat
▁4-
▁inadequ
▁disrup
▁mumol
tics
itamin
odial
▁murine
tach
▁excretion
▁sph
▁currents
▁radioactivity
▁80
atitis
▁angina
eric
▁perfused
▁TK
▁adolescence
mL
▁uremia
▁(3
MH
enia
hers
olesterol
resses
▁debr
▁Blockade
▁Tran
ocarcinoma
7)
genesis
4.
▁manifestations
▁symp
illic
▁corne
▁lec
saturated
▁40%
Tn
▁tracer
▁mutants
▁capillary
▁empir
▁palsy
-8
▁MEP
tural
▁amino
▁recurrence
lytic
rals
tus
▁rats
▁16
▁radiol
▁hamster
▁28
▁intake
▁Biochemical
▁enzym
▁vena
▁PCT
hion
▁7.
▁cytoplasmic
▁tyrosine
▁endoscopic
23
oplast
trip
▁transcriptional
mented
▁acids
▁metabolite
▁expressing
▁angiography
▁shorten
▁bacterial
lix
ometh
▁bir
▁worsened
▁prednisone
vice
▁guinea
omies
▁Hb
▁exogenous
EG
▁eti
▁0.05),
effectiveness
▁[3
▁grouped
▁subtype
▁mono
grees
Cer
IU
Ia
▁ane
ureth
▁pedig
glut
▁longitudinal
▁mann
▁scoliosis
hyd
tures
blast
▁Km
▁monol
▁donor
asal
▁Pregn
48
▁soy
phrine
▁27
▁immunofluores
▁infec
▁menopausal
phic
▁osteoporotic
▁Hg
▁clearance
uting
ressive
osomal
▁ADP
okine
▁14
hydroxy
125
▁resec
▁onset
▁previ
echn
encephal
ileptic
unced
▁palliative
▁agonists
lys
▁10(
MV
▁unexplained
▁mRNA
▁adaptive
affected
fir
▁dialysis
▁targe
▁assessments
▁isot
▁ventral
▁muscul
▁uncontrolled
▁graf
▁cardi
otoxin
aryngeal
ensory
race
▁circumferen
▁HM
▁macropha
ocul
tality
ognition
mia
rates
▁carcin
hyde
▁adren
▁occupational
▁oils
ucine
orectal
▁TRH
ipient
▁follic
▁prospectively
ejun
rele
00
0-
▁concom
▁cann
ginine
roscop
ometr
bac
▁subunits
▁chlor
▁differenti
▁epit
utroph
TG
▁ions
transferase
▁disks
urse
▁hypothalamus
▁antigen
OA
▁mmol
▁implic
ergency
ritish
▁renin
▁appreciably
▁resusc
▁conservatively
vul
▁kerat
▁unilateral
▁trough
pecially
▁UL
meth
▁bronchial
▁catheters
zation
risk
▁200
▁1)
▁renal
tence
▁pene
,000
▁restric
▁eosin
oside
▁bloc
amate
2),
▁stroma
atheter
▁residues
ubted
▁vaginal
omycin
▁surgically
estive
amines
▁inversely
▁advisable
▁64
▁Previous
▁wors
ullary
acin
▁correlates
▁embryos
tif
▁oligo
▁crest
▁Greater
cis
▁reactivation
▁cytoplasm
▁Concomitant
▁preclude
▁allo
▁bic
▁polymorphism
-0
throm
▁immature
graftment
▁Ear
▁prol
lobulin
esthe
▁somatostatin
▁pS
▁unrelated
rological
embrane
Pa
▁complexes
luent
eptides
onstric
▁nmol
▁metoclopramide
▁cirrhotic
acyl
6,
eptid
▁lys
scher
elec
oxif
ulose
imination
treated
ophil
▁PCP
ximum
▁undergo
▁cancers
▁supple
opathy
▁iod
ffin
ialysis
leukin
▁tertiary
▁erg
▁amyloid
▁cyst
▁125
carb
69
▁perinatal
TNF
▁appendicitis
▁acqui
▁Alternatively
▁ischemic
▁potenti
ymptom
▁PAN
ineal
▁cortical
▁Clinical
▁residue
▁neurolog
▁granul
olone
rever
▁BAL
omat
▁discomfort
▁residual
▁panc
▁transfusion
▁readings
gia
tic
ranolol
abain
▁rabbit
▁32
Cu
assi
anic
▁vancomycin
▁propranolol
tib
▁15
▁behavioural
vival
chol
lysis
▁hygiene
▁followup
legia
▁assayed
▁sulfonyl
ficial
physiologic
▁antagonists
▁100%
▁ACE
▁NK
BK
/3
▁ultrasound
phosphonate
ithin
▁IA
eration
▁impairment
▁ultrason
▁fibroblasts
▁cerv
kines
cardi
▁depletion
▁acute
▁infants
▁systolic
▁prono
5%
▁supervision
▁unin
▁hypertrophied
▁prophyl
erin
▁contamin
erb
▁variability
alian
▁scre
aneously
clonal
▁toxicity
▁acidosis
▁CSA
▁severity
▁physiology
rotic
▁cava
etus
▁AMP
▁amo
ectomy
▁aspiration
gic
pendent
renol
▁buc
iferol
▁provid
athione
plas
▁alveolar
-1.
▁defec
lead
▁toxin
stim
stress
▁sple
terase
▁tumors
▁chorio
▁cumulative
20
ophilic
istrib
▁acupuncture
acr
▁torsion
▁2.
▁reactive
ellar
▁implantable
▁tumours
▁skeletal
▁Delayed
tituted
tabl
▁uncom
phasic
▁autoimmune
quit
illin
▁4
▁uncomplicated
▁Failure
titial
▁favourable
aluation
natal
▁cytochrome
▁attenu
▁85%
▁30%
▁alk
opsy
.3
Ra
hering
▁trophoblastic
▁30
pig
atab
sulf
entanyl
▁202
phosph
odon
▁adhesive
obl
▁micros
▁sucrose
▁Doppler
▁lar
▁13
▁compe
erican
▁promin
▁investigations
-1,
▁anaesthe
▁suscepti
sian
igel
▁vesic
▁enucleation
▁Chest
▁prostatectomy
nai
▁cereb
ilic
▁Considering
▁ESR
▁sympathetic
▁adenocarcinoma
rogenase
▁discordant
▁10%
▁hypothalamic
phosphate
erop
▁0.0
positive
▁Hyp
▁suture
▁multiv
adherent
▁putative
lore
▁Swed
▁inhibit
onset
itic
▁margins
▁pharmac
▁instability
▁Increased
itone
▁NaCl
lux
lastic
▁FV
▁systemic
resistant
odynam
▁SLE
▁antigenic
threatening
▁19%
▁ovarian
ocaine
▁extracellular
27
oru
uin
▁concurrently
▁33
erum
lycer
▁acetyl
▁widening
-3
tral
-5)
▁19-9
rae
▁grafts
etal
▁microvascular
▁perfor
▁sedentary
▁depar
▁ow
ept
▁phosphor
▁circumference
ults
atical
iciently
▁monit
▁deformity
▁nM
▁1,25
tolerated
▁57
▁smo
identical
osition
tisol
certain
anin
-67
▁coexistence
▁interleukin
ocular
▁Nine
▁acetate
44
▁(20
▁immun
crib
▁saturation
▁asthma
astolic
▁colorectal
40
lyc
▁labeling
▁lymphoma
▁retrospective
▁adjustment
regn
▁disappearance
▁ranged
▁glomerular
opha
severe
▁FD
50
ionic
tinu
trib
urine
uality
▁NH
roxim
▁statis
▁MRC
▁resonance
otor
▁vascular
▁2.0
onium
▁peri
tiveness
▁imaging
CoA
diagn
ATP
▁lobectomy
▁cue
▁iso
▁connective
▁CSF
clo
▁RP
tility
▁predominant
versely
bral
trative
9%
Phe
▁thi
asic
acental
▁operative
▁Contr
▁phosphatid
rocy
MDA
▁tib
▁Ara
▁resection
CSF
erance
oclonal
▁discharge
0%,
itro
trogen
umulative
gents
1-3
▁indicators
▁25%
itoneal
▁7
idation
ospor
ections
▁pituitary
▁thickening
▁fibronectin
▁agon
▁laparoscopy
▁reflec
▁pretreatment
▁poten
▁neurological
▁differing
▁extracts
▁enl
▁cannulae
▁pancreatic
enic
▁desm
▁analyses
tox
]-
▁evaluations
▁anesthe
▁polyethylene
▁comprehen
▁collateral
▁poisoning
75
cus
▁sclerosis
trition
▁elucidate
atoid
ocortic
▁duct
▁atresia
▁pter
▁2.5
▁systematically
▁tetr
▁phagocytic
▁biom
▁complementary
▁endarterectomy
eliac
▁consol
lact
▁spon
▁500
▁oss
▁reductions
▁86
▁Plasma
▁irradiated
▁morphine
▁carbox
▁stimulation
taken
▁anesthesia
▁disparate
odies
▁immunological
22
▁gradients
▁cAMP
90
▁microc
orrhagic
46
▁endometr
▁permeability
uran
▁Emergency
▁resear
ophageal
morph
centr
operatively
▁inducer
▁hospitalized
.5%
▁inactive
▁insulin
LDL
atient
▁benign
▁transient
▁tric
went
▁sten
▁kidne
▁amputation
▁distal
▁AMI
phosphor
lyce
88
tition
▁diagnoses
▁26
▁repro
▁estimating
ylate
▁radioimmuno
.9
▁mammalian
▁complication
▁phospholip
▁IBD
▁mitochondria
▁melanomas
lowering
▁streptococci
▁elicited
-2,
▁outpatient
▁nosocomial
monary
heal
ographically
▁microm
▁Immun
ubtedly
sus
▁lax
▁needles
▁caro
ncy
/-
erence
▁85
oic
▁enzymatic
▁progres
▁endoscop
▁metabolites
▁lectin
▁reproducibility
▁synchronous
▁referrals
acetyl
utions
thase
oceptor
tel
▁mitochondr
▁cyclase
lue
▁MHC
▁leuk
▁gon
MIC
▁protoc
▁discrimin
▁palli
echan
invasive
▁oxidation
genic
▁gait
irrh
▁substanti
▁nm
▁comparisons
▁LS
oidal
▁Steady
ochrome
uted
osin
▁isch
-2-
▁obesity
65
▁compartment
ogens
▁tas
▁splenectomy
urgical
blind
▁lymphadenectomy
▁proce
▁2,
▁bowel
oplasmic
▁retinal
▁mammography
▁adenocarcin
▁glands
▁dete
▁0.01).
estig
ifed
▁atmosp
▁transplantation
▁preven
▁cation
vents
▁antic
21
▁specialty
▁exo
▁apical
▁noncom
▁diabetic
1%
▁CG
▁50
rotid
▁Elec
▁respiratory
tingu
▁thrombolysis
hips
inic
▁selec
▁concordance
tact
▁oxygenation
▁Throm
valent
nee
iological
▁Regarding
▁Severe
▁afferent
▁31-
▁arrhy
▁LD
▁RB
inj
▁arter
perfusion
▁myosin
▁7%
0.5
▁stratification
▁mucosa
oxin
ionine
utin
▁biopsies
▁bedside
▁LV
▁sut
ithi
▁lithotripsy
oxia
-3-
▁metastases
▁laparoscopic
aceous
protein
▁minerals
▁initiating
reness
lood
▁markers
▁tryp
onc
trexone
▁progressively
▁inhibitors
▁IGF
▁dors
▁developmental
▁overlying
otypic
▁21
▁40
clinical
▁natri
▁multim
▁0.2
▁conductance
▁physi
pir
-60
▁dodecyl
▁neurop
▁coeliac
ventricular
▁predicting
▁Taken
urys
▁hemodialysis
▁CMV
▁questionnai
eclampsia
▁onc
oxygenase
acchar
▁pH
▁PGE
▁nucleotides
▁chemotactic
▁Ras
tention
▁phosphatase
▁interferon
unctions
▁cholinergic
▁Increas
▁Serum
olip
▁gynec
▁72
▁bran
▁laboratories
▁Bec
▁dosage
Hg
▁melatonin
▁55
▁TB
▁septum
▁OC
▁mandibular
▁ICS
▁inhibits
▁DST
▁0.03
idate
orption
▁aorta
▁recor
opressin
stab
achid
terone
▁continence
▁appendic
▁phospholipid
▁vaccines
▁musculoskeletal
-9,
ectin
pine
▁chloro
▁homogeneity
▁neon
OH
Tu
ibi
▁0
▁DF
atectomy
▁adenoma
12.
▁1.9
imens
▁shortened
▁rectal
▁relap
▁Thirty
▁pregnancies
67
trol
gative
▁trac
▁LC
roma
▁assessing
ticular
▁kinase
▁carbohydrate
▁contex
▁3,
tivity
vant
astom
▁distin
▁thrombin
▁gland
▁phospholipids
▁3)
▁flexion
chym
essel
▁migrated
romes
sorption
physiological
tero
▁positively
▁glycos
ecyl
▁indetermin
▁1:
▁ATPase
▁progen
▁tibial
▁intrauterine
▁ganglion
▁induction
▁reversed
AO
▁acceleration
▁colonization
▁hippocamp
▁coel
▁metastasis
8-
ovirus
▁abnormalities
▁glucocortic
▁phospholipase
▁immunomod
▁establ
ocarcin
▁aerob
rophyl
onate
▁suppressed
▁correlate
▁intensive
ducts
▁overlapping
▁phe
▁statistically
▁prophylaxis
hei
iability
stem
othelial
▁95%
▁apo
▁newborn
uccessful
inositol
▁anat
▁differentiate
embran
▁antisera
▁chan
▁neurones
oxide
agic
▁preparations
▁thyroid
crimin
.7
▁surrogate
kade
4-
▁haemorrh
▁ischemia
lesion
▁hemat
ration
▁caud
tory
▁ambient
▁umb
erper
▁allergic
teric
esity
till
tur
urther
▁microsomes
▁NPC
▁51
▁bolus
ulmonary
mol
anthine
▁microscopy
▁1.5
▁efflux
onyl
ertion
olytic
▁surrog
▁ile
▁rhe
▁cytos
▁correlated
aminated
▁antibiotic
▁purified
▁linoleic
fos
iary
▁nec
atid
▁10
orphism
inergic
atrial
otomy
7.
▁compounds
encl
▁sphincter
▁exclusion
facial
erving
▁paradigm
▁conduc
Ly
▁contral
▁yiel
▁elic
▁Rout
▁polyclonal
▁34
▁precursor
▁postmenopausal
▁3
inally
ffer
▁FS
▁eluc
▁cholecystectomy
▁membrane
▁RAR
APC
▁leu
mittent
obacter
▁numb
▁mediation
LN
▁vulnerability
▁stimul
▁9
▁recombinant
entan
▁GH
▁nitro
ochemistry
▁lithotrip
▁restenosis
vac
siological
▁follicle
oagulation
▁rheumatoid
▁histamine
▁newborns
▁oxide
▁exis
▁tumor
▁viruses
▁progn
▁HLA
▁dilated
erine
glucose
▁strains
urethral
▁predicts
▁sickness
▁PRP
▁eradication
activation
▁astro
seud
▁tach
▁6.
transplantation
lier
▁perfusion
▁anesthetized
-4
▁antiser
▁peroneal
Ki
rogra
▁immunohist
▁antagon
luded
▁airway
3%
▁recurrent
oxidation
▁unevent
▁3.5
▁acyclovir
▁electrophoresis
trin
▁examinations
▁facilit
osyl
▁unrel
▁thal
▁biochemical
▁oro
▁plasmin
osom
Tc
tors
▁sti
▁prevalent
▁cen
▁androgen
▁hepar
▁elevation
ivoc
▁mucos
olones
ofluores
▁cuff
▁hydroly
▁amyloidosis
▁0.05).
▁tox
BW
▁melanoma
isqu
rine
▁triglycer
LISA
2)
▁modestly
▁pneumon
▁depres
edle
prising
otox
▁ischem
▁MBC
▁fluor
▁behavioral
▁0.6
entary
▁plaque
▁4,
tific
▁theore
▁SCH
▁seropositivity
ronectin
▁laparotomy
▁synovial
▁platelets
▁binds
mediately
roximately
▁(0.
▁implant
▁adenylate
▁phy
cepti
▁consequently
enzyme
▁practic
orotic
▁spontaneously
10
▁53
▁unil
▁iatrogenic
1).
▁appropriately
▁heparin
▁definitive
odal
rophy
▁devi
erals
▁quantit
▁versa
▁urinary
▁scin
▁canc
▁Contrary
▁referral
▁lesion
▁VD
▁judged
▁PB
iliac
iosis
▁gestation
)2
▁infarction
▁pathologically
▁Hz
▁catheter
esia
idase
▁0.01)
erable
▁deli
▁opioid
▁episodic
▁ACTH
▁scintigraphy
ilization
▁43
cele
▁consultations
▁underestimated
▁pharmacy
▁lipoprotein
▁glycoprotein
▁tomography
▁ester
▁synergistic
vated
▁synerg
ompan
▁peptide
iae
▁porcine
▁hep
▁inters
▁counteract
▁prostatic
▁omitted
▁circulating
▁satur
▁limb
undibular
.3%
ronchial
▁manu
iferation
▁repor
▁maternal
▁contrac
inol
▁vesicles
▁DSM
derived
▁enrolled
▁resemb
clerosis
tectable
▁segmental
▁dorsal
tured
▁reversible
▁thymus
uppres
ellular
▁48
trop
▁Hep
▁nucleus
oleic
▁reagents
glutinin
▁chemot
▁scl
tension
▁streptococcal
LU
▁UTI
▁stained
▁acetylcholine
oxid
▁develops
owever
▁ossification
aginal
▁mutant
atase
ocusing
oag
▁41
▁enteral
▁OA
sions
▁(3)
▁ratios
▁concomitant
vaginal
▁intragastric
aturation
▁colonoscopy
atural
▁occlusal
stro
etitive
cyst
▁doses
60
arate
▁familial
▁undoubtedly
▁31
▁evacuation
▁comparative
ochondr
tration
▁lobe
▁intercostal
▁potentials
osts
▁rigidity
icin
rowth
-5
▁NP
▁perc
xia
▁feasibility
din
▁insufficient
bladder
DH
▁modulates
▁usefulness
▁debridement
▁sensi
onad
ineph
ustif
comitant
▁Compared
jejun
immuno
▁occlusion
▁inh
uble
▁synthesis
▁immunodef
▁histologic
▁opi
ortal
▁intestine
sies
▁labelled
apeutic
▁naltrexone
▁deficits
ococci
tent
bly
85
▁hypoxia
▁resour
itus
ailure
sive
▁phosph
▁norepinephrine
▁plasmid
▁HU
▁contaminated
monstr
ropine
omotor
▁ultim
▁perox
▁valve
gment
ecre
atonin
▁fri
▁evoked
ulcer
▁pate
▁utero
orative
▁biop
mig
otom
▁intrag
ximal
dle
▁isolates
▁insufficiency
reported
▁MN
▁metabol
ystolic
▁pyramidal
▁overe
▁trophob
▁precur
▁5%
▁neutrophils
▁epinephrine
▁unresectable
isture
ece
ichia
modulin
tam
▁injections
minis
9,
dia
▁acet
▁unaffected
radi
▁cholesterol
BV
▁reag
athyroid
▁intra
▁schizophrenia
alues
ostatin
▁hipp
19
▁pathway
loid
▁stimuli
▁interacted
▁inhibin
5.
▁thre
opathological
5-
▁testosterone
▁thromboembolic
▁defects
▁polypeptide
oproterenol
▁advan
▁sham
▁confir
▁chor
▁IB
▁etiology
formin
▁transurethral
yroid
▁inappropriate
ysm
▁salivary
▁predominantly
tization
▁mitral
2%
regulation
▁stimulated
ropriately
▁clinicians
ifedipine
ropha
▁chemo
▁hemoglobin
▁pressures
▁reper
▁AGE
▁TA
▁exchan
18
▁neutrophil
▁assays
omatic
▁EMS
andard
athe
Hu
▁cirrh
▁NB
▁satis
▁myocardi
▁chori
▁VE
▁consolidation
▁Alter
▁lymphocytes
▁nonc
ivation
▁201
▁cataly
▁CPAP
glyc
▁hypoth
▁0.000
▁aldosterone
▁substitu
ithm
▁organs
3)
▁infil
▁implicate
▁haem
▁tubular
▁evol
▁199
▁upstream
▁ultrasonography
▁multicenter
▁atres
▁elec
▁ach
namic
▁hypothe
ventional
▁nal
▁definite
Fs
ventive
▁pall
▁embry
▁desirable
▁emerg
oxygen
▁implanted
dies
▁sequential
▁47
antial
▁ventric
▁susceptibility
▁25
activated
▁epi
hig
DG
anyl
▁ascertained
▁mell
▁aggregation
onography
▁repaired
sensitive
▁occurrence
▁70
utaneous
▁gangl
opi
osome
ectomies
▁cardio
▁excre
terol
▁turnover
▁indications
▁chl
▁nutritional
▁pyr
▁bladder
▁reliably
▁deficiencies
-2
▁scans
▁0.3
phth
5)
▁compart
▁silic
rents
▁Effective
dent
▁specificity
roin
vertebral
▁2)
▁1,
▁macrophages
atine
gmental
uncture
▁abnormal
▁pathogenesis
sible
▁decisive
▁infiltration
▁biliary
▁prescrib
▁(1)
▁lute
▁IVF
▁microgram
assay
1-
bacco
illation
▁reflecting
▁cyt
8)
onatal
▁phenotype
▁proliferative
▁ure
▁5-
affinity
▁TPA
oradi
▁hypothal
ulae
▁objec
▁analysed
▁(2
enol
▁15%
dic
8,
▁ventilation
▁protease
▁olig
▁carcinoma
▁shif
▁hepatocytes
otroph
▁Preoperative
▁quantif
attern
apeu
hydrox
tophan
▁differentially
otropin
▁incidence
▁predictors
▁persist
▁inser
▁-0.5
▁glu
▁morb
▁swelling
▁eliciting
onol
▁adhesions
▁tumour
rected
▁56
▁pathological
▁3.
▁superoxide
▁alve
▁propor
▁42
▁Surgery
essive
olenic
▁loosening
▁excision
▁eosinophilic
▁NADP
▁Thromb
oten
▁traumatic
▁disparity
▁glutamate
▁5.
▁irradiation
▁diets
▁synthase
▁algor
▁retention
ffinity
illary
▁physicians
▁detectable
teroids
inhib
▁SHR
▁ovari
enzymatic
tive
▁accumulation
▁rejection
tries
▁preferen
▁TBI
▁uterine
▁CAM
▁Fc
1.
▁uter
ochemical
▁equivocal
▁4)
accharide
4+
xual
▁regis
▁HI
cold
▁transcrip
▁overestimated
FH
▁premature
▁ket
fts
▁markedly
IIIa
alp
▁inges
trast
▁ELISA
▁rabb
▁Atropine
mature
25
uvate
aventricular
▁receptors
▁diminished
▁carotid
▁vein
▁resected
▁geriatric
▁60%
lym
▁unex
▁hemorrhagic
lob
▁psychotropic
▁extraction
quine
rox
▁counseling
.1
▁genomic
▁Patient
▁substances
astric
▁adenosine
ofol
▁parotid
▁discus
helin
31
▁Treatment
▁phosphatidyl
▁mortality
▁insuff
▁equilibr
▁inflammation
▁retur
▁remission
PAP
▁rebound
▁pancre
▁plantar
renal
▁Comparisons
▁(100
▁cadaver
▁deficit
▁birthweight
itance
LB
▁atherosclerosis
razole
▁removes
omedullary
▁homology
▁oxid
▁progestin
▁correcting
oskeletal
▁adolescent
▁microcirc
NB
mixed
▁sampl
▁trache
udin
▁plur
▁HC
▁efficacy
0,
▁morphological
▁kb
rehen
containing
.2
▁Muc
helial
▁endarte
▁physici
6)
76
▁8-
▁HG
gely
▁ADH
▁cholest
▁4.
▁BMI
nthe
ergy
▁chole
▁rationale
▁lamin
▁hepatitis
▁ejection
▁6,
spectively
agal
uscular
▁depressive
erative
▁practitioners
▁HB
(5
▁toge
▁inositol
▁polypeptides
▁Tum
ivocal
▁vitro
ylamide
▁dislocation
injured
▁cortex
▁myo
▁collagen
▁thym
▁differen
%),
phen
▁preoperative
▁alcoh
▁subjected
▁depolar
▁postoperatively
▁inoc
▁influx
jected
▁exer
▁oste
▁MV
▁PMN
ivary
gulation
▁FSH
ylated
▁unselected
uterine
▁anastomosis
rectomy
▁transpor
▁impair
▁hetero
▁membran
▁gad
fron
▁monocytes
▁6-
▁superficial
▁ventricular
▁prostaglandin
▁hepatic
▁seroton
▁PEG
▁paren
▁schiz
▁arachid
alact
▁urea
glycerol
▁17
pyr
▁5'-
▁59
▁retin
▁randomized
▁Kup
▁hypertensive
▁chromatography
▁ppm
▁pathways
oscopic
Ts
NH
▁mitochondrial
rone
▁insertions
epam
▁sequel
LF
tum
▁spi
elan
▁0.05
▁CNS
agin
CRP
▁cardiomy
tradiol
▁saturated
▁epitopes
tructural
hyp
▁plasm
▁fetal
▁empirical
54
taining
▁follicular
echanical
▁(14
trac
bloc
▁psychosocial
gene
▁rehabilitation
▁increas
tance
tric
▁37
▁junction
▁HDL
▁derivatives
▁Chronic
▁ANP
▁morphologic
osterone
adder
▁IgM
▁calcification
▁confined
▁epitope
▁embryonic
▁Adverse
adication
ilibr
vices
genital
▁LPS
ewish
omers
immune
associated
▁memb
▁biosynthesis
▁subgroup
▁tes
▁cerebral
erad
▁PAF
employ
erent
▁MRI
urin
▁herpes
▁seizures
%).
▁pathologists
▁heterogene
atest
▁prosthe
duce
▁dentists
▁morphology
▁99
▁hormones
▁adop
ifol
▁cellular
▁myoepithelial
▁agonist
rested
tively
oreceptor
▁adhere
▁inflamm
ocardial
ods
ycin
2+]
herence
acet
▁dietary
urally
▁hypog
▁carcinogens
▁nicot
▁suppor
▁cigarettes
▁ae
uccess
▁transloc
▁demonstrates
▁cohorts
▁affec
▁fas
▁inherent
▁clinician
▁deficiency
▁malign
ignificant
▁Chemical
▁Asp
▁compartments
▁0.00
000
athetic
ocytes
▁HS
omal
▁remo
tering
▁decreas
▁0.
▁29
▁unchanged
▁carc
▁preliminary
oplasm
▁ana
Ca
▁plas
▁(4
▁Phen
oprec
entical
onit
▁67
▁aneurysm
tig
▁0.7
ipine
adily
▁vasomotor
▁unstable
aryn
▁chol
▁mutation
▁kinetic
itin
lymph
▁LN
ellosis
▁subjec
▁sarc
▁Removal
avage
eak
▁divertic
essential
tabol
tyl
1,
2,
▁arthritis
aturated
▁substantially
▁SG
occus
▁projec
▁UT
▁clus
▁microb
▁Chan
▁metastatic
▁Phe
▁engraftment
▁BP
IH
▁esophagitis
omial
ositive
▁docum
▁hydrophob
7%
▁curative
entral
▁ulcer
luc
▁(+/-
▁Treatments
▁amp
osine
asone
▁warranted
12
▁warr
▁interstitial
▁vomiting
▁19
▁pineal
otide
cessive
tak
▁degrad
▁mAb
▁ocul
▁electroph
▁zinc
odialysis
IFN
▁conduction
▁5
▁routinely
▁geniculate
▁pancreatitis
omized
▁synthesized
▁graft
ynthe
oglobin
▁nonadherent
▁eryth
▁fulf
▁clones
zard
▁Thir
omerular
tron
.6%
▁Dopamine
▁cG
▁spontaneous
▁detrimental
▁nig
7,
▁enzymes
▁24-
▁validated
▁differe
luores
▁preferable
▁alteration
3.
▁palp
13
AIDS
▁63
16
ariate
▁Estrogen
▁GnRH
▁undes
ulfonyl
ontal
5).
▁requi
▁summ
▁TNF
▁accounted
loon
othel
▁anastom
▁.0
▁fetuses
▁microtub
rosis
controlled
▁kDa
rectal
▁mutagen
▁electr
▁abd
▁Comparison
▁stimulating
cious
53
▁diagnose
▁deprivation
▁chemotherapy
lac
35
▁Ket
▁hypers
81
▁Afric
▁1.4
▁carbohyd
▁assessed
▁fracture
atif
▁resul
ecal
▁rigor
▁discontinued
ogenesis
▁hypoxic
▁bovine
mitter
ypical
▁chewing
embr
▁questionnaires
▁discusses
▁rCBF
▁LOS
▁reproduction
9-
▁adhesion
▁sequentially
dition
ocyte
▁neurologic
GH
▁MG
coun
TK
▁intram
▁pathogen
ocor
clin
▁pylori
▁molecules
▁influenz
▁GABA
deficient
tebral
▁drainage
alc
KA
▁secretion
aptic
▁fatality
▁iliac
▁socio
▁ultr
▁lis
▁complemented
▁differentiated
▁aortic
▁fluores
▁acad
iminary
▁paralle
▁polyps
▁exacerbations
immunization
osal
▁foc
▁glucagon
vation
▁persis
▁strep
▁undetected
▁hemisphere
jective
▁caregi
tead
▁prolactin
ocl
ternational
▁incubated
▁psychotic
asses
2.
siologic
.2%).
▁prostate
▁keratin
▁5'
overed
sess
urc
▁implicated
oA
irc
78
▁endemic
▁surgical
ustained
▁sacr
▁Golgi
▁65
▁79
▁traum
▁circumferential
▁injected
▁amines
viron
adrenoceptor
▁MM
▁carbohydrates
▁stellate
▁diffic
odium
▁pylorus
lasts
▁peroxidase
itrate
ioid
▁Dil
▁adenomas
▁gluten
umably
84
▁adrenal
minal
acial
oresis
▁centr
vail
▁phosphate
▁dissociation
onomic
▁Findings
▁fixation
faction
▁(16
▁Analy
▁genic
/100
▁influenza
clim
▁Multiple
▁illustrates
▁solub
▁placebo
▁thrombo
▁prospective
▁VS
▁Improvement
mentation
rogenic
▁adolescents
▁throm
responding
▁intrarenal
▁simultaneous
99
▁localized
▁8
▁nitrogen
▁evolving
▁promo
▁beha
-1-
▁antibodies
▁moderately
▁catechol
sych
.5
▁thresholds
▁hemodynamics
edullary
▁diagnos
acerb
▁occl
▁atrophy
▁ambulatory
▁stren
▁characterize
▁HSV
totic
▁ageing
▁irritation
▁ACh
▁precedes
oplasty
▁uncommon
-20
▁bronchoscopy
▁lumbar
▁pati
orphic
▁intest
▁PTH
▁provocation
▁(19
ophore
2).
▁maturation
enin
▁employing
97
azole
▁oxidase
▁chec
ameters
▁duoden
ectable
▁endometrial
ilized
▁umbilical
▁cis
▁coincidence
acil
▁cultured
HF
▁therapeutic
intestinal
▁preoperatively
scop
▁phosphorylation
testinal
▁ALT
thle
▁directional
▁endogenous
▁infections
▁erythrocyte
▁bypass
▁sero
▁Neurop
▁3'
operative
elvic
▁glut
ometrial
▁wt
▁accep
▁natriuretic
▁PF
odil
▁measurable
CBF
4).
▁overex
ercul
amus
▁demonstrating
ococcal
▁lateral
▁obese
▁excitatory
▁cyclic
anish
▁regulated
▁197
▁gly
isol
▁cyclo
ogenic
▁epithelium
chers
▁cancellous
valence
ergen
▁induc
Cy
▁prognostic
▁virtu
▁GVHD
▁initiation
▁1.3
▁palpation
dents
-6)
▁proportional
▁innerv
▁perce
▁undergone
▁athe
▁mRNAs
quired
IgM
economic
▁neutrophilic
▁ald
armac
▁fron
▁rigorous
▁yeast
▁36
▁depr
▁confron
▁investigating
▁fatigue
▁hazard
▁biosynthe
▁nodules
▁chond
▁regimen
ocamp
▁acidic
▁(11
▁metformin
▁monkeys
▁adherence
▁cortic
lax
3,
▁discon
▁Bone
▁repres
▁radiotherapy
▁(9
ilateral
▁postoperative
tially
▁pyl
▁inactiv
▁TC
▁molecule
▁surgeons
glutin
lep
ovine
▁endpoints
▁OSA
idine
glum
▁ascertain
ignific
▁coex
amycin
▁FH
▁lymphoid
45
birth
opo
ociation
▁54
▁(13
▁femoral
▁tris
▁antiserum
▁fasting
▁criter
▁kine
▁perme
igaret
carinic
▁0.01
▁cephal
▁vaccin
▁rhy
▁peritoneal
tin
▁lumb
ortic
rosine
▁1.1
EGF
▁fibrin
fec
▁35
▁APD
▁overd
▁reticul
ostomy
ervations
▁testis
▁resis
▁vasopressin
anine
stimulated
▁anomalies
▁hormonal
atment
▁assis
▁verteb
illus
▁microv
▁fibres
parative
▁adhering
▁antagonist
▁unres
moid
▁saline
▁IgE
▁bronchi
-17
▁obstruction
regulated
▁conclu
continu
labeled
▁responsiveness
▁elimination
▁pmol
otting
MN
▁resuscitation
▁sedation
▁COS
▁tidal
▁IIb
▁angiotensin
▁echocardi
adic
▁cys
▁posi
lip
estim
▁polyp
▁Pretreatment
▁manipulations
▁complications
▁reperfusion
hap
nec
actin
30
▁reductase
▁immunoglobulin
amn
ectom
▁distrib
Hb
▁calcified
▁undergoing
▁blin
▁cardiomyopathy
▁adjunct
▁modality
▁mmHg
▁mutations
▁TAA
▁contractile
▁tachyc
▁adi
▁overdose
tensive
rene
▁spre
▁multivariate
hemo
▁[125
▁anticoagulation
onary
▁cDNA
▁microns
ologous
▁residency
▁lysis
▁buccal
erator
▁indeterminate
qui
▁exce
▁restorative
▁parental
▁hypertrophy
siveness
obarb
▁TSH
tro
▁urine
sue
▁detec
▁milieu
▁arginine
ceptive
atial
ulitis
keletal
▁insertion
implantation
▁validity
▁soluble
450
ograms
lec
▁regulate
49
▁peptic
▁homogene
▁resto
▁tissues
atories
▁intrinsic
▁regression
▁sugges
ivariate
▁vitamins
▁PV
▁pulmon
▁LT
▁mediated
gm
▁adjustments
tically
▁degradation
ituitary
teroid
▁hydrolysis
gression
GV
Ta
▁soybean
▁incubation
▁diame
▁acetab
reatine
2+
▁predictive
iasis
▁39
▁indi
tiz
▁RBC
evaluated
▁postnatal
▁genotypes
.4%
▁consequent
ensi
occal
▁muc
▁0.05)
▁dendri
▁linole
▁deformities
yses
▁ruptured
-30
▁sinus
▁21-
▁incub
▁replication
▁hypoglycaemia
ardia
▁HCC
wenty
vic
adrenaline
ovascular
▁screened
17
ameth
▁audi
▁GV
79
▁Inclusion
tiv
▁tympanic
-6
▁tert
▁hypertension
▁syndromes
▁unclear
▁Patients
ighted
▁subgroups
quid
▁osteoporosis
tial
▁chloroquine
▁warrants
jug
▁exhibited
▁chromosome
itant
▁immuno
unctional
▁hap
▁LDL
▁untreated
▁glycogen
▁kidneys
▁axillary
▁mV
▁40%,
▁parag
phal
ervative
immun
▁fibrob
ietic
0%)
▁ligand
▁platelet
▁inadequate
oracic
▁neutroph
▁Biochem
▁bene
▁minimally
olol
▁respec
▁reactivity
trate
treatment
▁hypo
cad
▁subunit
fected
acetate
▁amput
▁macrophage
cence
▁illustrate
▁(8
▁normo
-7)
▁implantation
feren
▁Cyt
▁GE
retro
▁sciatic
▁RH
RH
▁tec
▁22
opres
▁lact
▁hydrox
opausal
resting
▁steroid
phe
▁lipids
▁SNP
▁PRL
▁hypertro
▁underlie
▁DN
thma
▁Paget
▁External
tional
▁extrac
▁tymp
thmias
plate
▁constitutes
▁bipolar
noise
▁stenosis
tant
opamine
▁shor
plants
▁spleen
▁creatine
▁hormone
▁perin
CMV
pation
phosphon
venous
ogenous
-15
▁anatomic
rins
ipit
▁limbs
ocar
▁90
brain
nRH
stolic
▁progesterone
tase
▁pediatric
cribed
▁acco
▁ethanol
▁micron
bular
▁consis
graft
8.
HN
▁subf
▁79%
dor
▁overweight
sia
11
▁phorbol
▁apop
ocele
arer
▁cocaine
▁tet
▁LH
sively
retion
▁specimens
yel
▁pneumonia
▁seb
obarbital
otomies
mide
▁(1
▁staining
▁rabbits
tate
▁hemis
▁enhancing
▁hypothyroidism
urrence
Ba
▁ventilatory
▁58
▁contralateral
kele
▁1.
reast
sequent
▁leakage
fat
▁Vitamin
erally
▁Streptococcus
▁highl
robic
.2%
▁morbidity
▁cutaneous
▁quantitative
▁recombin
▁underst
ropyl
▁modif
32
increased
HM
tized
▁PCR
amide
▁unsuccessful
▁ascer
▁volumetric
occi
▁congen
methyl
▁conserved
▁quanti
▁differed
▁moles
tomy
▁viral
▁20
▁anemia
▁cesarean
▁synov
amethasone
ylase
▁microsomal
cture
ogra
▁atmospheric
28
▁inheritance
2-
▁prenatal
▁malignant
tage
aline
▁proct
▁pathology
▁substitution
▁IHD
'-
urred
tation
ohyd
heric
▁paradig
▁micrograms
hydro
tamine
generation
tis
▁glutathione
▁gluc
ergic
▁latency
▁heterogeneous
▁hemodynamic
▁hydrogen
▁sensory
▁pharmacists
▁75
4%
-9
-1
angli
▁membranes
▁analogues
▁analges
▁progest
ipid
▁Pregnancy
▁thorac
▁MCP
▁administered
▁intrac
▁sequelae
derly
▁0.5
2+,
▁exercised
piratory
induced
▁neo
ubation
▁(0.0
▁relapse
opam
▁concurrent
xone
15
iciencies
bility
ocytosis
2/
▁communic
▁thoracic
▁Therapeutic
▁inver
urea
▁ionic
▁tubes
utyr
relevant
▁interv
ithiasis
▁silicone
filtration
▁microbiological
▁pulp
▁diastolic
SCC
ifferen
▁patellar
▁substrate
edic
▁alkaline
▁Alcohol
FG
adren
▁80%
▁spermat
ected
▁latent
▁spectro
▁pleomorphic
34
▁hernia
▁selective
3-
rophob
▁tended
▁edema
rane
▁secretory
thym
▁Intra
▁LVH
lycerol
ophren
▁Plas
▁experim
▁atropine
▁TG
▁tolerated
▁anatomical
resist
▁apex
▁susceptible
▁derange
epit
atell
otyp
▁produc
cents
Ka
erox
▁enrol
+)-
▁vitamin
▁stillbirth
▁Ig
▁antibody
▁discriminative
orpor
sA
tidine
Ig
▁creatinine
▁wee
80
ACS
▁gyn
arcin
rhy
anding
6.
▁connec
pies
arous
▁comple
▁fragility
▁coli
▁speculated
▁epileptic
truction
▁cervical
ampl
▁chamb
▁hospitalization
▁+/-
▁cytotox
omod
produc
▁conformation
▁LF
iably
▁congenital
24
▁metabolic
▁0.001)
tions
▁compli
▁300
▁CK
▁IH
▁ery
KD
▁rotated
hemical
▁suppressing
olus
▁intraven
▁cate
▁symptomatic
▁hepat
▁conjug
▁causative
▁proton
▁DG
▁lymph
omethacin
▁HCM
ctomy
▁pathologies
▁headache
icine
FV
6-
▁intracellular
ethyl
idis
▁45
ynaptic
eroxide
kely
epti
▁Cox
▁undertaken
▁venous
▁mediates
▁(6
lectomy
▁poin
▁SDS
▁ANF
▁antigens
▁-0.
▁fati
tected
ologic
▁affinity
▁periodontal
ylcholine
▁tran
(+)-
▁adequ
/2
▁ATP
tual
▁PET
▁cochlear
▁heparinized
esti
WB
▁characteris
▁adhe
▁errone
jun
▁pelvic
▁incorporation
▁neuronal
acting
▁aort
▁placent
▁contrib
▁interc
▁IU
vating
▁peptides
▁positioning
▁esophag
▁carcinomas
rotein
▁homologous
▁entero
gesterone
Ds
▁disadvantages
▁enti
otassium
▁(198
iotensin
▁intrap
▁estrogen
▁ouabain
▁albumin
orrh
▁GER
greater
▁aor
iatric
▁cytosol
▁abnormality
▁Vac
▁interventions
apamil
▁determinants
ocytic
DNA
▁conclusive
▁physiologic
rease
▁oes
▁gout
▁vaccination
▁gallstones
olarization
▁immunore
▁favorable
▁PKC
▁endoc
▁adduc
enhanced
▁contractions
versus
tagland
▁1.6
▁marrow
▁PEEP
▁glucose
▁modulation
▁derangement
loro
fused
duction
▁stimulate
▁femur
adrenergic
▁detachment
▁hams
▁genome
▁elevated
▁extre
▁interpre
atinine
▁Intravenous
piration
▁valu
▁microM
▁hemorrh
▁anastomotic
▁CI
partate
▁sulph
ture
▁recom
▁vivo
itudinal
ococcus
erations
ygen
▁adjuvant
ollicular
truc
+)
angl
▁fluorescence
lusion
▁dosing
▁cortisol
▁labial
▁Mucosal
▁competi
▁trypsin
▁stimulatory
▁tachycardia
▁merits
▁parame
▁topical
wk
▁spinal
bumin
orac
▁contributes
carcin
▁myocardial
▁techniqu
▁regimens
▁leukocyte
▁stimulus
▁benz
▁necro
▁mL
▁radiolab
▁0.001).
▁rotational
olec
otides
▁(50
▁distinctly
▁testicular
▁Prospective
gth
discharge
▁demographic
▁hippocampus
▁infar
▁sepsis
▁hypot
▁inhibitory
fusion
▁24
▁reduc
ritis
ophag
▁(10
▁PCO
4,
▁strom
▁uptake
otrop
▁potency
adequ
▁cytosolic
▁pharmacokine
receptor
infected
▁encoun
itoneum
▁extensor
aemia
▁exten
▁unde
▁ration
▁90%
abies
▁activator
relations
▁corneal
gesia
otropic
▁18
mur
spective
▁musc
▁Systolic
opulation
estions
tious
▁enzyme
sion
▁awa
▁trig
opia
opramide
▁yielded
▁diluted
▁prophylactic
▁pla
▁lymphocyte
acted
▁50%
▁impaired
▁lith
venth
▁angi
▁metabolism
lated
▁0.9
toph
ipolar
ancre
▁infused
▁corrective
▁gastro
▁1.8
▁amyl
▁120
▁terminals
idney
▁invasive
▁migraine
▁1-
kinin
▁1.7
▁23
▁reas
▁fatty
▁arth
▁intraoperative
▁vasodil
ocardi
▁tuber
▁attenuated
▁venti
▁examin
▁anticoag
ylation
▁ventricle
▁bilateral
▁inactivation
▁placenta
▁Samples
trimental
▁therapies
70
▁ECG
idne
olgi
olated
▁pelvis
▁radiography
▁tiss
toc
▁predic
▁[14
1-2
Gi
ervical
esting
▁prel
▁neph
▁Accordingly
▁hyperg
▁52
ditions
▁intestinal
▁1.2
▁withdrawn
▁inpatient
▁hCG
▁neurons
▁150
ifug
▁retic
owel
▁Kupffer
▁variants
uron
▁astrocy
▁axons
licular
▁redund
▁suppressor
▁recons
▁prostagland
▁epidermal
▁RM
▁antegrade
37
-10
▁immunos
▁80-
▁preterm
▁HL
▁cathe
▁10.
0.
responders
▁prevalences
▁sci
rants
oscopy
▁cholestasis
▁BD
▁nucleotide
▁AE
▁pigs
▁bile
▁artery
▁elu
▁gonad
▁Stu
▁dexamethasone
▁inhibitor
▁allevi
▁chloride
▁10-
lasses
▁potent
+,
▁blot
.0
platin
▁reagent
erated
104
▁aerobic
▁cows
▁pancreas
▁assay
▁aspec
▁manifestation
▁lam
▁cla
nucle
anol
▁ventil
▁(30
▁2-
▁decreasing
▁disruption
henyl
▁alp
▁cytology
▁tol
▁frac
tice
▁noradrenaline
▁3-
▁coexist
▁Engl
oscop
oxic
osynthe
ATPase
▁46
▁dissection
ressing
▁abdomen
▁clon
▁5,
▁juvenile
▁inhibited
hep
▁immunoreactive
▁poorer
unar
oratory
▁intervertebral
▁rash
▁attemp
▁arteries
oglobulin
helium
urate
▁anatomy
▁mammary
▁100
▁sulf
vascular
▁prescribing
▁12-
▁Significant
▁perceptions
umerous
kinase
oprotein
jec
▁Continu
ostal
▁aden
▁glyc
tensin
otypes
▁reflux
ught
affec
▁sev
loride
teine
▁prognosis
▁hazards
▁cloned
▁simult
▁indicative
Ti
icardi
veness
hern
▁displacement
▁11,
▁cues
▁hygi
weighted
▁undetectable
▁neonatal
opro
▁Tumor
▁reproducible
estis
▁dopamine
▁dysfunction
▁EGF
tical
itively
▁TGF
ulatory
pT
▁RA
▁verte
arean
▁resol
▁cigaret
▁deliveries
▁decreased
uoden
▁heterogeneity
1)
▁vagal
contrast
ffec
▁synaptic
▁antec
▁periodon
▁MH
romed
scherichia
istal
▁elimin
oung
▁nasal
usp
▁differentiation
▁struc
▁hemorrhage
mTc
▁bac
▁thir
kDa
tents
▁cervix
▁mellitus
.6
▁mM
iatic
▁infusion
▁injur
FU
ulph
▁intrav
4)
▁misleading
▁IgG
▁attrib
▁modulate
▁pyram
▁laparo
▁synthe
▁identically
ithms
.7%
▁potassium
▁evaluating
assium
dimer
▁dehydrogenase
pH
▁dehyd
uretic
chlor
▁lamb
▁polymer
tein
▁subtraction
ymme
▁myel
turb
▁lesions
▁overexpression
▁thyroidectomy
▁intravenous
▁(5
▁pacing
▁VO
▁vasoconstric
5%)
ints
▁calcium
oconstric
amino
ropriate
0,000
clic
▁workload
iotic
▁sodium
▁gamma
▁mucosal
▁evid
▁leukemia
▁PSA
▁peripheral
▁induce
▁IgA
seal
▁Escherichia
uptake
▁coronal
▁reproduc
▁WHO
▁RNA
▁Acute
TB
agit
▁IFN
pinephrine
▁genotype
▁HPV
▁saliv
▁phon
urgery
▁Phy
ranial
-4)
▁excimer
dominal
▁improves
▁concentrations
lective
▁hypox
▁proteins
▁GI
rati
tion
▁fentanyl
menopausal
endri
1),
▁synap
▁medial
ministration
inemia
eded
-14
ocrine
eptide
▁inhibition
▁198
fal
▁1.0
14
functional
▁necrosis
▁avail
titu
▁fractions
▁immunode
9)
▁fibrosis
▁metastas
▁reticulum
▁histopathology
▁underwent
▁fractures
uvant
▁induces
sities
hemia
▁PAS
LV
▁GTP
▁inserts
▁250
▁AO
▁erythrocytes
▁abolishes
oprote
▁adap
▁actin
▁subc
ediatric
astatic
▁cardiovascular
RNA
roph
▁pharmacological
▁exposures
▁surgeon
▁intramuscular
▁bip
▁deem
▁restor
kground
aemic
ymptomatic
▁mononuclear
▁accel
▁atheros
▁haemorrhage
opa
zyme
▁gastric
oride
▁0.1
▁Mn
dine
ctive
▁prolif
▁PVR
▁neoplasm
/1
ylchol
asive
▁grading
▁endothelium
▁cyclosporine
▁abl
▁atten
▁amin
▁gallst
ceptual
▁psychiatric
erate
▁66
ostic
▁PMA
▁Cushing
▁analogue
▁cerebrovascular
▁slices
▁arterial
▁intermittent
phenyl
▁32%
▁recessive
▁diabe
geal
osocial
▁somat
▁construc
odic
▁atrial
▁tonsil
▁epiderm
atients
erating
▁metast
▁parap
▁granules
▁substituted
▁APC
▁60
▁guan
dose
dial
ayed
reas
▁oxy
▁cytotoxicity
▁confound
▁molar
either
▁Surgical
▁HN
▁OT
ositol
riched
▁intravenously
▁pneum
▁paraventricular
mental
▁sexes
▁RS
▁dele
▁0.8
drome
▁autosomal
▁suppression
selec
▁percutaneous
8%
▁probes
▁perip
▁subun
▁clinically
▁feasible
▁dex
.4
▁kinetics
ipitation
▁auditory
▁inten
olysis
gments
▁alterations
▁reflex
▁striated
▁epidemic
▁pigmented
▁arteri
▁CABG
▁depic
ameter
▁distinguishing
▁visually
ignant
amet
▁proximal
