▁gastrointestinal
▁fatigue
▁peripheral
▁ultrasound
▁obesity
▁bibliographies
▁weighted
▁cohort
▁progesterone
▁atrial
▁prospective
▁regurgitation
▁mortality
▁referral
▁daytime
▁clinicians
▁hemorrhage
▁miscarriage
▁otitis
▁resistant
▁cardiovascular
▁abnormalities
▁intraepithelial
▁specificity
▁abnormal
▁vaginal
▁aspirin
▁topical
▁simvastatin
▁reflux
▁concussion
▁redundant
▁urine
▁concentrations
▁adolescents
▁metronidazole
▁gestational
▁colorectal
diabetic
▁azithromycin
cervical
▁adjustment
▁prophylaxis
▁obese
▁corticosteroids
morbidity
▁decreased
venous
▁thyroxine
▁nephropathy
▁antibiotics
▁creatinine
▁osteoarthritis
▁osteoporosis
▁ischemic
▁relieve
▁herpes
▁fractures
elective
▁randomized
▁regimens
▁mmHg
▁testicular
vaginal
▁therapeutic
▁spontaneous
▁cytology
▁biochemical
▁antidepressants
▁intrauterine
▁migraine
▁overweight
▁placebo
▁thromboembolism
vascular
symptom
▁thyroid
▁progression
▁carcinoma
deficiency
▁intravenous
▁diagnosing
▁coronary
▁antagonists
▁Secondary
▁Compared
▁headache
▁extraction
▁ABP
▁pneumonia
▁estrogen
▁amlodipine
▁sulfonamide
▁onset
▁postmenopausal
▁fibrillation
▁torsion
▁warts
▁sunscreen
▁fibre
▁antihypertensive
▁nasal
▁subclinical
▁angina
▁occurrence
▁bipolar
▁lipoprotein
▁clindamycin
renal
inflammatory
▁serum
▁allergy
▁elective
▁mmol
▁calcium
▁deciliter
enzyme
▁prolonged
▁heterogeneity
▁lesion
▁interventions
▁obstructive
progesterone
symptomatic
▁circumcision
▁atypical
▁lipid
▁neonatal
▁infectious
▁corticosteroid
▁desmopressin
insulin
▁Treatment
▁dietary
▁inhibitors
▁erythromycin
▁recurrence
▁symptomatic
▁fracture
▁cysts
statin
▁PMS
▁fetal
▁Achilles
lipid
▁diabetic
▁isolates
▁HSV
▁cryotherapy
▁melanoma
▁recurrent
▁reductions
▁fluoride
▁ratios
▁contraceptive
▁acute
▁mellitus
triglyceride
▁prophylactic
▁Clinical
▁retrospective
▁logistic
▁artery
▁remission
▁pressures
▁acetaminophen
▁contraceptives
▁Depression
▁prevalence
▁hypertensive
▁supplementation
▁systemic
▁superficial
▁constipation
▁infants
▁Controlled
▁pertussis
▁venous
estrogen
▁glucosamine
indications
▁prenatal
▁mononucleosis
▁hypertension
▁hormone
▁antibiotic
▁hypothyroidism
▁pregnancies
▁bowel
▁deficiency
▁transient
carcinoma
▁Patients
▁excision
▁adverse
▁acne
▁pioglitazone
▁transvaginal
▁sodium
▁relapse
▁guideline
▁diagnoses
▁insufficient
▁smokers
▁thrombosis
▁myocardial
▁bupropion
▁cervical
▁receptor
▁warfarin
lipoprotein
▁NSAIDs
thyroxine
▁perinatal
▁dosage
▁incidence
▁databases
▁hepatitis
▁ambulatory
▁systolic
menstrual
urine
▁bacterial
▁endoscopy
▁preterm
▁biopsy
▁complications
▁hazard
▁rehabilitation
▁clarithromycin
▁diagnose
▁infertility
▁urinary
▁nocturnal
▁antidepressant
▁ultrasonography
▁steroid
▁lesions
▁inhaled
▁asthma
▁regimen
▁vaccination
cholesterol
▁vaginosis
▁untreated
▁respiratory
▁regression
▁concise
▁benzodiazepines
▁inflammatory
▁CHF
▁ventricular
▁benign
▁injections
▁cholesterol
▁Randomized
▁pulmonary
▁symptom
▁antibodies
▁clinics
▁renal
▁postpartum
steroid
▁triglyceride
▁Medline
▁mammography
▁infarction
▁intake
▁rupture
▁therapies
▁outpatient
▁pneumococcal
▁Prevention
▁vascular
▁IgG
urinary
diagnose
▁maternal
▁pelvic
▁apnea
▁blinded
▁cesarean
▁Scale
▁PID
▁premenstrual
▁cardiac
▁insomnia
▁diarrhea
nasal
▁endometrial
▁prescribed
▁enzyme
▁LDL
antibodies
▁imaging
▁induction
genital
▁metformin
▁tinea
▁menstrual
▁femoral
thyroid
▁predictive
▁insulin
▁lowering
▁questionnaire
▁morbidity
▁indications
▁asymptomatic
▁herbal
▁infections
▁diastolic
▁surgical
▁allergic
▁vitamin
▁fasting
▁glucose
▁irritable
▁hospitalization
▁physicians
▁colposcopy
▁angiotensin
▁elevated
▁antimicrobial
smokers
▁hysterectomy
▁genital
▁tamoxifen
▁depressive
▁squamous
hypertensive
▁dysfunction
▁severity
▁statin
▁subgroup
