▁substrates
adm
mend
▁inapp
gluc
▁biochemistry
▁reac
ocyt
feron
▁heavier
▁homogen
tained
▁Magnetic
▁microscopic
▁endot
ureus
sial
▁kappa
ecu
onor
▁fragile
▁thromboemb
orin
▁progression
▁fibrillation
▁births
orax
▁preferentially
▁preservation
▁tracers
▁brom
▁regar
oreactive
▁lactate
▁contractility
▁49
▁aureus
▁radiological
Kd
▁Vmax
tection
lateral
▁hybridization
▁basal
▁thereafter
.8%
▁monke
oplastic
▁cardiac
▁pathologic
reactive
osomes
▁mice
▁acyl
▁resistant
▁multic
emia
▁(12
ophils
▁blocker
coh
ritin
▁abdominal
▁3.1
2+-
▁collec
▁possi
fine
▁underg
▁mec
▁medulla
alanine
▁dendritic
▁phag
▁interf
▁gastrin
▁Addition
▁scanning
mediated
▁utilization
▁pT
▁ketamine
effec
ectomized
▁transcription
▁effec
benz
oblastic
▁rati
▁preventive
terminal
▁pulmonary
▁yr
▁kcal
▁filtration
▁2
/6
ucle
▁exacerb
▁monoclonal
olism
eptin
omical
cephal
▁gallbladder
▁AIDS
▁cohort
▁[(
▁injec
▁combin
▁Trial
dehyde
ocompatibility
▁20%
▁deform
bic
▁44
▁suggestive
▁prevalence
▁myocardium
▁deple
▁perone
▁asymme
▁irradi
▁400
▁questionnaire
▁10(-5)
▁localization
odynamic
▁deterior
orepinephrine
▁anomal
cutaneous
plasia
planted
duced
othermic
▁sperm
▁irrever
▁facilitated
independent
tub
▁VL
idazole
idated
▁multifactorial
▁cyan
athy
ffeine
▁(54
▁hydrophobic
cyt
tracted
▁melan
aldehyde
▁staging
▁tamoxifen
▁neoplas
▁respondents
diol
enkephalin
▁endothelial
cine
▁histologically
▁spati
▁medullary
▁(7
econd
onin
amyl
▁Rats
onuclear
▁discern
sors
releasing
▁BV
ostat
▁methyl
▁transforming
hea
▁prolonged
▁compressed
▁5.0
▁propensity
▁heavi
▁10,
▁suppres
orbol
phyl
oxone
▁Neu
estion
ronch
▁abolished
ondr
▁histological
hospital
▁thymocytes
▁ips
▁lipid
veolar
electric
▁mesenteric
▁deterioration
▁recipients
▁GFR
trum
azem
▁polym
tec
thyl
▁CRP
farct
▁Whereas
▁ultras
▁endothelin
▁microscop
urrent
▁symptom
▁carriers
▁adverse
eal
▁donors
virus
kage
5,
-3,
▁(10(
▁halothane
7-
▁indomethacin
▁cytotoxic
-1)
▁(0.5
▁socioeconomic
eared
▁decreases
▁kidney
▁endoscopy
vely
▁supernatant
.2%)
.8
▁CFU
▁muta
▁11
▁12
▁fluids
▁adminis
▁polymerase
▁paired
leu
▁GBS
▁isoproterenol
▁identifies
iatum
▁septal
6%
▁ASA
▁HCMV
entif
pecific
▁leuc
▁somatic
▁colloid
ensitivity
terolog
▁monitored
-12
oglyc
▁mug
▁consecu
▁juven
▁proliferation
▁homogeneous
▁nuclei
▁(2)
▁eosinophil
▁transcripts
-450
adiol
iplin
-4-
▁glomer
alsy
▁transi
▁70%
▁coh
▁esophageal
▁supernat
growth
▁endotoxin
versity
▁actu
▁masked
▁38
▁quin
HB
kephalin
▁cleavage
tiazem
▁serum
▁emphasizes
▁enlarged
▁adequately
▁Evid
▁disapp
▁polymorph
illi
▁HPLC
▁estradiol
▁serine
▁Lys
▁glial
▁radiographic
▁sulfate
esic
ociated
ucleation
-7
▁cartil
ths
gans
plantation
eces
otent
isomer
▁brady
▁Histologic
▁blockade
earance
▁assemb
▁chel
acrylamide
▁CTL
diagnosed
umulation
▁digestion
omiting
uria
▁defic
▁coronary
romy
▁reacted
▁molec
cAMP
ilical
▁(4)
▁0.4
▁subpop
▁challen
▁embryo
▁88
▁locus
lobin
▁4.1
▁deletion
▁obser
kinje
PV
▁spikes
esium
operox
▁depolarization
▁predictor
▁serotonin
▁catalytic
▁wk
▁heroin
sul
thre
MRI
▁immig
cysteine
▁dyst
▁2.4
▁radiograph
lycemia
▁Mg
▁termination
▁ech
▁immunobl
iol
▁3.3
inephrine
▁expres
▁topographic
▁1
imin
icardial
▁correlations
▁cystic
▁erythrocy
▁causal
▁identif
hydr
56
▁contraction
tivation
▁8.
▁recordings
▁discom
▁fibers
▁spectroscop
▁secreted
years
▁VC
ochem
▁selectively
0%
▁stu
tens
▁circadian
▁conceptual
LH
nutrition
▁epsilon
entricular
▁inflammatory
▁VIP
ymp
▁linkages
▁abundant
vity
▁oligonucle
▁autologous
uctose
-100
▁ablation
▁promoter
▁fibr
heum
▁drin
reased
29
▁basolateral
oplas
▁fetus
▁gradi
▁(15
▁bronch
▁biopsy
▁Ia
gland
57
oyl
labelled
▁epithelial
▁sial
▁supplementation
▁receptor
▁organisms
-19
▁cyto
▁responsive
▁effic
raine
▁unexpl
▁subsp
ostatic
2%)
crip
tryp
lasting
▁6
▁physiological
onucle
▁fluorescent
▁clinics
hypertensive
▁athle
▁studi
yro
▁ceased
▁thromb
▁chromat
▁4-
▁inadequ
▁disrup
▁mumol
Tyr
tics
itamin
odial
▁murine
▁excretion
▁sph
▁currents
▁radioactivity
▁80
atitis
▁deduced
oprol
▁angina
▁oxidative
eric
opoietic
▁perfused
▁TK
▁adolescence
+]
mL
▁uremia
▁(3
MH
▁2.3
enia
hers
olesterol
orec
▁debr
▁Tran
osides
ocarcinoma
7)
genesis
4.
▁manifestations
▁radioactive
▁symp
ipr
▁1986
illic
66
▁corne
dered
▁lec
▁interrup
▁40%
Tn
▁tracer
▁mutants
▁capillary
▁empir
▁palsy
-8
▁MEP
▁apprec
tural
▁amino
▁recurrence
lytic
tus
▁rats
▁16
▁radiol
▁hamster
FGF
▁28
oxane
▁bicarbonate
▁intake
▁Biochemical
▁enzym
▁vena
elves
hion
▁7.
▁mixtures
▁cytoplasmic
▁tyrosine
▁endoscopic
23
86
trip
osamine
▁transcriptional
mented
▁acids
▁metabolite
▁expressing
▁mediating
▁angiography
▁shorten
▁bacterial
▁0.001),
lix
ometh
▁bir
▁worsened
▁prednisone
stimulating
vice
▁hippocampal
▁proteoglyc
▁guinea
omies
▁Hb
▁exogenous
EG
▁eti
▁0.05),
▁[3
istar
▁grouped
▁carboxyl
▁subtype
▁mono
grees
Cer
IU
Ia
▁ane
ureth
▁pedig
glut
▁longitudinal
▁mann
hyd
tures
blast
▁Km
▁monol
▁donor
asal
▁Pregn
▁replic
▁Experim
48
▁soy
phrine
▁15-
▁27
▁immunofluores
etween
▁infec
deoxy
▁menopausal
phic
▁Hg
▁clearance
uting
ressive
osomal
▁ADP
okine
▁14
hydroxy
125
▁resec
▁onset
▁previ
▁coag
echn
encephal
ileptic
unced
▁palliative
▁agonists
lys
▁10(
MV
▁unexplained
▁mRNA
▁adaptive
affected
fir
▁dialysis
▁targe
▁assessments
▁isot
39
▁ventral
▁muscul
▁uncontrolled
▁graf
▁cardi
otoxin
aryngeal
ensory
razosin
▁circumferen
▁HM
ocrit
▁macropha
ocul
tality
mia
rates
▁carcin
hyde
▁adren
▁occupational
▁labelling
▁oils
ucine
orectal
▁TRH
ipient
▁follic
▁prospectively
ejun
▁comprised
rele
00
0-
▁concom
▁coval
▁Cells
▁cann
ginine
roscop
ometr
bac
▁triglycerides
▁subunits
▁chlor
▁differenti
▁Kd
▁epit
utroph
▁fertil
TG
▁ions
transferase
▁hypothalamus
▁antigen
OA
▁mmol
▁implic
ergency
ritish
▁renin
▁appreciably
▁resusc
▁myc
vul
▁kerat
▁unilateral
▁trough
pecially
ximide
meth
▁bronchial
▁catheters
zation
risk
▁200
▁1)
▁renal
▁hyperplasia
tence
▁pene
,000
▁restric
▁eosin
oside
▁bloc
amate
2),
▁autonomic
▁stroma
atheter
▁residues
▁vaginal
omycin
▁surgically
▁motone
amines
▁inversely
▁64
▁rup
▁95
-80
▁Previous
▁wors
ullary
acin
▁correlates
▁embryos
▁NGF
tif
▁oligo
▁crest
▁wean
cis
▁reactivation
▁cytoplasm
▁Concomitant
▁allo
▁bic
▁polymorphism
-0
▁CRF
throm
▁immature
▁lowering
graftment
▁Ear
▁prol
lobulin
▁hyperp
esthe
▁somatostatin
▁pS
▁unrelated
▁immunosuppres
rological
embrane
▁deviation
Pa
▁complexes
luent
eptides
onstric
▁nmol
▁metoclopramide
▁cirrhotic
▁NF
acyl
▁.00
geneic
6,
eptid
▁lys
scher
▁pretreated
sorb
elec
▁(18
oxif
▁foci
ulose
imination
treated
ophil
▁PCP
▁RNAs
ximum
▁lethal
▁undergo
▁cancers
▁supple
▁intermedi
opathy
▁outflow
▁iod
ffin
▁hemisp
ialysis
▁activating
leukin
▁tertiary
▁erg
▁amyloid
▁cyst
▁125
▁aneurys
carb
69
▁perinatal
▁diarrhea
TNF
▁acqui
▁Alternatively
▁ischemic
▁potenti
ymptom
▁strand
▁ureth
ineal
▁cortical
▁Clinical
▁residue
▁granul
olone
rever
▁BAL
▁normotensive
omat
▁discomfort
▁residual
▁panc
▁transfusion
▁readings
gia
tic
ranolol
▁AVP
abain
-2)
▁rabbit
▁detecting
▁32
Cu
assi
▁hypothyroid
anic
▁vancomycin
▁propranolol
▁ole
▁15
▁behavioural
yrox
vival
▁implants
chol
lysis
▁hygiene
▁followup
legia
▁orally
▁assayed
ficial
physiologic
▁antagonists
▁100%
anav
▁ACE
phthal
▁NK
BK
/3
▁ultrasound
phosphonate
▁1989
ithin
▁exert
▁IA
eration
▁impairment
▁ultrason
▁fibroblasts
5'-
▁cerv
hydroxyp
kines
cardi
▁depletion
▁acute
irradi
▁infants
▁systolic
▁prono
5%
-3)
▁hypertrophied
▁prophyl
erin
▁contamin
erb
▁variability
alian
▁scre
▁mutagenesis
aneously
clonal
rophenyl
▁toxicity
▁acidosis
▁CSA
▁severity
phragm
▁physiology
rotic
▁cava
▁ammon
▁leucine
▁AMP
▁amo
ectomy
▁aspiration
gic
pendent
renol
▁DH
▁buc
iferol
▁provid
athione
plas
▁alveolar
-1.
▁69
▁averaged
▁defec
lead
▁toxin
stim
stress
▁sple
terase
▁tumors
▁cumulative
20
▁vesicle
ulla
ophilic
acr
▁torsion
traction
▁2.
▁reactive
ellar
▁tumours
▁baro
▁84
osidase
▁skeletal
tituted
tabl
▁attributable
▁uncom
phasic
▁autoimmune
quit
illin
▁amph
▁4
▁82
▁uncomplicated
▁Failure
titial
▁favourable
aluation
IgG
▁subcellular
natal
▁cytochrome
▁attenu
▁85%
▁30%
insulin
▁alk
opsy
.3
Ra
pregn
▁homogenates
▁30
Cs
▁Sprague
pig
atab
sulf
entanyl
phosph
odon
▁adhesive
obl
april
▁focal
▁micros
▁sucrose
▁Doppler
▁lar
▁13
▁compe
erican
▁persisted
▁promin
▁investigations
▁fibroblast
-1,
▁anaesthe
▁suscepti
sian
▁encodes
▁envelop
▁messen
▁Tc
▁vesic
▁phospho
▁0.04
▁prostatectomy
nai
▁cereb
ilic
▁Considering
▁ESR
(2+
▁sympathetic
▁microtubules
▁adenocarcinoma
rogenase
▁10%
▁hypothalamic
▁6.5
phosphate
▁0.0
positive
▁Hyp
▁suture
▁multiv
adherent
▁putative
▁Swed
▁inhibit
onset
itic
▁margins
▁pharmac
▁instability
▁2%
▁Increased
itone
▁NaCl
lux
lastic
▁FV
▁systemic
resistant
odynam
ilep
olipid
▁SLE
▁antigenic
threatening
▁19%
▁ovarian
ocaine
▁68
▁extracellular
27
▁codon
oru
uin
▁concurrently
▁33
lycer
▁acetyl
-3
tral
-5)
emak
pharose
rae
▁grafts
etal
▁microvascular
▁perfor
▁sedentary
▁ow
ept
▁phosphor
/10
mega
phrag
▁circumference
ults
▁quantitatively
atical
iciently
▁duodenal
▁monit
▁deformity
▁nM
▁1,25
aminergic
▁57
▁smo
identical
osition
tisol
certain
anin
-11
▁ovary
-67
▁Measure
▁coexistence
▁interleukin
ocular
▁Nine
▁acetate
44
▁crude
▁(20
▁immun
crib
▁saturation
▁disturbances
tetr
▁asthma
▁splen
astolic
▁colorectal
40
lyc
▁labeling
▁lymphoma
▁Incubation
▁retrospective
▁adjustment
regn
▁disappearance
▁ranged
▁glomerular
opha
50
ionic
tinu
trib
urine
▁NH
roxim
▁statis
▁dib
▁96
acid
▁neoplastic
▁resonance
▁61
otor
▁vascular
▁2.0
onium
▁peri
tiveness
▁imaging
CoA
diagn
ATP
▁cue
▁iso
▁connective
▁identi
▁CSF
clo
▁RP
tility
▁predominant
▁augmented
versely
bral
trative
3),
9%
Phe
▁thi
asic
acental
▁operative
▁Contr
▁phosphatid
rocy
MDA
▁tib
▁Ara
▁resection
CSF
erance
▁exhibits
oclonal
▁discharge
▁10(-6)
0%,
itro
trogen
umulative
▁SEM
gents
▁indicators
▁25%
itoneal
▁7
idation
ospor
▁calor
▁pituitary
▁thickening
▁fibronectin
▁agon
▁laparoscopy
▁reflec
▁pretreatment
▁poten
▁neurological
▁differing
▁extracts
▁enl
▁spectroscopy
▁77
▁pancreatic
enic
▁desm
▁analyses
eptidase
▁180
tox
]-
▁stromal
▁evaluations
▁anesthe
▁polyethylene
▁lavage
▁comprehen
▁7.5
▁magnesium
▁tracheal
▁collateral
▁Biol
▁poisoning
75
cus
▁sclerosis
trition
▁elucidate
atoid
ocortic
▁duct
▁pec
▁atresia
▁luminal
▁pter
▁2.5
▁systematically
4%)
▁tetr
▁phagocytic
puts
mobil
▁biom
▁complementary
▁endarterectomy
eliac
▁consol
lact
▁spon
▁500
▁oss
▁reductions
▁86
▁filaments
▁Plasma
▁irradiated
▁morphine
▁carbox
▁duc
▁stimulation
taken
▁anesthesia
▁immunized
odies
▁immunological
22
▁gradients
▁cAMP
90
▁transplanted
▁microc
atibility
46
▁endometr
▁permeability
uran
▁resear
ophageal
arbonate
centr
operatively
▁deficient
▁elong
▁striatal
▁inducer
▁supra
▁hospitalized
.5%
▁inactive
▁insulin
LDL
atient
▁benign
▁transient
▁pulses
▁(24
▁tric
HIV
went
▁sten
▁kidne
▁amputation
▁phenylephrine
▁distal
▁AMI
phosphor
lyce
88
tition
▁diagnoses
▁26
▁repro
▁estimating
ylate
▁radioimmuno
.9
▁mammalian
▁complication
▁phospholip
▁mitochondria
▁melanomas
lowering
▁aqueous
▁enriched
▁qualit
adenosine
lyl
▁streptococci
▁elicited
-2,
▁outpatient
▁nosocomial
phosphamide
monary
heal
ographically
▁microm
▁Immun
sus
▁needles
▁caro
ncy
/-
erence
▁85
▁tubule
▁cytokines
oic
▁enzymatic
▁progres
otone
▁endoscop
▁metabolites
▁antibiotics
▁1000
▁lectin
▁reproducibility
▁synchronous
▁10(-4)
acetyl
utions
thase
oceptor
tel
▁verapamil
▁rheum
▁mitochondr
▁cyclase
lue
▁MHC
▁leuk
▁gon
MIC
▁protoc
▁oxytocin
▁discrimin
▁palli
echan
invasive
▁oxidation
genic
▁gait
▁substanti
▁ganglia
▁nm
ensitization
▁comparisons
▁(25
▁LS
oidal
▁Steady
ochrome
uted
osin
▁isch
-2-
▁transmembrane
▁obesity
65
▁compartment
ogens
▁tas
▁jejun
▁splenectomy
urgical
blind
▁apolipoprotein
▁proce
▁pigment
▁2,
▁bowel
oplasmic
▁retinal
▁mammography
▁HeLa
▁adenocarcin
▁glands
▁dete
▁0.01).
chloride
estig
roscopic
ifed
▁atmosp
▁transplantation
▁preven
▁cation
▁autoanti
vents
▁preceding
▁antic
21
▁transfected
▁canine
▁exo
(1
▁apical
▁GSH
▁diabetic
1%
▁CG
▁50
▁refrac
rotid
▁Elec
▁splic
▁respiratory
▁4%
tingu
▁thrombolysis
hips
inic
▁Fifty
▁selec
▁monocyte
▁concordance
▁2.8
tact
▁oxygenation
▁Throm
nee
▁Regarding
▁Severe
▁afferent
▁81
▁arrhy
▁LD
▁RB
inj
▁arter
perfusion
▁myosin
▁7%
0.5
▁stratification
▁mucosa
oxin
ionine
▁biopsies
▁striatum
▁chromosomes
▁LV
▁sut
ithi
▁lithotripsy
oxia
-3-
▁irregular
▁metastases
▁laparoscopic
iloride
aceous
protein
▁granule
▁initiating
reness
lood
▁markers
▁tryp
onc
trexone
▁allele
▁progressively
▁inhibitors
▁IGF
▁dors
▁developmental
▁overlying
otypic
▁21
▁40
clinical
▁natri
▁multim
▁fluc
▁0.2
▁conductance
▁physi
pir
-60
▁dodecyl
▁neurop
▁coeliac
▁myelin
ventricular
▁predicting
▁Taken
urys
▁hemodialysis
▁plateau
▁antitumor
▁CMV
▁questionnai
eclampsia
▁papillary
▁onc
NAc
ogenicity
oxygenase
acchar
▁pH
▁PGE
▁nucleotides
▁chemotactic
tention
▁phosphatase
▁interferon
unctions
▁cholinergic
▁Increas
▁Serum
-[
odgkin
myc
olip
▁gynec
▁72
▁bran
▁laboratories
▁Bec
▁dosage
▁inhalation
Hg
▁melatonin
▁55
ocomp
▁TB
▁septum
▁OC
▁mandibular
▁inhibits
▁0.03
idate
▁proportions
orption
▁aorta
▁recor
azol
opressin
achid
terone
▁appendic
arbox
▁phospholipid
▁pyruvate
▁vaccines
-9,
ectin
▁muscular
▁symme
pine
▁chloro
2+.
ygous
▁homogeneity
▁neon
opolysaccharide
urium
OH
Tu
▁0
▁DF
atectomy
▁adenoma
12.
▁1.9
imens
▁shortened
▁rectal
▁relap
thanol
▁Thirty
▁0.25
▁pregnancies
67
trol
gative
▁trac
▁LC
roma
▁assessing
ticular
▁kinase
▁carbohydrate
▁parasite
▁contex
▁nicotine
▁3,
ducing
▁EG
tivity
ethylene
kelet
vant
43
astom
▁distin
▁thrombin
oluble
▁gland
▁phospholipids
▁3)
▁flexion
chym
essel
▁migrated
romes
sorption
physiological
tero
▁positively
▁glycos
ecyl
▁1:
▁cryp
▁ATPase
▁progen
▁tibial
tran
▁carbachol
▁intrauterine
▁ganglion
▁induction
▁reversed
▁acceleration
▁similarity
▁hemo
▁colonization
▁hippocamp
▁coel
▁axonal
▁metastasis
▁catecholamine
8-
ovirus
▁abnormalities
▁glucocortic
▁phospholipase
▁mitotic
▁immunomod
▁establ
ocarcin
▁aerob
onate
selective
▁suppressed
▁correlate
▁intensive
ducts
▁overlapping
▁phe
▁statistically
▁prophylaxis
iability
othelial
3+
▁95%
▁apo
▁newborn
uccessful
▁fibrinogen
inositol
▁anat
▁differentiate
embran
▁antisera
▁chan
▁neurones
oxide
agic
▁preparations
▁thyroid
crimin
.7
kade
▁papill
adian
▁glycerol
4-
▁haemorrh
▁ischemia
lesion
▁hemat
endorphin
ration
▁caud
tory
▁Bac
▁ambient
▁umb
▁allergic
teric
esity
till
tur
urther
▁microsomes
▁NPC
▁51
▁bolus
ulmonary
mol
anthine
▁microscopy
▁1.5
▁efflux
onyl
olytic
▁axon
▁ile
▁rhe
▁cytos
▁correlated
▁gp
aminated
▁ultrastructural
▁antibiotic
▁purified
▁linoleic
fos
openia
iary
▁centrifugation
▁nec
atid
▁10
NK
▁disper
inergic
atrial
otomy
▁ect
7.
▁compounds
encl
▁sphincter
▁exclusion
facial
erving
xate
▁chronically
▁paradigm
▁conduc
▁yiel
▁contral
▁elic
▁polyclonal
▁34
8%)
ylic
▁precursor
▁postmenopausal
idin
▁(197
▁3
inally
ffer
▁FS
▁eluc
▁cholecystectomy
▁membrane
▁RAR
▁titers
▁reconstituted
oderm
mittent
obacter
▁numb
▁mediation
ophys
▁regurgitation
▁vulnerability
▁stimul
▁9
▁recombinant
▁chromatin
leb
entan
▁arachidonic
▁regen
▁GH
▁4.5
▁nitro
ochemistry
▁lithotrip
▁restenosis
vac
siological
▁lambs
▁follicle
oagulation
▁rheumatoid
▁histamine
▁newborns
▁cisplatin
▁PHA
▁oxide
▁exis
▁tumor
tracellular
▁viruses
▁progn
▁HLA
▁addi
▁dilated
erine
glucose
▁strains
urethral
▁predicts
▁sickness
▁PRP
▁eradication
activation
▁astro
seud
▁tach
▁6.
ogenetic
transplantation
▁translocation
dimethyl
lier
▁perfusion
▁anesthetized
-4
▁antiser
▁peroneal
Ki
rogra
▁immunohist
▁antagon
luded
acylglycerol
▁airway
1%)
3%
▁epidemi
2318
▁recurrent
oxidation
▁3.5
▁acyclovir
▁electrophoresis
trin
▁examinations
▁facilit
osyl
oretic
▁thal
▁biochemical
▁captopril
▁clonidine
▁plasmin
osom
Tc
tors
▁sti
100
▁prevalent
▁cen
▁androgen
▁hepar
▁elevation
ivoc
▁mucos
olones
ofluores
▁cuff
▁hydroly
▁amyloidosis
▁0.05).
▁dilatation
▁tox
BW
▁melanoma
▁cycloheximide
ropo
isqu
rine
▁smokers
opoly
▁triglycer
▁islet
LISA
2)
5),
▁potentiation
▁modestly
▁pneumon
▁diarr
▁depres
prising
otox
▁ischem
▁glutamine
▁fluor
TPA
▁behavioral
▁0.6
▁5.5
entary
▁plaque
▁fluoride
▁promoters
▁4,
tific
▁theore
▁SCH
ronectin
▁laparotomy
▁synovial
▁platelets
▁binds
mediately
roximately
▁(0.
▁implant
▁adenylate
▁phy
▁cirrhosis
cepti
▁consequently
enzyme
▁practic
▁spontaneously
10
▁53
▁unil
1).
▁98
▁appropriately
▁heparin
▁forsk
▁definitive
odal
rophy
▁xen
▁devi
zymes
▁quantit
▁versa
▁urinary
▁scin
▁canc
▁Contrary
▁EF
▁referral
▁lesion
▁VD
▁judged
36
▁kD
rangement
▁PB
iliac
iosis
▁gestation
)2
▁infarction
▁Radi
▁pathologically
▁Hz
▁catheter
esia
▁heme
▁libr
idase
▁0.01)
erable
▁deli
▁opioid
▁episodic
▁BW
▁ACTH
▁scintigraphy
ilization
▁43
cele
▁underestimated
▁pharmacy
▁lipoprotein
▁glycoprotein
▁tomography
▁ester
▁synergistic
vated
▁synerg
ompan
▁peptide
iae
▁porcine
▁hep
▁inters
coated
▁prostatic
▁omitted
▁circulating
▁satur
▁limb
▁presynaptic
undibular
.3%
ronchial
▁35%
▁manu
iferation
▁repor
▁NMR
▁maternal
▁contrac
inol
▁92
▁vesicles
▁DSM
derived
▁intraper
▁enrolled
olipoprotein
▁resemb
▁sarcoma
clerosis
tectable
▁segmental
▁dorsal
tured
▁reversible
▁thymus
uppres
ellular
▁48
trop
▁Hep
evoked
▁nucleus
▁adenine
glutinin
▁reagents
▁chemot
▁cavity
tension
▁streptococcal
▁Leu
▁stained
▁acetylcholine
oxid
▁alleles
▁develops
Ala
owever
▁ossification
▁chemically
aginal
▁mutant
▁inward
atase
ocusing
oag
▁41
▁enteral
▁OA
▁plasmids
tocin
sions
▁(3)
▁ratios
uresis
▁concomitant
▁intragastric
aturation
motic
▁anion
atural
▁occlusal
stro
etitive
cyst
▁regulating
▁doses
60
▁parathyroid
arate
▁familial
▁31
fib
galact
▁comparative
▁constric
ochondr
tration
▁lobe
▁intercostal
▁potentials
osts
▁rigidity
icin
rowth
-5
▁NP
▁perc
xia
▁feasibility
din
▁insufficient
bladder
DH
▁modulates
▁usefulness
▁agar
▁sensi
▁94
onad
▁lipase
ustif
comitant
▁Compared
▁neurotrans
▁guanine
immuno
▁occlusion
▁inh
uble
▁synthesis
▁immunodef
▁histologic
▁opi
▁caudal
ortal
▁intestine
sies
▁labelled
apeutic
▁naltrexone
▁deficits
ococci
tent
bly
▁76
85
▁hypoxia
▁resour
itus
ailure
sive
▁phosph
▁norepinephrine
▁plasmid
responsive
▁HU
▁contaminated
monstr
ropine
omotor
▁ultim
▁diges
▁perox
▁valve
gment
ecre
▁angioplasty
atonin
▁evoked
▁myeloid
▁pate
▁10(-7)
▁utero
▁0.02
orative
-9)
▁biop
mig
▁accumulated
▁intrag
▁ipsilateral
ximal
dle
▁NADH
▁isolates
▁insufficiency
▁7.0
reported
▁MN
▁metabol
▁reproductive
▁pyramidal
▁overe
▁4.2
▁trophob
▁precur
▁5%
▁neutrophils
▁ethyl
▁epinephrine
ece
ichia
modulin
▁minus
▁catecholamines
tam
▁injections
minis
9,
dia
plastic
immunoreactive
▁acet
▁unaffected
▁steroids
radi
▁cholesterol
BV
▁reag
athyroid
▁20.
▁intra
▁schizophrenia
alues
ostatin
▁hipp
19
▁5)
▁pathway
▁malignancy
loid
Dawley
▁stimuli
aminop
▁interacted
▁inhibin
▁neonates
5.
▁thre
osus
▁83
olecular
opathological
▁plasminogen
5-
▁testosterone
▁regurg
▁naloxone
▁thromboembolic
▁defects
▁polypeptide
oproterenol
▁advan
▁sham
▁confir
▁chor
▁IB
▁etiology
yroid
▁0.06
ubicin
▁inappropriate
▁cef
ysm
▁thems
▁salivary
▁predominantly
tization
▁mitral
2%
regulation
▁stimulated
▁1%
ropriately
▁clinicians
ifedipine
ropha
ylephrine
▁chemo
▁hemoglobin
▁pressures
▁reser
▁reper
▁TA
▁exchan
18
▁nonspecific
▁neutrophil
▁assays
omatic
andard
athe
Hu
▁cirrh
▁NB
▁satis
▁myocardi
▁chori
▁VE
▁71
▁Forty
▁consolidation
▁Alter
▁lymphocytes
▁nonc
ivation
▁201
▁cataly
▁CPAP
glyc
▁hypoth
▁0.000
▁cyclospor
▁aldosterone
▁substitu
ithm
▁organs
▁transferrin
ecan
renaline
▁descending
3)
anuary
▁infil
▁implicate
▁haem
▁tubular
▁evol
▁calves
▁199
▁upstream
▁ultrasonography
▁gonadotropin
▁multicenter
▁atres
▁elec
heres
▁ach
namic
▁hypothe
ventional
▁nal
▁immobil
▁definite
ayers
▁pall
▁embry
▁desirable
▁emerg
oxygen
▁implanted
dies
▁sequential
▁47
arial
antial
▁ventric
▁susceptibility
▁supplemented
▁25
activated
▁epi
DG
anyl
▁196
▁ascertained
stranded
▁histopath
▁mell
3).
▁aggregation
▁30-
onography
▁repaired
sensitive
▁occurrence
▁olfactory
queous
▁70
utaneous
▁gangl
opi
osome
▁refractory
▁excre
terol
▁turnover
▁islets
▁TT
▁indications
▁chl
▁nutritional
▁pyr
▁bladder
▁reliably
▁deficiencies
-2
▁scans
▁0.3
▁antagonized
5)
▁compart
▁2.9
▁silic
rents
▁isoforms
1/
▁pertussis
▁CsA
dent
▁specificity
roin
vertebral
▁2)
▁1,
▁macrophages
▁pressor
▁satisfactory
atine
gmental
▁amn
uncture
▁abnormal
approximately
▁hapl
▁pathogenesis
▁adipose
sible
▁inactivated
olateral
▁infiltration
▁biliary
▁prescrib
▁(1)
▁lute
▁IVF
▁microgram
assay
1-
bacco
illation
▁reflecting
▁cyt
8)
▁prednis
onatal
▁phenotype
▁proliferative
▁ure
▁detergent
▁5-
affinity
▁73
▁TPA
ylline
oradi
▁hypothal
ulae
▁stimulates
▁objec
▁analysed
▁(2
enol
▁15%
dic
8,
▁ventilation
▁protease
▁2.2
▁olig
▁carcinoma
▁shif
▁hepatocytes
▁10(-8)
otroph
▁Preoperative
▁quantif
attern
apeu
▁ligation
hydrox
tophan
▁(5-
▁irreversible
▁differentially
▁endoplasmic
otropin
▁incidence
▁predictors
▁persist
▁ingestion
▁inser
▁glu
▁morb
▁swelling
▁eliciting
enteric
onol
▁adhesions
PSP
ogenes
▁tumour
rected
ropathy
▁56
▁pathological
▁3.
▁superoxide
▁alve
▁propor
▁42
▁Surgery
peptide
▁dihydro
essive
olenic
operated
▁excision
▁eosinophilic
▁NADP
▁Thromb
▁traumatic
▁disparity
▁glutamate
▁5.
▁irradiation
▁diets
▁synthase
▁algor
▁retention
▁HTLV
▁GMP
▁-2
ffinity
illary
▁follicles
▁physicians
▁detectable
teroids
inhib
▁SHR
▁ovari
enzymatic
tive
tructive
▁accumulation
▁rejection
tries
▁preferen
erents
▁TBI
▁uterine
topril
▁CAM
▁Fc
1.
▁uter
ochemical
▁equivocal
▁4)
accharide
4+
xual
▁regis
▁HI
▁transcrip
FH
diabe
▁premature
▁ket
fts
▁markedly
IIIa
alp
maximal
▁inges
trast
▁ELISA
▁rabb
▁Atropine
mature
25
uvate
aventricular
▁3.7
▁receptors
▁diminished
▁carotid
▁Protein
▁vein
▁resected
▁geriatric
▁60%
▁dissec
iversity
lym
deple
▁unex
▁hemorrhagic
lob
▁extraction
quine
rox
▁EDTA
▁counseling
.1
▁genomic
▁Patient
fluoro
▁78
▁substances
▁hydroxy
astric
▁inhibiting
▁adenosine
rocytes
ofol
▁parotid
▁discus
helin
titis
31
▁corpus
oblasts
▁Treatment
▁phosphatidyl
ACh
▁mortality
▁insuff
▁equilibr
▁inflammation
phosphorylation
▁retur
▁remission
odg
PAP
▁rebound
▁autop
▁lyso
▁pancre
▁plantar
renal
▁Comparisons
▁(100
▁cadaver
▁deficit
kephal
▁birthweight
luding
itance
▁atherosclerosis
ospitals
razole
▁removes
▁homology
▁oxid
▁progestin
oskeletal
▁theophylline
▁adolescent
▁microcirc
NB
mixed
▁sampl
▁8,
▁trache
udin
▁HC
▁efficacy
0,
▁morphological
▁kb
rehen
containing
.2
▁Muc
helial
▁endarte
▁physici
6)
▁stric
▁allogeneic
76
▁8-
▁HG
gely
▁ADH
▁cholest
▁4.
▁fmol
▁1987
▁BMI
nthe
ergy
▁rationale
▁lamin
▁hepatitis
▁ejection
▁6,
spectively
▁glycine
uscular
▁depressive
▁tuberculosis
erative
▁practitioners
▁HB
(5
▁ulc
urane
▁toge
▁inositol
▁polypeptides
▁Tum
ivocal
▁vitro
ylamide
▁dislocation
injured
▁cortex
▁conformational
▁KCl
▁myo
▁collagen
▁thym
▁differen
%),
phen
▁preoperative
▁alcoh
▁subjected
▁depolar
▁desensitization
▁postoperatively
▁inoc
▁influx
jected
▁exer
▁oste
▁diffuse
▁MV
▁synapses
▁PMN
▁dendrites
ivary
gulation
▁lysosomal
▁FSH
ylated
▁isolate
▁unselected
uterine
▁anastomosis
rectomy
▁transpor
▁impair
Leu
▁hetero
tages
▁membran
fron
▁monocytes
▁6-
▁superficial
▁omega
▁ventricular
▁prostaglandin
▁hepatic
▁seroton
▁PEG
▁paren
▁schiz
▁arachid
alact
▁recombination
▁spind
▁urea
glycerol
▁17
pyr
▁5'-
▁59
▁retin
▁randomized
▁Kup
▁hypertensive
▁chromatography
▁ppm
thrombin
▁pathways
oscopic
Ts
NH
▁mitochondrial
rone
▁insertions
epam
odiaz
▁expon
▁sequel
▁forskolin
LF
tum
▁spi
elan
▁0.05
▁Staphyloc
▁leukemic
▁CNS
▁NMDA
agin
CRP
▁cardiomy
tradiol
▁saturated
▁epitopes
tructural
hyp
▁plasm
▁fetal
▁empirical
54
▁1988
taining
▁follicular
echanical
▁ineffective
▁(14
trac
bloc
▁3'-
▁psychosocial
gene
▁rehabilitation
▁DP
▁increas
tance
coup
tric
oactive
▁37
▁junction
▁HDL
▁derivatives
▁Chronic
▁ANP
▁morphologic
osterone
adder
▁IgM
▁calcification
0)
▁confined
▁epitope
▁embryonic
▁Adverse
tally
adication
ilibr
vices
▁LPS
rometry
omers
immune
associated
antigen
▁excreted
▁memb
▁biosynthesis
▁subgroup
▁tes
▁cerebral
erad
▁PAF
erent
▁MRI
-16
urin
▁herpes
▁seizures
%).
▁heterogene
atest
▁prosthe
duce
▁dentists
▁morphology
▁99
▁hormones
▁adop
▁cellular
trial
▁agonist
rested
ithelial
tively
oreceptor
▁adhere
▁inflamm
ocardial
ods
ycin
turally
2+]
herence
acet
ields
▁dietary
thyroid
-40
▁hypog
▁carcinogens
▁nicot
▁6%
▁suppor
▁optic
▁cigarettes
▁ae
uccess
▁transloc
▁demonstrates
▁cohorts
▁20-
▁affec
▁fas
▁inherent
▁clinician
▁deficiency
▁malign
ignificant
▁Chemical
▁Asp
▁mimic
▁difficul
sectional
▁compartments
▁0.00
000
athetic
▁EA
ocytes
▁HS
▁(95%
▁3.6
omal
▁remo
tering
adrenoceptors
titution
achol
▁decreas
▁mitogenic
▁0.
▁29
▁unchanged
▁phi
▁carc
▁preliminary
▁fluctu
oplasm
▁arti
▁ana
Ca
▁plas
▁vacu
▁(4
▁Phen
▁frontal
oprec
entical
onit
▁67
▁aneurysm
tig
▁0.7
ipine
adily
▁vasomotor
▁unstable
aryn
▁chol
▁mutation
▁kinetic
itin
lymph
▁LN
▁74
otoxic
▁subjec
▁sarc
▁Removal
avage
eak
▁divertic
tabol
tyl
1,
▁retard
2,
▁arthritis
aturated
▁substantially
ocyan
▁SG
occus
▁projec
▁clus
▁crystall
▁microb
▁Chan
▁adip
▁metastatic
▁Phe
▁engraftment
▁BP
▁monomer
▁neurom
▁esophagitis
omial
▁docum
▁hydrophob
7%
▁accessory
▁curative
loxacin
entral
▁ulcer
luc
▁mediate
▁(+/-
▁amp
osine
asone
▁warranted
12
▁phosphodies
▁interstitial
▁vomiting
55
▁19
riton
▁pineal
otide
▁epilep
cessive
tak
▁degrad
▁mAb
▁ocul
▁electroph
▁zinc
odialysis
IFN
▁conduction
▁5
▁routinely
▁geniculate
▁pancreatitis
omized
▁synthesized
▁graft
ynthe
oglobin
▁nonadherent
▁eryth
▁fulf
▁clones
zard
▁precipit
▁sediment
▁Thir
▁anaerobic
omerular
tron
.6%
▁Dopamine
▁cG
-2.
▁spontaneous
▁detrimental
▁nig
7,
bodies
▁enzymes
▁24-
▁validated
▁differe
luores
▁preferable
micro
▁alteration
3.
▁palp
▁transduction
13
AIDS
▁63
▁calf
16
ariate
▁Estrogen
▁GnRH
▁succin
▁undes
ontal
5).
▁hydroxylase
▁aeruginosa
▁requi
▁summ
▁TNF
▁accounted
loon
othel
▁anastom
▁.0
▁fetuses
▁microtub
rosis
controlled
▁kDa
▁mutagen
▁electr
▁abd
▁Comparison
oate
▁EBV
orphin
▁stimulating
cious
53
▁diagnose
▁deprivation
▁chemotherapy
lac
35
▁Ket
▁hypers
81
▁Afric
phyloc
▁1.4
▁carbohyd
siology
▁assessed
1/2
▁fracture
atif
▁resul
ecal
▁discontinued
ogenesis
▁hypoxic
thmic
▁bovine
mitter
ypical
angi
atum
▁recr
▁Americ
▁chewing
embr
▁questionnaires
▁rCBF
▁reproduction
9-
▁adhesion
▁sequentially
dition
▁tubercul
phil
ocyte
▁neurologic
GH
▁MG
coun
TK
▁outward
▁intram
▁pathogen
ocor
clin
▁inoculation
▁pylori
▁molecules
▁influenz
▁GABA
deficient
▁motility
▁moiety
tebral
▁drainage
alc
KA
▁secretion
aptic
sibly
▁iliac
▁socio
▁cytokine
▁ultr
▁colonic
▁amplification
clamp
▁lis
▁tubules
▁projections
▁complemented
▁differentiated
▁aortic
▁fluores
▁acad
iminary
▁paralle
▁polyps
osal
▁foc
▁glucagon
vation
▁persis
▁strep
▁EEG
▁hemisphere
▁Pseud
tead
▁prolactin
ocl
ternational
▁incubated
asses
2.
siologic
otin
▁prostate
▁keratin
▁5'
overed
sess
▁WK
urc
bred
▁implicated
oA
irc
78
▁dox
▁endemic
▁inhal
▁surgical
ustained
▁sacr
ifferenti
▁Golgi
▁65
▁79
▁apparatus
▁oocytes
▁isop
▁traum
▁circumferential
▁injected
▁amines
viron
adrenoceptor
▁MM
▁carbohydrates
▁stellate
▁diffic
odium
lasts
▁peroxidase
itrate
▁organism
ioid
otre
▁Dil
▁adenomas
▁gluten
umably
tine
▁thrombosis
cholesterol
84
▁Hear
kine
▁adrenal
▁electrocardi
minal
oresis
▁centr
vail
▁phosphate
▁dissociation
onomic
▁leukocytes
▁Findings
▁fixation
▁(16
▁conditioned
tative
▁genic
▁infarct
/100
▁influenza
▁Multiple
▁solub
▁placebo
▁thrombo
▁prospective
mentation
▁adrenergic
rogenic
▁adolescents
▁throm
responding
▁intrarenal
nine
▁simultaneous
99
▁heteroz
▁localized
▁8
▁nitrogen
▁evolving
▁promo
▁beha
-1-
▁antibodies
▁moderately
▁catechol
sych
.5
▁thresholds
▁hemodynamics
▁noc
acerb
▁occl
▁atrophy
▁ambulatory
▁terminus
▁stren
▁characterize
▁corticos
▁HSV
olamine
totic
23187
othane
▁ageing
▁irritation
▁ACh
▁effector
▁precedes
oplasty
▁uncommon
-20
▁bronchoscopy
▁lumbar
▁75%
▁pati
orphic
▁intest
▁PTH
▁provocation
▁(19
ophore
romycin
2).
▁maturation
enin
▁gels
▁laminin
▁employing
timulation
▁TCR
▁muscarinic
97
azole
▁oxidase
▁chec
▁preceded
▁duoden
ectable
▁endometrial
ilized
▁umbilical
▁cis
acil
producing
▁cultured
HF
▁therapeutic
intestinal
▁electrodes
yste
▁preoperatively
scop
▁phosphorylation
testinal
▁ALT
thle
▁electrode
▁fibre
0.0
aminase
▁disulfide
▁directional
▁endogenous
▁infections
▁erythrocyte
▁bypass
▁sero
▁nifedipine
chymal
▁3'
operative
▁glut
lastoma
▁wt
▁accep
▁incomplete
▁natriuretic
▁PF
odil
▁measurable
▁62
CBF
4).
▁overex
ercul
amus
▁demonstrating
▁acceptor
ococcal
▁lateral
▁obese
▁excitatory
▁cyclic
anish
▁regulated
ogeneic
▁RIA
▁197
▁gly
isol
▁cyclo
ogenic
▁epithelium
chers
valence
▁corresponded
ergen
▁induc
▁prognostic
▁virtu
▁GVHD
▁initiation
▁1.3
▁Inhib
▁afferents
-6)
▁LHRH
▁proportional
▁cros
▁innerv
▁respiration
▁undergone
▁athe
▁mRNAs
quired
IgM
▁2.6
economic
rague
▁ald
armac
▁fron
tumor
▁rigorous
▁yeast
▁36
▁depr
▁investigating
▁fatigue
▁hazard
▁biosynthe
▁nodules
▁chond
▁regimen
ocamp
▁acidic
▁(11
▁VP
cells
▁monkeys
▁conges
▁7-
▁adherence
▁cortic
lax
3,
▁discon
▁dilution
▁Bone
▁repres
▁radiotherapy
▁(9
ilateral
▁postoperative
tially
▁pyl
▁inactiv
▁TC
▁molecule
▁Cd
▁surgeons
glutin
lep
ovine
ophy
▁endpoints
▁abor
incubation
idine
▁acin
▁ascertain
ignific
▁coex
amycin
molec
▁FH
▁lymphoid
45
▁supernatants
▁Inhibition
▁PGF
▁degeneration
birth
opo
ociation
▁54
▁(13
▁femoral
▁tris
rologic
▁antiserum
▁fasting
irub
▁criter
▁kine
▁perme
▁repetitive
igaret
carinic
▁radicals
▁0.01
▁cephal
▁vaccin
▁rhy
▁peritoneal
tin
▁lumb
ortic
rosine
▁Binding
▁1.1
silon
EGF
▁fibrin
fec
▁35
anking
▁potentiated
▁APD
▁reticul
ostomy
▁disulf
ervations
▁testis
▁12,
▁10(6)
▁resis
▁vasopressin
anine
stimulated
▁anomalies
▁hormonal
atment
▁assis
▁verteb
illus
▁microv
▁fibres
▁antagonist
receptors
▁unres
electro
moid
▁saline
▁IgE
▁bronchi
-17
▁obstruction
regulated
▁conclu
▁0,
▁corticosterone
-24
labeled
▁responsiveness
▁elimination
▁pmol
otting
MN
▁resuscitation
▁sedation
uminal
▁COS
▁tidal
▁IIb
▁angiotensin
▁plex
▁echocardi
adic
▁luteal
▁ligands
▁cys
▁posi
lip
▁polyp
▁Pretreatment
▁manipulations
▁complications
▁reperfusion
hap
nec
actin
30
▁reductase
▁immunoglobulin
amn
ectom
▁distrib
Hb
▁degen
▁incom
▁calcified
▁undergoing
▁blin
▁cardiomyopathy
▁adjunct
▁modality
▁mmHg
Gly
▁mutations
▁contractile
▁interfere
▁RV
▁tachyc
teral
▁adi
idol
▁balloon
▁solvent
tensive
rene
▁3%
▁spre
▁multivariate
▁[125
▁anticoagulation
onary
▁cDNA
▁microns
▁solubilized
ologous
urons
▁lysis
▁buccal
qui
▁selen
▁exce
▁parental
▁hypertrophy
siveness
▁0.01),
obarb
▁TSH
tro
hetamine
thel
3%)
▁urine
sue
▁detec
▁milieu
▁arginine
ceptive
ulitis
ffe
keletal
▁insertion
implantation
toxic
▁validity
▁soluble
▁encephal
450
ograms
tetra
▁cations
▁caffeine
▁rostral
lec
▁regulate
49
▁peptic
▁homogene
▁resto
▁tissues
atories
▁intrinsic
▁regression
▁sugges
ivariate
▁vitamins
monella
▁PV
▁pulmon
▁LT
▁mediated
gm
▁Experiments
▁adjustments
tically
▁degradation
ituitary
teroid
▁aggres
▁hydrolysis
gression
diastolic
GV
▁instrum
▁soybean
▁incubation
▁diame
illar
▁acetab
reatine
2+
▁predictive
iasis
▁39
▁indi
tiz
▁RBC
▁neoplasms
▁retina
tives
▁infusions
icep
▁postnatal
▁genotypes
.4%
▁consequent
ensi
occal
▁muc
▁0.05)
▁dendri
▁linole
yses
▁inoculated
▁ruptured
-30
▁7.4
▁sinus
▁21-
▁incub
▁fractional
▁replication
▁hypoglycaemia
ardia
▁HCC
wenty
vic
adrenaline
ovascular
▁subcutaneous
▁screened
17
ameth
▁audi
▁GV
79
trus
tiv
-8)
-6
▁hypertension
▁syndromes
▁arrhythmias
▁unclear
bearing
▁Patients
ighted
▁subgroups
quid
▁osteoporosis
tial
linking
▁chloroquine
jug
▁exhibited
▁chromosome
itant
▁immuno
unctional
▁hap
▁LDL
▁untreated
▁glycogen
▁granulocyte
▁kidneys
▁junctions
▁axillary
▁mV
▁40%,
phal
▁110
immun
▁fibrob
▁biphasic
ietic
0%)
▁ligand
▁thymidine
▁platelet
▁inadequate
oracic
▁myocytes
▁neutroph
▁Biochem
▁bene
▁minimally
olol
▁respec
▁pep
rozen
▁reactivity
trate
▁lipoproteins
treatment
▁(0.1
▁isomer
▁hypo
cad
▁subunit
fected
acetate
▁veins
▁clamp
ellum
▁amput
▁deoxy
▁macrophage
cence
▁illustrate
▁(8
▁normo
-7)
▁implantation
feren
▁Cyt
▁CCK
▁sciatic
▁RH
▁diaz
RH
▁tec
▁22
opres
▁lact
▁hypotension
▁hydrox
▁93
opausal
▁NAD
resting
▁steroid
▁bp
phe
▁lipids
▁SNP
▁PRL
▁hypertro
▁underlie
▁DN
thma
+/
tional
▁extrac
semin
▁tymp
thmias
plate
:1
aterally
▁constitutes
▁bipolar
noise
globulin
▁MAb
▁stenosis
tant
opamine
▁shor
plants
▁galact
▁spleen
▁creatine
▁hormone
▁perin
pinal
CMV
pation
itonin
atible
phosphon
venous
ochemically
ogenous
-15
▁anatomic
-1).
rins
ipit
▁limbs
ocar
▁90
brain
nRH
stolic
▁thyro
▁progesterone
tase
▁pediatric
cribed
▁acco
▁ethanol
▁micron
-13
bular
arcoma
▁consis
graft
saccharide
8.
▁subf
▁79%
dor
▁overweight
sia
11
lycemic
▁phorbol
▁apop
ocele
▁cocaine
▁LH
sively
retion
▁specimens
▁discontinu
yel
ofl
▁pneumonia
▁seb
obarbital
mide
▁(1
▁staining
▁rabbits
tate
▁Meas
▁enhancing
▁hypothyroidism
urrence
Ba
▁ventilatory
▁58
▁contralateral
tussis
kele
▁1.
reast
sequent
▁leakage
▁postulated
fat
▁Vitamin
erally
▁Streptococcus
▁highl
robic
.2%
▁morbidity
▁cutaneous
▁quantitative
▁selectivity
▁densities
opulmonary
▁recombin
▁underst
ropyl
▁modif
32
▁determinant
▁aggregates
HM
tized
▁PCR
amide
▁unsuccessful
▁ascer
occi
▁congen
methyl
▁conserved
▁quanti
▁lamina
▁differed
exis
tomy
▁viral
posure
▁immunity
▁20
▁anemia
▁cesarean
▁synov
amethasone
ylase
▁microsomal
cture
ogra
28
▁inheritance
▁autoradiography
▁bradykinin
2-
▁prenatal
▁autoradi
▁malignant
tage
aline
▁pathology
▁substitution
▁deposition
'-
ivered
ohyd
tation
heric
▁paradig
▁micrograms
etan
hydro
tamine
generation
▁Cardi
subunit
tis
▁glutathione
▁gluc
ergic
▁latency
▁heterogeneous
▁hemodynamic
▁hydrogen
▁sensory
polyacrylamide
▁75
4%
-9
chloro
▁allogra
trypsin
-1
▁triglyceride
▁membranes
▁analogues
anavalin
▁analges
▁glycoproteins
▁progest
ipid
uric
▁thorac
▁MCP
▁administered
▁intrac
▁commerc
▁sequelae
derly
▁0.5
2+,
▁exercised
piratory
induced
▁neo
ubation
▁(0.0
tened
▁rostr
▁relapse
opam
▁concurrent
tribution
xone
15
iciencies
bility
ocytosis
▁exon
▁cholec
2/
molecular
▁communic
▁thoracic
▁inver
urea
▁msec
▁ionic
▁depleted
▁tubes
utyr
relevant
▁interv
▁linkage
ithiasis
▁silicone
▁subsets
filtration
ostasis
▁microbiological
▁pulp
▁diastolic
SCC
ifferen
▁substrate
trical
▁alkaline
otri
adren
▁80%
▁spermat
ected
▁latent
▁spectro
▁pleomorphic
34
▁hernia
▁mitogen
▁selective
▁fung
ocellular
3-
rophob
▁tended
▁edema
▁secretory
thym
▁Intra
▁LVH
▁innervation
lycerol
▁blockers
ophren
▁Plas
▁oxidized
▁experim
▁atropine
▁TG
▁tolerated
▁anatomical
resist
▁pHi
▁apex
▁susceptible
▁derange
epit
atell
otyp
▁produc
cents
Ka
erox
▁enrol
+)-
▁exceeded
▁vitamin
▁antibody
▁Ig
orpor
opathic
sA
tidine
Ig
▁creatinine
enicillin
▁wee
80
ACS
▁gyn
rhy
▁fructose
anding
6.
▁connec
dibular
arous
▁comple
▁coli
(2+)-
▁speculated
acrine
▁epileptic
truction
▁MAP
▁cervical
ampl
▁chamb
▁hospitalization
▁+/-
▁cytotox
omod
▁immunization
produc
▁conformation
▁LF
iably
▁congenital
▁cGMP
24
.1%
▁metabolic
utable
▁synthetase
▁0.001)
tions
▁compli
▁300
▁CK
▁ery
aminidase
KD
hemical
▁suppressing
olus
▁hydroxyl
▁intraven
▁cate
heximide
▁symptomatic
▁hepat
▁conjug
▁analogs
▁causative
▁proton
▁defective
arrhy
▁DG
▁lymph
omethacin
ctomy
▁headache
icine
FV
6-
▁intracellular
ethyl
idis
▁clarify
▁45
ynaptic
eroxide
kely
epti
▁Cox
transformed
accharides
▁undertaken
▁venous
▁mediates
9%)
▁(6
lectomy
▁poin
▁SDS
▁ANF
▁antigens
▁-0.
lox
▁fati
tected
ologic
▁affinity
▁periodontal
ylcholine
▁tran
(+)-
▁adequ
/2
▁ATP
tual
▁(0
▁PET
▁cochlear
▁(17
▁excitation
▁4.0
esti
▁characteris
▁adhe
▁600
jun
▁pelvic
▁incorporation
▁neuronal
acting
▁aort
▁placent
▁contrib
▁interc
▁IU
▁peptides
▁positioning
▁esophag
▁carcinomas
▁homologous
▁entero
gesterone
Ds
IGF
▁disadvantages
▁enti
otassium
▁monkey
▁(198
▁splenic
iotensin
▁intrap
▁estrogen
▁ouabain
▁albumin
orrh
greater
▁aor
iatric
▁cytosol
▁abnormality
▁Vac
▁interventions
apamil
▁determinants
BH
ocytic
DNA
▁proteolytic
▁physiologic
rease
▁oes
▁vaccination
▁gallstones
▁2.1
olarization
▁immunore
▁favorable
▁PKC
▁endoc
▁adduc
enhanced
▁contractions
▁subtypes
versus
tagland
▁squamous
▁1.6
ophylline
▁marrow
▁virul
▁tRNA
▁PEEP
▁glucose
▁modulation
loro
fused
▁catab
▁mening
duction
▁stimulate
▁femur
adrenergic
▁detachment
▁hams
▁genome
8+
▁elevated
▁extre
ocin
▁interpre
atinine
▁Intravenous
▁esters
piration
▁isoform
▁valu
▁microM
▁hemorrh
▁anastomotic
▁CI
partate
▁colonies
orubicin
▁sulph
ture
▁recom
▁viability
▁2.7
▁benzodiaz
▁vivo
ococcus
▁7,
▁calmodulin
erations
ygen
▁adjuvant
ollicular
truc
+)
angl
▁fluorescence
lusion
▁dosing
▁3.4
▁astrocytes
▁negatively
▁cortisol
▁competi
▁trypsin
▁stimulatory
▁cysteine
▁regeneration
▁tachycardia
▁parame
▁topical
wk
▁spinal
bumin
orac
▁contributes
carcin
▁precursors
▁myocardial
▁techniqu
▁regimens
▁leukocyte
▁stimulus
6%)
▁benz
▁necro
▁mL
▁radiolab
▁0.001).
▁rotational
olec
otides
▁(50
▁distinctly
▁testicular
▁Prospective
gth
▁demographic
▁hippocampus
▁infar
▁loci
▁sepsis
▁hypot
absorption
▁inhibitory
fusion
▁strepto
▁24
▁reduc
ritis
ophag
▁transcript
▁(10
▁PCO
4,
▁hamsters
▁strom
▁uptake
uclear
otrop
▁potency
adequ
▁cytosolic
▁pharmacokine
receptor
infected
▁encoun
itoneum
▁extensor
aemia
▁exten
▁unde
▁ration
▁90%
▁postsynaptic
abies
▁activator
relations
▁corneal
gesia
otropic
▁18
▁retrograde
mur
spective
▁musc
▁Systolic
opulation
estions
tious
▁enzyme
sion
▁phosphorylated
▁awa
▁trig
opia
opramide
▁yielded
▁diluted
▁prophylactic
▁pla
▁lymphocyte
acted
▁50%
▁impaired
▁lith
venth
▁angi
▁metabolism
lated
▁messenger
▁spermatozo
▁0.9
toph
Nase
▁alanine
ipolar
ancre
▁infused
▁gastro
▁1.8
▁dimer
▁amyl
▁120
▁terminals
nitro
▁shortening
idney
▁liposomes
▁invasive
▁migraine
▁1-
kinin
▁1.7
▁23
▁reas
5,000
▁fatty
▁arth
▁intraoperative
▁vasodil
▁([
sibility
ocardi
▁tuber
▁attenuated
▁venti
▁examin
▁anticoag
usate
ylation
▁ventricle
▁bilateral
▁inactivation
▁placenta
▁cerebellum
▁Samples
trimental
▁therapies
70
▁ECG
idne
olgi
▁dopaminergic
olated
▁pelvis
▁radiography
▁tiss
toc
▁predic
▁[14
1-2
▁radiolabeled
ervical
▁nude
▁prel
▁neph
▁Accordingly
ubiqu
▁hyperg
▁52
ditions
▁intestinal
▁1.2
▁withdrawn
▁inpatient
▁hCG
▁neurons
▁150
ifug
▁retic
owel
▁livers
▁Kupffer
▁variants
ensities
uron
▁astrocy
▁axons
licular
▁purification
▁suppressor
▁recons
▁prostagland
▁epidermal
▁frog
▁RM
37
▁transplant
-10
▁89
▁immunos
▁80-
▁preterm
▁infectious
▁neurob
▁HL
▁cathe
▁10.
0.
responders
▁granular
▁sci
rants
▁phage
oscopy
▁cholestasis
▁BD
▁sedimentation
▁nucleotide
▁AE
▁pigs
▁bile
▁artery
▁elu
▁gonad
▁Stu
-6-
▁dexamethasone
▁inhibitor
▁allevi
▁chloride
▁10-
▁inotropic
lasses
▁potent
+,
▁blot
▁thiol
.0
toxin
platin
▁8%
▁reagent
erated
7%)
▁aerobic
▁cows
▁pancreas
▁assay
▁aspec
▁manifestation
▁lam
▁eluted
▁cla
nucle
anol
▁ventil
▁(30
▁2-
▁decreasing
▁disruption
henyl
▁alp
▁cytology
▁tol
▁reversal
▁frac
▁cerebellar
tice
▁noradrenaline
▁3-
▁Engl
oscop
oxic
osynthe
arginine
▁macrom
ATPase
▁lumen
▁46
epine
▁dissection
ressing
▁abdomen
▁clon
▁5,
▁juvenile
▁immunoprec
▁aspirin
▁inhibited
▁PDGF
hep
▁immunoreactive
▁poorer
unar
oratory
▁cartilage
▁rash
26
▁attemp
▁arteries
oglobulin
helium
urate
▁anatomy
▁mammary
▁100
▁sulf
vascular
▁prescribing
▁12-
▁Significant
onuclease
▁perceptions
umerous
kinase
oprotein
jec
▁Continu
ostal
▁neuron
▁aden
▁glyc
tensin
otypes
▁reflux
ught
affec
educed
-5-
loride
vian
teine
ozo
▁prognosis
▁hazards
ygo
▁ionophore
▁cloned
▁simult
▁indicative
▁horiz
icardi
veness
▁spike
hern
▁displacement
divid
▁11,
▁glucocorticoid
▁cues
▁uro
▁hygi
weighted
▁undetectable
▁neonatal
▁Wistar
▁3.0
opro
▁tau
▁Tumor
▁reproducible
estis
▁dopamine
▁dysfunction
▁EGF
tical
▁TGF
ulatory
▁RA
▁verte
arean
▁resol
▁cigaret
▁deliveries
▁decreased
uoden
▁heterogeneity
1)
▁vagal
contrast
ffec
▁synaptic
▁antec
▁periodon
▁MH
timal
▁endocrine
romed
scherichia
istal
▁elimin
oung
▁nasal
usp
▁differentiation
▁struc
▁hemorrhage
mTc
▁bac
▁thir
kDa
tents
▁cervix
▁mellitus
.6
▁mM
▁phenyl
▁accelerated
▁BALB
iatic
▁infusion
▁injur
▁13-
ifferentiated
Daw
FU
ulph
▁intrav
4)
▁IgG
▁attrib
▁modulate
▁pyram
▁laparo
▁synthe
ithms
.7%
▁potassium
▁evaluating
assium
dimer
▁dehydrogenase
pH
▁dehyd
uretic
chlor
▁lamb
▁polymer
tein
▁subtraction
ymme
▁myel
turb
▁lesions
▁overexpression
▁thyroidectomy
▁thromboxane
▁intravenous
▁(5
▁pacing
▁VO
▁vasoconstric
5%)
ints
▁calcium
oconstric
▁optimum
amino
ropriate
0,000
clic
▁workload
▁additive
iotic
▁sodium
▁gamma
▁mucosal
▁evid
▁leukemia
▁PSA
▁peripheral
▁induce
▁IgA
thmatic
seal
▁Escherichia
▁dischar
uptake
▁coronal
▁reproduc
▁WHO
▁peroxidation
▁RNA
▁Acute
▁NADPH
▁placental
TB
▁gestational
▁homoz
agit
▁3.8
▁IFN
pinephrine
▁filament
▁genotype
▁HPV
▁saliv
▁phon
urgery
▁Phy
iotics
ranial
-4)
dominal
▁improves
▁concentrations
▁3.2
lective
▁hypox
▁proteins
▁GI
rati
tion
▁fentanyl
▁choline
menopausal
endri
1),
▁synap
▁medial
ministration
inemia
eded
-14
ocrine
thymidine
eptide
▁inhibition
▁198
fal
▁1.0
14
functional
▁necrosis
▁avail
titu
▁fractions
▁immunode
9)
▁fibrosis
▁Glu
▁metastas
▁reticulum
tability
▁histopathology
median
▁underwent
▁fractures
▁chromosomal
uvant
▁induces
sities
▁PAS
LV
▁GTP
▁inserts
▁250
▁AO
▁erythrocytes
▁abolishes
▁tryptophan
oprote
▁adap
▁actin
secre
▁subc
▁.05)
ediatric
astatic
▁cardiovascular
RNA
▁coagulation
roph
▁pharmacological
▁exposures
▁surgeon
▁intramuscular
▁bip
▁restor
kground
aemic
ymptomatic
▁leukotri
▁mononuclear
▁accel
▁atheros
▁haemorrhage
opa
trated
trous
zyme
▁gastric
oride
▁0.1
▁Mn
dine
▁1/
▁collagenase
ctive
▁prolif
atation
▁neoplasm
/1
▁anae
ylchol
asive
▁grading
▁endothelium
▁cyclosporine
▁lymphomas
▁abl
▁atten
▁electrophoretic
▁amin
▁gallst
▁polyacrylamide
▁standardi
▁lysine
ceptual
▁psychiatric
erate
▁66
ostic
▁generalized
▁PMA
▁Cushing
▁analogue
▁cerebrovascular
▁slices
▁arterial
▁intermittent
ifugation
phenyl
▁32%
▁recessive
▁diabe
geal
osocial
▁somat
▁construc
▁decarbox
odic
▁atrial
▁inducing
▁epiderm
▁shunt
atients
erating
▁metast
▁parap
▁granules
▁dye
▁beats
▁substituted
▁APC
▁60
▁guan
dose
dial
ayed
▁functionally
reas
▁oxy
▁cytotoxicity
▁confound
▁molar
either
▁Surgical
▁HN
▁6)
imide
▁OT
ositol
riched
▁intravenously
uginosa
▁pneum
▁paraventricular
wes
mental
▁sexes
▁RS
▁dele
▁0.8
▁autosomal
▁alcoholic
▁suppression
omonas
selec
operoxidase
.9%
▁percutaneous
8%
▁probes
▁perip
▁97
▁subun
-18
▁clinically
▁feasible
▁dex
.4
▁kinetics
ipitation
▁asymptomatic
▁auditory
▁inten
olysis
gments
▁methionine
▁alterations
▁reflex
▁oligos
▁striated
▁87
▁epidemic
▁pigmented
▁arteri
acetic
▁CABG
▁depic
ameter
▁distinguishing
▁visually
ignant
amet
▁proximal
