▁Parkinson
▁seizure
▁0.10
PV
▁autoantibodies
itant
▁116
▁acids
odermal
▁lympho
indolol
owever
▁uptake
▁750
▁bromide
▁transcripts
▁hypophys
▁evolutionary
▁SMC
10)
terolog
2/
▁predicting
▁86%
▁5'-
▁noradrenaline
tral
▁kinetics
▁gingival
▁spectro
uliar
▁6.6
monophosphate
▁exogenously
tophan
▁LAK
residue
▁3.8
▁routinely
tomycin
▁neurons
▁1987
▁synthesis
▁immunoblot
▁Morph
.9
▁endometrium
▁linole
▁illustrate
▁calcium
▁VP
▁2)
▁fasted
(-)
▁dysp
▁Patient
ordant
▁tris
▁36%
▁triglyceride
▁15,
▁cytology
▁epit
▁surgeon
▁circadian
▁CHF
▁glomeruli
▁ouabain
adiol
/10(6)
ritten
affinity
▁9.1
▁3,
▁132
▁infusions
trodotoxin
retin
▁acuity
tus
▁0.13
olip
▁193
▁electrolytes
▁Adverse
araldehyde
▁viral
▁3.9
▁pS
lue
olgi
ellular
▁intrinsic
ziness
glucosidase
▁elicit
▁transduc
▁virulence
▁fluxes
▁salmon
aggreg
▁postural
▁interventions
▁otitis
▁mediator
▁tracers
jug
osum
-201
ignificant
▁(63
▁rostr
▁equivocal
▁irrig
▁facilit
estions
entan
alciparum
▁benz
▁amoxicillin
▁antitumor
athyroid
iodothyronine
resis
▁narrowing
aethyl
▁Swed
▁capsule
▁slowing
titute
▁retic
ucine
25
▁5.2
▁inducer
▁aggregation
thle
▁stiffness
▁150
obacter
85
▁hepar
▁steadily
trib
▁suggestive
▁proximal
▁nitrate
▁soma
▁titers
VLDL
roglobulin
▁sensitized
oides
ectin
▁(1.9
▁1:
amid
▁0.45
yanodine
1-2
▁substituted
▁(3-
▁dele
▁carcin
▁termed
▁0.0001).
▁2,3-
▁migrated
▁2.0
achial
▁bilayer
▁bleomycin
Trp
▁Possible
aminobutyric
▁combin
▁proliferation
▁oval
embry
▁interruption
FEV
Km
▁isomers
56
▁interneurons
▁(300
▁tonic
▁glomerul
92
ypro
▁simplified
▁Immunobl
ctive
37
▁correlating
▁monkeys
▁RBC
oyl
▁lipoproteins
dependently
duce
▁villus
▁(0.8
onuclease
omers
molecular
▁tertiary
▁(37
▁dosing
▁amputation
intestinal
▁0.05,
thickness
▁aorta
19
▁Previous
▁nephropathy
▁fibrillation
omegaly
entary
▁1986.
▁CGRP
alasin
▁chemotherapy
▁disper
contrast
▁prol
ocated
▁midline
idine
▁EMG
▁paradigm
▁mutation
▁predic
▁Gly
▁symptomatic
▁prophyl
▁mannose
ocusing
▁antagonized
ofluores
▁Alz
▁114
6;
▁47
▁constitutively
▁compensatory
▁starch
▁juven
▁6-
▁Measure
5%).
▁aneurysms
▁ELISA
▁Eighteen
▁163
▁irreversible
unsaturated
oderm
▁EEG
tissue
enten
▁0.4%
▁uncommon
athiop
Tu
inj
ustained
▁ineffective
erence
phic
(2
▁(31
.0%
▁indo
sible
▁hydrolase
▁Glut
▁superf
opa
▁unnecess
ogenous
transferase
▁hormonal
onate
▁antigens
roscop
▁selenium
▁DNP
tism
▁thymus
RH
▁bundles
▁midbrain
▁0.78
teria
▁crude
▁cerevis
▁APC
▁Flu
▁aureus
▁levodopa
▁piglets
gesterone
▁nig
.4
anat
▁microspheres
5)
▁menopause
▁neph
▁potentiated
olesterolemia
▁filtration
orin
▁antiviral
▁asymmetric
teroidal
▁radiological
atif
▁sperm
rosal
▁vicin
alanine
▁platelets
▁microv
imetidine
omegal
▁1986
SEM
▁albic
▁Angiotensin
▁10.0
▁nitrous
▁11.8
▁PW
▁cyclic
tality
▁Holter
▁radiologic
▁peptides
▁0.21
roso
▁CAP
ulants
▁mannitol
▁novo
▁weaker
Cs
endorphin
▁WK
ostomy
▁assis
▁underg
▁Statistical
tabl
accharide
alkyl
agonist
▁omeprazole
▁Glucose
orh
▁myrist
▁opi
▁interfere
▁reinfor
▁133
▁surfactant
▁0.1
▁detectable
▁(2),
▁0.47
▁10.4
▁antidepressant
arose
▁42
virus
▁PSA
▁potentiate
OHDA
▁substrates
arum
▁pec
▁hemodialysis
functional
pecially
cytes
▁repetitive
asions
▁0.24
▁AMP
▁tolu
▁8%
▁1.00
▁triacylglycerol
ergen
obase
induc
▁crystals
7%)
▁endoscopic
▁gonadal
▁experim
▁Increas
▁ornithine
▁abstin
▁oligosaccharide
▁sacc
▁mesenchym
▁choline
▁vagal
▁cholera
▁inhal
▁cic
insensitive
▁dextrose
ocin
▁0.
▁SG
edding
.3%)
▁250
▁phosphodies
herol
39
perfused
imolar
▁CSF
▁compartments
trone
▁postnatal
phrine
osyltransferase
▁nephrotic
sorb
▁confound
▁onc
▁postmenopausal
dominal
dUrd
▁hypertrophy
deoxy
▁elution
▁0.01).
cyclo
▁dithi
planch
▁cohort
▁globular
▁amide
▁MMC
▁divergence
▁ketamine
▁pharmacological
vae
▁zymosan
▁20%,
▁dox
▁hypercal
azole
▁apex
▁GMP
atum
▁nonlinear
antigens
▁ammon
▁unres
▁gastrocnemius
▁influenz
▁HBV
▁aneuploid
3/
CHO
▁cen
▁7
▁impaired
▁(=
▁82
▁atten
▁lactation
▁adolescence
DH
▁persis
▁interpre
▁granuloma
▁empir
▁Registry
rogesterone
83
-3
▁CNS
imodipine
▁0.025
▁ultrastructural
▁neutropenia
emak
▁sero
▁4.3
▁mening
▁osmolality
otri
uretics
▁endogenous
(2+
▁lavage
▁ventil
▁3.
redoxin
dotoxin
60
moking
▁regression
partic
ocine
▁Gluc
uled
▁illumination
▁chlorhexidine
▁([
-(3-
▁neuropathy
▁jugular
▁acute
▁.05).
▁Previously
uria
▁PAI
▁invari
▁labelling
lining
stolic
▁subcutaneously
uptake
lives
rotoxin
ogenetic
▁biosynthetic
▁tric
▁arousal
▁188
ografts
▁reproduc
trin
▁GHRH
cis
▁indus
▁Taken
ordin
semin
▁leucine
▁hepatoma
▁reagents
lastic
kade
▁natriuresis
▁26%
chin
▁facilitated
azosin
▁surgically
▁asymptomatic
▁-1
▁differentially
adex
▁angi
▁shorten
▁TPA
▁undergoes
alas
plasmin
pirone
▁hir
▁subpop
▁hydrocortisone
▁melan
▁mitotic
▁nondiabetic
operidol
▁theta
antom
▁123
▁spon
▁interacting
daily
▁Gs
▁boutons
▁asthma
▁sympath
▁obli
demic
▁Lact
▁chewing
▁(79
▁homogenates
ositol
entical
▁atenolol
▁beats
▁PMS
hydro
▁ACE
magglutinin
▁dimers
▁cytosine
ventilation
▁averaged
uric
toid
▁Responses
▁elimination
alsy
▁dispersion
▁pathways
ETE
▁accid
▁permeable
▁-5
▁capacities
diastolic
▁crom
▁tetan
▁decreasing
uterine
▁variability
▁benzo
olecular
▁undergoing
▁4.5
▁unexplained
▁unusually
▁inherent
▁adhesion
eryth
onucle
lysine
▁predis
-8)
▁bladder
▁molar
▁angiotensin
▁PBL
▁SDS
▁psychomotor
▁possesses
▁mosaic
keto
tures
▁79
▁goats
oglut
▁ocular
▁nonspecific
▁wt
ilized
▁leth
mitoyl
▁bipolar
▁vesic
▁[125
▁transmural
▁nonsmokers
▁cathepsin
heum
▁degradation
▁Michaelis
CSF
▁stepwise
▁mM
cAMP
guan
▁CDDP
inflammatory
taz
▁fibr
▁extensively
▁mutans
▁35-
▁varicella
iliac
otonic
▁indicative
▁-7
▁49
5,000
oprote
▁axial
olitis
▁prel
nai
▁selen
▁hypotensive
ilic
agas
▁bacteriophage
operative
▁Samples
acyl
▁101
▁dischar
▁guanosine
phylaxis
vivors
opoly
▁cranial
▁valvular
▁83%
▁nitro
tine
▁valpro
▁evid
▁plots
2%
▁exhibited
▁sterol
▁graf
uronium
odialysis
epid
▁originate
▁hyperlipid
▁cycloheximide
▁aeruginosa
▁admissions
▁sput
ylate
▁solute
▁Electron
5%
▁placenta
▁epidemi
atibility
▁carcinoma
oflav
optic
▁abscess
▁traumatic
▁concomitantly
▁serotype
▁subdivided
liters
▁BALB
▁evidenced
▁exacerb
▁saliv
▁priming
ischem
-2)
▁transgenic
▁8.
▁0.12
otypic
▁somatostatin
▁plasmid
aline
turnal
▁GST
fibrin
-25
▁linearly
▁fivefold
▁sucralfate
onc
9).
▁arteriosus
▁Consistent
licular
▁(15%)
▁artery
divided
▁Extensive
-20
▁Estim
▁stabilized
-99
▁Various
anad
▁nutritional
▁injec
dered
omical
▁scaven
▁trich
pation
:4
▁propensity
▁aerobic
ipid
rosy
▁102
potassium
▁phleb
▁subun
▁dendrites
▁metastatic
▁granular
▁Tiss
▁Tum
ozo
▁neuroendocrine
osine
exis
cence
ignific
▁microm
▁utilization
▁strains
▁hamster
▁compart
▁actinomycin
olase
KD
acute
▁sple
omycin
receptors
▁chromatographic
▁arth
▁reversal
▁pyr
advan
▁dystrophy
acyclin
oxone
ocarcin
▁follic
mia
▁3'
▁ketanserin
▁DBA
▁(48
viruses
piratory
positive
▁COS
ogeny
▁68%
▁favored
ithine
▁digesti
▁diagnoses
illi
▁analogs
▁junctions
▁2.5,
▁lithium
▁cannula
tory
▁GVHD
ipr
▁epididym
▁compounds
▁carcinomas
▁sphincter
▁intermittent
▁reservoir
▁EPSPs
aminophen
sia
▁transpos
▁dP
▁granulomas
▁Inde
▁injected
▁sarcoma
▁synthe
▁Few
otassium
▁autoreg
▁inhaled
▁struc
athe
▁impair
▁articular
▁sulfate
▁8.0
ields
▁0.16
farin
rologic
▁bacterio
▁chlorpromazine
▁5,
▁immunohist
odend
▁23
▁intestinal
▁muscul
▁ciliary
▁Crohn
▁histone
ipheral
▁pA
▁kerat
▁BK
▁ventricular
▁retin
tility
ancomycin
▁reas
▁swelling
▁pancreatic
▁crystalline
ignant
▁carboxyl
▁REM
▁fructose
onazole
atite
ffeine
▁malign
▁0.3%
▁glu
▁deuter
▁thorac
▁pylori
▁muscular
▁lectin
ifug
▁CAPD
▁arrhy
▁8.5
▁comprised
vant
▁Thy
oblastoid
▁lipoprotein
▁acetylcholine
▁syndromes
▁0.02)
oneu
isomerase
▁macromolecular
plates
38
lox
oglobulin
ostasis
lytic
▁quantitative
▁surveyed
arynx
oprol
▁immunode
tinu
treated
oxyl
36
▁Inhibition
.7%)
hyd
.3
ugular
▁duoden
ortic
▁heteroz
tubulin
▁addic
azone
▁CK
testinal
▁dermis
▁innervation
▁uterine
6)
▁colos
translated
hosts
▁donors
▁alternating
▁LH
▁defective
▁CFU
▁compromised
▁aldosterone
▁laryngeal
▁164
▁200-
▁detrusor
yses
aneously
permine
▁4.7
uretic
▁7.
glucuron
▁ureter
glycoprotein
▁meiotic
.0
▁Glu
▁epithelial
omyosin
▁acinar
iplin
▁feasibility
▁isoniazid
omatosis
▁vigorous
▁axillary
▁CRF
2,
▁Sera
▁dilated
▁migrate
▁hypothalamus
▁organism
PAF
▁adversely
gestin
▁anions
▁rash
▁fluc
rein
atient
-198
▁endoscop
▁mitochondria
pendence
phosphates
▁pectoris
▁permeation
▁LDL
▁mathem
▁0.4
▁viscer
antoin
thma
▁weighing
traction
▁bumetanide
▁adducts
▁objec
▁seasonal
▁24-
▁compares
▁absorp
▁epithelia
▁felodipine
▁competent
▁119
rosemide
▁62%
ervations
▁66
▁gland
.5.
evoked
▁ultrasonography
▁monocyte
umbens
molality
amole
tagland
-120
▁skinfold
atases
▁prosthesis
▁extrinsic
▁ruptured
▁antibiotics
myr
▁Chlamydia
▁Fifteen
▁strom
pharose
▁Approximately
▁freshly
▁gly
▁phenylalanine
▁contributes
sive
▁pertussis
▁6.4
▁intakes
▁micros
▁compli
▁sinus
-200
untary
jac
▁paternal
robic
▁oleic
▁90.
▁CI
ults
▁HB
achnoid
▁valve
mitter
▁phyl
▁sonic
▁embry
▁atrium
scher
▁LTC
▁resembling
▁serological
▁mice
rography
▁consecu
▁residual
▁exons
sequent
-22
322
adrenoceptor
abbit
utions
acements
▁fibrinogen
▁acco
▁laparotomy
▁bacteri
7)
omial
▁fetal
utaneously
▁adenylyl
rotic
▁uteri
eptin
ophil
▁gonadotropin
▁organelles
▁rehabilitation
▁(15
▁scientif
▁ethanol
▁prerequ
▁allo
▁(10(-5)
▁opioids
pressing
▁(70
spective
▁cuff
▁7.6
62
oleucine
adone
nec
▁aqueous
▁cardiac
▁hams
▁asymme
▁polypeptide
atchard
▁(75%)
▁colorectal
ophores
▁epiderm
▁succin
▁transp
ogens
▁prolactin
▁avail
▁typh
▁malformations
oblas
▁phenobarbital
▁(22
▁clarify
▁Oral
▁endothelin
▁benzyl
▁ORF
tituting
ints
▁proteolytic
▁substantially
tris
▁localization
9.
▁blots
uplex
oplas
ardipine
▁blot
▁oxide
▁incontinence
▁secreting
▁61
▁TA
▁vitamin
▁enhancing
▁scle
▁exponentially
▁emulsion
adap
alveolar
▁invariably
▁remod
▁projections
ographically
utyric
▁stratif
ubs
▁Tissue
plastic
itro
ocap
▁prophylactic
amn
▁0.01
▁respiratory
32
▁chimer
▁TG
pH
tam
3+
▁logar
▁ultrasound
▁PTCA
sodium
okinetic
▁antiv
incub
▁1200
oxia
▁cytologic
ylic
▁sulphate
▁plasmin
orubicin
galact
▁occlusive
▁duct
▁0.04
▁MIC
▁cochlear
unctiv
▁valves
depr
▁defic
▁metabol
▁histidine
▁Vmax
iae
▁ND
▁lambs
▁anis
▁satisfactory
▁agar
▁10.2
phage
▁Krebs
▁myofibr
▁noradrenergic
▁intrathecal
ynaptic
▁dehyd
lobin
48
▁rearrangement
othione
▁118
▁7.0
idney
▁granulosa
▁69
udine
▁glutamine
▁biologic
▁cytoskeleton
▁emphasize
menopausal
▁duodenal
▁antagonistic
weighted
▁unexpectedly
▁Isolated
▁weakly
▁heterogeneity
▁phagocytes
▁radioactive
▁40%
onidine
▁attenuation
▁catalyzes
▁contrib
▁(400
tro
osome
▁(9
ivation
▁Eco
▁throm
▁immunoprecipit
▁4
ocellular
▁validated
disc
▁exten
▁elucidate
▁(54
▁vasodilatation
▁inser
oprost
▁autop
▁demonstrable
▁reversed
▁endocardial
▁(47
▁Rats
▁peptide
▁elastic
▁Vitamin
▁LD
titial
99
▁replication
▁retardation
phosphate
centr
▁angina
▁Significant
ivacaine
aterally
▁NG
▁dismut
▁specificity
ionate
▁rearrangements
▁metaphase
▁fixation
▁Seventy
▁PDE
▁buccal
▁(200
▁paradig
risk
adine
aptic
tillation
viron
▁positivity
itamin
▁excision
▁hypothyroidism
▁doubling
erver
▁epitope
▁Haem
▁concordance
▁homology
olateral
iotensin
inic
▁immunity
▁persisted
▁Fc
▁explants
▁preven
▁reactivity
▁SLE
▁cardiomyopathy
▁tetanus
-125
▁penicillin
vail
▁blin
▁haemoglobin
▁bupivacaine
▁95%
▁(500
ubiqu
▁enlarged
▁discriminant
▁unlabeled
▁depolarizing
▁Cox
HLA
oproliferative
otre
/100
opropyl
▁purification
▁concurrently
emide
uminal
▁MAO
derly
▁nM
▁amplitudes
cholate
▁somatosensory
urnal
atology
▁-6
AFP
▁dimer
▁rheumatoid
▁asial
▁accumbens
▁35
800
▁gangli
NAc
-52
▁basal
▁cirrhotic
▁venous
▁16%
▁retinol
▁labile
▁phentolamine
▁specificities
▁1
▁65%
▁cocaine
omegalovirus
azepam
14)
▁ovalbumin
▁increas
optimal
▁abdomen
▁catheter
▁Brain
▁1.7
▁shrin
▁subfractions
clonal
▁sham
fluoro
▁suppressed
▁intercourse
thick
▁fulf
kground
▁ultrasonic
osylation
▁indomethacin
▁soluble
▁glutathione
▁keratinocytes
▁weaning
▁prostheses
▁fibrils
bromo
▁relaxations
▁Dose
▁swine
▁(34
▁131
imin
▁monotherapy
▁cholesteryl
▁0.19
▁0.62
ociation
Ba
▁identifiable
pretreated
:2
▁impairs
▁antagon
▁yolk
▁Phen
▁proportions
▁protec
tryp
.8%)
▁vesti
4+
▁glucocortic
▁hypoxanthine
2+.
hesus
▁pep
▁33
▁Dip
▁sut
▁myocardium
▁198
▁endotoxin
▁birthweight
▁genomic
angi
▁emptying
▁IgM
▁synthesized
▁92
ilin
▁expiratory
▁fibros
▁infec
oxidation
▁microbi
▁sulph
▁anesthesia
▁polyc
ferrin
▁inactiv
▁caudate
▁intral
acholine
▁consis
▁datab
ethylene
▁evaluations
enem
modulin
▁extremities
▁syncy
▁14
colem
iciencies
▁12.
▁tubercle
ophylline
otomy
▁subpopulation
▁transitional
▁dissected
▁perioperative
▁membrane
▁intub
▁thrombolytic
▁hypox
▁3.2
hea
▁trache
▁vaccination
▁spike
▁PaO
▁cardiomy
▁inges
grees
competitive
▁6)
▁secretagogues
▁polys
▁Mn
quid
▁tib
▁colonization
▁irrigation
ifferen
▁+/-
▁parap
.2
▁porcine
▁elicits
▁brid
aminidase
▁prophylaxis
itrate
▁aspirin
▁myocardial
▁galactose
tene
ficial
▁homose
jec
▁adhesive
gnetic
▁streptoc
0.0
▁conditioning
▁analyses
▁bacilli
cotic
fractions
▁infiltration
▁hyperplasia
occlusion
▁polymer
angerhans
▁chromium
roin
sively
▁nonselective
yrene
cytochrome
▁Pretreatment
tages
uctose
▁microelectro
▁1.0
▁subclasses
1.1
▁(28
▁salts
▁underwent
urosporine
▁hyperpolarizing
▁neurologic
▁94%
▁characterize
▁limb
▁hormones
PSPs
3).
▁rIFN
ycin
▁reliably
opausal
▁gyrus
leukin
▁29,
▁bacterium
▁cryp
ocalcin
▁1).
twitch
ductase
▁gallbladder
▁fluids
▁silica
▁cooperativity
▁fum
lec
▁37%
ialysis
▁motility
anadate
▁IFN
▁(5)
omerular
▁compartment
▁expenditure
pyr
▁cytolytic
okinase
▁coronary
sensitivity
tig
▁lining
▁pathway
▁preincubated
▁paral
etitive
▁postulated
▁adrenal
▁platinum
▁similarity
▁cimetidine
▁provoked
)2
▁hypoxemia
erate
▁dete
▁mAb
▁hemodynamics
▁neurites
sibly
▁molec
glycerin
▁recurrences
chlo
▁inguinal
▁triti
▁(0.25
▁4.9
din
▁immunod
asive
▁vertebrate
incubation
▁ascites
chymal
▁hypoth
▁complementary
▁10(-8)
romed
▁oedema
▁Bmax
esthe
▁96%
thi
▁azathioprine
▁adenosine
osides
oprec
▁reabsorption
neu
▁LV
▁contraction
OH
natal
hydroxyphenyl
oil
atients
ocysteine
compart
▁unfav
amuscular
▁adminis
▁conduction
▁unchanged
ymethyl
0,
▁uncom
▁Activation
-67
▁centrifugation
▁catalyzed
▁rhin
▁prednisone
▁castration
schemic
▁nasopharyngeal
▁outbreaks
▁(94
▁esophageal
▁owing
▁repolarization
▁(16
▁diffic
▁arteriovenous
▁gentamicin
▁palate
-70%
▁differing
trum
▁neutralized
▁electrophoresis
▁0.2
▁Staphylococcus
▁bronchodilator
4.
▁manifested
▁neuromuscular
bular
▁invasive
ylcholinesterase
omonas
articular
ocrine
edema
▁phenol
oprotein
▁parox
▁psychiatric
lyb
coup
▁augmenting
▁neurolep
▁conductance
▁rectum
▁nebul
▁12%
▁discharge
▁perfor
tability
welling
▁resonance
▁strand
▁chromaffin
▁unbound
▁solitary
▁overlapping
otropy
plantation
▁CHO
▁MW
▁1.25
luores
▁thymic
▁adenine
▁Thr
▁pyram
thmia
▁bombesin
▁heterodim
tisol
▁11)
▁Sixteen
pain
omethyl
▁endoc
▁Myc
irds
▁BMI
▁uro
casein
▁photoperiod
▁Mice
IU
▁oestrogen
▁SBP
▁sugges
▁elicited
▁anticonvulsant
▁tuberc
▁Optimal
HCO
stimulating
▁posttrans
erad
▁dodecyl
▁FS
ammonium
IgE
▁PN
▁Eighty
lamydia
VIP
▁zym
▁anatomy
▁Subsequently
trol
▁pelvic
▁perfusion
▁6.2
▁ionic
▁lactic
tured
▁lymphoid
loon
▁alkaline
▁21
▁hyperlipidemia
▁clinicians
▁(44
illaries
▁radiotherapy
▁agon
▁oxidation
▁48%
▁foc
atous
▁enzymatically
▁spermat
▁inhibiting
▁capsid
▁pars
▁modality
▁enzymatic
▁scin
▁CPR
acrylamide
▁longitudinal
etent
bly
predic
ydig
▁newborn
cristine
▁complementation
▁(0.0
▁195
▁spind
▁DEAE
▁63
anide
▁0,
▁forskolin
▁VLDL
▁reductions
▁corticosteroid
lasses
zation
▁considerations
▁(30
otid
▁doubled
imetry
gia
▁5.8
icardium
▁criter
▁measurable
LR
▁ADA
ausea
▁kidney
ongest
etal
▁digestion
▁SEM
▁debr
▁dobutamine
ubation
ceptible
▁(19
ected
▁conditioned
birth
glycero
omod
yrin
blood
3;
▁catheters
▁induces
tors
▁sulfhydryl
▁Experiment
▁HS
agittal
▁pathophy
▁flanking
obronchial
acil
enal
glutin
iatum
▁1/
▁scalp
▁LTD
▁stroma
▁2-3
▁codons
▁progressed
▁theore
HB
▁Bone
▁kcal
▁subclinical
▁14,
▁20,000
▁-10
Ca
▁ulcerative
.8%
yramine
▁resul
▁conjunction
▁antioxidants
trus
/1000
▁7.7
▁effluent
▁transcript
▁hydroxy
ologic
ailure
vian
acylglycerol
▁pancre
▁organisms
ellum
oracic
93
▁spectroscopy
▁atrial
▁suppor
▁nutrient
ysto
▁TI
▁fluidity
▁characteris
▁droplets
polyacrylamide
▁systemic
-(2-
▁(11
onor
▁ane
▁CEA
glycerol
▁(6
▁neurite
enzyme
▁velocities
▁liposomes
▁schizophrenia
▁collateral
proteins
▁ligament
conver
diabe
▁ulceration
-28
▁kinases
▁NSAIDs
oxif
▁standardized
average
▁neutrophils
▁85%
▁respondents
▁irradiation
▁axonal
▁MoAb
▁homozygous
▁tumors
▁sulfur
▁10.
▁45%
▁iodide
/1
▁esophag
▁3,4-
▁100-
diabetic
▁Surgery
▁suture
▁progn
▁respiration
aryn
▁drin
tact
tual
▁glycosaminoglyc
siological
9%
▁amo
▁hydrophilic
▁haemat
-38
▁NH
▁1,000
▁incision
▁erythropo
2,000
ulline
8,
▁diseased
▁cyto
IAA
▁confirming
cemic
▁regurg
(5
2).
▁CTL
isomer
17
electric
▁vaginal
▁vacu
▁cGMP
▁Plasma
8),
▁(0
▁ambulatory
▁phosphatidyl
effects
▁phospholipids
-27
administered
odal
▁(1.3
▁antis
▁MH
▁Stu
▁chan
▁LN
inhib
▁secretagog
2)
▁psor
▁hysterectomy
▁0.95
▁nuclei
▁sensi
glia
▁Removal
cells
10,
▁145
▁attenuated
▁preceding
▁Sequence
lational
/5
▁Cys
▁cDNA
▁decreas
mineral
NH
▁0.9%
▁dairy
▁micrograms
▁0.66
▁exag
henyl
▁neurom
▁polymerization
immunoreactive
ikary
-4
tiary
▁(198
▁testis
▁intestine
iversity
▁chel
▁ubiqu
▁mucous
▁prone
▁confir
▁Addition
▁submandibular
▁incis
▁63%
▁enrol
▁rabb
MN
10.
▁edema
umably
Hodgkin
tigmine
tially
opulmonary
Rs
▁sphingomyel
▁Viral
▁quies
▁inverted
▁cholecystokinin
▁coval
▁peroxide
LH
▁Ultras
Kd
carotene
▁lesion
▁100%.
▁laparo
▁mL
▁delays
▁luteinizing
▁flas
▁hypertension
rosophila
brids
aturated
▁75
▁fibrob
DG
▁stimulates
00
odiaz
▁cephal
Gal
▁synap
▁KCl
ronch
▁agglutinin
▁Cardi
▁catheterization
▁Plate
▁NK
▁depletion
▁penile
▁devised
omies
▁Injection
▁Staphyloc
▁serogroup
perature
renic
enolone
▁retarded
▁febrile
▁sten
▁mitochondrial
▁Basal
▁implying
ropriate
▁exhaus
.5%
▁Hb
aceu
▁guanine
▁antinoc
▁Compared
▁assay
tensity
iteal
▁prerequisite
▁schist
▁mutations
▁redox
▁blas
▁tubulin
▁juvenile
▁paradoxical
tituted
▁uniquely
▁physici
▁mmol
▁dimeric
▁diaz
▁(125
MH
▁lumen
▁thromboxane
▁interacted
▁nucleotides
HIV
apeu
atids
▁inadequ
▁ammonium
oporosis
iodarone
guanine
▁optic
▁electroly
▁chloride
▁lys
▁monoclonal
myc
tak
▁10(6)
▁pools
▁physi
▁transformants
fec
ectomized
dose
▁147
muc
operiod
Hu
targe
▁ketoconazole
-80
▁reactive
orsal
▁oxy
44
▁cytochromes
▁ison
▁extracellular
arbox
itone
▁imbal
uronic
▁progestin
▁ternary
▁methodological
titu
▁ophthalm
▁cerebrospinal
▁constitute
▁1987,
-36
▁transplant
▁incompletely
▁counterparts
▁Actin
▁cAMP
▁reag
malignant
▁1000
▁corresponded
agonists
▁benign
▁predicts
▁LMW
▁larvae
coun
rhy
▁incorporation
▁Tyr
▁acetate
▁neoplastic
▁differe
▁acutely
sorption
▁glucone
▁OA
▁Spontaneous
▁descending
ylation
▁156
▁homeostasis
▁amin
-1),
▁motone
▁0.01),
▁8.8
ministration
▁neutrop
lective
▁consequently
▁lowers
▁ascending
tensive
▁BV
▁receptive
▁cessation
▁alcoh
abilized
▁hyperplastic
fluo
▁dimethyl
CCK
▁pleural
nitrophenyl
78
▁flora
▁unstimulated
▁noc
romes
enching
▁Arter
▁cartil
▁emerg
▁ultrastruc
▁amplified
qui
▁27%
▁66%
▁FFA
▁adrenocortic
▁tandem
▁immunobl
▁dichro
▁24
▁kd
otent
1,
▁electromy
dihydro
▁reversibly
▁endpoints
▁90
▁12-
▁microgra
▁favorably
sulfate
▁1960
▁vasoconstric
EPs
▁30%
▁mitogens
▁43
potential
▁chromatin
▁degenerative
82
▁subjec
▁phenylephrine
▁carboxylase
▁moderately
▁sarcoid
ASA
75
▁atropine
enin
▁Bacillus
pulse
.1%)
▁adsorption
▁fatigue
▁0.0001)
fluorouracil
▁rigorous
▁microns
▁nonresponders
▁mesenchyme
▁glucose
▁chol
000.
▁progest
▁diuretics
.10
▁pathogenic
ographs
▁perikarya
▁2.5%
▁modulating
▁antimic
▁androstenedione
▁microvascular
eclampsia
▁fetuses
▁lysozyme
▁biopsy
▁ADR
enhanced
▁4,
▁pmol
▁infrared
rocytes
▁ultrac
▁ultras
▁9.6
▁bronchodil
▁80,
▁nociceptive
▁iod
apid
▁Apgar
fused
▁AML
▁Repe
72
(6
▁cleaved
/10
hemical
ginine
lysin
enyl
tran
ostigmine
▁inhibin
8,000
▁unil
▁hep
▁Lipid
ogenes
▁conformational
▁Regarding
▁damaging
iosis
▁exchanger
▁15.
▁acceptor
orrh
regulated
▁sulf
▁hemolysis
ositi
ondr
▁12)
rostenedione
▁ranged
▁keratin
▁discriminate
entricular
▁RI
▁deline
tice
▁neo
▁coil
alp
tiazem
▁symp
▁Investig
▁Proc
▁choles
▁zinc
osclerosis
▁suppressor
▁SCLC
▁stoichiometry
▁spi
▁imaging
0-
▁Ig
▁puber
▁devoid
pontaneous
▁stent
▁injur
▁activates
lip
feren
tracted
▁chow
yrid
▁collaterals
▁hazards
▁(4%)
tiguous
▁99
MV
phrag
allikrein
-43
orax
▁(9%)
▁dysplasia
oscopy
▁Amin
▁clu
tations
▁multim
▁intras
.6
▁chor
▁detecting
▁heme
diagn
▁glycemic
▁shor
vice
▁unfol
tional
▁Hg
▁9,
▁pregnancies
▁swit
▁anomalies
▁thems
+)-
▁Dietary
▁lumbar
▁transfected
▁stimul
▁10(-3)
▁(1
▁cerebro
▁sorbitol
inally
▁SPECT
-1.
▁bilateral
▁4)
wann
▁ars
▁DTH
▁hyperglycemia
▁PRA
-300
turb
▁postoperative
▁diagnosing
▁pontine
▁GABAA
helium
▁titres
▁deprived
▁Histologic
▁tablets
▁fecal
▁exaggerated
▁polyclonal
▁promp
obenz
chemical
orepinephrine
suppres
opeptides
▁assessed
plasma
▁hippocampus
▁(-)-
▁9-
initi
▁Recom
▁depres
▁prono
▁cochle
poor
▁contractility
▁COPD
▁72%
exposed
0.2
▁transpor
▁toge
ylated
▁bicycle
▁nonf
coupled
ranged
▁inpatients
▁depleted
▁modulated
▁200
▁viruses
▁Chemical
▁12.5
tection
▁ulc
▁morphologic
electron
dL
▁discrep
ulose
▁streptokinase
▁Hyd
▁nodal
▁thyroidectomy
estrogen
pended
glucuronidase
▁Recombinant
▁88%
dimethyl
▁Trp
▁adolescent
▁aberrations
▁epidural
▁substitu
lep
▁phospholipase
▁endoplasmic
▁tricyclic
▁Synthe
▁microsp
▁900
osom
namic
icin
▁proliferate
carboxy
▁resum
▁39%
▁opioid
rogra
clamp
treatment
▁agonist
nish
▁facilitation
olesterole
▁marrow
▁1,
▁cyclase
▁superim
urospor
▁recirc
ucle
▁genomes
kage
estig
▁1,25
▁reticular
▁transplants
▁myristate
▁complexed
ffe
▁Cells
vertebral
hexyl
▁comparative
▁labeling
40)
porting
▁tritiated
▁50
▁antithrombotic
ometrically
▁exceeded
prol
▁fron
▁granule
▁neurogenic
▁spontaneously
orption
mittent
▁Levels
▁Hyp
▁calves
▁Kd
olipoprotein
▁Thyroid
nthe
▁threonine
▁anesthetic
▁appreciable
▁61%
▁unequ
▁photoreceptor
Phe
▁diameters
▁introns
▁0.2%
▁1-4
▁goat
leu
▁infancy
▁(43
amphetamine
▁41
▁(33
▁radioligand
▁(50%
rendipine
Glc
▁OH
▁implants
▁75%
▁coated
▁Infusion
▁FcR
clin
▁cervix
▁compositions
▁evoked
▁Assessment
▁positives
▁disseminated
ostic
▁Escherichia
yclo
▁6.3
▁splic
▁isotonic
▁Systemic
▁rIL
HPLC
▁formalin
▁Exercise
inol
▁immunoassay
▁Evidence
▁remission
irradiation
ylase
▁LDH
18)
▁logistic
stranded
▁hapten
▁isoenzymes
isite
▁103
▁146
▁correlates
▁ovulation
▁daytime
▁mitomycin
lob
▁cis
▁Biochemistry
▁(1.2
▁Kupffer
▁epilepsy
▁preoptic
▁promoters
rospor
▁mutagenesis
kinson
▁quantit
-72
fos
incubated
▁radios
▁posture
▁stal
▁microtubule
▁healed
▁vincristine
▁subgroups
▁1:1
▁antimicrobial
orporeal
▁unclear
amphenicol
trical
▁bypass
▁neurop
effec
ophysiological
▁pKa
▁regis
▁(3)
▁paralleled
9%)
▁mutants
▁Entero
▁ow
▁ascorbic
▁unmodified
tructural
stin
▁TT
ypical
▁Binding
▁carbonyl
▁hydration
▁Measurement
▁0.1%
▁proteinases
▁placebo
uncture
▁Cd
▁transcriptase
▁kb
tally
▁17,
▁subtilis
▁DHT
▁LVH
▁fibrinolytic
▁tauro
▁prostatic
queous
▁photon
47
presenting
hydration
▁lymphomas
▁Natl
tagog
▁fasting
▁intubation
rox
-1.5
creatinine
hyde
uantitative
ospor
▁3.4
odynamic
▁peroxidation
▁rifamp
▁perip
▁normalization
▁LPS
helical
▁nodule
▁HbA
▁PEF
▁arising
▁tricuspid
rague
▁hyperb
▁gonadotroph
▁reflux
tails
▁carriers
▁6.
▁discomfort
▁124
▁Cardiac
▁40-
▁replic
▁libitum
blastine
▁extensor
▁caudal
▁scintigraphy
.1%
roxy
▁enti
▁Streptococcus
controlled
▁dors
▁cisplatin
▁(67
prandial
▁21,
ranolol
oradi
▁phospho
▁dextran
▁fulminant
▁polymorph
▁70-
iotics
▁regeneration
tryptophan
▁pathogenesis
▁300
▁descrip
▁BN
▁1980
▁20)
trast
▁triflu
▁9
▁cesarean
▁substanti
▁carcinogenesis
glial
▁orthostatic
moderate
▁alp
ervical
▁KD
▁germinal
0.5
▁vacuoles
reatine
emia
▁tumours
▁estimating
▁catechol
▁adenocarcinoma
▁64
▁conserved
▁GABAergic
lipid
▁PKC
▁bioassay
▁Membrane
▁anaesthe
▁contamination
▁complexes
▁bladders
▁dilatation
▁insuff
▁preservation
iceptive
growth
▁apnea
nourished
▁NaF
amethasone
▁lateral
▁quinidine
▁10(9)
▁cmH
▁analogous
GFR
▁helix
▁BP
▁poisoning
▁98
▁sequencing
opeptide
▁(1.4
quine
▁uridine
▁summ
HRP
▁alkali
▁Thir
tivity
▁analgesia
937
▁Coronary
▁immunostaining
thood
▁Klebsiella
saccharide
▁Reduc
affec
oxicillin
▁brach
▁9.0
benzyl
went
▁isot
tum
▁immobilized
▁theoretically
▁leprosy
▁cohorts
▁barb
▁occlusions
▁(1990)
▁indications
▁quisqu
▁ionophore
▁isotype
Rb
▁octa
DHT
▁indi
ivariate
▁eminence
▁neuropeptides
aminob
▁HeLa
▁titration
▁13-
ongue
ocytosis
plen
▁accep
tence
▁1982
▁humoral
yridamole
▁oxid
turally
chrom
▁pneumonia
▁lymphadenopathy
idym
▁Simult
▁Concentr
▁postprandial
▁RV
▁calf
▁EcoRI
oxyp
▁genotypes
bumin
▁unselected
▁obese
▁ventric
ullary
stim
RBC
▁SRIF
▁strips
▁plex
▁100%
adders
▁parasympathetic
▁systematically
▁Ib
▁seb
▁lethal
500
Leu
mannose
▁splice
▁chym
1%)
▁(1.0
▁melatonin
tically
▁resto
▁conjugates
▁81
▁antisera
/20
ologous
▁chlamydial
infection
10
+.
▁insensitive
71
adrenal
▁thrombo
▁mammary
▁minimally
onine
▁100,000
▁cured
▁cortic
esthetized
▁hemag
▁PCR
▁([3
▁0.27
125
▁induc
▁topo
▁2).
▁intraluminal
▁pacemaker
otidase
eak
atical
▁mitogenic
▁antif
▁aor
▁electrically
▁exerts
catal
▁births
▁(2
▁oxalate
ograms
▁mumol
ovine
IgG
▁eug
▁55-
▁carcinogens
▁anion
plantable
▁venti
▁catalysis
▁intrap
inamide
▁71%
inesterase
▁[14
ocor
▁suppres
▁regulated
ruc
▁margins
▁demonstrating
▁dizziness
teric
▁Growth
▁couns
▁lipids
thanol
▁kain
▁signaling
▁adherent
▁filaments
ichloro
▁donor
GMP
▁113
▁concentrations
notic
▁exhaustion
▁attemp
▁reproducible
3)
▁papillomavirus
▁Replacement
▁confined
▁Acet
ynthe
floxacin
▁dialysate
▁terminals
▁53%
rents
▁pts
▁filament
▁interacts
ocomp
▁11,
▁phosphatidyle
▁primed
▁denat
▁monomer
▁tibia
-4.
▁disulf
establ
▁hypog
▁colliculus
renal
▁lacks
azoline
▁Rates
▁hyperch
▁benzodiaz
▁inhibition
▁perikary
tempor
tocop
▁mutagen
▁bradyc
▁elas
▁cystic
▁stimulatory
▁inclusions
▁endings
▁disrup
sectional
▁30%,
91
▁Fischer
tinguish
▁Bam
▁Pneum
nucle
▁therapeutic
▁theophylline
▁protoc
▁10(-6)
1;
▁ganglioside
▁undetectable
2),
membrane
▁discon
albumin
▁mIU
fected
ocyanin
▁stratum
osarcoma
erents
osac
restric
▁excretory
▁untreated
▁0.11
testosterone
▁macrom
blockers
orectal
-6,
▁pneumon
▁excre
▁establ
▁isop
▁ileal
▁receptor
abies
toc
▁vasodil
ectomy
▁placent
acetate
▁synaptosomes
2+-
ociated
cade
▁radioiod
▁ATP
tivated
-34
▁translational
▁apop
▁questionnaires
vity
▁arginine
▁Examination
▁markedly
▁projec
▁IA
▁excitation
▁allevi
trated
americ
tussis
minal
▁occlusion
plate
partum
tocin
▁postpartum
▁cerebellar
▁allosteric
azolium
benz
relations
▁hybridomas
▁forsk
▁phenyl
▁Tx
▁posttreatment
▁hydrogen
ceptive
crimin
▁progression
terminus
individual
▁androgen
apo
butamol
elves
atid
▁96
otrypsin
▁averaging
▁162
▁isozyme
▁fibroblasts
atitis
▁halothane
hydroxys
yro
▁TM
-400
▁folding
▁macromolec
▁MCA
▁overload
▁glycos
▁pyro
▁serotonin
▁dias
teral
▁Immunohist
ylchol
▁6
otropin
▁osteoporosis
▁7%
igaret
+]
▁Transient
▁syncope
▁20
▁50,000
▁discharges
physiological
▁MN
pont
▁antioxidant
▁prevail
▁57
.7
▁resusc
▁endothelium
▁77
▁5%,
▁angiographic
oposide
SMC
▁(5%)
▁0.34
▁arterial
▁polym
rophenyl
▁repertoire
▁tendons
▁rehabil
otrexate
▁Retro
▁capsular
▁diminished
▁lymphatic
▁19-
▁limbic
▁termini
buterol
▁Surgical
thyl
▁reticulum
resistance
▁0.99
▁aortic
▁Fifty
anyl
▁unsaturated
alate
viral
▁concanavalin
tigo
▁dosage
12-
inducing
▁pigs
▁59%
▁RFLP
▁vasopressin
ropo
▁anaesthetized
▁tolerated
entanyl
bodies
▁(0.2
hene
adication
▁analysed
ture
▁subdural
5]
dies
▁ole
▁MLC
0%
sion
▁perme
▁induction
▁appropriately
▁Maximum
ainide
glutamate
ergic
oride
▁isoelectric
kinase
▁sensory
▁amines
▁8.1
chym
▁fascic
▁predictive
43
▁Sodium
▁10%,
▁43%
▁induce
▁disturbances
rospinal
▁lacto
▁electrochemical
deficient
▁Symptom
▁transverse
tivation
▁pulsed
▁hsp
ucose
▁astrocy
▁34%
▁sequel
▁nitrite
▁oestradiol
▁transplanted
▁descriptive
lymer
ervated
xyl
ipolar
▁interleukin
meth
▁(69
▁uremic
5%),
scherichia
astatin
.2%
▁quotient
▁efficac
▁methylation
.5%)
ysts
▁agonists
▁hypoglycemic
▁(62
HCl
▁54
▁4.1
sives
▁laminae
totic
▁cellulose
nee
41
▁noxious
▁CCK
▁preexisting
▁homologous
▁supernat
sorbed
▁primers
▁circulating
▁seques
▁renal
▁Enzyme
▁negligible
▁[32
▁Infection
chloride
takes
▁direc
▁prednis
▁activator
▁menstrual
BMI
▁GS
▁(99
▁microsomal
▁viscosity
▁presumed
▁74%
▁tac
▁cholest
▁estrogens
▁Incubation
vac
▁sarc
▁retard
▁irrespective
▁repor
▁Lung
vices
▁Graves
▁clamp
▁9.
▁positional
therapy
roat
▁lipid
▁(39
otting
hydrox
▁0.54
▁cyclospor
imentin
▁fmol
assi
▁microtubules
▁digoxin
aturation
▁tracheal
▁8.9
▁25-
▁lysed
▁1988,
▁biliary
▁positioning
conditioned
▁conto
▁graded
▁rhythms
▁abolish
▁bacterial
(2-
iary
gressive
▁RNA
▁quantified
▁hypothermia
▁hybridoma
▁aggregated
▁vagotomy
▁DMSO
▁acros
parathyroid
▁microsomes
▁sedim
1/2
▁2%
▁denti
▁pipette
▁outpatients
▁tox
▁[(
▁turnover
oxine
tole
▁249
tilis
▁Ear
cortic
▁hemorrhages
▁ventricles
▁hydrophob
▁Interestingly
▁hap
▁phenotypic
reflex
allium
▁incubating
▁23%
▁microU
▁seropositive
▁amounted
dialysis
▁splenic
termined
▁lymphocyte
microglobulin
IgM
▁acyl
roprus
▁persists
▁Glc
▁rho
▁affec
▁steers
▁170
▁psycho
▁syngeneic
supplemented
-5'-
▁pooled
entif
▁99%
▁myotub
▁borderline
aceous
atosis
33
agin
issive
▁94
▁etiology
jury
▁somat
▁diuresis
▁superimposed
▁Calcium
▁800
Ra
▁acidosis
SDS
▁morbidity
abec
▁Complications
▁thromb
▁prostaglandin
▁demonstrates
▁plexus
sistent
▁computerized
▁splen
ilibr
▁haplotypes
▁isch
▁whereby
diagnosed
fluores
▁infarctions
pyrene
oung
▁qualitatively
▁56
▁assayed
▁immunological
siology
otroph
▁rods
▁quantify
▁dentate
lys
▁antagonists
▁abolished
▁dB
oretic
macropha
▁smo
▁fractionated
▁16
mented
earance
▁acqui
▁64%
▁bursts
▁transmitter
▁kinin
▁erythrocy
▁causal
▁originated
▁Comparison
idium
oxygenation
▁ureteral
▁GDP
▁lae
lyc
▁therapies
▁stimulant
PKC
▁latency
▁palmit
▁rebound
ophilic
▁(1),
reduced
sul
▁segmental
▁hapl
xual
▁bFGF
▁regulate
▁gonad
▁leukemias
▁(18%)
▁elec
▁verbal
▁0.05),
▁(20
▁pene
yroid
▁vesicles
determined
mortal
oresis
▁inducers
▁multin
▁acet
▁fibre
tens
▁retrovirus
▁nec
azep
▁actuarial
rophob
▁multis
WK
ipramine
▁transcription
lysis
▁Alzheimer
▁immobil
▁tyros
▁adequately
▁radiography
▁cholec
▁vanadate
▁Renal
▁gluc
▁connec
thyroid
▁transferrin
▁immunocomp
▁monolayers
▁ventilation
▁emphasized
acetic
300
▁neutroph
▁parenchym
▁Highly
▁chronotropic
▁PV
ACh
atase
▁thyroxine
otyp
etoprotein
▁cholinesterase
ediatric
73
▁Serum
2+]
▁Sephadex
▁70.
odg
▁thyro
radi
▁hydrolysis
▁1),
pecific
arachnoid
osensory
▁spectrometry
rene
▁mucosa
ACTH
▁contraceptive
▁scans
olus
▁mRNAs
▁7.9
lycemia
▁heterologous
▁comprehen
▁overt
▁somata
oxid
utroph
▁intraepithelial
▁pancreatitis
▁lumin
▁intracellular
▁splicing
rescine
5).
-1.0
odies
▁sickle
▁PMN
▁vWF
intensity
▁lymphocytes
▁Biol
uanti
▁stric
▁TS
▁ducts
▁50%
ygdal
▁CBA
▁twofold
▁plantar
▁maturation
gans
▁faecal
▁cerebral
-1.2
rophenol
selective
▁eryt
▁asthmatic
▁inoc
▁adjuvant
synaptic
▁loos
otypes
ighteen
▁Estrogen
▁stres
▁Glyc
▁50-
▁modulation
-10(
3,000
aric
▁surfact
atally
64
crip
▁11.2
▁3000
▁succes
4'-
ecyl
▁PCP
▁Twelve
obarb
▁lymph
ampl
▁cytosolic
▁HRP
dT
▁Factors
▁PAP
54
▁Cs
▁supplemented
transformed
amines
▁curative
mental
▁sequelae
kely
▁leuk
▁adenoma
▁paralysis
▁subdi
▁amphetamine
▁instillation
▁consequent
associated
▁carbohydrates
▁deoxy
pril
▁intoxication
▁incubations
ochemical
rogenase
▁HPV
▁synthesize
▁leukemic
▁triceps
elic
98
600
/30
▁confers
▁deviation
▁permeabilized
▁iliac
▁0.22
▁EPR
▁DNAs
▁sciatic
▁chemo
▁contractions
▁CAT
▁FU
aldehyde
▁succinate
tants
▁ischemia
▁55
▁sonography
odular
▁synaptic
▁(8
PTH
▁administered
▁testicular
obases
.6%)
▁rhy
▁(14
uran
▁0.98
▁embryos
cholic
▁.01)
▁amp
cys
▁2.8
▁intra
elec
-9)
▁grouped
▁ductal
▁proceeds
▁perin
▁pelvis
▁incom
▁tended
▁pore
▁allele
▁viability
tension
ffec
nitroso
▁Likewise
▁envelop
esia
▁biopsies
▁antid
▁10(-1
▁Assess
zotocin
olab
▁treadmill
▁subjected
oblastic
olipids
bile
▁unstable
tamine
▁OV
▁histologic
trates
▁epidermal
▁trach
▁abstinence
▁sequential
▁mug
ucl
▁fla
▁lymphocytic
▁110
▁steroids
▁potentiation
▁3.1
▁methionine
▁FITC
rostened
▁sarcoplasmic
atellite
kinetic
aind
▁electrostatic
glucosamine
31
oxal
▁107
▁50,
▁bradykinin
oreceptor
▁Experimental
▁cardi
▁dementia
▁Epidemi
▁ovaries
▁5.1
▁sorting
dIns
▁hypothyroid
▁albicans
▁autopsy
▁examinations
riton
triglycer
inase
▁Experiments
lyl
▁Chrom
▁thalamic
▁precipitated
:3
▁Arterial
▁15-
7),
-17
▁nigra
▁vaccinia
▁elevations
▁tRNA
▁endometrial
▁yr
▁recordings
▁expectancy
lasting
▁permits
▁ppm
▁.000
▁equivalents
0).
tyl
▁permeability
itoneally
gative
▁biochemically
ifferenti
▁hypo
veness
▁gallst
▁1-
▁TMP
rease
▁1983
▁msec
▁5),
ocyst
▁strepto
▁lineage
onegative
echan
▁(50
rocy
iplinary
▁intron
▁ventricul
▁demyel
lym
▁cytos
subunit
▁diabe
▁binds
tensin
▁9%
▁wors
kling
5;
kines
▁unresponsive
▁128
uodenal
▁obstructive
3%
ducts
obarbital
▁dibutyryl
▁1970
▁hydrochloride
astatic
tructed
▁(95
▁repro
ithi
▁waveform
hion
▁digestive
▁immunoglobulins
ponin
▁metastases
▁nonin
siologic
120
▁generalized
▁apoprotein
▁(4)
▁kainate
▁proline
▁erythropoietin
▁anemia
horm
▁pH
NB
▁focal
▁biologically
▁transfusions
puts
aldosterone
▁poin
oplasma
ecan
▁anae
▁Epstein
▁statistically
▁maturity
▁exceeding
▁presynaptic
esity
▁radiolab
iprofloxacin
▁122
▁CaCl
5%.
▁vege
▁displaced
▁prevalent
▁antithrombin
▁oes
terone
▁euthyroid
▁congen
▁80%.
▁vasoconstrictor
otherapeutic
▁ischem
▁grafts
administration
▁PLP
▁tremor
responders
▁dopaminergic
▁arter
▁weighed
melan
hexidine
▁(29
▁goiter
▁undergo
sA
apsulated
gm
teine
▁olig
▁techniqu
▁phosphatase
▁aryl
▁blunted
▁metabolically
topril
▁hematologic
blast
attern
▁mixtures
botic
▁Continuous
protein
▁spre
▁clonal
▁0.80
▁regenerating
▁Ps
▁immunosuppres
▁Diagn
oarth
anav
adren
▁thre
▁topically
ncies
▁0.18
▁centrally
▁lipoxygenase
▁infections
▁cann
▁Mg
glutinin
occi
▁lidocaine
▁210
▁subunit
▁ribosomal
nitro
▁questionnaire
▁FMLP
rine
▁cros
uculline
▁resonances
▁chronically
▁muscarinic
▁diffraction
▁flexion
▁Sixty
▁constituted
oreceptors
▁lowering
▁nal
▁Accordingly
▁serotypes
▁0.56
idovudine
▁PRP
▁progressively
▁carboxy
▁2.1
▁cataly
▁AH
▁85
▁5.6
▁EE
▁differentiating
▁resin
urea
▁diacylglycerol
▁radiol
▁pK
retion
imination
▁HCV
▁urinary
▁hospitalization
amol
omotion
▁practitioners
▁occupational
▁(18
▁Ala
▁phyto
▁desirable
▁lymphaden
▁atrophy
▁roset
▁breeding
oventricular
▁supr
Ki
renol
PMN
▁(0.6
▁commercially
umulative
▁geniculate
▁0.60
Ig
▁vascular
▁maxillary
▁physiologic
uspid
ilateral
▁MgATP
kilobase
▁-4
hydraz
▁16-
▁phrenic
iomas
▁(10(-7)
▁mA
ercul
▁immunologically
▁Kinetic
▁(80
▁morphological
▁EDTA
▁pepsin
▁steroid
▁BW
▁elastin
tronic
.3%
▁collagen
▁Tryp
tetric
▁Laboratory
▁5.7
entral
terin
▁granules
-7)
hers
tilled
▁predisposition
▁malnutrition
▁lactate
▁parathyroid
▁46%
▁differed
NIDDM
▁colchicine
mokers
enia
▁IB
IFN
▁ventrolateral
▁nodular
▁exhibiting
trip
atectomy
▁simian
HSV
▁microvilli
▁myocytes
ithromycin
unctions
▁dermatitis
▁placental
▁experimentally
▁myometr
▁orific
▁chemotaxis
▁anomaly
▁CMV
▁saturable
▁hypocal
gic
voltage
athic
▁TCDD
67
▁CBF
▁groove
▁serotoninergic
▁macrophages
▁peaked
echn
▁urea
phosphatase
▁paralle
temperature
▁Concentrations
▁autoantibody
▁thym
▁PFC
uridine
antibody
▁Bec
▁coincided
oxic
▁vertebral
ochondrial
▁60%
ithin
▁AMI
▁tidal
▁airflow
▁monomeric
▁reciprocal
BSA
▁cytomegalovirus
onitis
plenic
enkephalin
▁relapses
thym
▁Combin
quisition
phila
▁cruc
8).
2-
independent
oplastic
inhibition
▁NADPH
▁streptococcal
/2
▁ultr
▁genome
MHC
▁14-
▁pneumoniae
▁regen
▁hypercap
▁microorganisms
NK
▁0.40
▁hypertro
▁brainstem
▁0.58
▁endocrine
200
▁intake
▁Ventricular
▁15%
▁larval
▁diets
▁persisting
tomy
▁lacked
▁immunoreactive
lethal
eroxide
/18
▁37
▁Nine
▁frog
▁aneup
erule
▁subjective
▁CoA
▁blocker
▁pyridoxal
throm
▁manu
oscopic
▁spectrin
▁134
rophy
▁favourable
▁osmotic
▁resol
ported
riamycin
▁Antibody
:1
▁indis
▁pulses
▁arrhythmia
tential
▁0.28
▁lobes
ometh
ophore
▁mitosis
▁cooperative
▁radiographic
▁epididymal
000,
▁anesthetics
▁obesity
tebral
▁verapamil
▁poli
7;
tochem
▁sclero
▁ganglion
▁rabbit
-1).
▁upstream
▁diuretic
PSP
▁classify
▁aromatic
rP
maleimide
▁innervated
▁eliminating
erating
-[
▁caro
▁cadaver
▁159
▁tetra
-6-
lycero
/24
▁6.9
0%).
▁modeled
94
enol
▁remarkably
▁nucleic
▁lar
▁exploratory
▁vomiting
▁metabolism
3]
▁subarachnoid
8-
ocytes
▁cerv
▁leuc
▁magnesium
kine
omat
▁variants
clerotic
▁bronch
▁atherosclerotic
▁corne
monstr
▁-3
otrophic
▁sacrificed
▁phosph
▁deple
oproteins
▁polymorphic
▁1.3
▁cirrh
median
▁oss
▁crosso
▁symmetrical
tionally
▁ultracentr
▁locomotor
▁discontinu
▁intraocular
▁hemolytic
▁(0.
jun
▁3%
▁34
psych
▁hippocampal
atine
tracheal
▁sputum
▁87%
89
tioned
▁electrodes
▁voluntary
▁tissues
▁hypoxia
▁relaxant
▁employing
▁mesenchymal
▁1.4
▁chlor
▁attenu
▁tachycardia
▁(50%)
orrhea
▁epinephrine
androsterone
-13-
unced
▁inactivated
▁degraded
▁0.005).
▁vertebrates
▁RL
▁cataract
▁sialic
-8
▁urine
lact
▁(8%)
cture
▁euth
▁parie
▁centres
ffinities
▁121
LDL
▁Experim
▁hypers
▁impulses
▁relap
▁underestimated
▁PTH
arone
lesion
▁cystein
▁0.9
▁Candida
ervoir
divid
▁parasites
▁offspring
▁exudate
accharides
▁dosages
chid
▁harvested
▁lecithin
▁WGA
▁1.8
ytoin
athioprine
▁erythemat
▁acini
▁pell
▁amiloride
▁mEq
▁tubercul
▁venom
▁haemodynamic
▁elective
-18
▁fertil
▁morphine
▁Epid
▁myeloperoxidase
▁denervation
▁manifestation
etidine
▁0.00
rogenesis
▁subc
▁pressor
SAID
ropath
-5
butyl
▁NB
▁peritonitis
▁unfractionated
▁palpable
▁dexamethasone
▁epilep
▁wk
CoA
▁HI
▁tolerant
enil
producing
lamy
▁ery
riched
▁vestibular
▁Subs
oxygen
8+
eroxidase
struc
▁isotope
▁157
▁RNAs
▁oxidative
ometr
▁Comparisons
▁analgesic
▁Identif
uppres
▁insignificant
▁0.05).
▁subend
▁striatum
▁interne
▁10(7)
otone
timulation
.1,
posterior
▁28%
▁subpopulations
▁fluoxetine
▁arrhythmias
meas
▁pseudop
labeling
▁semin
quinone
▁127
▁preload
9;
▁parental
▁phosphoinositi
oside
▁expec
▁territ
iotic
▁Meth
arrhythmic
globulin
▁(+/-
LISA
tified
▁CHD
keletal
▁perfusate
▁erythroid
▁hypotension
▁intram
▁126
▁MRI
▁localize
dihydroxyvitamin
▁preoperative
▁myof
▁inadequate
▁intest
▁thal
fat
▁hemat
▁quinine
opoietic
sibility
roblasts
▁infiltrates
▁(10
▁0.23
▁methylene
limb
▁(250
▁bonding
ocytochemistry
▁(25%)
onatal
▁mildly
▁27
▁pigment
▁gyn
▁symptomatology
abdominal
▁proportional
▁120
▁saphen
4).
▁44
▁tubes
▁conception
▁mmHg
▁dipyridamole
▁Exposure
hydroxydopamine
▁impulse
▁etoposide
▁31
▁nitrogen
▁VL
▁0.65
▁histones
maximal
▁VH
▁7.4
▁40,
▁nucleus
lac
timate
▁terminated
ocular
▁ureth
▁exchan
▁readings
▁LTB
▁inferred
▁bactericidal
amicin
▁.00
▁solubility
20
▁(45
▁contraceptives
▁deleterious
69
▁parotid
-8-
▁TK
▁Whereas
▁circulatory
▁RAS
odeoxy
MLP
otox
▁fibers
▁secretion
▁assessing
osomal
▁premature
▁MgCl
irubin
▁teratogenic
▁retina
phragm
▁67
ycline
▁guinea
▁PCO
▁rheum
lofen
▁biosynthe
▁Pharmac
▁measles
▁Estimates
oreactive
▁cytotoxicity
graft
roscopic
▁paroxysmal
thiazide
▁questionnai
▁Nineteen
100
▁ips
▁lec
▁dor
▁myocardi
tial
▁lymphoblastic
1)
▁8,
GSH
▁stained
othane
nRH
▁warfarin
▁superficial
ithm
▁econ
-6)
itability
▁subgroup
▁contracted
▁prognostic
alc
▁(2.6
▁denervated
▁cervical
bloc
▁regar
tis
ressing
▁fulfilled
urons
'-
▁PHA
▁0%
57
▁lapa
▁Prospective
▁papill
▁recombin
▁pyramidal
filtration
▁sphing
-1-
▁deferen
▁Eleven
▁4-
▁80-
▁bac
▁cistern
▁disturbed
velength
olysis
-(1
ituit
-6.
▁18,
keratin
▁Secondary
adic
okine
▁NF
▁babo
rocal
▁absorbance
Glu
-6
ilep
▁Diabetes
▁smokers
tisone
▁(1.5
▁serolog
▁virulent
NMR
havi
▁desaturation
orbol
▁pathogens
▁hypertonic
▁extravas
▁pretreated
▁supple
▁resected
onuclear
gated
▁eighth
adily
rolateral
-23
ulatory
PGF
▁PEG
▁isoforms
tracellular
▁kidneys
▁polyamine
leuk
olet
▁plasm
▁afferent
tin
▁DNase
35
▁enrichment
▁GRF
▁ingu
▁disposition
▁devi
▁uncontrolled
▁enzyme
▁144
itre
3,
▁spectrophot
▁heterogene
▁fluorescence
▁rhesus
▁hydroxyl
▁endot
▁(60%)
▁Disease
▁orally
▁vivo
pinal
▁radiograph
phorbol
▁cil
activation
ophen
muscle
pituitary
PAC
ronchial
▁(+)
trient
▁caud
▁pem
amethyl
▁inoculum
▁analgesics
eprazole
▁SHR
▁thrombus
-1+
tia
▁rupture
oidal
000
▁8.3
▁heterozygotes
oconjug
▁decreased
▁complications
▁cyst
▁sterile
▁roentgen
ept
▁extras
▁transi
▁enlar
▁bolus
▁actin
phil
ineal
▁prostagland
eclamp
▁vasodilation
yrox
▁tachyc
▁stoichi
iferative
▁4.0
plasty
taining
astric
glycer
▁resembled
elan
▁operative
ranial
-450
▁incidence
▁RS
▁pouch
erving
▁GV
▁fluor
opyran
▁ure
histamine
bladder
▁abnormal
▁LFA
trial
▁ratios
▁1990
orac
HCV
hydroxyp
gradely
epti
▁atria
▁amelior
ducing
▁sagittal
▁cGy
▁nephron
-66
▁contex
ochondr
▁pall
ulph
tions
▁hypothalamic
rogenic
▁tomography
2+,
iliated
▁transiently
▁lactating
▁dehydro
▁depended
▁discontinuation
crib
▁HSP
▁analyzing
▁solvents
opoiesis
▁secretin
▁nephrotoxicity
responsive
activating
▁propranolol
▁Comparative
PLC
▁genic
▁transection
2(
gulatory
▁effec
▁avid
9-
▁(35
filaments
apeptide
▁investigators
▁cancers
▁recom
▁immunogenicity
▁metabolized
lebsiella
reactivity
▁coping
▁129
▁depr
▁(1988)
▁8644
▁augmentation
▁Cyt
59
▁heterogeneous
▁hypertensive
▁formulations
pG
▁unrelated
▁graft
tidine
▁livers
▁Respon
immune
▁nif
▁Scatchard
▁1988.
andard
▁intensive
▁refractory
▁medulla
cyst
essive
▁deviations
ortal
▁analogues
aethylammonium
3),
▁intracor
▁Atrial
epine
oblasts
▁BCG
atening
sied
▁117
▁psoriatic
▁aggregates
calmodulin
rectomy
▁Hypertension
gely
5.
▁causative
▁virul
7%
▁inhibits
▁hybrids
▁rota
▁naive
▁responsiveness
▁adduc
▁cys
ocytic
▁immunofluores
kephalin
▁152
▁jejunum
▁electrophoretic
▁relapsed
▁0.07
4/
388
amet
▁48-
▁penetration
84
-3-
▁(60
tox
▁solvent
▁EGF
frontal
▁HDL
▁predominance
▁PMA
▁operon
etence
▁cortisol
platin
Dawley
▁antibacterial
▁gyr
utyr
IIb
▁sensitization
7,000
▁176
▁methadone
▁incontin
▁papillary
CNS
▁guanylate
ovastatin
▁erythematosus
▁interpretations
osan
hydroxylation
ocl
▁underestim
▁tetracycline
▁airways
otor
▁duplication
▁89%
▁vein
atible
+,
▁exon
▁alters
▁acetaminophen
▁mediastinal
reast
threatening
▁40.
▁49%
▁Throm
atural
romedial
▁mono
▁adenomas
▁norepinephrine
▁20%
0.1
▁apprec
▁1989
▁proteoglyc
▁paired
▁10(-9)
▁notic
-40
▁FEV
▁conges
▁excised
idespread
icep
▁adolescents
▁coag
42
▁follicular
mercapto
▁-0.
hypertensive
▁lymphokines
lymphocytes
▁Conversely
,000
olerance
▁167
▁efficacy
▁influx
▁(0.1
▁inhibitor
▁adap
▁oriented
▁repres
inoc
▁(2-
▁ara
bacter
Tyr
▁autoradiography
-9
phthal
CAT
urin
▁2-4
thymidine
400
▁chorionic
▁stool
gus
▁19,
▁100
▁.05)
dil
▁perturbation
▁nodules
aventricular
▁29
▁3.3
▁standardi
▁cyclooxygenase
▁87
.6,
▁micron
toph
▁mammals
▁NMR
▁Phosph
oplasty
▁staging
▁[35
osomes
depleted
▁0.01)
▁serosal
▁enanti
▁calcitonin
▁GAP
▁5.4
▁112
▁aneurys
greater
opril
▁8)
ipine
vitamin
▁dithiothreitol
responding
othre
▁loci
▁inh
▁0.5
▁dendri
▁BH
▁epileptic
tium
▁scanning
▁competi
▁DP
▁umb
9),
amide
▁projecting
sych
DV
▁trigeminal
▁precursor
▁microtub
▁parietal
▁infertility
▁0.52
FU
opyr
▁hydroxyp
▁enamel
razosin
oconazole
▁influencing
▁feasible
6-
▁ionomycin
▁ipsilateral
till
▁unaltered
▁GAD
▁92%
▁paradox
▁sodium
-26
▁membran
▁jejun
cnemius
▁transposition
bino
▁deterior
▁68
▁radioimmuno
-2.
▁osteoc
othal
▁lyso
▁rhythmic
itidine
itriptyline
onset
▁leukotri
▁chloroplast
1),
irectional
geneic
▁hipp
▁OKT
▁Hear
▁pellets
▁diffuse
▁exocytosis
▁lymphoma
▁epidemiologic
▁assemb
▁(4
▁contralateral
▁accumulate
▁contractile
▁Platelet
vastatin
▁stu
▁transcrip
▁ribosomes
obutyl
▁requi
▁13%
▁jaundice
25)
▁serologically
ATP
▁duc
oxim
ticle
▁tyrosine
▁overestim
▁increments
▁cerevisiae
▁bronchoscopy
▁shif
▁yiel
▁analogue
examin
▁Effec
ocyte
▁chamb
oreal
-2,
ANF
▁ventilatory
▁develops
▁Survival
xanthine
▁kinetic
▁ophthal
ollagen
▁hyperactivity
▁proteoglycans
(1
1/
▁distric
-1.1
▁periphery
▁metabolite
▁saturating
40
ifferentiated
▁reac
brain
▁173
▁48
dC
perg
▁condens
▁cutaneous
▁practic
▁Inhib
ocul
▁contour
ifedipine
▁ascertain
▁unrecognized
▁400
▁.001).
▁preparations
venous
▁serologic
▁construc
Pa
aminop
▁terminus
iably
▁attenuate
▁obstetric
▁revised
▁mesang
▁fimbr
ighted
weed
▁amph
thase
▁diabetics
▁exposures
ximum
▁cytokeratin
▁208
▁benzodiazepines
▁amyloid
▁mite
▁phenytoin
▁antero
▁oligonucleotide
▁tetr
▁HC
▁constitutive
▁Aden
▁reticulocyte
-[3
▁monolayer
▁104
▁comparisons
▁restraint
▁nosocomial
▁comprises
▁percentages
▁0.5%
acrine
econd
▁diltiazem
▁lute
▁sti
yzed
clo
▁athe
ochemistry
▁mitogen
▁laboratories
vedilol
▁spasm
▁aeti
athy
▁recurred
▁pulp
imidine
▁reflecting
▁BMT
▁anticoag
▁inhibitors
▁20-
▁Diabe
▁insertions
trop
▁anterograde
▁susceptibility
▁11%
▁oxytocin
tron
isole
idone
▁cerebrovascular
▁LM
▁celiac
▁attain
▁asymmetry
▁skeleton
cancer
▁Elec
▁ultim
secre
▁mimic
▁methotrexate
▁ingestion
▁internalized
▁coh
tilb
▁oligodend
▁harves
opam
▁grading
erant
▁Urine
▁peri
▁postnatally
▁Protein
thanolamine
▁perit
▁aminoglyc
rae
DPAT
▁1979
▁amitriptyline
▁anore
ochrome
▁antec
portion
▁proliferating
▁septic
▁cardiople
tric
▁Nuclear
kDa
converting
▁hepatic
-100
ogenicity
23187
4%)
tub
▁antiserum
▁diethyl
▁anticonvul
)],
▁ileum
▁immunodef
▁encompassing
▁monitored
▁anomalous
ovulatory
▁electroph
▁evaluable
absorption
▁markers
▁anesthetized
▁infusion
▁Thirteen
▁examines
antibodies
▁polyaden
isqu
▁5000
arcoma
▁thymocytes
▁lactose
iphene
▁neoplasia
▁allogeneic
▁modulates
tion
▁(0.3
benzo
▁laparoscopy
▁pretreatment
▁TNP
oplasia
▁ovine
▁epitopes
▁transduction
ventricular
ectable
▁antioxid
ardiac
▁whee
▁(+)-
ordial
lycer
▁rostral
▁iodo
▁myotubes
▁endotracheal
▁intracoronary
▁oocyte
▁hrs
▁10(3)
stress
tif
▁phospholipid
▁21%
▁supplementation
▁tetrodotoxin
▁immature
▁distal
pran
▁mosa
terol
tiz
electro
▁neutralization
▁rodent
▁motifs
▁hens
▁communic
▁bromocriptine
odopa
▁glauc
▁replicate
▁nasal
▁10%.
deple
IgA
lamp
arterial
▁posi
DNA
▁105
▁brady
▁furosemide
▁prepro
▁chymotrypsin
iol
▁catalytic
▁ribosome
▁vulgaris
gene
▁pyl
▁distin
thio
▁ovid
▁stimulator
▁pneum
ucleotide
CFU
thoracic
▁(3
idate
▁inoculated
▁PLA
-5)
▁Progesterone
istar
▁modif
▁centrifug
illin
micro
▁effector
▁stimulants
▁outward
eptic
▁tolerability
▁205
▁differen
oluble
▁NI
opro
imide
antagon
▁elevation
▁carp
▁assessments
▁canine
▁citrate
▁supplements
operatively
lastoma
▁striatal
▁PET
▁Rb
▁25%
▁lamin
tually
▁Schwann
▁sampl
ogaster
▁ventricle
rophic
ammon
▁effectors
▁quoti
▁serum
▁natri
▁insec
▁repressor
▁alkal
▁reliability
▁pyrid
▁18-
cardi
charomyces
▁submaximal
teroides
lood
onit
▁Antibodies
▁(49
▁7.5
▁bowel
▁thereafter
%).
ejun
▁10.8
▁40,000
tosis
▁.0
uppression
▁acidification
▁95
ymptomatic
▁differentiate
▁polymerase
▁Bacterial
▁lengthen
taken
▁BMD
▁retrospective
omized
▁Apparent
▁glycosylated
acchar
▁adi
▁IgA
▁monophosphate
stimulation
▁inver
otoxic
▁ICU
▁9.2
otoxicity
siveness
▁neuros
▁AO
itoring
ochem
▁Plasm
ilical
▁nitrendipine
▁Benz
yste
tening
▁arthritis
▁protracted
▁dyes
▁shedding
plying
▁Findings
▁galanin
ofil
68
aminergic
ffinity
antial
ragment
▁synapt
▁linoleic
▁trophob
▁modalities
▁tachy
▁2,4-
▁reapp
ensi
▁latex
GnRH
▁phosphorylase
enicill
osus
ygo
▁nonsteroidal
▁quenching
▁degran
▁electrode
8%
ophila
▁fourfold
▁exogenous
▁residue
▁triphosphate
▁basophils
▁valine
▁glutamic
▁metastasis
▁microscopic
erb
▁estradiol
ubicin
▁Depending
▁gastrin
injected
mobil
▁pate
reas
▁phospholip
▁2.
▁2-
▁hematocrit
▁socio
▁predictors
▁antigen
▁ANG
posure
▁oils
isopropyl
▁Tg
▁inorganic
▁confluent
▁MPO
(+)-
▁antide
12.
▁neurones
-7,
▁(1989)
81
folate
▁Meas
choline
▁diffus
▁potassium
arial
▁acin
GH
ucleated
▁phy
iciently
▁prepubertal
▁microbial
dii
uoden
TCR
uvate
macrophage
ilution
▁constituents
▁fused
olization
▁polymorphism
▁percutaneous
▁(75
rological
hans
etine
nitine
▁conjugate
tent
▁surgeons
phoresis
▁wedge
▁symptom
ifed
zymes
▁dissemin
▁phorbol
▁ovariectomized
geal
▁ration
▁circumflex
▁accumulation
restingly
▁calibr
▁emergence
▁ADH
caro
▁anhydrase
-0.
▁identi
▁visc
▁Clinic
▁gangl
▁EF
▁correlations
▁cones
▁abdominal
▁tes
▁intolerance
methoxy
ipitation
abin
▁alcoholics
ivac
▁sucrose
PHA
▁7.1
▁90-
▁anticoagulant
▁evaluating
ophy
ticularly
▁dissolution
▁40%.
▁puncture
injection
▁27,
loride
ocarcinoma
romised
▁elevate
▁TGF
▁gag
▁inoculation
▁catab
cyt
▁synerg
omyelitis
▁5.5
▁staining
▁deletions
▁intracranial
▁baroreflex
▁Diagnostic
12
sian
resistant
▁murmur
▁feline
▁potencies
▁171
▁mesen
AVP
▁phe
▁diabetic
▁65
49
▁194
▁asbestos
-0
▁investigating
oplasm
▁haemorrhage
▁158
▁gradients
▁Strep
▁incid
▁190
▁spines
▁uncomplicated
▁amplification
▁CDC
▁pyel
▁rotavirus
▁gonorrh
▁55%
▁promin
tropine
▁expon
itic
omyel
hep
tizing
ostatic
▁solub
▁rhodopsin
piper
▁outlet
▁antin
prisingly
cemia
uronal
ece
▁superiority
▁PDGF
idating
▁subcellular
▁blockade
▁polarization
▁acces
cyclic
ensitization
dial
▁prosthetic
rays
▁diploid
▁triglycer
▁Multiple
▁xyl
rangements
entgen
▁leukocytes
▁screened
PMA
▁valu
trating
RNP
▁phosphor
otopic
▁peptic
▁salbutamol
▁tryptophan
tropin
▁homogene
BH
▁repeats
▁neurotensin
▁spp
▁Retrospective
▁hemodynamic
trically
▁vimentin
▁megakary
▁carbohydrate
▁SCC
▁insertion
▁inability
normally
▁angioplasty
▁thi
trous
▁adren
glut
▁calculi
tryptamine
▁Increased
▁3.5
▁residues
▁carbonate
▁dendritic
▁intimal
OA
phyloc
▁polypeptides
▁percentile
angl
▁preliminary
▁53
andros
▁schedules
-48
anoid
eal
▁pathogen
phor
▁medullary
▁0.01,
▁medically
▁hamsters
isol
(2)
▁dihydro
▁intran
▁cornea
30
▁Wistar
▁Ace
▁protr
▁Stimulation
.0)
▁mandi
olec
▁epidermis
▁ATPase
▁libr
▁radionucl
▁Therapy
tead
▁hyal
▁3.0
▁phosphorylation
▁glycosyl
▁(2,
oscop
▁PGE
iruses
▁Depart
▁erythrocytes
▁prospectively
▁[3
▁isoprenaline
▁ovary
▁adip
umptions
-7
▁allergens
▁eukaryotic
ancre
▁excretion
▁enteric
▁progen
▁declines
jected
▁accel
vessel
▁ether
▁Continu
▁discontinuous
▁tubules
▁stimulus
▁chloroquine
▁pulmonary
dibular
▁shunt
▁phosphatid
lude
-15
▁worsening
▁conformation
▁distinguishing
▁peritoneal
▁midazolam
▁91
▁sutures
sulph
▁inapp
▁PGA
▁apparatus
tiv
▁LPL
▁backbone
▁ethylene
CRF
▁25,
▁simplex
lycerol
5'-
▁solubilization
▁embryo
exercise
azem
▁2-5
.6%
orbent
▁infrequ
▁(-)
▁Recovery
▁thermodynamic
▁circumferen
▁cytometry
▁11.5
primed
▁simulated
ystectomy
▁tryp
enters
▁discharged
▁inactive
▁quantif
odon
▁responders
uccin
▁Surprisingly
▁Concomitant
▁abnormally
▁gating
▁thresholds
▁adherence
▁47%
truc
opeptidase
ressive
]-
▁DSM
2(+)-
▁sexes
▁estrogen
▁concurrent
etan
erin
▁TNF
▁0.33
reducing
▁neon
luent
assays
▁aneurysm
▁successive
▁stromal
▁tau
▁mutated
cutaneous
▁exce
▁supine
▁subcl
▁ligated
▁inhibit
keleton
▁TSH
▁thrombocyt
▁lesions
reactive
▁perif
▁salivary
▁0.75
▁hypothermic
▁soleus
osacral
▁injecting
iflu
▁raphe
▁PMNs
▁olfactory
▁Amino
anking
FSH
▁Sepharose
▁inconsistent
essel
RIA
eration
▁challen
bral
anding
▁1.5-
opolysaccharide
▁mucus
▁ambient
▁investigations
-3.
▁sickness
▁meningitis
raine
▁atypical
▁0.03
▁hydroly
▁neutralizing
▁primate
▁1/2
graphy
rotid
▁IGFBP
▁troponin
vular
▁inducing
opo
yel
▁malabsorption
▁ferritin
tabol
ximide
▁BSA
nucleotide
▁digestibility
▁deduced
▁phosphates
icidal
▁hemisphere
▁homogeneity
immun
▁distrib
▁incubation
▁epidemiological
ococcal
▁ADP
▁implicated
▁innerv
▁kidne
▁intravenously
erance
▁46,
odop
▁currents
olesterolemic
▁polarity
▁FF
▁subclass
oprim
▁POMC
▁glyc
▁strep
▁infused
osts
▁ero
monary
stained
Daw
▁exocrine
tic
▁20.
▁parac
▁Subjec
▁gastr
▁inflammatory
▁eti
▁reperfusion
aortic
▁nitroglycerin
▁fertile
cents
▁lutein
▁10.7
▁coincident
▁incomp
▁branching
▁antibodies
▁restenosis
▁embryonic
▁freezing
▁elucidated
▁menopausal
turition
dividual
▁gestational
androgen
▁ferric
▁9.9
tering
abain
▁Asp
serum
▁cortisone
▁prosthe
vated
▁hypogonad
▁MAP
▁PAF
▁kinase
▁carbamazepine
▁dissociated
turing
filament
▁ampicillin
▁bronchial
trients
▁(1.1
leb
▁arachid
vation
▁weighted
(-)-
▁phosphate
▁emin
agit
▁13,
hyp
aluation
▁CsA
onad
▁DMP
▁lamellar
idase
▁predictor
ischemic
▁affinity
▁transducer
▁mycobacter
▁sacr
admill
▁secrete
orphine
▁168
yrosine
▁(3.0
▁inversely
assay
-12
alian
▁psychosocial
▁intracellularly
▁conjugation
▁untrained
ygen
▁ablation
▁220
▁isoflurane
ocortical
▁hydroph
▁HSV
orec
▁83
▁ganglia
ituitary
ylcholine
▁irradi
▁antipsych
▁definitive
▁antich
▁headache
▁FV
▁sedative
▁malaria
▁embolism
▁187
oate
▁eosinophils
▁xanthine
▁negatively
▁hepatocellular
▁ovarian
▁nicardipine
irradiated
HETE
▁DG
rotal
▁elongated
▁neuroblastoma
▁eluted
▁Pseud
▁sensitivities
▁summarized
oxifen
▁recons
▁dams
▁cysteine
ietic
▁regained
PGE
▁-2
▁thio
otericin
▁echocardi
▁neoplasms
hemoglobin
serine
fiber
▁180
uracil
▁hydroxylase
HIAA
▁hyperthermia
▁originating
▁histologically
alues
▁kallikrein
ergy
▁fibrin
vaccin
▁46
toli
▁qualit
5%)
▁synovial
roma
▁bir
ADP
▁cationic
▁chimeric
/9
▁regulator
Barr
imid
.9%)
zard
▁aort
▁25
-2
▁thrombin
▁oxidase
▁ligands
▁nutrients
▁NGF
zot
▁attributable
▁pharmacokine
▁thromboemb
▁guan
▁Immuno
▁progres
▁OT
portant
oncogene
▁aeros
▁0.17
-50%
▁neuropeptide
▁inflammation
significant
▁Apo
onide
angiotensin
▁prolif
▁tumorigen
▁Trial
ocortic
olestero
▁fetus
sess
▁thyrotropin
approximately
zyme
osamine
ulsive
odium
ophageal
omotor
▁categorized
(1,
▁7)
ophysical
utyryl
0.8
either
▁carcinogenic
/4
24
▁NADH
16
▁(46
▁GSH
▁(150
gression
▁sows
▁principally
▁4.6
▁metabolites
▁antagonism
▁unidentified
▁1987.
▁dispersed
siella
▁trimester
▁centr
anavalin
▁hybridized
▁comprise
dens
hydroxylase
▁(82
▁(5
▁hazard
ofl
▁bile
▁canc
▁fluoride
▁trypsin
▁IDDM
▁FN
tRNA
▁ovari
itus
3%)
▁triglycerides
ophosphate
▁inappropriate
▁eluc
disciplinary
▁mating
▁seminal
▁14%
opr
ternational
-3)
TNF
▁indirectly
▁recurrence
▁EIA
▁thir
Hb
▁alterations
yroxine
aund
albuminuria
▁(40
▁salvage
▁osteoarthritis
▁cigarettes
▁RU
▁gonadotrop
▁PPD
▁haem
▁splanchnic
fib
▁atheros
▁pulsatile
▁Forty
uestion
▁necrotizing
▁23,
▁ascorb
▁microM
▁dissociation
▁antim
rowth
▁pharmac
▁rectif
▁encephal
ivered
▁phasic
▁OC
udin
▁preferentially
▁erythromycin
▁58%
▁(76
▁xen
▁wee
77
odipine
▁rectal
▁neurotrans
▁Effects
▁2.5
0%.
▁1988
osition
▁reentr
▁immunosorbent
performance
▁immersion
aryotic
tency
▁monocytes
▁enkephalin
ereb
phosph
orpor
▁seroton
quit
Cys
▁HBsAg
ellae
RNA
allik
▁memb
▁nephro
▁mediate
izine
▁haemorrh
▁salic
0%)
▁covari
▁Dex
ocyanate
▁203
▁immuno
▁0.000
acterial
▁81%
aminoglyc
essation
▁endometr
▁progenitor
4,5)
▁antidepress
▁radiographs
▁appreciably
oproterenol
olytic
▁reduc
▁inward
▁psi
▁perforation
lactamase
▁Groups
estradiol
▁aerosol
▁trac
olarization
▁paraventricular
▁infrequently
othel
▁positively
▁84%
brile
▁reticul
▁ascorbate
▁38%
▁protamine
▁daltons
▁transfect
▁fung
▁ligand
▁intrad
▁autonomic
▁2.5-
pecies
▁quantitatively
▁perinatal
▁extracts
▁1,2-
lobulin
▁HPLC
osaminidase
▁70
urgery
▁adipose
dine
▁infra
▁ventral
opar
▁supernatants
▁palp
▁dehydration
▁Tc
▁cadmium
▁nmol
▁Metabol
▁cultured
yx
Hg
▁Elevated
▁carotid
▁commerc
▁2.6
▁Immun
2%)
operated
▁inters
▁influenza
ensitized
▁patency
▁peripheral
eptid
epithelial
▁duplex
▁extraction
▁EGTA
▁hematopoietic
▁altering
▁plasminogen
45
scop
▁fentanyl
▁tubule
▁insulin
▁gum
▁fibrosis
▁entero
carinic
▁1-3
▁phage
▁ionized
▁homoz
▁dioxide
▁(67%)
illary
acin
▁macroscopic
-1;
▁proliferative
proline
▁prazosin
▁detects
▁hemoglobin
phospholipid
reasing
▁clinics
▁plaques
▁latencies
▁manipulation
▁cytochalasin
▁cycling
▁puberty
luc
TSH
▁androgens
▁166
▁agglutin
▁endurance
▁LR
smokers
-1000
▁discontinued
olism
ods
imbr
otine
▁bovine
700
▁broth
▁mitral
▁ana
tious
odgkin
NMDA
acetyl
▁(2)
▁anomal
▁Positive
ylyl
▁incub
▁bicarbonate
ulant
▁dopamine
▁hypother
▁resection
ensin
▁allelic
vents
▁precipitation
▁Nutrition
▁suppresses
loxacin
▁verte
▁modestly
▁(90%)
ocardial
ritin
▁9.3
▁deficits
▁wavelength
▁deficit
▁phenotype
▁clonidine
▁chond
ulla
oxo
ysm
▁extremity
▁extrap
▁posti
itoneal
▁intraperitoneal
▁glands
rowing
endothelial
▁30-
▁trophoblast
▁30
▁thoracic
▁inheritance
▁behavioral
▁indicators
▁uninfected
ispanic
irradi
▁oncogenes
▁Mycobacterium
▁tibial
▁aspec
PDE
▁saturated
▁expressing
▁mutagenic
▁40%,
▁0.70
▁3
ioid
usp
athione
gluc
▁testes
▁mutagenicity
4,
▁(72
5%,
occal
▁genital
▁22
adrenoceptors
onin
▁lupus
▁dentin
ropriately
▁digested
▁incubated
▁intraven
▁fas
epi
ungal
▁laminin
hips
▁0.97
mediately
▁carbox
▁intraper
▁NSAID
▁prostacyclin
▁methacholine
ospinal
▁glucocorticoids
GTP
▁pati
▁Relative
▁prothrombin
LPS
▁defibr
▁neonatal
▁islets
▁inositol
▁(16%)
▁(42
▁receptors
▁ANF
▁diluted
dition
utaneous
ocamp
▁aberr
luding
▁PGI
▁alveolar
reening
▁inversion
infected
oglyc
▁relapse
▁virion
▁palmitate
▁0.15
▁panc
▁capillaries
2318
▁localized
▁CaM
rocyte
gment
▁diazepam
▁encoun
ellar
▁normals
▁mRNA
▁(7
▁Ninety
▁optimum
▁Willebrand
▁quin
SHR
▁messenger
/3
robial
0,000
▁axons
▁recognizing
80
▁7.2
phosphorylation
▁adenovirus
▁outpatient
/12
▁cytoplasm
▁amn
▁hyperpolar
▁ligation
▁0.43
rance
▁sequentially
▁clom
▁plasmids
▁sial
illation
fractionated
▁dietary
▁abd
▁CN
▁intracerebral
▁toxin
▁fluorescein
▁accessibility
▁adduct
▁polymorphisms
▁occl
othelial
6).
▁anastomosis
exposure
▁extrav
▁propria
igenic
gthen
▁cytochrome
▁quadrup
▁desensitization
limiting
▁blotting
▁beha
▁mU
▁cofactor
organisms
▁MG
▁(38
▁washout
▁restric
▁(95%
▁anesthe
razole
▁polyacrylamide
▁amyl
MTV
▁lymphokine
oea
▁38
feron
▁NR
▁subtype
▁TEA
▁TP
▁bran
▁Saccharomyces
▁selective
apeutic
adrenergic
▁TCR
eradish
▁asbest
timal
heximide
▁0.29
▁resear
▁spontaneous
uccess
▁precipit
▁colonic
▁alteration
11,
▁embolization
18,
anol
0%),
▁neonates
▁Neuro
▁139
lyce
▁necrosis
pyruvate
ococcus
▁permissive
DTPA
▁ewes
conversion
▁acad
uscular
otrop
glycine
▁ranitidine
▁Caucas
ocardi
/10(
▁illus
▁unipolar
▁hormone
▁serotonergic
▁suspensions
▁glucuron
quired
▁pancreas
icillin
▁granulocytes
▁retur
CRP
▁equimolar
▁methyl
▁multivariate
▁locomotion
▁selectively
tization
▁predominantly
-2-
▁Seventeen
erox
▁congestive
▁histology
▁EBV
▁prescribed
oag
tocopherol
ystag
▁specimen
▁LAD
gA
▁displacement
traumatic
▁prolongation
▁leukaemia
▁42%
▁adhe
prin
▁harb
▁Hepatic
▁stools
▁discus
flammatory
inopril
▁immunoprec
▁submuc
▁CRP
▁haplotype
eptides
▁isoproterenol
▁advan
roph
▁reperto
▁crossover
ermal
icardi
▁casein
▁normotensive
▁regimens
▁3.6
▁60.
clerosis
▁connective
▁fungal
▁immunore
▁Chan
antigen
▁151
▁79%
▁postin
▁mucin
▁11.
▁mellitus
anin
▁periodontal
hydryl
▁caries
▁catecholamines
▁hepatocyte
▁disulfide
▁Higher
oA
imeth
▁PCA
▁142
▁epsilon
aicin
prising
▁homogen
responsiveness
▁50%.
▁astro
65
▁acetone
dural
uted
▁hypothesized
▁20,
▁labelled
▁adjus
▁5.
▁malignant
▁transloc
▁respec
upuncture
▁adulthood
▁prostatectomy
▁TC
amethonium
versus
▁MF
▁oscillations
▁distor
monella
[3
▁Insulin
▁silic
▁ile
onium
▁curric
PAP
▁fluo
▁hGH
iatric
▁nadi
▁suppressive
othreitol
illus
▁arb
ococci
ietin
▁pla
▁7,
▁endonuclease
▁lectins
2'-
▁deletion
▁20%.
▁0.44
▁enrolled
amycin
salt
phen
▁catar
▁Postoperative
fir
titution
▁adaptive
▁contrac
▁deform
▁insufficient
embedded
▁immunos
▁endothelial
MW
HDL
▁adrenocortical
▁ejac
cortisone
mediated
▁brom
▁Severe
▁definite
▁segreg
roximately
▁poten
▁adipocytes
expressed
▁protons
▁dissec
▁Afric
▁identif
▁mortality
plementation
▁alk
▁disrupted
uin
▁oste
▁50%,
▁disturbance
▁coordination
▁cows
70
▁statis
olipid
▁5.0
▁discom
letion
astolic
▁pituitary
▁trachea
▁doxorubicin
▁hypotheses
dihydroxy
▁preserving
▁apolipoprotein
▁hepatotoxicity
embran
8)
▁gels
▁spermatozo
antagonist
ystokinin
▁clearance
conduc
21
▁demonstration
▁Hep
▁nicotinic
dent
▁Lp
teryl
▁nadir
acting
onas
▁previ
▁cytoplasmic
▁muc
▁Cul
▁ASA
tested
/7
▁carbohyd
▁moiety
certain
▁5).
▁diarrhea
▁neuropath
▁halves
▁33%
▁tumour
trogen
xime
▁oleate
.7%
▁sati
▁IGF
▁hypertrophic
ritish
▁horseradish
▁linkage
phs
▁audi
▁hepatitis
▁vicinity
▁lysosomes
rinary
myrist
▁intrag
▁calcified
▁microb
▁angiography
▁ammonia
▁10%
lies
olig
▁trypan
▁necro
reases
▁hypercalcemia
tumor
▁oxygenation
▁Monoclonal
.00
azepine
▁specimens
▁disruption
paired
robenz
▁Inte
▁heparan
ulses
▁accelerated
wes
opathological
▁mammalian
▁allogra
▁taurine
▁intrathe
▁196
▁forebrain
▁repression
90)
▁(24
ochle
▁defec
▁MCF
▁hetero
▁thrombotic
▁pressures
hern
▁dysfunction
▁rhinitis
eminal
▁thrombosis
hCG
mend
ayers
▁corpus
▁spherical
▁45
helin
thre
▁reserpine
▁0.001
propyl
oretically
▁retrie
trig
▁multicenter
▁rhabdomy
pregnant
▁cotransport
▁arteriography
▁chec
carbox
▁corticosterone
▁glomerular
mAb
epines
▁sphe
▁scarring
▁Plas
activated
▁refrac
bility
▁contracture
▁nucleotide
▁lep
▁cef
▁ae
95
▁10(
▁nonc
ervo
66
▁monol
▁32%
▁jejunal
▁57%
▁3-
▁Sprague
▁constituent
chlorothiazide
▁overweight
3-
▁Differences
▁intermedi
▁bene
▁(13
▁migrating
▁ach
▁yielding
▁remo
▁sorb
▁stationary
ortical
Gly
-50
▁atri
ameth
▁adop
esti
▁accumulated
▁154
▁30.
trac
▁thyroiditis
IGF
1).
▁60
arous
▁crystall
ulae
adminis
▁proteoglycan
▁spectroscop
▁messen
▁chicks
▁antigenic
▁VE
▁mediates
▁polymyxin
▁hCG
▁supernatant
TPA
armac
▁(1.6
heat
▁Calc
▁hydrox
▁persistence
indings
acental
concentr
▁115
▁cathe
▁hemorrhage
▁1990,
▁determinations
▁segregation
▁excluding
Ts
▁lumb
tide
uble
yclic
▁secretory
▁autosomal
-70
▁endoscopy
4%
▁HM
▁reversible
▁41%
▁transmembrane
entanil
▁1990.
▁80%
▁promptly
▁17
▁limbs
▁2.3
/8
▁Tran
hepatic
▁pacemak
tural
kelet
-8,
labelled
peak
▁quail
ocomial
▁epithel
▁ulcer
ogenesis
▁grains
▁5.3
FGF
ration
▁(23
oagulation
▁glial
▁constric
chlor
▁30,
▁vitro
▁molecule
▁esters
▁unaffected
ropine
▁chromosome
▁ANP
cellular
▁tamoxifen
▁resistant
urane
aminase
AIDS
▁degeneration
▁glucocorticoid
▁adenocarcinomas
▁infectivity
▁irrever
Nase
▁densities
▁recombination
▁adsorbed
▁diarrhoea
xate
▁reconstituted
▁secreted
▁NIH
pressure
pregn
obl
▁.001)
▁1.5
mRNA
stro
1%
immunized
▁myeloma
▁redistribution
▁arachidonate
▁clon
▁(5-
ardized
▁peric
▁acyclovir
▁sarcolem
▁glomer
▁scre
▁converting
▁cellular
▁accessory
▁DBP
▁uncoup
adherent
▁mesangial
6,
imens
EGF
▁spermidine
▁Animals
▁neuropil
▁isoenzyme
▁cyclosporine
▁dissection
▁augmented
▁congenital
▁HCl
▁remodeling
▁19
parathyroidism
tomas
▁hepat
▁sphinc
emias
▁implanted
▁trabec
▁glandular
▁subtypes
itum
duction
▁nascent
vul
▁doses
▁4.4
▁fractionation
olol
▁keto
▁ect
▁pM
▁MBP
▁depolarized
heres
▁Maximal
loid
▁10(8)
▁strikingly
▁Phy
▁fractions
▁gm
▁hypothesize
acted
aturity
imentation
▁isozymes
▁[1
omorphine
▁circumference
ocaine
opha
differentiated
▁glaucoma
▁Km
▁NP
▁44%
▁semen
▁saline
assium
phot
▁asparag
▁stably
▁reper
ichia
▁foci
▁carnitine
▁4.2
▁Evid
▁bup
▁overe
▁31,
subs
▁terat
▁marginally
▁alleles
▁amygdal
xone
▁actu
▁ascer
▁Significantly
▁enalapril
▁arti
▁Systolic
▁hyperox
-21
▁acceleration
naph
▁benzene
▁chromosomal
▁hematuria
▁allografts
IIIa
blocker
rometry
▁occurrence
▁cortical
moid
▁8.4
inescence
romycin
▁coex
▁Lym
▁indexes
▁hairy
ganglionic
0.3
▁130
bacco
.8
▁6,
oneph
▁stimulating
▁Leydig
▁topoisomerase
▁rati
isolated
▁11.0
▁spermatozoa
▁3'-
▁homolog
▁titer
-2).
actin
▁coli
▁particulate
tinguishable
▁initiate
SOD
▁respir
▁HF
hydroxy
▁14.
▁reflex
lated
▁baro
-3,
▁illumin
8.
▁possi
erebro
▁(92
▁superoxide
oxetine
esophageal
▁collagenase
▁spikes
▁occupancy
omeric
▁glut
▁7.8
▁scinti
▁AK
uron
4)
86
▁600
▁MM
▁naloxone
▁traum
wk
osylated
▁cobal
▁iris
▁59
▁inhibited
cryst
ograft
orphin
▁frontal
▁Consequently
▁baroreceptor
alact
peptide
▁dialysis
▁10(-7)
anesthetized
▁Pseudomonas
▁4000
ATPase
▁fragmentation
encl
ylephrine
▁carcass
rozen
▁elic
▁uter
bred
▁anaemia
▁185
▁stimulation
.0,
dipine
▁vascul
▁potenti
▁confounding
▁thromboembolic
ocriptine
physiologic
▁9)
containing
▁diarrh
▁implantation
romyces
▁ciprofloxacin
▁promotes
▁thalamus
epam
▁200,
▁ischaemic
▁manufac
ductive
▁exclusion
perme
▁nucleoside
▁anticholinergic
▁yeast
▁visualized
asic
ardias
▁MAbs
▁divalent
esarean
▁biop
▁transluminal
titude
▁Prol
▁Intracellular
55
heric
▁prognosis
▁purine
▁renin
▁collic
18
enic
▁52%
▁inflamm
ulitis
▁trigg
▁epidemiology
romethyl
▁conclu
▁fistula
▁electrolyte
▁paren
▁formulation
▁carbam
▁anaerob
estion
▁physiological
▁depolarization
▁PRL
▁0.49
enriched
▁exer
▁(10.
▁infrequent
▁kDa
▁Triton
▁preincubation
▁1989.
▁Intra
asses
▁(1,
Lys
oblast
ilum
▁fertilization
ffer
▁kPa
TG
▁exud
ohyd
6%
▁luteal
toxicity
proliferative
gangl
▁esterase
▁VIP
▁anat
kinesia
▁clinically
▁clinician
▁substitutions
concentration
oglobin
▁hypot
produc
tir
dense
▁enhances
▁prostaglandins
▁neomycin
toxin
regn
▁infectious
▁contral
opause
▁vertebr
fibr
▁pellet
▁cephalosporins
▁defects
usate
▁terminate
tative
▁hybridization
▁Pulmonary
▁alloster
▁fluores
tration
▁afferents
▁hippocamp
▁88
▁Preincubation
▁chickens
▁1%
▁0.63
▁conjug
reness
thirds
itonin
▁flap
▁256
▁histological
strain
13
opi
ronectin
▁isolate
▁internalization
▁musc
thrombin
▁leukocyte
▁intrav
otrophs
▁(93
▁caffeine
kinje
achn
▁slopes
▁neurological
aminated
▁resemble
▁stenosis
▁mell
▁cumulative
EG
▁macromolecules
pendent
▁carcinogen
▁grafted
ths
tyrosine
▁undere
hydroxyd
▁58
▁lifest
▁synthetase
▁peroxidase
▁dynorphin
▁28
Gs
▁homogeneous
▁provid
luded
▁trabecular
▁reinforcement
dor
▁CRH
▁apo
▁pentobarbital
feeding
lamin
▁dilution
leucine
ecal
▁Bacter
▁mediated
▁emo
roscopically
▁autoradi
▁thermo
▁sequenced
▁deposits
▁ibuprofen
▁neuron
▁immobilization
vember
▁anatomic
▁TCA
▁immunologic
(1)
IDDM
▁1989,
ompan
▁aggres
urther
▁iodine
▁conformations
▁dividing
▁presently
promoting
▁183
planchnic
dR
ystic
▁structurally
▁1.5%
▁derivatives
ulators
corrected
▁complication
▁neuronal
▁herni
andida
▁initiation
▁ploidy
ogenic
▁minus
▁quantitate
▁squamous
▁(26
▁abnormalities
▁0.001).
▁dialys
vive
▁exis
▁bronchoalveolar
▁elast
▁2'-
▁adjustment
▁monit
▁septum
▁excitability
flurane
esium
▁tas
▁0.001,
▁hydroxyproline
▁ischaemia
▁erythema
inergic
phosphon
▁usefulness
perfusion
restricted
7-
merc
icardial
▁membranous
▁GFAP
ocar
rected
▁antral
▁cotrans
tant
▁enal
▁yohimbine
5-
ygous
▁Intr
▁histories
▁degrad
▁polycystic
▁84
4;
▁disposal
▁excreted
tries
▁ventilator
▁granul
▁(36
Cu
-45
58
BV
entia
▁immunoglobulin
▁docum
ilol
▁0.3
▁calor
▁mediating
mandibular
▁(1987)
receptor
▁follicle
▁5
atoxin
venty
esin
34
urk
▁gases
▁autocrine
imetic
▁8.6
▁pI
▁coenzyme
▁abnormality
▁relevance
▁inspiratory
▁junctional
▁14.5
▁Beta
omethacin
▁Recep
▁pacing
kerat
▁progenitors
1:
▁locus
roitin
▁hyperg
alcip
▁prenatal
motic
▁cytokine
12,
▁pHi
▁progesterone
▁subsets
▁Peripheral
▁ICP
▁effic
▁diagnose
▁ions
▁vitre
▁attrac
oxane
▁bony
tinent
▁vasculature
▁reacts
▁planar
criptional
carbon
tribution
ionine
opathic
▁RSV
▁surgical
▁26
▁tracts
▁oligos
▁inbred
CDD
▁glycer
▁judged
induced
nine
▁paroxys
▁newborns
▁retrospectively
▁gelatin
ionyl
▁10-
▁substantia
▁follicles
▁procollagen
▁passages
lusion
renaline
▁prescrib
▁Fourteen
▁diges
▁toxicity
▁2.7
▁necrop
tivities
▁peptid
natally
HF
himbine
▁WHO
kephal
▁soy
▁resuscitation
▁holo
ogra
▁24,
othiaz
▁0.8
▁Golgi
▁Infants
amental
obacterium
▁nitric
▁sarcomas
▁microf
methionine
▁serially
bic
▁ket
xia
0)
▁cate
▁househ
▁postsynaptic
cein
▁hypoglycemia
▁(197
▁aids
▁bip
iparous
amylase
tized
▁cigaret
▁luminal
▁motoneurons
▁veins
▁saturation
▁recruited
▁randomized
▁atyp
▁tran
▁000
▁165
ventil
erge
▁algor
▁Asn
▁1,25(
dic
▁agarose
▁retroviral
▁possessing
anserin
▁Phe
tectomy
▁perc
▁Drosophila
▁hereditary
▁(84
▁precur
▁leukemia
▁schizophren
▁phi
▁modifying
terologous
▁cleavage
ardia
▁arteries
▁3-5
conjug
▁10
▁immortal
▁8.7
▁cations
kelihood
roxen
▁isolates
▁satis
idation
▁ferrous
occus
▁0.14
embrane
▁transcriptional
▁functionally
▁smears
ogeneic
crist
-29
▁NMDA
thrombotic
gulation
▁recessive
-1)
cus
generation
▁abor
▁enzymic
ysin
▁Comparing
▁Radi
▁LC
▁amylase
▁herpes
acet
▁commiss
▁0.09
oinositi
5),
▁HCC
▁adrenoceptor
ospasm
▁staphyloc
▁colonies
ivocal
▁granulocyte
phadex
silon
uprofen
▁transplantation
chicine
▁deficiencies
▁tiss
oblastoma
ygotes
▁hered
▁antic
▁Reduction
nary
/-
▁dyspnea
▁horiz
▁56%
▁bim
▁78
(3
▁primates
▁Neu
coronary
-65
tetradecanoyl
▁conjunctiv
lowering
▁capillary
tance
▁amino
▁hemo
▁substances
▁monos
▁hypere
▁0.2,
▁pathologic
oskeletal
▁trimethoprim
▁10)
▁233
atinine
▁1)
▁293
amel
tened
embr
▁COOH
▁bif
▁macrophage
bran
▁symme
▁toxins
▁exhibits
▁heparin
odds
ominant
rested
▁eryth
▁pige
▁Fetal
▁chloro
▁microscope
▁reflec
▁AChE
▁formaldehyde
years
▁mammography
▁unex
▁microvessel
pli
▁bioavailability
▁interv
▁VO
▁durations
▁iso
-4)
-100%
maximum
▁fores
▁anxiolytic
▁developmental
▁mucosal
2]
▁hydroxylation
▁0.36
(2+)-
8%)
▁onset
▁covalent
▁corneal
▁1986,
▁persist
▁produc
▁Carb
▁avoidance
piration
▁motif
▁elong
▁cloning
oic
63
▁stringent
▁lenses
gran
▁menstr
▁amygdala
urrent
▁22%
▁synergistic
▁retinal
Thr
traum
▁polyethylene
▁Feeding
6.
▁(0.9
istal
-11
yto
▁Scale
ocyan
▁lysates
▁adjusting
▁decayed
▁201
omere
▁dorsal
▁pathology
▁270
▁accounted
▁nylon
▁cirrhosis
▁78%
▁monkey
▁bilaterally
5,
myristate
ubular
blind
▁fibronectin
altered
plemented
▁determinants
▁AII
▁confirms
▁depolar
▁varic
sepithelial
itance
▁hypocalcemia
▁comple
measured
▁hydrolyzed
▁(17
cad
enoic
▁Tumor
▁coeruleus
partate
▁progeny
▁eccentric
▁resis
ucas
irc
▁Tris
▁NaCl
▁15
hetamine
▁reproductive
adm
▁cytogenetic
▁pathological
uvant
arrh
▁rumen
▁gluten
▁suppression
▁AIDS
87
operoxidase
▁73
hemagglutinin
▁fractures
▁cyan
▁sampled
educed
▁69%
▁methodology
▁kD
▁Haemophilus
▁strokes
cholesterol
▁corticos
-4,
ilts
▁cytokines
▁1.1
omatous
▁2),
▁Biophys
iasis
▁hyperther
physeal
atidyle
▁7.3
▁appendic
imurium
PAT
dopa
▁10(5)
▁adjustments
▁susceptible
90
▁promo
idis
▁97%
formations
▁inflamed
▁Salmonella
▁hemorrh
organic
▁soybean
▁82%
▁13.3
reased
astom
glucose
anoids
▁genotype
▁lytic
substituted
rophen
▁1.
▁intermediates
mercap
oreg
ethoxy
▁thiol
▁axon
▁triggering
▁satisfactorily
▁albumin
▁suckling
▁immun
atoid
onstric
ophys
molec
▁Subjects
osyl
▁solubilized
▁umbilical
▁RA
▁acoustic
▁73%
▁crest
▁sugars
yrib
▁retention
▁Tn
-16
▁Obs
▁0.41
apanese
opamine
operox
▁epithelium
▁HTLV
▁palli
adjusted
▁endo
▁.1
▁Ia
▁fibroblast
▁106
▁colitis
ontal
▁pharmacy
▁candidiasis
▁0.46
9)
▁32
▁deaminase
▁dyst
▁arterioles
▁epicardial
utable
76
▁forearm
▁propor
▁0.06
▁synov
comitant
HM
.4%)
▁500
▁regulates
▁Indi
▁39
ocrit
otides
yronine
▁ODC
atized
▁breaths
iazide
carb
inducible
▁aberrant
▁unexpl
ploid
erable
dihyd
encephal
illar
▁biochemical
toxic
▁cardiopulmonary
▁8.2
▁premenopausal
▁microscopy
▁detrimental
versely
-30
▁differentiated
▁awa
ecu
▁enl
.9%
▁smear
▁pyruvate
▁189
▁stimulate
▁transported
▁cyclo
plants
▁eosin
▁metabolic
sial
▁bic
▁biosynthesis
▁IU
olesterol
▁gastric
▁18
▁potentials
pinephrine
▁135
▁targe
▁papilloma
resting
9,
▁prolonged
Ci
▁integrin
othi
▁transforming
▁muta
▁hypothetical
▁(1)
▁3)
▁duplic
▁dye
▁IIb
▁TcR
EDTA
oppler
▁omega
oceptor
pA
▁MAb
▁Initi
▁eicos
▁intrac
▁0.1,
▁Electro
hydrop
▁30%.
purified
▁vesicular
▁unsuccessful
▁ingested
▁isomer
▁preferen
▁attitu
▁111
▁4-6
▁alve
▁endocardi
▁fibrous
▁abundant
▁6.8
▁torsion
amino
▁proximity
ovis
iline
▁estrus
▁polymers
▁adhered
▁(56
▁3',
ureth
uclear
▁proteinase
▁instrumented
▁ACTH
▁Purkinje
▁monomers
▁promoter
ritic
450
▁hypertensives
▁Screening
oste
46
averine
esides
▁mercury
Ds
▁polyp
▁anaesthesia
▁deliveries
actam
iptine
▁0.05)
▁tryptic
▁competence
▁cloned
agic
HV
lymphocyte
odil
▁clus
1-
▁fluctu
ariate
▁(12
0.6
2.
11
stimulated
▁qualitative
▁parturition
▁24%
▁FK
0.
▁nontoxic
ditions
▁ischemic
rever
▁prednisolone
▁antibiotic
▁excitatory
▁100,
▁tolerate
▁prevalence
▁chemically
▁favorable
▁lor
▁12.0
▁shear
▁metoclopramide
▁enzym
▁counseling
iferous
▁ICa
▁extrac
▁sheath
▁aspartate
▁gastro
▁myo
▁nephritis
adequ
▁stren
enicillin
TRH
▁cardiovascular
▁undertaken
▁infar
▁tubular
fron
▁hypothal
cribed
ospitals
▁EI
fetoprotein
▁nude
▁hydrocarbon
▁Tox
▁hyste
▁correlated
odic
phasic
tetrahydro
▁abrup
ensory
▁wean
▁2.9
hap
▁(10(
kinin
▁maternal
▁condensed
▁glucosamine
▁genetically
▁schem
▁lith
esicular
▁junction
▁280
ximal
▁chromat
▁femoral
ifers
▁physiologically
atest
▁enriched
52
nisolone
▁5.9
▁artifact
PRL
▁nm
ipital
▁ubiquitin
Sepharose
▁socioeconomic
▁allergic
▁lisinopril
▁chemot
ovalent
▁resec
vival
▁ances
▁cyt
▁bicuculline
▁cocul
eeding
▁5%
▁nephrectomy
▁ori
▁beads
▁SOD
▁retrograde
▁worms
▁quanti
schem
▁monoamine
▁thiop
▁uv
fusion
▁CIN
chers
▁myel
▁13
▁plateau
planted
▁(10(-6)
crystall
▁lamina
▁resour
▁avian
▁joints
▁metoprolol
▁undergone
cysteine
tase
▁0.64
▁decarboxylase
▁0.02
2+/
▁perfused
labeled
▁suscepti
▁VV
▁spati
▁glutaraldehyde
selec
BK
ropyl
▁Factor
respective
(3)
▁intramuscular
clinical
urys
ylamide
▁ofloxacin
▁threefold
▁hygi
▁reductase
atonin
▁deoxyrib
patients
▁ECM
▁RII
▁SKF
▁atopic
sisted
pir
▁studi
▁thromboembolism
▁Engl
anthine
▁arterio
▁thallium
▁Kine
▁0.48
acerb
79
▁abrog
imetric
▁chromosomes
▁192
▁shortened
ustif
ocytoma
-20%
iagn
▁diurnal
seud
TGF
▁metals
▁choroid
▁splenomegaly
▁disadvan
▁0.001)
▁3-4
▁drainage
▁quantitation
eric
▁duodenum
▁parasite
▁1,25-
▁Hz
▁adriamycin
▁ulnar
▁spor
▁4-5
▁dichroism
psin
▁136
▁0.7
mTc
▁nuclease
▁precursors
▁0.42
▁resorption
▁Oste
tec
▁maneu
omiting
4]
apine
herence
▁downstream
▁lis
synthe
▁attained
▁constriction
▁enzymes
▁biology
▁11-
▁multil
▁pollen
arean
▁reacted
▁chambers
olamine
osocial
▁3.7
aemia
562
erally
roscopy
▁antenatal
▁cholinergic
▁lysine
▁ICAM
idov
mum
opathy
▁(0.4
urones
0%,
ffin
▁eradication
▁streptococci
▁CAD
▁slices
▁rup
▁Muscle
▁airway
▁CABG
▁LT
▁mediators
▁137
thmias
▁(27
▁.01).
▁feces
▁35%
▁subcutaneous
urium
▁exponential
▁sca
promazine
▁Increases
▁simultaneous
▁preceded
▁72
▁fati
▁quantitated
invasive
▁melanomas
▁amel
▁Measurements
tococcus
▁leakage
rosis
thel
▁nonsignificant
▁Evaluation
oconstric
▁extre
odopsin
▁constructs
▁necrotic
▁translocation
▁globulin
▁Simultaneous
catalyzed
▁0.02),
▁yielded
▁62
▁hyperp
▁heavier
▁EA
eces
▁improves
7).
sors
▁lamb
▁5)
ympathetic
▁metast
iability
▁cytotoxic
50)
▁choro
▁pallid
▁infertile
▁stratification
▁109
▁captopril
▁worsened
cine
▁0.55
cellulose
fts
urate
▁NIDDM
rostagland
▁350
▁assays
▁Prel
▁streptozotocin
BW
▁catabolism
▁Thereafter
▁CG
▁hematoma
▁rats
▁folate
entile
▁pneumococcal
▁radiolabeled
▁phagocytic
▁monovalent
▁potent
▁2000
▁cran
▁immunotherapy
▁NADP
▁10.5
▁microp
Tc
exchange
ecre
▁36
aginal
.4%
▁(100
neoplastic
▁Leu
▁suction
▁Sensitivity
7,
▁Clinical
▁cereb
▁spinal
strand
0.9
▁compe
▁impairment
▁phon
▁spro
.5
▁Thirty
▁preventive
6),
onyl
ipit
ergency
osid
tigu
▁globin
▁infiltrating
▁prescribing
▁catecholamine
▁histochemical
▁tumorigenic
▁pineal
MSH
▁retrogradely
oactive
arginine
▁remn
▁cutoff
▁imipramine
othyronine
▁diaphragm
▁fertility
▁desm
inephrine
vely
SBP
▁physiology
▁hyperthyroidism
trate
▁isometric
▁coordin
▁arises
▁RR
▁0.50
▁twitch
fine
▁intercellular
▁utero
▁propionate
erent
▁termination
▁leaflet
▁coagulation
2;
▁selectivity
▁recognizes
tember
▁deficient
owel
▁secretions
▁expres
erative
▁numb
▁immunocyt
tailed
▁NAD
oalveolar
▁mandibular
▁efflux
tives
▁proceeded
▁critically
▁anxio
▁myosin
oxybenz
▁covalently
ymptom
▁elongation
▁phosphorus
▁schiz
eptidase
▁illnesses
inemia
▁bronchoconstric
▁lysate
▁transients
sue
▁Specifically
▁leucocytes
▁intrauterine
▁lam
▁sexually
▁conflicting
adder
▁(199
▁4%
▁spindle
resist
glutamyl
troph
▁euk
eptide
▁seronegative
▁340
overed
▁atherosclerosis
▁EPO
▁thyroglobulin
lax
▁kine
ocyt
▁mucos
▁tuberculosis
aryngeal
tation
▁recruitment
diol
regulation
ioma
1.
azolam
echanical
▁transmitted
Bs
▁creatine
▁saphenous
▁unde
▁0.25
▁Risk
▁adequ
▁mec
urrence
▁AFP
▁98%
▁Sertoli
▁neurob
▁twins
uting
drug
▁transfusion
▁cyc
▁amput
▁0.30
inyl
molar
▁ethyl
▁aspiration
vic
chol
▁urethral
EAE
▁encomp
athetic
▁anhydr
14
avage
▁virtu
RIF
▁noninvasive
▁depressive
urine
adecanoyl
▁arteri
▁sci
▁GFR
titis
▁convul
▁impedance
▁parity
25,
interferon
▁DHEA
▁mimicked
▁contracep
▁rabbits
▁outflow
▁responsive
▁occult
▁bronchitis
▁bactere
▁hindlimb
▁vancomycin
▁6.5
orporation
▁preoperatively
▁withdrawn
▁contiguous
▁mutant
▁emboli
atories
▁reser
olam
▁inactivation
bisphosphate
▁Hodgkin
▁10,000
micrograms
▁anastomoses
▁adrenaline
▁thrombolysis
▁starvation
obut
▁flexor
▁parame
▁comprising
conjugated
tetra
EMG
fate
ropha
gth
▁glycine
▁paraffin
▁constitutes
Mg
▁dobut
iloride
▁155
▁extracorporeal
april
▁calorie
▁abrogated
gents
▁encephalopathy
▁morb
▁ester
lycemic
▁apical
▁cascade
▁lovastatin
▁amine
hydr
▁justif
▁(41
▁17-
▁differenti
plas
erican
▁aluminum
▁buspirone
▁immunized
▁pector
-60
▁overex
▁0.6
phosphor
▁kHz
▁tetrap
▁93
▁degranulation
acycl
▁DD
phosphorylated
▁rRNA
▁89
▁cleft
olated
▁mechanically
▁pericardial
▁predominant
umetanide
▁thickening
▁ductus
inum
▁fulmin
cessive
ureus
▁attrib
▁modulate
▁glycolytic
▁nitroprusside
▁neuropsych
nithine
▁carc
clic
▁demographic
▁radionuclide
-32
▁enteral
▁eosinophil
▁encodes
▁10(-4)
dle
▁afterload
osin
')2
▁Recombin
enzymes
▁DF
▁rises
▁plaque
▁irradiated
ntolamine
▁pups
▁enlargement
phenylalanine
lymph
▁mV
loidy
▁chlo
▁alkylating
▁institu
▁satur
▁dermal
▁protease
▁197
▁6),
▁carbachol
▁preferential
flamm
PCR
▁skeletal
▁interferon
cious
▁FSH
Fc
▁9.7
ectom
minis
encephalon
▁spleen
▁responder
▁ribonucle
▁IK
ophilus
-90
▁buc
▁EG
triphosphate
▁hydrophobic
▁septal
▁ventilated
ophren
▁anaerobic
unar
▁derange
amyl
(+)
▁ESR
rele
▁injections
▁lipolysis
▁enlarge
ipril
▁intractable
▁mononuclear
▁tracer
dU
▁periv
oxazole
▁recurrent
▁glycol
aryng
sies
oplasmic
▁heavi
anic
▁frac
▁instrum
▁additive
▁condyl
▁pulmon
▁cerebellum
olones
oxan
▁denaturation
opramide
▁mosquit
▁ultrason
▁thrombi
▁inten
▁melanogaster
atation
▁71
▁Acute
▁barium
▁phagocytosis
mentation
▁Pb
ovol
▁0.90
▁bathing
▁hyperins
▁capsules
▁lysis
▁PaCO
▁microscop
▁sympathetic
aternal
▁cartilage
3.
▁vasodilator
ordance
▁5-
▁76
▁retinopathy
96
▁interfer
▁isoform
▁homogenate
▁degen
rates
▁WBC
ulmonary
74
osidase
▁2',
iodo
▁hypotonic
▁51
▁congestion
▁typhimurium
idic
llate
trover
▁54%
▁carbonic
▁cyclosporin
▁infarction
availability
▁immunogenic
▁targeting
▁3).
▁Pt
▁vaccinated
oprolol
▁Mild
▁probes
nitros
icine
▁behavioural
▁proce
▁Mortality
▁transient
opsy
▁0
▁Increasing
▁polysaccharide
omatic
flanking
-35
rometric
onary
▁opson
thromb
immuno
▁PLC
sus
▁Respiratory
▁insemin
▁quiescent
ropathy
▁stresses
ocortex
▁hydrop
▁cG
▁deprivation
helix
ivary
▁natriuretic
▁(2.5
▁caloric
▁multic
galy
ecretory
▁mobilization
achid
▁endocytosis
▁histopath
▁10,
adrenaline
▁methanol
▁adenocarcin
ostr
▁deli
▁90%.
▁(7%)
▁selec
▁dihyd
ameter
▁thymidine
tics
▁0.26
22
systolic
▁blasts
iesis
▁aromatase
▁13.2
atell
mide
▁199
▁syphilis
▁occluded
chase
coated
linking
▁splenocytes
▁2.4
▁mAbs
tolerance
▁cobalt
▁inducible
▁transferase
▁urokinase
▁TRH
▁clamping
▁regulating
-5-
igand
idne
oclonal
tokinase
▁elu
▁glycerol
▁6).
▁haloperidol
abd
▁hepatocytes
▁oocytes
umerous
-1
▁MDR
▁60-
spectively
▁normo
osterone
▁arteriolar
▁reversing
ncy
▁0.67
terase
▁arose
▁infants
yridine
▁nonex
▁postmortem
adenosine
.1
derived
▁1981
ritis
▁reflexes
▁deox
▁Ringer
admium
▁similarities
anine
otoxin
activities
-14
apamil
▁1985
▁reagent
▁4.8
▁phenotypes
▁RNase
▁76%
▁pim
-5,
▁chromatography
▁severity
▁stimuli
▁morphologically
▁infarc
▁dissolved
27
Cer
▁branched
▁pyrophosphate
▁Subsequent
▁malignancies
▁stratified
▁latent
▁retinoids
▁nifedipine
▁2.2
▁esophagitis
onvul
trypsin
▁inhalation
▁heifers
▁0.0
oflurane
▁uniformly
upus
coh
14,
▁exert
oxamine
indole
▁10(-10)
▁visualization
▁125
29
osynthe
▁phenomena
▁29%
teroid
▁tritium
▁Doppler
Hyp
▁10(-5)
▁Statis
enteric
tition
▁glycoprotein
eared
atab
opres
▁hepatectomy
▁transporter
▁amniotic
▁uric
▁splenectomy
asone
▁seizures
▁Preliminary
tructive
fentanil
▁aden
▁ald
▁grafting
▁jaund
15
▁0.76
▁allergen
▁0.08
ochrom
.2%)
▁17%
▁morphometric
▁UDP
sities
▁leukotriene
tein
▁disappearance
ticular
▁parenteral
▁elastase
▁21-
▁arous
▁dissoci
▁sepsis
▁programmed
aemic
▁51%
▁recombinant
▁0.005)
sizing
uresis
resid
▁alanine
▁manifestations
erated
▁referral
▁affinities
▁outgrowth
▁allograft
▁bloc
▁60,
ipro
▁alkyl
▁ulcers
▁sclerosis
▁ultrastructure
odine
acids
▁diarr
lix
-40%
▁Consid
ophils
▁AUC
▁ECG
polar
duced
▁sedimentation
tingu
▁uterus
ethanol
▁deposited
▁nox
▁gp
▁propagation
early
junctional
▁instruc
otin
hospital
▁PB
▁electrocardi
▁catalase
-75
▁tumor
▁hypoxic
adin
▁underst
▁Differen
▁moieties
▁Biochem
-4-
uginosa
▁endometri
▁reactivation
▁differentiation
vaccinated
▁cholesterol
▁172
▁5'
▁adrenergic
51
Ala
globin
▁PBMC
▁enhancer
▁afl
▁archite
oxide
▁encompass
▁auditory
atrial
▁aerob
4),
yron
▁apomorphine
▁depolarizations
▁denatured
▁basolateral
▁concomitant
rosine
pine
▁EDRF
releasing
▁fibres
▁quantification
▁myelinated
▁glioma
▁Perc
▁synapses
▁synergistically
yrate
▁Histological
dehyde
▁0.03).
▁malignancy
97
blocking
ovirus
urgical
▁synthase
▁longus
▁analges
affin
▁9.5
▁kary
endocrine
▁bilirubin
wenty
ifugation
▁TB
nour
▁19%
▁Bac
00,
▁metronidazole
▁autoanti
▁divertic
▁anticoagulation
rostaglandin
▁LS
▁anatomical
▁proteins
▁stimulated
8]
ingers
▁GnRH
▁topical
plasia
▁glycolysis
ionic
▁competitively
▁galact
rolase
▁acr
▁cytometric
▁86
▁obstetr
squ
▁infiltrate
▁gamma
▁glia
▁disapp
▁melanoma
▁antibody
▁deficiency
vix
roline
▁70%
▁chondroitin
▁0.5,
▁Pregn
▁intensities
▁purified
tive
▁estrous
▁186
phosphamide
▁organs
▁vena
▁immunocompetent
tively
fraction
▁lipase
himb
▁pyrimidine
▁postoperatively
idin
amus
▁90%
▁(21
▁instability
roxim
achol
sAg
ospecific
▁reoperation
▁histamine
▁physicians
▁peroxis
estis
tetr
arate
▁parenchymal
▁femur
▁deferens
mol
▁putative
▁activating
▁falciparum
ughter
▁0.001),
▁emphyse
▁gilts
ller
▁calmodulin
chloro
▁oligonucle
onomic
▁circumst
▁radicals
▁strands
▁clotting
ensitivity
▁neutrophil
▁infective
iminary
▁creatinine
▁transcribed
▁67%
▁HMG
▁mitochondr
▁exerted
▁bulb
▁trig
phenyl
▁perivascular
farction
▁drinkers
ventional
▁incomplete
▁reacting
economic
▁Caucasian
▁nicot
▁(0.5
emius
▁oncogene
acr
uccessful
▁recor
eded
▁pediatric
53
▁GH
▁criterion
▁glycosylation
imol
stole
▁erg
▁influenzae
thms
▁corticotropin
▁synchronous
▁molecules
▁psoriasis
▁concom
ithelial
▁chl
▁kilobases
▁chloramphenicol
▁prospective
▁germin
▁sph
▁obser
▁myeloid
▁elab
▁endocarditis
lux
▁substrate
▁12,
timulus
▁tymp
sulf
valence
▁Median
▁antiser
▁phosphorylated
tenti
GABA
▁alb
▁implic
ensities
atization
▁2
mur
ulinemia
▁coded
▁transfection
▁malate
23
▁16,
▁contamin
▁phosphoryl
▁enrich
▁PGF
▁capsaicin
▁CML
mortem
ometri
▁intraoperative
▁antidepressants
tenolol
▁osm
▁prostate
▁6.7
▁ankle
enopus
▁resembles
▁(25
▁murine
▁Lyt
soluble
butyrate
▁recipients
gland
▁proteinuria
▁thirds
osoma
▁cysts
▁unilateral
▁80
aryl
akary
reported
facial
tage
▁ech
▁hygiene
tonic
-13
rangement
▁irregular
▁344
ogenously
110
CBF
ANP
▁vibration
macroglobulin
▁dihydropyridine
▁myot
esic
▁HCO
▁correc
heal
▁GLUT
▁rejection
▁abl
phal
idol
roprusside
▁dextro
brom
vascular
-24
▁difficul
2+
helial
▁vitamins
rofen
LV
physe
▁suppressing
▁endarterectomy
▁regurgitation
▁DH
-)-
▁apoB
▁hypon
▁periodon
▁[2
▁myoglobin
▁cephalospor
opressin
▁migraine
sant
▁glutamate
opulation
▁18%
onucl
▁vagus
▁91%
▁vaccin
50,
▁RIA
▁atmosp
▁1.6
▁monke
▁interrup
▁inflow
▁sigma
▁activators
▁RP
▁1500
▁sediment
▁contras
ganese
▁tendon
▁benzodiazepine
trations
▁esophagus
openia
▁truncated
▁aldehyde
-19
▁1-2
▁ICI
▁52
▁senes
amido
▁derm
▁22,
organization
▁proteolysis
▁77%
▁erythrocyte
thmatic
idated
▁hemisp
▁MV
inositol
kD
phine
4-
▁infarct
ELISA
▁proton
▁diame
glyc
▁bacteremia
▁kappa
▁Treatment
▁restor
▁helical
▁GABA
▁vaccines
▁Americ
▁adenylate
4,5-
▁GI
▁bilayers
veolar
orated
▁spacer
▁collec
▁dorsolateral
▁astrocytes
tur
▁blockers
▁renovascular
+)
-1,
▁systolic
▁bp
▁reconstitution
▁nicotine
▁fractional
▁efficacious
▁opiate
azol
ocys
eruleus
▁inotropic
▁incremental
▁spiral
▁equilibr
▁dehydrogenase
▁177
▁parenchyma
26
▁1984
▁hemorrhagic
anthrene
methyl
ymme
▁parv
▁phenotyp
plast
ylline
ethylmaleimide
arrhy
rinone
▁eradic
inone
▁vasoactive
dyle
▁108
▁chondrocytes
▁microliters
▁sulfoxide
bilities
▁idiopathic
▁140
secreting
▁elimin
bruary
▁rhe
▁glycoproteins
88
▁Doses
▁fluorescent
▁10(4)
▁amiodarone
▁testosterone
▁gangliosides
▁randomised
▁displaying
▁sedation
▁persistently
▁97
galactosidase
▁8
▁Conventional
▁implant
▁hypothe
bac
▁0.02).
enec
tochemistry
▁titrated
embryonic
▁1,25-(
▁bronchi
▁semiqu
▁Transi
▁rotational
▁hospitalized
urc
▁8-
aturia
▁clot
10-
nutrition
tate
▁visceral
▁11.6
▁autoimmune
versity
▁lobe
▁gastritis
▁MHC
▁0.20
▁resultant
▁lact
violet
▁pharmacologic
lasts
▁cava
▁therapeu
amate
▁thyroid
otide
▁immunoblotting
▁neoplasm
▁lipophilic
dia
enzym
encephalic
romic
lier
▁resemb
ocompatibility
eliac
▁abscesses
ayed
▁HLA
phyl
NGF
▁Combined
▁differs
▁calcification
▁apoA
opus
▁simult
▁700
▁muM
▁infil
▁balloon
▁oxidized
glutination
▁5-10
▁obstruction
▁substitution
tents
trition
▁recr
▁Depression
bearing
atching
▁spleens
▁perox
▁fossa
▁Magnetic
▁decarbox
▁evol
▁Purified
▁ketone
▁Fraction
▁deterioration
▁Lys
▁discrepancy
amphen
▁heterozygous
osal
▁analytical
omal
rati
unctional
▁InsP
▁insoluble
▁platelet
▁pharmacokinetic
▁tetrac
▁160
▁40
▁maximally
otropic
thymic
▁concep
triglycerid
yoto
▁examining
▁FGF
▁cytoskeletal
aspartate
-2.0
ethyl
▁unid
sero
mitters
▁aggression
▁distinctly
▁intox
▁intravascular
gesia
kets
▁medial
.1)
▁SCH
▁multiv
▁irritation
▁initiating
▁examin
tical
▁myc
▁revascular
▁membranes
▁Patients
▁glucagon
▁electr
mature
▁clones
▁mesenteric
▁vulg
cepti
erebral
▁Kup
▁anoxic
▁(32
▁myelin
anuary
▁Fib
▁biphasic
▁acetyl
▁(4-
▁cDNAs
▁-0.0
directed
asal
▁12
▁nonpregnant
▁HL
▁elevated
oxygenase
▁shortening
▁corticosteroids
within
fal
idazole
▁Abnormal
etition
thmic
▁regimen
▁cation
▁serine
phosphatid
-10)
▁arthro
▁masked
/6
▁AVP
▁palsy
▁mediast
▁ultraviolet
haem
ofol
▁cortex
▁11
▁Failure
atment
lactam
▁macropha
▁pathophysiology
▁controver
0.7
▁plas
arbonate
▁6.0
▁bradycardia
▁microgram
▁morphology
▁detergent
▁intercal
onephritis
▁foetal
▁expresses
▁3',5'-
▁transepithelial
▁0.38
ochemically
apatite
▁presentations
male
▁subf
▁elemental
▁interf
▁NM
▁cavity
lebrand
ubertal
ralfate
8;
▁Hyper
acid
▁0.05
▁240
▁epidemic
rometer
▁CCl
itin
▁arachidonic
▁gonadotrophin
▁anoxia
▁IgG
▁Urinary
▁islet
▁dilation
▁tol
▁anionic
▁4.
▁interstitial
▁practitioner
mL
▁immunization
▁athle
tenosis
▁interc
▁warran
tero
▁ank
▁saliva
▁181
▁mann
▁microcirc
▁nocturnal
▁familial
▁74
▁diastolic
hydropyridine
▁efferent
▁cyanide
▁potency
▁fracture
adian
genic
▁Chronic
▁sinusoidal
▁Intravenous
▁conduc
▁effusion
metabol
-10
▁7-
▁vesicle
▁proteases
▁biom
entified
▁neuroleptic
tained
ctomy
▁dib
▁MK
parag
▁agglutination
▁28,
▁hyperthyroid
▁tuber
▁gynec
▁contaminated
tensives
▁insufficiency
tectable
▁retinoic
▁chemotactic
▁acetic
rences
gmental
▁SPL
▁correlate
cephal
▁cytoch
▁4).
emble
▁PF
▁Exc
irub
▁31%
iatic
▁stabilization
▁supra
▁basilar
▁Induction
▁Langerhans
▁fluoro
EPO
MDA
▁nausea
methylation
61
▁perone
▁monensin
▁dismutase
▁gradi
▁1.9
0.4
▁neoplas
▁stenoses
▁chimeras
▁Oc
▁adul
ymp
adecan
affected
phyrin
▁distension
grams
▁protocols
BAL
sions
%),
sensitive
▁radioactivity
oxin
▁endemic
▁ejection
▁Lymph
▁biotin
▁steroidogenesis
etween
▁allergy
onography
7.
▁ectopic
▁RPE
▁93%
▁PAH
(1,4,5)
▁cytosol
▁gradual
▁hypokal
tel
▁Leuk
endri
▁addi
▁rheumatic
▁lesioned
▁GTP
ilization
avail
mega
▁somatic
1210
enedi
▁cla
3'-
▁preterm
▁antiarrhythmic
odia
▁6.1
▁ascribed
olone
▁1.2
▁EB
terious
▁detec
▁(6)
opathology
ilus
▁gestation
▁6%
▁reproducibility
▁(24%)
▁cytotox
ovascular
retic
▁tach
50
▁TATA
▁autologous
GlcNAc
.5,
+/-
kele
28
▁DVT
▁LHRH
▁adverse
rehen
▁intravenous
▁tec
ophag
▁polyunsaturated
truction
▁MRSA
▁lysosomal
tradiol
▁BAL
6%)
▁Sulf
loro
terminal
▁determinant
▁Acad
▁0.35
edded
▁virions
▁histi
▁phag
▁rodents
▁fatty
romy
▁mononucle
+/
▁poorer
oratory
ishman
▁castrated
▁validity
▁optimally
tention
▁glycogen
▁anastom
▁neuraminidase
▁deposition
teroids
▁inhibitory
olymer
▁dermat
insulin
▁conjugated
▁blinded
▁ACh
▁450
▁disclosed
tiveness
▁Functional
aterals
ficially
▁acidic
ostatin
Ls
▁discrimin
▁codon
▁decreases
▁PIP
▁alcoholic
pig
▁supplemental
▁2,
▁antagonist
orded
▁dex
▁9.4
▁subunits
▁transaminase
▁gon
ealand
ogl
▁IgE
▁Myocardial
