titution
▁selective
▁65
▁preincubation
▁provid
keletal
▁mucosal
▁luteinizing
idine
aemia
▁reag
adenosine
ayers
▁kine
▁molar
▁biological
▁4.7
operatively
▁ascites
atid
iably
Nase
icidal
▁messenger
▁inducible
serine
▁preferentially
▁metastasis
▁Fifty
▁deter
▁avian
▁paired
▁adenomas
RNA
▁GSH
▁schiz
▁Differences
▁ureth
▁excre
lastic
kephalin
▁phenotypic
trating
79
▁irrever
▁mitogen
natal
▁malignancy
▁NADH
▁proteinase
tence
▁exten
▁nicot
▁adherent
▁Bec
▁sediment
▁grafts
▁thereafter
alas
erad
▁lymph
▁regurg
▁developmental
▁Meth
▁thymidine
▁CsA
▁dyn
odies
▁aggressive
▁hematopoietic
asone
▁ultras
▁hyperplasia
▁preven
▁vasoconstric
essation
ometh
▁vagal
▁kinase
▁thrombo
1.
ximum
450
▁Hear
▁nm
▁arachidonic
▁RF
obl
▁0.00
tained
▁arterial
▁tumors
▁electroph
▁1
itoneal
FGF
ymptom
induc
▁kinetics
▁viable
▁hippocamp
▁6.8
▁acquisition
▁desensitization
onography
▁derm
▁tau
orbent
tious
▁substantia
▁functionally
▁specificity
▁phospholip
tonic
▁probe
▁synthesized
▁Cd
icillin
tak
▁endothelium
prol
▁inhal
nucle
25
▁cere
▁increas
alact
amuscular
▁VP
▁pathological
95
▁chor
▁propranolol
▁TCR
▁aneurys
▁rostr
meth
enoic
ohyd
▁shorten
▁assessing
▁nonspecific
▁exce
olesterol
▁phospholipase
▁cranial
▁amplitudes
erating
sA
bloc
▁lutein
▁frog
▁cochle
▁hormone
▁leukocytes
▁HIV
azem
▁crystal
▁parathyroid
tors
▁interc
tized
▁bulb
venous
itre
entif
-9)
▁hormonal
▁tyrosine
▁diabetic
▁residue
▁conjunction
▁edema
▁promin
▁(10
▁exhibiting
▁GMP
▁ey
▁NP
▁altered
▁immun
nthe
onine
▁ACh
7%
▁differed
▁infection
usive
▁2.3
▁determining
▁monomer
▁precursors
▁tumours
thma
▁naloxone
IDDM
▁collagen
bacco
▁intra
▁homogeneity
▁inhibition
▁analges
▁descending
yrate
▁Hz
▁0.005).
▁pyram
▁skeletal
ionine
▁pathologic
utaneously
▁lacked
▁cleavage
endorphin
▁anesthetized
▁acetylcholine
enteric
ulmonary
▁strategies
tance
▁statistically
▁intermediates
▁preceded
▁zinc
▁gangl
opha
▁microsp
▁excluded
minal
▁vascular
▁restric
timal
▁hep
glutamate
▁infected
▁1-2
200
▁0.9
▁wound
▁Intra
▁maternal
▁5,
▁normotensive
▁striatal
ocar
▁mutagen
▁beats
GTP
organic
arbox
▁57
reactivity
▁availability
▁virtually
▁discre
▁disper
heximide
ogenous
icardi
▁carcinogenesis
▁correspon
▁0.05).
▁accel
▁aerobic
▁9,
14
▁saturation
▁direc
▁interv
▁catecholamines
▁12,
apeutic
▁rup
▁relaxation
encephal
osamine
2%
▁qualitative
▁vibr
▁atrial
itus
▁mA
▁lactation
▁caudal
epam
tracted
incip
▁inadequ
▁veins
▁tension
tention
ologic
▁plasmids
opes
▁25-
▁bleeding
▁MIC
▁lipoproteins
▁fructose
graphy
odium
dU
000.
▁fracture
ylephrine
tact
rosophila
tured
▁medial
▁fibroblasts
▁focal
athyroid
.9
ectom
▁mediator
▁CK
methionine
▁biosynthe
ially
idity
arbonate
▁differe
▁66
▁alanine
▁tolerated
▁5.
▁wean
▁reactions
▁insec
olus
ept
▁smo
athetic
▁positively
onium
tivities
▁intub
tisol
oscop
seven
▁lymphocyte
▁virtu
▁phenylephrine
▁Intr
fused
isomer
▁favorable
▁physicians
onin
▁blockers
thanol
itin
tussis
86
▁injec
phrag
▁molecular
▁oligos
▁carbohydrate
anthine
ulin
▁twitch
▁serine
ensory
70
tic
rox
▁biphasic
silon
▁CGRP
ranged
▁prostatic
▁stu
▁unrelated
arterial
▁thoracic
coh
12
▁VLDL
▁contex
-1
65
subunit
herent
Rs
brids
hypertensive
asic
▁defec
▁PDGF
▁disappearance
▁polymer
teine
▁alcoholic
▁Initi
erebral
▁surviv
▁unchanged
▁investigated
▁alkal
▁monocytes
▁purified
▁yiel
▁deletions
▁3.5
▁conductance
ulose
▁atrophy
virus
▁evid
▁rabbits
▁optimum
▁Subjec
osome
ifferentiated
▁intermittent
▁isomer
lycer
-2,
▁5.6
▁allergic
▁offspring
▁1.5
diabe
▁phosphatidyl
▁chloro
▁innerv
otyp
▁creatine
▁systemic
platin
▁GA
▁polymorphism
▁doxorubicin
▁dose
▁antiser
orepinephrine
▁4,
riched
▁pressor
reased
▁nicotine
▁8.
osin
▁HLA
kinje
▁tomography
erence
▁nmol
▁lec
lyce
53
▁myelin
▁regimen
▁kinases
alc
▁forsk
6,
▁DS
▁secrete
tub
deficient
▁surgically
▁CNS
▁femoral
siology
▁Immun
▁chemicals
ozo
▁homoz
▁simplex
▁Whereas
▁progesterone
usate
▁superoxide
▁prolongation
▁labelled
▁71
▁establ
▁cortical
▁36
tetra
3+
▁0.3
▁surf
uble
rospinal
anad
▁fractions
▁Subjects
▁treating
▁resting
ubicin
▁Protein
▁initiated
▁discrimination
▁depolarizing
acchar
▁gp
▁oes
ults
tents
▁latency
▁influenza
▁0.001)
▁synthase
▁lambs
exis
▁sugges
tus
▁nitrogen
▁vesicles
▁pools
▁sple
▁discon
ovirus
▁bradykinin
2%)
LISA
▁Evidence
▁dehyd
▁suppressed
▁indi
crip
Tyr
▁concanavalin
ifferen
▁graded
▁sacrificed
▁45%
▁chloride
iant
▁Thirty
▁cerebrospinal
-2)
▁brady
▁replic
ochrom
▁cigaret
▁disturbance
▁cocaine
▁acin
derly
▁gradients
▁rats
▁exons
-19
▁albumin
▁sarc
66
hea
RIF
▁alcoh
▁dendri
ocon
▁viruses
▁immunoreactive
▁ovarian
▁inflammation
▁dendrites
▁embry
coup
▁diagnosis
▁utilization
prising
▁HSV
▁nuclei
▁40%
BM
▁51
▁sialic
Phe
▁autologous
sor
achid
▁diagnoses
▁therapy
▁Animals
▁quantified
▁hypertrophy
▁physiological
▁cardiac
chemical
acrine
▁proportions
▁isometric
▁presenting
▁zym
▁limb
▁bypass
osus
clerosis
bic
3).
▁motif
00
rometry
tative
ilized
▁cDNA
▁monitored
sities
assay
▁14,
5),
ardia
▁peptide
▁4.2
▁adenocarcin
▁ranged
▁experimentally
affec
▁ventric
▁FSH
mber
ecal
▁jejun
▁docum
▁perox
▁posttrans
kDa
▁asthmatic
▁premature
estern
▁neurological
▁32
orac
otropic
▁corpus
▁centr
▁bolus
▁ionic
ochrome
ocor
▁Significant
tructive
▁supine
aturated
▁cerevis
▁reviewed
▁belie
▁examin
▁histone
henyl
▁liver
BP
▁predis
▁beha
-1).
adrenoceptors
-20
▁phosphate
▁0.000
▁responded
▁contractility
:1
▁1000
▁adop
tle
▁cystic
▁180
▁morphine
▁contralateral
▁ischemia
▁acco
▁modulate
▁implant
conjug
▁adip
▁Conversely
▁64
▁ganglia
▁hepatic
▁limiting
▁(19
▁strepto
▁effusion
yel
▁dialysis
▁Lym
▁RIA
▁muta
▁physician
sych
onuclear
rief
▁somatic
Dawley
▁Incubation
▁KCl
lyl
▁dental
▁nitro
atibility
▁recipients
embran
▁contrac
▁mRNAs
▁alterations
▁oxy
▁myc
onary
▁erythropo
olestero
▁menstrual
▁ect
▁electroly
ercise
▁1989
▁axons
menopausal
▁transient
tality
▁0.04
▁natriuretic
8%)
▁homology
▁Wistar
osidase
▁rhythm
risk
eroxide
actin
▁(4
▁6.5
rocal
tability
▁meal
▁subcutaneous
entric
opathic
▁participate
▁30%
▁parie
throm
▁intraperitoneal
▁prophyl
▁reveals
▁CB
loro
▁horm
▁Calc
iciencies
▁assay
▁natri
icients
tidine
amus
▁androgen
LH
▁eryth
▁3.3
+]
LDL
tium
lym
trate
ergic
hemical
▁larvae
▁macropha
▁pHi
▁eluted
▁intron
▁centrifugation
▁histopath
▁heme
inesterase
▁cerv
▁75
physiological
▁imaging
▁immunos
rences
▁accelerated
▁heparin
▁pneumoniae
▁viscer
▁inducing
amine
▁protective
▁RV
▁elec
ocompatibility
tituted
▁0.02).
▁cytotox
▁regulated
▁immunore
▁apical
-32
incub
Gly
tran
▁modulated
▁symp
ondr
▁dimer
▁RNase
infected
▁aspir
▁AH
heal
▁filament
▁recipient
▁placebo
▁iso
▁membrane
7,
▁carcinomas
▁seroton
rolase
▁intravenously
▁insensitive
omotor
ographically
glutinin
▁facial
▁norepinephrine
▁tobacco
protein
▁3%
▁hemoglobin
▁temperatures
▁82
stolic
▁isolates
▁dissociated
▁unlabeled
▁caud
▁homologous
▁elu
▁nal
tophan
▁transfusion
eradish
▁screened
▁BM
▁NH
uresis
13
▁hapl
▁pars
▁(1,
▁moderate
tinu
acet
▁physici
eptide
sorb
tual
▁monophosphate
ficial
jun
▁sucrose
▁granular
▁lymphatic
ulph
▁synthe
▁interrup
▁airway
▁enzymatic
▁cisplatin
▁repl
▁intraper
macrophage
▁occupational
▁ips
▁polyp
▁hypothe
▁neurologic
ethyl
▁compe
▁sphincter
▁infil
▁tes
48
▁flanking
▁6
orubicin
▁Addition
▁plaques
▁potency
▁sepsis
▁0.6
▁estrogen
tin
anine
▁110
▁conjugates
inhib
▁polyclonal
▁synergistic
seud
amyl
▁proton
▁mild
▁HA
▁vaccin
▁gestation
▁stab
▁ester
▁14%
produc
▁isoforms
▁Tum
▁satisfactory
▁0.05
glutin
toxicity
/1
▁accumulated
▁conduc
▁conges
▁Forty
▁pump
▁donor
CoA
▁sulphate
▁Experiments
▁elic
▁mumol
tional
tively
▁unde
invasive
▁transplants
polyacrylamide
▁(26
▁multiv
▁progres
ociated
▁enriched
▁biopsies
▁polys
▁81
siveness
▁islets
▁helix
▁antiarrhythmic
▁embryonic
6%)
▁placenta
▁neurom
▁solvent
▁lineage
▁porcine
retin
osides
phthal
▁assis
▁dete
glycerol
▁phe
▁hams
▁regar
bladder
▁exis
kephal
50
otomy
▁parenteral
▁oligonucle
▁standardized
upus
▁erythrocytes
tur
▁deple
electro
▁NT
▁shor
▁Fc
▁87
5,000
▁surviving
arose
irradi
TNF
▁quanti
▁platelet
▁13%
idase
▁CMV
ithi
▁glycoprotein
▁mammalian
▁transloc
▁platelets
▁transcripts
▁venti
▁excit
ylase
tetr
▁biologic
▁glyc
▁glycogen
▁organs
▁spindle
▁ECG
▁motility
ocial
▁drain
▁suppression
▁pyl
▁interventions
containing
▁decreased
reactive
▁[125
ffin
▁demonstrates
▁antibiotics
▁toge
ranolol
▁clamp
▁hepatocytes
fected
HCO
▁carboxy
▁pharmacokinetic
4,
▁concer
riton
▁preparations
oresis
▁basal
▁(8
▁retin
▁reproducible
▁gamma
▁atypical
▁ventil
▁3.6
▁perfusate
▁88
kine
selective
ucine
▁histological
coun
▁tended
▁severity
carinic
▁spermatozo
atories
▁23
▁10.
▁(2
▁spectroscopy
▁pineal
ATPase
▁heterogeneous
▁cerebral
▁esophageal
▁ket
▁fluoride
▁diet
0.5
globulin
aminop
▁capillary
ocardial
.2
▁galactose
▁(15
▁pharmacokine
▁immunoblotting
▁inhaled
▁lysosomal
▁plexus
▁manifestations
▁Lys
▁sulfhydryl
growth
▁2.7
oplasm
0.
▁umb
▁IFN
+-
evoked
▁hepar
▁conserved
▁screening
▁39
▁cis
2+]
▁precipit
▁0.001),
▁selen
▁saturable
▁subjective
▁sympathetic
▁viability
▁adenocarcinoma
▁adjustment
▁corneal
▁potentials
▁venous
▁Changes
▁transforming
▁7.4
▁clones
inergic
▁twofold
ipr
PAGE
adequ
vents
▁CHO
▁reagent
▁5.0
▁arter
20
▁guan
▁maturation
▁NMDA
▁projec
▁lesion
acetyl
spective
▁papillary
▁(0.5
ituitary
▁dramatic
▁ovulation
flammatory
▁maximally
▁3'-
sensitive
thio
amycin
DNA
▁transfected
▁Differen
ucl
▁adduc
▁chronic
▁currents
▁Tc
yron
▁(95%
5%)
occal
▁resorption
▁pulmonary
▁crystall
▁neoplas
amous
▁cerebellar
▁Neither
▁shifts
▁arth
▁insertion
▁forearm
▁carbox
▁trend
▁fasting
olipid
▁extracts
benz
▁stere
▁bacteria
▁overe
▁amino
Glc
▁77
▁fibres
▁5.4
▁stained
ionate
▁spor
gic
amphenicol
olip
▁abundant
▁tris
▁arising
▁perme
▁substance
▁somatostatin
▁displacement
▁adequ
▁Respon
ffeine
▁additive
4%
▁necrosis
rologic
▁centers
nine
opoietic
▁coeff
▁regeneration
▁(3
ellular
▁inorganic
▁decreases
▁pathogenic
atinine
▁microgram
▁hypertension
oreactive
▁CTL
▁gastric
▁reproductive
▁hyperg
▁densities
▁innervation
▁70
▁blotting
▁actively
▁15,
vation
▁cephal
▁pressures
▁enalapril
▁reciprocal
▁fetus
▁translocation
▁cloning
▁endothelin
asive
NAc
▁cyst
▁potassium
▁nM
▁fecal
▁assayed
▁carboxyl
owever
▁diarr
▁PP
ilateral
88
rangements
▁predomin
▁diges
▁normalized
▁glucagon
adiol
▁muscarinic
gely
▁antigenic
▁10(-4)
▁methionine
2),
▁damaged
▁adren
▁homogene
thmatic
▁frozen
▁interfere
▁0
▁fatigue
hion
▁8,
▁respiration
ocamp
romy
▁37
▁hig
tiveness
▁spind
▁anticoag
▁gland
▁determinations
▁succin
▁keratinocytes
▁cholera
▁acutely
plete
▁antagonism
-2
pir
hern
pecific
▁mV
▁breakdown
▁circulation
▁adhesion
▁abscess
Gal
otre
otide
▁serotonin
▁antiv
▁catecholamine
▁duodenal
▁microsomal
▁hydroxy
▁diabetics
greater
▁weaning
▁spon
▁corne
▁hydrox
ophylline
amination
▁methotrexate
▁hypothal
▁coval
▁volunteers
▁alkaline
▁prevalence
▁triglycerides
oreceptor
▁antagonist
▁microscop
osal
pendent
▁tumour
▁arteries
▁duodenum
onuclease
hydr
▁neurop
▁capsaicin
-18
olic
▁vertebr
▁conjugate
carbox
aired
▁surfactant
▁PCO
▁MRI
▁sequenced
orphin
▁proteoglycan
▁stimul
▁implanted
▁spontaneous
osine
▁aggres
▁atri
38
▁saliv
▁aureus
mediately
▁pharmac
▁interstitial
4),
▁aortic
▁(200
▁thrombin
▁pyruvate
▁TC
▁hepatoma
eight
ensities
▁monocyte
▁dilated
ucle
tif
▁ultra
▁oxidation
venty
oxone
▁difficul
▁Groups
1).
mitter
ication
duced
▁substanti
▁fibrosis
)2
▁chemically
uric
independent
▁characterized
▁Rats
uanti
▁prostaglandins
▁-3
▁mutations
fraction
leucine
▁poorly
▁29
▁tubulin
otting
▁leukocyte
▁malignant
divid
▁cytosolic
olateral
▁Evid
ologists
▁enl
▁sarcoplasmic
▁ELISA
ropyl
▁theore
▁BAL
▁(2.5
orrh
▁chol
▁mesen
▁vesti
▁antibodies
▁injur
ylated
itol
▁coupled
CSF
▁sulfate
iflu
43
19
▁Vmax
▁insulin
▁1,
▁inhibitor
chloro
ethanol
▁stimuli
▁LD
osterone
atonin
rophenyl
▁cortisol
illin
ranial
▁EMG
scherichia
▁reacted
▁malign
▁120
▁progenitor
▁allergen
oglobulin
▁1.8
▁olig
▁fist
▁superficial
▁abor
▁elderly
otoxicity
athe
▁mann
▁asymptomatic
▁sustained
astolic
▁visualized
▁displ
ocortical
▁prazosin
-4
▁Hb
▁dismutase
▁lymphoma
urium
GF
▁nons
esic
▁antagonists
fusion
phyl
thym
▁Triton
▁contractions
ostatic
▁paralleled
-15
▁pretreated
▁plasma
▁fmol
▁0.06
mend
▁reflec
▁3'
-200
▁autoimmune
▁hemorrhage
othelial
-7
▁4.
▁EG
▁EDTA
30
RF
▁gangli
▁2
▁conformation
▁anaerobic
▁supernatant
▁anae
▁objec
▁untreated
▁eosinophils
2+
▁canine
▁contracep
angl
▁mature
UV
Ala
wenty
▁cryp
tead
habil
▁receptors
▁ions
olism
▁reagents
▁morbidity
▁cardiovascular
dial
itrate
2)
▁sinus
▁controver
-11
▁blots
tation
▁septal
opoly
odiaz
▁erythrocy
▁transcriptional
jec
▁progen
acin
▁structurally
▁hemodynamic
▁irradiated
▁pathogenesis
▁restoration
lox
labelled
oglobin
▁IgE
28
tages
erative
omatous
▁cavity
▁clonidine
ectin
▁35%
planted
▁intrav
otone
▁actin
▁EBV
anavalin
▁elicit
ologous
▁insufficiency
▁contamination
odop
▁artery
▁immunologic
▁spati
xia
▁tube
ophag
▁ATPase
▁saliva
▁Compared
▁organism
▁rheumatoid
▁kcal
▁phenobarbital
▁prevention
▁reproduc
igenic
▁cAMP
▁implicated
ubiqu
▁markedly
-0
▁transplanted
▁halothane
▁Alz
icient
▁involvement
▁hemodynamics
▁conduction
▁presynaptic
▁scre
▁Afric
▁estradiol
kers
istar
▁bone
▁cryst
opausal
▁seas
▁leukemic
▁cruc
sions
▁oral
▁stimulatory
olecular
▁spectroscop
▁molecule
▁microns
▁describ
tabl
uncture
yrox
uoden
▁demonstrating
▁biosynthesis
▁anaesthesia
▁Dop
▁lesions
▁0.8
oA
▁specimen
▁polyc
epti
▁dye
▁reveal
▁postsynaptic
▁1.1
▁produc
ochemistry
▁diameters
enzyme
▁amylase
teroid
otypes
▁neurones
ocellular
duce
▁circulating
▁seiz
ffec
esthetized
glycer
▁implic
▁oxid
Mg
▁IA
▁immunocyt
▁(16
▁(1
phosph
▁lidocaine
▁strom
▁stain
▁4.0
▁viral
▁metastatic
▁granules
▁cyto
▁angi
toc
11
▁carrier
▁neurotrans
▁inhibit
allik
▁augmentation
▁resemb
▁pregn
▁glycosylation
▁evoked
0%)
tron
3%)
▁anastom
▁proteolytic
▁elution
▁requi
▁latent
luent
▁intact
aminob
yzed
▁magnesium
lysine
omes
▁deoxy
▁facilitate
onstric
55
▁colonies
▁soy
▁Inhib
lobin
▁131
▁induce
▁lacking
fib
▁Thy
turally
▁accumulation
hist
/6
ophren
▁2.2
▁VIP
▁ranging
▁deaths
▁55
▁dissociation
▁progressively
▁electrode
▁monke
▁oxide
▁transmitter
ipine
-2.
▁intestinal
▁sour
9)
veolar
5'-
▁cultures
▁declined
▁pacemak
▁acyl
▁immobil
▁63
itamin
▁organic
tine
▁lysosomes
entical
▁yielded
lys
▁wt
▁monkeys
▁measurable
▁fiber
sulf
lysis
▁reconstituted
orts
unced
ressed
ifedipine
▁Experim
▁TF
▁lasting
▁2.4
▁mU
ycin
ochle
8+
▁attenuation
oconstric
▁0.0
▁hemisp
▁agonists
alveolar
▁89
▁ligation
mature
▁TSH
ylate
dotoxin
▁keratin
▁43
-25
▁cyclosporine
▁neoplasms
▁possi
▁retina
▁antiserum
▁chromatography
▁1)
▁46
cholesterol
▁herpes
▁hospitalization
.0%
oride
▁Fib
▁deficient
xate
MDA
kelet
▁cancers
▁3,
500
▁dendritic
▁pancre
ophy
▁differentiated
▁Measurements
▁prednis
toxin
▁splenic
5)
▁vaccine
trition
cein
▁dys
▁chemotherapy
atients
receptors
3)
▁strips
ellar
▁childhood
▁satis
▁(3)
▁expressing
cycl
plied
anding
iotic
▁-1
dition
acil
▁+/-
ortic
▁homogeneous
▁rele
▁globulin
▁spont
▁7,
chol
▁induces
▁HTLV
iliac
▁addi
▁urinary
▁angiotensin
generation
90
▁obese
▁LV
unctions
▁0.7
ignific
▁inactiv
▁perc
▁thir
▁prol
18
▁dimethyl
▁gradual
▁DH
▁spike
eled
plants
3-
bred
▁wk
▁(22
sAg
drug
▁PMN
▁synovial
omonas
kinson
▁PG
▁functioning
▁susceptibility
▁donors
secre
▁5)
ygo
▁gluc
▁Increas
grams
▁basement
azole
▁refrac
-60
reed
atine
olamine
▁consumed
▁urea
apamil
▁relapse
idated
respon
▁excessive
fluoro
▁retur
▁0.2
▁20.
rogenase
▁nerves
▁ewes
▁decreas
titu
▁underg
rates
▁retrograde
▁cohort
atchard
uppression
▁14
tum
▁vivo
tice
▁envelope
60
▁potentiation
▁concentrated
ubation
▁cytokines
▁carcin
mong
phosphorylation
robial
▁hypers
▁stimulates
1-
▁kinetic
trum
rein
ymptomatic
▁BW
▁glomeruli
▁mice
▁toxicity
▁complication
▁105
bumin
▁21
Kd
▁disorder
ineal
▁transplantation
▁infections
▁disorders
▁prel
▁TG
▁hybrids
▁marrow
loid
cys
▁thickness
▁carcinoma
▁15-
muc
▁deficiency
▁irreversible
carbon
▁Escherichia
▁smokers
▁neph
▁upstream
▁filtration
ayed
▁acet
▁crude
ctive
▁guinea
▁comparative
▁eti
▁glycol
▁accumulate
▁aspartate
ilization
▁phenyl
▁catalase
astom
▁hemorrh
adm
▁cigarette
▁0.01
▁neon
roprus
sively
▁cann
quine
▁occlusion
▁efferent
▁Insulin
▁obesity
▁0.001
-6
incubation
▁fractional
▁segreg
▁10%
atest
▁micron
▁binds
thymidine
▁vesicle
depleted
oglyc
▁asthma
olipoprotein
▁feeding
▁allogeneic
▁spectra
tries
▁spectro
2+-
▁testosterone
aneously
▁substrates
▁survival
ogenesis
▁Sequ
▁immunofluores
▁parietal
iminary
▁dihydro
▁islet
tec
▁impair
▁resection
▁sham
▁reperfusion
tamine
▁fibronectin
▁calmodulin
2).
▁leukotriene
feren
leu
4).
▁RNAs
ureus
▁splicing
acyl
▁discrimin
rehen
▁glutathione
openia
-8)
▁dissection
oinositi
▁ovary
▁respiratory
▁wee
▁laminin
▁ovariectomized
▁irrespective
▁healthy
▁ovari
▁peripheral
▁unstable
▁hydrochloride
▁transcription
▁3.2
Hg
▁(197
3/
▁9
▁HL
regulated
▁immunization
educ
tig
▁plaque
▁subtypes
activated
▁adverse
tics
ocrine
cells
▁cessation
imentin
▁conditioning
▁conjugated
▁granul
dimethyl
▁mediators
▁stimulation
amethasone
acetic
transformed
▁preservation
▁carotid
▁membran
.7%
▁glycerol
▁deterior
orbol
▁tas
▁10,
plantation
▁prevented
▁endot
Daw
▁aberr
heres
trover
▁divalent
▁idiopathic
ariate
▁amyloid
thyroid
▁0.4
vely
▁Effec
▁prolonged
▁fibers
▁postnatal
▁dial
olol
went
piratory
▁cats
▁leuc
▁stric
▁benz
▁duplic
▁limbs
▁regis
ocytes
mobil
aicin
▁catheters
▁intrinsic
▁hepatocyte
trac
▁gonad
▁alleles
▁examinations
▁kappa
▁rupture
▁TGF
▁agonist
▁bif
oag
ellum
otoxic
HDL
▁pancreatitis
▁methyl
▁NI
▁UV
23
ectomy
occi
▁olfactory
▁24
ields
▁antero
▁bull
▁carbohyd
eptidase
▁surgery
▁mug
▁1986
▁[35
▁Taken
▁aeros
oproteins
▁mamm
merc
stimulating
▁1985
▁microsomes
▁alkyl
▁mitogenic
▁bundles
▁.00
▁ery
▁congestive
+/
▁0.1
▁connec
▁assessment
rotic
▁coagulation
▁connective
▁disruption
▁testicular
iasis
Tc
▁phag
lastoma
▁glands
▁enlargement
tensive
7.
▁nonc
▁micrograms
▁dismut
▁Elec
▁atrium
▁standardi
15
arrhy
▁blast
kD
▁10(-7)
▁medullary
▁striatum
eration
▁HC
▁splen
ophys
▁galact
▁efficacy
▁knee
▁anion
▁analyses
▁turnover
▁dilution
▁fertil
▁microscopy
ogenes
estis
hydrox
▁attemp
▁influences
phila
physe
▁ingestion
▁intense
tures
▁lob
▁enlarge
▁alumin
▁underst
▁proliferating
▁tooth
▁wash
▁reticulum
▁choline
▁cadmium
dose
▁hospitals
ereb
oblastic
▁electrophoretic
8-
▁rRNA
▁agon
ocarcin
teral
▁Sixty
ACh
▁testes
▁mast
▁obstruction
▁stimulating
▁hippocampus
▁radiolabeled
▁bile
chlor
▁histologically
▁SDS
riamycin
▁aggregates
▁tendency
respective
crib
atoid
▁chamb
▁adults
▁ubiqu
▁afferents
▁proce
arcoma
▁subpopulations
▁hippocampal
▁atten
▁statis
▁recordings
▁phosphorylation
▁sampl
ipit
▁acces
tory
oxin
activating
▁weakly
uginosa
▁achie
matched
reast
▁disulfide
hydro
▁lipids
ctomy
▁tissue
▁remission
▁percutaneous
diastolic
ropo
RH
anin
ochem
-40
▁uro
▁ligament
▁perfusion
operated
deple
tility
ensitive
▁(18
▁Pt
▁consecu
ogens
ontal
▁neurob
▁ambulatory
▁2.9
▁dosage
▁cholec
▁constr
▁colorectal
▁Measure
semb
enal
9%
▁hCG
▁18
chym
CAM
▁sodium
liters
▁ank
rague
plastic
testinal
▁anaesthe
▁genetic
▁doses
▁atr
▁PF
oclonal
▁diastolic
▁proximal
tive
▁ammonia
▁hypothesized
▁injected
▁residual
▁HBV
▁specificities
▁hemodialysis
▁CFU
▁normo
-1,
▁ipsilateral
▁replication
▁distin
▁mmol
▁LPS
▁RR
ploy
▁(50
▁idi
▁stimulate
▁2.0
▁enhancement
gans
▁recombin
cardi
▁Experiment
▁17-
▁199
6%
1,
-2-
nitine
idate
▁EEG
▁3.1
▁neuron
▁endothelial
▁subcellular
▁69
ologically
acement
▁embryo
▁horiz
▁iodine
▁junction
idespread
▁cros
▁(11
▁posi
3,
▁60
▁phospholipids
▁comprised
trodotoxin
▁PGI
▁blocker
centr
aemic
▁0.05),
▁exposure
▁30-
▁nutrition
▁chec
▁testis
▁hepat
▁catheterization
macropha
▁behavi
▁isch
▁antigens
▁myosin
▁peaks
▁opi
▁respon
▁accep
▁chromat
▁dox
▁neoplastic
▁recons
▁ducts
▁dosing
▁gradi
▁49
floxacin
0-
▁[14
lusion
formations
▁1980
▁prostaglandin
yridine
▁Recent
▁responsive
lymph
etween
▁impaired
ectomized
admill
.6%
itary
▁(5)
Ins
illary
-24
▁analogs
activation
▁progressive
linking
▁mmHg
osomal
▁morphologic
ongest
▁glucocorticoid
▁granule
▁fixation
▁0.02
▁reac
ialysis
▁pigment
▁effec
▁chest
opamine
▁prolactin
▁22
.1
-1-
ivered
▁pigs
arrhythmic
imens
▁autopsy
assium
▁subjec
inositol
▁56
rogen
▁histology
▁amph
▁mechanisms
ergen
treated
▁salivary
▁tonic
taken
▁gestational
▁mammals
▁chemot
▁cations
arginine
turb
▁undertaken
▁excision
▁releasing
▁0.03
icine
neu
plasia
uvate
▁airways
▁11
▁chym
▁tetr
Sepharose
▁conformational
▁adminis
tage
▁5
▁neutrophils
oea
▁PHA
ostic
illaries
▁bic
▁chlor
▁sulf
▁epithel
▁neurons
▁tiss
▁inactivation
▁amplified
▁hypog
▁infusion
▁hydroxyl
▁vasopressin
▁intraven
▁epsilon
▁13-
▁ACE
▁undergone
▁steroids
sies
▁cytokine
▁prognostic
hydroxylase
inemia
▁phosphatase
▁diltiazem
▁uterus
eptid
▁mucosa
▁isop
▁pyr
▁heterogene
▁emergency
▁malignancies
▁immunized
▁benign
▁mediating
ogenetic
sive
▁toxin
▁autoradiography
oside
otor
▁depleted
▁chel
carb
tens
ergency
▁analogues
▁discus
▁3.0
▁maintaining
trates
iatum
▁lumbar
▁0.07
aptic
▁agar
▁prolif
rotid
.8%
HIV
motic
▁intensive
▁metabol
▁elastic
▁hind
▁intrap
▁83
-6-
▁substitu
▁msec
ynthe
▁Alzheimer
▁thal
▁enhances
▁xen
▁MT
leukin
oxic
toph
▁physiologic
▁0.08
▁immunity
▁effector
▁6.
▁filaments
▁genomic
45
▁ligands
oes
▁myeloid
ynaptic
ithine
▁caffeine
▁sti
▁7-
ffinity
irubin
▁10(-6)
▁enamel
▁pneumon
▁Golgi
TG
▁resusc
ofluores
effective
oretic
selec
▁dehydrogenase
▁presumed
▁plasminogen
▁residues
apse
glutination
▁concom
▁duoden
▁antibiotic
▁amiloride
ometr
sia
▁afferent
▁stabilization
oate
▁plasmid
▁vacu
▁pM
mTc
▁70%
terol
▁electr
okine
ocyte
▁Nine
▁compliance
▁20-
▁adenosine
▁affecting
▁myocardium
posure
▁controlling
▁undergoing
▁1.9
▁diabetes
▁guanine
▁synerg
ecu
enopus
phosphatid
▁pregnancies
helium
▁oxygen
▁pacing
▁acetyl
▁trypsin
▁reinfor
▁resonance
▁fractures
▁8.5
1/2
▁thromboxane
▁spermat
▁eosinophil
esides
▁questionnaire
terase
tectable
athy
imurium
16
▁reduc
obarbital
▁30,
▁identifying
▁anemia
▁scin
▁preoperative
▁incubated
▁enzym
▁hyperthyroid
micro
▁immunode
tions
▁10(5)
▁pathophy
diabetic
▁duplex
BH
usal
▁intercellular
siologic
▁lysis
▁cytochrome
ensity
▁electrophoresis
▁intramuscular
▁ure
▁termed
▁cathe
tomy
▁endometrial
▁cardi
quid
▁bp
▁(9
▁pate
erin
truc
▁catechol
.5%)
▁GFR
▁dysplasia
rosis
▁rhe
▁nursing
mega
▁ejection
taz
▁LH
ATP
▁melatonin
tructural
▁depression
▁mammary
▁overl
uron
▁angiography
▁gallbladder
▁metabolites
▁postoperatively
▁DL
75
▁frontal
▁oste
▁AII
RP
▁recurrence
▁placental
▁mono
▁epiderm
▁glomerular
restricted
▁-0.
▁poten
▁explored
▁2-
elves
▁tach
iper
▁phosphorus
▁fibrinogen
▁muscle
atient
▁quantif
aints
▁labelling
aterally
▁stimulus
▁haemat
▁neonatal
▁thrombosis
▁exhibit
▁lys
ulum
▁atherosclerosis
▁implantation
▁aneurysm
olone
▁inability
asal
▁rearrangement
utyryl
ocyan
▁ultim
▁perfused
▁mAb
ticular
▁vitro
GH
▁exposures
oventricular
ospitals
▁dyst
▁bladder
▁inhibited
▁CCK
▁clinic
tox
kground
▁recor
▁parame
▁linkage
sorption
▁vasoactive
▁gonadotropin
▁MG
opathy
▁ventricle
oderm
▁1/2
▁adherence
▁tric
▁fasted
▁quantit
▁complications
▁38
▁biopsy
aryn
oxygen
▁pneumonia
renal
▁4
▁nucleus
icin
ximide
▁ANP
ritis
▁cumulative
▁pancreas
▁nephropathy
▁affinities
▁prognosis
▁astro
▁IgG
▁complic
▁experim
▁genome
itone
▁hypothalamus
ilical
tenance
.7
omycin
ochemical
▁absorbed
▁evidenced
▁analgesia
inated
▁supplementation
▁rejection
tiazem
romes
▁unilateral
▁adhe
omethacin
▁4)
▁leakage
viral
▁lymphoid
▁shunt
▁transi
phadex
rever
▁pathway
▁colchicine
▁400
▁96
▁7%
▁IgA
▁aorta
▁thalamus
▁sedimentation
otherapy
▁laser
▁9-
roprusside
trone
▁GV
2;
▁6%
▁lectin
moid
renaline
▁epidemi
▁intracranial
▁spleen
▁mobility
itonin
▁protocols
23187
▁virul
▁prenatal
▁terminus
▁severely
ecan
▁thymus
▁axial
▁elevation
mediated
▁biologically
▁inadequate
▁predic
▁phorbol
▁15
5).
▁epitope
▁triglyceride
▁CBF
▁pH
▁ligand
acted
▁transmembrane
oluble
oxy
arent
▁calor
mL
▁postin
rays
▁mitochondrial
tric
▁42
monary
▁dopamine
▁RP
▁suppressor
▁autoradi
versely
otin
▁casein
▁tryp
itic
▁pK
▁Americ
ifferenti
utyr
ospor
▁degradation
▁diarrhea
roscop
▁trials
FU
amic
▁ascending
▁Cardi
▁nec
▁inoculation
▁reversed
ophore
zyme
▁dextran
▁homogenates
▁sclerosis
versity
osomes
▁illus
▁endoplasmic
▁epinephrine
▁isot
aryngeal
▁plasm
▁monol
▁hormones
▁structural
▁cyclic
tracellular
erent
itro
▁Drosophila
▁contractile
▁1.7
▁assays
roscopic
taining
▁fetuses
▁pep
ulae
phosphor
obase
▁Tran
▁aden
▁cyclospor
▁retinoic
▁coag
▁adipose
▁suscepti
▁cG
▁amn
inally
nRH
▁(+/-
▁bovine
▁optic
▁mesenteric
▁nurses
▁urine
.5%
▁acceptor
▁syndrome
▁disturbances
▁Unlike
▁loci
▁HDL
▁160
▁phenotype
oxane
▁echocardi
▁ADP
▁5'-
+.
glucose
▁invasive
▁antibody
/10
▁phosphorylase
roxim
▁stomach
▁fluctu
rele
roso
▁nude
roup
▁pathways
▁chronically
jug
▁hypothalamic
▁(12
ogra
▁adi
toli
▁endotoxin
▁0.25
▁bilirubin
▁interf
ocytic
▁incorporated
▁DP
geal
oplas
▁neuro
dominal
▁1.4
agic
▁corticosterone
▁MV
▁anesthe
▁1/
▁inoculated
thal
▁infar
chicine
▁ileum
▁Staphyloc
soluble
▁microv
▁permeability
▁collateral
▁inversely
▁150
ntolamine
▁0.5
▁ablation
▁AVP
▁regulate
▁mening
▁atropine
▁000
roglobulin
bacter
▁suspension
▁substances
▁hypo
▁97
▁cytoplasm
▁hamsters
▁carriers
▁lethal
▁mortality
▁3)
oyl
▁cen
blind
▁averaged
▁peptides
▁94
▁mM
exposed
▁athe
▁clinically
zard
▁Previous
▁Stimulation
▁treatments
▁microvascular
▁classified
▁pyro
thi
lux
▁Overall
▁probes
▁Recently
▁comprising
▁euth
▁selectively
mia
▁canc
▁50%
ingle
▁4.1
8.
plication
▁analogous
patient
▁inotropic
▁reconstruction
▁surge
▁swelling
▁tumor
trical
rogenic
▁amygdal
▁leuk
▁regimens
requ
▁arom
wann
amphen
▁consensus
▁electrodes
▁secreted
▁junctions
▁circulatory
▁denervation
psin
aryotic
optic
▁microM
itum
▁elimination
▁amplification
▁suppor
▁chond
opres
▁kDa
▁glomer
▁assessed
▁sexes
jected
▁abundance
▁nifedipine
-5)
▁microtub
nai
▁infants
ncy
▁adrenoceptor
▁baro
▁heal
▁acqui
▁Leu
▁95%
▁CRF
▁amo
▁vaginal
immunoreactive
▁12-
▁predominant
resistant
ropine
▁MAb
▁neonates
▁scanning
▁fever
keto
▁diagnostic
▁analyzed
▁augmented
40
▁congenital
oprol
▁arrhythmias
-4,
tococcus
tically
▁resul
aric
▁exert
oprotein
1%)
apanese
iloride
▁mum
22
▁Thir
▁pertussis
▁longitudinal
▁dysfunction
▁novo
ilibr
cellulose
▁fractionated
▁lipoprotein
▁aggregation
▁exclusively
-3-
▁indications
▁characterize
▁methylation
▁plex
▁(1.0
▁73
▁substrate
Gl
trient
▁indis
9).
6).
▁tubules
▁Increasing
▁mothers
zymes
stim
ographs
▁fron
▁bacter
tradiol
▁facilit
oidal
▁angina
gesterone
geneic
opulmonary
▁monoclonal
▁IgM
▁mitochondria
▁aqueous
2318
atment
▁negligible
▁trauma
▁astrocytes
ropriate
▁catalytic
orpor
altered
▁retention
▁fati
oplasty
▁90
0)
▁acidic
myc
▁98
thyl
▁0.15
▁postulated
▁paren
▁epidural
▁elicited
▁circadian
-4)
▁macrophages
▁continuously
▁illness
▁TPA
▁bacterial
▁54
▁cirrh
▁modulation
▁68
▁genetically
▁reactivity
otassium
▁previ
▁initiation
▁enti
▁eliminated
1/
.3%)
▁mL
▁periodontal
▁pene
▁restor
idium
positive
▁eluc
▁recombinant
▁Sephadex
methyl
▁sphinc
▁marginal
ergy
▁attenu
oxid
▁cyclo
ritin
▁tachycardia
ophils
sors
▁unid
▁sarcoma
▁depolarization
▁bacteri
rease
adder
57
ulant
▁ribosomal
▁prosthe
ithelial
▁sperm
▁2.8
trogen
▁lobe
▁vasodil
▁organisms
terone
▁medulla
▁thym
▁reser
▁precipitation
orption
▁(0.
▁differentiate
▁phy
▁excretion
▁livers
▁nig
renol
▁lamina
operox
▁acidosis
▁PE
▁cyan
▁fluc
▁traum
▁diazepam
▁influenz
sion
▁multic
▁induc
anded
▁ionophore
arate
▁glutamate
▁intrac
▁triglycer
▁phi
▁neutrophil
urea
EGF
▁luteal
▁IGF
▁fibr
▁metast
ateral
▁strains
▁140
ivation
▁62
▁mitral
▁injuries
▁15%
lymer
▁radioimmuno
▁percentages
albumin
oneph
▁sulph
occus
80
ecyl
▁repeats
uppres
ignificant
▁luminal
pyr
▁Acute
▁1,25
▁IGFBP
▁reactive
lyc
▁encephal
▁55%
▁synov
▁elevated
crimin
▁shar
▁treadmill
romycin
▁immuno
▁immunoglobulin
rents
▁CEA
▁inward
6)
absorption
▁cycloheximide
immun
▁alveolar
tiz
▁slices
▁tubular
entanyl
ocardi
till
▁19
▁deposits
▁NADPH
▁titer
▁antib
alanine
▁uter
▁noc
▁7
▁portions
9%)
endri
▁deposition
▁asymme
▁3
▁microtubule
teroids
phenyl
▁degraded
▁grafting
▁59
induced
cence
▁responders
▁captopril
▁Cys
▁pancreatic
▁cartil
▁Doppler
idazole
2-
▁7.
▁determination
▁fluorescent
▁fetal
▁NGF
operative
▁inflamm
acylglycerol
24
▁syngeneic
magglutinin
▁35
▁depended
tioned
▁84
▁transferrin
▁peritoneal
azol
▁cytos
ulates
iotics
▁cirrhosis
▁cerevisiae
▁decarboxylase
▁polymorph
▁isolation
▁secretion
▁plateau
bac
▁elucidate
▁competitive
▁judged
▁terminals
▁NF
ochondr
▁peroxidation
▁ethyl
▁-2
-5
eptides
iaz
opolysaccharide
.6
▁somat
▁granulosa
trus
▁noradrenaline
▁diethyl
▁experi
▁supra
▁Exposure
▁arteri
saccharide
▁31
▁tubule
▁transpor
▁dischar
▁ultrasound
lix
tyl
▁electrocardi
▁93
adian
▁pleural
▁chicks
otroph
alasin
▁velocities
▁(5-
6-
▁supernat
ethylene
vascular
▁30
▁comparable
▁persisted
▁attenuated
▁umbilical
stimulated
▁autop
releasing
▁bronchial
operoxidase
▁opioid
▁dorsal
▁arachid
▁inver
rophy
phic
▁specimens
robic
PSP
▁80
▁20,
ophilic
▁4.6
32
▁instr
tially
/100
illus
-16
▁alteration
terolog
pharose
▁MK
achol
▁washed
▁effectiveness
▁1:
▁VT
▁glucose
▁yr
▁45
▁infiltration
sts
▁200
eminal
▁isoelectric
otoxin
▁92
▁correlations
▁PCR
▁impairment
▁ANF
▁mediate
▁metabolized
utaneous
-12
▁cef
▁termination
tiv
▁0,
transfer
▁tracer
▁septic
▁CM
▁nutritional
35
otides
▁phosphatid
▁codon
▁HM
▁molec
▁patency
▁.0
▁transduction
density
5,
▁PV
oradi
ogenicity
▁pretreatment
▁bronch
median
▁depres
▁nerve
▁hypotension
.8
▁8%
▁surfact
▁1%
▁absorption
urgical
▁chromatographic
▁epidermis
▁serum
▁pati
ching
▁modest
▁stiff
HB
▁bromide
▁recur
▁(4)
tition
2+.
omal
31
▁succinate
▁[3
ucose
▁techniqu
▁libr
▁compartment
▁nucleotide
▁Cells
▁immunodef
▁Strep
▁gastrin
trin
▁transported
oracic
▁exhibits
▁inhibits
▁orally
▁progn
ocyt
▁79
▁86
phrine
29
▁3.8
▁12
▁phosph
▁PRL
▁follicular
▁supplemented
%),
monstr
▁ethanol
abain
▁53
-7)
enkephalin
acr
.5
▁ischemic
adrenoceptor
▁6-
2/
▁degen
▁phagocytosis
etidine
▁hypoxic
▁intestine
▁autonomic
▁inh
▁muscular
tivity
33
osity
issive
▁emerg
urane
▁elongation
▁responsiveness
▁7.5
tization
galact
34
▁cytometry
topril
NK
rophic
▁300
49
▁symptoms
ocular
▁chromosomal
▁collagenase
▁epidemiological
olved
▁dexamethasone
▁1987
▁malaria
▁antagonized
▁cardiomy
admium
▁administered
luded
controlled
▁shortening
forming
▁similarities
cephal
▁rabbit
-8
125
▁5-
▁ventilation
▁600
▁(6
▁predicting
▁NAD
molec
▁Tyr
▁cotrans
effec
▁reas
▁simultaneous
phosphamide
-1.
▁tachyc
▁hemat
▁synthetic
queous
chloride
▁prostate
eric
▁cleaved
ture
▁underwent
▁adap
sized
▁cys
atase
etan
▁sph
▁catab
▁198
▁spinal
1%
ceived
cine
▁chemotactic
▁presumably
▁myocardial
▁acids
▁morphologically
▁postoperative
▁reflects
sy
accharides
▁bonds
▁theophylline
▁RI
▁AMP
abin
-9
▁guanosine
operidol
▁heavi
▁100
▁vesic
tisone
ichia
unts
▁spermatozoa
▁myel
▁slic
▁hamster
▁4-
▁inhibiting
▁HP
▁anesthesia
▁basolateral
▁quin
▁utilizing
orec
▁cardiomyopathy
▁ultrastructural
▁dopaminergic
uclear
linked
▁saline
otrypsin
▁ori
▁ether
▁morphology
acid
▁exon
transferase
Lys
▁lith
amel
▁intracellular
▁ocular
▁deterioration
▁liposomes
▁strain
▁sero
iability
▁implants
▁75%
▁20
▁78
▁mononuclear
titial
clonal
mented
▁laboratories
▁ouabain
etitive
oreceptors
▁mRNA
▁Biol
▁discharge
▁lungs
▁glycine
▁Clinical
tivation
+/-
ffinities
▁90%
epine
▁correlates
8,
▁gyr
▁relap
0,
feron
▁metabolism
urys
▁mg
otox
.3
▁immunoprecipit
opic
▁leukotri
▁radioactivity
sess
inephrine
▁contral
▁coli
▁prono
▁phospho
▁transgenic
-10
tral
▁inactivated
▁2%
oxygenase
▁amyl
▁substituted
duc
▁infused
ostatin
brom
▁epid
▁hap
▁gon
ocin
▁comparisons
▁oxidized
▁variability
▁secretory
thrombin
▁neuropeptide
▁(100
▁septum
▁PTH
echn
▁systolic
▁compounds
▁Treatment
▁transcript
▁mim
▁isolate
▁carbachol
▁lymphocytic
armac
▁cytoch
▁diminished
▁preliminary
21
unting
▁affects
regulation
.9%
fec
▁2.6
▁diets
▁brainstem
kinase
ifug
▁contamin
▁infec
aminidase
alian
gene
▁defects
icardial
gnetic
▁determinant
▁subc
▁exhibited
▁perip
▁homogen
▁proteins
otri
oids
dibular
▁radicals
▁tolerance
▁hypoxia
▁lact
tent
adrenaline
▁organelles
▁tryptophan
tile
ercul
▁microscope
iferative
anol
aced
vitamin
▁depolar
erance
▁intest
ositi
▁anastomosis
▁substitutions
lated
▁monkey
cepti
overed
▁lyso
▁prophylaxis
▁(40
▁responding
▁cysteine
▁(14
▁paras
▁valve
▁peroxide
▁analysed
▁proteolysis
▁mineral
▁balloon
▁extrac
▁myocardi
▁epitopes
▁motone
▁supple
oxide
▁accounted
▁4.3
▁graft
▁lowered
ymme
iol
▁glucocortic
▁elevations
ociation
(+)-
▁hyperther
ulatory
plemented
▁diffic
omical
▁proliferation
▁0.
ypical
▁5.8
▁preferen
phasic
patients
▁subun
▁efflux
osyl
imetry
,000
▁detec
resist
▁ineffective
-6)
ensitivity
▁chromatin
entia
ilic
ylation
▁bac
gth
▁adrenergic
ADP
▁HBsAg
▁pathology
▁preferential
▁infectious
onyl
▁pyramidal
▁regulation
▁psychological
▁reflux
▁arginine
urther
▁homozygous
▁labeled
hest
▁linearly
▁cerebellum
▁Patients
▁vaccination
▁fibrob
▁250
nary
▁diseases
▁degrad
▁transcrip
anav
▁radioactive
8%
cyclic
▁4.4
99
▁exogenous
▁cloned
dehyde
▁mutagenesis
▁6.2
▁lam
sectional
▁rIL
iciently
▁biop
▁auditory
▁trigg
▁clus
▁thi
▁hypot
▁humoral
▁retardation
▁surgical
▁sensitivity
▁refractory
modulin
adily
approximately
▁predictive
8)
▁24-
▁astrocy
▁hetero
▁calves
tein
rated
aminase
▁41
▁respec
▁colony
▁parental
▁analys
▁GM
ropathy
▁satur
▁LDL
▁practic
▁cutaneous
▁monolayer
trypsin
ifugation
▁leucine
▁Meas
▁1988
rocy
▁muscles
▁phosphorylated
▁antimic
ostomy
▁lowering
intestinal
▁metabolite
▁decline
▁oestradiol
▁immunosorbent
▁mutant
▁activate
gthen
ylline
glyc
pinal
▁ane
chymal
▁aspirin
apeu
.2%
▁HeLa
▁receptive
acts
▁smoking
ipro
▁0.01)
▁phenomena
▁RBC
5%
▁nucleotides
tally
▁intravenous
▁hypox
▁thyro
▁potentiated
▁healing
▁bilateral
▁preparation
▁reticular
astric
▁reductase
minute
adrenergic
▁regulatory
▁hepatocellular
▁incubation
▁challenged
▁affinity
▁repor
adex
▁granulocytes
▁9%
▁cows
▁16
▁complementary
▁considerably
▁6)
erox
▁fluores
▁profound
▁preventing
▁LTB
clin
pinephrine
HV
flamm
▁yeast
▁examination
▁10(-3)
itant
▁pronounced
keleton
▁Hg
▁measuring
sibly
▁expiratory
▁decarbox
▁65%
▁synaptic
phragm
▁micros
56
▁operative
▁Pseudomonas
tration
▁reflex
enicillin
7-
▁injections
-[
▁gels
▁ald
bral
▁arthritis
▁61
▁saturated
▁ventilatory
imide
otypic
(1
uary
ofl
▁dietary
▁challen
vul
.0
▁panc
dihydroxy
iesis
▁extensively
▁differs
▁recr
▁5.5
stranded
▁dex
▁26
ullary
▁vasodilator
▁deduced
▁soluble
▁melan
iable
▁HR
▁EB
.4%
▁reflecting
IGF
▁advan
▁PAF
tinguish
▁blot
▁ile
▁indomethacin
thmic
+,
▁tRNA
▁BALB
▁sigma
hydroxy
▁discontinu
▁Eight
loxacin
urine
uretic
nec
▁mitotic
▁pig
▁congen
▁lamb
thel
-450
▁hydrogen
▁heteroz
▁lumb
▁mutation
hyde
▁microscopic
duction
▁rhy
9,
rolog
▁4.5
▁melanoma
▁behavioral
lec
▁Plasma
opressin
▁oocyte
▁excl
▁TNF
▁suspected
.3%
rangement
▁encodes
▁follicles
▁localization
▁aeruginosa
▁10(-5)
▁sensi
▁therapeutic
▁(24
semin
▁epithelium
▁extraction
▁catalyzed
▁(21
▁(0.1
▁500
terologous
▁immune
▁moiety
mol
▁ratios
elec
▁acetate
▁prospective
▁pregnant
▁potent
ascular
4+
trained
-(1
▁abnormality
▁mucin
▁antigen
▁antitumor
7).
▁systematic
▁chicken
▁isoform
▁isoprenaline
ses
▁2,
▁compli
▁familial
hetamine
yroid
▁construc
/3
▁synthesize
3),
tagland
▁differen
▁adjuvant
obarb
▁elong
▁identi
ronch
▁(10(
EAE
▁HPLC
iliary
▁clonal
dividual
▁2)
yro
avage
dies
▁subunits
▁FEV
brain
7)
illance
▁Mg
▁2.1
tial
▁calf
piration
▁epit
▁hydroxylase
▁dodecyl
orin
▁arrhy
odil
5.
▁distal
▁1.
▁synapses
▁(2)
tinguishable
▁instrum
▁topical
▁recurrent
▁PBMC
▁hypertro
ighted
▁selectivity
▁numb
▁diabe
▁3.
▁MI
▁usefulness
▁indus
▁ACTH
maximal
▁forebrain
▁bicarbonate
▁deprivation
hydroxyp
▁creatinine
inflammatory
▁glutamine
▁synapt
▁infarct
▁cortex
otype
▁consis
39
▁fibrin
000
▁1990
▁subpop
illar
▁6.0
▁phosphodies
uvant
▁symptom
erated
▁inhib
phot
electric
▁reper
▁suppres
unctional
ogeneic
▁abuse
▁onset
▁60%
grees
▁lysine
requency
▁mitochondr
▁aspec
▁morb
▁PI
rectomy
▁heating
▁chick
roximately
▁recombination
adren
▁anomal
▁renin
▁preval
▁ventral
▁insuff
▁plas
▁cGMP
tened
▁pediatric
cessive
BG
▁epididym
▁1.2
responsive
ipitation
▁Sout
▁chan
▁(30
▁radiotherapy
▁investigations
▁5%
uscular
▁PTCA
ylic
▁allele
▁depressed
▁adequate
▁forskolin
▁coated
▁practition
▁abnormal
▁confined
ocys
▁(1)
ensitization
▁lymphocytes
▁agglutinin
rosemide
▁mixtures
▁renal
lycemic
▁negl
▁ulcers
illation
▁promo
MN
▁pups
▁carb
▁squamous
deoxy
ilep
▁identif
4-
▁kidney
▁6,
▁irradiation
▁subtype
▁pneum
▁admission
osom
▁tox
cAMP
▁MAP
toid
▁Mn
▁enhanced
▁epithelial
▁exceeded
0%
▁infarction
-1)
-3
▁.05)
▁disulf
▁nervous
▁constitute
▁ferritin
nitro
▁axonal
▁Additional
▁histochemical
▁radiol
rection
esthe
rological
▁Twenty
▁fibrillation
aline
restingly
▁oxidative
▁glycos
bly
▁meth
dered
directed
▁molecules
bilities
▁hipp
tural
▁0.001).
▁Leydig
TPA
odg
▁elast
▁transcribed
DH
▁80%
antigen
-5-
idol
▁consistently
▁stromal
▁survivors
vices
accharide
▁trachea
▁calcium
▁incorporation
▁inoc
acting
▁Chronic
▁absorb
immune
▁stenosis
▁destro
lasses
▁verapamil
▁incidence
▁47
▁correlated
esity
▁33
arge
▁citrate
▁institu
▁pharmacological
▁entero
▁dors
▁potenti
▁Hep
uctose
derived
▁endocrine
▁chromosome
▁demonstration
▁mobilization
eces
▁Salmonella
vae
▁lysozyme
▁polymerase
▁rati
▁intermedi
▁compartments
▁rheum
▁repetitive
▁TT
dle
▁1.0
▁lavage
▁Pretreatment
iotensin
▁reversible
PTH
irub
radi
▁eosin
▁phenotypes
▁dilatation
lue
▁colitis
▁ammon
▁histologic
▁unaffected
rected
insulin
bility
limiting
▁pregnancy
▁27
▁neutroph
▁SEM
▁monolayers
anuary
▁58
▁competi
-14
clerotic
10
▁lymphomas
▁Cyt
odialysis
▁biochemical
▁sca
(2+)-
▁enal
▁unaltered
▁dele
untary
▁enhancer
▁plastic
▁proteoglyc
▁10(6)
▁employing
NH
▁staining
▁nasal
▁interference
▁extracellular
▁excitatory
▁antagon
.1%
amicin
▁uncom
oceptor
▁brains
▁paralle
gative
▁Staphylococcus
▁extre
▁(-)-
aturation
kines
▁triti
▁LC
opr
umerous
ifed
▁successive
ancies
helial
odal
▁outflow
▁horseradish
▁aromatic
▁Sertoli
▁murine
▁follic
▁25
ompan
▁titers
▁exchan
▁(20
▁apprec
▁radiolab
▁EA
▁commerc
▁pulses
▁strand
▁oligonucleotide
▁corresponded
▁peroxidase
▁12%
▁nitroprusside
.4
▁3.7
100
▁neuronal
▁seizures
▁protease
ameth
▁ET
▁fibre
▁artic
▁125
▁follicle
▁prospectively
▁randomized
▁chromosomes
▁particulate
▁frac
▁promoter
▁Ia
▁cation
▁RT
▁leukemia
▁schem
▁thems
▁HRP
▁enhancing
▁attitu
▁cytotoxic
▁subunit
▁drinking
▁85
omized
▁8
▁NMR
pread
aminergic
april
ovine
fts
▁duct
veness
▁fractionation
▁polypeptide
▁degeneration
limb
▁LT
▁phosphor
▁8-
thmia
▁5'
sial
iary
▁dissemin
mg
idym
▁equilibr
▁capsule
▁supernatants
hep
▁isoproterenol
6.
rous
▁subgroups
▁outs
▁pulse
gland
▁(0.0
amide
sibility
▁lumen
▁SHR
▁displaced
FN
pregn
uridine
-3,
ygous
▁qualit
▁perin
odynamic
2+,
▁receptor
alate
epithelial
▁labeling
▁lactate
▁67
▁multivariate
▁inflammatory
▁ascorb
▁NADP
idin
portun
ejun
affinity
▁esophag
trop
▁breathing
luding
▁predominantly
▁synthesis
earing
▁(17
LV
▁devoid
▁10(-8)
▁clearance
▁gastro
▁immature
▁apolipoprotein
▁phospholipid
▁detectable
oplastic
▁overlapping
▁esters
▁enhance
▁72
ylamide
4%)
▁endometr
▁GTP
▁struc
▁monos
ocortic
▁drin
▁relevance
▁embryos
▁immobilized
ximal
▁aor
otropin
▁abolished
▁lateral
▁macrophage
▁kerat
▁putative
▁indirectly
rosine
▁OKT
tase
treatment
▁transverse
olarization
▁thymocytes
▁typh
▁muc
▁seizure
▁Inte
helin
▁shifted
▁aldosterone
▁sial
▁cataly
▁cytotoxicity
▁cognitive
▁phage
▁10(
ocaine
▁thresholds
▁adenine
▁transplant
phosphatase
▁interleukin
▁biliary
yste
]-
inic
▁persis
▁withdrawal
ophageal
50,
IgG
▁7.0
associated
▁protoc
wes
tryp
ported
-1),
▁TS
fos
85
rophob
▁constric
▁3-
antial
▁plasmin
erents
▁corticos
▁detergent
▁hybridization
▁vege
▁inspiratory
▁presum
▁74
namic
▁accurately
▁outward
plas
▁kidneys
▁40
▁anxiety
▁chains
▁heterogeneity
ietic
trous
▁histamine
eak
▁(28
▁dramatically
▁laboratory
▁silic
▁regurgitation
producing
erate
0.0
▁irradi
hepatic
omat
▁implications
▁AIDS
dihydro
▁streptoc
▁utilized
▁CSF
phosphate
▁transiently
ANP
▁vein
▁inges
frequency
siological
▁precursor
osynthe
▁1.3
sis
orectal
▁conclusions
▁hemo
▁projections
▁LAK
oic
▁kidne
ositol
▁blockade
▁trache
▁analogue
8).
▁rectal
▁elastase
▁52
▁proteases
▁activated
▁(198
▁autoantibodies
▁hazard
atitis
oprote
omyel
▁colonic
himb
▁retinal
peptide
phyloc
emic
▁capillaries
▁excised
thmias
▁bloc
▁copper
▁barrier
▁ammonium
▁atria
▁haem
▁downstream
opa
▁acute
▁Phosph
▁Tn
▁glycoproteins
▁anatomical
▁VO
ventricular
titis
affected
ensi
monella
omers
▁attributable
▁covalent
▁subcutaneously
▁beneficial
▁throm
▁calcitonin
olated
▁fold
aldehyde
▁histidine
▁solubilized
▁clon
oactive
-30
amino
▁membranes
▁PGF
ycl
partate
bodies
▁detecting
▁ppm
lycerol
phil
▁thyroid
▁attrib
▁tubercul
▁2-3
▁puls
▁discrep
▁validity
▁brush
mitted
▁thromb
▁ventricular
▁angioplasty
kinin
(2)
▁contraction
▁0.05)
hydrop
▁newborn
▁lipase
▁differing
olec
tryptamine
▁neuromuscular
ogl
oblasts
usp
imetidine
▁inositol
edded
▁menstr
ochemically
entan
▁altering
▁48
▁Inhibition
▁cardiopulmonary
▁immunosuppres
otrexate
▁inhalation
▁subcl
▁granulocyte
-100
▁onc
▁omega
▁questionnai
▁intervention
thase
emak
▁immunoprec
▁adducts
▁bilayer
▁alcohol
▁undergo
▁2.5
▁weekly
loon
▁pall
▁vag
▁nodules
kely
▁197
▁cartilage
▁GH
othane
trated
ropha
36
ordance
▁abdominal
▁iod
▁endoscop
▁ischem
▁indication
ygen
▁excreted
▁adrenal
▁collec
MV
▁CAP
trial
▁plac
▁incub
▁myocytes
trib
labeled
ipramine
▁baseline
DG
▁4.8
▁oxytocin
onucle
▁findings
▁cyt
▁attained
▁solub
▁susceptible
▁genes
hyd
▁mellitus
▁Plas
▁messen
tension
terminal
▁macrom
▁intram
▁pituitary
▁phenomenon
+)-
▁stren
ronectin
mentation
▁dissec
esium
▁GABA
▁polyacrylamide
▁proteinuria
▁foci
▁suspensions
▁ml
urons
▁myof
▁heterologous
▁kD
▁adoles
▁Increased
▁indicators
partum
▁glut
lact
▁76
rine
▁activating
▁0.0001).
▁brom
▁papill
▁Clin
▁cysts
glut
▁hypertensive
lycemia
lood
▁50
▁fluids
icep
ydig
▁stret
resid
istribution
▁95
▁selec
olute
rozen
▁negatively
1),
▁compound
plic
ovascular
▁ech
▁defective
echan
injected
▁oocytes
ostasis
▁2.
▁sten
▁envelop
44
iatric
▁1,000
▁PB
▁(13
▁Radi
3%
▁remo
onomic
ocl
▁determinants
toxic
osts
acrylamide
pH
ymp
obacter
▁1-
▁immunological
▁inters
▁ole
▁periphery
▁puber
▁epidermal
▁HPV
▁(25
▁quantitatively
▁AI
▁scans
MG
▁TM
▁100-
▁uptake
▁influx
-4-
▁wheat
▁20%
uminal
▁atheros
▁adduct
pig
▁1.6
▁peripher
Glu
▁targe
▁depr
▁Kd
▁endogenous
tensin
▁unex
▁strep
▁stom
▁diame
oscopy
▁promoters
▁occurring
genic
ocrit
27
▁hydrophobic
▁digoxin
rhy
▁immunohist
▁morphological
itr
cyt
olgi
oric
▁cholinergic
▁5.2
olysis
▁fatty
▁spikes
Cs
▁evaluating
▁behaviors
▁sequential
▁examined
tribution
EA
▁cytoplasmic
▁GnRH
▁vascul
▁polypeptides
▁freshly
▁WK
▁adrenaline
▁lesser
▁proliferative
▁4%
▁decreasing
▁metastases
yrid
▁survived
▁pelvic
▁reabsorption
▁deficit
lasts
▁osmotic
amate
▁nigra
▁subjected
▁mediated
angi
igaret
▁anat
athione
▁fluorescence
rested
▁regen
▁accessory
▁(0
enic
▁progression
▁cultured
▁allogra
▁hematocrit
▁coronary
▁erythrocyte
▁thiol
hyp
▁tissues
ration
2.
▁cereb
▁RNA
▁25%
olution
▁hydrolysis
▁contributes
▁glomerul
▁17
avail
▁characteris
▁diffuse
▁hybrid
▁metabolic
receptor
▁sensitized
gluc
IFN
▁thymic
▁clinical
▁cyclase
▁cate
fed
opath
▁inactive
-50
tingu
▁44
▁autoanti
▁MHC
▁adjusted
▁EGTA
▁mimic
PB
▁inhibitory
▁regulating
▁stimulated
▁drugs
acetate
▁bab
▁segmental
▁covalently
▁TA
▁dib
▁axon
▁lute
sistent
▁bip
BV
▁mesang
▁killer
-10)
yroxine
▁splic
▁lens
▁penicillin
▁Km
atible
▁HB
▁ulcer
phorbol
▁medication
▁3.4
shaped
▁(7
▁vasodilation
▁shif
immuno
▁MAbs
coated
▁allograft
anserin
▁symptomatic
tical
sant
▁passive
itals
molecular
ceptive
▁kb
▁surround
▁13
0,000
▁reductions
vian
▁concep
tocin
▁0.02)
restric
▁mell
▁bowel
▁locus
ocytosis
plies
▁Glu
▁PGE
traction
▁monit
odgkin
▁steroid
entricular
▁spontaneously
trol
▁moderately
▁ae
▁digestion
▁TP
opl
▁retic
▁hypothyroid
▁enzymes
arb
amines
▁uterine
▁antisera
▁tracheal
▁depletion
▁hypother
17
ocomp
▁synap
embrane
▁epilep
▁ana
pite
▁LHRH
37
▁myo
▁aging
▁ulc
ications
▁cytosol
▁10-
▁precur
▁sequencing
oplasmic
▁reticul
▁myeloma
▁electrical
clamp
mental
▁anesthetic
ministration
CDD
spectively
lytic
▁PMA
▁intake
3.
▁apparatus
▁retrospective
▁diaphragm
▁ischaemia
▁EGF
▁10
▁deficits
▁spine
▁cellular
▁catheter
tRNA
▁visc
▁Comparison
▁0.01),
anking
▁HCO
rowth
▁glial
▁localized
▁lep
▁85%
ophil
▁7.2
▁schizophren
▁differentiation
▁activator
▁mutants
4.
viruses
▁28
▁benzodiaz
▁exerted
dine
▁hyperp
atation
bearing
▁cure
▁0.01).
-17
▁indicative
luores
▁tetan
2(+)-
allikrein
▁varies
▁oxidase
▁toxic
▁interferon
▁34
▁substantially
▁lamin
ducing
4)
iciency
▁91
/2
5-
▁prostagland
▁100%
▁hepatitis
-13
▁retard
Leu
onate
razosin
-80
▁antic
hydryl
ylchol
ygdal
▁conclu
▁defic
idne
▁quantitative
▁concentrations
47
2,
mittent
resting
lobulin
▁hydrophob
▁synthetase
minis
▁disrup
aspartate
26
▁etiology
tro
igible
puts
▁activates
▁resec
1)
himbine
7%)
▁rostral
olytic
▁amin
ograms
▁conditioned
▁diagnosed
▁BP
▁PKC
▁tachy
▁cortic
▁patches
▁microtubules
▁Scatchard
bular
▁ganglion
▁concomitant
▁deletion
▁diaz
▁sensory
▁undetectable
▁PT
▁(5
ylcholine
▁enzyme
idation
▁obstructive
assi
▁Serum
ogenic
▁TRH
truction
▁NaCl
tumor
69
▁3.9
▁vitamin
▁130
▁lipid
▁abnormalities
▁99
▁psychiatric
▁cervical
▁adenylate
▁BA
▁risks
(2+
▁infusions
▁resistant
▁excitation
▁fibroblast
▁pmol
▁immunobl
timulation
tives
▁inhibitors
▁196
oproterenol
▁PD
▁widespread
-3)
subs
educed
▁arti
oprec
▁incom
▁symme
rocytes
entral
▁parasite
▁cholesterol
▁drainage
▁motoneurons
mide
▁erythroid
▁tuberculosis
omiting
ditions
arly
injection
▁affec
dipine
▁purification
▁encoun
▁complexes
modified
▁rehabil
▁penetration
▁Purkinje
▁Twelve
ginine
▁scinti
▁reversal
▁DF
▁Sprague
tabol
▁hydroly
