▁glycine
▁idi
▁defects
oluble
▁preferen
▁tooth
ociation
osocial
▁junctions
▁100%
▁amines
▁tissue
▁cyt
5,
isqu
▁shor
ofl
▁regis
▁lipids
alact
▁contex
▁discrimin
amyl
▁inadequate
▁lymphoid
▁lesions
▁mum
▁ration
▁corticosterone
PSP
olipoprotein
▁coval
anol
TNF
▁selec
adherent
▁immunohist
urium
▁initiating
▁tubules
▁3.3
tration
olgi
▁chori
1-
▁flexion
pig
loro
▁adenocarcin
▁perin
▁HPV
▁quantit
50
▁indicative
ATPase
▁HDL
▁(15
oplastic
▁(25
▁hypothal
exis
trus
▁acetylcholine
▁prognosis
▁adenosine
▁thir
ditions
▁oral
lasses
▁innervation
▁hepat
luded
▁conclu
▁43
ocardi
▁199
▁cathe
reactive
azol
▁manifestation
▁minimally
▁Changes
▁Bone
omycin
▁symptom
▁53
▁plas
▁Comparison
omod
▁morb
16
▁0.4
▁abolished
▁substance
facial
ulatory
▁aureus
▁terminus
orption
▁adjustment
FN
▁elec
▁infections
▁HI
oreceptor
▁Fc
ectom
▁BM
,000
oscop
▁beneficial
wenty
▁frac
▁vascular
▁reagent
▁Americ
▁prophylaxis
▁bloc
25
▁acidic
AIDS
▁fluctu
▁inhibin
NAc
▁spectroscop
▁adoles
▁substanti
intestinal
▁contralateral
▁morphological
tive
▁Tumor
▁TC
▁reper
ffin
▁depr
oprotein
▁modality
▁hemodynamics
▁ech
▁mening
▁SLE
▁unaffected
▁antibiotics
economic
▁tendency
▁clinical
▁predictors
▁pene
aptic
▁DT
thre
▁fron
▁astrocy
▁guidelines
▁negatively
ovirus
▁periodontal
▁preparation
lood
occal
▁tiss
▁discre
▁alkaline
▁pH
pite
MDA
▁NP
8+
▁excretion
▁inversely
▁carb
▁addi
▁bacteria
▁erythrocy
▁conges
ovine
▁anesthe
▁lesser
plied
-2
placement
▁60
urgery
▁shar
▁gland
▁cyto
atoid
▁0.25
▁reversal
▁causative
-17
▁effector
ept
ses
▁monol
rectomy
▁7
▁anaerobic
▁endoscopic
▁preoperative
▁putative
▁lowered
▁DG
▁enhanced
rection
▁demographic
idine
antial
▁Clin
▁synovial
kinase
▁100
▁cate
▁replication
▁Swed
onography
▁glycoprotein
▁elderly
44
acts
▁axons
▁influx
▁microscopy
▁gallst
cessive
▁buccal
▁arom
plastic
ompan
oxia
▁modulation
▁infectious
▁hypers
6)
▁potenti
toxin
fib
gans
▁11,
assay
PV
polyacrylamide
-5)
-0
eliac
▁vitro
▁constric
▁steroids
▁anat
▁depleted
tence
uble
▁Eight
1).
▁pulse
▁8,
tures
yses
▁sedation
inergic
▁500
▁endogenous
derly
▁19%
▁recordings
silon
bacco
ophore
▁collec
▁vitamin
▁thresholds
bodies
hemical
▁physiology
▁gluc
▁99
▁chemotactic
▁overe
▁experim
▁severely
▁enl
▁satur
▁papill
1/
▁serine
▁0
ithelial
▁collagenase
▁geniculate
▁conduc
▁cerebrovascular
▁ACh
▁islets
▁calor
idne
platin
ylic
monary
▁seiz
▁bile
▁mediate
▁CK
ocyte
▁pathological
▁ranging
▁enlarged
▁ascer
▁(12
▁chromatography
▁connec
▁rostral
▁bolus
▁phospholipids
-4-
cine
▁immunoreactive
atine
plants
▁adenomas
▁Sprague
▁preventive
omethacin
▁promoter
aired
▁(2)
▁optic
▁illness
▁excitation
glycerol
▁leukotri
▁frontal
▁uptake
▁thyro
▁oes
▁pneum
2).
▁laboratory
▁synthesis
▁substituted
▁disability
▁7.5
▁regurg
▁discharge
tisol
▁functionally
▁attrib
▁pyram
▁hepatitis
5'-
▁sut
▁cyst
nucle
▁behavioural
▁contractions
trition
▁proliferation
HF
athyroid
BW
ignific
▁biosynthesis
▁irradi
▁poorer
▁shortened
▁cytology
▁adenocarcinoma
atitis
▁experi
tiveness
▁thrombin
▁polypeptides
aline
▁practition
29
thel
phosphor
ipher
▁19
▁virtually
▁expressing
▁0.00
▁differe
▁1.0
▁ouabain
acyl
▁reflecting
▁IgG
▁fluids
iloride
ositol
▁poin
arent
▁34
▁aimed
▁PMA
linking
immun
ophag
trypsin
▁volunteers
▁MN
▁conductance
ophageal
▁nasal
ectomy
▁endotoxin
▁RS
▁conformation
▁fitness
▁VP
mittent
heres
▁acetyl
▁perme
encl
▁triglycer
posure
▁glomer
▁0.5
▁influenz
▁IIb
▁pathologic
▁pharmacokine
▁substitu
▁(4
GD
▁pathways
itone
▁differed
fected
▁27
ration
opausal
▁cardiovascular
▁ket
▁bip
▁exchan
dominal
▁concomitant
▁Patients
tum
vul
▁detectable
▁LD
▁plateau
▁peripheral
▁laparotomy
▁VA
tussis
▁infiltration
20
otox
▁dorsal
▁77
▁RF
▁likelihood
▁GD
▁phy
▁glycerol
▁premature
▁dele
acchar
Gly
▁inver
iotics
▁modest
▁obese
▁Mg
▁reversible
▁enhancing
▁repl
▁antagonists
▁acute
▁synergistic
ropine
▁rotational
▁retention
▁85%
▁thiol
ochondr
▁plasmid
▁tomography
generation
glucose
asive
▁catalytic
▁Neither
▁cyclase
piratory
ture
▁regimens
▁cholinergic
▁topical
▁NB
EA
▁phosph
sulf
▁82
32
ochem
▁hybrid
athione
▁ester
odynamic
oxygen
▁adduc
▁lamb
tized
▁aging
3%)
7%
▁fluorescence
ocyt
roscop
▁37
▁PCP
▁balanced
urc
▁baseline
▁88
▁ions
oxide
iminary
▁athletes
ocellular
▁inhibited
▁bone
▁immun
▁instability
▁assays
▁angiotensin
▁synchronous
▁heavi
fusion
trib
▁unex
▁evaluations
▁potentiation
tries
onad
▁PE
▁specificity
▁residues
asting
seud
erad
▁ae
▁examin
▁affecting
ially
▁dischar
▁exclusion
angl
19
▁electroph
▁agonists
ulose
tained
▁venous
▁differen
▁18
▁59
itrate
ocor
rolog
ohyd
▁melanoma
▁tube
▁determinant
▁trend
▁bronchial
▁immunode
78
eled
▁detergent
▁implicated
mend
▁substrates
▁testicular
trac
▁Kupffer
▁radicals
▁etiology
astric
labelled
▁controlling
▁recombinant
truc
vices
namic
actin
-1,
▁10.
.0
▁tumours
▁cues
▁dors
mitted
15
▁mucosa
▁transduction
▁incubated
tization
▁NT
othel
▁decline
RP
ycl
yel
-7
▁12,
▁fractions
▁labeling
veolar
▁disappearance
▁pelvis
▁120
▁4.0
▁amyloid
▁facilitate
▁treating
▁GH
▁PV
onin
▁placebo
▁airway
▁guan
▁inducer
▁excre
▁shortening
orts
hyde
ameth
tension
illance
▁preparations
▁25%
▁responsiveness
▁glu
▁tRNA
atonin
▁moiety
▁tes
ications
▁glucose
▁transloc
sibility
▁0.8
▁relapse
▁3.6
▁adop
gene
▁unstable
▁PCR
.9
▁circulation
virus
▁Recent
▁spine
▁sple
▁urinary
vail
▁NADPH
▁weigh
▁discontinued
tative
▁fractures
bular
FGF
olved
orepinephrine
▁comprised
▁pregn
oconstric
▁neuronal
tically
▁intact
▁[14
-100
▁prolactin
▁recons
bic
▁cystic
ATP
molec
▁thymus
osynthe
▁lens
▁ligands
▁acetate
▁contraction
▁46
incip
▁definitive
ecu
▁reproducible
▁stric
xual
▁gonad
▁vesicles
erox
ostic
otoxic
▁eluc
▁nec
azole
▁endothelial
▁pancreatic
eptin
anding
rents
▁unexpl
terol
▁bac
-3-
▁births
▁isolation
▁steroid
▁fetal
▁apparatus
▁periodon
phyloc
▁chemot
odium
▁(14
micro
▁horiz
plasia
tine
omers
ygen
▁valve
iotic
▁determining
onucle
▁biopsies
▁awa
▁inoculation
▁conclusions
▁noradrenaline
cephal
▁muc
▁surround
▁activating
5).
lusion
▁CRF
▁intrinsic
lux
▁phosphatid
▁TA
▁mitochondrial
▁gon
▁lactate
/100
▁carcinoma
▁cloned
EGF
▁biopsy
▁striatum
▁ECG
▁augmented
▁involvement
ineal
▁hazard
▁fixation
45
▁ventilation
▁urine
▁0.02
nec
▁atmosp
▁strains
-1)
immune
tively
▁2.7
▁(20
▁carcin
ventricular
lyce
phenyl
ipine
ranolol
▁gastric
▁deter
avage
▁hypox
gic
▁tol
rhy
▁regulation
bac
arge
▁emerg
osal
▁gradients
▁absorb
ectomized
▁monkeys
▁onc
bladder
▁organisms
▁(0.
▁coeff
▁adhesive
▁auditory
▁drin
▁radioactivity
oglobin
12
apamil
2/
amic
▁PB
zard
▁nitro
▁reacted
bly
▁stu
linked
▁1.5
▁viable
ocarcinoma
6,
▁lam
▁indications
▁LDL
▁alveolar
125
IU
▁catheters
▁neon
▁indomethacin
illary
▁stromal
ximide
▁phenomenon
ologically
▁strain
▁dendri
nine
▁currents
▁hemisphere
tors
▁concer
.7
▁75
▁determinants
acr
idis
otyp
athetic
▁skeletal
tus
aginal
opl
▁exacerb
▁laser
sequent
▁LN
▁enzyme
0.5
▁52
amous
▁continuing
▁attenuated
aid
▁Large
bral
gland
▁moderately
ituitary
▁CM
▁chicken
▁polyacrylamide
gents
tics
greater
▁49
▁atm
▁lis
▁anomalies
▁injections
▁Hz
▁4%
▁enhance
▁retrospective
▁35
▁10(-7)
18
tivation
▁mRNAs
incubation
1.
▁parathyroid
▁GTP
tory
▁thrombosis
▁platelets
▁hypo
▁nurse
▁averaged
▁preoperatively
-9
omat
atients
ostomy
ocyan
▁(3)
oride
▁susceptible
ronch
uctose
▁chronic
▁antic
0,
▁atropine
▁hypertensive
▁endot
28
▁excl
▁inactivated
▁interleukin
▁thorac
▁foci
BG
clinical
ervical
▁Escherichia
▁kinetics
▁LPS
▁potentials
▁sucrose
▁morphology
crib
testinal
▁Continu
▁inhibitory
▁MRI
▁Cox
ymptom
adrenergic
ochrome
uran
▁cortex
▁previ
▁synthase
▁56
▁selectivity
▁ultrastructural
▁90
veness
▁cholesterol
thrombin
-5-
sibly
▁disper
▁newborns
▁challen
olution
4-
oxone
▁susceptibility
▁normo
▁nursing
▁sperm
▁diagnostic
▁labelling
▁catecholamines
▁develops
educed
▁apex
epine
▁pressures
rague
▁creatinine
▁ANF
▁throm
▁excitatory
▁bladder
urys
▁progen
▁aor
4,
▁diabe
▁homogenates
HM
robic
rested
▁mann
▁DP
▁motone
▁poisoning
▁electrophoresis
▁TSH
▁preterm
▁lymph
▁monitored
tur
▁unilateral
fat
▁randomized
responding
▁aort
inj
54
treatment
▁lith
5.
▁infused
carinic
▁GA
▁islet
▁hypertro
▁cigaret
uron
▁transient
ogens
acted
▁substrate
ontal
teroid
▁irreversible
▁chains
▁analogues
▁apprec
CoA
▁pati
ypical
▁cleavage
timal
xia
▁1)
▁pyramidal
▁antagonized
rates
▁rhy
cardi
piration
assium
kephalin
▁attenu
▁simultaneous
27
8,
57
▁plates
▁stimulating
otassium
nai
ionine
amus
23
▁residue
tents
▁carrier
▁seizures
▁inactive
0%
▁wt
▁mAb
▁spi
▁0.000
▁surge
▁recurrent
▁immunoprec
▁bicarbonate
▁occlusion
▁creatine
▁(8
▁infusion
aldehyde
atrial
▁genome
▁Contr
▁defic
trogen
▁haemorrh
▁Nine
genic
▁61
BP
▁clearance
▁cef
9-
glyc
▁MV
▁carc
icin
▁thickness
stolic
arean
▁solub
▁fluorescent
▁85
abies
occus
tidine
▁HSV
▁alcohol
helial
▁drugs
▁reac
▁mutagen
otypic
000
▁paren
▁BAL
▁unsuccessful
▁fracture
▁minority
phasic
2-
▁cadaver
▁affinity
siological
▁microvascular
▁bab
▁platelet
▁sequentially
▁71
▁peritoneal
urin
tiz
oratory
▁monocytes
▁hemorrh
hist
0%)
-30
erine
▁DH
MG
▁muscle
▁1.3
▁malignant
▁ambulatory
▁activated
oplasmic
▁infected
▁mice
▁fibers
▁amputation
▁KCl
▁rati
▁bowel
▁granulocyte
roxim
▁adequate
erence
▁ery
▁38
▁depression
▁7,
▁laparo
▁resemb
▁follic
phrag
▁interfere
▁6.5
▁fibre
▁neuro
▁inoculated
comitant
henyl
▁0.1
▁muscul
▁Measure
▁infusions
esity
▁diffuse
▁adenylate
▁splenic
▁imaging
▁spectra
▁normotensive
▁ejection
▁trauma
iatum
▁yr
▁adolescent
orpor
▁8
▁inactivation
ilibr
▁consis
aminop
▁incorporation
▁evoked
▁PRP
▁diagnoses
gth
▁secretory
▁norepinephrine
tradiol
rae
▁continuously
▁ect
zyme
PAP
▁stimulates
▁carboxyl
lact
▁arachid
thase
Tc
oxidation
▁SDS
▁thi
▁mucosal
▁phosphodies
oscopic
▁abnormality
anav
▁endothelium
▁controversial
▁prevalence
olipid
kephal
▁colorectal
olarization
▁complications
romes
▁Afric
otroph
▁calmodulin
inated
▁pretreated
▁1.9
▁heterogeneity
▁autosomal
icep
▁ultrasound
aturated
▁tolerated
ensitive
nthe
▁tumors
▁2
trip
▁perinatal
▁risks
▁monoclonal
▁messenger
▁explored
▁concentrate
▁constitutes
▁considerably
▁responsive
erated
sue
▁cytotoxic
▁hormone
▁ventricle
ubation
duced
▁prednisone
centr
▁improves
▁oxygenation
▁relap
▁cardi
earing
▁placenta
▁microm
▁urea
▁drinking
usate
▁neutroph
▁belie
onset
ields
▁cardiomy
▁somatic
▁colonization
ceptive
rosis
▁(17
▁fibrin
ulmonary
▁retin
▁HP
▁progressive
▁atten
hep
▁1%
▁vacu
▁PGE
▁radiological
▁chemotherapy
▁comprehen
▁presumably
▁entero
roscopic
▁ablation
idated
76
▁68
DG
tage
▁prenatal
-12
▁transcripts
itant
▁HS
▁ventricular
rowth
▁succin
▁axonal
▁scanning
▁tracing
▁characterize
tions
plas
▁thrombolysis
▁iso
▁proton
icients
▁apolipoprotein
▁fmol
▁antisera
▁perfused
▁dilution
▁plex
ocar
hypertensive
▁3)
▁amn
▁monkey
ials
▁rectal
sorption
▁undetectable
▁biliary
luding
▁pathway
years
ighted
7-
▁96
▁plastic
▁Intravenous
▁blocker
▁protective
tructive
▁lumbar
-3
▁95
▁dial
▁ingestion
▁prophyl
andard
▁nig
▁cAMP
▁SEM
▁undergoing
▁cava
ocytes
▁pig
uretic
▁operative
rosine
▁enrolled
▁ethnic
▁3.1
▁0.3
▁aneurysm
pinal
ureth
▁hypog
▁7.
▁50%
▁ACE
transferase
▁5-
▁tryptophan
▁embry
▁prol
olip
▁84
ivered
▁Vmax
▁PT
▁leakage
keletal
▁4-
▁progres
tally
▁decisions
rogen
scherichia
▁gp
▁receptor
▁nutritional
(2+
▁7%
▁venti
pinephrine
-7)
IFN
▁initiated
▁triglyceride
▁hippocamp
▁radiolabeled
ocardial
▁6,
▁demonstrating
itr
▁survival
▁impaired
acin
▁spermat
▁GI
osome
21
▁hypoxic
▁kerat
ymptomatic
▁subpop
acetate
▁undergo
▁synerg
otri
ospitals
▁epilep
tured
▁reas
sy
NH
▁deaths
▁homology
▁consequently
▁chloroquine
sorb
▁33
▁erythrocyte
▁ionic
sions
lytic
▁FS
oxygenase
otomy
diagn
▁theore
▁correlations
49
▁dehydrogenase
▁analyzed
▁electrical
▁Doppler
▁chloride
22
▁dehyd
▁hemisp
ignant
chym
▁surf
▁renin
(+)-
▁distal
▁(10
▁granul
ginine
▁anaesthe
▁1-
kers
▁behaviors
▁GV
tabol
▁Experim
Ki
▁neonatal
▁neuron
:1
lycemia
zation
▁10%
MV
▁breakdown
▁findings
▁cognitive
spectively
▁sensi
anthine
▁drainage
▁pulmonary
▁retinal
▁exceeded
oprec
▁judged
▁antagonist
vian
zymes
▁amin
▁intestinal
olecular
▁66
▁duoden
transfer
opathological
▁48
rine
▁homogeneous
▁meal
▁persis
phic
▁epinephrine
glutinin
▁Phy
▁seas
▁oxy
atment
▁ischemia
▁10(-6)
▁mothers
▁cerebral
▁radiotherapy
▁10(-5)
amines
▁Golgi
▁35%
▁provid
sial
▁adjuvant
▁fluoride
▁limiting
▁glucagon
heximide
▁suppressing
▁phospholip
▁transcript
opulmonary
tig
thma
▁adipose
▁PCO
▁restor
roup
osin
▁facilit
▁cysteine
▁degen
▁dex
7.
tryp
▁habits
▁lobe
▁latent
▁crude
▁RB
▁affects
▁arter
▁prono
istically
.5
▁glucocorticoid
▁spinal
▁cyclo
▁gallbladder
▁Cd
▁inges
▁virtu
▁markedly
▁28
▁serotonin
▁197
▁Severe
▁isolates
▁cryp
▁captopril
-18
▁stomach
▁hipp
▁selective
▁establishing
▁preventing
urther
▁occl
NK
oretic
Hg
sts
apeu
▁investigating
tages
ynaptic
▁routinely
perfusion
▁clinics
vation
▁medial
▁aden
▁uncommon
▁sinus
▁bronch
▁polymer
ercise
▁absorption
▁proce
MH
plete
▁msec
▁salivary
acetic
ensory
jug
▁prolonged
gely
▁hypertrophy
▁8-
▁abd
▁toxicity
plantation
thmias
▁thrombo
▁recurrence
▁maintaining
operative
▁plasma
▁(198
▁2%
▁60%
▁2.
▁specimens
▁paralle
illin
▁medullary
▁HB
▁sial
▁dendritic
▁mmol
itol
epti
▁positively
▁astro
▁assay
▁DS
▁lys
▁cyclospor
▁immune
▁mortality
▁duodenal
otypes
▁molecule
▁yiel
thyroid
▁inhibiting
umerous
▁polyp
▁phorbol
ensitization
▁membrane
▁exhibits
▁slowed
embr
▁immunization
resistant
▁poten
▁chromosome
tened
partate
▁sequential
▁Cardi
▁mg
▁paraventricular
inic
Ps
43
▁conservative
▁construc
]-
▁newborn
BV
-3)
▁limbs
▁nucleotides
▁placental
▁radioimmuno
▁tubes
▁fever
▁attending
▁cortisol
▁nitrogen
unced
▁cytosolic
▁sensory
tives
▁GnRH
▁intermedi
▁lacking
otype
▁MH
▁fatigue
▁synthetic
siveness
▁induces
▁bacterial
▁intraven
▁shifts
onomic
icine
▁portions
▁participate
ophils
▁infil
▁transmembrane
00
1,
▁vasodil
selec
ingle
ogenetic
Dawley
▁plasmin
▁diabetes
sA
▁thickening
▁promin
IIIa
▁acet
▁thigh
orectal
▁acidosis
riched
receptor
▁tetr
▁distinctly
WL
▁blockers
2+,
▁elong
▁psychosocial
▁mM
▁ventil
ophy
rozen
inositol
bumin
▁facial
eal
▁tibial
▁0.9
▁peaks
▁caudal
▁dosage
iasis
tens
▁perception
56
▁thromb
feren
▁physiologic
▁tau
▁29
olute
▁stimul
▁dysfunction
▁agonist
▁degradation
▁polymerase
ifferenti
88
▁microcirc
dimethyl
acental
▁(18
▁12-
Nase
▁0.01).
▁elu
lyl
ropriate
unctions
▁propranolol
▁suppres
▁needle
▁somatostatin
ucine
▁subunits
▁insulin
▁alterations
▁progesterone
▁arginine
▁potent
▁questionnaire
▁dimer
▁schiz
▁0.01)
▁aneurys
eroxide
▁fractional
▁76
adrenoceptor
1)
anyl
▁depressive
▁epidemic
▁quantif
▁cytotox
▁viruses
▁tidal
▁indi
RH
angi
▁3-
▁mamm
▁microsomal
▁NMR
▁eosin
3.
aneously
idity
tle
oxid
▁intrav
▁superoxide
ucle
▁Concomitant
▁polymorphism
6-
▁bronchi
aemic
▁vaccine
▁comparable
▁sulph
ilical
▁anesthetized
responders
▁sequel
▁Kd
urane
(1
▁dissection
▁epithelial
▁3'
▁proteins
jec
ylase
17
teine
▁tymp
▁biosynthe
▁reactive
▁gestational
enteric
tabl
peptide
▁HCC
▁pelvic
▁deterior
1/2
▁histologic
▁linole
▁mammalian
▁21-
ocamp
▁verapamil
▁54
osomal
▁terminals
▁correspon
ologous
▁myo
▁homologous
▁morbidity
/6
▁nodules
versus
▁83
clerosis
dose
eces
oag
▁saturation
ffec
ocytic
▁NH
▁enti
▁peptides
▁72
▁wound
▁intra
▁responded
operated
▁endoscopy
▁circulating
opamine
▁rup
▁ml
kines
39
ospor
▁OT
eptide
▁symp
▁potentiated
▁silic
▁fentanyl
lasting
▁(7
▁shifted
▁cytokine
▁regulate
crimin
▁synov
▁glands
▁microM
▁fluor
▁encephal
ulph
lox
▁1.6
▁treatments
▁NF
▁collagen
methyl
iciencies
▁circumferen
oxic
▁lymphocytes
▁75%
▁Patient
maximal
▁2-
▁GMP
▁intraper
▁kinetic
trin
▁mitochondria
▁transcriptional
▁lamina
ophren
▁perfusion
0-
obarbital
erents
▁albumin
7%)
▁(6
▁heme
▁centr
▁prospective
▁dodecyl
▁repor
▁surveys
▁physically
▁aspir
▁nuclei
utaneous
▁leuk
▁inositol
controlled
▁26
alian
rangement
▁reag
▁forskolin
insulin
iliary
▁PMN
▁TNF
▁subc
▁80%
▁leukocyte
▁dyn
hea
Phe
▁percutaneous
kDa
▁(5-
ofluores
▁mild
▁accelerated
▁posi
▁aggregation
▁secreted
usal
▁arteri
ticular
▁reductions
10
▁40
▁validated
▁phospholipase
bloc
▁sham
▁arterial
▁mutant
▁55
tak
▁encour
▁morphine
▁anatomical
▁transpor
opi
itus
▁polyclonal
itonin
▁distin
▁ane
adren
entical
atectomy
▁objec
phrine
▁WHO
▁mec
IGF
4).
traction
▁GFR
4.
olism
phyl
ozo
▁validity
▁10,
▁suppressor
▁cereb
▁arteries
▁linoleic
iary
1%)
▁axon
▁biop
▁cirrh
▁awareness
▁syndromes
▁metabolite
46
▁interc
adiol
tin
▁phosphate
▁genes
▁extensor
fec
▁excit
▁shorten
▁cultured
▁blockade
▁pump
▁binds
sian
▁SHR
▁electrode
▁retic
▁cervical
Leu
▁carriers
▁adhe
▁consecu
▁decreasing
▁chronically
▁2.2
▁endometrial
olic
▁natriuretic
▁pigs
oA
idney
aluation
▁heterogeneous
sized
▁limb
▁luteal
▁basal
▁hormones
▁neurons
protein
▁precursors
oscopy
▁ultrasonography
erative
▁cows
▁projections
asal
.2
totic
tagland
▁PI
▁FT
▁neoplastic
▁DF
usive
▁physician
▁saturated
▁concentrations
▁differing
ocl
▁elucidate
lycerol
mitter
▁Wistar
ofol
omiting
▁outpatient
▁fold
▁duct
5)
▁inherent
▁AMI
▁competitive
▁mim
▁examined
iciently
▁metast
cells
▁diagnosed
▁3.4
▁mesenteric
▁isolate
▁analys
▁mediates
▁hamster
heric
hydr
▁diame
pation
.2%
▁MI
tent
▁4
▁unchanged
▁vivo
▁angiography
▁fibres
ifed
othane
▁brom
▁functioning
▁marrow
utyr
▁exten
▁deterioration
▁10(-4)
8%)
▁psychological
subunit
▁sti
▁fulf
▁pancreas
ilic
▁90%
eight
tility
90
oung
▁20.
▁0.05)
▁lob
▁ile
▁instrum
▁gastro
▁resuscitation
5%
▁loci
▁fasting
mL
▁surgery
▁symptoms
▁underwent
▁2,
▁mobility
▁monit
▁atheros
▁metastasis
▁catechol
▁clamp
▁NMDA
▁0.6
▁allele
▁promising
▁transplant
▁amput
▁implications
DH
▁epit
▁ventral
▁disorders
▁hemo
▁theophylline
density
▁disruption
-2)
▁15-
▁plasmids
▁2)
▁57
▁7.4
▁saline
▁secretion
▁implic
tance
▁95%
.8%
▁anastom
▁exogenous
eptidase
▁outcomes
▁(2
▁inhibit
▁glomerular
▁2.5
▁oxygen
▁admission
throm
▁arth
▁cyclic
▁contaminated
▁0.05
▁analogs
▁chol
tetra
went
▁plaque
▁10(6)
▁5)
▁radioactive
▁regulated
▁resusc
▁insufficiency
▁reproductive
▁prostagland
ecyl
▁anemia
▁profound
▁adaptive
▁diversity
▁replic
▁reproduc
2.
▁(13
▁adequ
▁subun
▁attemp
▁fiber
▁LV
▁demonstrates
nRH
▁comparative
chol
▁strategies
▁relating
▁Meas
cyt
.5%
▁chan
▁subgroups
▁tamoxifen
ocul
semb
▁disturbances
▁EGF
▁Fifty
▁hippocampus
ministration
▁endometr
▁vasopressin
▁neurones
▁Kup
▁labeled
▁extracellular
▁Removal
▁onset
▁rejection
▁radiographic
rehen
▁interventions
▁dilated
▁extre
entan
▁statis
▁fati
estis
▁ligand
▁differentiate
▁Hg
▁NADP
arly
ceptions
▁margins
▁14
▁biom
odg
adian
▁perfor
tation
spective
▁deficiency
uptake
▁describ
▁concom
▁smo
alanine
tral
diastolic
▁vaccines
▁abdomen
cents
iability
▁satis
▁PAF
titu
▁PET
ecal
▁mitogen
ults
▁[125
▁abnormal
▁stab
▁suppressed
▁pregnant
▁11
▁epitopes
diol
invasive
LISA
▁hippocampal
osidase
RNA
▁abundant
▁cholec
▁affec
▁gyn
▁rehabilitation
▁hepatic
▁30
▁metastases
▁antigen
oderm
ctomy
▁suture
emic
▁pyr
▁overlapping
▁kine
▁toge
reness
▁accel
▁systematic
▁IA
ulates
▁79
▁LH
▁Rats
▁muscarinic
▁epsilon
▁identif
▁abilities
▁fibroblasts
▁reticul
duce
▁identifying
▁preservation
▁lamin
▁bipolar
▁hospitalization
▁spind
ortal
otide
▁inappropriate
▁weekly
▁targe
▁supplementation
6%
▁MHC
▁depolar
▁usefulness
▁unde
▁carcinogens
helin
▁jejun
▁70%
▁heterogene
▁feasibility
▁translocation
Daw
▁emotional
▁(50
97
acylglycerol
▁Chronic
▁accurately
▁sarc
urea
▁challenges
ocular
▁advan
▁ganglia
tic
rophob
taining
thal
▁39
▁hypothyroid
▁anticipated
▁0.03
phosphon
▁aspiration
leu
lix
cence
▁RBC
▁EBV
▁thromboxane
▁chor
atest
rated
▁testosterone
▁squamous
▁anae
▁cytokines
▁cataly
FU
▁reveals
▁epithelium
▁favorable
orbol
▁86
amide
onuclease
gmental
▁dietary
▁grading
▁gonadotropin
sies
divid
▁invasive
entif
elan
matic
VL
▁antigenic
86
▁galact
onium
▁dye
▁regimen
▁failures
tivity
▁1,25
▁schizophrenia
▁44
deoxy
▁ventilatory
▁cortic
▁precipit
regulation
▁lysis
▁accumulation
oceptor
esium
▁dete
▁dental
▁monke
▁mell
-450
▁yielded
▁endocrine
▁coronary
▁VO
/2
▁Comparisons
▁recessive
▁cigarettes
▁cisplatin
olec
▁incom
enic
ocial
▁intravenously
myc
▁MT
▁TCR
▁palli
operox
resist
▁beha
adequ
▁APC
tition
▁fibroblast
▁standardi
oclonal
▁complic
▁isoproterenol
▁estradiol
▁leukemia
▁Cyt
abain
▁0.01),
▁complementary
▁investigations
itamin
▁maturation
▁lute
▁3%
-60
▁pyruvate
▁reticulum
▁fibrosis
▁transplanted
▁molec
releasing
▁chromat
etitive
▁irr
▁PF
ece
▁ulcer
▁angina
▁196
▁kDa
▁tended
▁pep
hydro
▁intensive
▁Accordingly
oglyc
▁discontinu
2+-
▁peroxidase
2),
tomy
▁accep
armac
▁antigens
▁10
ensi
▁qualit
▁mmHg
▁pediatric
rogra
▁labelled
▁follicle
▁molecules
▁encodes
onit
opressin
achol
-20
▁nm
▁injur
▁24-
▁leucine
▁transi
▁lymphocyte
odil
versely
oic
2)
▁emergency
urgical
ronectin
etween
▁exhibit
▁desirable
▁supple
▁cytoplasmic
.8
rophy
▁liver
▁thal
▁dosing
▁progestin
▁natri
▁immature
▁coupled
omical
▁hepar
▁phosphor
▁pineal
occi
oids
lys
arbox
▁cirrhotic
▁postmenopausal
▁deform
▁opioid
▁23
▁surgeons
siologic
▁41
▁1
▁esophageal
▁umb
▁benz
ylcholine
itin
▁messen
tate
-40
▁outs
urons
▁9
▁intram
▁6-
▁dialysis
oprote
lysis
itary
▁therapeutic
ophilic
▁encoun
atab
▁atr
▁gestation
▁murine
▁abortion
▁cytosol
▁intrap
renol
▁junction
▁confined
oracic
▁tissues
▁supernat
▁recr
olesterol
erent
▁intestine
▁bilateral
▁4.
▁diseases
▁unil
▁42
▁Biol
30
.6%
▁pituitary
▁physicians
▁longitudinal
1),
▁noc
▁21
accharide
▁PSA
▁preval
▁CSF
▁compli
▁cultures
▁hypothe
▁regeneration
▁employing
utroph
▁anxiety
tric
▁Forty
6%)
RF
ilep
3%
lobulin
idase
▁densities
▁actin
oxy
▁adenoma
tran
▁aggres
LDL
hest
hospital
▁tas
▁parap
erance
sis
▁Throm
▁consensus
▁(9
▁prevention
▁liposomes
70
2+
▁haem
▁degrad
blind
▁circumference
▁12
▁intrauterine
▁improving
▁0.001).
▁(16
▁metastatic
▁glutamate
coun
▁anion
▁cation
▁codon
▁filaments
NM
▁phe
▁androgen
▁exis
▁rostr
atched
-24
▁arrhy
▁1.8
▁microv
▁displ
-6
▁glyc
embrane
istar
▁porcine
▁toxic
▁tobacco
▁thyroid
▁pylori
▁gastrin
▁tuberculosis
toph
▁cardiomyopathy
educ
ropriately
9%
sively
Hb
▁amino
▁lungs
▁opi
hern
produc
▁myosin
▁myocardium
▁ACTH
opres
▁atherosclerosis
▁organic
▁ovari
▁chond
▁proteolytic
▁scre
adily
pH
▁granule
▁adequately
▁phenotype
▁conformational
versity
▁vaginal
roma
▁ultim
▁microscop
ociated
▁commerc
▁evid
▁cholest
phosph
tyl
mental
▁radiol
leukin
1%
▁AVP
ylephrine
.1%
▁seroton
▁resting
▁erythrocytes
tead
▁1.7
▁amyl
lastoma
▁motility
▁cros
▁questionnaires
rogenase
lobin
ureus
.2%)
▁hydroxyl
▁neurom
ncy
▁echocardi
▁effectiveness
ascular
▁hemodialysis
▁Thirty
grees
erate
▁exce
▁wors
▁promo
loxacin
▁predicts
▁predictor
▁Tes
▁pretreatment
▁choline
▁physici
▁amplification
▁inflammatory
itance
▁ure
▁contral
▁kinase
ygo
▁20%
kinin
ancies
▁complaints
ithin
▁assayed
▁examination
tec
▁remission
arrhy
▁donor
▁knee
▁PP
His
growth
▁necrosis
▁reactivity
ifferen
ifugation
▁hospitals
containing
▁phage
oplasty
▁substantially
▁resour
▁endoplasmic
▁progression
▁measuring
▁63
▁bypass
▁mono
▁administered
kine
acid
▁ovarian
▁eryth
tering
▁1.2
▁ESR
iaz
▁78
▁antib
▁modulate
omotor
▁grafts
▁thoracic
▁perip
▁HPLC
▁soybean
monstr
▁carbohyd
urine
▁sero
40
uclear
▁quin
▁resection
sess
▁carcinomas
▁staining
▁cancers
ication
otone
▁minimize
▁mediated
▁pS
vely
▁underst
▁1987
▁suscepti
▁(95%
▁autoanti
quine
iol
▁irradiated
▁diagnosis
▁effec
▁synthesized
▁hydrophob
oradi
▁allogra
▁disrup
▁spleen
▁unm
▁(3
▁lavage
▁requi
▁interv
▁0.05).
▁synthe
▁infection
▁apical
oglobulin
▁suppression
trated
▁developmental
▁referral
iliac
▁OA
▁colonic
8)
itic
▁resec
▁postoperative
▁adults
rotid
▁aldosterone
rotic
▁parental
▁hormonal
▁pertussis
▁microgram
▁Immun
-2,
▁severity
4)
▁fibrob
▁normalized
▁inflamm
▁therap
▁oxidase
queous
mediated
ethylene
▁cann
▁autoradi
▁[3
▁PEG
toxic
▁feeding
▁excision
clin
inephrine
ignificant
▁ald
uncture
fos
9,
▁enzym
▁1989
▁instr
▁brains
▁VL
stim
▁reflux
▁74
ergy
plication
▁staging
-4)
▁preliminary
gm
▁diffic
▁51
aryngeal
dibular
▁dys
▁compound
▁hep
▁hig
▁acco
dies
▁epileptic
▁lectin
encephal
▁myel
▁recur
5%)
▁bovine
▁anomal
▁characterized
ergen
▁activator
▁genomic
atase
KD
ficial
anded
▁practically
phil
derived
▁somat
▁1000
▁polymorph
▁hemat
▁tric
effective
▁diarr
lasts
▁sustained
▁reconstruction
▁bp
▁passive
jun
▁cervix
kage
▁yeast
▁predic
osom
▁hypoxia
▁tension
▁interf
▁sequelae
▁phag
▁deficit
matched
▁leukocytes
oidal
▁autop
▁paras
Hu
▁3
▁beats
▁intense
▁myocardi
▁variability
▁neph
▁spontaneous
benz
oresis
coup
▁athe
65
aminergic
▁extraction
▁multivariate
▁gels
titial
▁Samples
▁septal
regulated
▁docum
▁LT
▁slic
owever
▁antiserum
▁quanti
▁cephal
▁HM
(2+)-
lyc
▁inhibitor
independent
uded
ayed
▁macrophages
▁Cells
DNA
▁brady
▁adap
▁innerv
▁arrhythmias
quid
37
stranded
▁predictive
▁degeneration
rected
▁ischem
toc
▁alleles
turb
tensin
-1
▁increas
loid
olysis
▁polyethylene
▁Tran
▁peripher
▁organism
▁upstream
▁fibr
▁protoc
▁amph
▁mitral
▁reductase
stimulated
▁synthetase
▁elicited
▁oligos
amate
▁discon
▁ASA
▁5%
▁localization
romed
▁mitochondr
orac
▁inapp
▁inhibition
rati
ochemical
oric
amination
▁systematically
▁73
▁carbachol
modulin
▁tyrosine
▁scin
fts
vents
truction
▁(5
enh
▁stimulation
echanical
3).
ubicin
sion
ylline
oes
▁2.3
mol
luores
▁inh
oxin
▁postoperatively
-[
tact
▁mumol
▁proteoglyc
▁Hb
▁1986
▁sympathetic
▁titers
kely
/10
▁vagal
▁proliferative
ologic
tingu
tocin
ylation
tention
uterine
▁olig
▁adren
▁additive
▁insertion
▁BP
▁deprivation
▁vasoconstric
▁envelop
▁hams
▁healthy
▁metabolites
natal
▁carotid
▁supplement
onate
deficient
astom
threatening
▁iliac
▁HA
▁Radi
CAM
igaret
▁IgM
▁CNS
▁exhibited
▁enriched
▁62
2%
▁pathogen
▁pancreatitis
▁(11
▁reliably
▁assessed
entanyl
▁fibrinogen
▁nifedipine
▁3,
▁anatomic
▁0.01
▁aspirin
▁copper
▁shif
brain
▁dexamethasone
uccess
▁swelling
▁acqui
▁tumor
▁reagents
entricular
▁eosinophil
▁nal
▁30%
▁perox
otent
▁insufficient
ethyl
5),
0%,
▁exclusively
▁eti
inemia
▁hyperplasia
▁hydrogen
▁3.
acetyl
▁cats
▁ketamine
▁myocytes
ylamide
otoxin
▁fibrillation
▁microsomes
▁implanted
▁cerv
▁cytoplasm
▁cyclosporine
entric
▁reflects
▁4.5
glut
elec
▁sensitivity
rox
▁initiation
▁glycogen
▁alteration
▁symme
66
▁genotype
odiaz
▁regen
apse
▁Biochem
CBF
▁93
ducing
▁immunological
▁psychiatric
▁coag
▁.05)
odialysis
▁bacter
▁distinguishing
8.
▁ultras
34
▁prosthe
▁assis
requency
▁VE
▁isop
▁respiratory
▁immunized
arbonate
ustif
▁nM
▁0.7
▁glutathione
▁multiv
4%
▁estrogen
moid
opa
▁neoplas
idate
▁phosphorylated
olone
▁GF
▁CMV
inely
lycer
vascular
▁kb
▁subjected
rologic
▁nervous
.4%
▁cuff
▁familial
licular
▁genotypes
▁omega
▁osteoporosis
+]
▁neurotrans
GH
▁recor
▁extracts
▁undergone
▁debr
▁vag
8%
adm
▁immunofluores
▁50
echn
approximately
0,000
▁selectively
▁TGF
▁renal
▁ulc
▁IGF
▁smokers
ampl
electric
tamine
▁reproducibility
icardi
▁Ia
antigen
6.
▁apop
vac
▁compe
▁predomin
ylchol
obarb
▁depletion
▁cochlear
▁reactivation
▁homogen
kground
▁20-
▁pulp
▁biological
▁physiological
▁correlates
▁atrial
iably
2%)
▁incidence
▁classified
▁Whereas
helium
▁predicting
▁300
▁magnesium
tumor
▁altered
▁contributes
▁2.4
aced
▁hygiene
▁oocytes
▁hypothyroidism
▁tertiary
▁breathing
4+
▁rabbit
ophil
▁screening
orphin
▁melatonin
▁LS
▁fluores
▁withdrawal
itro
asone
▁congen
idol
onuclear
-6)
▁stren
48
▁ultra
▁7-
uminal
▁0,
▁irrever
alc
▁Dop
▁soy
▁FSH
▁rheumatoid
▁87
▁CTL
▁FV
▁0.001)
▁moderate
▁restenosis
▁survived
▁iod
▁angioplasty
▁induce
jected
▁exon
absorption
▁hemorrhagic
itoneal
feron
▁probes
▁infarct
omies
▁trials
oplas
ogenous
▁disulfide
▁centrifugation
IgM
tox
▁remo
▁inoc
▁microscopic
▁PKC
▁epid
)2
▁immunoglobulin
▁synap
▁modulates
▁collateral
▁kappa
▁dose
PB
▁injec
▁advances
▁splic
▁macrophage
▁laminin
▁assessment
▁spikes
▁lyso
oreactive
athy
mature
▁hetero
▁.0
▁immunobl
▁cellular
▁childhood
xone
▁pronounced
▁wash
▁desm
▁basement
olus
▁cumulative
▁intravenous
▁accounted
forming
uppres
▁retur
apeutic
ycin
▁nicot
CSF
▁muscular
▁mast
▁lysosomal
▁homogene
▁prospectively
ograms
▁septum
▁linkage
ropha
▁frozen
▁tubular
opha
▁4)
▁tachycardia
▁balloon
▁causal
▁uter
▁regar
▁obstruction
▁ana
-14
▁mammary
▁cerebellar
ronchial
▁67
▁homogeneity
▁sciatic
▁canc
▁granules
-19
ellum
▁manu
trate
▁pressor
dial
▁adminis
+)-
▁31
▁elic
▁sphincter
ocortic
▁intrag
▁projec
▁phi
▁lysine
▁tox
▁libr
lue
sors
ivation
▁0.05),
.9%
operatively
▁64
▁strom
▁compartment
▁201
▁sodium
▁decreases
▁cGMP
▁sugges
▁blot
reast
tality
▁phosphorylation
▁ranged
ometh
ocaine
▁follicular
▁conserved
▁cytos
olamine
▁oste
ellular
▁Clinical
menopausal
olytic
▁predominant
treated
▁neurologic
atid
▁enzymatic
▁supernatant
▁strand
eptid
▁alanine
▁MG
▁connective
▁spati
▁32
▁Mn
.1
▁uterine
▁stimulate
▁identi
overed
▁fetus
▁prostatic
wk
▁suspension
▁microns
▁mononuclear
sensitive
hydrox
▁LC
▁micrograms
▁NGF
▁suppor
▁micron
▁methionine
april
▁comprehensive
▁pregnancy
▁maternal
chloro
▁insuff
▁colony
ayers
▁capillary
▁subcutaneous
▁tracheal
▁excluded
▁postnatal
ulae
acet
▁5,
▁medulla
thym
lective
▁subf
▁mug
▁synaptic
▁surviv
▁calves
▁untreated
▁complexes
▁arachidonic
odal
teral
ensity
▁reduc
roximately
▁incubation
▁artery
▁lact
▁GSH
▁(+/-
▁cG
▁COS
▁NADH
tructural
regn
iosis
cAMP
▁serum
▁arthritis
terone
+,
semin
450
▁diminished
▁rheum
▁HLA
3-
▁pharmacological
▁thymidine
▁targeted
▁Compared
▁naloxone
vated
▁decreased
▁segmental
7,
ogeneic
▁intramuscular
▁medication
▁athle
▁catecholamine
▁prednis
asic
▁correlated
▁adherence
▁Plasma
▁statistically
▁Previous
idin
turally
▁CCK
▁mRNA
▁intermittent
▁monomer
▁glycoproteins
▁metabol
▁probe
▁1.4
▁suggestive
▁unrelated
▁quantitatively
iatric
▁slices
▁calf
55
▁chick
▁Treatment
▁lymphoma
▁adverse
▁aspec
▁SG
▁elimination
tif
▁Addition
▁gains
▁surgeon
crip
▁lethal
▁metabolism
▁streptococci
iant
adrenoceptors
▁chamb
▁Additional
▁superficial
▁parotid
▁pancre
▁pulses
odies
patient
pyr
▁cartilage
▁rated
▁withdrawn
▁zinc
▁detec
tural
▁400
▁tach
▁IgE
▁decreas
▁aerobic
Ala
ctive
▁concurrently
sych
-8)
▁6.
-15
luent
▁Increased
▁58
▁Phe
▁mL
▁Plas
▁vein
▁measurable
▁relaxation
▁endoscop
onstric
▁VIP
BK
▁investigated
erating
▁polypeptide
▁mature
▁exposures
▁influences
mg
esthe
phosphamide
requ
▁oxidation
▁axillary
hydroxy
▁sepsis
▁180
▁nons
▁MAP
▁panc
▁mimic
▁Experiments
▁cohort
▁ipsilateral
▁buc
ipit
▁myocardial
▁hyperg
▁viability
▁blast
▁1.1
▁mandibular
GF
▁cen
▁expend
Mu
▁macropha
yroid
▁infarction
▁struc
▁embryonic
▁phenyl
▁stret
▁nucleus
▁intraoperative
ometr
▁curative
▁parame
▁syndrome
▁rats
embran
▁Streptococcus
atient
▁Thir
ovascular
▁lipid
▁mV
ximum
atinine
otherapy
iable
▁Taken
▁(19
▁chromosomal
▁25
▁responding
teroids
▁(10(
affinity
▁lec
▁wean
▁heteroz
▁(0.1
▁neurological
plic
▁bic
▁malign
tially
ressed
▁reflec
▁focusing
.3
▁sampl
▁adi
▁filtration
cture
tial
ilized
▁CsA
▁refractory
rological
▁(0.5
stimulating
▁phospholipid
▁locus
▁hemodynamic
53
▁reactions
▁crest
iotensin
▁PTH
sus
chymal
▁embryo
▁injected
▁pneumonia
sities
▁evaluating
▁deposition
▁aqueous
olated
▁Bec
▁stroma
▁GM
▁membran
▁hyperp
▁resul
▁veins
oproterenol
▁facilitated
physiologic
▁cutaneous
▁AMP
mong
▁consequent
▁exposure
▁confound
▁electrocardi
▁restric
▁irradiation
▁dendrites
enol
omonas
▁caffeine
▁recombin
VT
itals
▁stimulus
▁implant
aturation
hers
fed
▁diabetic
▁resistant
▁adhesion
ejun
▁juvenile
▁juven
▁isot
▁gangl
ressing
▁unres
▁inactiv
openia
pir
▁implantation
▁latency
▁carbohydrates
planted
▁corticos
▁hypertension
anking
▁transcription
clamp
▁deple
electro
ymme
▁utilization
▁refrac
▁survivors
positive
▁abdominal
mented
▁resected
TG
lastic
▁nurses
0)
▁immunos
uoden
▁caud
otropin
enhanced
▁acin
olol
▁questionnai
▁transfected
75
▁manifestations
ropyl
▁3.2
▁inhibits
▁temperatures
acting
▁deficiencies
▁hypothalamic
anin
otre
▁ey
▁laboratories
▁afferents
80
coh
▁indication
▁65
▁Km
icated
▁prophylactic
▁contrac
heal
minis
athe
▁hypotension
▁resonance
▁RP
mentation
▁keratin
▁irrit
▁ppm
ietic
▁differentially
▁allogeneic
▁appreciably
tant
3)
ortic
osamine
2,
▁clus
endri
▁2.8
▁2.1
▁livers
minal
▁hCG
▁89
▁cytotoxicity
▁32%
lec
▁receptors
▁trophob
▁tumour
▁cations
▁inflammation
omal
arb
▁tachyc
graft
▁coex
▁epidemi
▁carbohydrate
▁elevation
essive
▁chloro
▁catheter
▁epidermal
rous
▁fertil
▁paradigm
▁endemic
▁ionophore
▁genic
▁presum
▁perc
▁atrophy
▁heal
▁6)
▁antagon
uvant
thyl
ercul
▁intest
▁stimulated
urate
phosphate
▁calcium
▁testis
thymidine
labeled
▁endothelin
▁subtypes
▁behavioral
trop
▁forsk
11
opic
orec
▁doctors
▁CFU
ynthe
▁meth
lep
▁autoimmune
ocomp
timulation
▁conditioned
▁occurring
entral
▁cortical
▁spont
ivocal
▁immunore
24
▁prolif
ocrine
▁transfusion
▁cure
▁(1)
▁immuno
osyl
▁interstitial
▁Inhib
▁neurop
▁hydrox
usp
▁chromatin
▁pharm
▁asymptomatic
uccessful
▁obesity
▁IgA
▁(4)
▁histopath
▁dopamine
▁coli
▁uncomplicated
thmic
atories
activated
▁stain
▁clones
-2-
▁0.04
▁HL
▁vesicle
mTc
/1
▁preven
otides
prising
▁reflex
motic
3,
▁haemorrhage
▁progressively
▁practic
▁rhe
entary
ergic
▁22
▁stenosis
atical
▁ratios
.3%
▁ADH
▁multic
opathy
.4
▁cesarean
26
▁microtub
omerular
▁recipients
lesion
osterone
▁plasm
acerb
▁substances
▁turnover
▁hypot
▁suicide
▁nonspecific
duc
▁diluted
▁methyl
▁precursor
▁mellitus
ameter
▁pyl
ecre
▁mutation
▁intervention
MIC
▁interferon
▁corne
▁anesthesia
activation
rief
▁abnormalities
ipitation
▁sten
ogenes
▁biochemical
alsy
%),
▁4,
▁intracellular
▁0.
▁20
▁occupational
60
functional
acil
▁traumatic
aminase
geal
mia
kade
ffeine
nutrition
▁afferent
▁98
▁RT
▁stimulatory
cholesterol
▁TG
adder
▁kidney
▁198
▁oligonucle
▁ineffective
▁depressed
▁respondents
selective
▁bleeding
▁chlor
▁(100
▁hybridization
▁abuse
▁hydroly
pecific
▁surgically
▁antibiotic
aemia
▁colonies
▁corpus
▁achie
ellar
opathic
chlor
cepti
▁impairment
▁edema
mediately
assi
▁hydroxylase
aints
-1-
▁muta
obl
unts
ochemistry
titution
▁hap
▁Chemical
/3
tual
ateral
▁discus
ylated
uscular
▁+/-
▁presenting
▁ethyl
▁surveillance
ogenesis
echan
▁glycos
▁sexes
▁isoform
radi
-3,
orin
▁artic
▁enrol
ritis
▁guinea
▁ips
▁Significant
▁infants
▁canine
responsive
tase
▁spectroscopy
▁prostate
opoly
tenance
acement
bearing
69
▁eating
▁precur
▁supplemented
hion
▁myc
▁undertaken
▁pall
▁oxide
▁systolic
ancre
tro
achid
-16
▁gamma
▁antibodies
2+.
▁congenital
▁thym
▁deletion
▁15%
▁regulatory
▁assessing
atell
▁characteris
▁histological
▁sour
trol
adenosine
▁alcoh
▁cytochrome
▁herpes
astolic
▁impair
▁permeability
ensitivity
▁corneal
▁3.0
▁headache
▁quantitative
▁smoking
▁inhibitors
loon
-5
▁activate
▁ischemic
▁deficient
▁esters
dle
▁underg
4%)
igible
▁embryos
▁paradig
▁vomiting
▁glial
.7%
▁reviewed
▁postsynaptic
physiological
▁diets
▁babies
▁differentiation
▁chromosomes
terminal
▁ANP
amily
▁clon
▁3.5
▁determination
eration
ranial
▁availability
▁ATPase
5,000
▁PG
ediatric
▁insertions
▁HC
ylate
▁spike
▁hind
▁thereafter
▁TB
▁subunit
▁stere
siology
▁abor
ophylline
▁poorly
▁5'
100
▁approx
▁synapses
ergency
adrenaline
▁TK
inhib
▁0.0
▁femoral
otin
▁autologous
lym
▁15
▁acyl
OA
▁125
▁benign
▁promoting
hyd
▁organs
ocytosis
▁socio
▁Leu
okine
▁thymocytes
atibility
infected
▁-0.
▁contractile
▁angi
▁antibody
▁muscles
▁doses
▁pacing
olateral
▁clonidine
▁enhancement
arate
weighted
99
▁widespread
tiv
▁socioeconomic
▁sph
▁oxid
▁dissociation
▁cere
▁nonc
▁structural
▁Hep
onary
▁sulfate
iper
anine
oate
▁recombination
eak
ithi
▁hydrolysis
▁ET
▁Phen
▁ascertain
▁inadequ
▁aorta
sia
▁acids
affec
▁5
induced
obacter
▁protease
▁inhal
ialysis
▁16
opath
gesterone
odgkin
▁uncom
ploy
ubiqu
▁descending
▁nucleotide
+-
tious
ographically
▁ammon
▁overex
illation
▁vaccination
▁therapy
respon
▁prevented
▁Elec
opoietic
tile
▁centers
venous
31
▁orally
mobil
▁optimum
Gl
▁Surgical
▁intake
▁establ
MN
ulin
tein
▁elevated
▁SCH
eric
▁neutrophils
inally
▁discrimination
phragm
▁potency
▁killer
▁predominantly
otor
▁efficacy
▁immunity
ogra
▁GABA
razosin
icardial
rever
▁pmol
▁antiser
▁rele
▁chemo
▁molecular
▁hepatocytes
▁utero
▁exert
▁esophag
tice
uary
ffer
▁sarcoma
▁agon
othelial
▁prevalent
▁consistently
ifedipine
▁spon
▁1988
▁molar
▁isch
osts
▁phosphatase
terase
Ts
▁kidneys
▁250
▁algor
erin
valence
aventricular
aryn
▁mutants
▁epiderm
▁tris
▁demands
▁pneumon
▁pathology
▁tracer
osity
▁GVHD
relations
▁analogue
▁tryp
14
▁proximal
▁gly
▁equilibr
▁13
opes
agic
mega
amine
omized
▁TPA
▁multicenter
ching
accharides
▁respon
Ds
▁24
▁meals
▁anastomosis
imens
▁residual
▁declined
▁filament
▁hamsters
▁reveal
▁amo
▁gradi
▁lateral
▁adrenergic
tensive
▁localized
▁disorder
▁rhythm
▁donors
▁drain
▁metabolic
herent
▁sclerosis
ivariate
▁ovary
tub
▁estimating
▁indicators
▁analges
▁diet
▁multim
oyl
▁1,
ithm
-4
▁wk
atation
▁unc
risk
▁trache
clonal
▁inward
ariate
▁10(
▁Increas
▁.00
▁sediment
▁inhib
esic
▁retrograde
▁79%
▁40%
alp
13
LH
▁5.
▁AI
▁chec
▁sulf
Cu
▁immunodef
▁disulf
epam
dine
▁nmol
▁ganglion
35
▁1.
▁electr
oside
ichia
▁radiolab
▁lesion
▁therapies
▁clinic
ysm
otropic
▁hospitalized
tability
8-
▁toxin
▁spontaneously
▁Pretreatment
▁persisted
-6-
ilization
▁Lys
▁intrac
▁incorporated
LV
▁EEG
▁accessory
▁cDNA
ymp
▁decades
dehyde
▁wee
▁oxidized
▁scans
ullary
▁defective
▁saliv
5-
▁plac
tectable
▁1:
enzyme
▁soluble
tional
▁36
2318
-1.
▁HR
▁techniqu
▁eliminated
▁prel
▁0.001),
▁tubule
▁infar
▁feasible
ygous
taken
▁hydrophobic
▁traum
▁favourable
▁trypsin
▁5.0
▁analysed
▁hypothalamus
▁barrier
85
▁ethanol
▁80
▁PD
▁Acute
2+]
razole
▁phagocytic
▁cryst
▁injuries
ifug
▁peptic
▁anatomy
▁graft
lymph
atible
▁constr
▁nerve
▁nerves
tical
osine
▁lipoproteins
▁produc
▁diastolic
▁dissec
unctional
yro
▁luminal
▁solely
▁NaCl
▁AIDS
▁olfactory
▁clinically
▁utilized
amycin
▁contamin
▁lumen
ffinity
sive
▁compounds
▁retina
galact
HB
▁purified
▁depres
▁Tum
7)
▁45
tituted
▁150
▁epitope
▁kidne
▁adrenal
▁vaccin
iciency
oblasts
vival
ocarcin
▁2.6
▁PRL
▁envelope
ilateral
▁strep
▁melan
illus
▁possi
sor
▁cocaine
oprol
▁purification
ologists
ococcal
mide
▁2.0
icide
▁screened
▁IFN
trical
tetr
▁suspected
gative
ondr
▁calcification
▁cirrhosis
▁microb
▁ongoing
▁migrated
▁proportions
▁(30
onyl
pendent
▁8.
▁CRP
unting
▁accumulated
▁vena
0.
▁(1
amino
▁asthma
till
▁glucocortic
▁compliance
▁fluc
BM
▁displacement
▁membranes
osomes
▁preferentially
ipr
▁allergic
ectin
▁aortic
▁prognostic
.6
meth
▁stimuli
▁PGF
▁RNA
rele
▁behavi
▁splen
▁femur
▁histamine
rocy
dition
topril
-11
▁comparisons
▁69
▁chest
ardia
▁glut
saccharide
cysteine
0.0
▁deficits
orrh
renal
▁subtype
▁ventric
▁plasminogen
▁pathogenesis
-67
▁HIV
▁(0.0
▁hemorrhage
etan
▁tracers
▁anticoag
▁cavity
rease
filtration
▁incub
ensities
▁5.5
▁vesic
▁neutrophil
▁pharmac
effec
▁scintigraphy
carb
uvate
▁30-
▁adjusted
▁transplantation
tron
▁lipoprotein
▁Intra
▁nutrition
+/
▁hygi
9)
▁enzymes
gluc
bility
▁17
lated
ogenicity
▁practitioners
67
▁fibronectin
▁asymme
▁70
▁cys
▁lumb
▁potassium
▁Twenty
pharose
oplasm
ogenic
▁6
▁ward
▁extrac
▁prostaglandin
eptides
▁numb
▁Serum
hyp
▁hemoglobin
omes
▁leuc
▁defec
▁surgical
▁arti
▁recipient
▁infec
affected
▁shunt
▁0.2
▁depolarization
▁pate
▁biphasic
▁10-
▁tolerance
▁LHRH
duction
▁glutamine
▁myelin
isol
▁adolescents
▁cerebellum
▁systemic
oxane
▁digestion
▁stained
▁heparin
birth
▁fetuses
thle
▁mutations
▁phosphatidyl
▁focal
▁umbilical
estern
▁PH
▁cis
reased
trum
▁alve
▁induc
▁reversed
▁cyan
fused
▁compartments
glutin
associated
onor
▁RV
▁progn
▁pregnancies
▁UV
▁fatty
oxif
amethasone
acrylamide
▁carbox
▁mechanisms
nitro
▁assessments
▁inters
▁caution
▁overl
resting
anic
▁competi
▁examinations
79
▁cartil
oactive
▁stom
▁ADP
otting
▁difficul
▁immobil
▁reser
-10
▁reperfusion
orax
▁neo
▁burden
tophan
rogenic
▁rabbits
▁spectro
▁peptide
alues
▁termination
▁morphologic
▁oxidative
▁efflux
median
▁catab
▁200
▁subjec
▁thromboemb
▁healing
▁transcrip
▁inotropic
▁differentiated
▁follicles
uation
diabe
▁Overall
ximal
▁complication
▁genetic
▁Sout
▁analyses
icient
▁tubercul
▁viral
▁cardiac
▁5'-
-13
▁transferrin
▁raises
▁47
▁BALB
▁symptomatic
▁micros
▁inducing
▁influenza
▁mineral
romy
-8
ostatin
▁horm
▁ELISA
fron
amn
▁respec
▁conduction
ocon
immuno
tinu
idation
▁increasingly
▁TRH
