relations
gnost
▁Transg
▁Phen
thw
imulation
mog
gely
ivary
fely
odial
▁dysm
cate
otactic
flect
▁pulmon
axity
▁acqui
roint
osely
▁Biased
aluat
▁HGUCA
▁measur
▁lobectomy
emory
ructive
vice
▁rur
▁surveill
▁Steady
▁LDL
▁mellitus
ffici
▁ganglion
longed
pital
▁restenosis
ctioning
▁alm
inciples
▁grading
▁pathob
▁PF
▁pedigree
itial
allb
athis
▁recept
viors
erkship
▁motivations
ilure
onograp
▁strom
▁preferably
▁Revis
ibut
▁recessive
▁undo
ansact
atheterisation
ediat
▁dysfunction
▁morbid
rapar
▁questionnaires
▁elucidate
ostm
▁alo
fundibular
ront
VHD
▁Analyzing
▁TKA
estrians
omiting
served
onv
amoxif
venile
aminated
▁margins
ipi
ularly
employment
razole
▁widening
lept
leom
Wo
otp
▁fellowships
idesp
▁multifactorial
▁myoepit
▁displacement
nigh
scop
▁pne
▁coincidence
▁12
Nor
usation
ostst
edt
Kup
ogra
tervent
mispherect
xid
▁multim
appropriate
-0
rans
urr
▁Associations
sise
▁CMV
▁occlus
▁mania
▁Chan
▁endometrial
onl
entat
antit
bCC
▁Cox
injured
▁upt
sib
allest
ropia
osure
wareness
▁endarte
anif
strogen
responder
▁inflixim
copl
retrograde
othermic
tant
▁anatomic
irc
▁Fam
rst
yramidal
▁symptomatic
inat
lated
luence
ithout
▁surgical
▁substances
▁underestimated
curac
▁Vag
▁unreported
BK
namic
0.
agit
carcinog
diot
hould
▁practic
▁contralateral
amoxifen
ultic
iolog
▁prostat
▁30
ethnicity
▁localities
neumop
▁uncover
monstrate
▁ICS
hose
ofos
▁axill
sely
▁scler
associated
ococcal
▁hemodynam
▁glargine
tection
utation
opment
▁musculos
▁Regis
▁perceptions
▁dimeglum
▁intermittent
umors
▁ves
▁subchondral
▁auditory
arrants
edb
anulas
ortions
mist
▁paraplegia
-67
▁necrosis
▁parit
Cu
▁underlin
herosclerosis
▁Chemical
▁confronted
heter
▁multicenter
▁CLB
ipient
ritish
lead
▁predictab
dical
lusion
enojejun
▁2001
▁ischial
▁hypal
astroph
hern
omat
estru
SAH
▁demonstrates
▁Focusing
Qo
▁PRISM
▁regar
atenin
oradi
▁hypoxia
▁jugulotympanic
▁multic
▁pigmented
▁thera
▁Accordingly
xh
▁compart
riated
▁unremarkable
▁remis
gions
▁Nm
mop
▁uneventful
▁Alter
patic
LU
idosis
opulation
odynam
aedic
aemic
erican
acterized
spon
umulation
▁adenocar
▁AGA
othesis
▁targ
facture
hyd
endot
erties
PEC
usu
▁pathogenesis
▁EO
▁RS
umenting
otech
▁202
▁dysglycaemia
ociation
▁interverteb
▁cesarean
usic
▁arter
▁physiology
sCRP
ekend
▁mucoceles
lecting
abial
copists
BV
ministration
ahar
▁potency
isodes
ocolon
▁QTc
▁theor
iluted
adobenate
onment
▁sacrificing
▁formative
aminations
▁gastroph
entary
▁thu
▁ort
▁coeli
NB
CBF
ACS
▁4
ostic
▁autoxidation
isfact
▁tropho
75
quine
▁channeled
olicy
vantages
▁schizoph
▁examiners
Fa
iati
▁UF
ipant
ctom
▁catheter
spection
▁85
ferential
gile
igibility
ologic
liminated
▁Prediction
rauma
KA
▁interc
aliz
asive
▁shorten
▁specimens
idelin
trolled
pies
cessful
▁merit
romboly
uln
oplasm
cot
ternation
veo
inati
esare
yce
▁expre
dant
▁repa
3,
esig
▁assoc
▁IgG
▁trilobar
▁torsion
Ce
▁despit
▁Surg
▁substan
asic
▁beneficiar
bulized
lycaemic
pograp
atheteris
▁forefoot
pithe
▁undistur
urred
ammatory
▁metastatic
▁VCU
ipation
▁clinc
▁occlusal
orthern
imally
aginal
tak
▁evolving
nically
mune
IK
naires
▁circumferential
anin
ifol
vated
▁assays
ccl
edull
cessed
▁Leaving
▁melanomas
▁corrective
ontrip
▁conclud
▁identific
70
enic
Au
▁exo
lf
onsider
▁sepsis
rhe
atitis
▁cen
henop
ctition
cce
▁edarav
▁correlates
▁surrog
▁etan
dimer
▁reliably
xion
energ
▁prognos
arcinoma
▁desmoid
essing
gnancy
onably
utions
erular
assific
hicular
leable
TG
reet
orefoot
inable
MH
000697
▁Biochem
atella
▁glyc
egration
▁integ
▁NTHi
▁rotational
antation
muscular
asu
conserving
ilitate
onents
leviate
▁blac
lec
ppre
▁caregivers
▁misleading
gnos
rhotic
verte
▁dietary
mage
nicity
▁appreciably
▁Finding
▁redund
▁anticipatory
▁menop
tyl
▁topographic
opsy
irre
▁problematic
▁failings
orce
▁frequen
isers
▁ascertained
▁physiological
▁homogene
▁HI
▁cognitions
▁psychi
▁SCHF
nation
icac
▁uninjured
orical
ptu
oleic
Fent
arkers
itati
ceptab
ecl
liteo
▁clinch
▁19-9
▁inserts
atisfact
▁discopathy
eho
trasound
▁Compared
morph
eptin
irab
omia
▁Chr
tro
cepted
lowup
vering
▁PVL
▁infarction
▁byp
lems
henotype
▁75
▁GCS
▁Elective
▁substitution
ingl
bral
▁reconstr
▁embraced
hig
olumet
rapartum
▁asthm
otomy
▁cholecyst
etter
▁enab
▁Taiwanese
tion
ciplin
ompar
linquent
▁sulfonylurea
▁RAQ
▁phagocy
idism
leab
uting
oquinol
▁pituitary
▁progra
▁needl
itudinal
moting
sues
▁exclud
jure
ophrenia
0%
▁prescribing
▁undes
▁umbilical
▁alar
▁Transvaginal
▁silicone
▁alread
nose
ducation
ercis
erits
licly
cetab
erlin
Ov
▁ventricular
nai
STD
▁delusional
cially
▁fostering
▁alph
▁indications
▁alloimmun
▁decad
lecy
losis
atm
ormally
rectional
▁inp
▁hs
anual
▁desm
▁amines
▁biochemistry
stration
▁widesp
moted
erat
ighly
gical
▁VDDI
▁emiss
sati
▁ima
thesis
▁laparotomy
▁subt
13544
onn
effectiveness
▁Poststaped
DG
▁gynec
lymorphism
ectant
andatory
emoral
iples
eigh
diov
▁HAM
atell
otropic
iatrogenic
▁referen
odyn
▁femur
▁consangu
nj
▁micronutrient
ormance
▁canc
urolog
unil
▁overly
orly
▁maternal
▁infants
▁lithi
reshol
ubic
▁porcine
rates
▁inhibitory
▁NTH
iferation
▁alerts
▁linoleic
▁pathophys
sion
▁HCC
▁enthesitis
▁infus
▁hasten
lampsia
▁cigarettes
54.2%
eared
erance
igre
onf
▁imaging
▁parame
otor
ultim
oxif
▁traumat
▁tracers
ilab
ansre
▁0
ithin
▁dosing
ineural
either
ibition
ultip
enot
verl
essionals
2%).
▁transurethral
easure
arities
rovision
ocain
hared
perative
▁inhibition
▁cardiov
▁disappointing
trop
levated
▁anem
baceous
▁parasacral
oore
▁Goog
▁opioid
▁financially
ormation
▁prostatic
emo
acral
▁heterogene
▁mucoce
▁acetabular
xpl
▁accurac
▁interpretable
ortisol
▁nonc
emoroc
echanis
▁pate
onsib
▁disquiet
▁medicines
▁7
extual
▁righ
astru
estigating
FV
▁biops
▁differentiate
▁intrarenal
▁auditing
▁vagal
▁prospectively
ribing
▁NNSP
ipants
cification
▁identifies
▁epine
CGP
▁PCPs
ailures
TcD
▁fracture
ailure
hag
alig
misartan
aventricular
ggesting
▁tidal
▁utilisation
argeted
xation
resses
hemic
▁investigating
stitutes
etam
▁rati
▁anastomotic
ration
icacy
▁spinal
xia
ugulot
rau
quiet
enmark
xist
cific
orotic
▁hemodynamic
69
horten
▁unresectable
SNs
dult
HCS
rain
▁intrapartum
arterectomy
▁peripheral
▁peop
ocat
tens
▁nomen
anss
▁placent
mpt
▁Thrombolysis
▁opport
▁Musl
ammates
fess
stectomy
▁craving
▁usu
▁radiograp
anexamic
▁benz
▁urolog
verely
asacral
▁stimulate
ivocal
▁complementary
ffected
▁contributes
yi
iversities
Dcasts
lcy
▁noncompar
▁Vac
ituitary
ivations
▁cyst
advantaged
▁evol
imiting
▁effectiven
▁NHANES
▁anatomical
eal
pendent
ingd
▁vehicular
lectron
thletes
lym
erience
▁TB
▁fas
entional
▁endpoints
▁IBS
▁organisms
aS
▁myomectomy
maging
iewing
idering
quit
isinusoidal
icab
ximal
DWI
ptans
odic
opu
▁strate
ergic
ividuals
entanyl
ylori
▁initiating
holest
erut
phe
65
usi
▁interlab
epiphysial
Aus
▁inten
▁ceph
utative
▁compartment
isphosphon
onset
▁phy
▁repres
▁allergic
▁tiss
orefractive
Dut
rams
teric
▁Neuromed
treatment
agnosed
▁xerostomia
▁ketamine
▁silic
ileorectal
ertis
hylax
prep
▁susceptibility
▁marri
ystolic
▁tranexamic
etropic
bC
▁conclusive
oints
Trials
omedull
▁Systolic
BW
espre
getable
▁umb
aic
xicity
occus
odules
etorsion
ristian
▁paravent
ysf
ominal
▁confounded
▁finan
KI
▁milieu
▁semie
▁femal
inantly
sody
emia
▁inadequate
▁locus
IgM
SBFT
▁identif
▁gradients
▁NN
rents
256049
herw
▁mam
▁immunisation
GEs
onad
27
▁Urbanicity
▁DF
▁fatty
▁chloro
▁leu
▁40%
losed
▁tog
▁synerg
hocardiographic
spectively
▁exacerbations
sons
ampl
agangli
toc
epit
upun
▁indicative
▁regulate
▁aripip
hap
▁practiced
arable
mentar
▁whi
Pot
crimination
crease
reatments
▁manuscripts
altrexone
ctly
hered
acteraem
▁apopt
▁excretion
▁mandated
▁reag
oung
▁withst
egra
ergocal
perate
▁ree
responding
umbil
▁oste
▁malalignment
▁distin
Vac
▁(5
itant
medullary
▁concurrent
herp
ialty
erestim
▁concor
lep
odest
igures
▁BMI
▁undetected
fficiently
nable
thorax
▁audi
vascular
▁bir
urem
▁myopic
cele
▁overwe
046
▁8.2%
gments
cif
astom
fusion
▁xer
▁adenoma
nk
HPS
icathe
alT
▁QoL
ersonal
ootp
ethn
gative
etamine
▁unres
ilures
▁pediatrics
22
lain
▁preparations
agocytic
▁IMR
ferr
onu
ppear
▁rigidity
rebral
▁2009
peri
illust
▁prednisone
enefici
nge
ausation
eased
▁synthe
▁cystic
postoperative
almic
ecret
ilat
oroqu
onable
▁geomet
enectomy
▁thrombolysis
▁Wn
▁intraven
embers
onatal
00069
aparot
▁probab
esocolon
fflu
ropl
threatening
orrh
rially
▁yi
acture
kness
▁wea
gine
espread
niz
▁insufficient
▁desirab
▁framew
▁parap
hospit
hera
henopia
Vit
arous
▁pati
isad
arction
partmental
kathis
▁uni
▁groin
▁unde
astas
oniz
01046032.
tinued
urposes
▁migh
tomy
▁advisable
arcin
ercept
▁anomal
utri
oridation
iatric
imed
ccessful
hension
▁enhanc
essels
hysial
▁corresp
easibility
▁resour
farct
etected
▁endom
alized
arthr
ustm
▁oligoarthr
inguish
▁hernia
jejun
putation
tter
▁femorocr
ewish
alleng
▁estimating
▁chemokines
▁causative
▁AIs
stor
omedic
▁disab
▁Randomized
ricted
leas
▁ROP
▁unif
enet
▁occurrence
4.
Ped
▁Greater
vered
GUC
▁Fentanyl
ilit
sial
terr
drawn
▁subform
▁hypertens
iphys
Bod
▁atten
receptive
evert
ranul
▁polym
hond
▁disruption
creased
vival
▁toxicity
iatic
continu
inatal
▁COS
soci
etastatic
▁detriment
estation
▁secular
▁proliferation
omec
ilot
illness
▁Ong
▁bruit
ecol
▁16:
▁discord
oac
▁unse
rter
▁prelimin
▁fellowship
referent
inab
0-5
▁undergone
▁procarcinogens
▁perisinusoidal
egistration
ethnic
stak
▁relap
▁membrane
▁antibiotic
ructure
usative
▁followup
▁alre
ravenous
ulized
alal
▁prolonged
RK
▁deserv
idates
▁graf
▁debridement
▁DWI
atial
orean
idl
▁unrelated
ssp
umans
▁fati
▁confron
rinemia
RAF
▁identifiers
rospective
etect
rro
dic
▁RHR
othyroidism
olum
erability
▁positioning
iplin
▁anemia
▁80-
mody
phism
▁sciatic
▁thres
rogate
▁carbo
▁appendectomies
ultrasound
▁disru
isin
▁OSCE
▁pathobiology
▁reductions
seal
athe
▁APTT
▁repositioning
▁bronchoscopy
glumine
▁2.5
caten
▁unions
cardiographic
▁sequentially
▁anticoagulate
dary
▁predictors
rophied
complic
astat
▁uptake
wered
▁detrim
▁thresholds
▁hemorrh
▁outcom
tual
alus
▁urop
CUG
icative
prap
▁Phenomen
ropriate
usly
isper
▁GI
andar
▁herp
▁cardioemb
▁gadoben
▁hyperf
menting
▁femoral
▁lifel
erfic
▁oncologically
zation
ocyt
ipment
▁Adhe
eas
eritone
diomy
chers
urac
orrhag
▁Failure
thnic
essari
▁HNP
oprotein
ansm
▁simultaneous
▁cardiomy
▁validity
roved
▁Cytoplasm
▁dislocation
ancement
Giv
▁Operative
▁understan
▁standardizing
mmative
orag
leeve
ranulas
otec
lored
parathy
pra
▁characterize
▁DG
erms
▁striated
eritoneum
ineph
ardial
Bec
▁decoded
▁unp
▁opi
ctical
ecre
▁provis
unan
▁IHPS
ercut
▁abus
▁alleviate
▁repre
▁regimens
▁Nebul
ppressive
cited
acetylcysteine
▁divertic
ithd
▁pathologists
olumb
▁Laparo
ximum
▁STIR
0-1
consuming
▁uncontrolled
imates
▁extre
ulti
ergast
▁acyclovir
endic
▁hepat
▁bladder
▁Trop
▁therapeutic
▁teleph
▁CHCS
anguineous
copro
opatholog
▁onse
▁proportional
bally
sle
vironment
▁intake
giene
nati
▁manifestation
▁repai
yth
xat
essent
Ig
▁misperception
▁olig
erpar
ematic
onolog
ulfill
esu
▁consumpt
▁patell
▁FD
▁2.
reatening
▁interpersonal
▁synovial
upl
▁Ear
▁percept
stability
▁PTC
▁chori
▁LF
▁nutr
dos
▁apoptotic
ipated
rali
tect
▁restorative
▁19%
▁INF
▁rC
▁subspec
ympanic
licit
ertions
ualized
quired
▁Discrepant
omosis
▁movi
▁integrating
lyps
ineral
idered
▁verte
clampsia
▁quantitative
▁resus
rur
▁cleanser
▁sedentary
▁ascertainment
ignal
licle
▁AAS
▁VO
▁avail
▁responsiveness
▁Prospective
▁Neurop
terp
terioration
▁episod
suc
▁Obese
▁reac
▁phagocytic
cend
▁tenos
antab
roce
0-
▁enucle
▁defici
▁upd
▁renal
twe
ssive
oxia
cordingly
vily
arati
erce
▁feasibility
ropharyn
icenter
ficiency
▁improv
dentifying
dicat
▁prog
mU
munic
▁rehab
▁Concomitant
inants
enthol
anis
lephone
▁ventilation
istolog
▁premature
easible
lip
▁UTI
ogic
▁bronchiect
liciting
endom
▁nodules
otechnologists
onat
▁adherence
arental
monary
oadjuvant
▁mechanis
▁dexam
▁uncont
veolar
bations
clospor
▁10-
uctions
roader
ucation
▁polymorph
utin
versus
nolog
▁preclud
Sel
adhe
ygen
▁melanoma
▁Postst
SSA
▁relat
onylure
ersal
▁glomerular
Va
lammation
▁Comedication
raine
▁laparoscopic
terv
VAD
cyste
eases
▁DQ
▁IMN
phrolith
ficulty
▁frail
inic
ectan
▁checklists
arthria
▁NPC
▁reache
urre
▁Significant
destru
rary
▁schiz
antable
umab
cT
reating
▁nonul
▁STI
ostf
closporine
umpt
▁calcification
▁coh
ractic
jug
▁prosp
ocu
pia
▁gluten
▁LCN
▁underutilized
ecolog
▁LCNB
ivari
commend
onab
iltration
▁menthol
fric
ustific
8%
yram
iend
▁valve
▁operative
relate
retreat
ssing
▁serum
▁modulates
entify
▁Elderly
▁Pathologists
enat
rural
obally
ortunities
▁pylorus
vents
▁inducer
▁tonsil
menopausal
▁eros
▁eig
radition
tum
iology
▁glom
immunological
hors
reported
▁3
itse
terg
risk
▁Clinicians
olesc
wth
urated
▁PET
▁Considering
otens
▁aor
ivar
▁lithotomy
gim
▁affluent
clus
rex
▁prol
▁depr
▁behavioural
▁asser
▁anatom
iates
itn
rint
▁15%
sop
▁endemic
▁oss
ean
agnosis
cystectomy
reus
kage
phos
dominantly
▁bipolar
▁ETS
ecific
oglyc
hips
isu
▁exent
ventful
▁adequately
raren
urses
▁worsened
aros
ayed
vantaged
oprote
bolic
ophag
ortan
phasia
roch
odal
▁autosomal
imely
▁noncomparative
fforts
▁endov
▁Biochemical
imeg
SCP
OQ
▁prophy
noise
treat
vertic
ogi
▁GBS
teri
▁histologic
ipolar
▁Asp
opm
resting
▁concus
dect
▁segmental
orcine
▁concur
hod
▁experim
acrophage
nife
▁platelet
▁tenosynovitis
▁devising
▁epiD
imeglum
sence
▁duod
etoc
▁interm
▁makers
ilical
▁prostatectomy
▁poorest
iminary
▁prevalences
eroma
atings
▁sighted
lycop
aused
▁gangren
diographic
▁concordance
lix
detected
▁Discre
▁2003
▁spati
hologies
▁trilob
hary
▁rigorous
oben
urat
uropathogen
hool
5604
046032.
nific
eec
▁overex
radu
▁mortality
SCE
tration
uptake
bidities
▁therapeut
ohy
ceous
ospor
tonsil
▁Blockade
aparos
sho
ersh
▁interg
apsulitis
alli
rophilic
▁pelv
onc
iphy
pip
asten
▁TAA
ferab
VH
▁hypermetropic
▁procar
ralian
ansg
PAP
onm
ptib
erob
dul
▁Revisions
▁OC
rable
▁calyce
cei
▁pover
▁derange
omotropic
Sb
oros
▁NSC
▁Contrary
▁HN
armacy
uant
▁detorsion
▁overlaps
diol
▁lithot
xif
intestinal
▁Cytotechn
▁investigations
▁postnatal
▁disparities
▁shopp
enf
▁Surgery
omain
▁Continued
inue
▁iliac
ejunostomy
▁oligo
Mes
plantation
ovas
▁predic
▁glycop
▁somatost
▁pedestri
essential
arents
lud
osive
▁tranex
onding
rapies
▁anastom
▁migraineurs
hereas
▁morphologic
▁Eliciting
unl
ribution
rimin
oner
agnetic
▁campa
▁implantation
▁pathol
▁sph
tectable
umatoid
isibility
▁cT
▁monoun
onomic
▁optimiz
▁depressive
abolic
▁autoC
hment
alities
chial
▁subjected
▁hyperperfusion
psia
ipar
▁discomfort
▁illustrate
▁norfentanyl
ertens
▁capsulitis
perat
▁iatrogenic
▁bene
iltr
▁diagnose
aturated
4)
▁microvascular
akage
▁decreasing
▁preservation
roduces
▁shortened
▁therape
thma
▁sexes
lixim
ssification
▁nomencl
riate
▁scho
▁uninj
ceptibility
erom
elon
.2
▁neon
aths
demographic
pH
umine
ignant
▁sS
▁cathe
▁adhering
▁Cyclop
▁subspecialty
▁MGP
eces
alat
trib
coprotein
▁diffic
▁intrins
ilobar
LN
▁metabolism
▁HMO
▁withs
erp
▁NmU
astasis
acil
erally
othel
ervision
▁hepar
hif
scores
Blade
▁simp
fidence
hage
▁thir
hrom
▁subf
inom
▁unprotected
omos
dun
entag
▁disr
onul
ligo
physiolog
bort
▁2,
76
▁recurrence
ambling
atab
opro
Eu
gmatic
▁parental
reatine
couraging
ecess
idation
▁plurigravidae
▁atrophy
▁PVT
ionar
Ran
quently
fron
▁Kasai
▁versa
reater
▁cortisol
istur
▁unil
▁assessing
▁transure
olescent
abies
iculate
ilore
upd
equately
etf
hyro
▁compli
▁tympanic
omectomy
utr
▁menopausal
ocalcifer
▁atrop
▁multiethnic
yel
osomal
esult
aln
▁Emotional
asked
▁correlations
rophyl
assified
eclampsia
▁surgically
▁neoplasm
DQ
ADs
siv
izoph
▁hypertroph
▁dysmorphic
ptop
▁efficacy
cim
▁unselect
▁Stead
umat
▁FDG
entifying
Kas
▁eit
onor
▁laparo
▁algorith
ulatory
ropriately
▁esophagitis
ecessari
▁adenomas
umo
▁cochlear
▁saturated
kup
amely
ppress
ailored
opathy
rapeut
ansing
derut
tebral
dicative
▁micromet
▁bing
▁careg
rovement
tical
kade
ewer
▁8
asone
▁evaluations
sions
▁mell
▁EMS
▁carcinogens
iming
▁concomit
▁1.6%
parity
etform
rophil
▁Pedi
▁pulmonary
ximab
28
orphic
lucidate
▁prophyl
▁infrast
ontaneous
pens
usional
reatened
adenectomy
▁lesion
▁zin
nce
bace
rolle
atholog
▁thrombectomy
creas
▁ambient
▁Continence
▁hsCRP
roversial
eris
bry
▁80
lymph
▁perone
macy
upation
ansp
▁acy
▁pylori
pff
▁Poststap
rican
dicates
alanc
orations
▁Parity
▁EPSCC
atest
▁normokal
▁IMRT
mical
▁leis
ected
MMA
▁calyceal
taken
▁disad
▁reproduc
▁enhancing
▁femorocrural
heigh
▁hesit
ghe
▁hypert
▁oro
▁contaminated
lum
gesia
oneum
15
nment
hesions
itively
▁Hip
▁undist
opausal
anom
unostomy
▁genotype
oske
unif
lood
isor
hlear
▁unaware
inhe
nect
versities
tact
▁indefinitely
yloidosis
▁apex
bining
▁hemisphe
pile
dert
▁muc
dition
valen
fute
onger
offsp
▁WOI
Dil
aras
agulate
▁Analy
▁nucleus
ctomy
hologists
scopy
▁pW
▁relied
▁hemorrhag
▁consens
▁satis
▁BRAF
▁incentives
lder
munode
ortun
▁tuberosity
▁eyelids
yz
roidectomy
▁Afric
▁residency
athyroidism
rapart
icin
aediatric
athy
gnan
dient
▁detachment
▁inheritance
▁irradi
▁Streptococcus
rban
essag
celeration
▁hemod
clerosis
itioners
sele
saturated
etable
▁preclude
▁alon
paris
udg
▁athle
otentially
casts
Ou
bladder
▁intramuscular
rophylactic
▁Peop
▁metastasis
▁conservatively
osts
▁inh
orely
ansrect
▁indicators
▁infliximab
▁Ske
centage
40
ediatrics
endan
▁Atropine
idectomy
▁Concomit
seudomyopia
ICEF
porari
tment
quests
aed
forcement
▁seri
▁duodenojejun
ialist
coeliac
fid
▁propens
▁thromb
▁Medicaid
stress
▁soyb
▁anatomy
lith
▁Affect
▁psychosocial
oist
ucated
erop
▁summ
▁identically
▁thre
▁1.6
acist
▁SLE
ificing
etal
▁lipoprotein
erested
advant
lectual
▁dissection
▁inpati
atent
ibul
cumulation
erect
▁Alloc
▁tors
▁Tumour
▁intraoperative
▁hormonal
infarct
▁AMPK
▁interr
▁DMOADs
edar
arked
tac
▁UL
osphon
bust
▁xerost
urig
▁footprint
ecul
diothe
▁scans
elil
rolith
ributed
▁transrect
▁PCP
▁predictor
aniz
ptor
oppl
xam
▁570-576.
▁gast
▁resol
anol
▁APB
▁Furtherm
▁undiagnosed
ospitalization
ulliparous
erior
eneral
henot
▁immunis
▁LS
asomot
▁cytology
▁adverse
▁4-
nalyz
hild
oog
anent
▁Vaginal
vage
▁contextual
▁oncolog
▁40%,
▁rotator
▁exenteration
▁abdomen
▁Doppler
ervical
hopp
ailab
▁modestly
erad
▁colore
clim
iol
opra
andardis
ithiasis
verified
cribed
▁determinants
immun
▁QALE
hools
cD
▁chond
enges
viate
ecological
▁CABG
ygi
▁Qo
▁SMI
▁TEOAE
▁scl
srael
▁patho
▁PPP
ardiz
▁hypertension
inj
erosis
ODcast
asily
kab
neumon
▁smo
lobe
ortic
orati
ORI
▁melat
▁compartments
aracter
▁puz
inist
cesses
▁2020
ournier
ulot
▁BPs
▁nonortho
oscopic
▁akathis
atabase
▁QAL
▁amyloid
mpts
gression
dden
▁Dilation
formin
▁EUS
rica
▁indiv
▁pS
▁RCTs
▁remov
▁HLA
▁jugul
erived
▁570-57
Fro
iotic
inactivation
▁periodon
europ
onsible
Ss
▁Weekend
erine
CSL
itore
▁bisphosphon
remarkable
ractures
iciate
▁pall
mpro
▁heroin
enzalkon
atient
xon
Mas
parative
raven
ducibility
lipp
32.
▁histop
ariate
ganis
▁atrial
rape
onst
▁strati
▁peptic
raced
youn
nective
eneity
unre
omyopia
▁11
▁11,
perficial
ease
UF
▁midfoot
unost
erl
▁toot
inh
▁gluc
enditures
quieting
accin
phosphon
inin
utilized
idities
ilu
ffects
puting
enosis
▁lans
oresistant
rising
▁VL
▁spontaneous
▁inferen
diform
nur
anage
▁QTcD
▁precondition
vasive
ighted
▁MND
▁longitudinal
ogist
▁UNP
50
roi
zat
usoid
▁HG
manent
lowed
omenology
rointest
iological
▁palli
▁HCMV
▁Improvements
potomy
atid
▁experien
▁Liqu
abular
▁indicat
▁instit
unus
▁improvem
SAP
concept
ormality
rapist
▁tas
▁abd
▁emph
colum
Ko
▁modul
hort
recting
luc
1.
allus
rout
ferable
▁thi
▁colonoscopy
▁soy
adder
ymatic
hinct
ationsh
KIs
hedule
▁decod
alidity
9-9
▁absol
orphism
cernable
▁evoked
03
▁NBCS
▁delinquent
stakes
bate
▁effici
odies
currently
▁venous
monly
▁tec
▁surrogate
esop
▁profil
▁techniqu
ondroepiphys
▁empir
▁ETA
ollege
terygia
oprazole
entage
▁LD
phrol
▁fluoroquin
arker
▁cuff
aiw
▁Intravenous
▁differenc
ideration
▁neurop
RH
nionitis
▁Trauma
▁mediated
ielective
▁Effective
▁selective
rophage
▁femoroc
criminative
▁uncommon
▁hypothy
▁NHAN
tific
oyment
atrics
34
▁ocul
▁emerg
604
▁ration
▁myop
gho
▁Cush
climati
luen
▁depar
▁ventil
▁Neopuff
lerations
immunization
ysre
▁annul
▁atmospheric
stab
▁exce
cordant
rosclerosis
loid
juvant
▁norther
rative
gment
plif
umferen
▁exch
▁aneurysm
ainab
ravation
▁gyn
retrog
ework
uted
taneous
oty
▁undergra
▁offici
Sah
dents
ppropri
mature
uropsy
▁ploid
esophage
endp
▁reproducibility
▁underus
urethral
▁infiltration
▁NPH
HQ
▁septum
enoma
ssor
▁overestimated
dicit
▁outpatient
orative
▁uncon
lux
▁20
▁seaf
urgically
terect
icly
esia
hysi
▁vera
renia
▁lis
▁hepatitis
▁Registration
inized
▁radiotherapy
OI
▁occl
ergy
ellitus
▁Nontriploid
sear
▁2-
▁vena
ducible
wanese
▁FV
utane
▁antire
▁somatisation
lef
atost
▁dysregulation
▁tib
▁excision
ptin
▁keratore
▁endoscopic
eru
nif
▁reproduction
tic
▁ablation
pful
creasing
▁unexpl
lus
▁aS
▁appropriaten
igid
▁PRIS
▁adjuvant
teady
▁Older
▁differentially
iploid
veral
▁mediation
Ia
▁differentiation
ompartment
▁elig
▁CIE
▁ADHD
monstrated
reciably
oim
dverse
▁preliminary
identical
▁esophag
▁metab
Fo
Vag
istal
icits
▁reflecting
taining
▁DN
ficulties
waren
▁defic
thr
▁PEE
▁propensity
8%.
▁DGE
arate
▁concurrently
givers
▁amy
eck
enous
omalies
PV
esity
legia
enab
▁causal
cified
▁bip
otential
▁tethered
▁geared
thor
▁usef
ointing
▁Mucosal
ritis
ourn
otrop
atit
▁insu
▁consolidation
ipol
recept
▁favourable
urnover
▁predom
hicle
ucational
tif
▁hyperparathy
iotherapy
conception
economic
▁testicular
▁everyd
▁enrolled
dund
▁retrans
▁akathisia
54
▁turnover
ilization
▁RAIR
▁highe
▁postm
▁variabl
osyn
▁100%
mentation
TN
▁systematically
▁shig
dren
raoperative
▁48
▁Multiple
ovial
olice
iary
▁barri
▁tris
▁pharmacok
▁restarted
iniz
▁inhibitors
aphy
▁confin
umably
omotor
▁osteop
▁HMOs
vide
▁severity
Ho
iton
leus
orms
25604
chol
▁Transrectal
lastic
asound
▁urin
ocytic
International
areg
nch
▁Kup
▁gait
▁Awareness
ints
elvis
eac
▁prox
5-
ilies
datidiform
ifestation
HB
verw
cordance
ifice
laxis
utan
onsil
hospital
▁SG
▁limb
elay
ociated
linar
▁holmium
idu
lderly
adequ
▁asserted
urological
inqu
ercutaneous
enm
explained
oyb
FPG
edul
ansv
▁cohorts
6.
alve
▁atherosclerosis
▁acut
▁subtra
▁hospit
sclerosis
reng
atoid
otland
▁inflammatory
▁micron
onograms
▁specif
tments
omark
▁microbiological
▁patellar
pun
inite
ormit
▁morb
crural
uscept
▁exac
14
versely
satur
▁Ara
goc
▁audiological
kf
amage
ualize
▁appendectomy
▁somatis
▁steroidal
venth
▁undergoing
oquine
osocial
Fut
igidity
▁pT
romed
6032.
omencl
▁Cycloplegic
EGF
▁ani
ifet
ediatricians
▁IAC
oidosis
clin
▁ALT
itus
▁PPPD
hth
▁MRI
omenolog
▁acceptably
hological
illect
▁intergen
▁chloroquine
▁milie
duction
oglycaemia
ilaparoscopic
ifel
▁lobe
▁fluoridation
iect
ternative
▁unevent
perfic
▁intramedullary
tors
enthe
gst
▁Sonography
ctan
genesis
osk
▁prud
ractition
thc
urement
hite
linical
tly
adiation
▁Cobb
vels
▁scintigraphy
▁endoscopists
onserv
oos
upling
▁thoracic
▁Phenomenology
mall
▁hemis
tis
osom
▁interventions
▁abolis
▁thor
xide
gulation
▁tethering
▁alterations
erin
ultations
▁corne
▁Foc
acclimatize
veals
▁VCUG
▁molar
▁acupoints
▁cohort
▁undoubtedly
▁migrated
onch
▁fulf
▁utero
▁differing
lact
viron
chondral
verag
wers
ravid
ctual
atty
ilting
udinal
utaneous
opted
▁pulpotomy
wu
erti
OA
omenol
▁subtly
▁Continu
amins
▁disks
APC
olenic
▁PPM
▁nonoperative
▁satur
roepip
opat
▁illic
▁Sb
acterize
ympan
cic
leore
erate
▁histolog
▁subse
arotid
olisers
esting
erated
▁semielective
▁Mucos
▁metastas
▁enuc
▁scanning
larged
WAT
▁preferable
▁hydati
icine
phr
NPCC
CEF
▁vaccines
initive
uin
▁ortho
CPAP
prepared
▁Postcontr
▁NBCSP
laque
umul
▁1.
▁ergocal
orefract
▁LASIK
kly
▁nonwh
▁cleansing
isat
▁biolog
▁Alc
igated
▁metabol
ligh
isr
▁parag
▁ine
sult
ubj
hec
effectiven
romb
blast
eric
umulative
▁anteg
vely
thritis
▁chorioam
retion
comitant
▁topical
ultaneous
ecro
▁Swed
▁carbohydrates
aparoscopy
enefit
entif
▁plo
hether
▁Tren
imple
erks
alanced
▁alp
MRI
▁Muc
▁moderately
phis
ileptic
uor
oal
illb
ewor
▁Obes
igning
▁AGEs
arliest
▁recor
biology
erif
IIIa
▁eluc
sia
▁visually
▁subgroups
▁amputation
▁Whereas
eded
yment
xer
▁preop
▁patella
▁biatr
iscre
Kin
pT
hemist
stay
▁concentrations
16
▁instability
lut
orot
seling
▁dexameth
▁Trendelenburg
▁3-
▁enucleation
▁emphasizes
dif
▁superv
nationally
▁OA
valu
▁verif
leis
▁genotyp
opraz
alkon
olm
ssion
▁subtype
ptococ
▁Optimized
nop
▁acad
ocating
00069784).
▁hyperm
raum
▁Cyclopleg
vercom
▁otorr
osynovitis
imize
mTc
scl
▁uncer
▁adolesc
giver
ressive
idement
▁mann
ipid
▁MBC
ltrasound
▁kidney
eneous
ringing
adily
▁lipop
▁Engl
▁neopl
▁Mesocolon
erature
hibin
erals
pant
ectively
evelopment
QI
aluated
ourni
▁sensory
isive
25
▁behin
▁tru
▁discom
uodenojejun
uditing
▁multidis
ightfor
gement
dominal
tational
▁FH
munis
clamps
biolog
▁Auer
mortality
actera
▁tert
▁PSA
pog
▁cyt
olmium
echanical
▁disadvantaged
▁foc
angli
nol
lopram
▁QA
APO
upff
▁dilated
itioner
erize
osinoph
rins
eralization
▁prostates
cause
bulatory
odenojejun
▁chan
▁lym
aliv
ibers
cedural
ividual
icul
▁tumor
amaica
▁characterist
▁unknow
siz
raut
▁thos
▁tric
jective
phasizes
ositivity
enied
EOA
▁psychotic
roep
▁rectal
uptures
▁SCHFs
▁programm
▁comparative
lateral
viewer
▁cardiomyopathy
athologists
igher
▁oils
celes
keletal
eum
houg
▁invasive
suppressive
ronchi
▁Cm
eriatric
rovers
chotic
sul
ifical
▁proce
▁encounte
▁pharmacy
ffing
▁minimally
4.2%
acists
▁unrep
iciencies
▁interlaboratory
lamps
imating
oading
▁tympan
arations
troke
▁tol
▁demonstrating
iliz
ncl
▁31
hep
easures
▁coronal
▁Routine
▁fatality
▁measurable
porarily
emonstr
▁technolog
Fur
2-
rotein
▁immunological
-6
anguine
reoperative
▁AE
teract
imin
MAs
▁coexist
▁juvenile
eity
▁transf
sment
▁VAS
▁drin
heno
▁promis
▁quilting
chot
aedi
omyop
ostat
▁deficiency
▁SIs
Wi
ightly
▁acce
ocytes
adoben
vative
rasound
▁eliciting
▁Cus
▁Stroke
ypers
▁tether
indu
▁glomer
hologically
▁biopsy
inu
lacement
▁inflammation
ecolic
verall
bch
ocyte
dients
eroid
enefits
veri
UNICEF
angl
▁unaw
concus
ramide
▁Increased
▁predicting
ugul
▁lithiasis
▁selectively
retable
▁atresia
▁Transrect
cusses
▁IAD
hyroid
ocul
▁confined
▁PID
ptab
sies
lis
▁respondents
▁aortic
▁precaution
▁(54.2%
▁chec
▁beli
esophag
▁imaginable
▁supplementation
▁inclus
▁RA
thalmic
▁Extern
isag
unities
▁leukocyte
fentanyl
dose
lowship
adaver
▁nonulcer
hylact
linol
▁Improving
▁traumatologists
ubtedly
herit
neled
3-
terventions
▁NSR
▁tript
gth
▁Regarding
tonsillectomy
▁mutations
itam
cotland
enting
ducer
ulfonyl
isiting
ansplantation
FG
utrition
HN
▁geriatric
▁fentanyl
49
.2%)
heritance
aneously
crimin
▁infar
▁Findings
reni
companied
▁Vitamin
▁VS
ileore
erien
parations
uide
▁pubic
cimer
emov
▁Ig
roughout
paign
guided
HSe
▁inpatient
▁ART
xity
ternatively
pici
sos
▁fetal
▁infiltrative
▁consequent
▁clipping
rinem
▁tril
creases
astrointest
swe
tig
hied
edica
athyroid
crib
▁hypersalivation
omains
▁callus
avily
utional
oural
▁stillbirth
▁hemodynamics
▁underli
▁DSM
▁assur
▁autos
atigue
▁fMRI
oreover
aluate
xtern
evi
ogenous
gis
ecting
arean
13
urc
▁nosocomial
▁biochem
ylor
▁markers
ellosis
OAE
▁chlor
ilap
orests
▁synergistic
entions
▁Larg
▁superfic
▁impai
evelop
▁multivariate
78%.
nosis
▁Tibial
asised
▁Minim
hyl
▁undescend
aalia
▁Masal
▁cognition
arct
otr
▁preo
quiv
cine
essening
▁13
Burgess
-9
▁delin
▁oncologic
▁Alternatively
rals
ilial
▁eosinophil
lil
▁improves
▁urem
ithi
▁coch
anization
erred
48
▁physiologic
acological
ploying
DH
12.
unar
81
ripts
▁traumatic
▁metabolic
▁irritation
▁abnormalities
utroph
orl
▁Patholog
▁GV
eriat
argely
roponin
lecystectomy
▁cannulae
▁aSA
erf
▁distinguishing
chond
▁polyet
hain
aist
derst
▁TDM
lite
▁trism
eare
iterature
▁suffici
shol
▁rationale
▁lithotripsy
▁questionnai
vic
ailore
▁Gerontol
sition
egal
continued
hologic
rapub
ogens
▁metformin
▁bacteraemic
▁acup
▁metabolisers
70-576.
ithe
▁TGF
athisia
wee
▁appropriately
▁PB
▁diagnoses
lucose
▁syndromes
▁Therap
phonate
herap
▁Neuromedin
▁precautionary
▁OSC
sian
oratory
estab
▁peri
▁perfor
laps
nin
ctur
▁MDD
▁cesare
acerbations
▁heigh
▁hypermet
muniz
▁External
uzzle
igib
▁cruroplasty
▁histological
advantages
▁hypertrophied
urro
reh
▁glut
▁recom
▁hyperper
bly
Eff
▁NH
osomotropic
itiv
dho
crep
ilitative
endectomy
▁reposition
ialy
▁osteopor
▁Demonstration
ynec
▁trac
▁hypalgesia
▁diminished
▁surgeons
▁sti
orioamnionitis
▁seizures
▁Severe
inative
▁stren
▁rupt
▁limbs
▁unclear
opram
stric
lective
▁hepatic
▁expenditures
ervic
▁hep
▁recurrent
gnosis
▁foun
cautionary
▁conte
▁provo
urp
Cen
diagn
dicts
sents
▁workf
ortheas
erations
▁pneumoperitone
reo
icompartment
▁adjun
ffering
isph
opor
▁hypog
ensory
ofollicular
udom
nion
▁modif
▁aides
▁sten
retation
coplast
▁pathology
ecurrence
▁detach
▁Pancreas
wk
▁hemor
▁biomechanics
▁paradigm
diog
pherect
urse
acilit
▁offe
▁inadequ
ceptib
alkonium
inence
ections
▁stimulation
arer
ondroepip
▁abnormality
▁Premature
pine
▁conclus
▁warr
▁parities
ethasone
▁AABR
▁pharmacores
▁obes
unctioning
▁Detorsion
▁myoepithelial
▁Tum
sities
▁intravenous
omial
hologist
uscitator
ulliparo
▁hos
▁Delayed
ancomy
yper
ronch
quency
veg
illus
hering
▁contributory
oepithelial
Tregs
mew
▁wil
atect
▁directional
▁neutroph
normalis
▁Minimising
ducting
rombo
terns
▁mitral
lained
▁pWAT
parisons
urther
stitution
atc
isks
▁revisiting
▁carcinog
onsillectomy
tein
renal
▁nonwhite
▁Unmarried
epiphys
asala
ipsy
▁intensive
▁79%
alem
00069784
▁fent
acted
hoc
▁uter
▁becom
etho
▁hypertensive
misart
stoscop
▁Ophthalmic
▁betwe
ammation
monstr
▁metho
ferenc
▁progestin
▁therapies
umference
▁elimin
onments
ifor
ractice
▁streptococcal
▁Keeping
▁undetectable
▁neurolog
afety
tay
gility
aplegia
SAPO
▁nomenclature
onnel
▁dra
adof
ographically
istol
9-
▁ACL
▁inversely
eading
nee
▁substit
quic
itin
ehold
unse
trative
ceo
▁Gadofos
chiz
rept
4-
curately
angement
▁etaner
orin
ideal
osition
inol
▁resuscitator
mati
▁corneal
illn
sre
DW
▁Medica
opaus
▁adjustments
tries
▁retention
ullary
▁mandib
▁ea
upoints
oagulate
urigrav
▁employing
laints
elid
roin
▁sorely
▁differentiated
ibod
ithm
▁pressures
▁Lysosomot
ariant
esses
▁cirrhotic
erator
astric
zure
irrh
▁Cue
reaten
▁sensit
▁patel
cise
▁ambulatory
▁elevated
anied
▁binge
ondral
▁Histologic
yra
arit
▁regis
▁communic
▁distrib
acolog
diom
inoph
erati
▁myom
istop
umor
perception
▁LOC
ervative
ochond
▁workweek
▁discharge
10
opia
79
raig
ividualize
antially
ganization
▁sequel
▁sedation
0.5
abits
▁IA
aso
▁FAC
TSP
▁pathop
▁inferi
TNF
vived
embolic
eriments
▁evo
pated
▁delusion
QA
iHC
▁embryo
ronchial
atelet
ortheastern
oneal
yte
atrial
rbanic
▁physis
▁interl
▁cance
bacco
▁overe
lance
▁congenitally
umption
▁cardiac
▁lipids
thle
rve
lapping
oying
▁chon
▁sho
certained
▁pterygia
▁saline
▁Educational
oagulation
ieth
▁MEP
imination
▁laparoscop
▁aler
▁Bedtime
▁nonorthopaedic
cardi
%).
accl
▁Bone
arli
elmis
gm
▁biop
-2
▁Improve
EU
▁reco
jority
onization
ypot
▁manag
dre
marri
raigh
jur
elev
ronutrient
▁gallbladder
facial
cour
▁resear
Hence
ostop
▁implantable
▁pneumop
ertiary
▁effectiv
▁coex
acclim
hocardi
plifying
Hum
Fs
ontal
▁FOSQ
▁Transactive
ropho
04
heumatoid
urtherm
▁specim
▁latency
hers
perv
veil
inematic
ISM
▁cues
▁BP
▁LVADs
▁enti
▁decreas
agents
▁interver
mie
lycaem
▁disa
▁persist
rement
choscop
erful
▁polymorphism
altrex
▁UG
▁rotated
ionit
ateness
▁transient
dication
cyst
alsy
Hig
DOQI
finitely
IVIG
orosis
ipate
alvage
agitis
▁overlapping
▁homogeneity
▁Gadofosveset
▁5-
andm
diac
isqu
▁biomark
lre
▁proct
peratures
comit
▁asthenopia
urys
▁consequently
radi
drom
▁tho
▁feasible
▁osteot
ulm
diation
▁edaravone
▁newborns
echni
lye
▁microc
cqu
▁vagino
inment
▁Gad
▁reh
▁PFS
▁hea
▁cannul
utcom
ediate
.7
TTR
obar
125604
onstr
▁laborator
▁anat
ibing
orten
RUPs
ifically
levation
iderable
▁redundancy
▁tolerated
▁CI
hoic
trimental
▁enlarg
icone
Ele
Cle
▁minil
idat
owerful
ilitated
▁RBC
▁wit
mising
letal
▁enl
phic
▁underut
eurysm
atios
▁laxity
▁manipulations
lycoprotein
▁Lysos
▁lymphad
entific
fractive
▁Experts
rhages
▁neurologic
▁tuberos
seud
acting
cans
▁caregi
hylaxis
▁pH
▁establ
▁neoadj
▁buc
▁saliv
▁metoclopramide
cents
ociations
onate
hron
▁previ
epip
enzalk
▁refra
chizoph
eset
lter
▁infections
ogis
▁Uni
opathological
▁PEEP
salvage
▁inappropri
omotic
stones
enhanced
▁Hb
▁leuk
icipated
ods
ture
forations
▁scre
Sahar
▁compressed
ormed
emorrh
heros
▁subgroup
pti
▁APD
etus
aryngeal
ukocy
cedur
rean
▁axillary
▁discop
contrast
▁pathologic
▁PIPE
arynge
cretion
osoc
ategies
▁fixation
hare
roced
▁appendicitis
umfe
vaginal
unis
▁chorioamn
ansop
ovir
diagnosed
oyed
asch
▁footp
urom
idency
▁introduces
hically
olysis
▁LU
▁unpro
uic
ilut
▁Septal
▁pyl
ocaine
▁Emot
oarthr
rae
▁morpholog
RIGIN
onve
ptoc
▁somatostatin
▁unilateral
igrants
eratively
oscopy
conserv
roo
urgical
▁distinctly
813544
unod
entic
▁Fournier
▁mammography
gil
▁Colum
ostcon
▁disor
acterist
▁bedside
heric
licable
ramid
uterine
▁comprehension
ibi
▁Remot
mide
illic
lea
0%,
ectom
icati
ionitis
▁insur
▁Inclusion
roplast
▁differenti
endem
▁Vaccin
rogra
▁Signific
▁exogenous
athw
▁chole
▁coexistence
licated
▁CHB
▁skeletal
▁intrinsic
▁vein
ustified
rosis
tage
referen
elayed
▁perc
▁evacuation
ecial
dol
hly
▁enu
▁thromboembolic
atific
▁hemorrhagic
alan
▁thrombo
▁lifet
aparoscopic
ancom
▁pelvic
▁34
heu
aluations
chil
▁erosive
▁Discrep
▁anticoagulation
rawing
sitis
▁Cyclople
▁telmisartan
▁ston
▁bronchiectasis
esm
▁paradig
tead
etro
1-
▁SUP
iab
ipra
artum
cum
natal
intest
Ly
▁complication
▁Fractures
▁Trials
erity
uag
enzal
omenon
bj
▁dimeglumine
▁hypermetropia
Gas
ggest
CSs
▁interv
▁infil
▁bronchial
entral
▁EDs
ansform
ragmatic
▁statistically
▁angiography
itone
▁rigor
ssed
IU
yin
dictions
▁elevation
roplasty
ophren
▁estrogen
avour
cellous
knee
1256049
dress
omar
ainability
ustment
iT
odef
proced
▁Awa
vical
reted
ewers
▁ClinicalTrials
etor
istrib
igare
▁plurigravid
▁diseas
ediatr
▁REs
▁zinc
57
utrop
Mos
▁Dut
▁multimodality
▁neurological
hemotherapy
▁50
ollic
▁testis
▁oncoplastic
sist
moun
▁fM
vail
erestimated
▁occurren
▁carriers
stays
hog
yses
▁sut
olicies
parat
▁nationally
▁ergocalciferol
▁enfor
iparae
igating
afe
ligibility
nly
eig
▁Roux
▁uteroplac
ejun
▁AO
▁inta
atoc
53
▁35
mittent
estigation
▁warranted
pture
embr
ulps
ggrav
umbar
plify
threat
paration
anish
▁Phy
nig
leation
munod
edicare
lementation
▁diaphyseal
▁pSS
▁molecule
▁Tran
▁intergener
anul
xone
▁vehic
▁congenit
erving
ellows
6049
igaret
84
rast
▁culturally
sact
▁transi
ditional
intig
orc
oho
▁ischem
delayed
ormo
uvant
evit
pprop
hle
▁acidosis
reptococcus
▁woun
▁resect
dg
▁mech
aminers
oncept
▁Improvement
▁Concom
▁resis
uod
oiding
▁Pretreatment
edullary
inting
▁Teamm
▁autoCPAP
glycaemia
ilaparo
ipatory
stimated
eration
eopor
▁oncosurg
▁ambul
undibular
ionn
▁IU
ochemical
▁prompts
obility
nw
Hu
agoc
▁morbidity
onsid
2.
ramidal
▁swell
▁palpation
ovitis
▁needles
astrinem
▁570-576
▁vasomot
ulop
▁OT
▁Patient
mium
▁pragmatic
▁Strept
▁FTL
tero
MeS
▁DST
ovascular
▁exacer
RIGI
utory
anteric
▁melatonin
▁recog
orsened
▁umbil
▁diluted
ruroplasty
▁chemotherapy
ocalc
ectomy
rombectomy
echan
fus
▁orthopaedic
▁eosin
▁chemoradi
nternational
eriatr
arri
rophary
urgess
ceptable
▁5
coeli
ortance
atency
▁periodontal
nize
▁unli
uish
EBWL
▁revi
▁palatability
▁genotypes
iteria
ipl
assif
▁engraft
▁fluor
erul
iderably
▁manifestations
▁pseudomyopia
▁SWL
lied
isit
iosis
▁PRK
▁dea
ocele
irra
inctly
odynamic
mab
ducational
▁lifelong
▁attrib
elill
ellit
cessive
▁Phe
isodic
parate
emal
▁tox
uided
Ot
lectr
laim
▁linkages
lication
ognize
▁IFG
urati
▁infe
dop
ondro
▁MiHC
utor
▁lectures
▁otherw
▁arthr
▁ergocalcifer
mation
evaluated
▁CKD
verteb
thral
uncture
wish
cision
▁Taiw
quid
rendelenb
▁anomia
▁disqu
usl
anus
erosity
▁tibial
fir
topl
▁specialty
rapy
imising
▁Streptococ
ussion
▁lotion
sensitive
▁ovarian
▁socioeconomic
uscri
udents
SBF
liximab
aig
acific
▁rela
▁substituted
▁synov
echnically
emur
▁physici
ryo
lac
ectab
ibit
▁receptors
▁leakage
cute
▁preventive
▁richer
linic
▁wort
▁eosinoph
▁postfiring
gular
ositioning
urv
gmental
▁gadob
ptake
bod
67
oneous
▁episodic
tmental
yse
▁phag
esect
.8
▁8.
ulting
orioam
1,
incre
astomosis
mme
omect
idem
ochemistry
onsiv
AIDS
dle
▁evacu
gone
▁admissible
▁underl
▁synovitis
novative
▁PCO
xcess
uniz
ifestations
dundancy
mL
rophy
uloplastic
vac
▁disquieting
ptive
arger
nless
argins
▁allevi
▁Excl
kathisia
iminated
onin
▁femor
ventive
liomas
entar
leve
▁resusc
▁ecl
monstrates
agre
lammatory
▁assis
ferably
okines
mpan
icrom
unm
inep
vations
▁mapp
▁pedestrians
▁stimul
yloid
▁radiograph
▁NCT
▁imagery
▁demographic
osu
▁ulcer
ditioning
ynecological
earance
cement
urine
protective
raff
rra
lide
hrol
HU
valuating
▁adju
banicity
ilating
▁catheters
pation
aution
learly
▁synch
anting
▁accumulation
TnI
▁incentiv
20
owled
▁Neverthe
▁Closed
▁Trendelenb
sar
bient
elae
uccessful
severe
▁Ultrasound
▁intram
▁ultras
▁Thre
▁metastases
heum
hie
mplement
sic
ocard
erized
▁exog
atologists
▁FTLD
Pa
▁cervix
espite
increased
▁masked
▁removes
▁UFC
eit
lpful
▁myocard
▁shor
morphic
sici
ibin
atability
thria
▁expendit
▁HL
▁100
quately
arted
echnologists
sific
trast
▁ClinicalT
enate
gion
▁RCT
▁feedb
▁plurigrav
1-2
arriers
▁depiction
▁merits
▁lipid
▁unco
▁malal
enit
onan
Ef
cifer
▁beneficiaries
▁diverticulitis
▁irra
▁chondro
pted
erw
glyc
▁cigare
▁reactivation
▁concom
▁agonist
▁sequential
esion
ineurs
stituted
athogen
onoscop
▁dysre
▁retrospective
▁etiology
▁Resected
illary
orioamn
▁eigh
luor
ivities
▁Excessive
01
egree
▁Comedic
invasive
eopl
▁Percutaneous
esults
▁cove
▁discusses
fes
▁interru
onoperative
eon
oxidation
orsen
inical
eop
▁plantar
veries
▁OSA
hanc
▁injections
Mot
chocardiographic
jus
▁AVR
▁precedes
▁specificity
verity
ults
servations
▁otic
▁endor
▁22).
▁intrauter
▁predominantly
onological
▁disch
▁TG
vating
▁algor
ptimal
stolic
ecti
icom
▁reev
acclimati
▁remo
▁oesophagitis
▁awa
mort
erist
▁carri
ureth
▁reduc
UCA
scler
asizes
▁multifact
chanteric
▁rheumatoid
roug
igure
Kore
▁Malnutrition
ylcyst
▁RH
atocy
▁ESR
married
oecon
▁Normother
▁radiographical
olumes
ffs
eans
Tu
phth
oplacental
clud
▁palp
olore
▁psyc
▁rese
oals
upational
▁decreased
aluating
alian
▁DAR
▁multidiscip
rapid
versity
ulmon
raftment
udomy
parinized
anyl
andib
dance
▁multicatheter
unp
essments
▁calcified
▁cate
▁multiparae
▁subtraction
▁rehabilitation
▁misle
▁mL
▁NB
▁ana
owever
▁nephrol
utant
▁neutrophil
▁LVH
▁Paget
ormon
bectomy
Ds
catenin
ircum
▁capped
erus
▁multid
rope
ocular
essary
ilic
▁aripiprazole
aluable
▁phonological
▁chor
▁MDE
▁Thera
▁HNPCC
activation
ionin
▁PMP
▁secon
TAP
derlin
▁outper
▁endem
igment
quip
ormone
▁sulf
ggested
▁2
▁dentists
▁sensorine
▁perinatal
▁otorrhe
▁diag
atiz
trex
▁Implementation
▁ong
▁heparinized
▁unic
▁constit
otension
enos
positive
ercial
▁Pregnancy
▁Delay
▁consultations
▁Giv
▁AMP
rossing
ortant
▁mucosa
▁sustaining
▁repaired
▁ow
▁iso
Gast
atele
▁atropine
ppa
▁pedig
▁ramus
▁anticipating
▁ultrason
▁loosening
▁normo
ece
siting
celerations
itely
nalyzing
jected
accines
gically
acro
▁LC
ousehold
▁thickening
▁influenza
▁prosody
urno
▁grouped
orectal
CRP
▁randomized
perfusion
▁eac
▁cTnI
▁SBA
▁ischemia
ronutri
▁curative
▁Pret
▁comor
▁hypergast
▁comparis
vance
omit
olectomy
satis
ontriploid
▁cervical
▁VLBW
LV
▁requi
▁implic
merg
lati
▁hospitalization
ivial
uality
▁Magnetic
▁seropositivity
tions
▁stillb
ildho
▁biomet
teb
chon
▁conside
geing
▁unsuccessful
▁standardiz
▁Headings
otl
▁WO
▁antibodies
tator
ivariate
hesive
▁triv
▁neutrophilic
▁reso
▁adver
▁erroneous
▁pancreatitis
urate
▁appropriat
operative
oxic
arged
▁Skewed
▁ultrasonography
owup
▁illustrates
rading
▁valu
IPE
▁5.
ophilic
▁receptor
cedures
ffecting
70-57
oxid
iprazole
▁inappropriate
acic
rovascular
rinsic
itored
utrient
▁pertroch
eine
motional
xamethasone
▁uremia
▁unelev
▁unrel
▁chloroqu
▁Throm
OAD
▁cardiovascular
▁inclin
ximately
raop
atheter
▁rCBF
affing
▁Teammates
ultrason
▁60
▁psychiatric
▁infr
▁poore
hiz
roac
▁occurr
ronut
valence
cisions
rograde
icant
lications
ervis
assification
iased
edect
appear
andat
ishe
adac
olely
actors
▁exercis
therw
elids
▁overd
reu
oncom
▁myoe
eaving
tylcyste
▁bilateral
7%
ansure
▁CTV
▁LEEP
▁imple
▁hypo
veloped
▁procedur
oeconomic
▁adolescence
▁Cytot
▁precon
▁unexplained
xameth
▁Tumor
lemented
Wor
▁underlie
▁pelvis
generational
▁disadvant
▁inherent
▁proctoco
imiz
ecially
▁MSC
pects
ackup
▁homog
misar
▁hepatocy
▁immature
habilit
ugment
▁adenoc
▁undertake
uccess
▁palliative
pholog
▁spa
arthritis
▁pertrochanteric
▁editions
▁atre
▁stratific
▁ach
ariable
▁jugulot
▁undertaken
ropharyngeal
▁simplifying
▁discontinued
eresting
hile
▁Transsphen
sens
▁nephrolithiasis
geons
yro
▁Vaccines
▁esophage
leo
▁bowel
roph
kages
circulation
tensive
▁inhospital
omor
ineo
▁samp
verticulitis
mixed
▁pathological
▁sulfonylure
seve
▁gangrene
▁concord
munological
▁cong
▁intraut
ropsy
▁ethan
▁Cyt
utinely
▁melan
Ca
urden
▁anter
Ul
oepithe
ergistic
.5
vone
ubes
▁treatm
cluding
omerular
▁bac
asal
employ
onium
ilks
hysiolog
vial
▁vaccination
estri
evere
ctures
▁artery
ostal
erted
onol
▁myomas
▁ICSs
▁Analyz
▁unicom
ecular
cording
▁ile
▁doses
▁withstanding
gnostic
hronic
urag
PSC
▁crest
tinu
▁discus
▁immun
▁thromboemb
Fra
cinom
ibular
qually
▁impressing
arative
teins
▁prevalence
ssors
ostering
▁Transact
▁highl
utp
eroidal
▁diaphyse
versal
lectronic
stos
otomies
▁allo
▁unreport
▁midl
copic
amet
imeglumine
isq
▁chil
olism
▁ossification
▁isch
tained
tolog
▁follicular
forw
diograp
ecessary
▁IBD
78%
econ
▁hypothyroidism
edur
▁HU
adherence
hysician
monstrating
ffort
▁LV
atrogenic
airment
enteration
ulati
▁quil
ptual
umet
orar
▁glucose
▁tonsillectomy
▁arterial
▁homogeneous
ronted
upon
hC
▁Transv
ternational
▁clinician
▁PCT
otyp
▁pulps
ubted
▁alw
▁malignant
▁autox
▁AGE
1046032.
rendelen
▁biometric
ortis
stag
ergastrinemia
phen
▁recess
olated
▁resten
ibial
renc
▁preb
ects
▁ADC
imult
hysis
▁individualized
▁Hypotension
▁dex
estions
▁irradiated
idiz
▁prophylactic
formity
ormin
vit
02
-1
▁appen
▁32%
uitary
markable
luid
▁subg
▁SNP
isciplinary
▁Universities
unol
opos
omf
uscript
eet
IGI
hro
▁cann
▁UT
actorial
verc
ittent
andmark
clat
henomen
ickness
eraliz
iscip
ochondral
▁aneur
▁Awaren
aner
▁malleable
eud
alid
oce
▁gynecological
sses
▁CAB
riptans
orine
stages
▁hemodialysis
▁abn
mental
erational
▁Neuropsy
gland
monst
gether
astrop
▁Transgast
▁preterm
sif
ecessarily
2%
retro
creatic
▁Ohi
▁SIB
▁neop
IUI
▁debride
▁hC
▁OTA
▁lymphadenectomy
bation
gast
▁necro
ectrum
▁tymp
riat
inear
enon
ught
▁radiography
ensured
ightforward
estinal
CSP
▁lar
asses
Treg
agangliomas
▁hypothesise
▁lith
munization
▁gradi
argine
▁complications
enzymatic
onos
apsul
echnical
hysical
sra
xual
ormot
▁physiolog
▁pineal
▁catheterisation
culation
▁vitamins
▁nonclinical
▁enthes
▁assessments
▁receiv
linicians
▁antic
atality
▁Cytoplasmic
mph
omod
opramide
cline
vantag
vate
▁postmenopausal
choscopy
dio
satisfaction
▁PHQ
▁caro
offspring
formities
Sin
▁counseling
▁equiv
jects
▁dissatisfaction
oplas
▁osteotomies
steop
▁RP
▁glycaemic
▁Medicare
brop
entu
ineous
avent
emograp
cessing
lative
icare
andard
acroph
ASIK
▁RAR
phenoidal
▁Gastrointest
hods
▁tailored
▁deterior
tet
▁exis
▁migra
▁ini
eamm
ntern
ppoint
▁benefici
allst
terogene
orith
▁insertion
otact
▁muscul
▁abnormal
▁chol
fectly
bac
ertion
gli
▁contem
2813544
ividualized
iliac
verest
oscopists
omal
Ba
▁anast
▁annulus
▁thic
▁Alco
icat
▁endoch
amaic
aget
▁pathologically
anser
controlled
▁fellows
▁Whilst
adigm
▁deficiencies
▁oligoarthritis
▁latent
econd
echnolog
instit
esophagitis
▁GFRUPs
chocardi
aceous
▁erg
yroid
▁radiothe
cting
irthwe
ammat
▁beha
amics
illectomy
fficiency
inog
adings
▁clerkship
▁arthritis
omechan
linqu
▁perce
abas
▁seve
cet
Ban
▁concomitant
lial
▁Alcohol
▁empirically
▁heterogeneity
rely
▁consc
▁amp
▁encounters
edition
ingdom
▁attent
hages
ochemist
erim
imulate
hibition
odialysis
Cy
eak
▁fractured
acores
KD
ullip
▁PRI
▁rCB
estin
procedural
altre
paedic
▁indeterminate
hemor
izop
▁disparity
omenclature
▁MN
▁implant
▁terti
▁eclampsia
limination
odeficiency
phasis
▁endochondral
erative
eoples
ggestive
ultiv
▁inflamm
▁leisure
uturing
▁buccal
▁interp
hysicians
▁lept
▁manusc
erating
▁citations
umop
emog
▁CK
▁chann
iversal
▁chorio
ifen
ocl
▁elimination
▁cTn
rands
HANES
weighted
ggra
▁tamox
aiting
igm
hob
imab
ontol
tel
atment
cog
oretical
cutive
▁justification
asoun
genation
bility
▁HCA
▁7.
▁Oph
▁Pediatr
ropon
etast
riends
▁Allocating
iminis
okinet
nisone
2,
trary
▁BDD
ectas
rati
din
▁ethanol
esul
veol
agulation
pW
strated
OIs
▁Paediatric
erab
▁Trial
ressions
▁Fourni
▁MCS
▁perioc
▁preferen
▁Bec
ureus
entati
endect
▁kerat
▁21-2
restim
dia
ctu
▁develops
▁32
▁mainst
▁coac
LB
aptive
foun
ASI
▁repos
cus
ardl
ugho
▁exclusion
▁formul
iD
vu
gess
syc
iminished
▁extensor
vior
chemic
ffectiv
ondition
▁TKIs
yom
▁tamoxifen
overall
▁injected
heral
currence
▁pregnancies
▁likeli
artan
ercised
osy
race
fra
rong
▁dimens
concussion
duce
▁VE
▁uncomplic
agnose
clop
AQ
▁angi
▁gallstones
▁agon
igit
hance
idn
▁withdrawn
heren
▁discr
▁contamin
vant
▁antecolic
uropat
Tre
▁epinephrine
ifo
EG
▁pn
▁Increas
▁streptococ
▁abnorm
▁consanguineous
ticulitis
opi
▁AEA
▁undisturb
ucle
fine
▁estro
entical
ulae
▁pept
ogies
emorrhage
▁tubes
romet
▁22
hio
▁suprapubic
lore
▁ove
▁underst
hic
cove
rao
▁repro
phon
gree
iag
enect
mography
enrol
▁IHC
▁coeliac
▁hypoxic
iately
onort
▁embry
verty
▁excis
▁vancomy
▁Fourn
races
GUCA
▁gadobenate
▁behavioral
▁simult
edial
imod
▁Convey
atectomy
espit
atric
rehens
lve
imens
▁MV
▁interacted
▁suppression
ptum
30
▁haemorrhages
▁fragility
▁uniformity
regul
▁modality
▁disparate
raving
dicting
Wn
▁immig
enj
ithms
▁gout
regn
eel
ceptably
omach
ppl
years
tylcysteine
tate
▁differen
▁normok
parities
perts
▁branc
19
▁refe
iref
▁headac
uscitation
adob
ethered
fuln
▁inver
ptal
entual
utritional
neal
▁officiate
hey
▁DW
▁decisive
▁impairment
▁intercostal
oar
▁suturing
ysos
hotic
isciplin
ounte
teris
▁Lys
lexion
Lan
▁antec
▁trismus
veill
▁Neu
acial
▁shigell
▁bever
orther
▁substantially
mia
▁ceased
ditions
ceptive
▁readings
atif
idance
pap
-5
▁40
nz
opul
▁pylor
edig
tology
scopic
▁scol
kely
▁Thos
ethering
▁beverages
Ka
dictive
fered
eom
ojejun
▁cephalom
koc
▁ruptured
hway
44
oadj
.8%
ranula
mptoms
acuation
▁HSV
orect
▁morp
receiving
2)
▁anastomosis
▁verteb
▁LSG
olon
hear
isod
▁Exclus
edure
▁aure
35
utro
▁practitioners
otechn
imized
▁Leptin
uropsychological
ionary
▁pathway
xill
▁MSSA
Gi
alv
▁fatalities
ainment
▁prognostic
uine
tation
ogly
▁dexamethasone
▁endothelial
▁hypers
▁youn
acerb
▁childho
endos
ardis
oidal
▁cereb
LBW
▁glands
▁polyethylene
▁causation
Mel
▁responsiven
▁Taken
▁acceleration
▁PVR
▁DMO
usual
olis
ualiz
▁reviewers
rone
dib
▁prudent
PDS
ypog
▁septoplasty
oracic
▁intrag
relevant
Tc
DDI
arav
cold
ostc
▁correcting
copat
▁abdominal
igree
Ku
IH
igra
09
▁talus
▁esophageal
ighl
▁unex
▁acute
leph
osening
oybean
00
▁Doppl
evitable
▁ergonomic
▁aerobic
▁postmen
▁6
▁indef
biological
itance
▁hemispherectomy
▁Predict
▁HCM
▁amyl
vem
enation
verex
osphonate
ightf
▁nal
ilept
▁spon
ynov
▁rebound
oscop
▁Ketamine
nowled
▁nasal
OSQ
sue
▁distal
odul
Cus
▁sSS
odon
▁continence
zard
ractical
lyc
bir
▁protectant
▁eyelid
▁Consideration
▁depen
97
▁comprehen
urrent
▁AAI
▁prognoses
misphe
▁Transgastric
laims
tive
▁whic
▁scoliosis
▁MG
enture
▁deli
isoning
eIVIG
edectomy
esions
ockade
▁proposes
▁suture
vag
yclovir
▁chemotactic
▁precl
▁otorrhea
ifes
iners
carcinogens
aemia
undancy
ancially
▁physi
▁RTS
▁hazard
ertensive
iably
▁ensured
ostatin
▁labeling
ptom
hys
▁preconditioning
▁abil
agnos
emographic
▁placenta
acteraemic
▁LNs
opamine
uscit
aline
urin
mise
▁schizophrenia
asac
iatrogen
ongly
Nort
▁Chaalia
eeping
▁disl
lees
iolence
▁Ophth
▁amin
ectable
▁benefic
▁PICT
examic
cibility
ecta
▁endomet
carcin
imar
ventricular
unant
helial
ationally
erimental
▁ratios
ificant
▁aort
▁stopp
orad
▁quic
.6
▁pancreat
oub
ifty
bse
linc
▁1-
lycaemia
▁familial
▁relapse
urea
▁rea
lade
immune
▁reper
▁multifollicular
enteral
irthweight
▁gallst
▁warranting
▁Troponin
hyla
▁VDD
geal
orax
rimary
▁amyloidosis
estations
▁blad
▁0-1
▁stellate
▁bypass
▁palat
▁popliteo
▁Conve
orsion
ansition
▁Altho
erately
otymp
awkins
mergency
▁vegetable
idening
lightly
usoidal
▁unselected
ouraging
▁hypot
ocused
▁abolishes
▁conceptual
▁stil
▁cardioembolic
emorrhages
▁normokalemic
usp
endicitis
▁atro
▁MH
▁Postcontrast
▁patholog
igmented
xu
dicated
▁carbohy
Bed
ificative
▁monof
▁CLM
curred
rosp
▁GDM
▁inequalities
▁cardio
idate
urol
eis
▁pathologies
itab
▁perin
oskele
fering
esected
▁caly
iminative
misphere
quential
toplasm
▁Northeas
linolenic
thop
ctal
roach
limin
athway
itic
idis
▁supple
▁HC
▁reimplantation
odific
medull
Ib
▁detrimental
pirical
xiety
▁athe
lopramide
▁radiolog
fing
▁overexpression
plin
adication
▁SBK
ulat
ccor
protect
▁Northe
▁LEs
▁Liquid
▁ure
▁ergon
▁gly
▁evid
Las
Soc
▁issu
▁scint
▁underline
unos
qui
Gad
ernal
ialysis
heless
isab
poral
zop
reatm
zl
ncreas
teration
enop
▁chemorad
▁epiDWI
estigate
▁contrib
.2%).
mig
oron
▁caregiver
verages
▁putative
alemic
▁seb
fication
▁Effort
▁enrolle
ORIGI
ibed
▁arip
adver
▁ei
▁surgeon
irculation
▁aorta
▁prophylaxis
▁ANN
▁GFD
▁cumul
▁peris
ucleation
▁CPAP
eront
▁metform
gnant
▁provoking
▁carotid
ergist
▁PCL
ORIGIN
▁osteoporosis
Fam
estructive
orw
▁cephal
▁undesc
irw
renes
stoscopy
▁exer
imegl
ropat
dation
althy
-1,
▁57
▁devel
ostn
▁MRCGP
trip
liance
▁blin
rele
▁PSNs
▁sci
ctas
▁Unm
ciferol
enile
▁pla
lax
rougho
▁hemodyn
chemia
▁undet
▁gangl
hylene
▁trophob
▁unl
▁consol
astatic
umour
usati
osurg
responders
▁HPV
CTV
▁Cushing
▁rash
rounding
▁regimen
▁abo
itral
WB
70-576
ansi
05
▁confir
udomyopia
▁tumours
uccal
anu
entan
esoc
▁Dil
▁retent
orat
istor
▁thes
▁autoim
kwe
iparo
▁epidemic
yoc
dent
lely
equalities
▁alco
▁antico
ilaparoscop
▁haze
othesise
▁significative
ochem
ammography
alivation
▁ileorectal
angren
▁chal
uffici
rth
xter
ptan
osures
ometrial
▁RM
livery
entive
ltr
ypotension
veal
▁psychos
▁serop
▁intervent
▁INR
▁oesoph
agic
2%)
▁disagreement
alges
▁paraventricular
▁asthen
▁onset
ameth
eammates
▁streptococci
▁drainage
kocy
atol
▁birthweight
▁7%
etim
irrhotic
Ol
ulcer
moid
▁counteracts
cation
veryd
▁lea
ein
phasised
hoice
▁matc
▁restric
ogeneity
bable
edg
81354
ediately
vul
orid
▁Larger
institution
▁endos
▁psychot
acol
omedullary
veloping
omotrop
▁SHSe
onis
ilie
▁yout
▁macrophage
atostatin
▁concussion
ysg
▁pren
ocally
hok
AO
▁restor
lymorph
▁inhibit
DNA
▁significan
acok
▁occupational
QT
▁obese
entho
▁microv
▁scin
avone
comy
▁errone
evaluation
▁HGUC
▁labial
▁pregnan
▁resected
▁1.78%
▁resection
▁chewing
▁thei
vat
rointestinal
▁21
redict
▁establis
▁cla
▁adolescent
▁dysarthr
sequent
lerated
onop
▁autoimmun
ventric
▁GVHD
▁leas
▁1
onary
xcl
imarily
▁cue
archers
▁apop
rehen
ths
▁acupun
▁antibod
estis
▁CLBP
onography
essive
iho
▁PBB
▁clerks
pS
ptable
Ur
▁microm
▁elu
yance
aviors
▁prel
ventr
▁pneumonia
ococci
▁HS
izures
filtration
▁oxy
udin
▁afflu
ropriat
igns
dicted
▁haemorrh
354
ioning
▁Laparoscopic
▁resuscitation
ustif
ollicular
▁transpl
▁Ras
riately
nical
ectr
pex
inop
letes
ormonal
▁congen
echanics
ssures
terc
▁ICM
laqu
otom
istian
entl
stect
compan
▁LASI
ctural
▁EPDS
▁avo
▁benzalkon
linicalT
inematics
unding
anical
ostomia
cinations
▁standardise
▁plann
▁Removal
erably
genit
▁workflow
iltrative
▁Samples
▁Recurrence
trap
▁discernable
▁subgro
NH
▁hemisphere
▁biat
ggestion
▁impacted
▁PMPM
▁endoc
▁Preoperative
▁envir
agin
▁Infundibular
▁bronchi
ecim
▁sebaceous
agree
▁ptery
horts
iethnic
entation
▁Ambu
uscular
▁consang
▁clinics
clov
Dc
angliomas
▁carbohyd
▁WHO
▁desi
tib
▁Rout
▁ascertain
▁workwe
rophob
ithot
▁adhes
lapp
▁multiv
▁thyroidectomy
▁empl
cidate
atomy
▁Trendel
roidism
2).
urren
mur
▁surger
therm
hibit
ughout
kag
▁pleomorphic
mend
acu
▁reagents
▁cadaver
rometastatic
vom
ficial
▁insertions
linary
544
xes
sight
▁colonoscop
▁histopat
Fu
▁BVM
aem
tun
80
rox
▁mucosal
▁NNS
fant
obectomy
atalities
▁systemic
plays
▁inadvertent
▁disappearance
osal
rof
▁Thei
▁Geri
oresist
▁poten
duces
▁150
duced
ropr
▁99
edation
egrade
apedectomy
tane
▁diagnost
ufacture
birth
▁remin
lantation
▁pter
▁expectant
▁emphasised
ustify
▁impre
WBC
▁enteral
atig
▁2002
▁kinematics
emot
gies
hyse
athological
chanter
▁prebent
▁proctoc
jured
rul
▁etanercept
-3
lure
xent
▁postf
alit
▁GEM
▁exenter
▁Physicians
hogen
commended
▁coronary
IVI
▁alve
elan
arkable
rectal
▁undergo
ursing
ounger
▁counse
▁Benefits
dromes
reness
ysm
antar
alp
resect
atricians
▁deve
▁interpers
▁emis
▁endothe
parison
otympanic
▁alveolar
onw
inor
Ti
clo
igat
esit
rants
▁congenital
autionary
▁PAD
dicate
induced
▁carcin
▁myoc
▁carcinoma
▁detr
▁variants
anaged
▁Wnt
▁lino
mative
▁phas
ducts
strates
▁insuffici
▁undergradu
▁skele
▁decelerations
roma
▁overdose
oradiation
3544
▁mediates
ucate
vantage
▁adher
enr
coel
owel
ciably
tus
▁pressors
▁optimizing
sity
▁Patients
essf
rectomy
06
▁statins
▁secretion
iography
hieved
▁Contr
▁dysreg
▁geniculate
▁antegrade
▁Heal
▁Aspir
▁Demonstr
ylcy
▁predictive
▁UGI
▁tomography
▁IH
▁follic
▁Progression
diated
▁admis
functional
lob
anag
itator
laining
mework
▁suspici
elilla
eam
▁esoph
▁HM
cto
ivation
-9,
rove
layed
resectable
▁SSCP
▁salivary
▁deceler
ourc
eopu
▁10
▁hesitate
▁Clinical
▁adhe
ycin
QO
▁Geriatr
▁accoun
gents
nerability
▁hypothe
onstration
▁milks
▁aureus
xce
ickening
intigrap
owl
5%
ivated
yop
▁awaren
secon
performed
uven
▁gad
unom
dj
rebrov
edest
ococ
sess
emplated
▁deterioration
▁volum
imati
etas
antial
▁examin
▁acids
istical
▁bacteraemia
eech
oembolic
PCC
drome
zole
ergon
ricans
▁SGA
▁neoadjuvant
urab
etting
000
igital
▁lessening
abilit
icu
104
termine
▁phe
spective
abetic
▁adol
imari
acore
▁Mothers
▁WMA
7.
▁preser
▁arth
cta
▁NACT
▁educate
▁cerebrov
▁TC
kele
▁ventric
lementary
▁deficits
asib
iciaries
▁footpr
▁eversion
strating
olle
▁atmospher
▁LNM
▁doct
centration
tected
hemical
▁Rasch
▁prospective
▁Trend
vour
ourage
▁biom
ssific
rectly
esign
▁colloid
▁routinely
▁VMS
▁advan
verif
▁unin
urysm
▁201
rections
▁intraren
onist
▁implicated
oquin
atical
▁births
▁shigellosis
lind
hial
OTA
iog
▁heparin
herm
xed
▁Alternative
esoph
raphy
irically
erobic
▁monit
ontr
▁27
verd
icen
acrop
▁heavier
pati
▁lumbar
▁analyses
oskeletal
cational
ynovitis
cessfully
▁correlate
▁triptans
▁Neop
cores
▁naltrexone
▁unprotect
▁RB
ravating
▁suf
▁IIb
▁enrol
ubt
ptors
eved
▁aggrav
▁ket
oag
ustained
GV
clature
onsiven
chological
xen
gf
70-5
▁coel
▁sacr
MN
ressing
Sami
pply
UNAIDS
▁LVAD
▁nullip
levi
couraged
eSH
▁spi
endoc
ammograp
essar
▁glarg
hewing
▁2008
ftment
▁witho
▁bronch
velops
▁exa
phrine
adherent
onous
▁publ
mented
terectomy
ditionally
lasty
▁Pathway
avior
▁Thromb
colog
pist
▁reevaluated
nus
oplasty
rapu
▁detectable
Ki
opositivity
anese
repared
hoking
▁cutaneous
ongst
ificati
▁knowled
ientific
▁scanners
▁15
imization
▁perforations
orta
▁nonw
armful
ssions
▁postfir
ultras
▁reim
utive
▁Nebulized
▁individualize
▁multidisciplin
valent
▁intervertebral
cible
estig
eserv
atisfaction
quil
▁peron
anex
imis
hylactic
GEF
clovir
heal
▁FHR
▁cholecystectomy
ofol
▁percutaneous
itoneum
iectasis
andardiz
orrhagic
abit
▁IPF
resia
▁pancre
itures
prising
▁superi
mity
ognitive
▁genet
uneral
▁lef
olect
xil
▁colonization
trexone
▁1.78%.
enoc
glum
▁acupuncture
▁collateral
vehic
andated
banic
▁intrav
▁SSEP
▁noncom
uliz
▁histopathology
undib
ypal
lerance
odality
▁wi
▁repla
luent
agocy
physiologic
cerning
courage
unab
hincter
alliative
omech
▁sulfonyl
HANE
▁periocular
oepit
▁Reviewer
▁usefulness
ropine
clusions
erost
rength
eopuff
edic
▁psychotropic
▁definite
▁advancement
etar
▁lymph
cisive
unctional
▁midlife
igravidae
▁juven
NSP
▁musc
estas
ategic
welfare
▁attentional
orns
▁PVD
▁intragastric
▁cog
▁sess
derl
cated
osur
bidity
ormothermic
▁impaired
ecur
aparotomy
▁adolescents
ergency
▁SSC
▁cholest
▁incidence
itamin
▁OPL
von
▁molec
opam
ograms
orthe
hoo
▁ultr
▁reevalu
▁reproducible
ireflux
rece
▁princ
▁anas
egar
▁Sami
everthe
icent
▁ischemic
izure
▁illust
▁Aph
▁hCG
▁theore
enthes
▁adaptive
edical
veset
▁minerals
▁Comparisons
▁soybean
▁alteration
igrap
▁favorable
▁unant
▁poin
inag
▁tissues
▁LAS
oL
cler
▁eyel
crew
▁undetect
ranc
amag
oC
▁rei
isture
alc
anic
feren
ounc
▁oi
▁plaque
mful
▁acro
ecaus
▁indetermin
▁workup
ickly
▁HIE
ogical
urce
gM
istologic
▁oft
▁linole
olume
▁perfusion
agreement
andomized
▁scoli
sly
aryn
icid
▁connective
▁Transsphenoidal
▁epileptic
▁Intra
edication
ococcus
otiv
dhe
dingly
ricular
okin
07
Lar
▁miniTAPP
▁MCP
edent
▁cra
pirically
ultation
kad
▁sev
encl
▁IUI
▁sphincter
5.
yed
sigh
0-576
▁encoun
phad
▁simil
ondents
Phe
▁diffe
▁GE
gia
Wit
▁combin
udged
gat
▁miniT
uctural
ept
kew
▁AMI
tiolog
ansoprazole
otent
▁vaccin
▁positively
ssure
▁vagin
ulitis
yb
▁dime
piration
▁VD
▁neoad
56049
icr
▁Aphasia
hout
licular
▁deformities
Wom
ricians
onstru
isual
ctive
▁500
ncre
▁pathogen
▁aggravation
tether
▁adhesions
▁disting
▁poorer
ultant
▁erad
▁parotid
▁biatrial
hemot
jejunostomy
orking
▁adenocarcinoma
utc
mmary
retreatment
▁propert
oam
▁spikes
1354
▁hormone
▁(54.2%)
ulner
12
▁Lynch
▁controll
klists
▁anomalies
▁underused
▁vaginal
echanic
▁deformity
▁syndrom
▁Wom
9%
▁rhe
velopment
hei
rehe
sit
▁ancestor
tin
ormother
▁itse
2/
fM
▁asth
▁impa
▁facilit
orbidities
▁counteract
ounse
▁bloc
▁discon
▁gallb
atrogen
inact
▁200
ferent
▁fri
▁postn
▁monitored
▁onc
▁urol
ocarcinoma
ellectual
lymor
▁Emergency
uremia
blastic
icien
▁immunom
▁sensorineural
ypical
▁cyclos
lyp
ulties
▁lithotrip
▁microb
▁Florid
▁mucocele
edl
ACSL
ositive
▁Hyp
▁mono
obic
entist
▁provid
▁metoclopram
▁intramus
▁Africans
▁eos
essional
itially
▁impacting
ehol
opist
▁cocaine
▁Commer
olones
▁agg
incter
▁testic
icalT
igel
ormity
ffective
▁discordant
urf
▁urologist
raineurs
▁ventilating
kne
utur
▁infiltr
▁indep
▁bev
aparo
Ger
▁Heading
implantation
rover
▁oe
lamm
▁Pregn
PTV
racture
leic
agang
elat
genital
urally
endently
ulc
stic
SEP
▁progest
oplastic
▁NHANE
ustralian
rapubic
ylure
▁veg
entil
licate
ppro
▁symptom
hough
eep
ificity
tach
rations
▁Potentially
lys
Burg
ctional
otional
itho
fficient
ortho
rently
▁lesions
rhage
ergoc
▁elic
rophoblastic
▁adjustment
hology
lowing
ipop
fle
opis
▁circumferen
eser
pla
nct
verwe
oplast
▁pharmacological
iologic
ufacturers
▁circumferent
▁nonadherent
▁nutritional
enefic
oic
bab
▁Height
etrop
CCT
▁uteropl
▁epile
ameter
▁complemented
56
▁medicin
▁atmosp
urrence
▁chloride
arae
otympan
▁infrastru
▁misper
▁subch
▁abdom
▁adhere
otherm
tial
edicine
lectomy
ectasis
ofosves
▁summative
▁monounsaturated
henoid
cis
argets
▁intragast
ademic
herence
▁Prog
Cm
▁manu
▁reminders
olidation
iograp
▁GPs
▁iatrogen
sical
fety
uped
▁FOS
▁comparisons
ablis
ialt
▁midd
▁monofollicular
esocol
▁Serum
▁autoimmune
rane
leu
▁wors
idated
umf
▁APT
ravel
tati
▁physicians
ischarge
▁studi
▁preoperative
ultiple
heas
▁cancers
▁gland
cib
atories
anen
▁sustainability
tolerated
eI
▁neuropsy
▁excimer
lk
ANE
▁postoperative
rogression
▁deprivation
▁epi
▁cerv
▁unk
▁phenotype
▁Maln
▁carc
ulfon
Ras
reptococcal
ausative
ieved
▁micronutri
oland
▁Aphas
▁outp
▁documenting
ilob
▁benzalkonium
ourag
CTs
oosening
▁benign
lyet
▁metoc
▁cli
lations
▁engraftment
▁adequ
▁epineph
amn
▁Elic
vements
erum
▁clinically
inem
▁ECG
aviour
▁progression
rene
existence
▁cumulative
diz
icatheter
eoporosis
enb
udent
rials
hopa
uscripts
vie
▁CSA
gation
▁cardi
▁scout
dices
omac
▁Hawkins
▁overlying
▁undergraduate
oclopram
plained
Lon
▁adenom
▁obesity
xo
agul
▁paragangliomas
▁appa
issu
ilable
itally
udy
▁geri
uctures
▁depic
elv
▁thyroid
▁neph
aboratory
▁ASA
occi
▁Melilla
unolog
NICEF
▁usefuln
▁fractures
▁polyethyl
6:
▁21-29
▁stroma
▁sampl
tualized
▁reflux
hea
metropic
ceiv
alies
ubject
▁CIMT
eation
32
▁ACE
ddition
compressed
▁omitted
▁criter
xpression
ostoperative
kid
keli
rk
▁antibi
19-9
EOL
utu
ohol
▁gallbl
evis
fract
utility
▁TA
▁injur
ophil
inant
NAIDS
nq
orman
▁oxide
physician
cay
▁antireflux
▁racially
orre
▁stenosis
vising
▁untethering
amox
▁arteries
▁haemor
▁pronoun
▁neonatal
▁Treatments
utations
ilicone
▁inad
▁IPE
▁RMMA
▁Provision
ocusing
RU
erb
oemb
ingf
▁pois
lom
▁healthc
anula
erious
vented
ervi
▁hazards
▁localized
▁9
rective
▁overcom
▁cholestasis
swered
▁inadvert
hanced
▁unanticipated
▁multifol
SPECT
▁bact
▁trough
Ra
▁BV
▁ATTR
▁micrometastatic
pta
▁transplantation
HG
▁Aspiration
certain
▁quantit
▁hypermetrop
▁SbCC
▁intercost
▁Wee
pate
aparoscop
▁14
nerable
4).
ccording
▁ina
ellate
phrolithiasis
icompartmental
erh
ngl
rastru
▁genot
trol
▁nec
▁hypertrop
onar
idf
anomas
▁variability
▁cyclosporine
terog
redic
▁volumet
dher
▁(54
aq
▁stimuli
▁pedi
alization
▁splenectomy
lowering
arab
▁NP
▁implicate
▁adhesive
astomotic
utine
▁atheros
ustrates
isol
oundation
11
Ear
▁synthesis
estigations
asur
houl
▁prescrib
osv
▁empirical
osomot
▁embra
▁sequelae
Bis
fut
estigated
ority
hours
holog
▁21-
diolog
utos
▁Innovative
▁endorsement
ODcasts
▁hyperpar
oplasmic
▁VODcasts
▁uncom
stim
▁comple
▁accor
▁exogen
comycin
ergastrinem
venous
hieve
▁socio
ferral
omiz
▁1.7
▁19
identif
oquinolones
icable
sive
▁enabl
tering
▁sedent
▁Obesity
rave
▁heavi
ortal
▁amput
▁rehabilit
reast
Son
▁CIM
▁syner
▁endovascular
▁pharmac
Tro
▁perh
irths
cinogens
.2%
ioner
▁discer
kening
rail
▁rhy
▁excre
▁immunode
lop
derus
racer
onoun
vertebral
tam
▁Acute
▁pyramidal
▁diabet
▁PCOS
anoma
▁phon
▁malle
▁endar
▁biomechan
eat
rhag
uage
rine
rment
operitone
▁Limiting
eoporotic
▁cava
lose
anip
onit
HAN
stitut
▁insulin
▁ROIs
▁phar
▁modulate
cts
▁transrectal
fos
occal
0006978
isib
normalised
▁untether
omyopathy
▁metabolis
▁guidelin
▁endp
▁fatigue
inp
▁sickness
vironments
▁prolifer
▁metast
▁PV
▁possib
▁eligibility
hedul
utionary
egarding
cutaneous
ocardial
stol
ulit
▁norf
gG
Ara
tiology
otro
▁GERD
BCS
▁vitro
atural
▁inadver
▁ACLS
sag
inan
▁genic
▁ascer
▁edem
iths
▁graft
yet
ventional
safety
gory
SCC
▁edema
-0.5
filtr
omized
▁tricom
▁creatine
▁regim
idual
eo
sidized
▁pyram
▁nigh
oec
▁scann
gic
▁lax
dver
▁teet
▁indeterm
istin
cestor
▁swelling
scored
Wes
entually
▁Treatment
▁somat
ampsia
▁challen
▁synchronous
▁haem
quent
upo
ausal
31
Mul
cad
▁16
ethy
erest
▁urine
dac
▁reduct
▁strept
rbanicity
tho
▁urinary
▁reformed
sible
ixation
▁ane
▁globally
▁unmarried
igations
▁perip
▁tis
▁proteins
MPK
▁transfusion
▁chemo
▁deficit
enin
erials
missible
toler
tas
tedly
arers
ladder
nition
edin
▁paragangli
versial
oceles
relates
▁deem
odulatory
▁ada
MeSH
parin
▁IB
onog
08
▁prefe
helin
▁matri
▁oculoplastic
erform
roving
flux
UPs
▁Computing
edem
▁septop
▁heterogeneous
ypo
vei
ecif
nI
▁Exclusive
▁RSB
▁workl
rops
▁Ultr
omical
orab
ticul
▁systolic
▁airway
▁Slowing
▁outpati
lary
lipping
ildren
▁echocardi
anticipated
▁correlated
inusoidal
▁laboratories
▁valence
upoint
coplastic
▁deliveries
onsum
▁unemploy
▁APC
▁prevalen
cines
▁biomarker
boun
Pati
▁discern
▁stratification
▁scintigrap
triment
▁anticoag
78
veys
▁scaled
▁seroma
kable
terogeneous
eople
hesitis
▁bioc
▁insufficiency
onance
▁unn
igell
▁miniTAP
unin
▁Therapeutic
regulation
specialty
ourable
elvic
cholog
fici
eic
graft
roduc
▁fragile
▁2012.
▁tracer
▁FS
reop
▁fibers
asai
▁counteracting
igrav
▁MSCC
▁uropathogen
▁radiological
0006
fice
othelial
ceiving
▁preloading
▁SLN
▁distinctions
isar
giography
ervix
▁Melill
adig
▁overest
igraphy
vity
eliac
NAI
istory
linici
ronous
▁2016
▁BD
▁hypersal
▁morphology
formit
ocar
bect
graftment
enol
▁modific
armac
▁resuscit
▁overweight
▁choking
curren
fent
eran
arat
▁aSAH
▁PEG
▁vaccinations
▁intrap
munity
▁prophylax
▁tuber
ylcysteine
▁disadvantages
▁hemispherect
ineur
▁endoscopy
itro
lecyst
termining
rians
dor
▁herpes
▁hypoglycaemia
orsement
ffl
▁myocardial
agnet
chronous
ioration
rastructure
lw
ilated
erfusion
estor
▁enlarged
▁appendect
▁Lysosomotropic
▁AIS
oreo
ediatric
▁contex
▁IgM
▁disqui
henom
▁NNAP
▁ae
cose
▁exercised
atheters
alent
eot
▁uncovered
essful
nutrition
ineal
rurop
rici
dictors
▁Cmin
▁oncosurgically
Ts
▁suic
entf
▁Transsp
▁clinici
▁undisturbed
▁PAS
▁reevaluation
metrop
owu
▁amoun
issed
▁reperfusion
ectiv
▁chemor
▁newbor
henever
▁OCD
▁Neurom
▁hygiene
rogenic
▁impair
idney
inim
dati
▁MM
ysar
oru
urologist
▁pulp
▁GER
atics
1-29
▁Pediatricians
dral
▁formulating
leomorphic
▁muco
cious
▁dee
estasis
▁THA
nre
pho
erly
entis
▁immunomod
bial
osves
servation
▁Excess
ilitation
▁trophoblastic
▁ovari
enzy
estim
▁pregnanc
▁carr
eropl
lieve
▁abl
eS
PSCC
▁mandibular
▁facilitated
▁AAB
▁underg
▁SPEC
▁Imaging
oel
▁asthma
raightforward
▁injure
ivit
▁overla
▁50%
▁2005
heo
asiz
▁IMT
▁inapp
ynch
refore
▁hepatocytes
elong
▁fetus
ellect
▁thig
▁acetab
▁Generalization
▁comorbidities
roun
olat
raight
▁undescended
▁GES
osit
▁leptin
dictor
▁unstable
▁mec
cinog
▁diaphy
phal
cination
terations
▁undiagn
▁multivari
uat
regulated
asmic
▁LN
ceal
▁osteoporotic
ilatory
pographic
coun
▁assurance
mands
viewers
ifican
▁mucos
acr
▁unelevated
▁transmis
sement
rivation
▁Pati
▁contemplated
ptured
easib
▁screened
fal
otions
hemo
▁timely
agery
▁7.8%
▁labialis
▁longit
ethyl
▁SCH
eIVI
mis
ertrop
▁exacerb
▁dysarthria
arag
linolen
bic
▁preter
cised
▁inference
▁tran
▁flexion
▁cerebral
lion
VIG
▁poses
▁instituting
▁consan
porine
onstruction
▁examinations
▁surro
kship
ospit
▁consci
▁medial
▁hern
stap
▁HIN
terver
ognition
liferation
ethas
esn
okinetics
EEP
▁coe
▁detors
▁inhe
Ket
▁ruptures
acclimatiz
duate
urage
▁Transs
mT
caution
CMV
hyth
▁atres
adofosveset
▁DBE
▁QO
voc
▁appre
▁neurol
hopaedic
perating
▁bisphosphonate
orting
imul
uran
▁CDM
▁proctocolectomy
arot
▁refute
▁microcirc
tend
sting
▁approp
▁restar
Aw
caus
ventf
romes
arious
roa
atho
▁vasomotor
wis
herect
igor
▁informal
▁balancing
lowships
▁identifi
ivided
▁Trendelen
▁rehabilitative
▁Interventions
▁aiming
TDP
▁procedural
mograp
eriv
▁lumb
mptom
rainage
oplac
gati
▁debr
erit
▁subsidized
borns
▁Atrop
▁wee
complicated
▁glycoprotein
▁uteroplacental
▁VC
▁Postcon
inders
Foc
operatively
dancy
▁plur
ylcyste
stit
cludes
▁chondroepiphys
▁nig
uslim
▁desirable
quar
▁newb
cale
osin
onse
celer
vation
igarettes
lysis
hil
▁Elder
▁intrauterine
eut
▁persp
▁ultrasound
▁85%
▁CAM
ostom
▁enrollees
▁shif
▁traum
thwe
vati
▁prenatal
▁disapp
atine
▁HINT
▁workload
▁discrimin
junostomy
▁31-
odif
▁infusion
▁WMAs
▁contextualized
ymp
ountr
entiv
copist
cest
dra
reptococci
▁hydatidiform
▁headache
lel
ustments
▁multif
uence
049
hemothe
hocar
▁thromboly
▁revis
destructive
ukocyte
▁uncomp
nutr
enojejunostomy
▁Laparoscop
EBW
strate
genic
▁aggravating
ertise
omatic
▁Fract
ouns
sych
acis
zal
erange
▁DSE
▁glu
▁infli
▁neo
enig
alues
munom
adofos
lur
iating
ipip
▁pneum
oqu
▁Parental
▁predictability
onth
totic
oem
hone
entative
▁Northeastern
ounded
▁otor
ansl
isia
ugulotympanic
▁muscl
aluation
udit
ultid
hemia
TK
sels
▁suggestive
enl
irls
▁radiographic
irr
▁mak
lous
inil
alancing
umon
lT
ionals
▁sclerosis
urologic
▁QT
▁suppressing
tective
▁vertebroplasty
▁aloe
▁cultur
arad
nul
▁TK
terial
elmisartan
egis
▁supervision
rehension
▁chemot
▁constitutes
▁paro
▁gastric
▁CCB
cysteine
ipul
pment
▁oes
▁whit
ective
inq
▁definitive
▁Ongoing
lows
▁througho
▁Langu
OADs
▁eno
▁sphinct
▁milled
loride
atients
Dop
▁dysf
eview
eterm
centr
▁PAN
▁undi
ustrate
uloskeletal
▁answe
Bur
▁nonad
didate
85
eomet
TB
▁standardis
▁referrals
▁omit
enef
▁VEGF
▁effic
oride
▁hygi
▁exposures
29
rendelenburg
▁laparoscopy
Mi
HF
atidiform
▁utilization
cter
oing
EOAE
▁QOL
▁landmark
OQI
Dcast
▁midf
erper
▁Estrogen
▁arre
uil
▁Evaluating
oimmun
tinence
transplantation
ortional
alignment
ygia
olishes
sC
utic
edside
▁resonance
▁ageing
▁monouns
olumn
▁migraine
▁APBI
orit
Nm
onut
▁BMP
ocio
urve
▁outperformed
counte
▁contam
▁postoperatively
▁discriminative
urgery
itioning
weden
▁vulnerability
▁staffing
cident
dnisone
▁IVF
▁CRP
0-57
ipat
edat
lenectomy
▁Thes
acrific
▁Normothermic
1-3
Tes
urative
ctiv
▁seafarers
idely
incidence
▁vomiting
uner
essm
identific
▁staging
rendel
▁enj
terl
kath
ptim
▁tobac
ccur
MIC
pical
eriz
lid
▁hemody
HM
▁Chronic
iasis
uco
thenopia
reatment
oug
ucleus
▁MRCG
mutant
quence
▁eosinophilic
ancreas
▁DFS
vein
▁histopatholog
ptures
gastric
verly
ingful
sod
clusal
uptured
▁gat
▁subforms
caem
imensions
▁DFV
▁Chest
rre
ceptors
▁aden
naly
asom
thopaedic
ilateral
▁IHD
▁8.2%).
ucos
▁sonograms
allenges
atist
dial
▁prostate
▁Addition
8.
thopa
▁ADH
▁nonort
▁OPLL
▁deform
▁substages
terminate
eutic
▁Masala
▁haemorrhage
▁referral
ceptual
▁reagent
gist
ensit
genes
▁aerob
upffer
liom
omies
cti
▁unsuc
stitutional
▁cigaret
ariab
erontol
▁illicit
acteraemia
cence
ervations
gul
▁throm
▁reas
cribing
▁pancreatic
munolog
rested
▁CIED
raduate
wel
▁predicts
hical
cem
▁popl
ffer
anspl
enign
LF
fat
welf
ovel
leration
isable
ivoc
imu
enosynovitis
▁appendic
▁tertiary
▁hyperg
▁numb
sychological
▁immunomodul
MPM
▁endothelin
▁stu
▁MHC
dictab
▁eradication
ronchoscopy
acental
▁anot
ouraged
▁chemoradiation
brov
▁reflu
ficult
6%
▁earli
endov
lecular
ioid
othelin
▁underest
Ta
▁Conveyance
nitive
▁intra
idne
sation
▁MPV
iteo
▁adop
dicitis
ustification
itical
cinoma
ampaign
irway
discharge
▁NCCT
▁influen
▁RARC
oref
▁diabetic
dications
60
endit
▁PRP
rapeutic
(5
▁nosocom
arrant
echniqu
▁aris
arrier
cussions
utati
▁somatic
orator
ractive
▁nul
▁pharmacokin
nec
▁RAI
▁purp
cture
optotic
imension
tebrop
▁memb
tectant
tated
ultr
atonin
derly
wly
nter
▁subsp
▁endoscop
lesion
▁biases
estion
▁Whil
quen
▁fluoroquinol
▁lansoprazole
▁pharmacoresist
oq
▁stel
istently
Edu
ariability
exam
▁2007
▁internationally
tur
Hb
9,
▁ULT
lorid
▁lunar
comf
mographic
▁follicle
edle
▁pneumon
alm
▁pertro
sleeve
ainst
▁speculated
▁synergist
phosphonate
kewed
Saharan
▁uncomplicated
kend
antag
acet
▁siz
▁tet
tebroplasty
▁cerebrovascular
zle
▁pediatric
▁preoperatively
iferol
wit
▁carbohydr
▁tumour
▁vancomycin
algesia
ojejunostomy
phol
▁diagnos
ometr
ofosveset
▁-0.5
▁nosoc
cidence
pport
TU
enom
21
▁remission
ectly
▁tumors
sus
▁oncos
zar
alence
▁Dopamine
iformity
▁warrants
▁GFR
▁avas
oten
▁Nontr
idect
▁EOA
UNA
▁variab
ochlear
misp
bent
▁morbidities
▁taugh
▁inhibin
▁diap
▁moles
versa
etors
▁Adherence
curate
rols
domen
99
ongit
tec
▁LUS
▁nulliparous
▁contral
▁physiotherapy
agal
ectomies
derg
▁Fent
percept
tst
▁chemok
▁Identifying
032.
inm
▁ligh
ighe
iquid
atisation
onographic
rombolysis
▁evaluating
▁ef
▁oncop
sS
ssoci
lates
▁isc
▁hyperfiltration
teries
▁prevalent
▁unst
▁Adverse
▁adjunct
▁admiss
ipating
salv
ageal
idized
ovit
▁PCR
▁endometr
coprote
uscl
▁judged
fet
irment
▁insul
umatic
▁hypox
▁Bioc
▁subj
▁clinicians
▁assay
econdary
▁musculoskeletal
▁reforms
pple
▁hospitalized
endothe
▁Surgical
▁caref
gid
ancre
ilk
ipulations
ipraz
idemic
ggests
▁systemat
iH
▁cleans
▁ventilatory
ralat
fere
imodality
▁UTUC
vera
ameters
icron
igravid
▁altho
▁telmis
estive
▁malign
ielect
▁dysg
tent
iciar
erable
▁transureth
▁validated
rC
▁superficial
▁surp
ophage
usce
▁peroneal
ralateral
ingin
ansf
▁Ket
▁kinem
▁cystoscopy
1)
amined
▁eo
hysici
escent
Tn
▁pharmacists
▁refraction
▁ultim
minist
entists
▁dysar
iothe
▁LOS
▁suprap
henoidal
▁naltrex
▁endometrially
▁endarterectomy
▁edar
oroc
▁neit
ovative
rare
▁derangement
echn
jun
isone
mentary
46
pir
▁palsy
▁exter
aref
ctoc
▁fluoroqu
▁Improved
▁mainstays
ultif
omog
onent
aract
hyroidism
▁HDM
stem
ligoarthr
orari
ignific
thre
▁discor
plated
▁capp
onylurea
▁hu
reas
TUC
▁TBI
ctit
edtime
MV
▁vascular
ostomy
copathy
▁appropriateness
enro
▁polyps
lest
▁volumetric
▁percut
idit
equate
rental
easur
orac
▁poisoning
70-
uret
stro
rotect
Cer
atolog
refe
▁confound
Fen
▁avascular
▁induction
▁CRT
partment
▁specul
▁Comparison
rements
▁hemodial
▁79
▁equivocal
inage
▁biopsies
▁unab
inguishing
ortality
▁prelo
acetylcyste
▁theo
psis
olerated
▁Pag
▁oxygenation
▁lithotr
▁statin
▁prognosis
▁cancellous
▁provocation
erol
▁progn
odel
Ea
lant
entit
ocioeconomic
arried
uab
▁IUD
▁Bene
lasting
▁Kupffer
▁deat
clinical
BWL
normality
aple
ivate
egist
inctions
itish
▁increas
eated
chang
▁noncited
opular
enopausal
faction
increas
▁Sonographic
▁myo
heig
vio
anding
reptococ
▁questionn
adic
roct
SQ
▁sic
▁thorac
opa
▁aspiration
loro
inemia
cored
▁tes
▁Healthy
▁vitamin
▁ATT
ffsp
▁plaqu
ultures
▁VAP
▁circumference
thn
onged
attern
▁colorectal
ospitalized
farers
etab
cern
▁influenz
viour
▁ceas
▁Prophylactic
emoval
onyl
FH
ilized
▁MRC
▁chl
herapy
ffectiven
▁clus
NAP
