roscopy
aminob
95
▁Tyr
▁depolar
▁antid
ypical
▁hamster
greater
▁preservation
hion
▁Inhib
▁benz
▁hered
▁calories
▁transcribed
▁prognostic
▁tric
ealand
▁87
▁bip
aind
▁adsorption
glycoprotein
▁adhesion
ycline
▁exerts
esic
odeoxy
▁osteoc
▁proximal
fibr
▁Mortality
ials
▁enhancer
hydrop
▁supine
sorption
rosy
▁assessments
▁7.3
▁smoking
▁commercially
▁persisted
▁vertebral
cholate
ications
unting
▁kallikrein
▁5.2
FSH
▁abortion
▁MAbs
▁aureus
pressing
▁selectivity
NM
antigen
▁immunotherapy
generation
▁synthesized
olved
-90
▁-6
▁schizophrenia
▁prednisone
▁transmitted
▁prel
▁quin
▁5.0
▁inducible
arbonate
▁specialized
▁mucus
▁tendency
▁mammals
▁offspring
▁synapses
CoA
▁poten
atical
hydroxy
▁cGMP
▁rheumatic
▁Fifteen
▁genomic
erin
▁hapl
otroph
▁CFU
▁(48
▁resultant
clonal
▁islets
-30
▁aggregates
zation
lobulin
chicine
▁SHR
▁39%
▁(+)-
▁inability
idis
▁expiratory
▁venom
▁manipulation
metic
chlor
sively
▁somat
rologic
▁titration
immunoreactive
atible
▁isotonic
▁analgesia
▁myocardium
▁transpor
▁fractional
▁tendon
62
▁gyr
tracellular
▁65
▁adherence
▁proteins
▁consistently
▁juven
▁intensities
▁concentrated
▁axons
Bs
acyl
▁carrier
▁anat
8-
▁resusc
▁corresponded
+.
▁intracerebral
▁neoplastic
▁121
tering
▁depletion
gluc
orin
apeptide
▁comprising
idate
▁EGF
▁loci
▁stomach
▁CAT
zard
▁participating
▁benign
▁sulphate
▁antibiotic
atment
otypes
pran
▁medial
▁corneal
▁malign
▁restr
▁aimed
▁32
▁24-
▁instrum
▁Immun
▁Incubation
▁infections
▁Increased
oplasmic
▁28
▁accurately
vitamin
orts
▁tube
▁opi
▁122
ranged
▁denat
▁UDP
▁lactose
himbine
▁350
aric
▁Fc
anking
▁degradation
▁pressor
restric
▁spi
▁construc
▁zinc
otoxicity
▁lob
▁lam
ifferenti
▁susceptibility
.8%)
▁poorer
▁6.3
aminoglyc
▁recurrence
▁sedimentation
▁ib
queous
▁adenosine
osity
icep
ceptions
▁0.001).
urium
▁7.9
▁promoter
▁suppor
▁1.9
translated
pyr
▁Tc
▁TRH
azole
▁dextro
tinu
inositol
▁intral
▁suture
ositi
▁thiol
reness
oflurane
▁xanthine
▁electrode
▁omega
▁inoculation
▁ACh
▁crystals
▁substances
▁cimetidine
▁thymidine
▁postoperative
▁scle
▁radioligand
▁mammalian
mature
▁euth
▁tol
▁efflux
▁evolved
▁biliary
adenosine
▁74%
▁CHF
tisol
▁2%
▁enl
▁serotypes
▁arising
threatening
▁transcrip
▁104
abd
▁polymorphism
▁laser
istar
▁conclusions
8+
▁gonadotroph
▁frozen
▁NH
▁Relative
alact
▁tyrosine
▁coordination
roma
▁cruc
▁anatomic
▁81%
▁microb
▁intram
▁glutamic
tening
▁hemodialysis
ochondr
teral
▁employing
▁intercellular
/10(
▁0.0001).
▁attitudes
▁hypercal
▁substanti
▁cyclo
vaccin
▁(200
unts
▁6.1
sive
▁pulses
▁coval
▁emo
▁13%
absorption
trous
ygo
erative
▁spermatozo
▁medulla
acts
▁ml
mber
▁polypeptide
▁unrelated
obase
taz
▁shunt
-65
▁lambs
▁measurable
▁attenuation
▁seropositive
▁outs
▁intra
cellulose
▁nervous
▁TGF
iable
▁questionnaires
▁recipient
tiveness
reed
oracic
▁bioassay
▁transmitter
gland
▁potency
▁0.01),
▁Plate
▁longitudinal
▁achieving
▁determinations
▁wounds
▁adequate
▁(5-
▁inward
▁lobe
▁(8
▁10(6)
▁linole
▁0.001
▁muscles
▁parathyroid
kinson
▁radiographic
rowth
▁overe
▁reticulocyte
▁retin
▁mercury
▁doubled
isol
mTc
▁aor
▁24%
2-
▁mesenteric
▁impairment
▁scre
▁lyso
▁mating
ervo
▁enriched
▁epithelial
▁vesti
▁allergy
▁atheros
alas
▁explants
▁[35
-0
acetyl
opha
▁porcine
attered
thanolamine
▁CNS
▁intramuscular
▁potentials
mol
▁grades
▁hyperglycemia
▁employment
rosine
▁mutagenesis
uracil
▁Differen
onad
ivacaine
bilities
▁mA
▁prednis
hemat
(1
atonin
icidal
▁48
▁phasic
▁unchanged
▁cessation
▁scinti
iminary
rophy
TSH
rophob
▁utilization
▁synergistic
abies
coh
▁SRIF
▁solub
▁surfact
▁Gly
▁glucocortic
▁therapy
▁sulfate
ulmonary
▁pressures
▁effusion
▁CCK
▁sut
▁regulated
▁polymerase
▁bradyc
tle
itre
▁adrenoceptor
5;
hyp
▁proteinase
itol
▁sulfhydryl
▁GDP
▁rectal
▁cigarette
▁89%
▁facilit
▁eluc
▁compound
▁7.
▁31
▁cortic
converting
▁3
▁demonstration
▁hydrolysis
molec
▁abnormality
mong
.3
▁rupture
▁suppres
yroid
▁synaptic
▁malignancy
▁urinary
▁prenatal
retin
▁occlusion
▁rRNA
▁globulin
100
▁sphinc
▁microliters
▁seronegative
▁circadian
▁diffic
▁0.01
▁43
▁perikary
▁blotting
▁eti
orec
amic
▁tiss
▁ovaries
▁effectiveness
▁spati
▁metabolite
▁brush
▁DS
▁manu
▁disulfide
▁enzymes
▁rejection
atrial
derived
▁HLA
▁EMG
▁0.02)
opeptide
86
▁approx
xanthine
▁amyloid
ograms
derly
▁77
▁gon
▁activators
ipramine
density
ticular
▁follicle
▁pK
plast
glycerol
-4-
▁cardiopulmonary
▁taurine
▁hemisphere
▁demands
▁fertilization
▁leukemia
▁trials
▁preoperative
▁fetuses
▁determinants
▁ether
▁affecting
-3-
0)
kinje
▁arterial
▁functionally
phasic
▁incubated
▁symptomatic
glutin
idium
erated
▁9.
▁examining
▁urine
entia
nitine
▁PB
▁phy
▁antiarrhythmic
▁nonc
▁visc
endorphin
▁atopic
▁neurones
▁fluor
▁aging
heximide
▁correlates
▁tended
adrenoceptor
▁cyclosporine
▁pylori
▁cohort
ortic
▁aorta
rested
lep
▁Kd
ughter
▁resemb
5.
orrhea
▁junction
ochrom
▁similarities
▁enrolled
▁schiz
▁3).
▁ejection
immun
atitis
aemic
▁17-
▁exert
▁vimentin
▁fertil
.6
▁100
cholesterol
▁cyto
flammatory
ffer
▁predominant
sia
2)
▁2.2
▁arachidonic
▁comprised
quine
▁moderate
▁8.3
lymer
▁qualitatively
▁tracts
▁adjusted
-7)
ivered
▁opiate
chol
▁ischemia
▁fluorescent
olone
▁lymphocytes
andard
▁HTLV
horm
▁30.
▁transloc
▁transverse
▁vaccin
▁Tes
▁94
activation
insulin
oids
thym
▁gestation
▁secretagog
▁outpatient
▁automated
PGF
ifers
4),
▁ions
45
▁hemodynamic
▁modest
brids
▁benzodiazepine
rague
▁meningitis
▁ppm
rocytes
▁fibrinogen
▁immunode
▁permits
▁chromosome
eprazole
▁LTB
▁innerv
treatment
liters
▁antagon
dehyde
▁tes
asal
cortisone
fat
▁2.9
▁granulocyte
▁caffeine
▁molar
uity
▁hazard
HCO
▁nal
▁(28
▁myocardial
▁fibrillation
▁7,
▁respec
▁HeLa
▁stiff
▁amin
▁asthmatic
trol
3-
▁ganglia
▁complic
admium
▁cocaine
▁sputum
sorb
▁kDa
▁gangli
▁discon
lusion
plete
▁28%
▁HA
▁Estim
▁fluc
▁forskolin
8)
▁shortened
opulmonary
▁appreciable
transferase
▁hormones
ffec
odend
▁nmol
thle
▁weakly
▁abuse
yron
66
ensitivity
▁differentiate
▁twitch
▁degeneration
▁inactiv
titial
▁(3
▁micrograms
▁115
ferrin
▁cytokine
▁exhibits
▁PT
▁determines
▁metastasis
roglobulin
▁homogene
▁comparisons
▁BM
▁selectively
▁anion
▁PBL
iliac
▁24
▁breathing
▁concom
soluble
▁0.1
▁fluorescence
kground
▁tetracycline
▁innervated
▁differed
atab
idym
hesus
▁EG
▁intense
bodies
uccin
▁acetylcholine
▁microsomes
▁cigaret
▁Significant
essation
ameth
azol
1%
iotensin
▁synapt
▁promin
▁leakage
▁antiserum
▁recombin
▁cyan
iph
adm
▁obstruction
▁contracep
▁diastolic
1;
atell
▁isoforms
▁50%
▁(2.5
icine
▁daltons
1-
▁blast
▁inversely
▁1.4
▁SG
ulatory
▁chond
▁mitral
▁Insulin
▁awa
▁emergency
operated
-17
▁synthesis
▁dimethyl
▁apprec
▁potassium
▁7.6
EGF
▁inoc
▁leuc
▁synthetic
▁CGRP
▁antiv
▁sero
▁Indi
▁5.7
▁dete
▁enhancing
rostened
▁pleural
trone
▁menstr
▁psychiatric
0.7
▁mutants
obacter
▁oval
▁sarcoplasmic
▁prostatic
▁transferrin
▁oligonucle
▁depr
ustif
▁elimination
▁15-
▁occurring
▁ovari
incubation
▁antibodies
▁Salmonella
▁inver
▁afferents
otting
▁divalent
olesterole
glycerin
▁latency
▁alkyl
ncies
▁ascorbic
FGF
▁citrate
▁vacu
▁lysine
▁30%
▁polymer
▁WK
▁shifts
▁1-2
▁Kine
▁immunoglobulins
▁shor
▁transgenic
▁glomer
▁surveys
ceptive
ichia
▁chromatographic
ectomized
▁hap
▁endings
▁elective
PB
yzed
▁53%
▁optimum
▁PH
▁parenchymal
▁hydroph
▁1.
orated
carinic
oprol
▁practitioners
phosphor
▁undertaken
▁colonic
▁surgically
▁hospitalization
▁cG
imide
▁sensitized
▁Increases
▁basolateral
opathy
5%,
psin
▁MV
▁occluded
▁evidenced
▁contex
▁conjunction
ynthe
▁DF
▁pyruvate
mental
▁disturbances
▁ewes
olytic
rangement
▁hydrogen
accharide
oradi
▁compliance
▁malignancies
ygen
Kd
chlo
▁zym
▁IDDM
▁peaks
▁infectious
▁docum
rogen
▁chloramphenicol
conjugated
.9%)
▁ultrasound
▁cyst
▁sigma
▁continuing
▁7.7
▁pineal
-6
▁prolif
▁12.5
.9%
▁70%
▁oligonucleotide
▁19,
▁116
▁irr
▁cytotox
▁defic
astom
▁bile
8).
▁(10(-6)
▁epid
-10
enriched
▁Myocardial
▁constitutive
▁chimer
▁outpatients
▁cavity
▁phyto
▁satur
▁surge
▁Concentr
▁axonal
▁Thy
▁hypoxia
mediated
▁confirms
minal
▁Additional
oderm
▁transiently
▁Leu
▁capsaicin
iazide
▁90%
tively
ympathetic
▁7.8
▁amph
blockers
IgG
▁contributes
▁resin
orectal
magglutinin
▁perioperative
▁31%
ectom
umerous
7.
dered
▁96%
2%)
▁fasting
▁tetrac
▁vesicles
▁novo
▁filtration
▁epithel
▁regis
▁15%
▁preliminary
▁diabe
restricted
▁0.0
▁PRL
▁ips
▁inorganic
▁fatty
▁pene
▁homologous
stim
terase
+-
ylchol
▁25-
▁polysaccharide
olution
▁acces
▁exploration
trical
▁cytosolic
5,000
▁yielded
▁airway
▁bronchodil
▁pulsed
erate
▁0.14
▁gp
Leu
▁hypertension
-10(
ureus
sectional
tillation
tocin
▁unex
uble
38
▁plates
▁WHO
▁repeats
▁dialysis
motic
▁freshly
▁suicide
▁evaluating
exis
▁microns
▁PSA
▁33
29
▁develops
▁0.5
▁glucocorticoids
▁HPLC
▁hospitalized
nRH
▁parasite
▁stratum
▁irreversible
▁perip
▁ET
aryng
tory
▁RU
adrenoceptors
▁stimulated
▁(1.3
▁5%
▁adjustment
▁testosterone
▁ESR
▁washout
plic
▁disper
▁(0.4
▁7.0
oric
▁transplant
-9
seud
▁3-
▁hypothalamic
otox
▁justif
▁homogeneity
▁ole
Hg
▁findings
-2
Gl
▁doses
Ts
lymph
▁aberr
▁deter
opressin
osomes
▁hematopoietic
▁intravascular
▁multic
▁uptake
ochemistry
otone
oic
ucine
/5
▁tachyc
▁monol
▁selective
lives
▁10(
▁LTC
atology
ocellular
venous
▁termed
▁metoprolol
rosophila
▁proce
000.
▁dilated
▁strep
▁chloride
▁vag
▁ligation
gthen
▁77%
▁adrenergic
▁classified
ituitary
▁62
▁endogenous
▁clearance
▁splic
perfusion
▁endoscop
▁uterine
▁pyro
-32
▁rodent
▁(29
▁severity
tilis
odialysis
▁progressively
▁intolerance
physe
▁1-
▁eligible
▁basal
▁EGTA
▁blots
▁AVP
itary
▁pharmacological
▁monkeys
kling
▁uncoup
▁unilateral
▁(21
Gly
fused
▁inspiratory
▁abrup
▁0.
▁symptom
▁reflexes
GTP
▁tymp
▁structural
▁enzymatic
▁excretion
▁malformations
roscopic
yclo
ulates
▁proliferation
amphetamine
▁agonist
(+)-
itamin
▁juvenile
▁withdrawn
tomas
▁Experim
ogenously
▁fibrils
▁amine
▁dissociation
titu
ocytic
▁commerc
▁apical
▁hygiene
ignific
▁mammary
▁circumference
existing
▁Experiment
4/
oscop
▁foods
▁serum
▁diminished
▁isomer
▁msec
enicillin
eration
▁stimulus
▁SEM
ANP
▁libitum
fec
phosphatase
▁auditory
▁Oral
▁dietary
-6-
tia
opoietic
roprusside
▁instr
▁carcinomas
▁unde
▁isozyme
▁absorp
▁biopsy
anuary
macrophage
92
▁lipids
erad
63
abec
▁mucosa
▁extracorporeal
▁(26
▁afferent
▁repor
rever
arrhy
amino
▁plex
orubicin
▁4.1
sensitive
▁immunoreactive
embrane
▁68
▁hams
▁questionnaire
▁onc
▁(5
oes
renaline
▁glycosylated
vascular
testosterone
▁19%
brile
▁epidermis
▁cathepsin
▁restric
▁opioids
itance
▁propionate
▁0.15
▁specimen
ordance
▁hypotensive
▁catheter
▁biologically
ganglionic
otomy
ocated
ellular
▁superf
▁evaluations
▁endothelin
▁hormone
▁histone
uprofen
▁contamination
0%)
▁disrupted
▁1970
indolol
galy
▁weighing
▁measuring
▁stric
▁homogen
▁neuroendocrine
▁prolactin
▁72
▁spon
▁intraper
▁isch
▁Drosophila
▁lamb
ropyl
▁93%
▁spinal
eliac
▁hippocamp
▁serolog
toxicity
▁ovariectomized
bular
▁leukotriene
lact
▁athe
yroxine
ophilic
▁belie
▁subtype
▁Morph
alveolar
▁structurally
▁myeloma
bumin
allium
▁mug
NAc
▁fist
▁LM
minis
▁freeze
▁Eco
▁locomotor
rease
▁rele
▁immunocomp
▁arrhy
arb
▁OA
▁surround
▁wee
▁(500
phil
olipid
duce
osyl
▁treatments
clerosis
▁surgeon
▁collic
▁reveals
ylamide
▁endotoxin
75
▁91
▁Measurements
▁participate
tro
▁(10(
odium
ameter
▁ampicillin
physiological
▁infec
otor
▁deline
▁soleus
Ins
▁melanoma
▁fixation
▁periphery
▁peptides
▁kidney
▁sciatic
▁PD
▁neoplasia
▁RI
dihydro
▁purine
▁serotype
▁ventilation
▁outcomes
▁depolarizing
terminus
tiazem
aneously
▁mimic
▁supple
inflammatory
▁hematologic
▁excitation
▁allergic
▁hematoma
▁fever
▁simulated
▁1/
▁seizure
tead
▁confirmation
▁suppressive
▁Subsequent
athetic
▁26%
▁Tissue
▁87%
▁glycoproteins
tensives
-18
▁esophag
▁identifying
▁quantitative
odal
▁availability
▁trend
▁homeostasis
▁CSF
tive
▁pep
▁intracellular
▁SOD
▁dys
inyl
▁enhances
▁Bec
▁250
avail
99
lasts
ositol
▁palmit
▁600
▁concep
▁seminal
geneic
ochem
▁Hg
pressure
▁facial
7%)
▁IFN
Ps
▁antagonist
opes
ching
▁phenobarbital
▁(30
▁oncogene
odynamic
▁mucosal
▁6.
amine
▁neutropenia
trig
▁dox
apse
thmic
atosis
2+-
viral
(2+
▁reviewed
itonin
acterial
▁ori
▁disulf
0%.
kinin
osyltransferase
▁OKT
▁redox
▁heavi
▁efficacious
opamine
▁peroxidase
▁projections
keto
▁1,000
▁diagnostic
▁99%
▁attained
▁elongation
▁PAF
▁extensor
▁surveyed
50
▁poin
▁visualization
orepinephrine
▁Stimulation
▁bronch
0.8
▁schem
▁morbidity
▁abundant
ithelial
electro
▁Glu
oride
▁scans
▁cerebrospinal
ervated
▁surgery
incubated
▁Biochem
4)
18
▁protec
▁immunoassay
▁improves
▁anesthetic
▁cyt
othi
▁sympathetic
▁necrosis
▁consensus
ecal
▁cephal
▁differentially
▁isoelectric
osides
▁vascul
▁promoting
Rb
▁humoral
▁stratified
▁buc
thmias
▁MIC
▁9%
▁(3)
▁spor
▁AI
▁fmol
▁nitrate
rangements
▁thalamic
▁diame
ropine
▁criterion
tact
▁priming
▁Sephadex
DH
trating
▁secretions
▁absorb
▁gonadotrop
▁oocyte
hydrox
lastic
renol
glucose
rological
▁internalization
▁phenotypic
mega
▁DT
-1
oxidation
▁Biol
▁5.9
▁anaerobic
▁cofactor
▁chamb
▁adaptive
▁immune
▁Seventy
▁alleles
▁synthe
-40
▁stimulates
▁differe
▁3.0
▁Abnormal
▁developmental
▁transc
mediately
▁alterations
▁antitumor
asone
shaped
truc
TPA
oreg
▁parenchyma
▁collagenase
▁benzodiaz
idation
▁calcitonin
aryotic
▁negatively
▁indis
▁cartil
loon
▁nig
diabetic
▁hydroxyl
▁therapies
ologically
▁luteal
▁blas
terol
cys
▁insoluble
▁.05)
evoked
▁(60
educ
▁bones
▁osmotic
otype
▁VT
osom
arly
ritin
▁epithelium
▁reabsorption
▁SCC
▁discharged
▁replication
▁swelling
▁conges
▁deficiency
truction
ophy
▁0.09
▁irrever
▁portions
▁virtually
osylation
▁aggres
▁constitute
▁IGFBP
▁deple
▁regulatory
▁antigenic
▁Prel
odiaz
▁vitamin
▁gastr
25
▁congen
▁pharmacologic
▁(25
▁cyclooxygenase
▁flexion
▁Urinary
▁muc
▁multim
▁deleterious
▁thyroid
▁concentrations
▁pharmacokinetic
arate
transfer
odil
▁enlargement
agic
▁0.04
allikrein
▁acquisition
▁cholec
▁oxytocin
tives
▁heteroz
▁lens
▁osmolality
renal
10.
▁synthase
▁joints
▁nuclei
olig
▁VLDL
▁sugars
▁adoles
▁145
▁trauma
methyl
▁selen
sor
▁spike
▁sham
▁rearrangements
▁demonstrating
▁Meth
▁esters
peak
▁livers
▁examined
▁nodules
▁(38
▁subcl
▁microtubules
-34
▁insertion
12
85
▁platelets
Phe
▁suppression
trypsin
-80
▁mediates
▁Graves
igand
▁diseases
▁ectopic
▁quantified
▁diarr
▁enlarged
▁antidepress
▁systolic
ocyst
(1,
▁4.2
4%)
▁prostaglandins
▁oriented
▁exceeded
itin
▁amplified
▁Bacter
HF
▁doxorubicin
ocamp
ucleotide
▁-0.
yses
chymal
▁3'-
▁cholesterol
▁cardiomyopathy
▁MT
▁diarrhea
▁Twelve
resid
▁phospholipid
▁nursing
olecular
sts
▁kain
▁laboratory
▁amygdal
IDDM
▁pathogenic
▁efficacy
▁ribosomal
▁stimulating
trogen
ietic
▁ICP
ompan
angiotensin
▁retinoic
ethylene
atectomy
otre
▁exposure
▁195
▁peripher
▁85
▁erythrocyte
achid
average
▁deposits
myc
▁genotype
▁thalamus
▁hybridized
injection
▁verapamil
▁reductions
▁sple
450
▁aromatic
isomer
▁adduct
.2%)
▁anesthetized
cture
▁incontin
apanese
▁stenosis
▁adenomas
tition
▁ey
virus
▁encephal
▁Fifty
polar
▁aortic
▁conductance
regulated
▁incision
▁exce
▁1-3
▁targeting
▁stimulatory
plications
imetry
osome
mobil
▁releasing
▁GV
▁7
▁dial
uspid
▁antigens
meth
CAM
▁laboratories
▁regurgitation
weighted
lactam
aspartate
▁ald
▁discriminate
▁disability
▁ultrastructural
▁proportions
monstr
tosis
▁fistula
▁diuretic
▁30
tine
▁resemble
▁Intra
▁cytology
▁astro
▁97
1%)
▁inducing
▁luteinizing
▁cerebro
▁transcripts
▁neuros
▁visits
tochemistry
kers
▁neutrop
▁blockade
▁ect
▁lumb
IIIa
▁fluores
▁vaccine
▁paras
HV
esity
▁utilizing
▁ionophore
onvul
▁remo
22
▁grading
omonas
▁imaging
▁antimicrobial
▁incid
▁residues
▁98%
▁Cardi
terin
ocul
▁glut
ometh
▁Lys
▁reveal
▁6.7
▁retur
erebral
▁infarct
achnoid
ofl
onephritis
▁digoxin
▁duoden
▁stiffness
invasive
▁retrospectively
-200
▁mononuclear
▁7.1
▁ank
▁muscul
acement
▁dendritic
▁27
▁HDL
oxif
7),
heal
thma
epithelial
▁Approximately
▁constric
▁balloon
▁capsule
▁0,
▁cardiople
▁ionized
▁autoradi
▁increas
▁233
▁consumed
ported
▁killer
▁postin
rometry
-28
▁formulation
▁synap
▁ipsilateral
▁1000
▁1/2
▁dopaminergic
▁HF
▁(300
▁phenomenon
▁cros
tral
-19
61
▁exogenous
▁analgesic
▁quiescent
urther
▁transient
▁objec
▁incis
keleton
▁(150
▁AML
▁peritoneal
▁densities
lym
▁RNAs
10-
throm
7-
▁follicles
▁ODC
sian
▁immobilized
▁serological
▁11-
▁inherent
▁successive
▁pmol
▁tris
operatively
1,
ivation
▁sarcoma
▁contractility
▁chondroitin
▁elec
▁acidosis
ergic
▁embryonic
duced
tents
▁chromat
▁inconsistent
▁overl
▁elic
▁sput
▁1989
PGE
▁fetus
▁mimicked
▁20
tee
oscopy
▁covalent
osus
maximal
MV
▁leuk
▁excl
lofen
▁bioavailability
9%)
15
ergency
▁neuromuscular
▁avid
operative
▁fibers
▁succinate
▁hybrids
median
▁tracheal
▁Staphylococcus
vian
▁sulf
▁physiology
▁ELISA
▁32%
▁198
▁0.02).
adrenaline
▁7.4
▁electrophoresis
▁mildly
▁DNAs
▁exagger
▁discrep
▁antigen
ocytochemistry
▁controversial
▁likelihood
300
▁salivary
00,
▁glucagon
▁unid
▁recru
▁prevented
▁contraceptive
▁tension
▁damaged
▁negl
usp
exposed
▁98
▁exchan
▁respiratory
▁augmentation
lated
▁BCG
▁ranitidine
▁currents
▁surf
▁indicative
toph
uppression
conjug
▁obesity
▁Pseudomonas
▁incomp
▁advan
▁caudate
-)-
▁64%
▁echocardi
▁excitatory
▁mitotic
▁labeling
rospor
▁antide
3/
tetr
▁creatine
-198
▁atropine
▁AUC
▁pneumoniae
▁risks
▁undergone
▁47
▁lipid
▁mechanisms
▁cortex
▁reproduc
▁fractionated
▁nasal
▁fluo
14
▁hypothal
▁agarose
trum
othane
lyc
▁Cys
▁exposures
▁lith
▁lectin
roscop
ygous
eminal
▁scintigraphy
▁steroid
▁22%
▁constituted
2%
leucine
▁mild
inephrine
▁percentages
BT
▁evoked
dition
▁allogeneic
▁tolerance
▁psor
▁velocities
ipr
▁neurological
▁breakdown
)2
itant
fluoro
-9)
▁morphologically
▁glomerul
▁influenzae
▁deform
ophore
ropha
▁inducer
▁additionally
▁aneurys
▁endothelium
▁dehydration
▁chan
phic
carbox
HDL
▁methionine
▁difficul
arent
▁mathem
▁Alzheimer
▁viability
▁mmol
lyce
▁aluminum
▁umb
▁dioxide
▁exhaus
▁mobilization
ifed
▁Sertoli
▁chemically
▁phosphorylated
▁intron
▁vasoconstrictor
▁AMI
posal
▁1%
▁thickening
▁predominantly
73
▁unres
opropyl
tum
igible
astolic
▁posttrans
▁44
▁autonomic
▁pneum
▁TSH
▁artery
▁analogs
Nase
▁3%
▁oes
▁hydrox
▁PHA
▁nocturnal
▁myelin
▁800
illance
▁distal
▁chromosomes
jun
▁athle
▁IgA
luding
0-
parathyroidism
▁CN
▁cytoskeletal
▁114
muc
▁beads
cessive
alanine
▁eluted
tens
pharose
▁elong
ermal
razole
▁emptying
▁lasted
platin
itals
▁metastatic
▁Staphyloc
▁Serum
arone
▁stimul
▁LV
▁epilepsy
▁secretory
▁prescribed
▁TM
▁obstructive
▁attending
went
issive
▁wash
▁malignant
58
uran
▁alumin
thmatic
▁hyperpolar
▁polys
▁antagonized
▁89
entral
▁disorder
oxin
▁125
▁cultured
▁competent
ymme
tein
▁albumin
rosemide
▁immunobl
▁hippocampal
▁BAL
▁1,25(
enol
▁60
eptides
▁affects
▁judged
▁tau
▁8-
▁heterogeneous
ressed
▁monomeric
uminal
▁illness
▁modulate
.2
ranial
▁0.05)
▁subunit
spective
etitive
▁arrhythmia
▁feeding
apeutic
▁plas
57
ofluores
▁5.3
▁AChE
oblastic
roprus
tructed
▁immunodef
▁oxidative
▁1.6
centr
▁allergen
▁Renal
▁43%
▁probe
▁deterioration
▁71%
▁fibrob
▁DEAE
acholine
▁CHO
10,
▁LPS
▁ventilatory
▁cesarean
▁alcohol
▁PP
▁glyc
▁repetitive
phosphon
▁(7
▁5.1
▁outbreak
▁medications
▁testis
▁(1.6
▁endoscopy
▁dimers
▁interviewed
▁diagnosed
produc
77
hCG
.0%
othal
macropha
▁deoxyrib
▁patency
▁seas
▁metastases
▁enteric
▁cleavage
▁plac
acrine
esin
adex
▁nons
▁helix
▁induc
▁cytologic
yronine
▁prednisolone
▁0.20
▁stu
▁decarbox
ropo
ercul
▁eosinophil
▁motone
▁cytolytic
▁smears
▁Comparison
azem
acetate
inic
▁superoxide
▁gelatin
spectively
▁recruitment
▁1.25
▁diagnosis
ostic
▁sepsis
▁scientif
▁epsilon
▁cation
▁chor
▁regulation
▁76
▁antagonists
ellar
▁Measure
zotocin
iatric
▁dodecyl
31
▁autoradiography
uretics
eptide
ATPase
▁microscop
▁7.5
▁CsA
▁responded
▁oestradiol
▁routinely
▁79%
resting
▁PGI
phot
hist
aemia
▁1.5
▁algor
▁10,
▁clinically
▁quantit
+,
▁peroxis
fos
▁discrimination
occal
terologous
▁scaven
ialysis
▁tetan
sives
▁tetrodotoxin
MG
trodotoxin
ximide
▁correspon
▁atherosclerosis
idone
▁VO
toc
rosal
▁55
▁slices
▁isolate
▁PDGF
keratin
onucle
▁epinephrine
▁catecholamine
▁identi
partate
tructive
▁Tum
alc
▁Intr
trib
helium
▁intrauterine
▁GABA
▁dopamine
42
▁TA
▁40,
▁neoplas
▁enhancement
▁Arter
/100
▁veins
cents
uclear
▁adolescent
▁homogenate
gangl
▁aqueous
▁indirectly
▁aggregation
▁perfusion
ication
valence
chloride
turnal
▁30,
▁basement
▁16-
▁heterogeneity
▁RV
▁degrad
▁intervention
farin
▁AH
▁rostr
▁10(-8)
▁neonatal
▁predomin
thrombin
▁thymus
▁Inhibition
▁initiate
Ki
alsy
▁admissions
▁aberrant
PMN
▁neurob
▁Purkinje
jec
▁radioimmuno
▁iodine
▁complementary
▁coupled
▁132
idine
igenic
ithi
▁creatinine
▁weighed
▁amylase
2(+)-
▁grafting
0%,
▁3.7
aced
▁extraction
▁decade
▁estimating
▁erythropo
▁galactose
oproterenol
rents
▁suppressor
▁laminin
▁nausea
Ala
▁mec
▁gradients
ylcholine
enic
▁titers
▁Thirteen
ithin
▁characteris
ifferentiated
atine
onuclease
▁(4-
corrected
▁ranging
▁cardiac
oxone
▁predictors
▁kit
▁microm
▁myel
▁beneficial
▁organelles
▁hyperch
-1-
ygdal
ocar
-5)
▁cations
▁filament
▁staging
▁1
-24
46
thi
▁mitogenic
dimethyl
▁2.0
▁100-
▁washed
oside
▁optic
titis
▁vomiting
▁blacks
▁recurrences
▁45%
+/-
▁pig
▁symp
micro
responsive
▁synov
▁(95%
dyle
▁deficient
drug
opolysaccharide
anded
▁disrup
▁ingestion
▁androgen
▁premature
▁cholinergic
▁contributing
rought
▁twofold
erance
▁intensive
reast
▁endemic
plasia
ilical
▁acinar
-3)
.3%)
▁raphe
Mg
▁proteolysis
▁14,
iliary
▁8.2
acetic
▁slowing
▁endometrium
▁reac
olamine
▁myo
enopus
▁lymphoid
▁10)
▁sial
▁carotid
▁mothers
▁diacylglycerol
imid
Dawley
▁hypertrophy
▁reagent
▁weaning
-14
▁pulsatile
▁1980
ffinities
ogens
▁sperm
▁6,
▁capillary
tization
▁nonspecific
▁ventilated
eradish
▁aerobic
upus
▁cytos
feron
aid
▁Examination
▁erythromycin
sy
▁leukotri
▁posi
3+
Glc
▁40.
▁Exposure
▁facilitation
metabol
▁techniqu
▁admission
▁HL
▁gains
▁proteases
othyronine
▁placebo
IgA
▁epitope
▁Reduction
bac
▁lapa
osomal
nutrition
▁Leuk
ovascular
▁mediators
urations
▁prol
arachnoid
▁cultures
▁inhibits
ereb
▁nicotine
▁proline
▁immunoprec
▁ligament
▁rhin
▁13,
labelled
ubiqu
▁recombinant
▁63%
▁injec
alian
ortal
▁plasminogen
▁analogues
▁Interestingly
▁yeast
▁41%
▁exclusion
▁allogra
▁Antibodies
▁chicken
▁neurom
▁2.4
robial
glycer
▁48-
tious
▁deaths
oretic
▁morb
▁predictor
▁catab
▁osm
▁Increas
enh
▁transduc
helial
rection
duction
▁umbilical
▁kinetics
▁asymptomatic
ochle
▁KCl
▁exaggerated
posure
▁VP
▁cervical
ureth
entif
rogenic
▁NADPH
▁horseradish
▁aden
▁ADH
▁coronary
▁PI
Hu
▁bradycardia
glutinin
ylic
0.2
MHC
▁junctions
▁calor
▁ech
responding
▁95%
▁dramatic
▁proliferating
▁alcoholic
▁dex
▁HC
60
▁hypothyroid
epam
▁congenital
uctose
trin
5%),
▁prosthetic
▁phenomena
▁HbA
▁dib
▁motif
chym
▁phenylephrine
▁128
▁Hyd
▁acros
▁proliferative
▁analogous
anine
▁micron
▁5
▁colonies
▁adenylate
▁influx
ophosphate
ydig
▁26
▁pancreatitis
▁myof
▁hypers
▁potenti
▁myocytes
▁2000
ovine
▁chest
▁3.1
acr
▁follicular
▁+/-
pread
▁downstream
oconstric
tin
aline
▁biopsies
▁pancreas
▁sour
ophen
▁duct
▁radioactivity
▁transplants
▁ribosomes
,000
▁peptide
▁intox
oactive
▁pathology
▁progestin
▁hydrophilic
icients
iaz
▁deduced
▁(9
▁40
▁preven
▁4
▁0.11
90)
▁discharge
oxal
▁potencies
▁precursor
▁pigs
ypro
▁corpus
incip
▁TT
▁emotional
▁pregnant
▁tobacco
▁rhy
ulin
▁CAP
▁cirrhosis
▁triti
▁13-
▁.00
▁habits
▁hemorrh
▁carcin
pite
▁percutaneous
(2+)-
▁oligodend
▁cytokines
apsulated
▁accounted
▁resting
rofen
▁saline
▁gonad
▁hemo
▁segmental
▁supernat
IgM
▁8)
▁stain
▁venti
▁progn
otide
▁pertussis
▁libr
▁subjective
▁8.4
meas
▁chimeric
anad
▁68%
▁cryst
arean
cAMP
tyl
▁0.9%
ighted
▁endocardi
▁dors
tabol
20
▁intrap
TNF
violet
▁defects
51
▁catechol
▁0.7
▁TCDD
.0
riton
▁responsiveness
LH
▁lamina
▁cirrh
ergy
▁CRF
▁fibroblasts
▁synthetase
▁cholest
▁tachycardia
▁dihydro
▁marrow
urine
hydr
▁lumbar
▁organic
▁24,
Ds
unctional
▁reticulum
▁subcutaneous
▁attributable
47
▁Survival
▁400
GF
moking
prising
▁frontal
opic
icide
▁protocols
onor
▁0.06
▁entero
▁immunostaining
▁119
irradiated
▁radioactive
▁EEG
▁135
ogl
▁PTH
▁turnover
okine
▁tox
▁homoz
▁cathe
▁Tx
kely
53
▁erythrocy
▁epidemic
▁radicals
▁thrombo
▁concurrently
▁asymmetric
▁loos
9.
▁ile
▁mEq
]-
▁uterus
amethasone
▁0.2
▁LH
▁controlling
▁nodal
▁swine
asive
tryptamine
trient
▁AII
▁inoculated
imolar
illin
▁Recently
2+]
▁1.2
▁76%
▁depolarization
esides
oinositi
rolase
▁transcription
ucose
▁conjugates
▁viral
▁atenolol
onegative
▁leukaemia
▁37%
▁verbal
phadex
▁membrane
▁lysozyme
arrhythmic
bral
ranolol
▁elu
▁Changes
▁critically
ystic
▁esterase
▁shear
▁aldosterone
▁naloxone
▁ane
▁diets
educed
2).
▁persistence
▁oxygen
▁fluctu
rox
▁sensitivities
▁persis
▁macromolec
2+.
phage
▁gels
▁Cardiac
▁dose
encephalic
▁1987
▁metabolites
▁hospitals
▁reproducible
▁choles
▁Subjects
▁bic
▁Disease
▁14
feren
▁responders
▁epicardial
▁50%,
▁methyl
▁TB
usal
thase
▁Streptococcus
▁120
lue
▁inhib
▁HB
▁mediator
▁(0.0
affec
omical
▁thymocytes
▁chronic
▁Mn
▁unstimulated
ysm
osine
eptidase
▁diethyl
▁triglycer
reactivity
▁Ace
▁onset
▁actin
▁neoplasms
▁susceptible
▁recurrent
▁21
orh
▁alteration
▁bone
teroid
lycemic
NK
▁preterm
peptide
▁skeletal
▁atherosclerotic
▁arrhythmias
▁distor
▁rheumatoid
▁describ
bloc
▁dilatation
▁prevention
erox
0%).
achol
▁chym
ximal
▁carcinogen
▁nurses
▁chromosomal
80
▁pyramidal
hepatic
▁2.5-
▁42%
▁predictive
carb
▁tomography
▁initiation
tonic
gated
habil
lux
▁cervix
aminophen
▁liposomes
▁folate
▁chec
muscle
.7
opa
▁4).
▁ionic
▁diges
▁(6
inhib
▁dB
▁probes
ropriate
▁transcript
3).
atchard
▁distress
▁capsules
requ
▁illus
▁saturation
▁dilution
lysine
ivac
▁124
selective
▁histological
▁inges
▁(19
▁intrac
▁neurogenic
-1.1
▁typhimurium
▁drinking
▁cytometry
▁solubilized
▁vasodilator
rays
▁rIL
tries
▁predic
ogenous
▁melatonin
olarization
glucuron
onary
▁gangl
▁cDNAs
obarbital
▁terminus
▁67%
kets
▁varies
trition
▁intake
-8
▁(100
▁cardiovascular
▁polyc
▁preval
▁phosph
▁-2
▁eosin
ocaine
▁answ
hydropyridine
▁subpopulation
▁fibroblast
▁pediatric
▁ileum
▁monos
▁histamine
taining
▁cytoplasmic
▁attenuated
▁prosthe
▁180
▁investigators
▁3.3
▁strom
OA
▁overload
rati
▁38
▁0.12
▁4.3
▁histology
▁melan
▁arter
▁hydroly
10)
▁panc
▁biosynthe
tox
▁tumour
▁21-
▁phagocytic
tissue
pregnant
oplastic
▁infiltration
▁ester
▁artic
▁cured
▁methotrexate
▁bolus
▁Nineteen
+]
▁Statistical
▁36
▁bromocriptine
ensity
▁GA
immuno
oste
▁Nine
deple
▁microtubule
forming
▁compli
▁encephalopathy
▁HS
▁82
▁puls
▁transplantation
promazine
▁nicotinic
▁substantia
▁isotope
SOD
SAID
▁enal
▁78
modified
▁gly
▁graded
ylase
-3
▁magnesium
plants
▁ery
osin
▁astrocytes
unctions
▁theore
▁LN
▁Plas
▁granulocytes
0.5
▁reserpine
onography
▁disorders
ylate
nitros
▁cortical
▁aneup
respective
▁BK
aired
ogra
▁condens
▁paren
▁lidocaine
▁staining
▁38%
▁supplemented
▁hypo
▁interf
ept
avage
-1,
▁equilibr
▁stained
sities
▁RII
tics
▁venous
▁94%
▁moiety
▁microscope
49
▁detec
▁pharmacokine
▁angiographic
▁protective
ovirus
▁isot
omorphine
▁cys
▁lesions
▁toge
▁cloning
openia
▁practition
▁kinases
▁cancers
urin
▁lysosomes
▁insensitive
▁cycloheximide
▁normalization
▁specificities
43
▁Forty
▁amputation
▁agglutination
onium
▁2.5
▁iodide
icin
▁colorectal
▁fasted
wes
▁experim
▁crosso
amicin
iesis
▁pars
tidine
reduced
6%
selec
▁immunore
comitant
▁dias
cardi
▁cyanide
sized
▁cycling
▁conformation
orac
▁sten
mg
▁4.4
▁64
▁adverse
▁responding
120
▁influences
vac
esium
▁quies
▁220
adequ
ucle
▁therap
semin
▁acetic
6-
▁Respon
▁norepinephrine
PAP
▁lungs
▁epidemiologic
▁proteoglycans
▁rup
▁irrespective
▁phosphatid
altered
▁epididym
▁Scatchard
▁fractures
▁herpes
leukin
resist
ffinity
▁bovine
▁Sprague
▁46%
eled
▁perme
▁clinical
ocomp
▁Various
▁topoisomerase
▁retrograde
osum
kelet
.6%)
▁monocytes
▁induces
oratory
▁phosphates
mitters
▁mesang
▁underwent
39
▁Pretreatment
▁Phen
tetra
▁substituted
kage
▁bursts
▁pH
▁tooth
istribution
erence
▁grain
terolog
59
ture
▁anemia
ymp
2;
▁50-
BH
▁42
▁Wistar
▁elastase
▁glutamate
idespread
▁acidification
matched
otrexate
▁multiv
▁(13
▁Saccharomyces
▁16%
▁colitis
▁assessing
glyc
clamp
▁anesthe
oA
oplas
▁sinus
▁embryos
▁transforming
yro
olestero
▁reversibly
▁sampled
plantation
▁protr
▁pHi
▁neutrophils
▁cann
▁mannose
▁(1
▁hypotension
▁glycerol
▁messenger
ceived
▁exerted
▁parox
▁oxygenation
ongest
▁secretion
▁validated
▁truncated
▁ICU
ochrome
tors
▁anastomosis
▁0%
▁mast
▁33%
UV
▁mediating
▁adjus
▁dysfunction
▁(24
pain
eroxide
▁monocyte
▁isolates
▁topical
72
▁focusing
▁uter
gnetic
▁accidents
▁trigeminal
▁reversed
▁88%
sess
0.3
infected
eryth
opr
▁regulate
▁PMA
▁precursors
▁(43
▁nutrient
▁retic
guan
▁41
ubicin
uation
adjusted
▁(33
▁summarized
▁weigh
itidine
▁immunosuppres
ongue
olgi
▁pathogenesis
▁soy
▁chel
▁hig
▁99
▁17,
echanical
affected
arynx
vices
embran
▁anxiety
▁virtu
turally
methoxy
▁forearm
kephalin
▁mmHg
inergic
▁105
gm
▁thym
▁absorption
embry
▁gallbladder
adecan
▁conformational
ensory
▁(14
early
emic
▁dramatically
conversion
ophilus
/4
▁estrogen
phosphatid
▁antibiotics
▁unil
▁accounting
▁0.03
▁(16
trus
▁Rats
▁Conversely
▁polypeptides
▁lateral
▁tryptophan
opathological
94
▁isoprenaline
▁Activation
effects
▁protons
strand
▁(46
▁NaCl
▁PCR
▁gonadotrophin
zot
▁investigations
▁cerv
▁RS
▁6)
ocytes
▁incorporated
▁alkaline
▁mim
intestinal
illation
▁accompanying
▁-1
▁collecting
regn
▁53
▁10-
▁carcinogenesis
▁cholecystokinin
▁synerg
▁nitro
▁triglyceride
▁arti
0%),
icated
2318
tophan
▁scanning
▁multicenter
reactive
▁preparations
▁perfor
otri
▁oocytes
▁athletes
▁dementia
ensi
ctive
▁replic
▁ethnic
otoxin
▁1.1
▁analyzed
▁46
▁heterologous
▁sucrose
▁diameters
▁syndrome
▁elevation
▁latent
ults
▁alternating
▁Schwann
ducing
▁clon
▁attain
▁exhibit
▁guinea
henyl
▁profound
ischem
acted
▁healing
osamine
epti
▁excre
inj
▁serine
▁shifted
▁preferential
▁Thir
▁schedules
▁distin
▁Cul
▁plexus
▁lesion
▁bronchitis
▁promoters
▁Acute
▁parac
▁accumulated
ycin
▁lavage
▁spectroscopy
▁malaria
+/
▁enzyme
▁hypot
▁lymph
▁(50
▁MCF
zyme
▁144
▁iso
VT
▁2)
rhy
ymptomatic
▁dispersed
▁awareness
anol
▁impair
▁subun
▁Severe
osterone
▁Eleven
▁bowel
floxacin
yx
apamil
▁70
▁decreasing
▁8.8
▁inhibiting
▁KD
▁synovial
▁prostate
pinal
▁trophob
▁crest
ellum
▁ATPase
▁amo
▁neurons
▁heterogene
crimin
▁indus
▁elderly
▁embry
vail
▁kerat
opi
▁convul
▁rhesus
▁rearrangement
roup
▁subjec
▁electrocardi
effective
:1
▁paralle
▁lytic
inase
▁dental
▁serologic
tryp
ipit
▁lacked
4%
venty
arge
▁DH
▁endot
insensitive
leuk
▁morphology
▁elicit
tase
▁hCG
adecanoyl
▁Significantly
▁operative
▁mediast
▁FEV
uridine
▁glycosylation
▁postsynaptic
vul
▁thrombocyt
▁170
▁margins
DNA
▁aeruginosa
▁2.8
▁Higher
▁20.
▁assis
▁spind
uretic
▁depres
▁horm
entified
▁plaques
tig
▁8.5
9,
▁limbs
▁ACE
alate
formations
hetamine
▁positivity
FU
▁sequentially
▁hypercalcemia
▁49
lobin
▁luminal
▁arteri
▁asymme
▁intub
▁metall
iosis
LDL
dibular
▁150
fraction
▁adenocarcin
▁phosphorus
nine
▁lysosomal
▁ure
▁diazepam
▁CMV
opeptidase
▁splicing
▁depressed
▁ulcers
xone
▁olive
▁effec
▁CBF
▁challen
▁6.9
▁adhesive
▁mono
▁lactation
▁(20
tradiol
purified
▁kidne
▁ANG
secre
▁Immuno
▁challenges
▁Sout
▁Pt
albumin
feeding
▁amniotic
▁chlor
omerular
▁headache
▁bacteria
▁ket
ocial
osylated
astatin
▁seiz
/12
prin
thel
lycerol
▁perinatal
ginine
▁terat
▁surfactant
▁modalities
▁phospholipase
▁ischem
▁Groups
eal
▁muscular
angi
ogeneic
▁cytoch
▁Compared
▁interference
ulae
kelihood
▁metast
▁determination
69
▁acids
▁phospholip
uoden
requency
▁hepatic
▁radionucl
▁fentanyl
▁shar
gestin
▁phag
▁fractionation
▁hepar
0,
▁mitogen
▁Evidence
respon
rected
tic
stranded
opoly
▁91%
rine
▁triglycerides
▁comparable
▁NADH
▁affec
atinine
ifug
owever
▁substrates
▁recognizes
Cs
▁extrac
▁cerevisiae
elec
▁contras
▁behaviors
ilateral
▁motoneurons
omegalovirus
aturation
▁compartment
struc
▁[125
/8
ytoin
▁receptive
▁cortisol
▁statis
geal
uvate
▁receptor
▁instability
ostatic
▁insulin
▁bp
aginal
▁preparation
▁resembled
▁detergent
▁complications
iably
▁compounds
▁hepatocyte
▁maturity
propyl
▁kidneys
otent
saccharide
▁relapses
▁23%
ographically
▁vein
tation
▁10.
▁DL
matic
▁questionnai
inally
▁diabetic
▁glomerular
-2.
▁arterioles
▁nerves
▁2-3
▁locus
ylcholinesterase
▁54%
inamide
alp
▁alkal
▁postulated
▁axial
▁focal
rief
▁0.5,
▁shif
▁interrup
▁spectrometry
▁Chronic
▁severely
▁1:1
affinity
▁subarachnoid
▁glycine
▁hypothermia
▁Sixteen
▁polyethylene
▁jejunum
molality
▁fibrosis
▁concomitant
lood
▁qualitative
▁ammonium
▁interacts
▁polymorph
▁arteries
DG
▁encodes
▁struc
▁vaccines
▁Sequ
sulf
▁terminals
▁ulc
▁thio
▁activates
▁recombination
oyl
6)
▁phosphorylase
▁transi
bly
▁nucleus
▁6.2
▁renin
plas
.4%)
▁biphasic
▁lysates
▁bronchial
▁strips
teryl
odgkin
▁anastom
iability
▁galact
▁monolayers
▁gonadotropin
sensitivity
▁spasm
activating
▁isozymes
▁superficial
▁intracranial
▁Cells
▁fibrous
▁hydrophobic
▁aspiration
▁morphological
urane
▁pharmac
april
tized
arbox
▁inactive
▁dendri
▁maturation
▁dimer
▁0.000
▁TCR
▁diffuse
▁(75
ographs
▁phenotype
▁mediated
▁circulating
loid
▁trends
idase
▁modulated
edema
▁sclerosis
▁standardi
olipids
▁excessive
▁socioeconomic
oreceptors
ignant
opl
-4
omal
▁1,
▁8.
▁Combin
▁trich
▁reticular
antibody
▁gentamicin
▁incub
enzymes
▁BP
▁childhood
▁TS
Mu
▁restoration
▁HBsAg
▁infertility
-13
oxifen
▁sensory
bromo
▁intim
▁preferentially
-[
itrate
▁RT
ostr
▁testes
allik
▁undetectable
▁threefold
▁microv
▁PGF
▁desensitization
▁5.6
▁occl
Cu
▁12,
▁proton
▁phenylalanine
oxane
▁Addition
▁carbox
37
▁dermatitis
▁antiviral
▁neurolep
▁HPV
▁unlabeled
▁streptococci
▁myosin
His
itro
▁duplic
phragm
urys
▁bulb
athe
acting
▁tetr
▁Prol
▁poisoning
▁Sodium
▁edema
RR
▁atrophy
▁11,
▁Previous
▁thereafter
▁infection
▁LD
▁adversely
▁ae
▁0.001),
▁decreases
linked
▁enlar
▁urea
▁linearly
▁disappearance
▁10(-7)
fed
otropin
▁puncture
▁limb
▁estradiol
ELISA
▁eosinophils
▁rehabilitation
▁undergo
▁irradiated
▁LDL
tile
elic
oresis
siologic
tenance
▁haemoglobin
▁lymphomas
▁Trp
▁sialic
▁canc
rocyte
▁analges
▁smokers
▁nigra
hydroxyp
▁interne
▁cochle
▁genes
ullary
▁screening
/6
▁transfection
otropic
▁stepwise
ikary
retic
▁agar
▁TP
▁paired
▁responsive
pir
▁51
▁lipophilic
▁0.18
▁2.3
▁modality
gp
ventricular
▁PF
▁suggestive
▁reactions
▁BW
▁surviving
▁presumed
▁decisions
▁operon
▁0.05).
▁esophagus
ithine
▁126
▁anesthesia
▁excit
▁monitored
lec
▁mell
▁solvent
▁dermal
▁clonal
35
▁decreased
▁glycol
▁antibody
amination
▁targeted
tence
▁fron
ichloro
▁abor
▁tumours
▁hemoglobin
▁inhibited
▁chemicals
▁aspirin
▁RNA
▁rabbits
▁hematocrit
patient
▁quanti
phyrin
aryn
▁hamsters
▁15
▁nephropathy
▁spindle
illary
▁sequelae
-6)
flamm
▁pancre
▁wean
5'-
▁MN
ominant
▁survival
▁heme
▁129
▁prosthesis
(+)
▁cerebellar
▁uncom
deoxy
▁quantitatively
▁vege
▁averaging
-20
▁resistant
▁thrombin
▁oscillations
▁phage
yste
itone
▁pI
▁raises
▁10(-4)
Glu
▁quantitated
▁(4
nthe
tric
▁PG
▁plasmin
regulation
exc
sion
tative
EAE
▁adrenaline
▁rigid
▁(10
▁prostacyclin
▁histochemical
▁biosynthesis
▁acute
cephal
▁immunoblotting
▁implantation
▁chloro
▁accessory
urgery
odies
▁vertebr
tioned
▁muM
ffin
▁copper
▁histidine
▁hyperthyroid
fusion
ogenesis
▁inositol
▁(1)
▁nephro
rostenedione
ymptom
▁18
▁molecules
▁centr
▁130
▁parietal
▁69
▁axon
▁uncommon
ocytosis
▁affinity
▁weekly
-36
▁attitu
▁anaesthe
robic
▁(23
▁1988
▁adequ
entric
▁macrom
▁6.4
▁failures
vely
▁complaints
▁20,
▁intran
▁GFR
rates
▁spontaneously
▁viscosity
▁hepatocellular
▁transfected
hyd
siveness
▁attemp
▁multivariate
ulators
▁biological
▁enalapril
▁proteoglycan
sis
prol
▁-3
▁frog
▁guanosine
▁IgG
▁postprandial
▁continuously
siological
▁cerebellum
▁1985
▁133
0.4
▁topo
▁restor
9),
▁carbohydrates
-2-
▁refrac
▁crossover
▁immobil
armac
▁interc
velength
sial
▁placenta
▁establishing
PCR
▁seizures
▁degraded
roitin
romy
omethacin
tituted
titution
▁granul
▁diploid
▁atypical
olipoprotein
takes
▁investigated
tensity
▁ileal
▁homology
▁ferric
ycl
hest
▁Concentrations
▁subcellular
oneph
▁statistically
▁(198
ubation
nai
▁saturable
oprec
trained
ionine
▁10(3)
▁cytosol
crib
▁physiologic
bility
idol
9%
-1.
▁PGE
▁exis
measured
▁NF
▁morphologic
fetoprotein
▁differentiated
▁subunits
▁disseminated
▁reconstituted
▁anatomical
associated
▁unm
mL
etine
7).
tene
▁hind
▁1986
▁diabetics
▁traumatic
000,
▁nonpregnant
radi
▁atr
acerb
otides
thyl
sies
ses
▁immunoprecipit
▁alcoh
▁embryo
▁contamin
▁fecal
obut
▁glycoprotein
▁binds
▁bac
illar
▁survivors
sors
▁juice
▁addi
▁10(9)
loro
▁shel
▁cere
▁retinal
timulation
▁iod
ensitive
▁uro
parathyroid
▁allograft
5%).
ithm
▁macrophages
opril
▁detecting
▁deterior
▁diarrh
▁rated
▁contractile
▁myeloid
sA
abdominal
oprotein
5%
▁prothrombin
▁epidemiological
competitive
▁GHRH
▁ovulation
▁adjuvant
▁scin
▁25,
nec
▁wheat
▁gradi
▁interfer
▁limiting
▁(0
▁outgrowth
otypic
▁catabolism
▁pharm
▁nuclease
▁mening
▁amput
▁viruses
▁adducts
coated
▁adduc
96
▁bladder
erule
ilep
imidine
▁dosage
ologic
▁strain
asting
▁intravenously
▁biotin
▁placement
mide
▁relie
versely
▁toxic
plied
▁VA
▁pellets
▁vigorous
orption
▁vivo
▁hypertro
▁sarc
▁tibial
▁autoantibodies
▁electrodes
▁olfactory
eric
▁catheters
endocrine
▁stres
▁LHRH
▁strepto
▁outward
▁mutations
aryngeal
▁infarc
aminergic
3)
echan
▁Likewise
▁surviv
otopic
50)
romes
▁intestinal
▁leukemic
▁logistic
▁reliably
tial
receptors
▁reliability
▁agon
▁atten
▁helical
▁neph
▁stromal
iatum
▁nifedipine
▁92%
▁myocardi
▁comparative
5)
▁maintaining
▁resected
olute
-3.
▁Treatment
▁perfusate
▁adenoma
▁inflammation
yrate
▁electrolytes
▁mU
onset
olism
▁intact
▁choline
▁10.0
ometr
▁pronounced
▁confirming
▁drin
▁concanavalin
oxic
tality
▁weakness
encephal
ventil
▁reduc
▁coag
acchar
aptic
▁7)
▁constriction
▁cranial
▁GM
▁hydrop
enal
▁thrombolytic
▁CHD
▁sph
▁crystall
▁cleaved
▁reflecting
▁rota
▁interfere
1).
▁localized
▁amplification
▁saturated
athy
▁inhibin
▁flap
▁junctional
▁vibr
▁defec
▁moderately
ecu
▁augmented
▁pneumonia
▁viable
inely
▁latex
▁20%
▁cuff
▁Caucas
▁tumors
▁incom
ophylline
▁covalently
▁viscer
▁kb
carbon
/24
pation
▁vasoconstric
▁resour
▁voluntary
▁alanine
30
▁oxidase
▁(31
▁toxicity
▁carcinogenic
▁implying
▁medication
agonist
odop
promoting
▁cysteine
▁valve
▁spectroscop
▁surgical
hospital
▁PKC
-(1
adder
▁inflammatory
▁transmural
▁coenzyme
▁lumen
oluble
▁Surgical
tron
itic
▁preventing
▁strand
▁acqui
amid
thal
▁mutagen
▁biochemical
▁5.4
▁(5)
▁virulence
scherichia
▁simultaneous
▁depleted
▁Individual
iper
lysis
tracted
▁brainstem
▁tachy
▁calf
▁pathogens
amuscular
▁assay
▁40%
onate
mentation
▁colonization
igaret
hea
▁reticul
▁infants
▁monthly
▁1983
▁127
farction
▁promising
▁yohimbine
tally
nucle
▁Ringer
▁10(-3)
▁sacrificed
▁7-
▁carboxy
▁examination
▁lact
angl
▁Experiments
▁137
▁5)
▁increments
MH
▁pretreatment
▁trunk
▁physici
▁adipose
▁sheath
tiz
eptid
ostomy
▁pooled
▁FFA
zymes
ontal
▁amphetamine
▁muscarinic
CSF
▁parie
▁autopsy
▁mutagenic
▁enti
▁118
ysts
▁overlapping
▁.0
▁Candida
xime
▁ultrasonography
▁Holter
▁dischar
tivation
dihydroxy
▁particulate
▁ascorb
tages
▁HIV
▁membranes
▁aneurysms
.9
aund
▁specimens
ostatin
▁0.025
▁resonance
tially
ipine
▁ligand
▁subjected
▁131
ially
▁requi
▁prophylactic
▁57
▁lacks
▁(10.
▁postoperatively
accharides
▁varic
▁syngeneic
▁recur
entan
▁interstitial
-35
▁anticoagulant
loxacin
▁cysts
▁manifestations
▁sensitivity
-100
rostagland
▁cutaneous
▁inflamm
▁Ultras
▁corticos
▁rhe
▁perceived
▁endometrial
▁muscle
▁500
▁gases
▁Mg
tamine
endri
▁kinetic
monary
1),
▁permeability
19
.2%
0.9
dT
amily
▁jejun
▁endocrine
/2
ocortic
8%)
-3,
▁ascending
tically
oporosis
▁chicks
▁lasting
▁hemat
idazole
▁angiotensin
xia
▁2.6
▁reass
▁cDNA
▁mitochondria
▁3',
▁TPA
ayers
ocyt
▁RR
▁inhibitors
▁neuropathy
omes
200
toid
▁stabilized
gic
oreactive
▁LAK
ociated
▁lymphoma
▁yolk
▁discharges
▁4.0
▁fibr
▁euk
ilized
▁conditioned
luores
▁psychological
▁Subsequently
▁constr
▁biop
▁immunological
▁Radi
▁controver
▁connec
orrh
azepam
tub
.00
astric
▁metabolism
▁spikes
▁overt
irradi
▁granule
▁fiber
▁proteinuria
▁phentolamine
▁septal
▁perit
SDS
▁paral
▁endothelial
chloro
atoid
▁emphasized
osan
ncy
▁0.75
▁opioid
▁isolation
tochem
▁Strep
▁vestibular
.7%
▁endoscopic
▁saliv
▁chorionic
▁uncomplicated
ancies
▁examinations
▁hybrid
▁3)
▁resec
RF
▁sustained
▁arom
▁23
▁hygi
▁lys
lamp
ozo
%),
sue
receptor
uron
▁proteoglyc
▁plasmids
▁TC
dL
▁kcal
▁90
gely
▁streptoc
▁discrimin
▁subgroups
6),
▁discontinu
▁hereditary
▁subcutaneously
ischemic
uterine
▁furosemide
▁maternal
-4,
ipitation
ocular
▁anae
▁adenine
ensities
▁flas
7%
▁substitu
▁implants
▁neutroph
▁Preliminary
▁bFGF
▁diaz
▁2.7
▁slic
ylated
▁autologous
▁definitive
▁conclu
odopsin
▁irradiation
▁haem
esthetized
▁injected
▁involvement
trate
▁dye
▁39
versity
▁normo
▁62%
▁Calcium
plastic
RNA
▁FSH
▁occlusive
▁causal
ignificant
▁denervation
▁0.8
▁cartilage
▁61
tivity
▁suspensions
▁differen
▁ischaemic
ediatric
▁hyperthyroidism
▁prospective
▁casein
▁epitopes
▁arth
▁thickness
▁decarboxylase
filtration
▁Patients
triglycerid
▁carbam
▁immunosorbent
600
▁chickens
▁tryptic
▁86
▁elicited
▁ankle
▁bull
▁(0.1
▁bathing
▁transluminal
▁noninvasive
▁ambulatory
▁knee
▁acco
▁meals
elves
▁newborns
tensin
▁8.0
▁cisplatin
▁Intracellular
▁Injection
▁8
▁Clin
▁indi
▁parame
▁guan
cyclic
▁10.5
▁stab
5),
▁presynaptic
merc
▁mood
▁vitro
▁predicting
▁Krebs
asic
imurium
oprolol
▁carboxyl
▁muta
▁hetero
ocin
▁presum
▁insuff
▁physician
onuclear
hydryl
himb
▁randomized
uric
pregn
▁pentobarbital
▁clot
uresis
bladder
sorbed
▁lymphatic
tant
▁HP
▁somatostatin
okinetic
▁aggressive
▁pathological
itus
trates
portun
.7%)
▁arachid
▁angioplasty
▁declined
▁abnormally
▁complexes
odine
operox
▁peaked
▁saphenous
▁atrial
▁erythematosus
illaries
ionate
▁mediate
mented
▁3.8
▁GnRH
GABA
▁carbohydrate
▁Seventeen
serine
▁antic
▁wk
▁periv
▁50,
▁spont
▁titer
▁phosphate
▁synthesize
▁2
▁phosphodies
▁Reduc
▁transitions
tivated
phyl
uded
thre
▁thresholds
▁wound
▁spine
▁captopril
▁infar
▁1:
▁myofibr
releasing
ammonium
▁(18
-450
▁mamm
stimulated
▁relaxant
64
▁transplanted
▁dyst
▁poli
▁rats
▁5,
▁(39
acet
▁adminis
▁intraven
tential
▁hemorrhage
▁80
▁pathophysiology
tations
▁glial
▁examin
CDD
▁17
▁dexamethasone
overed
▁pM
oceptor
adiol
▁supplements
▁paraffin
▁natri
osensory
▁organs
▁mitochondrial
▁accid
▁circulatory
coup
methionine
riched
▁undergoing
admill
▁murine
▁.1
44
▁challenged
esthe
▁poorly
timal
▁TI
.5%)
operidol
▁intraoperative
▁stret
▁NIH
▁autoanti
▁recruited
▁antagonism
▁cran
▁spleen
tration
▁outflow
▁4,
▁parenteral
▁dehyd
▁1984
PAGE
aminop
-1),
▁nucleoside
▁rotavirus
▁Triton
oprost
▁(17
▁diabetes
▁postural
▁inhaled
▁Maximal
▁NP
▁acetyl
▁orally
▁(44
▁Cyt
Gs
▁abdominal
▁RNase
▁(40
positive
▁0.05),
▁accel
▁accep
ressing
▁schizophren
▁123
hemical
rotic
▁molec
▁infusion
oglobulin
ethanol
▁dentate
.5%
▁BALB
epine
▁cen
▁4.5
▁abolished
▁normotensive
.3%
hern
▁NAD
▁defective
▁(4)
▁swit
▁widespread
▁10(-9)
BG
▁arthritis
isomerase
limiting
irub
8),
iant
▁membran
▁micros
▁Peak
▁pacing
▁supplement
▁determinant
▁plasmid
▁capillaries
▁lesser
kDa
▁Meas
▁conservative
▁phenyl
▁upright
▁sensitization
125
urgical
▁monit
▁arousal
▁hypox
▁meth
ffeine
▁sexes
▁chronically
▁adrenal
oxia
leu
ospitals
▁vasodil
▁estrogens
▁underst
▁adipocytes
BV
▁reagents
▁neuron
▁assessed
▁pyr
uginosa
▁unresponsive
▁197
▁glands
▁resorption
oreceptor
▁monoclonal
-1.0
puts
▁resuscitation
▁3.9
▁organism
galactosidase
▁pump
▁drainage
iary
ylyl
▁genetic
▁duplex
-45
▁lymphocyte
▁sedation
emak
▁pregnancy
▁ocular
▁lethal
▁MK
▁epithelia
natal
terminal
uvant
▁preceded
▁heparin
tual
▁(22
▁pall
▁postmortem
▁glucocorticoid
▁dextran
estradiol
▁fluctuations
aturated
54
uccessful
iotics
▁tablets
▁72%
rein
▁phospho
▁sodium
▁predis
imeth
amyl
▁validity
▁pituitary
▁electrically
▁bilateral
ocompatibility
▁11%
HRP
▁septic
▁insignificant
atient
▁ventral
▁grains
crip
▁phagocytosis
arterial
transformed
vents
▁(0.
rences
▁potentiation
▁polymorphic
▁PEG
▁4-
▁RP
entile
oglyc
-4)
000
500
tran
▁respon
olated
▁forsk
▁cardiomy
▁acceptor
▁trache
▁DD
▁prolongation
▁colony
▁stroma
▁pyram
6).
aterally
▁homogenates
▁insec
7,
ingle
anavalin
▁embolism
atest
▁oxid
▁apolipoprotein
▁hydroxy
.1
▁overnight
▁anhydr
echn
▁Growth
▁tubercul
▁cure
gesterone
▁HBV
▁pathways
▁microsp
▁islet
▁pretreated
▁inh
▁(1.4
▁cystic
▁occupational
▁degen
▁Evaluation
3;
▁metabol
▁57%
mia
athyroid
▁prospectively
▁linkage
rehen
▁(56
▁ureth
▁referral
amphenicol
oxygen
anthine
▁implant
▁Recent
oxy
▁systematically
▁pS
▁81
▁9.0
▁disruption
trover
colem
▁thrombosis
lastoma
ogenes
myr
▁descending
omiting
gth
▁supplementation
▁corticosteroids
▁3.6
▁bypass
▁16
yclic
▁concentrate
▁stom
▁intravenous
apid
▁noradrenaline
▁18%
diastolic
▁0
▁13
lytic
00
▁sti
jected
otin
▁Inte
tomy
plication
▁calcium
▁dismutase
iflu
uncture
▁ongoing
ineal
enkephalin
usate
tent
▁satis
6.
▁supernatant
anserin
▁prostaglandin
▁virul
▁constituents
▁neurop
▁bilayer
▁Haem
▁cyclospor
yrox
hers
▁anomalies
oxide
▁NT
▁66
▁hir
olesterolemia
gus
4;
▁electr
▁ultrastruc
amn
erge
▁tas
▁actively
▁positively
PV
▁acr
prisingly
▁abnormalities
▁(+/-
▁Plasma
3),
▁tuberculosis
▁precur
achn
economic
utyryl
52
▁retinol
▁relap
omers
obl
▁frac
▁contaminated
nary
▁forebrain
yrib
arcoma
treated
▁MAP
79
▁0.6
▁centrifugation
ploy
▁EBV
loidy
▁injur
▁psychosocial
▁mesen
organisms
▁107
rocy
▁discus
▁.01)
▁Subjec
prandial
▁cereb
▁79
▁surveillance
-50
earing
90
oproteins
utaneous
▁glucose
▁tonic
roxim
▁recordings
▁fatigue
▁3.5
▁protoc
▁oxidation
rophen
▁0.35
▁altering
▁100,
▁survived
PTH
phyloc
▁300
▁spectro
▁quantif
▁(80
▁75%
assi
▁peroxidation
0,000
graphy
omies
ecre
▁56%
▁16,
▁monke
▁grafts
▁methodology
▁Golgi
▁pacemak
▁PN
▁penicillin
planted
▁anaesthetized
EA
▁presumably
▁Bmax
mortem
dividual
amide
▁hyperplasia
▁reinfor
eak
▁weaker
▁sequencing
▁tubular
▁regar
▁caud
▁stere
mend
▁markedly
yrid
▁40-
▁lep
5-
sistent
▁discre
▁Km
sibly
▁barrier
sions
▁tamoxifen
▁dendrites
▁possi
▁progenitor
glutination
anesthetized
▁babies
▁concer
bic
▁antisera
▁progeny
osynthe
▁prolonged
/1
▁roset
▁92
▁daytime
oidal
hyde
mittent
▁shorten
(2
▁AMP
mitter
▁excised
xate
ventilation
▁squamous
▁0.17
orough
untary
▁avian
▁testicular
▁renal
.4%
▁substance
▁monomer
tened
folate
▁xyl
▁(1.5
▁dele
▁untreated
acyclin
▁trabec
▁neuropeptide
ifferen
▁hyal
▁Eighty
▁messen
▁endo
▁3.4
havi
▁82%
▁Tn
thymidine
rowing
pig
▁transferase
▁syndromes
plemented
▁exclusively
▁surgeons
▁extensively
▁NADP
turb
labeled
▁medullary
▁penetration
▁genetically
▁oligosaccharide
2),
▁purification
▁follic
▁mL
▁ineffective
▁patches
▁adherent
▁amino
iagn
▁chemotactic
▁pancreatic
▁relaxation
phosphate
▁emerg
▁minimally
▁macrophage
partum
▁65%
▁CAD
▁reflex
▁staphyloc
▁collateral
▁4.6
ficial
BM
▁protease
unced
▁microgram
▁10(5)
cine
0.1
▁GTP
containing
rophenyl
▁Overall
▁compartments
▁substrate
▁hepatitis
▁intestine
▁puberty
▁14-
▁nucleotides
Km
▁cumulative
▁inhibitor
ocys
-1).
▁symme
▁mum
tured
▁motility
▁(37
▁cef
▁stratif
▁noc
piratory
▁Coronary
▁antiser
▁considerably
▁reversible
▁immunohist
▁(2
▁reperfusion
▁nitroprusside
▁lineage
▁slowed
amate
▁immunity
▁neuronal
omatous
ausea
▁alveolar
olysis
anav
aminidase
▁2,
ocarcin
▁hormonal
▁megakary
taken
▁radiological
▁inotropic
▁ejac
▁PE
▁hypoxic
0.
▁treadmill
tage
▁lactate
ration
▁Diagn
▁purified
moid
▁oste
lyl
limb
▁adequately
▁chick
▁reciprocal
▁0.02
▁cellular
▁indications
rolog
yridamole
▁numb
▁emulsion
▁preferen
▁excreted
erating
sAg
▁exten
▁IgE
adrenergic
▁establ
▁5.
pended
▁glandular
ollen
sequent
▁averaged
▁unstable
▁Epid
▁typh
ologous
▁colchicine
▁sorb
▁bacteri
▁clinic
omyel
▁shortening
dle
imentin
▁inactivation
▁dermat
▁enhanced
▁relevance
olic
▁pati
▁hydroxylase
▁102
▁catalytic
▁depressive
▁subpop
▁conditioning
ardia
▁intrad
▁corne
▁precipit
▁yielding
▁lipoprotein
▁LR
▁putative
▁hyperthermia
▁fluorescein
ampl
▁fibrin
▁(27
TG
18,
usive
▁unaffected
▁implications
▁disclosed
estis
▁blot
▁postpartum
atase
▁dosing
▁cats
▁incorporation
▁vasopressin
roline
triphosphate
▁confound
▁55%
▁microorganisms
itoneally
▁visceral
▁contralateral
▁gyn
▁10(-6)
▁Ia
▁transit
epines
tococcus
traction
dial
phenyl
ocon
▁corticosteroid
▁30-
27
▁subf
▁transcriptional
▁9,
lamy
olateral
▁depended
▁glucuron
assium
▁confined
▁microsomal
optic
▁subc
▁hyperlipid
osts
hep
▁18,
tropin
▁chromatography
▁leucine
▁parental
▁0.3
▁mobility
edded
▁100,000
rosis
▁conduc
erent
▁HR
▁subend
▁immunocyt
injected
▁lowering
▁deviations
▁induce
▁visualized
anic
▁elas
▁discontinuation
▁haemat
▁monolayer
▁diversity
▁Doppler
▁35
protein
▁adenocarcinoma
tingu
1.
▁60-
ocyte
subs
▁infil
rocal
▁2.
9)
▁EE
ucl
▁clones
56
▁Fib
▁socio
ecan
▁biologic
▁3.
rele
▁ultra
▁fructose
thirds
kinase
aldehyde
▁evid
ministration
▁vacuoles
▁8.6
▁striatal
98
▁enrich
▁6%
▁recor
▁nude
▁suppressed
pli
▁93
▁83
tus
▁strongest
▁trigg
ulph
▁microscopy
▁Differences
▁9
▁DMP
▁aneurysm
▁histologically
▁keratinocytes
▁parasites
▁sexually
▁demonstrable
acil
▁thoracic
▁interventions
odipine
▁Evid
ateral
▁reas
▁intermedi
▁competi
▁MBP
oprote
tice
▁mellitus
▁cough
▁selec
▁homolog
▁73%
▁osteoporosis
ologists
▁spermat
▁epiderm
vular
effec
▁reactivity
▁[1
▁antis
onit
▁34
▁PLP
▁comprehensive
▁inhibition
ocrine
▁110
ulant
▁adul
▁gradual
ilic
▁3'
▁reconstruction
reased
▁formulations
▁reflux
wk
▁activating
▁tubes
tif
ntolamine
▁6.8
growth
▁soluble
▁spermatozoa
duc
▁conjugate
▁imipramine
▁bactere
▁hippocampus
▁Tran
llate
icardial
▁methylation
▁promp
charomyces
ysto
▁hyperg
▁immunogenic
▁Haemophilus
▁adults
▁idi
onstric
▁(1,
tisone
▁differs
▁Electro
▁localization
▁indication
▁efferent
▁baro
jac
▁catheterization
.8
▁persists
▁ORF
▁bif
▁Ninety
jug
dotoxin
erents
▁cerebrovascular
▁undere
▁metabolic
essive
▁salts
▁pelvic
▁Hear
▁lysis
HIV
titute
▁olig
independent
▁regurg
▁epidermal
▁ventil
▁accumulation
▁remarkably
▁nerve
▁peripheral
▁tolerated
▁infected
▁amel
romycin
26
▁regeneration
▁carbachol
▁mutation
▁harves
kephal
▁hydrocortisone
▁characterized
PRL
▁inactivated
▁excluding
oreal
▁abdomen
▁000
▁chains
tional
▁blocker
▁temperatures
BP
triglycer
▁enrol
administration
ocardi
▁theophylline
trial
▁prevalent
▁4%
▁Tumor
iloride
▁physicians
▁8,
▁RBC
▁inadequ
▁ischemic
▁hypothesized
▁encomp
▁exhibited
▁Myc
▁molecular
▁collec
9).
▁stimulation
▁acin
.6%
▁subpopulations
atients
▁suspected
▁dissemin
olip
▁sca
4-
▁Maximum
unsaturated
▁rati
▁influenza
ronectin
▁transaminase
▁strains
23
cycl
▁derm
▁tertiary
▁37
▁Diff
▁familial
dine
Trp
▁healthy
polyacrylamide
▁doubling
▁depression
▁progression
ophil
alasin
▁passive
▁agglutinin
aortic
▁withdrawal
▁neuro
▁ward
directed
▁oligos
▁intraperitoneal
▁practic
▁117
▁ureter
▁acyl
▁splen
83
oblast
blood
▁stoichi
atories
▁bleomycin
▁thems
▁allele
▁0.005).
▁34%
97
▁sarcolem
▁HCl
▁pups
tention
▁simplex
▁contral
▁fluoro
uary
▁78%
▁haemorrh
▁behavioral
▁UV
▁triphosphate
ygotes
electric
▁pregnancies
tate
onucl
▁recons
▁nicot
▁preventive
23187
riamycin
silon
▁glycosaminoglyc
▁cataly
▁digestion
▁centers
▁regen
▁apparatus
▁IGF
▁transduction
▁bundles
▁termination
turition
▁VIP
▁direc
▁underg
-22
tenolol
5).
▁potent
▁pathophy
tak
▁TF
▁activated
▁immunologic
▁insufficient
▁dysp
▁correlations
-0.
▁reser
▁catalase
▁hsp
▁dissection
▁relapse
48
▁isometric
▁angiography
▁hepatocytes
▁pneumon
▁reacted
▁horiz
▁haemodynamic
▁immuno
▁atria
thanol
urnal
▁sugges
▁striatum
▁10(4)
▁splenic
lycemia
clinical
▁irrit
NH
▁52
▁caudal
▁irradi
▁leukocytes
▁10
▁administered
▁tracer
controlled
▁keratin
▁(15
▁sulph
▁bacteremia
▁inters
▁reinforce
cence
uanti
ulum
▁113
▁epit
▁monkey
▁femoral
▁exons
inated
subunit
▁elast
▁connective
▁desm
romed
▁polymerization
irubin
▁carb
▁segreg
ococcal
▁uric
-10)
▁diltiazem
▁Phy
8,
▁compositions
▁vesicle
▁exud
amol
▁ana
▁pyrid
▁pigment
▁stren
▁deox
ocarcinoma
-8)
▁arginine
▁labeled
tectable
akary
oate
CAP
IFN
▁reversal
▁molecule
▁bonds
-11
▁redistribution
pendent
▁latencies
▁54
anin
4.
▁rabbit
lude
▁spleens
▁52%
▁inversion
▁intrinsic
▁esophageal
▁glycos
▁differing
▁ablation
▁(-)-
▁chemotherapy
4,
fib
▁thromb
▁Patient
▁5-
▁preincubation
iteal
filament
ophageal
-12
▁rehabil
osocial
▁Scale
▁neurotrans
▁PV
ANF
▁[14
▁menstrual
▁leukocyte
olesterol
▁caries
dose
GH
▁apnea
▁BA
▁(42
▁hepat
etween
▁fracture
70
▁screened
siology
▁12
osidase
idne
▁pathologic
▁carbohyd
occus
▁translocation
▁eliminated
▁(12
▁idiopathic
▁articular
▁nondiabetic
9-
▁chemot
acental
▁AIDS
organic
ylation
▁plasm
trop
0.6
▁stabilization
▁atrium
▁4.
▁needle
rospinal
inemia
▁implanted
▁isop
▁fused
adren
▁Effects
▁meal
▁ascertain
▁physiological
atite
▁ammonia
▁fold
▁flora
▁perox
▁hypoglycemia
RP
▁vesic
imens
▁ratios
▁thymic
▁arous
▁Animals
oplasty
sych
pinephrine
occi
▁5'-
▁ventric
▁enhance
▁1)
▁incontinence
▁hep
itr
olus
▁cyclase
tures
3.
▁elution
▁jaund
placement
▁neurologic
▁maximally
tability
▁Eight
tained
▁Hb
▁encoun
▁mandibular
▁autosomal
▁pulse
▁Phe
ritis
▁4.8
etan
gene
Tc
vival
▁hyperb
▁(0.3
rotid
atched
▁IA
▁(45
▁exon
infection
▁cyclic
▁propranolol
▁brains
▁HCO
partic
idated
stimulating
ituit
▁inhalation
▁lupus
▁Thirty
▁3.2
ylephrine
▁progesterone
▁immunofluores
▁lipoproteins
▁immun
▁nitroglycerin
ammon
▁radionuclide
iceptive
▁antin
iotic
▁exacerb
oag
▁nucleotide
ocardial
▁erythroid
▁vagal
▁fluoride
▁restenosis
▁wt
orphine
▁institu
acylglycerol
terone
▁Leydig
▁ducts
▁repl
arginine
▁upstream
ATP
amycin
▁donors
PSPs
cysteine
▁histologic
▁6.5
▁phosphor
diabe
▁supernatants
▁75
onyl
▁lute
▁isoproterenol
▁phosphatase
▁85%
▁Vmax
▁utilized
azolam
▁mice
ocks
▁Dop
▁saliva
▁cytoplasm
▁excision
▁ethyl
▁.05).
▁adap
irds
6,
▁adi
grees
plicated
ogenic
▁neutrophil
▁myc
aturity
oplasm
ascular
▁mumol
▁diaphragm
▁extracts
abin
▁microelectro
▁amiloride
78
▁fetal
▁hypother
▁refractory
▁hemisp
4+
▁pector
ophag
▁DP
▁45
linking
omat
▁112
▁congestive
▁ciprofloxacin
▁nutritional
1/2
▁12-
▁mM
▁elevated
▁inhal
▁PRA
phosph
▁systematic
▁cardi
induc
▁SDS
seven
▁CB
▁amn
▁duodenum
ectin
▁pate
▁56
▁distinguishing
▁swim
▁radiol
▁2-
▁antimic
elan
tical
▁kine
▁ciliary
▁genome
▁(32
▁rhythm
▁interferon
▁proteolytic
▁insufficiency
assay
▁gastro
▁reflec
▁smo
▁epilep
▁31,
▁tissues
▁improving
ensitization
▁perception
▁decline
▁84
▁polyp
RH
▁86%
▁vascular
▁autoimmune
▁10,000
(2)
▁wors
▁aspec
iciently
▁electroph
▁accelerated
▁receptors
eight
▁0.005)
▁0.13
▁saphen
▁8%
▁acetate
▁acutely
▁MRI
ruc
28
▁beats
▁bab
GD
ighteen
▁7%
▁Hep
apeu
ifedipine
ochemically
▁cAMP
rinary
▁diet
▁ethanol
psych
MDA
0.0
▁ultras
menopausal
▁suspension
▁bacter
▁trypsin
▁9.5
▁infusions
▁compensatory
▁acidic
initi
athione
▁HRP
▁sensi
▁avoidance
▁11
▁anaesthesia
2+,
▁cotrans
▁titres
oung
▁neutralizing
▁25%
uronal
7)
ocortical
▁cloned
88
▁denaturation
▁MI
▁phenotypes
▁liver
omotor
wenty
ximum
cein
▁granulosa
▁bup
▁tumor
▁108
gative
▁thi
▁RF
▁papill
▁displacement
kD
41
onomic
▁prazosin
icient
▁progen
▁gamma
Asp
▁Neither
▁Increasing
▁supra
▁epidemi
▁satisfactory
▁80%
▁(1.2
▁0.5%
▁kD
▁durations
▁NMR
▁ovine
▁PTCA
▁carriers
acid
ACh
40
▁prostagland
othelial
▁symptoms
▁hypothalamus
otrypsin
▁gestational
▁anomal
▁oxy
▁mixtures
tium
ductase
semb
phila
▁Kinetic
▁hypertonic
▁electromy
phorbol
▁Consequently
▁analys
andida
▁conjugated
▁corticosterone
(2-
▁immunized
▁cytotoxic
modulin
restingly
▁LT
-1)
3%)
▁Initi
▁agonists
▁extre
▁deletions
5%)
▁2.1
▁adop
▁196
omycin
▁SLE
lycero
▁explored
▁collagen
dR
▁immunization
▁displaced
▁47%
▁inadequate
▁29%
utyr
▁ribonucle
▁brady
/3
▁identif
▁(1.0
▁EB
▁aspir
▁deposition
▁donor
13
▁240
▁conserved
▁Cancer
inesterase
▁hydrochloride
▁NGF
▁oestrogen
▁newborn
▁101
▁catalyzed
toli
urea
▁bipolar
▁199
▁recr
luent
▁ganglion
▁codon
▁mV
▁enlarge
▁dismut
▁CM
▁efficac
1/
MN
▁haloperidol
▁hemodynamics
▁immunoblot
▁FT
acute
orbent
ociation
▁abscess
romyces
▁adren
dU
▁worm
▁(0.5
▁0.0001)
uantitative
otherapy
▁inhibitory
Sepharose
▁systemic
▁harb
grams
IGF
▁hypertrophic
▁therapeutic
▁foci
▁achie
razosin
amous
▁serotonin
incub
▁exhibiting
▁sampl
▁tightly
fected
▁fibres
▁50
▁cate
hydroxylase
▁immunos
veness
▁nitrogen
▁hybridization
▁silic
frequency
▁Basal
idic
▁facilitated
▁serotonergic
affin
▁kappa
▁intermittent
▁ulcer
onine
▁larvae
▁hypothe
oxyl
▁histopath
▁109
ymethyl
▁spontaneous
odg
▁5'
▁MG
otoxic
▁reproductive
▁hyperp
▁chol
▁[3
omegaly
▁0.05,
▁140
▁altered
obacterium
▁EDTA
▁GMP
▁labelled
▁ventricles
estern
▁polyclonal
65
▁xen
systolic
▁radiolab
▁Hodgkin
olol
▁0.4
▁5.5
▁(2)
ylline
▁glycogen
17
▁traum
▁NMDA
▁fractions
▁unc
▁inappropriate
keletal
▁dorsal
▁Gluc
approximately
5,
▁births
▁granules
▁recruit
▁favorable
▁transported
utaneously
▁heating
oxid
:3
▁consecu
trac
ondr
▁couns
2/
itoneal
ditions
▁postmenopausal
▁implicated
ields
▁88
cells
pecific
▁seroton
dominal
▁hepatoma
▁microscopic
omized
▁granular
▁drugs
▁calmodulin
induced
▁progressed
adily
▁10%
tenosis
▁caloric
▁15,
▁vasoactive
▁gluc
▁etiology
▁transporter
dies
▁immunologically
▁fibre
galact
▁smear
aminase
▁indicators
sus
▁retention
▁spectra
▁abnormal
tabl
▁epidural
etent
▁previ
lox
▁fibros
▁attrib
entricular
▁PMN
▁incidence
▁fluids
tiv
▁cadmium
▁phosphoinositi
entanyl
▁stimulate
10
▁0.00
tinguish
atid
enzyme
▁vaccination
-6,
▁carc
▁nucleic
▁modulating
11
▁hipp
▁amygdala
▁97%
▁microM
▁denti
cyt
ayed
▁postnatal
▁200
-15
▁analogue
icillin
brom
roximately
▁hypophys
▁correlated
▁gm
till
▁phi
▁antero
▁(11
▁0.1%
▁sequential
▁strategies
eces
▁ascer
▁competitive
▁morphine
olec
▁subtypes
▁radiotherapy
asions
▁parenchym
▁plastic
▁contractions
▁invasive
▁perforation
▁lymphocytic
▁brach
▁-7
▁Tiss
▁respiration
ostasis
orphin
14)
▁kinase
▁odds
enteric
▁0.9
▁dehydrogenase
▁tubule
ropathy
tensive
▁caution
▁envelop
▁gingival
globulin
Gal
adian
▁elucidate
▁Lym
tur
▁instruc
oalveolar
▁filaments
▁yr
bearing
establ
▁graft
▁isoform
PSP
▁analyses
▁eryth
▁electrolyte
▁phospholipids
▁CEA
anding
▁disturbance
resistant
tructural
▁inhibit
▁71
.1%
RIF
▁stationary
▁mRNA
kine
▁reag
▁deoxy
▁polyacrylamide
▁complication
▁devoid
bacco
▁160
▁ovarian
idity
34
aicin
▁injuries
-60
▁denervated
▁retard
vated
▁periodontal
▁duodenal
▁residual
▁resul
▁111
hydro
-5
▁sequenced
FN
▁pyl
surface
tRNA
▁electrical
▁thal
▁1.3
helin
uccess
iol
▁paralleled
▁genotypes
etoprotein
▁papillary
▁IgM
teroidal
32
▁perc
depleted
romic
▁27%
Lys
plies
▁phosphatidyl
▁somatic
▁prophylaxis
estrogen
▁66%
iasis
▁antioxid
uscular
▁cooling
rophic
21
▁throm
trated
4).
▁neuroblastoma
▁LDH
▁interv
butyl
▁mann
oxygenase
▁MHC
▁homogeneous
▁volunteers
▁natriuretic
bacter
▁gastrin
▁calcification
ochemical
actin
immune
▁asbest
▁tetra
▁Effec
12-
orbol
▁specificity
▁accumbens
▁100%
iciency
lix
▁(35
▁transfusion
▁antib
▁LC
rogenase
▁amplitudes
glutamyl
tiary
▁semen
▁4.7
amphen
▁endometr
▁DBP
▁mineral
producing
▁displ
▁revascular
otassium
▁prophyl
.8%
▁genital
cepti
▁demonstrates
icardi
▁vaccinated
bred
▁HSV
tussis
▁6
▁obese
▁baseline
▁21,
1)
16
hypertensive
▁retina
rae
ogenetic
▁Positive
▁ND
LISA
▁9-
▁sphing
▁thyro
topril
olet
▁guanine
brain
▁remission
▁thrombus
▁AFP
arrh
ynaptic
▁experimentally
▁autop
▁tubules
fts
▁deprivation
▁marginal
imetidine
mitted
▁substantially
▁ultim
▁dibutyryl
rectomy
esophageal
▁vaginal
▁determining
▁crom
▁adolescents
▁Americ
▁dissec
▁pacemaker
vix
ocor
▁25
▁thir
viruses
▁1,2-
▁48%
conver
▁61%
▁flexor
nitro
vae
amus
▁activate
▁qualit
ergen
55
▁provid
osclerosis
▁CRP
▁0.07
▁puber
▁succin
tension
▁plasma
▁behavi
-70
▁1.8
▁elevations
▁44%
▁7.2
▁nM
▁83%
▁phorbol
▁hypertensive
▁Whereas
▁incubation
▁innervation
▁microvascular
3,
▁tubulin
▁macropha
atidyle
▁gland
▁reper
▁compe
▁58
-16
▁progressive
▁experi
▁injections
LV
▁electroly
ophys
▁astrocy
▁eicos
▁Fourteen
▁carcinoma
▁radiolabeled
opres
▁modulation
▁GST
▁effector
▁MH
▁cytotoxicity
▁solitary
▁bacterial
▁normalized
▁abd
▁73
6%)
▁detectable
uled
ecyl
▁diagnoses
▁plateau
2+
▁mg
▁neonates
monella
▁organisms
▁extrav
▁uninfected
▁ascites
▁sediment
▁Levels
+)-
▁nm
▁0.001)
Tyr
glutamate
▁fulf
▁antidepressant
▁yiel
▁crude
▁clus
▁recommendations
▁aeros
amines
tance
toxin
▁bradykinin
▁19
▁resc
▁(197
ohyd
▁canine
ogenicity
ronch
▁Elec
oustic
▁lacking
▁ECG
▁halothane
▁ammon
sibility
▁pools
neu
▁mAb
▁fati
▁influenz
▁harvested
▁TG
▁intrav
tagland
years
▁brom
▁infarction
▁excluded
▁promo
▁competence
luded
LPS
nithine
letion
▁cerebral
herent
ADP
▁glutamine
ietin
ystokinin
umbens
▁assayed
▁phe
availability
▁thromboxane
mokers
▁59
▁retinopathy
▁asthma
▁clinics
▁adulthood
▁heterozygous
▁-5
8.
▁arterio
▁mesangial
▁analysed
▁recipients
▁adenovirus
clin
▁indomethacin
gans
rous
patients
▁crucial
▁phosphorylation
▁substitutions
▁oxide
▁bloc
▁106
▁hyperther
▁12%
▁paradox
opausal
antial
▁700
▁solely
0%
▁endonuclease
etidine
roso
piration
▁tRNA
▁intest
▁manifested
▁dissociated
arum
▁reactive
▁Factor
▁HI
dependently
▁fertility
▁95
▁allografts
ocl
▁reductase
▁aerosol
▁bromide
▁TNF
▁0.01).
▁29
▁initiated
opath
▁suscepti
▁22
▁5.8
arose
▁initiating
▁regimens
▁primed
▁63
▁Alz
▁deficits
▁intermediates
▁transmembrane
performance
▁angina
▁cerevis
ipheral
▁evaluable
▁tryp
▁0.05
▁ligands
▁Unlike
wann
ariate
▁EA
iciencies
ethyl
▁monotherapy
IU
▁contraction
▁6.0
thmia
▁thromboemb
▁Lymph
▁erythrocytes
molecular
▁36%
amel
▁calves
ifugation
▁0.01)
▁ventricular
▁74
otyp
opathic
▁precipitation
tumor
▁pregn
lational
▁96
testinal
▁dyn
veolar
▁plaque
▁oxidized
2.
▁Taken
▁intubation
osarcoma
▁steroids
▁dysplasia
▁hypothyroidism
▁hypog
▁bicarbonate
▁secreted
quinone
▁cryp
▁tissue
▁faecal
thyroid
33
▁Phosph
▁noradrenergic
ospor
tions
▁9.2
▁implic
aryl
ophils
ocyan
▁impaired
▁Escherichia
▁angi
▁bleeding
▁Afric
-25
▁consis
▁regulating
▁immunoglobulin
▁projec
▁1990
▁chromatin
▁usefulness
ocrit
▁Acad
▁coated
▁encour
▁pts
rated
ophren
▁fibronectin
.5
▁CTL
genic
67
▁heal
▁affinities
▁platelet
▁Clinical
▁balanced
teine
▁GH
▁prono
responders
▁negligible
ervical
2,000
▁attenu
76
▁residue
▁papilloma
tribution
▁clonidine
illus
cemia
▁perin
▁Tryp
36
obenz
▁euthyroid
oclonal
▁expressing
93
fem
▁reflects
▁lis
-7
acrylamide
▁Functional
ospasm
▁assays
▁enamel
▁deletion
eptin
▁ACTH
lycer
▁enzym
▁discontinued
clerotic
benz
▁septum
▁rheum
▁treating
▁1.0
▁Twenty
▁variability
▁Cd
coun
omegal
▁GSH
assays
tec
obarb
HB
salt
▁trimester
▁potentiated
▁coeff
▁Protein
lipid
Daw
Hb
ritic
▁adip
▁functioning
▁placental
urons
71
▁minority
ejun
▁8.1
50,
▁pulmonary
ctomy
iodarone
ercise
traum
▁20-
▁anticoag
▁benzo
▁mortality
▁microtub
▁gastric
ulose
▁ADP
toxic
▁nutrition
▁homozygous
▁lec
glut
▁unaltered
▁decreas
▁ferritin
oea
▁PAI
-23
yel
▁peroxide
▁Sixty
▁ranged
▁presenting
▁17%
▁ischaemia
▁crystal
▁PCO
thood
▁facilitate
▁characterize
atibility
dipine
▁-4
deficient
▁regimen
▁mutant
▁guidelines
abain
▁endoplasmic
▁58%
▁coagulation
ilibr
▁stool
▁0.08
▁infused
68
▁coli
kines
▁toxin
risk
phosphamide
▁cis
▁airways
▁elastic
▁HM
▁conduction
▁cows
phrag
▁oral
enoic
ipro
▁Calc
▁monophosphate
▁ubiqu
▁destro
phosphorylation
▁ANF
▁circulation
.4
▁sphincter
▁exag
▁valves
▁catecholamines
minute
atation
▁kary
▁CK
▁lamin
▁standardized
▁67
▁1.7
▁perfused
▁analytical
8%
▁14%
▁mature
▁cognitive
oblasts
▁6-
iline
lys
▁beha
phthal
amole
▁ventricle
quid
▁mitochondr
▁pathway
▁35%
TGF
thio
▁3,
▁extrap
▁ouabain
▁interleukin
divid
▁fluxes
▁thyroxine
▁1,25
2,
butamol
▁deficit
▁drain
phrine
▁mRNAs
▁103
▁stimuli
▁DBA
heres
aints
acin
/10
▁labelling
▁retardation
▁ovary
▁nec
namic
▁18-
teroids
tivities
ilization
tural
▁Simult
▁tach
▁trachea
▁flanking
▁consciousness
4,5-
idney
▁0.10
onazole
▁0.25
Rs
▁lipase
urate
▁immature
iferative
entical
▁glutathione
▁Bacillus
blind
▁21%
▁contrac
▁accumulate
stolic
▁tritiated
idin
▁microbi
itum
osal
sant
▁possesses
lasting
▁increasingly
ovalent
▁computerized
-2)
▁envelope
▁prognosis
ucas
▁PBMC
pH
▁salbutamol
▁4.9
tizing
▁subtilis
▁produc
24
▁absorbed
▁lymphokine
▁amyl
▁acet
▁60%
▁diuretics
tigo
▁gyrus
ronchial
▁atri
▁comprehen
▁blockers
▁ventricul
▁prevalence
▁dosages
uppres
xual
▁Swed
▁84%
▁supr
▁hemorrhagic
▁resection
▁neon
▁RIA
▁lowered
▁cholera
▁MAb
▁additive
▁extracellular
▁clamp
▁hydrophob
rozen
▁lithium
▁mucin
tility
gents
▁isoflurane
▁abrupt
▁2).
▁electrophoretic
-5-
▁assessment
▁NI
orpor
▁omeprazole
tency
▁Phase
▁1,25-(
▁glomeruli
▁6.6
lasses
▁rostral
▁bilirubin
74
▁retrospective
ectomy
▁differentiation
▁dipyridamole
▁cytochrome
▁lutein
operoxidase
▁10(-5)
▁awake
▁secrete
onin
yridine
activated
chemical
▁abundance
aternal
diagn
-2,
3%
pA
oscopic
▁activator
tinguishable
▁ANP
▁targe
▁aspartate
oglobin
▁progres
utyric
▁4)
oventricular
vation
▁adhe
▁Hz
▁vasodilation
▁metabolized
