relations
▁solub
▁Phen
gely
ivary
▁monocytes
odial
▁pulmon
otactic
▁acqui
▁subc
▁mimic
▁lobectomy
emory
vice
▁Steady
▁LDL
▁mellitus
▁tyrosine
▁epilep
▁ganglion
tives
▁restenosis
ocamp
▁transcripts
▁grading
▁PF
▁pedigree
▁63
▁strom
otoxic
eptid
▁preferably
oate
▁recessive
▁hypertrophy
▁undo
▁dysfunction
▁morbid
▁questionnaires
▁microgram
▁elucidate
▁inoculation
▁incom
amino
omiting
otin
aminated
▁reticulum
▁margins
razole
▁bile
▁widening
Wo
▁morphological
▁multifactorial
▁displacement
▁antiser
▁gonad
scop
▁synapses
▁coincidence
▁12
Nor
▁cyclic
▁monol
ogra
▁angiotensin
▁multim
appropriate
mobil
-0
rans
tiv
▁CMV
▁CCK
▁Chan
▁endometrial
tition
▁propranolol
epam
▁Cox
injured
▁endarte
rological
responder
▁monke
▁disulf
otone
tabl
othermic
▁10(-7)
▁regeneration
tant
▁anatomic
irc
▁murine
▁symptomatic
tively
▁replic
lated
▁endocrine
▁surgical
▁substances
▁underestimated
▁symme
BK
namic
0.
agit
▁practic
▁contralateral
▁protease
▁strep
▁30
▁localities
▁uncover
▁ICS
▁polypeptide
▁arti
▁7,
associated
ococcal
tection
▁perceptions
▁peptide
OH
▁magnesium
▁intermittent
ipit
▁ves
▁subchondral
▁auditory
▁paraplegia
-67
▁necrosis
Cu
▁2.7
▁Chemical
▁confronted
▁radioactive
atase
▁multicenter
ipient
ritish
lead
▁calcium
adm
lusion
▁lipoproteins
▁triglycerides
deple
hern
omat
SAH
▁demonstrates
▁apical
▁regar
teine
▁donors
oradi
▁hypoxia
▁immunore
▁multic
▁pigmented
▁compart
▁Accordingly
▁Binding
tiz
▁transduction
▁uneventful
▁fibronectin
▁Alter
LU
▁fructose
▁LH
opulation
odynam
aemic
erican
umulation
▁AGA
▁clonidine
▁Measure
hyd
endot
▁subunits
LISA
▁pathogenesis
▁EO
▁RS
▁desensitization
▁202
ociation
▁cesarean
gans
▁motone
▁arter
▁physiology
lecting
alact
BV
ministration
thyl
uclear
▁potency
▁inotropic
emak
ohyd
▁biosynthesis
entary
▁2%
▁conserved
▁Thirty
▁placental
NB
CBF
ACS
8-
▁30-
▁4
ostic
▁0.02
▁autoxidation
▁inhibitor
75
quine
▁exchan
▁examiners
▁UF
▁ppm
▁catheter
▁85
ferential
oxide
▁determinant
ologic
▁EBV
▁striatum
KA
rected
▁interc
asive
▁shorten
▁specimens
pies
▁perme
▁merit
oplasm
ignificant
tox
▁antagonist
3,
▁mumol
▁tubule
▁implants
▁IgG
▁torsion
clamp
asic
▁centr
▁GABA
urred
▁metastatic
▁occlusal
aginal
tak
▁evolving
IK
▁constric
▁circumferential
anin
▁TPA
▁heteroz
ifol
vated
▁assays
▁melanomas
▁corrective
aptic
▁ionic
70
▁affinity
ophageal
enic
Au
▁exo
queous
▁sepsis
-450
atitis
▁cen
▁defec
▁correlates
obl
▁surrog
dimer
▁reliably
ensitization
tures
▁resec
utions
▁leucine
▁organs
TG
reet
▁(30
▁Radi
MH
▁Biochem
▁28
▁glyc
▁sulph
▁rotational
acrylamide
muscular
urane
lec
▁caregivers
▁misleading
▁82
▁6,
▁dietary
▁appreciably
ducing
▁redund
/-
tyl
▁replication
▁topographic
opsy
▁caudal
▁problematic
ylcholine
atible
▁ascertained
▁physiological
▁homogene
▁HI
▁normotensive
▁Americ
▁uninjured
▁incub
▁junction
ophys
oleic
▁reversed
▁gastro
▁infusions
▁19-9
▁inserts
▁Compared
morph
eptin
tro
omia
▁infarction
▁ganglia
adenosine
▁75
▁GCS
▁substitution
bral
hig
▁lectin
PSP
▁glutathione
otomy
▁cholecyst
▁embryos
tion
▁47
hyde
▁sulfonylurea
▁phagocy
uting
Hg
ifferenti
▁pituitary
itudinal
▁kDa
▁potentiation
▁resto
▁CNS
▁retrograde
▁Cells
0%
▁encodes
▁125
▁prescribing
▁serine
adrenoceptor
selective
▁undes
▁umbilical
▁ineffective
▁silicone
▁actu
▁pyruvate
▁30%
▁myocytes
▁0.06
▁ventricular
nai
▁alph
▁indications
▁supernatants
tine
▁Fifty
3)
▁desm
▁amines
▁biochemistry
esic
▁laparotomy
effectiveness
DG
▁gynec
▁49
FU
▁(+/-
▁homoz
▁HAM
atell
otropic
▁diets
-12
Gly
▁wean
▁endoplasmic
▁femur
▁consangu
▁canc
immunoreactive
▁0.25
▁maternal
▁infants
▁porcine
rates
▁inhibitory
iferation
▁linoleic
sion
▁HCC
rever
tructive
fused
▁cigarettes
opulmonary
eared
erance
23
▁imaging
▁parame
otor
oxif
▁tracers
▁0
ithin
▁dosing
ineural
either
▁3.
▁transurethral
▁hap
▁contraction
▁inhibition
▁bran
▁disappointing
trop
▁opioid
▁irrever
ocardi
▁0.5
▁prostatic
ropha
▁construc
erence
CSF
▁heterogene
▁1:
▁acetabular
▁nonc
▁pate
▁0.05)
▁medicines
▁7
FV
▁rabbits
▁differentiate
▁intrarenal
▁vagal
▁interf
▁prospectively
ocyan
▁identifies
▁maturation
CGP
▁carbohydrate
▁fracture
ailure
aventricular
3%
▁tidal
▁utilisation
resses
uble
▁investigating
thymidine
▁rati
▁anastomotic
90
ration
icacy
▁spinal
▁glial
xia
▁infec
▁messenger
orotic
▁hemodynamic
▁endogenous
69
labeled
▁unresectable
▁follicles
▁intrapartum
▁GMP
▁peripheral
avage
▁resul
tens
▁placent
▁inoculated
▁benz
▁hippocamp
▁stimulate
ivocal
▁complementary
▁contributes
▁Vac
▁Experiments
ituitary
▁+/-
▁cyst
▁evol
▁filament
▁anatomical
eal
pendent
▁alcoh
▁parathyroid
rometry
osides
lym
▁TB
▁fas
▁intest
▁epidemi
▁endpoints
▁IBS
▁organisms
▁filtration
quit
-20
ximal
▁0.000
odic
ergic
entanyl
▁initiating
ectin
phe
65
▁inten
-30
▁ceph
▁compartment
▁recordings
roxim
onset
▁phy
▁repres
▁paren
▁allergic
▁tiss
otassium
teric
treatment
▁lactate
▁ketamine
▁silic
▁(4)
▁ureth
prep
▁susceptibility
overed
ystolic
▁conclusive
▁pigs
ubation
▁Systolic
BW
▁glucocorticoid
▁umb
▁RNA
occus
pharose
▁neonates
▁0.05).
▁mutants
KI
▁milieu
▁Thir
ofl
▁Biol
enia
emia
trition
▁59
▁inadequate
▁locus
▁hydrophob
IgM
▁92
▁identif
▁cyclo
▁oocytes
▁0.04
▁gradients
▁NN
rents
ygous
▁13-
▁immunisation
onad
27
▁DF
▁fatty
▁chloro
▁leu
▁depletion
▁40%
▁synerg
spectively
▁exacerbations
ampl
jec
toc
epit
▁indicative
▁regulate
astolic
ipitation
hap
sorb
▁practiced
esium
▁NMR
riched
hered
clonal
▁excretion
1%)
▁reag
oung
▁acco
▁vacu
▁contrac
▁accep
tussis
▁reflec
responding
▁oste
ylated
▁distin
▁10.
▁(5
▁arginine
▁consis
itant
▁concurrent
▁hemorrhage
lep
▁BMI
▁undetected
ospitals
▁audi
vascular
▁colonies
▁bir
▁myelin
opressin
cele
▁norepinephrine
gments
▁10%
astom
▁56
fusion
▁duoden
▁1.1
▁adenoma
▁mesenteric
▁90%
▁immunoprec
gative
▁unres
▁pediatrics
▁lute
22
▁preparations
▁IMR
▁rigidity
kelet
peri
3+
-7)
▁electrodes
▁prednisone
▁degradation
▁synthe
▁neurons
▁sympathetic
▁angioplasty
▁persis
▁cystic
▁(20
▁effec
▁ulc
▁recombination
▁thrombolysis
▁intraven
embers
onatal
▁homogen
threatening
orrh
acetate
▁insufficient
▁parap
▁methionine
▁entero
arous
▁pati
uctose
▁uni
▁groin
▁unde
ulmonary
▁transloc
saccharide
tomy
▁advisable
arcin
▁anomal
itonin
▁dimer
iatric
▁2)
▁neoplastic
▁aggres
▁resour
farct
▁3.6
▁hernia
jejun
▁CG
ewish
myc
▁estimating
▁staining
▁causative
▁subsets
▁Randomized
ynthe
▁occurrence
4.
▁intestinal
atibility
▁Greater
sial
▁atten
▁tuberculosis
▁polym
▁disruption
▁1,
vival
▁toxicity
▁ect
▁responsive
iatic
continu
inatal
▁COS
amus
86
ropathy
▁proliferation
▁tau
▁undergone
▁bovine
▁84
▁relap
trypsin
6,
▁membrane
▁antibiotic
▁followup
.1%
▁prolonged
independent
▁graf
▁envelop
▁debridement
▁hypothal
atial
lasts
▁unrelated
▁nitrogen
▁transcrip
▁quantitatively
▁fati
▁Km
brain
▁0.6
▁confron
▁proteoglyc
▁soluble
ylamide
dic
olum
▁positioning
iplin
▁anemia
▁80-
▁sciatic
▁currents
▁characteris
▁(0.
▁reductions
seal
▁cycloheximide
athe
▁potassium
▁APTT
▁bronchoscopy
glumine
-14
▁antagonists
▁2.5
plas
▁amph
oreactive
▁sequentially
greater
▁papillary
▁localization
▁NADP
▁predictors
pyr
▁uptake
tence
thase
▁thresholds
▁hemorrh
tual
ropriate
▁GI
▁herp
▁plasminogen
▁femoral
zation
ocyt
/1
yste
chers
ATP
▁Failure
oprotein
feron
▁simultaneous
▁cardiomy
▁validity
▁dislocation
ancement
▁Operative
ranial
▁isolate
▁electrophoretic
▁characterize
▁DG
▁immuno
▁striated
ineph
▁CTL
▁opi
ecre
▁4)
8,
▁alleviate
▁regimens
▁dye
acetylcysteine
▁divertic
▁histologically
▁pathologists
▁histamine
ylline
▁malignancy
ximum
▁uncontrolled
▁0.05
consuming
etitive
▁extre
Dawley
▁conformation
▁acyclovir
▁hepat
▁bladder
▁therapeutic
▁TNF
▁proportional
▁isoform
▁tRNA
▁intake
▁manifestation
▁promin
Ig
%),
renol
▁olig
▁cyclase
kinje
ylate
▁FD
▁2.
▁cytos
▁transpor
tracellular
▁interpersonal
▁synovial
▁Ear
▁HDL
▁PTC
▁chori
▁LF
▁nutr
▁apoptotic
tect
▁restorative
▁19%
ogenic
▁diastolic
quired
phosphamide
▁diarr
▁integrating
▁verte
▁quantitative
illation
▁sedentary
▁ascertainment
▁VO
▁forsk
▁avail
endorphin
▁responsiveness
▁Prospective
▁33
▁Neurop
▁Obese
▁reac
▁lamin
▁phagocytic
▁TRH
▁depleted
7)
▁blocker
0-
tumor
▁upd
▁cis
▁renal
oxia
▁feasibility
opoly
▁deviation
▁Concomitant
anis
▁ventilation
▁infectious
▁premature
lip
▁diffuse
▁UTI
▁nodules
▁lethal
▁adherence
▁lymphocyte
arental
monary
nthe
uria
veolar
▁synaptic
▁10-
▁polymorph
utin
versus
affected
ygen
▁melanoma
SSA
esti
▁nifedipine
▁glomerular
▁prostagland
raine
▁laparoscopic
elec
▁Fc
inic
orphin
▁NPC
▁paired
▁Significant
▁schiz
▁STI
▁cDNA
unctions
▁calcification
▁coh
▁ATPase
jug
▁occlusion
mega
▁membranes
▁epidermal
▁gluten
polyacrylamide
▁neurotrans
▁GTP
▁peritoneal
▁rostr
otypes
8%
▁valve
ipr
▁operative
▁serum
▁modulates
▁Elderly
▁gonadotropin
▁pylorus
vents
▁inducer
▁tonsil
▁diame
▁splen
menopausal
Nase
▁hemoglobin
tum
iology
▁5.0
▁commerc
reported
▁3
▁clones
risk
▁PET
▁Considering
teral
▁aor
rogenase
epine
▁prol
▁depr
▁behavioural
▁sial
▁15%
▁endemic
▁oss
kage
phos
▁bipolar
▁ETS
▁postsynaptic
oglyc
▁labelling
hips
omers
▁adequately
▁worsened
▁injec
ayed
4%)
utable
oprote
ophag
odal
▁autosomal
urons
▁calves
anavalin
▁fibrin
▁dorsal
ulla
olipoprotein
unced
▁Biochemical
rangement
noise
▁GBS
▁histologic
ipolar
▁Asp
resting
▁10(6)
▁mutagen
▁segmental
▁experim
▁platelet
▁carcinomas
▁verapamil
terol
▁immunoglobulin
ilical
▁prostatectomy
▁analysed
▁poorest
▁collagen
iminary
▁prevalences
▁cisplatin
cepti
▁degeneration
tivity
▁concordance
lix
detected
▁ANF
▁Discre
▁spati
▁apolipoprotein
▁rigorous
osomes
▁dete
trum
▁expressing
▁overex
▁reconstituted
▁mortality
SCE
tration
uptake
▁1986
ohy
ospor
3).
▁Blockade
rophilic
onc
▁TAA
VH
athione
PAP
▁sero
▁OC
▁microsomes
▁pover
▁derange
▁NSC
▁Contrary
▁ranged
▁HN
▁benzodiaz
▁overlaps
diol
intestinal
▁investigations
▁postnatal
▁disparities
▁Surgery
omain
▁Continued
▁strains
▁iliac
▁oligo
otox
plantation
▁predic
essential
-3)
▁anastom
▁amo
▁marrow
▁morphologic
▁196
exis
▁implantation
▁sph
tectable
▁ech
-9)
onomic
▁pretreated
▁depressive
▁galact
▁hydroxy
alities
▁subjected
ipar
▁discomfort
▁illustrate
▁3.1
▁iatrogenic
▁bene
IgG
▁chel
▁plex
▁diagnose
aturated
abain
4)
▁microvascular
▁abolished
▁decreasing
▁preservation
▁shortened
thma
▁sexes
▁augmented
▁allogra
ceptibility
.2
▁neon
▁phospholipids
itoneal
pH
ignant
glucose
▁cathe
▁adhering
▁elec
eces
▁-0.
▁depolarization
trib
▁diffic
coup
LN
▁metabolism
▁HMO
wes
acil
erally
othel
▁hepar
▁thir
▁subf
gene
▁unprotected
terase
▁incubation
lycerol
▁expres
▁2,
76
▁recurrence
atab
obacter
opro
▁parental
reatine
▁isot
▁ELISA
idation
-2.
▁atrophy
▁36
▁reactive
▁reflex
fron
▁versa
▁cortisol
▁unil
▁assessing
abies
▁CsA
▁compli
▁tympanic
▁preferentially
▁menopausal
yel
▁microM
osomal
▁74
aminase
Daw
▁correlations
▁RV
rophyl
eclampsia
▁surgically
NAc
▁2.1
▁neoplasm
▁residues
▁reversible
▁spind
▁urea
▁efficacy
▁FDG
▁hamster
onor
▁laparo
ulatory
ropriately
▁immobil
▁esophagitis
▁adenomas
▁cochlear
▁saturated
opathy
ansing
▁incorporation
tebral
▁micromet
tical
▁neoplas
kade
▁Ia
▁8
asone
▁evaluations
sions
▁mell
▁EMS
▁carcinogens
▁outward
▁purified
▁1.6%
▁pulmonary
28
-3-
orphic
▁prophyl
▁pharmacokine
▁lesion
▁thrombectomy
▁ambient
otropin
▁cytokines
▁80
lymph
▁placebo
erox
▁perone
▁capillary
ichia
▁ACh
▁pylori
▁synthetase
atest
▁18
ected
omycin
taken
▁fluorescent
▁reproduc
▁enhancing
▁oro
▁microsomal
▁4.5
▁contaminated
gesia
15
hydroxyp
itively
▁aspirin
opausal
arbox
▁genotype
lood
▁5)
▁unaware
tact
▁indefinitely
▁apex
▁Previous
▁irreversible
▁phosphatid
▁muc
dition
tryp
▁choline
▁Immun
▁Analy
▁nucleus
ctomy
scopy
▁51
▁microscopic
▁relied
▁satis
▁Afric
▁residency
icin
athy
▁micros
lycemic
▁detachment
▁inheritance
▁irradi
▁Streptococcus
▁secretory
2+.
clerosis
▁erythrocytes
saturated
▁biochemical
▁tended
▁preclude
▁athle
▁retic
bladder
▁intramuscular
▁vesic
▁metastasis
7,
▁conservatively
osts
▁inh
▁epithelial
▁indicators
▁kinetics
40
endan
▁Atropine
forcement
▁thromb
▁Medicaid
stress
▁anatomy
▁(8
▁psychosocial
▁anesthe
erop
▁summ
▁identically
▁thre
▁1.6
▁SLE
etal
▁lipoprotein
▁dissection
atent
▁Tumour
▁intraoperative
▁hormonal
infarct
▁susceptible
▁PHA
uppres
▁0.0
-11
▁UL
▁footprint
▁scans
rolith
▁PCP
▁0.001),
▁predictor
evoked
▁progres
▁resol
anol
▁undiagnosed
▁succin
▁transplant
▁LS
▁cytology
▁adverse
▁comprised
▁4-
▁microscopy
▁40%,
inositol
▁progressively
▁abdomen
▁cholesterol
▁Doppler
ervical
▁modestly
erad
Tyr
clim
iol
-1)
▁37
ithiasis
▁6-
cribed
▁determinants
immun
▁chond
▁recr
plants
▁CABG
▁scl
▁nucleotides
▁propor
▁hypertension
inj
neumon
▁smo
ortic
▁compartments
▁epitopes
▁BPs
oscopic
▁1.3
▁amyloid
gression
▁thymus
2),
formin
▁0.03
▁spermat
▁pS
▁guan
▁autoradi
▁HLA
Ss
▁NK
▁96
iotic
inactivation
▁periodon
▁nucleotide
▁phage
erine
▁mM
▁0.00
▁glycoproteins
▁horiz
▁pall
▁heroin
atient
parative
ariate
▁atrial
▁organism
▁peptic
▁11
▁11,
▁suppressed
osidase
▁sucrose
UF
▁gluc
▁extracts
phosphon
siology
▁adenine
▁conclu
effec
▁VL
▁spontaneous
▁codon
tability
vasive
ighted
▁longitudinal
50
▁inactivation
▁HG
virus
▁.05)
▁adip
iological
▁palli
▁HCMV
ymme
atid
▁proteolytic
trated
▁interstitial
oside
SAP
oyl
▁gon
elves
▁squamous
5)
▁tas
▁conductance
▁abd
hort
luc
1.
▁thi
▁colonoscopy
▁soy
semin
adder
orepinephrine
oxin
inally
orphism
▁evoked
etan
odies
GH
▁venous
▁tec
▁surrogate
▁techniqu
▁purification
idol
▁empir
▁ETA
hydroxy
olol
▁fluoroquin
▁LD
▁cuff
▁Intravenous
▁neurop
RH
▁Trauma
▁mediated
45
▁biphasic
▁Effective
▁selective
-5-
▁uncommon
tific
▁Hz
34
▁ocul
▁emerg
▁ration
▁derivatives
▁esters
▁immunobl
▁peroxidase
▁depar
▁ventil
▁epiderm
atum
▁myosin
▁supernatant
immunization
▁panc
stab
▁atmospheric
43
▁exce
rosclerosis
loid
2+
▁alanine
glut
gment
▁antibody
▁aneurysm
▁3.7
▁gyn
▁hydrogen
uted
oty
chloride
▁clamp
-6)
dents
▁180
▁pmol
▁ligation
▁dopaminergic
mature
▁reproducibility
▁macrophages
urethral
▁infiltration
romy
▁NPH
▁cytokine
▁septum
▁apparatus
▁overestimated
▁outpatient
orative
esia
lux
▁20
▁brady
urgically
▁frac
▁conjug
▁lis
▁hepatitis
▁radiotherapy
▁1.9
▁occl
ergy
▁spleen
▁sarcoma
▁preceding
▁2-
▁vena
ducible
▁FV
▁tib
▁55
▁excision
▁8,
▁endoscopic
▁reproduction
tic
▁ablation
▁unexpl
▁adjuvant
▁Older
▁nm
▁differentially
▁mediation
+)
Ia
▁differentiation
isomer
▁preliminary
identical
terone
▁esophag
▁bacterial
▁metab
istal
88
oproterenol
▁hydrolysis
▁reflecting
taining
▁DN
kines
▁defic
▁exten
▁reductase
▁propensity
▁lys
arate
teroid
▁hypertro
mol
▁cirrhosis
▁mug
▁concurrently
▁amy
eck
▁tracheal
PV
esity
legia
▁causal
▁bip
otential
otoxin
▁tethered
ointing
▁Mucosal
ritis
otrop
▁diarrhea
▁dox
8+
olgi
▁hydroly
.9
kinin
▁consolidation
▁0.01).
▁lysosomal
obarb
▁depolar
▁favourable
illi
hicle
tif
ffec
▁mAb
economic
▁testicular
▁enrolled
▁68
54
▁turnover
ilization
acid
osyn
tron
▁100%
mentation
TN
▁systematically
▁shig
▁199
▁48
▁Multiple
iary
▁tris
▁inhibitors
umably
omotor
tally
▁isop
▁depres
▁severity
▁adduc
▁probes
▁oxytocin
iton
maximal
ocomp
chol
lastic
▁collagenase
▁aneurys
ocytic
▁nicot
▁Kup
uresis
▁gait
piratory
ints
▁adi
▁prox
5-
HB
hospital
▁SG
▁limb
ociated
▁Plas
adequ
▁catalytic
pig
6.
▁recons
▁cohorts
▁immunoreactive
roscop
▁atherosclerosis
▁collec
fts
atoid
▁dendrites
▁inflammatory
▁SEM
▁micron
orec
orption
▁microbiological
▁patellar
▁wt
▁phi
iciently
▁morb
14
versely
▁Ara
▁potenti
▁fluc
▁fibre
▁steroidal
venth
▁cytosolic
▁undergoing
ifug
onuclear
osocial
▁pT
▁immunized
▁(5-
romed
EGF
▁Cd
▁autoanti
▁nuclei
▁expon
.5%
clin
▁ALT
itus
approximately
▁Meas
▁MRI
▁immunos
▁chloroquine
duction
▁250
▁lobe
▁lamb
anine
▁unevent
▁intramedullary
tors
▁monkey
genesis
▁centrifugation
-13
▁superoxide
urement
usate
▁scintigraphy
▁thoracic
▁hemis
tis
osom
▁interventions
xide
gulation
▁alterations
erin
▁corne
▁antibiotics
▁molar
▁sple
▁dendri
▁cohort
▁undoubtedly
▁migrated
▁fluctu
▁epitope
▁fulf
▁utero
▁differing
lact
viron
▁400
chondral
ravid
utaneous
▁sugges
OA
▁Continu
▁disks
APC
olenic
▁nonoperative
▁satur
rotid
▁phosphodies
erate
siveness
arotid
▁preven
trogen
▁muscarinic
esting
erated
▁mutagenesis
till
▁metastas
▁scanning
▁ery
▁preferable
▁conditioned
enzyme
icine
arginine
▁vaccines
uin
▁ortho
▁3.2
prepared
▁1.
ogenetic
▁coag
▁subcutaneous
▁metabol
▁parag
▁lymphoma
blast
eric
umulative
vely
gesterone
affec
retion
comitant
▁1%
▁topical
kine
▁Swed
▁carbohydrates
entif
obarbital
▁Tren
odil
▁alp
MRI
▁Muc
▁69
▁moderately
ileptic
▁kidne
▁suppres
▁hippocampal
▁presynaptic
▁recor
IIIa
▁eluc
sia
▁visually
▁selectivity
▁subgroups
▁amputation
▁Whereas
eded
▁radiol
▁precipit
▁patella
resist
sively
pT
▁inhal
▁crude
▁3.8
▁concentrations
16
▁instability
▁induces
▁3-
▁enucleation
▁emphasizes
ffe
▁leukemic
▁superv
▁OA
▁degrad
▁PGE
▁subtype
▁reacted
▁acad
ionine
▁enriched
mTc
ressive
idement
▁mann
ipid
▁MBC
▁rabbit
▁kidney
▁Engl
▁transcriptional
adily
▁0.4
erals
▁parasite
25
▁sensory
oclonal
▁discom
tization
gement
dominal
▁FH
mortality
▁tert
▁PSA
▁cyt
echanical
▁197
▁hypothalamic
▁foc
angli
▁catab
▁dilated
rins
▁prostates
▁chan
icul
hion
▁tumor
▁VP
idin
▁29
▁regulated
tocin
▁polymerase
tetr
▁disulfide
▁tric
jective
▁psychotic
▁rectal
▁comparative
lateral
▁cardiomyopathy
+]
▁oils
keletal
▁10(
▁intestine
▁invasive
▁prolactin
sul
▁proce
▁(13
▁MAb
▁pharmacy
▁minimally
▁lec
iciencies
▁mmol
▁tympan
▁tol
▁demonstrating
labelled
▁31
hep
▁coronal
▁alkaline
▁Routine
▁fatality
▁measurable
2-
transferase
rotein
▁immunological
kephalin
-6
▁macropha
▁kinetic
▁titers
▁AE
imin
▁coexist
▁juvenile
▁VAS
▁drin
ostat
8)
▁functionally
▁deficiency
ocytes
molec
iversity
▁eliciting
molecular
▁acyl
▁Stroke
▁enzymes
▁markedly
▁glomer
▁biopsy
pinephrine
▁inflammation
▁70%
▁catecholamine
▁phenylephrine
ocyte
▁oxid
thym
trin
angl
clic
▁lymphoid
▁Increased
▁fibrinogen
▁catechol
▁predicting
▁selectively
▁atresia
▁electroph
ocul
▁confined
1).
▁PID
assay
sies
resistant
absorption
▁respondents
▁aortic
▁[3
▁chec
▁infarct
▁supplementation
▁RA
fentanyl
▁leukocyte
odium
▁7-
dose
▁Inhib
▁inhibiting
ubtedly
3-
gth
▁Regarding
ulfonyl
▁mutations
ogenesis
FG
dine
HN
▁geriatric
▁fentanyl
▁lumen
49
traction
]-
.2%)
aneously
▁residual
crimin
▁infar
▁Findings
▁morphine
▁reser
▁theophylline
▁Vitamin
▁VS
inhib
▁Ig
6)
▁phospho
guided
ucine
▁inpatient
▁ART
▁antisera
cephal
▁fetal
▁infiltrative
▁consequent
▁clipping
antigen
tig
▁20%
-2)
athyroid
▁polypeptides
crib
titis
▁callus
oural
▁stillbirth
▁hemodynamics
▁DSM
ogenicity
linking
▁0.8
electro
lyl
thyroid
▁immunization
ogenous
▁hyperplasia
▁5.5
arean
13
urc
▁nosocomial
anav
▁markers
ellosis
▁chlor
▁synergistic
▁immunity
▁multivariate
nosis
posure
▁alleles
▁cognition
▁fasting
otr
▁cations
cine
▁13
-9
▁Alternatively
▁(1)
rals
▁eosinophil
▁improves
ithi
48
▁physiologic
▁viability
81
DH
12.
unar
▁epsilon
▁traumatic
▁metabolic
▁irritation
▁abnormalities
utroph
chond
▁GV
CoA
▁cannulae
▁distinguishing
▁PRL
▁substrate
▁perfused
7%)
pregn
▁sham
▁iod
▁rationale
▁lithotripsy
▁ammon
▁questionnai
vic
ogens
▁metformin
▁mmHg
▁yeast
▁TGF
chym
▁hypothyroid
▁appropriately
▁PB
▁diagnoses
▁syndromes
▁infused
▁5'
sian
oratory
▁peri
▁perfor
▁cation
fluoro
▁chromat
▁External
▁histological
▁hypertrophied
▁glut
▁recom
immuno
▁granules
bly
▁NH
▁reposition
▁trac
▁amino
▁intracellular
▁diminished
▁surgeons
▁sti
▁chromatin
▁struc
▁seizures
▁Severe
▁stren
▁limbs
▁unclear
opram
inergic
lective
▁hepatic
▁expenditures
▁hep
▁recurrent
erations
▁labelled
diagn
▁laminin
lytic
▁42
ifferen
tagland
ophore
▁hypog
ensory
/2
▁modif
▁sten
▁pathology
▁detach
titution
sors
onucle
wk
▁6.5
ropo
▁albumin
▁paradigm
▁carboxyl
urse
rague
▁inadequ
arer
ections
▁stimulation
▁abnormality
▁Premature
▁junctions
pine
▁warr
▁hipp
infected
▁myoepithelial
▁Tum
sities
▁intravenous
omial
▁hos
▁Delayed
ronch
▁supra
tase
illus
minis
hering
▁contributory
▁Golgi
▁refrac
▁directional
▁neutroph
▁inducing
▁mitral
▁dissociation
urther
tein
renal
▁fluids
▁recombinant
▁intensive
▁79%
acted
▁uter
▁hypertensive
monstr
IFN
▁progestin
▁therapies
▁ligand
▁elimin
▁streptococcal
▁undetectable
▁neurolog
▁forskolin
▁nomenclature
▁natriuretic
ographically
9-
▁stromal
▁ACL
▁inversely
sorption
nee
▁papill
enicillin
itin
▁regurg
trative
4-
ritin
olateral
orin
inol
osition
olamine
▁corneal
▁splic
▁repetitive
▁adjustments
tries
▁retention
ullary
▁ald
▁enzym
sA
▁inges
▁employing
▁oxidase
oglobulin
▁nonspecific
roin
▁differentiated
ithm
tric
▁pressures
phasic
▁0.2
▁plasm
▁targe
▁cirrhotic
erator
astric
irrh
▁cortex
growth
▁ambulatory
▁elevated
ondral
▁Histologic
▁regis
▁communic
▁distrib
Leu
ervative
▁discharge
10
▁chamb
opia
79
▁sequel
▁gestational
▁sedation
0.5
▁IA
▁contractions
TSP
TNF
Ala
ayers
atation
▁(25
3.
▁embryo
ronchial
▁hydroxyl
atrial
▁activating
bacco
▁overe
▁congenitally
▁radioactivity
umption
▁cardiac
▁lipids
uron
thle
lapping
▁irregular
▁1/
▁vivo
▁saline
oagulation
▁lact
▁MEP
imination
cardi
%).
▁Bone
gm
▁biop
-2
▁adrenal
▁obstruction
ellum
▁gallbladder
facial
▁resear
selec
ymptomatic
▁implantable
ardia
▁coex
acclim
▁degen
▁Forty
Fs
leukin
ontal
▁lateral
▁mitochondria
▁polyclonal
roximately
▁accumulated
▁latency
hers
▁ethyl
▁4.0
▁islet
▁cues
luding
▁BP
▁enti
NK
▁decreas
▁LT
▁persist
rement
▁satisfactory
▁polymorphism
▁rotated
▁respec
▁substanti
▁transient
cyst
alsy
robic
▁25%
▁(4
▁reticul
▁overlapping
▁homogeneity
▁5-
tran
isqu
▁proct
urys
▁consequently
radi
▁feasible
▁radioimmuno
▁excitation
▁newborns
▁triglycer
▁microc
.7
eroxide
▁.0
april
▁anat
ellular
trimental
▁tolerated
▁CI
▁RBC
▁enl
phic
▁minus
acchar
▁laxity
▁24
▁manipulations
bodies
▁subtypes
▁neurologic
seud
acting
▁caregi
bloc
▁pH
▁establ
▁buc
▁saliv
▁metoclopramide
cents
onate
tured
▁previ
encephal
-80
▁infections
opathological
▁PEEP
▁cerebellar
▁glycine
generation
enhanced
▁Hb
▁leuk
trial
▁inhibits
ods
▁orally
amyl
urium
ture
▁resemb
▁scre
▁compressed
tially
▁descending
▁subgroup
▁cytoplasm
▁APD
etus
phil
ilep
aryngeal
▁quanti
▁axillary
contrast
aminop
▁pathologic
glycerol
cretion
▁arrhy
▁fixation
▁appendicitis
oprol
vaginal
ovir
diagnosed
divid
▁innerv
orubicin
▁introduces
▁abundant
olysis
rae
▁pyl
ocaine
▁somatostatin
▁unilateral
▁quin
umerous
oscopy
urgical
▁distinctly
9)
▁89
▁mammography
▁bedside
▁amplification
heric
uterine
▁comprehension
▁virtu
ibi
mide
illic
0%,
ectom
▁microtubules
▁thymocytes
▁Inclusion
▁differenti
▁Vaccin
rogra
tice
▁keratin
▁exogenous
▁chole
▁coexistence
▁198
▁luteal
▁skeletal
5,
▁intrinsic
▁vein
rosis
tage
▁58
▁glucocortic
▁perc
▁cultured
▁evacuation
uminal
▁agar
▁acetate
▁thromboembolic
alan
▁hemorrhagic
▁thrombo
▁pelvic
▁34
razosin
tiazem
▁erosive
▁anticoagulation
rhy
▁bronchiectasis
▁paradig
tead
1-
▁SUP
▁bolus
▁98
artum
natal
Ly
▁complication
▁Trials
thrombin
▁prono
▁interv
▁infil
▁bronchial
entral
▁cytotox
▁hormones
▁77
carb
▁statistically
▁angiography
itone
▁rigor
IU
▁fung
▁elevation
▁Escherichia
ophren
▁estrogen
▁oxidative
knee
▁-2
ustment
▁decreases
olipid
▁amn
ifugation
istrib
57
▁arachid
▁zinc
▁neurological
▁50
▁homologous
▁testis
▁thereafter
vail
▁PGF
▁newborn
▁carriers
yses
▁sut
-2,
afe
▁Roux
▁carbox
ejun
▁80%
▁AO
53
▁35
mittent
▁warranted
▁connec
embr
▁Inhibition
producing
55
▁AIDS
umbar
▁stained
▁effector
anish
▁Phy
▁molecule
▁Tran
educed
ophy
▁administered
xone
erving
▁Kd
igaret
84
▁transi
▁exhibits
ditional
▁clon
▁ischem
delayed
uvant
▁promo
▁acidosis
dg
▁Improvement
▁proliferative
▁resis
▁Pretreatment
edullary
▁aeruginosa
▁epit
eration
▁ambul
undibular
▁IU
ochemical
▁apo
Hu
▁cAMP
▁morbidity
erent
azem
2.
▁palpation
▁needles
▁OT
▁Patient
tero
derived
▁DST
ovascular
▁72
▁melatonin
phenyl
▁diluted
▁chemotherapy
▁spre
▁leukemia
ectomy
echan
▁orthopaedic
▁eosin
-100
▁proximal
▁5
▁periodontal
titu
▁10(-5)
▁vasodil
▁genotypes
▁assayed
ositol
▁fluor
trate
▁manifestations
ocele
▁KCl
iosis
odynamic
▁lifelong
▁attrib
▁1.0
cessive
▁Phe
▁tox
▁78
▁linkages
ensitivity
lication
phosphate
(2+)-
dop
▁(95%
mation
evaluated
▁accessory
uncture
quid
▁26
▁myel
▁identi
anus
fir
▁tibial
▁specialty
▁attenu
ussion
sensitive
▁ovarian
▁socioeconomic
accharides
▁substituted
▁synov
▁mutation
▁fibrosis
▁physici
lac
embrane
▁receptors
▁leakage
▁preventive
▁extracellular
linic
▁tubular
▁5,
▁PMA
idine
gmental
67
▁episodic
▁natri
▁phag
.8
ectomized
▁8.
ulting
1,
▁6.
idem
affinity
ochemistry
AIDS
dle
▁proportions
▁noradrenaline
▁synovitis
▁PCO
mL
▁TCR
rophy
vac
▁antigens
acrine
assi
▁allevi
▁striatal
bearing
▁cartilage
onin
▁devi
ventive
▁resusc
▁assis
ields
▁precursors
▁astrocytes
▁stimul
yloid
▁radiograph
▁muta
▁demographic
▁ulcer
earance
urine
protective
vian
HU
▁catheters
pation
▁detergent
▁3.0
▁accumulation
20
tidine
sar
▁testosterone
▁acetylcholine
uccessful
▁initiation
severe
▁Ultrasound
▁intram
▁PMN
▁ultras
▁metastases
/100
heum
Pa
▁cervix
itrate
increased
▁masked
▁removes
▁HTLV
ilibr
▁shor
▁accelerated
atability
▁differed
▁genomic
oreceptor
▁genome
arial
▁HL
▁suscepti
▁100
trast
4,
▁antagonized
1-2
▁diaz
▁merits
ologous
▁(2)
▁lipid
▁unco
receptor
glyc
▁reactivation
▁concom
▁agonist
▁sequential
▁retrospective
▁etiology
illary
▁Excessive
01
invasive
fib
▁Percutaneous
▁44
▁discusses
athetic
HIV
oxidation
▁arachidonic
▁cirrh
▁2.8
▁negatively
▁plantar
▁OSA
▁injections
/3
▁cytoplasmic
illar
▁AVR
▁precedes
▁specificity
ults
▁autologous
tensin
▁(19
▁22).
▁predominantly
▁TG
▁suppressor
rozen
vating
▁algor
▁apprec
stolic
3),
▁remo
▁alk
▁oesophagitis
orpor
▁awa
ureth
▁reduc
reactive
▁rheumatoid
▁RH
▁compe
▁ESR
▁eti
married
▁phospholip
▁mRNAs
ffs
Tu
phth
▁cef
▁palp
▁supplemented
▁rese
loxacin
▁decreased
alian
▁81
rapid
otypic
versity
anyl
▁calcified
▁cate
0)
▁subtraction
▁rehabilitation
carinic
eptidase
▁mL
▁NB
▁ana
owever
▁45
▁neutrophil
▁LVH
▁Paget
acetyl
▁Rats
▁Bac
Ds
▁capped
erus
ocular
▁inoc
▁kappa
ilic
aluable
▁chor
▁suppor
▁23
activation
▁endothelium
▁PMP
▁Wistar
ormone
▁sulf
▁2
▁dentists
▁perinatal
trex
▁heparinized
protein
▁unic
▁electrode
▁indomethacin
positive
azol
▁influx
▁Pregnancy
▁consultations
▁AMP
zymes
▁mucosa
▁sustaining
▁repaired
iotics
▁ow
▁ventricle
▁iso
▁microscop
▁atropine
▁pedig
▁ramus
▁ultrason
▁loosening
▁normo
ece
esthe
jected
▁rejection
▁compounds
planted
▁LC
▁thickening
▁influenza
▁grouped
orectal
CRP
▁randomized
perfusion
diastolic
activated
▁0.9
▁deletion
▁SBA
▁ischemia
▁curative
osterone
▁(7
olectomy
▁(0.5
▁cervical
▁VLBW
LV
▁requi
▁implic
▁hospitalization
uality
▁Magnetic
▁spectro
▁seropositivity
▁62
tions
▁endot
▁unsuccessful
▁interferon
icep
▁antibodies
ivariate
hesive
▁triv
▁neutrophilic
▁adver
▁nmol
▁erroneous
▁pancreatitis
urate
oconstric
▁creatinine
▁synap
operative
oxic
▁ultrasonography
ifferentiated
▁illustrates
▁valu
▁5.
ophilic
▁receptor
▁selec
LDL
▁phenyl
oxid
diabe
▁inappropriate
▁HPLC
▁uremia
uretic
▁unrel
deoxy
▁pulses
▁myc
▁stimulating
▁Throm
▁cardiovascular
▁inclin
atheter
▁rCBF
▁inters
▁MAP
▁60
▁psychiatric
tents
▁circulating
8%)
valence
▁0.001)
cyt
2318
phragm
▁duc
aldehyde
▁overd
▁bilateral
7%
▁conformational
▁hypo
▁innervation
▁IgE
▁adolescence
▁unexplained
▁cortical
▁Tumor
micro
▁hapl
▁underlie
▁pelvis
▁bic
▁steroid
▁inherent
▁tryptophan
▁immature
glutin
▁recipients
uccess
▁palliative
arthritis
▁ach
▁undertaken
▁discontinued
geons
yro
ochrome
▁bowel
roph
tensive
mixed
accharide
▁pathological
▁attemp
▁gangrene
2+,
▁corpus
▁Cyt
▁melan
Ca
.5
omerular
▁aggregation
▁bac
▁predominant
asal
employ
▁immunofluores
onium
▁moiety
▁vaccination
▁artery
ostal
onol
nucle
tivation
▁BALB
▁serotonin
▁ile
▁doses
rowth
osus
thmatic
▁crest
tinu
▁discus
▁immun
▁stimulus
▁thromboemb
▁cyan
▁anion
▁indi
▁dib
▁1988
▁prevalence
▁elong
▁highl
ondr
▁([
versal
ophils
otomies
▁thrombosis
▁allo
copic
amet
olism
▁ossification
▁isch
tained
▁gp
▁follicular
▁IBD
▁nitro
▁kb
▁refractory
▁hypothyroidism
tophan
▁HU
▁membran
adherence
▁hemisp
▁inactiv
▁LV
▁gamma
▁ANP
trac
lastoma
otri
▁glucose
rologic
▁duct
▁arterial
▁homogeneous
ternational
▁clinician
▁PCT
ginine
otyp
ubted
▁malignant
▁AGE
ygo
phen
▁recess
olated
▁obser
▁pancreas
▁0.1
▁individualized
▁dex
estions
▁irradiated
▁prophylactic
▁fibres
vit
02
▁symp
▁hemo
-1
▁32%
▁SNP
▁omega
▁cann
▁UT
fected
5'-
▁tach
ochondral
▁cys
dimethyl
▁gynecological
▁rheum
acyl
▁micrograms
stages
▁hemodialysis
▁Stu
mental
▁conges
gland
puts
2+]
▁preterm
2%
retro
turally
aminidase
▁objec
▁lymphadenectomy
▁necro
▁4%
▁tymp
▁lysis
inear
enon
ught
▁radiography
tention
▁lar
asses
▁pertussis
▁lith
▁PKC
▁gradi
ylephrine
▁complications
▁fluoride
enzymatic
xual
▁kcal
▁pineal
▁catheterisation
otides
▁vitamins
▁averaged
▁assessments
minal
▁Nine
▁antic
▁Cytoplasmic
omod
opramide
vate
▁postmenopausal
▁linkage
▁astro
▁caro
▁counseling
oglobin
▁strand
jects
23187
oplas
adren
▁RP
▁glycaemic
▁Medicare
andard
▁RAR
▁0.
▁tailored
▁deterior
▁qualit
▁exis
▁Mn
▁insertion
▁muscul
▁untreated
▁abnormal
▁Sprague
▁chol
ertion
bac
gli
▁cytotoxicity
iliac
▁3%
omal
▁assessed
apeu
Ba
▁myeloid
▁annulus
▁foci
▁islets
▁pathologically
controlled
▁standardi
▁Whilst
▁deficiencies
▁latent
econd
▁hyperp
▁lavage
terolog
icardi
aceous
▁erg
▁axonal
yroid
ellar
▁beha
plasia
▁perce
▁arthritis
▁(6
▁concomitant
▁Alcohol
▁empirically
▁heterogeneity
galact
▁7.5
▁phospholipase
chymal
▁amp
▁encounters
ecu
achol
▁Hg
▁phosphatase
▁cavity
odialysis
Cy
eak
▁fractured
▁MN
KD
▁strepto
▁excitatory
▁indeterminate
▁disparity
▁implant
▁CSF
phasis
▁endochondral
erative
▁inflamm
▁progen
phyloc
partate
idase
▁leisure
▁buccal
▁interp
▁lept
erating
▁interpre
▁CK
▁chorio
ocl
▁elimination
weighted
treated
tel
atment
oretical
▁61
bility
▁HCA
▁7.
▁perox
nisone
2,
▁1.4
rati
din
▁ethanol
▁94
▁Trial
▁(15
▁hydrophobic
▁preferen
▁Bec
ureus
▁lymphocytes
mitter
▁kerat
dia
▁develops
▁32
LB
▁luminal
▁inward
opoietic
cus
▁exclusion
▁ouabain
▁extensor
▁Experim
▁basal
▁(0.1
iability
▁tamoxifen
epti
overall
▁immunosuppres
▁injected
▁defective
▁pregnancies
tural
race
responsive
▁VE
duce
▁anesthetized
▁blockade
▁angi
▁gallstones
▁agon
▁withdrawn
▁contamin
vant
oresis
▁epinephrine
EG
▁Increas
tribution
opi
ucle
fine
entical
ulae
▁yr
▁residue
▁tubes
▁22
lore
▁underst
▁NADH
▁repro
phon
▁grafts
1),
▁coeliac
▁radiolab
▁hypoxic
▁embry
▁2.9
▁leukocytes
▁behavioral
▁simult
atectomy
▁83
imens
▁bp
▁MV
▁interacted
▁suppression
30
▁haemorrhages
▁fragility
▁uniformity
▁modality
▁disparate
tality
▁deoxy
▁12-
▁immig
▁uro
▁isolates
ithms
▁gout
▁hypoth
▁mV
regn
years
tate
▁differen
▁neuron
19
▁inver
tension
pinal
neal
▁uterine
▁calf
▁decisive
▁impairment
▁intercostal
▁75%
▁suturing
henyl
▁Lys
▁antec
▁Neu
acial
topril
▁spontaneously
▁substantially
mia
▁ceased
ditions
ceptive
acin
physiological
▁readings
atif
pap
-5
▁40
▁cros
utyr
kely
6%)
▁splenic
Ka
▁beverages
ojejun
iloride
▁mixtures
▁ruptured
▁spectroscopy
44
▁metabolite
hetamine
.8%
ensi
▁coli
▁insuff
▁HSV
2)
▁anastomosis
▁retur
▁verteb
olon
35
▁practitioners
▁pathway
Gi
▁fatalities
▁prognostic
▁produc
tation
▁dexamethasone
▁NGF
▁endothelial
▁hypers
acerb
osine
▁pretreatment
oidal
24
▁cereb
▁glands
pecially
▁39
▁vesicles
▁polyethylene
▁causation
▁selen
▁Taken
▁acceleration
▁PVR
azole
olus
▁histopath
olis
rone
▁prudent
oracic
▁intrag
relevant
Tc
▁intermedi
cold
▁correcting
▁leuc
▁abdominal
IH
▁esophageal
▁unex
▁acute
00
▁aerobic
▁6
▁fron
itance
▁incubated
▁lamina
/6
▁amyl
▁HCM
▁astrocy
:1
▁nal
▁progesterone
▁spon
▁granulocyte
▁rebound
oscop
nowled
▁nasal
▁distal
sue
went
▁anaerobic
odon
amate
▁continence
toxic
zard
▁GSH
lyc
▁asymme
▁difficul
▁eyelid
▁Consideration
97
lasses
▁dodecyl
▁comprehen
urrent
olip
▁underwent
tive
▁scoliosis
▁MG
▁deli
▁proposes
▁suture
▁chemotactic
heximide
▁Pseud
▁fibrob
aemia
ethylene
▁physi
▁hazard
iably
produc
▁ensured
ostatin
▁labeling
▁preconditioning
ranolol
▁placenta
opamine
▁nM
aline
urin
▁schizophrenia
▁cortic
rophenyl
thmic
▁amin
▁lipase
ectable
▁estradiol
▁acin
aturation
carcin
ventricular
helial
kinase
oretic
▁ratios
▁aort
▁coval
.6
phosph
'-
▁tryp
▁1-
▁familial
▁relapse
urea
immune
▁reper
ynaptic
▁cytosol
actin
▁gallst
geal
orax
▁amyloidosis
▁0-1
iatum
▁stellate
▁bypass
▁additive
▁0.01
modulin
ogenes
▁ejection
▁vegetable
trus
▁unselected
▁chronically
▁hypot
▁analogues
▁abolishes
▁conceptual
▁mitochondr
usp
▁MH
ifed
-8)
atinine
▁CRF
▁sperm
ercul
▁cardio
▁competi
idate
▁phorbol
▁pathologies
▁perin
ocin
linolenic
▁asymptomatic
odgkin
▁kine
electric
▁viruses
itic
idis
▁supple
▁HC
▁reimplantation
▁detrimental
xiety
▁athe
▁assemb
▁overexpression
▁neuronal
adication
median
▁ure
▁gly
lycemia
▁evid
▁subpop
oxone
▁underline
ipine
qui
acetic
ialysis
▁pressor
▁attributable
oxygenase
▁contrib
.2%).
mig
▁4,
▁15-
verages
FGF
▁putative
▁seb
fication
▁surgeon
▁aorta
▁prophylaxis
ucleation
-5)
▁peris
▁7.4
▁CPAP
opo
▁carotid
▁osteoporosis
▁PTH
▁cephal
▁exer
nRH
▁thymidine
-1,
▁57
▁retinal
trip
▁blin
rele
▁sci
ocrit
▁pla
lax
▁subcellular
▁gangl
▁acetyl
▁exceeded
▁trophob
▁rabb
▁consol
astatic
phyl
adrenoceptors
responders
chloro
▁acidic
▁HPV
▁Cushing
.1
▁tubercul
▁rash
▁regimen
olecular
WB
▁hypothalamus
▁GnRH
▁90
▁medullary
▁confir
▁tumours
entan
▁Dil
▁analogs
▁endotoxin
tructural
istor
stranded
▁[14
▁noc
▁epidemic
dent
aminergic
▁hippocampus
▁Vmax
ochem
oderm
ometrial
▁RM
▁liposomes
.3%
agic
2%)
▁disagreement
▁paraventricular
▁encephal
onuclease
36
0,000
▁reproductive
▁onset
ameth
osamine
▁regen
▁streptococci
▁drainage
▁birthweight
▁7%
turb
irrhotic
ulcer
moid
cation
rocy
▁restric
zyme
▁defects
▁wk
-19
▁86
▁protoc
+/
vul
▁38
ACh
▁Larger
▁endos
▁cysteine
▁24-
omedullary
▁inhibited
osome
▁Hep
▁macrophage
▁catecholamines
▁pren
▁excreted
▁allogeneic
apeutic
AO
▁restor
▁prednis
▁inhibit
DNA
▁occupational
▁glucagon
▁labial
▁obese
▁microv
▁scin
evaluation
▁errone
▁caffeine
▁resected
▁resection
▁respiratory
▁chewing
▁granul
▁21
▁97
▁cla
▁adolescent
sequent
▁GVHD
▁corticosterone
▁1
onary
otting
▁cue
hydrox
▁apop
rehen
ths
estis
▁renin
dies
onography
essive
othane
▁PBB
pS
▁microm
▁elu
▁prel
▁pneumonia
ococci
▁HS
ecal
filtration
▁oxy
udin
lycer
▁haemorrh
▁resuscitation
ustif
ollicular
▁caud
▁activator
▁Ras
▁implanted
▁1.2
▁sodium
▁statis
▁inactive
-60
▁regurgitation
125
▁congen
▁ICM
otom
-7
▁ventral
▁pyr
irub
/10
▁Removal
▁Samples
▁Recurrence
▁afferent
NH
▁hemisphere
▁oxidized
▁impacted
▁endoc
▁Preoperative
▁shunt
▁aspec
-[
agin
▁tachycardia
-15
▁septal
▁bronchi
▁sebaceous
uscular
▁clinics
ozo
▁dissec
▁carbohyd
▁WHO
olarization
▁NMDA
tib
▁Rout
▁ascertain
▁analogue
▁livers
rophob
▁binds
▁10,
▁multiv
▁thyroidectomy
▁prostaglandin
2).
mur
▁projections
▁pleomorphic
mend
▁enzyme
▁TSH
▁reagents
▁cadaver
▁transfected
ficial
26
▁chromosomes
▁insertions
▁extrac
▁intraper
▁beats
aem
▁xen
tun
80
rox
▁mucosal
▁(9
▁systemic
▁substitu
▁inadvertent
scher
phosphor
▁disappearance
olesterol
▁yielded
▁110
osal
▁biosynthe
oprec
rof
2+-
operoxidase
▁60%
▁poten
▁0.3
▁150
▁hybridization
duced
▁cleavage
▁99
▁VIP
▁2.6
timal
istar
amycin
birth
▁remin
truc
▁Plasma
▁pter
▁1)
▁granule
WBC
▁enteral
▁tetr
blind
▁calmodulin
terminal
▁virul
-3
amide
ocellular
▁Physicians
coh
▁cGMP
▁coronary
▁efflux
▁alve
▁fibroblasts
elan
rectal
▁undergo
▁subun
reness
ysm
▁41
alp
ophylline
▁mammary
▁sulfate
▁libr
▁granular
▁alveolar
▁fluores
Ti
clo
rants
▁stimulatory
▁congenital
ylation
▁phosphorylated
▁pacing
induced
▁carcin
bumin
▁carcinoma
▁variants
ducts
▁BAL
tance
roma
▁overdose
incubation
▁mediates
owel
▁hydroxylase
tory
▁120
tus
otide
▁optimizing
▁Patients
0,
rectomy
▁secretion
▁1987
▁Contr
▁geniculate
▁antegrade
▁sarc
▁regulating
▁predictive
▁disrup
▁tomography
▁exert
▁IH
▁chromosome
▁follic
▁Progression
functional
lob
▁(17
▁termination
cAMP
▁HM
▁electrophoresis
ivation
-9,
▁salivary
▁microtub
▁EDTA
▁complexes
▁10
4+
silon
▁Clinical
▁adhe
ycin
gents
▁hypothe
otroph
▁aureus
benz
▁donor
plate
5%
pecific
▁gad
sess
▁deterioration
antial
▁examin
▁acids
▁vasoconstric
▁olfactory
▁cytotoxic
drome
eptides
▁deduced
zole
▁SGA
▁neoadjuvant
000
104
▁phe
▁70
spective
▁monomer
ncy
hyp
▁Mothers
7.
▁chromatography
▁arth
▁TC
kele
▁ventric
▁3)
▁deficits
Kd
▁(198
▁inactivated
tisol
▁Hear
tected
ivered
hemical
rease
▁prospective
▁biom
▁(14
▁colloid
▁routinely
▁advan
▁precur
uric
▁unin
▁201
▁implicated
atical
▁births
tized
▁10(-4)
opolysaccharide
▁heparin
▁Alternative
▁respiration
▁27
▁monit
▁transcription
▁docum
▁baro
▁heavier
▁lumbar
▁analyses
oskeletal
uginosa
▁correlate
▁polyp
▁fetuses
cores
▁naltrexone
▁trache
▁RB
▁10(-6)
▁IIb
▁enrol
cholesterol
▁ket
oag
▁88
▁crystall
ustained
stimulated
GV
▁enzymatic
▁coel
▁sacr
▁BW
MN
▁hypotension
▁persisted
ressing
▁retin
▁adrenergic
▁spi
▁DH
▁carbachol
dehyde
▁detec
▁bronch
▁35%
phrine
▁slices
adherent
onous
operox
mented
irradi
▁projec
6-
▁Thromb
▁EGF
▁17
▁deficient
▁reevaluated
oplasty
▁detectable
Ki
▁elicited
subunit
▁potentials
anese
▁cutaneous
▁3.5
▁monocyte
▁15
▁95
▁perforations
▁DP
5).
utive
valent
▁intervertebral
estig
atisfaction
monella
heal
▁FHR
▁cholecystectomy
ofol
▁percutaneous
itoneum
icardial
iotensin
orrhagic
▁IPF
▁pancre
itures
▁2.4
olytic
prising
ognitive
▁colonization
trexone
▁EG
glum
▁acupuncture
▁collateral
▁intrav
▁noncom
odiaz
▁histopathology
▁synthase
odality
luent
-18
physiologic
▁shortening
▁sulfonyl
▁jejun
▁usefulness
ropine
.7%
▁actin
rength
edic
▁psychotropic
▁definite
▁advancement
▁lymph
unctional
▁25
▁juven
▁musc
▁metabolites
▁attentional
▁intragastric
▁upstream
kephal
heres
▁impaired
▁adolescents
ergency
▁cholest
▁incidence
itamin
opam
▁molec
▁lam
ograms
▁ultr
▁AVP
▁reproducible
▁abor
▁ischemic
ompan
▁(197
▁hCG
▁theore
▁adaptive
tral
▁cyclospor
▁equilibr
.3
lobin
oA
▁minerals
▁Comparisons
▁soybean
▁alteration
▁favorable
▁poin
▁tissues
ogeneic
▁eyel
▁PAF
isture
alc
▁IGF
anic
feren
▁plaque
▁indetermin
▁1.5
▁radicals
▁linole
▁mononuclear
▁perfusion
▁cholinergic
aryn
▁sinus
▁heme
▁connective
▁epileptic
▁Intra
ococcus
▁(50
-6-
▁MCP
essel
sibly
▁sev
▁autonomic
encl
▁sphincter
5.
▁reactivity
▁encoun
Phe
▁pene
▁GE
gia
▁fluorescence
▁combin
▁0.01)
ept
▁AMI
▁monoclonal
otent
▁seroton
▁vaccin
▁positively
glutinin
▁vagin
ulitis
piration
▁VD
▁(100
▁6%
▁neurom
licular
▁deformities
ctive
▁500
▁pathogen
okine
▁aggravation
▁(2
▁adhesions
▁poorer
▁messen
▁parotid
ensities
oxane
thel
▁adenocarcinoma
▁spikes
▁hormone
▁mutant
▁(3
12
▁rostral
▁anomalies
▁vaginal
▁hydrox
▁motility
▁deformity
hei
▁rhe
9%
▁LHRH
▁ancestor
tin
odg
▁posi
2/
▁fractional
▁intravenously
▁facilit
▁counteract
▁bloc
▁discon
▁200
▁fri
▁monitored
▁onc
amethasone
ocarcinoma
▁Emergency
▁subunit
▁sensorineural
▁64
ypical
)2
▁cryp
▁lithotrip
▁microb
▁(0.0
▁ingestion
ositive
▁Hyp
▁mono
obic
▁colonic
▁provid
helium
▁vesicle
essional
37
▁cocaine
olones
ffective
igel
.6%
toxin
▁discordant
▁irradiation
▁mening
▁monkeys
▁bradykinin
implantation
▁neutrophils
▁Pregn
genital
urally
▁progest
▁ester
▁microns
oceptor
oplastic
▁inhalation
licate
▁symptom
erents
▁arteri
toph
tach
▁46
gluc
veness
lys
▁antagon
▁antigenic
▁lesions
▁300
▁terminals
▁52
▁ultrastructural
▁elic
▁secreted
kground
▁adjustment
▁circumferen
tingu
0%)
oplast
▁mitogenic
▁pharmacological
mediately
▁hemat
▁nonadherent
▁nutritional
oic
3%)
CCT
ameter
▁complemented
56
▁atmosp
urrence
▁chloride
ulph
▁95%
▁adhere
tial
lectomy
ectasis
▁monounsaturated
cis
▁pHi
herence
▁manu
450
arrhy
▁GPs
▁comparisons
▁glutamate
▁accel
▁ionophore
▁Serum
▁autoimmune
rane
leu
▁wors
idated
mediated
▁physicians
▁studi
▁afferents
▁preoperative
▁outflow
▁cancers
▁gland
ffinity
atories
tolerated
▁excimer
▁postoperative
▁kD
▁deprivation
▁epi
▁cerv
▁(1
▁phenotype
▁carc
stimulating
▁transferrin
ovine
▁documenting
osynthe
1%
coated
▁benign
▁engraftment
▁adequ
▁hetero
enteric
▁2.0
amn
hypertensive
vements
erum
▁clinically
▁ECG
▁progression
rene
▁cumulative
▁1989
▁prosthe
▁lambs
▁4.
▁Elec
▁supernat
udent
▁CSA
▁cardi
hydr
▁overlying
▁obesity
▁73
entricular
itally
▁depic
assium
▁thyroid
▁neph
adiol
▁ASA
occi
truction
▁lymphomas
▁fractures
▁stroma
▁sampl
▁reflux
hea
▁67
ximide
32
▁ipsilateral
▁alcoholic
▁ACE
▁NAD
▁omitted
▁criter
xpression
rk
-2-
19-9
chlor
▁cloned
nitro
ophil
▁TA
▁injur
▁thiol
▁oxide
tility
▁Mg
amines
▁adminis
▁1.8
▁medulla
▁stenosis
opha
▁halothane
▁arteries
▁neonatal
▁Treatments
17
▁inad
▁1,25
ocusing
RU
▁naloxone
erb
▁eryth
▁hazards
▁localized
▁9
▁cholestasis
SPECT
▁neurones
-3,
▁trough
Ra
▁BV
sibility
▁transplantation
HG
certain
▁quantit
▁pec
▁14
4).
▁hams
trol
▁nec
▁fibr
▁thrombin
▁variability
▁cyclosporine
▁preceded
▁(54
▁stimuli
▁splenectomy
lowering
ocrine
▁NP
▁implicate
▁adhesive
▁atheros
isol
11
bular
ubiqu
▁synthesis
▁prescrib
▁consecu
▁empirical
▁sequelae
estigated
releasing
▁21-
luded
▁5%
oplasmic
▁trypsin
▁uncom
stim
tabol
▁anesthesia
▁comple
venous
▁socio
▁1.7
▁20-
▁19
▁cG
sive
tering
▁[125
▁gels
▁heavi
ortal
▁amput
reast
▁pharmac
.2%
▁discer
+,
▁rhy
▁excre
▁mitotic
▁immunode
lop
▁conduc
vertebral
tam
▁Acute
▁pyramidal
▁diabet
▁ligands
▁PCOS
insulin
oblasts
▁phon
▁malle
ocor
rine
▁(18
▁cava
▁43
onit
▁insulin
▁modulate
▁ADP
▁transrectal
fos
▁0.7
occal
lyce
▁androgen
▁fatigue
▁sickness
▁metast
▁mitochondrial
▁PV
cutaneous
scherichia
ocardial
uvate
Ara
▁pep
acylglycerol
▁vitro
atural
▁plasmids
▁genic
▁ascer
▁12,
▁graft
ventional
SCC
▁edema
ocortic
-0.5
▁93
▁anaesthe
omized
▁creatine
sectional
▁pyram
▁cerebellum
gic
motic
▁lax
66
oactive
▁swelling
nine
arbonate
▁fertil
▁Treatment
▁somat
▁densities
▁challen
▁adipose
▁synchronous
-10
▁haem
▁dopamine
31
▁extraction
cad
▁16
▁urine
▁urinary
sible
ixation
▁ane
▁plas
▁globally
ochondr
▁reversal
▁substrates
▁perip
▁proteins
angi
▁permeability
▁transfusion
▁chemo
▁deficit
enin
otre
arers
ofluores
▁EEG
▁deem
▁antiserum
▁IB
-1.
helin
ithelial
flux
meth
▁0,
▁plasmin
▁heterogeneous
nI
▁angina
omical
▁0.05),
hydro
ffin
▁3'-
▁systolic
▁airway
▁echocardi
tub
-4)
▁correlated
inusoidal
▁laboratories
▁deliveries
▁unemploy
▁APC
▁optimum
▁discern
siologic
▁stratification
▁anticoag
78
▁scaled
▁mediate
▁subjec
▁insufficiency
ylase
onance
▁intrac
▁interleukin
idazole
▁1000
▁Therapeutic
regulation
ourable
elvic
▁toge
▁pathways
(2+
graft
▁fragile
▁0.01),
▁tracer
▁FS
▁fibers
▁radiological
othelial
▁TT
▁modulation
▁distinctions
vity
▁molecules
eliac
ronous
▁BD
▁methyl
▁morphology
ocar
ymptom
testinal
graftment
enol
armac
▁cytochrome
▁overweight
ubicin
▁PEG
▁deple
▁vaccinations
▁intrap
▁blot
▁tuber
▁disadvantages
crip
▁endoscopy
itro
▁filaments
(1
▁phosph
▁chromosomal
▁2.3
dor
▁anae
▁herpes
▁hypoglycaemia
▁myocardial
lox
▁(11
ilated
▁3.4
▁myocardium
▁enlarged
ediatric
▁contex
▁IgM
▁ae
▁exercised
rotic
▁uncovered
nutrition
ineal
▁adenylate
Ts
▁repor
▁undisturbed
▁PAS
▁reevaluation
▁reperfusion
▁OCD
▁hygiene
rogenic
▁impair
grees
tative
idney
oru
▁MM
platin
▁ions
▁pulp
▁GER
rosine
cious
▁THA
achid
▁immunomod
.4%
▁Excess
▁trophoblastic
▁developmental
(+)-
▁ovari
estim
LH
▁paralle
▁axons
ifedipine
▁abl
▁mandibular
▁facilitated
▁Imaging
▁underg
▁asthma
adrenaline
▁50%
▁oxidation
▁inapp
▁stimulates
phrag
▁veins
▁hepatocytes
-4-
elong
▁fetus
▁acetab
▁contractile
▁unstable
▁resistant
▁mec
phal
▁toxin
regulated
▁(16
▁LN
▁osteoporotic
coun
▁assurance
▁3,
▁detecting
ATPase
,000
▁mucos
acr
4%
▁radiolabeled
▁53
▁dors
▁duodenal
▁screened
fal
▁NaCl
hemo
▁phosphorylation
▁timely
▁.00
▁7.8%
ethyl
▁SCH
▁axon
▁exacerb
▁leukotri
bic
▁inference
▁tran
▁flexion
▁cerebral
▁poses
teroids
▁examinations
adrenergic
▁medial
▁trig
▁hern
ognition
▁isoproterenol
okinetics
▁recombin
▁ruptures
▁homology
CMV
▁atres
uran
▁phosphate
▁exon
BH
▁microcirc
▁8-
-8
▁gastrin
romes
▁retard
▁vasomotor
▁digestion
anking
▁balancing
▁inositol
▁incomplete
▁aiming
▁affec
▁procedural
▁lumb
▁debr
▁wee
▁adhesion
▁glycoprotein
▁VC
▁0.001).
operatively
▁potentiated
▁plur
▁calor
.0
▁chemically
-4
▁nig
dibular
▁desirable
▁deposition
tious
cale
▁adap
▁gestation
osin
▁corticos
▁quantif
vation
▁electr
▁mammalian
lysis
▁intrauterine
▁steroids
▁76
▁ultrasound
▁85%
▁CAM
ostom
▁shif
▁traum
tiveness
18
▁prenatal
▁disapp
atine
▁workload
▁discrimin
▁inser
▁31-
▁infusion
ymp
▁yiel
▁induc
▁differe
▁headache
▁canine
▁venti
operated
genic
▁dele
omatic
onstric
sych
▁glu
▁mice
▁neo
RNA
alues
▁arrhythmias
▁thal
1/2
eptide
▁pneum
▁predictability
totic
ionic
▁allele
▁triglyceride
▁adenocarcin
ffeine
▁focal
▁immunodef
titial
aluation
hemia
TK
▁suggestive
imide
ietic
▁radiographic
▁polymer
▁sclerosis
▁disper
▁rats
▁suppressing
lue
▁TK
▁3.3
▁tubules
5%)
▁supervision
▁chemot
plastic
▁constitutes
▁Protein
luores
▁gastric
ecyl
cysteine
▁oes
ective
iae
▁definitive
-17
▁ATP
loride
kDa
atients
▁mediating
centr
▁PAN
▁clearance
▁viral
opathic
85
TB
▁kinase
▁referrals
tradiol
▁effic
oride
oxygen
▁hygi
▁exposures
29
ergen
etween
▁polyacrylamide
▁laparoscopy
HF
▁utilization
▁87
adian
erper
▁Estrogen
▁conduction
▁captopril
transplantation
endri
▁acet
▁plasmid
tamine
▁electrocardi
▁balloon
▁resonance
▁ageing
▁IgA
▁migraine
▁BMP
▁(10
MDA
▁postoperatively
▁discriminative
urgery
ylic
+)-
▁vulnerability
▁66
▁addi
▁IVF
▁NF
▁CRP
▁glycogen
phosphorylation
▁muscular
sulf
1-3
▁Cardi
tically
loon
incidence
tetra
▁vomiting
anthine
▁immunohist
timulation
▁staging
terl
ropyl
MIC
HM
▁Chronic
iasis
▁epithelium
▁bicarbonate
▁3'
mutant
▁eosinophilic
ancreas
▁2.2
▁peptides
illin
▁DFS
vein
▁aldosterone
▁fmol
gastric
omethacin
▁discontinu
▁instrum
▁phospholipid
▁transmembrane
▁Chest
oluble
▁aden
▁oligos
▁thyro
ilateral
▁IHD
▁saturation
▁spectroscop
fec
dial
▁prostate
▁Addition
8.
cells
▁ADH
▁oligonucle
▁deform
methyl
▁haemorrhage
▁referral
ceptual
▁reagent
▁terminus
ensit
genes
▁aerob
▁rup
5,000
▁cows
▁smokers
tened
omies
▁cigaret
▁illicit
cence
▁IFN
ervations
▁throm
-16
▁reas
▁pancreatic
rested
▁tachyc
▁predicts
▁FSH
ffer
LF
▁cellular
▁ACTH
▁agonists
fat
▁biliary
ivoc
▁appendic
▁tertiary
▁hyperg
▁numb
omonas
-40
uoden
siological
▁optic
▁endothelin
vices
▁stu
▁MHC
▁eradication
▁dosage
acental
▁transplanted
▁autop
embran
6%
▁erythrocyte
▁thromboxane
olec
ioid
Ta
▁(10(
▁ovary
▁intra
idne
trical
▁adop
discharge
lobulin
▁frontal
▁decarbox
▁diabetic
▁attenuated
60
▁adren
▁induce
▁PRP
(5
▁(12
containing
orbol
▁HeLa
7-
▁somatic
nec
cture
▁memb
▁sensi
▁54
39
atonin
derly
▁subsp
▁endoscop
lesion
▁biases
estion
▁platelets
▁SDS
▁6)
▁isomer
aterally
▁dischar
▁ips
▁(3)
tur
Hb
9,
tional
.9%
leb
▁follicle
▁exhibited
edle
▁pneumon
▁cataly
ocytosis
▁PDGF
▁speculated
▁CFU
▁65
▁unaffected
phosphonate
▁uncomplicated
thmias
▁retina
acet
▁proton
▁tet
▁transcript
▁cerebrovascular
▁pediatric
▁preoperatively
iferol
▁brom
▁dilution
▁600
▁tumour
▁vancomycin
▁diagnos
ometr
▁-0.5
TU
21
▁remission
▁myocardi
▁NADPH
▁tumors
sus
▁antigen
ovirus
▁Dopamine
▁warrants
▁GFR
oten
▁glycerol
▁aqueous
ochlear
wenty
▁inhibin
▁mitogen
▁diap
▁moles
▁glutamine
inephrine
apamil
▁Adherence
▁translocation
-24
99
tec
▁phosphatidyl
▁nulliparous
▁contral
▁physiotherapy
agal
▁Leu
ectomies
▁disturbances
▁stric
globulin
▁mRNA
▁plateau
▁LPS
▁phosphor
osyl
100
peptide
1/
▁evaluating
▁analges
▁hyperfiltration
▁prolif
▁dendritic
▁prevalent
▁adenosine
tituted
▁Adverse
▁adjunct
▁cyto
-1-
ronectin
▁PCR
▁accounted
▁endometr
▁judged
▁embryonic
▁hypox
▁clinicians
▁assay
▁musculoskeletal
▁hospitalized
▁fibrillation
▁Surgical
ancre
tages
▁ventilatory
▁10(-8)
▁dehydrogenase
ameters
IGF
igravid
.4
estive
▁cartil
▁malign
tent
erable
▁validated
rC
▁superficial
▁similarity
▁peroneal
tics
▁Ket
alanine
1)
▁thym
Tn
▁pharmacists
▁refraction
▁ultim
entists
▁LOS
▁suprap
▁lysine
▁endarterectomy
throm
▁homogenates
▁spike
▁derangement
echn
jun
46
pir
▁palsy
▁stimulated
▁guanine
▁hamsters
▁Improved
▁questionnaire
▁unchanged
opres
ulose
stem
▁possi
ignific
thre
▁hu
reas
▁regression
0.0
transformed
▁cholec
▁TBI
MV
▁vascular
ostomy
▁appropriateness
▁polyps
▁volumetric
▁erythrocy
▁precursor
▁guinea
orac
▁5'-
▁poisoning
▁GH
▁aggregates
stro
deficient
Cer
▁confound
▁msec
▁coagulation
▁avascular
▁induction
lier
▁20.
ylchol
roscopic
▁interfere
▁Comparison
reased
▁79
▁blockers
▁equivocal
▁biopsies
▁dialysis
ometh
▁loci
▁vasopressin
▁oxygenation
▁diabe
ticular
▁prognosis
▁synthesized
▁cancellous
▁provocation
▁progn
▁fractions
▁HB
▁sediment
▁IUD
▁SHR
lasting
▁Kupffer
clinical
▁increas
faction
openia
▁myo
▁lyso
anding
▁71
adic
ocarcin
▁thorac
opa
▁aspiration
olone
loro
▁dehyd
inemia
▁promoter
cored
▁tes
▁Healthy
▁vitamin
▁potent
▁glycos
▁circumference
attern
▁colorectal
▁kidneys
▁fibroblast
▁influenz
5),
▁Prophylactic
onyl
FH
ilized
▁MRC
▁chl
▁clus
NAP
