▁decline
▁minimize
▁TC
▁fractures
▁rebound
▁2)
▁complementary
▁involvement
▁intensive
▁gout
entif
helium
erated
▁prognostic
ithm
▁laparoscopic
anine
eration
▁molec
▁tonsil
▁chol
▁TSH
▁atten
▁Streptococcus
reast
▁referral
odynamic
▁hypoxia
▁chan
▁cigaret
▁reproduc
▁laparoscopy
▁AE
▁lumbar
▁Trial
▁plur
glut
▁abnormality
▁nmol
▁remission
▁1.6
▁AMI
ipient
▁Neither
valent
▁ischemia
icin
▁congenital
owever
▁Patients
▁contribut
hyd
▁beating
▁alterations
Cu
tingu
▁respec
▁microgram
▁bovine
piration
▁EGF
ulatory
▁ure
▁progestin
▁overweight
▁chemotherapy
acr
▁Systolic
▁indi
hep
lyce
▁decisions
▁drinking
▁elimination
▁conclu
essential
▁receptors
trogen
▁Addition
inol
▁dislocation
ilic
▁consolidation
dial
placement
lux
radi
▁benz
▁Surgery
acial
▁ovari
▁adhesive
▁overestimated
▁Emergency
sess
5.
opathological
▁adequate
▁differentiate
igaret
▁waist
▁pharm
osomal
▁toxic
minal
ropriate
▁platelet
onol
yel
▁mec
▁indetermin
▁equivocal
ulates
▁sulfonyl
▁cirrhotic
▁predicts
▁purified
▁Concomitant
▁Severe
▁reconstruction
▁audit
▁pylori
▁pharmacological
▁Immun
ompan
▁temporarily
▁birthweight
▁schiz
▁elevation
▁PCR
asting
▁fentanyl
sities
ogra
▁minority
▁multifactorial
-100
▁peptide
wk
hydrox
▁DF
cutaneous
oic
avage
▁(7
rins
▁characteris
▁nuclei
erop
▁HCC
▁iliac
▁epiderm
▁HL
▁unc
hemia
▁lact
mediated
▁protective
▁cancers
▁39
atine
▁TB
▁amyl
▁revealing
▁incidence
CSF
▁implications
▁fibroblasts
▁TAA
▁rhy
▁disadvantages
▁abolishes
opamine
▁rectal
▁illness
discharge
VR
▁excimer
78
reness
illus
-20
▁loosening
▁resec
▁vancomycin
▁mechanisms
requ
▁glu
ocardi
▁therapy
weighted
ectom
▁strom
veness
▁promo
▁reproduction
▁normalized
▁constr
▁decreased
▁diagnos
▁extre
▁anastomosis
ocele
▁perception
▁ery
▁seizures
▁asthma
▁neurological
atories
▁potenti
ilateral
ergency
▁supervision
romed
ighted
oprotein
ronch
▁34
atoid
graftment
▁surge
otype
▁infusion
treatment
▁fluorescence
▁TK
atients
rosine
▁7.
esting
ncy
▁contex
▁sarc
vac
▁telephone
▁chloro
▁psychological
▁electrical
▁mutations
34
▁4-
▁atm
effec
herence
1),
▁trend
▁pulse
▁suppressing
▁multivariate
▁cann
▁comprehen
duced
cysteine
tant
1,
hers
▁recipient
ropha
▁regulatory
glutin
▁Considering
▁surgeons
▁facial
iasis
▁moisture
▁traum
▁enucleation
omies
▁lipoprotein
▁7
▁Phe
▁diabetes
▁injected
▁GD
till
▁immature
▁nig
▁pyramidal
tific
▁radiotherapy
▁fiber
ontal
birth
▁appropriately
▁NB
▁heparin
gic
▁visually
minis
orphic
▁unin
▁immune
▁cervix
▁laboratories
▁tumor
▁99
▁molar
▁comparisons
▁accumulation
were
oplasmic
ypical
ximum
arous
uran
▁deter
generation
siological
hap
▁Pregnancy
▁resection
educ
eces
▁administered
▁transfusion
▁mono
▁endoc
sies
▁distin
▁diame
osomes
▁worsened
▁Throm
▁facilit
▁WHO
▁29
▁elevated
+)-
▁chest
yroid
▁outs
odial
▁chromosome
▁deterior
▁diagnosed
▁appendicitis
▁lith
hern
eled
▁consultations
▁Dop
▁safer
▁MV
▁derangement
ylated
▁suppression
▁inev
iatric
truc
▁epithelial
▁conclusive
▁ration
urse
thle
0.
immune
Hb
▁hemat
▁atmosp
CRP
▁chor
▁positively
alact
-5
▁latent
effective
▁perox
▁Removal
▁pH
arate
▁selectively
49
lected
▁8-
▁prenatal
▁ae
▁physician
▁RT
▁parame
▁thickness
severe
omatic
▁laparotomy
▁10
▁continuing
oclonal
▁trough
▁plantar
▁8
▁tas
jug
ceptive
ophilic
Ka
▁0.2
tured
▁vena
mia
▁autosomal
▁chloroquine
▁hyperg
▁impair
▁provocation
tec
▁predominant
▁osteoporosis
▁0
▁pronounced
kDa
▁CRP
thma
▁dexamethasone
▁23
ctomy
centr
▁-0.5
▁modality
▁distal
▁intramuscular
ascular
▁uter
▁transcrip
▁favourable
▁adequ
▁exten
pendent
▁influenza
▁phosphatid
▁hybridization
▁adoles
trast
enic
▁aor
tif
▁postnatal
ocardial
▁heterogeneity
itro
tub
aired
▁debr
▁thi
▁classified
▁11
comitant
odies
▁pathways
▁Certain
onuclear
HF
ropriately
▁chromatography
▁hemodialysis
rae
▁muscle
▁polymorphism
▁peripheral
▁sodium
▁12
seud
▁cate
ycin
▁chond
adiol
▁pathologic
67
ventricular
▁leukemia
▁injur
BW
odynam
▁staining
entists
▁specificity
cine
thre
▁Sout
4.
▁endpoints
toc
▁selective
▁adjunct
▁sinus
oplast
▁selec
▁meals
heric
▁dendri
▁parental
▁distinguishing
▁ile
▁inoc
▁Vac
GF
tiv
Tn
▁prostate
ophren
65
orbol
iron
▁Clinical
1).
▁coel
omycin
▁statistically
erum
.8
▁regis
▁Physicians
▁LC
▁connective
▁synthesized
▁pathway
▁ongoing
oceptor
▁transcription
7.
▁gland
▁phospholip
▁placent
▁tumour
▁poorer
▁ech
▁graft
▁strain
▁lactate
▁biopsies
▁annulus
▁spati
armac
chers
vant
▁OA
▁genetic
piratory
.5
phosphonate
▁GM
ancre
▁intact
▁Intravenous
▁initiation
tration
▁axillary
▁heavi
▁Significant
▁PET
▁correspon
ometrial
▁stimul
▁GH
▁femoral
▁gyn
▁soluble
▁neoplas
▁Muc
▁targe
▁produc
▁mum
urine
onate
▁(10(
▁prednisone
olol
tence
ervative
▁oxide
versity
▁PG
▁aging
▁vivo
▁phosphor
rocy
▁plasmid
▁osteoporotic
ocul
▁5.
▁exce
regn
▁muscul
▁migraine
▁subtype
bly
▁20%
icient
acer
▁extracts
▁0.01).
itary
lycer
▁locus
▁psychotic
▁NH
tively
udin
▁synovial
olytic
lowering
▁confound
5-
ondr
vated
ensi
gm
.2%)
MH
▁intervertebral
▁aspiration
▁prospective
▁oste
▁yiel
▁prolif
▁25
▁paradigm
either
▁mucosal
▁vein
▁rhe
▁isch
aneously
stolic
erin
▁EMS
▁Neurop
▁aimed
clerosis
▁lobe
▁depression
▁disparity
▁incorporation
▁0.000
▁pathology
▁structural
erating
0-
iminary
▁correlations
▁discordant
▁substances
▁diagnostic
▁researchers
▁advances
▁prospectively
▁hepatocytes
▁bacterial
▁nervous
▁adminis
▁affects
▁organisms
▁hypers
erican
tically
xone
▁cathe
▁epithelium
▁persis
▁predictors
▁sympathetic
▁Afric
▁questionnai
▁genotypes
aemic
11
undibular
▁calcium
▁conceptual
▁epit
▁DS
▁withdrawn
menopausal
enzymatic
▁underlie
▁presumably
▁colorectal
▁incub
▁NT
▁validity
▁acyclovir
icated
ffinity
▁implantation
▁solely
▁Findings
hering
▁healthy
▁substitu
▁impaired
responder
▁MHC
▁immuno
▁soybean
▁infected
▁beha
unctions
▁prognosis
▁reagents
▁32%
▁undergone
▁postoperative
15
▁scanning
▁Improvement
DH
▁CK
▁ventricular
siveness
ginine
▁28
1-
erance
▁precur
▁tolerance
osom
ithms
▁adequately
▁noncom
esic
▁systematically
▁abilities
20
▁psychiatric
gents
▁ultras
▁heavier
oplasty
▁severity
DNA
▁concentrations
oskeletal
▁LT
▁pyl
▁mucos
▁venti
▁synaptic
▁Weight
eal
▁calcification
▁thym
▁palp
▁uncomplicated
▁tear
▁cited
▁resting
▁clones
▁streptococcal
▁demands
▁sampl
▁gait
▁irritation
▁catechol
umulative
ocytes
▁reasonably
▁accurately
arly
▁Tran
▁Greater
hemical
EA
▁HM
▁intracellular
crimin
0%
▁chec
▁calcified
ucleation
▁35
anding
▁polymer
▁onset
▁excision
▁1-
▁ovarian
▁HLA
▁infil
acerb
▁Preoperative
otomy
dition
olec
00
▁specialty
▁herpes
ophag
17
▁Increased
rophob
▁intraoperative
▁rash
▁underg
▁diffic
▁laboratory
▁Cycl
▁tert
FU
▁eosinophilic
▁1.7
▁suspicious
noise
retro
occus
▁microscop
▁tris
▁actin
▁PT
▁analys
▁antagonists
oice
▁susceptibility
orpor
▁differe
lusion
▁intrac
ostic
▁scin
▁unexplained
▁erythrocy
▁trials
▁0.001).
▁cardiac
▁managing
▁degradation
▁GI
▁cerebrovascular
ticular
▁identically
6,
▁evaluations
▁cortisol
▁100%
▁ultr
evaluation
▁irrit
tially
sequent
ceptual
Hu
▁45
▁synov
ectomies
onit
ylate
ibi
▁43
▁underst
tabol
▁0.9
▁smoking
rosis
▁initiating
▁histopathology
▁microscopy
▁influences
▁relapse
▁7%
▁consistently
Ps
itic
-67
functional
1%
▁colonization
▁indicators
oscopy
rectal
GI
economic
▁facilitated
▁stillbirth
ampl
uded
▁reductions
▁concentrate
▁overlapping
▁determination
▁PV
amus
▁sustained
angl
▁moderately
▁0.
elvic
▁elic
▁progest
▁nec
phyl
▁gluten
▁ACL
▁divertic
▁phenomenon
▁discus
▁tol
▁placenta
sive
fts
▁rati
▁decisive
echn
KA
sions
▁30
▁investigated
oscop
quid
Ns
▁modestly
AH
athe
geal
uccess
▁molecular
▁pter
3-
▁ana
bac
▁lithotripsy
▁85%
▁unilateral
vaginal
urys
versus
▁heterogene
▁infect
▁OC
▁hipp
▁lis
▁10(
tact
▁alve
▁unres
oids
▁acco
▁arteries
dimer
rogenase
▁inhibited
▁glucose
▁angiotensin
▁ket
itus
▁diagnose
▁membrane
ositive
2.
▁10-
2).
ardless
▁hospitalized
▁ASA
ortal
tic
▁physiologic
▁continence
ographically
▁athletes
▁adults
▁cohorts
EGF
▁screening
50
morph
▁methyl
▁ascertained
agic
▁detachment
▁disorder
▁lesion
▁screened
ervice
▁lymph
eptin
aptic
othel
ostal
yses
▁considerably
tens
erable
anish
ograp
▁pati
▁reproducible
▁enrol
ileptic
lyc
▁monoclonal
tig
▁practitioners
▁instability
ceptions
▁satur
▁31
ifol
▁epinephrine
▁wors
▁adhering
▁desm
▁discharge
infected
▁VE
▁15
▁attrib
estive
▁pregnant
lobulin
xia
▁subgroups
▁financ
▁promising
▁kinase
▁athe
▁carb
igel
▁focusing
▁Compared
unts
receptor
▁TBI
▁reduc
▁exercised
▁nursing
▁pharmacy
iatic
▁dele
▁Atropine
▁complaints
▁coexist
▁phy
mg
ineph
▁24
sor
▁carcinogens
▁modif
▁eliciting
unar
urally
BM
▁nM
▁Chest
▁(6
▁symp
▁preoperative
LV
▁cereb
ohyd
▁contral
gulation
▁Educ
▁resusc
gely
ellosis
entical
▁competi
tum
▁6-
▁demonstrating
▁familial
roxim
▁Dopamine
IU
His
▁overl
▁NP
tin
clin
▁cyst
▁bipolar
▁comparable
▁habits
▁Surgical
▁PB
▁gastro
▁hernia
▁renal
▁insertion
lact
identical
▁exclusion
▁pancreatic
▁murine
▁Histologic
▁overdose
▁inadequ
▁increasingly
▁melanomas
▁angiography
ocular
▁sphincter
-8
▁APC
erad
imens
▁recons
associated
▁myocardi
▁verteb
▁stu
▁serum
▁AO
▁barrier
▁contralateral
21
▁HP
▁morb
istrib
▁.0
ections
▁bip
vascular
▁retur
▁periodontal
▁diet
▁FD
▁decreasing
▁immig
▁multic
▁corneal
▁utero
▁manu
▁OSA
▁progn
▁meal
▁prevalences
▁FT
▁Treatments
▁raises
▁gonad
▁disability
terone
▁intestinal
▁aortic
▁fever
urin
▁chromat
regulated
▁progressive
▁saliv
sensitive
▁ascertain
orative
mature
▁diseases
▁horm
atonin
▁porcine
▁mandibular
sus
tory
▁Medicare
eptide
amination
▁repl
▁thrombo
-6
▁2
▁causative
▁surveillance
▁TGF
▁microbiological
▁NPC
▁feasibility
ignant
▁preven
▁aerobic
▁vesic
mitted
▁anesthe
▁somatostatin
▁unresectable
▁wee
▁embry
BP
▁drops
FV
rals
▁recur
▁physicians
erent
▁concordance
▁colloid
54
mend
iplin
▁oes
▁HCM
pinephrine
bic
amn
SPECT
entric
bumin
▁mothers
▁decades
▁antegrade
▁mg
▁donor
umulation
▁elu
▁catheters
▁anastom
isture
▁gradients
▁undetected
▁differentiation
trop
cad
▁septum
acental
▁aureus
▁epi
▁microv
▁genic
▁chori
NM
ociation
▁abd
▁cephal
▁encouraged
▁marrow
▁compound
ochondr
▁somat
omotor
▁disparate
tach
relations
▁70
▁beneficial
▁coincidence
thal
ventional
▁limbs
▁Thromb
▁occl
▁endothelial
gesterone
otoxin
▁exo
▁emerg
ially
▁IgM
urgical
▁19%
▁macropha
▁vesicles
▁tympanic
▁promoting
sis
▁ane
osterone
▁202
▁IgG
▁PE
▁scre
▁cys
▁muc
▁hepar
▁obese
▁tow
▁relaxation
▁inflamm
fec
▁enzym
ognition
▁LN
▁discon
▁IA
5)
▁needle
gmental
▁gaps
ullary
▁Paget
▁HU
▁renin
Mu
75
▁hypog
apeu
▁consensus
▁morphologic
▁polymerase
▁DST
▁enl
tors
▁ACE
ulae
▁metabolism
▁construc
▁toxicity
▁correcting
▁physi
-2-
years
▁50
▁interventions
▁reag
▁8.
▁rabbits
▁minerals
▁(54
reported
▁fragility
▁sev
oglobulin
▁meaningful
▁oxy
▁concurrently
orable
▁lesions
▁sedation
PAP
▁150
▁umb
▁fetal
keletal
▁19-9
▁errone
▁neutroph
iotic
▁consol
2-
▁LS
CMV
▁rotational
▁multicenter
▁uncom
eric
olved
▁warr
▁biom
▁micron
▁ablation
▁abdominal
▁glut
quine
zard
RNA
▁IHD
▁electroph
▁IFN
▁unrel
ithi
itoneal
embr
▁abnormal
vents
acking
aning
▁adolescents
▁discern
-9,
▁thoracic
tagland
▁nonc
▁Adverse
▁40%,
▁subc
▁inducer
▁characterize
▁GA
5,
tality
▁201
oracic
▁TG
▁sensi
▁Therapeutic
▁ventilatory
▁hypothe
gans
acil
ploy
▁5-
2+
▁malignant
▁resistant
▁engraftment
▁cardiovascular
▁hygiene
.8%
▁paradig
▁encour
▁Acute
ration
▁hazard
omal
opathy
▁undes
▁implantable
ogens
76
▁schizophrenia
▁37
▁bac
▁mobility
occi
▁atrial
▁assays
trimental
▁ml
ACS
ochrome
▁respondents
▁prescribing
▁induce
▁retention
Ga
▁trophob
Cer
▁adhesions
▁BD
▁overlying
▁ambulatory
▁postoperatively
▁cere
▁canc
▁resis
ilization
▁relap
▁prevention
tering
▁linkages
idney
▁detrimental
▁traumatic
,000
6-
▁doctors
▁mucosa
▁19
▁regulation
▁leukocyte
uoden
▁neutrophil
▁elucidate
▁stimulate
▁widening
duce
▁hemodynamics
▁15%
▁Plas
▁membranes
▁ligand
pT
▁pneumonia
▁deficit
mL
▁36
▁Dil
actin
▁bacter
▁amput
▁stroma
▁implicate
▁haem
▁derange
roximately
▁followup
6%
▁antic
▁tymp
▁esophagitis
▁warrant
▁reliably
olute
▁ET
9)
▁sedentary
iciency
▁highl
ocar
▁autoimmune
104
▁cultures
▁hypertensive
spectively
▁abuse
▁ethanol
onomic
ithiasis
lym
HM
.7
56
▁assessed
▁bloc
filtration
▁contrac
-14
▁unde
▁drugs
VT
especially
▁preservation
stem
▁epid
aid
▁infections
APC
▁physici
▁sliding
▁sti
lix
▁abl
▁Engl
orrhagic
▁metabol
▁caution
entan
▁births
orption
mur
▁cleavage
▁survived
▁vulnerability
▁sequelae
▁suppres
9-
0%,
▁ventil
▁preferable
23
▁influenz
▁rats
▁lobectomy
renal
▁lumb
reement
▁evid
▁hydrox
tead
▁colonoscopy
▁UTI
▁spi
atched
▁glyc
▁90
bral
▁fatty
▁dopamine
irrh
▁alcoh
▁metastatic
▁versa
phrine
▁failures
▁antagonist
▁metabolic
▁ADH
▁geniculate
▁synthetic
trative
▁tes
mol
aryngeal
entary
▁avoiding
activated
otide
acted
▁availability
▁endometr
oxif
▁sclerosis
uated
7,
▁hemodynamic
▁nasal
▁assurance
sial
idate
▁cesarean
▁ranged
▁consecu
▁anastomotic
▁aneurysm
▁arthritis
ressing
xual
▁silic
▁dose
▁seiz
ostomy
▁5
acement
▁polypeptide
▁Hg
▁shortened
resting
▁dilated
▁substance
amide
▁drain
▁promoter
ocusing
tension
hemo
▁Alcohol
mittent
14
tures
mide
▁Delayed
▁0.05
▁mitral
wenty
▁compounds
▁bronchoscopy
▁fluores
▁develops
9,
▁discomfort
▁gradi
trol
▁norepinephrine
▁atmospheric
thyl
stim
▁cyto
▁longitudinal
BV
▁eryth
▁kidney
▁emissions
▁encoun
▁effectiveness
▁inadequate
▁urinary
sue
1)
▁26
trum
onyl
opath
▁challen
▁desirable
▁aorta
▁reactions
97
idation
protein
▁PCT
▁symptoms
ostat
▁benign
▁proximal
▁prostatectomy
▁comprehensive
▁irradi
▁79
▁neurolog
ameters
▁coeliac
▁mild
LF
rehen
▁inhibin
tomy
▁perinatal
plied
▁excluded
▁thigh
▁(10
feren
3,
alian
ching
ortic
totic
▁intake
▁biochemistry
▁surveys
BG
hist
▁analyses
vail
▁awa
▁endoscopic
▁rated
jected
▁undertaken
▁receptor
▁clinical
▁secretory
▁differentially
tensin
▁endothelin
▁3,
▁contraction
▁preparations
itance
▁nutrition
▁agon
▁preval
iated
ximal
onatal
ilical
▁RB
▁thrombolysis
▁ultrason
▁coexistence
▁197
olism
▁nerve
▁paraventricular
zyme
ogenous
opam
2%)
▁knee
▁metoclopramide
rele
▁GABA
▁deficiencies
▁Pretreatment
▁perip
▁underestimated
oglobin
▁activated
▁perme
▁ey
▁intercostal
DG
monary
▁ageing
tional
▁neuronal
0,
▁nosocomial
rants
▁compartment
▁targeted
▁spon
▁mV
saturated
▁sour
omod
▁BV
tral
▁eyel
▁mitochondrial
amine
agal
▁retrospective
▁experim
▁bladder
▁dys
ressed
▁widespread
▁13
▁hydrolysis
▁disorders
oresis
(+)-
▁SG
▁examined
idis
▁glands
▁endot
▁clus
▁inhibitor
30
▁subunits
asone
ficial
▁affinity
▁gallst
itant
positive
sion
▁rCBF
▁restor
▁morphology
▁synchronous
▁synerg
▁healing
▁molecule
odil
▁mature
▁implic
▁prostatic
oxic
veolar
leukin
▁insufficiency
▁endoscop
adherent
6.
▁HI
▁recombinant
ogenesis
▁mL
▁pT
seal
▁packing
lesion
▁opportunities
idne
▁2.5
▁adherence
▁IGF
teric
▁barriers
▁childhood
effectiveness
▁bile
▁14
▁cytos
▁occupational
▁explored
▁biop
8%
▁harmful
▁potency
▁reac
▁suggestive
▁heparinized
▁overe
versely
▁episodic
.4
▁salivary
▁monitored
IIIa
olarization
▁acids
vation
oxid
atment
▁exis
▁bilateral
▁normo
▁outpatient
▁anatomy
▁SNP
onor
▁Medicaid
stro
▁menopausal
▁scintigraphy
hig
▁cutaneous
fron
▁vasomotor
▁ultim
Tc
hea
derly
lead
▁Steady
▁circumferen
▁sexes
RP
▁baseline
▁distinctly
went
▁surgeon
▁Cushing
oxia
▁MBC
▁Treatment
▁adjusted
29
▁200
▁saline
▁pregnancy
▁spinal
▁neurop
fos
FG
▁investigating
▁supplementation
▁causal
operatively
neumon
trib
▁attenu
tinu
▁sugges
opsy
estim
▁drin
ureus
▁responsiveness
▁stimulation
▁pelvic
▁congen
gesia
ynaptic
▁80
epti
▁coli
▁labeling
osin
▁describ
▁mineral
▁anxiety
▁ester
▁ACTH
arity
▁intram
otropic
▁(19
lys
▁tach
▁0.4
amet
tate
▁labeled
ministration
▁dyn
jun
ses
2/
▁retic
▁inversely
▁polyethylene
▁contamin
ococcal
▁0.1
ichia
▁ultrasound
▁inspection
▁cDNA
▁seb
▁abolished
-1)
32
teroid
▁hippocamp
trip
usive
faction
osity
▁hams
▁turnover
▁phagocytic
▁restenosis
▁implicated
ecre
▁cigarettes
ropine
▁inappropriate
idase
▁insult
▁dysfunction
itr
ufficient
▁infec
▁reversed
▁chole
▁aden
▁pregnancies
19
▁electr
clinical
inely
trac
▁affecting
▁endoscopy
AIDS
▁testis
intestinal
▁plaque
▁umbilical
▁positioning
erations
orac
▁symptom
▁enlarged
▁SCH
▁Magnetic
tus
▁1.
▁pelvis
▁adenocarcinoma
▁tuber
▁socioeconomic
▁advancement
▁chlor
▁SLE
9%
▁evoked
▁pulmonary
▁Chemical
▁ulcer
▁48
▁pharmac
▁retin
▁unselected
▁cyclosporine
▁dentists
▁peptic
▁efficacy
▁(3
onary
▁speculated
ynthe
▁10.
mental
▁estrogen
erine
consuming
othermic
▁remo
▁LH
▁dors
▁tubes
▁illustrates
usions
▁phenotype
▁ventric
▁leuk
opha
▁thyroidectomy
▁coronal
inic
ipid
ysm
▁endarterectomy
▁recessive
▁practition
▁lymphocytes
▁Biochemical
▁delivering
▁advan
▁cholesterol
ayed
▁labial
▁gangl
▁ultrasonography
▁32
▁cyclic
urther
▁MI
.2
▁pulp
▁suppor
▁neurologic
▁PP
▁carc
ylation
▁inh
▁tooth
▁inflammatory
urred
coh
▁HS
ococcus
▁tissues
▁hybrid
4).
▁limb
▁intrav
▁neon
▁sten
SCC
legia
▁sero
▁residues
▁VC
53
▁vaginal
▁complexes
encl
▁BM
opic
2%
amic
hyp
▁Denmark
▁polymorph
tive
▁palsy
apeutic
▁dissociation
▁syndromes
▁reveals
iosis
▁uptake
▁infarction
▁numb
LN
▁systematic
▁torsion
gments
▁carotid
▁perceptions
imination
urea
▁incubation
▁quantitative
▁LVH
▁Comparisons
▁crest
▁perc
tation
NH
▁arter
Ts
.2%).
▁preparation
▁diastolic
▁enrolled
▁deem
▁PEEP
▁cancellous
▁plasma
▁surgically
oplas
▁hCG
▁laser
moid
▁infants
▁findings
othelial
▁unre
▁validated
▁bypass
▁anemia
▁saturated
▁disappearance
▁specialist
lateral
accharide
▁20
▁deple
▁carriers
▁Clin
isol
-2
sively
helial
▁insertions
▁macrophages
onucle
▁assis
▁preferences
▁expend
▁ECG
8.
▁tidal
▁consequent
-1.
▁maternal
tance
nthe
▁arth
ositol
▁indeterminate
▁elderly
▁injuries
scherichia
▁hypot
▁stimulated
▁compliance
entral
cepti
80
▁mmHg
▁hepat
▁coronary
▁(0.
▁possi
▁oligo
▁LV
ulcer
otyp
▁tet
8,
controlled
▁counseling
iary
▁emergency
derived
▁alp
▁anat
▁ketamine
▁rhythm
▁ratios
immunization
▁experi
RB
oung
namic
▁suspic
ocial
▁localized
oag
Fs
opi
▁defic
▁Samples
▁pathological
hop
▁esophag
▁analyzed
▁predomin
▁cava
▁38
tized
LB
▁ruptured
occal
▁multim
▁carcinoma
mong
▁lipids
-4
ostatin
▁superficial
▁0.05).
▁AI
anin
84
plas
▁enteral
▁potentials
▁socio
▁glomer
ologous
▁hypertension
▁variability
▁counteract
▁Large
▁gastric
▁thickening
▁intense
▁resected
▁providers
▁paralle
▁irradiated
isqu
▁disruption
▁atresia
▁moles
▁amputation
▁circumferential
oglyc
resist
▁tumors
▁31-
▁minimally
ocamp
▁Contr
▁poin
lymph
▁0.01)
eliac
henyl
▁platelets
▁tertiary
rox
erate
assi
▁cAMP
Ia
▁85
▁collateral
▁Prospective
ressive
▁pineal
▁exacerb
▁hemorrh
▁secretion
▁amines
sych
▁evacuation
atase
gene
▁tibial
tradiol
▁chick
▁elicited
▁techniqu
▁regulate
▁21
▁endemic
orotic
▁unsuccessful
utroph
ication
▁nucleus
▁facilitate
▁fluor
▁regimen
▁modest
uble
xiety
▁cardi
▁metastas
inated
▁antigen
ffer
olysis
sts
titu
ducts
▁acqui
▁diagnoses
okine
▁hig
▁VO
▁pyr
▁60
taken
▁tumours
assay
▁neoplasm
▁GVHD
▁intest
▁1,
dents
ivation
ustained
▁melan
▁mitochondria
▁fixation
▁4
▁achie
▁1)
▁laparo
▁precursor
▁OT
▁palpation
Ev
▁transient
ologically
MG
▁metast
▁membran
▁Tes
roup
▁routinely
▁inhib
adrenergic
activation
▁reactivation
tyl
▁deliveries
▁cytotox
opausal
spective
otherapy
▁obesity
ensory
▁unchanged
PB
▁tyrosine
rates
natal
▁examination
ervations
overed
linked
atient
ycl
▁pyram
▁utilization
▁Kup
▁diabetic
▁10%
▁MG
epit
▁predic
olip
▁biopsy
▁readings
▁microb
69
▁follicular
▁effec
▁practically
tox
▁seropositivity
▁circulation
▁tamoxifen
▁PAS
mig
▁HN
▁parotid
▁unevent
sia
▁oxygenation
▁sciatic
herent
ulfonyl
▁apex
pite
▁excre
▁intrag
▁trophoblastic
▁compressed
▁mann
▁enzyme
▁Vitamin
▁behavioural
▁endarte
▁thromb
▁atheros
uterine
▁randomized
▁rigidity
▁caro
transfer
MV
▁confined
▁complications
ubtedly
▁inapp
▁circumference
▁cortic
▁Accordingly
▁excretion
itoneum
▁IVF
ylase
▁predicting
▁ascer
40
▁preliminary
▁angi
▁RAR
tric
orax
▁therapies
containing
4,
iably
urethral
▁homogeneous
▁stomach
▁balanced
▁recurrence
▁concer
▁chemotactic
▁parag
▁identifies
▁anomalies
olones
▁debridement
▁deprivation
▁nonadherent
▁arterial
tib
▁LD
erals
▁survival
▁subjec
▁segmental
estis
▁chronic
asal
sized
▁CM
▁meth
▁conducting
▁lacking
▁Doppler
2)
▁suspicion
edle
▁anomal
▁hypoxic
▁evolving
▁phosphatase
trition
▁cocaine
ospor
▁physically
▁cytochrome
▁FH
▁adrenal
▁pretreatment
▁pulmon
▁naltrexone
pies
▁radiography
FN
▁lymphadenectomy
itone
aventricular
▁(2)
▁hospitalization
▁reveal
▁diluted
▁radiological
▁simultaneous
omes
▁probe
▁artery
▁peroneal
ithin
▁intrauterine
lood
▁recombin
-3
RF
▁SB
anic
asive
0%)
▁2-
hydro
▁embryo
▁APD
phosphate
3%
▁mutants
▁venous
▁advisable
▁tracer
▁pharmacists
idity
▁reflecting
heal
echan
▁improving
itol
ococci
▁instr
▁outcomes
▁kDa
▁epidemic
▁moderate
andard
guided
▁TNF
arer
▁stab
uccessful
asic
stress
▁malign
▁putative
▁histological
mixed
tice
▁tric
ivary
▁spikes
▁slowed
▁indicative
idated
sul
▁manipulations
▁recor
▁AMP
▁dissection
▁adenomas
▁Estrogen
▁hepatitis
57
tility
▁oss
▁BMI
▁isolates
risk
▁4.
▁employing
▁predictor
▁preclude
ustif
▁inflammation
▁bowel
▁alveolar
▁Chronic
▁conservative
▁ischemic
ternational
graft
▁testosterone
▁favorable
▁deformities
incip
▁connec
▁acad
oside
erative
omerular
▁unrelated
▁immunomod
▁lob
▁induc
tries
▁femur
▁stimulus
eclampsia
▁(1)
▁sequel
▁dehyd
ditions
▁guidelines
aryn
▁encouraging
▁profound
▁RBC
urc
rolog
ovine
▁GFR
▁gad
▁antibody
matched
ystolic
ications
▁establ
▁rheumatoid
ylamide
▁toge
▁adren
▁abnormalities
▁buc
▁vaccines
▁adjuvant
tur
▁enti
▁geriatric
relevant
phosphon
ochemical
lep
▁achievement
luc
riend
▁Tests
ocortic
opia
▁juvenile
tisol
/1
licular
▁contaminated
ials
▁dorsal
farct
▁suppressed
▁cortical
▁prostagland
astatic
▁spleen
▁hemisphere
▁protoc
▁microcirc
▁neurons
tics
ocaine
▁PEG
▁11,
tivity
▁antec
▁oral
methyl
▁21-
▁Whereas
▁steroid
▁soy
▁feasible
60
▁dosing
▁irr
ronchial
▁palli
▁infar
▁predictive
▁gynec
▁measuring
ught
ivariate
ritish
▁adhere
▁recurrent
tected
vul
000
▁neutrophilic
abies
ocyt
▁unex
ensity
▁replication
▁IBD
▁gains
▁unm
itin
atab
▁discontinued
▁GBS
osynthe
▁fibres
▁spine
▁hypothal
▁0.00
▁deformity
anol
▁nitro
6)
▁MN
istal
▁hypertro
▁technically
edullary
12.
▁enzymes
ochemistry
chol
plic
astolic
.1
▁CAM
▁sulfate
▁ossification
▁viable
▁lax
▁regimens
▁Serum
enhanced
▁cellular
bility
▁intragastric
▁uncontrolled
otomies
▁cholest
▁57
▁overd
▁chloride
▁exchan
▁feeding
▁demonstrates
otent
adily
ingle
-0
▁opi
▁potassium
▁chemo
formin
iaz
aemia
acet
▁myel
1-3
▁urine
▁spont
▁antagon
▁Tum
aminated
immun
▁mutation
18
obal
▁abdomen
▁auditory
▁fragile
▁chl
odal
▁complic
ipit
▁pneumon
▁presum
itamin
▁adop
▁genotype
oidal
arean
▁40
.0
▁therap
▁consequently
tial
ocrine
▁undo
(5
▁Patient
atest
▁ALT
▁cue
ituitary
▁immunos
▁posi
razole
erox
▁ganglion
▁pate
echanical
▁Additional
▁confron
▁adenoma
▁Lys
▁mellitus
TK
▁1.6%
99
▁3)
▁mediation
▁grading
▁substanti
▁adjustment
▁micros
▁conduc
▁strains
bacco
▁undergo
▁atr
ervical
▁panc
▁preventive
▁thromboembolic
▁incubated
ologic
▁precedes
▁collagen
▁deterioration
▁VD
osocial
induced
tase
truction
▁measurable
RD
▁splenectomy
▁synergistic
▁impairment
▁thresholds
evaluated
diagnosed
▁hep
▁conclusions
▁perone
▁surrog
70
▁FS
▁treatments
▁blot
▁correlated
tle
▁cholecystectomy
RH
▁manifestations
olated
▁smo
alc
glyc
▁proteins
oes
cardi
▁workload
carb
▁chemot
▁0.05)
▁3.
kade
▁plasm
▁eluc
▁CSA
▁HCMV
▁intraven
▁rele
▁HC
▁premature
MRI
▁experts
▁hetero
cele
▁displ
▁throm
ymp
▁constitutional
ilized
▁eliminated
dle
▁clinically
▁shif
▁examin
entanyl
▁neph
▁percutaneous
astric
alues
▁evac
▁opioid
▁rabbit
fat
▁Bec
▁0.0
▁struc
coun
reased
▁controversial
▁Percutaneous
▁adhe
aline
▁FV
▁maintaining
▁reperfusion
.9
▁anticipated
▁algor
▁theore
▁echocardi
tak
▁elec
patient
▁inpatient
▁determinants
lated
ometr
▁MRI
▁PGE
degree
Hg
▁necro
tained
▁enhance
rated
▁controlling
▁provid
lasting
▁hemorrhagic
28
▁clearance
▁melanoma
cessive
tro
ogenic
▁suicide
ivoc
tical
utaneous
crip
▁aspir
▁mandatory
▁GF
▁carbohyd
ults
0.5
roma
▁decreases
▁deaths
▁characterized
▁prel
ucle
▁adolescent
IH
▁depic
▁systolic
▁vulnerable
PV
crib
HB
▁vegetable
▁500
▁bab
▁anatomic
▁perin
rophy
▁microvascular
▁heal
▁0.8
▁vomiting
▁TD
▁pig
cence
▁examinations
▁synthe
threatening
7%
▁BP
uation
▁biological
icine
▁seventh
adication
▁diversity
▁overexpression
▁rehabilitation
▁thorac
▁justified
inj
ectable
▁cerebral
▁assessments
▁mutant
▁morbidity
respon
▁professionals
79
anyl
▁behavi
▁phe
▁blin
▁4,
ercise
lective
osome
▁subun
▁5'-
urgery
pir
rous
▁phag
tent
▁sepsis
treated
▁comparative
▁discrimination
▁gamma
ectin
▁resour
▁hypoglycaemia
olic
▁2,
▁multiv
onium
mentation
onad
▁pathogen
▁+/-
▁attemp
amily
▁anticoagulation
▁stom
▁alcohol
▁relating
arent
▁emotional
▁Operative
▁headache
vival
▁bronchial
▁improves
lapping
▁sensitivity
▁iso
▁Comparison
▁treating
▁mammography
▁indications
2,
▁cardiomy
▁streptococci
▁Biochem
HN
cture
▁HPV
▁stimuli
▁ethnic
▁exposures
loro
▁intrinsic
ameth
▁surgical
▁amyloid
▁RH
▁zinc
▁oils
▁respiratory
▁thromboemb
▁wrist
kage
nee
▁modulates
▁quanti
▁Mg
omiting
▁necrosis
▁exposure
amino
ensitive
ectomy
arge
▁cues
▁gallstones
▁acquire
▁testicular
▁PD
▁acet
▁surviv
affec
elec
leu
▁DG
bladder
▁Taken
▁ocul
▁cardiomyopathy
▁increas
▁acute
▁pneum
opl
▁nutritional
▁lateral
▁inhibitory
plantation
▁metastases
injured
▁reticul
▁9
ophil
▁PH
opulation
▁avascular
nec
▁rotated
▁haemorrhage
▁shorten
ocyte
▁bacteria
▁Cox
▁UL
▁striated
produc
▁adolescence
▁progression
▁Hb
▁occlusal
▁chewing
▁metastasis
hesive
oratory
▁interc
▁radiograph
acin
▁lamin
lectomy
▁pall
kely
▁judged
▁IIb
▁CPAP
uptake
▁hormonal
WL
mediately
▁filtration
▁trauma
▁psychosocial
▁fibers
▁physiological
▁amin
▁hydroly
▁dehydrogenase
▁granul
lec
▁onc
▁75
▁stratification
diagn
81
▁glycoprotein
▁injec
▁pituitary
▁fracture
BK
▁reflex
▁eosin
reatine
lasts
▁intrap
▁diabe
uvant
▁PRP
▁topical
▁sustain
▁syndrome
olenic
omat
▁discrimin
onset
▁amyloidosis
▁estimating
▁Tumor
▁ward
▁masked
iliac
oprote
arb
▁PI
▁objec
▁Effective
▁agonist
▁immunode
▁bronch
ardia
▁rationale
▁buccal
lycerol
▁LF
▁resuscitation
▁VA
▁genes
/2
tions
▁fetus
▁sequential
▁0.3
▁plac
▁discom
▁tracing
assium
▁(1
▁clinicians
acchar
▁kinetics
▁Continu
▁79%
▁interv
entricular
kers
▁vascular
loride
▁cytotoxic
▁vaccination
▁MCP
▁MH
taining
▁mediates
22
▁thyroid
▁surgery
osine
tensive
▁systemic
▁defec
▁inhibition
▁peripher
▁manufacturers
stimulated
clusive
▁proliferation
.3
uding
ioid
idine
▁pancre
ece
Ly
stant
▁microm
▁ventilation
labeled
▁amo
▁PF
▁differen
▁supplement
25
4)
▁usefulness
▁pediatric
▁nm
tein
▁monke
atid
▁unexpl
▁nodules
luent
▁unil
▁burden
▁mediated
▁mM
▁kidne
athyroid
90
▁uncommon
▁Escherichia
▁conservatively
▁topographic
▁staging
icide
▁intra
▁kine
genesis
▁22
▁44
▁tiss
▁complemented
▁1.0
▁viral
▁biochemical
responding
▁antibiotic
▁cohort
ritis
osts
ariate
▁1.5
Phe
▁inhibit
▁phosphate
▁polyp
48
▁reflec
tectable
uscular
.2%
▁cortex
▁Pregn
osal
▁muscles
genic
▁cure
rogenic
oxy
▁clinician
▁infiltration
▁differing
Ra
▁27
ethyl
▁DSM
▁heterogeneous
▁satis
▁vitro
▁cannulae
▁respon
cents
hydroxy
odium
▁functioning
▁linoleic
▁cholestasis
▁allergic
▁cytoplasmic
WB
▁2.
▁reflux
jec
phic
oxidation
▁occurring
▁vaccin
▁endometrial
▁physiology
▁dietary
orepinephrine
▁subjected
cyst
▁lymphocyte
GD
▁questionnaires
▁polyps
▁substituted
▁operative
▁scoliosis
▁40%
endri
1-2
ialysis
atitis
▁3
illance
▁definitive
▁myo
aturated
85
▁assessing
▁anticoag
▁Ket
▁inver
▁(5
antial
regulation
iotensin
▁pathologically
ovascular
ertion
ffin
▁swelling
▁myoepithelial
▁substrate
▁scl
▁eating
rogen
▁enhancing
3)
oplasm
invasive
▁thir
▁cultured
▁approx
idement
roin
▁individualized
ylchol
▁investigations
▁iatrogenic
umbar
▁18
▁disrupt
▁RP
transferase
ograms
▁appreciably
ociated
▁intrarenal
▁1
▁resul
pecific
▁margins
▁sut
physiologic
▁tomography
iol
▁AGE
▁discriminative
▁sperm
▁kerat
▁temperatures
▁fibrob
▁Twenty
▁oxidation
▁specimens
uncture
▁toxin
amate
rease
▁perfusion
drome
elan
▁Swed
▁cerv
ture
▁cyclo
▁apop
▁homogeneity
▁carbohydrates
fine
▁carcin
▁cumulative
helin
▁nucleotide
▁fractions
tural
▁previ
▁Phy
genital
▁tryp
▁exogenous
contrast
otides
orts
▁PVR
▁lipid
lastic
▁RM
▁sph
ourable
▁adhesion
▁liver
odialysis
Ba
▁oxid
▁compli
acting
eptides
8)
▁contributes
▁clinic
venous
ubted
▁GV
▁cen
▁pancreatitis
ancies
12
▁poisoning
▁mell
ultural
responders
▁attending
▁parap
▁extrac
operative
trexone
▁concom
adder
▁rigorous
-1,
▁inactivation
▁reproducibility
▁doses
▁edema
ept
emic
▁weigh
▁suscepti
rectomy
oride
▁extracellular
-1
▁33
ctive
▁macrophage
ulin
employ
▁corne
▁latency
▁inactiv
▁valve
▁Bone
▁wound
▁warranted
5).
▁glomerular
▁underwent
▁palliative
valence
▁interacted
▁0.5
adequ
▁supple
attern
▁poten
▁institutional
tiz
▁PCP
ofol
alsy
tile
▁likelihood
▁resear
▁deficits
▁shallow
▁coeff
acts
▁decreas
▁racial
▁hypothyroidism
▁statis
ameter
▁vitamins
▁hygi
▁30%
▁untreated
resses
▁Impro
rophyl
tam
▁overex
▁residency
▁manifestation
▁flexion
▁follicle
▁electrophoresis
7)
benz
▁evaluating
▁pS
▁curative
▁shor
otassium
gland
-9
▁proct
▁tension
▁atherosclerosis
▁reagent
▁esophageal
Ti
olesterol
▁circulating
▁prevalence
▁Failure
itudinal
▁preoperatively
▁chains
▁detectable
▁(9
▁empirical
▁spontaneous
ocarcinoma
lysis
yro
▁fati
▁cyclase
▁inserts
prising
▁atrophy
▁mumol
▁repor
▁mortality
IgM
▁phon
▁differentiated
▁reactive
▁homogene
▁subunit
27
▁intervention
FH
▁insufficient
▁HG
▁basal
ths
▁participate
adren
▁immunore
▁subtraction
16
▁haemorrh
▁restric
▁invasive
▁50%
▁nail
▁tox
rotid
▁etiology
acetyl
▁myocardial
urate
ignific
▁clinics
inemia
odic
esity
▁scans
▁misleading
rine
▁permeability
▁stren
▁stenosis
▁CMV
▁risks
▁neuro
grees
▁IH
▁UT
rection
vertebral
rogra
1.
▁HIV
▁extensor
hest
▁acetab
alp
▁GE
▁quantit
▁hormones
omized
▁subf
transplantation
▁musc
▁leakage
▁phosphorylation
▁depressive
▁adap
▁hazards
▁emphasizes
▁undergoing
▁vaccine
▁preferen
▁hypo
onin
aturation
opa
▁radiographic
▁LDL
ochem
▁implant
▁prophylaxis
▁intermittent
plication
▁nal
nutrition
sian
ergic
-10
▁consis
▁(4
▁prolonged
heum
▁follic
▁albumin
▁exhibit
▁80-
ineal
▁practic
31
clim
▁establishing
▁Phen
▁reper
oleic
▁transi
▁atres
ulitis
▁acidosis
▁COS
zation
Ds
▁requi
▁athle
▁modulate
inally
orectal
▁PCO
▁determining
▁encourage
duction
▁adverse
▁prophyl
ateral
▁prescrib
▁cataly
▁assessment
▁6
ivocal
▁exhibited
▁insurance
TG
▁substantially
▁deform
▁agonists
▁eosinophil
▁progres
▁clon
▁preterm
▁cystic
▁awareness
▁axons
terminal
▁therapeutic
atrial
▁HA
▁challenges
%),
aints
oric
▁deficiency
▁DT
▁affec
ergy
romes
otom
▁diets
▁concomitant
▁allevi
▁viewing
iant
▁depress
ocked
ureth
iferation
implantation
ATP
▁fulf
▁mitochondr
tabl
▁pigmented
▁prol
illary
▁chorio
matic
venth
▁identif
affected
▁3-
diol
▁regar
▁acupuncture
mTc
▁DN
▁nons
▁prevalent
▁[3
▁pregn
ilibr
44
▁microM
▁tracers
-1-
loid
CBF
▁altered
▁(198
35
▁indication
itively
▁catheter
▁drainage
perfusion
otox
TNF
▁dental
rested
▁needles
rati
▁antibodies
▁repaired
▁potent
oscopic
▁tolerated
▁Contrary
ipolar
iable
▁pleomorphic
duc
▁antigens
13
▁rigor
erally
▁gluc
▁cervical
retion
▁cognitive
MIC
▁immunological
▁collec
▁0.001)
▁periodon
▁inhibitors
▁Inclusion
▁immunoglobulin
▁detec
▁microc
▁CABG
enol
▁broader
▁linole
monstr
oplastic
aceous
+,
eight
▁skeletal
usal
istically
▁cytology
▁molecules
▁excl
▁neo
▁Overall
▁42
mented
uin
▁guided
▁airway
ejun
▁suture
▁infection
athy
fected
▁adaptive
▁epileptic
▁enhancement
atheter
ailure
▁ischem
▁hypertrophied
luores
▁16
▁cyt
▁endogenous
▁dete
▁unstable
▁compartments
▁sple
▁0.6
▁nurses
▁eradication
▁fatigue
facial
unctional
tebral
▁fold
ffec
▁aort
▁BS
▁markedly
▁medial
▁displacement
▁diagnosis
▁intravenous
▁(3)
▁cis
▁diminished
▁bone
▁behavioral
pation
esthe
VL
▁histologic
▁reas
▁monit
gth
▁newborns
▁histamine
ygen
orrh
▁heroin
▁melatonin
▁paras
-7
▁MRC
▁projec
▁antib
▁cadaver
2+]
▁creatine
▁Slow
orest
▁screw
▁72
▁abortion
▁pressures
▁lys
▁olig
▁sensory
apse
oagulation
carcin
ylcholine
▁MEP
tual
▁constitutes
▁depr
OA
▁lithotrip
ellar
econd
▁correlates
▁pathogenesis
phosph
▁symptomatic
▁Plasma
▁discusses
▁gallbladder
▁attendance
iferol
▁amino
▁mmol
▁hormone
▁injections
4+
Ki
tection
▁alteration
▁mamm
▁occlusion
▁VL
▁subsp
ipher
▁complication
▁Eff
▁presenting
eak
▁antiser
▁backs
▁predominantly
▁micrograms
▁prevented
▁postmenopausal
▁fitness
▁HSV
▁sulf
vating
▁phosph
▁RS
4%
adrenoceptor
increased
▁exacerbations
▁(8
▁uremia
▁somatic
▁pigs
oradi
▁appendic
▁0.7
ediatric
▁GER
▁metabolites
aluation
essive
▁musculoskeletal
▁TA
ATPase
▁ICS
▁tissue
gluc
▁aerob
▁prophylactic
▁125
ellular
▁Increas
▁transurethral
▁100
aginal
▁Kupffer
▁atropine
▁gon
▁nurse
nai
▁reactivity
▁disks
utin
▁plates
otor
▁vag
▁bronchi
ollicular
▁RNA
atectomy
.6
▁synthesis
▁insulin
▁depres
▁interleukin
▁proce
illic
▁inherent
▁198
▁mRNA
MN
▁directional
▁surf
▁demographic
▁anatomical
omical
▁LOS
onography
▁degrad
ocl
olution
▁oxygen
rone
dominal
usp
▁placebo
▁poorly
▁ESR
▁vagal
▁cochlear
rents
▁coex
▁equilibr
▁FSH
▁medication
▁embryos
▁neonatal
atell
▁juven
▁behaviors
▁progesterone
▁assay
oxygen
athetic
glum
▁cardio
▁perfor
▁migrated
▁hypox
enh
▁sequentially
ecu
ocytic
▁propensity
▁mice
▁restorative
▁stellate
▁tobacco
▁cuff
46
planted
rying
gative
▁enhanced
▁portions
lobin
tage
vely
phth
▁undetectable
▁cancell
▁seroton
▁fibrin
rhy
dose
ologists
▁resonance
▁hepatic
▁vitamin
▁identifying
▁Cyt
▁dex
▁immun
▁adenosine
sy
asses
KD
▁silicone
enin
10
▁imaging
pH
▁PSA
opramide
▁peptides
▁adjustments
▁substrates
▁strategies
terol
▁transplantation
4-
▁gly
▁severely
▁babies
▁absorption
turb
orin
▁Intra
▁guinea
▁irradiation
hospital
iciencies
5%
atical
▁sickness
▁plas
▁17
fusion
astom
▁(2
