▁intravenous
▁fractures
antibodies
▁vascular
inflammatory
▁complications
▁thromboembolism
▁Medline
▁lipoprotein
▁guideline
▁sulfate
▁atypical
▁untreated
▁tendon
▁symptom
▁fibrillation
▁bupropion
▁dietary
▁abstracted
vaginal
▁severity
▁genital
▁dysfunction
▁excision
▁intrapartum
▁gastrointestinal
▁invasive
▁herpes
▁decreases
▁prescribed
▁fasting
▁mammography
▁dosage
▁mmHg
▁neonatal
▁pressures
▁triglycerides
▁artery
indications
▁therapies
▁simvastatin
enzyme
▁hormonal
▁malignant
▁erythema
▁pregnancies
▁agonists
▁PID
▁superficial
▁refractory
▁lesion
▁regimens
▁transient
▁PMS
▁deficiency
▁outpatient
▁abnormal
▁otitis
▁elevated
▁aspirin
▁retrospective
▁diastolic
▁allergic
▁abnormalities
▁extraction
▁augmentation
▁sulfonamide
▁tablets
▁postpartum
▁depressive
▁tamoxifen
▁referral
insulin
▁hyperthyroidism
▁atrial
▁hypothyroidism
smokers
renal
▁prenatal
▁pioglitazone
▁weighted
▁reductions
▁remission
▁Controlled
▁diagnoses
▁adolescents
▁abdominal
▁hernia
▁calcium
▁hospitalization
▁pneumonia
▁regimen
▁clinicians
genital
▁diagnosing
▁steroids
▁serum
▁cohort
▁concentrations
▁transvaginal
▁asthma
cholesterol
▁regression
▁progesterone
▁heterogeneity
▁fatigue
▁corticosteroids
▁decreased
▁Prevention
▁acute
▁impaired
▁blinded
▁metformin
▁isolates
▁constipation
▁recurrence
▁mmol
▁antidepressants
▁pelvic
▁nasal
▁nephropathy
▁hysteroscopy
▁systemic
▁prospective
▁creatinine
▁inflammatory
▁spontaneous
lipid
▁cytology
▁obesity
▁cholesterol
▁onset
▁gestation
▁warfarin
▁urine
▁progression
▁apnea
▁ultrasonography
progesterone
▁Compared
▁Depression
▁occurrence
▁logistic
▁pneumococcal
▁prolonged
▁infants
▁indications
▁myocardial
▁triglyceride
▁rehabilitation
▁randomized
▁allergy
▁Randomized
▁inhaled
▁clinics
▁ABP
symptomatic
▁randomization
▁TSH
carcinoma
gastric
▁pulmonary
symptom
▁hypertensive
▁vitamin
▁adjustment
▁antibiotics
▁angina
▁imaging
▁Clinical
▁bipolar
▁subgroup
▁fetal
▁examinations
▁renal
▁circumcision
▁lipid
▁vaginosis
diagnose
▁concussion
▁relapse
▁specificity
▁infarction
▁rupture
urine
▁thrombosis
▁anemia
▁irritable
▁LDL
▁subgroups
▁desmopressin
morbidity
▁symptomatic
▁IgG
▁premenstrual
▁hysterectomy
▁fluoride
▁antihypertensive
deficiency
▁infectious
▁intake
▁migraine
nasal
▁contraceptive
▁postmenopausal
▁hemorrhage
▁sodium
urinary
▁ovarian
▁warts
▁femoral
▁squamous
▁endoscopy
agonists
▁colorectal
▁incision
▁osteoarthritis
▁insulin
▁bibliographies
▁incidence
▁herbal
▁venous
▁antagonists
▁elevations
▁steroid
▁adverse
▁induction
▁lesions
▁investigations
venous
▁lowering
▁diabetic
▁resistant
cervical
▁colposcopy
diabetic
▁infertility
▁prophylaxis
▁receptor
▁contraceptives
▁lithium
▁elective
▁pertussis
▁cryotherapy
▁metronidazole
steroid
▁relieve
▁intrauterine
▁placebo
▁gestational
▁anticoagulation
▁menstrual
▁perinatal
▁respiratory
▁ischaemic
statin
▁bacterial
▁caries
▁urinary
▁surgical
▁cysts
▁insomnia
▁pravastatin
▁Trial
▁databases
steroids
▁osteoporosis
triglyceride
▁reflux
▁peripheral
▁clindamycin
▁glucosamine
▁supplementation
▁glucose
▁systolic
▁endometrial
▁cesarean
▁fibre
▁mortality
▁asymptomatic
▁melanoma
▁sunscreen
▁benzodiazepines
▁infections
▁cardiac
▁cardiovascular
vascular
hypertensive
▁hypertension
▁miscarriage
▁deciliter
▁antihistamines
▁obese
▁faecal
▁azithromycin
▁estrogen
▁HSV
▁topical
▁recurrent
estrogen
▁torsion
▁physicians
▁ambulatory
▁testicular
▁Secondary
▁hepatitis
▁Scale
▁acne
▁nocturnal
▁vaginal
▁overweight
▁ischemic
▁breastfeeding
▁prophylactic
▁enzyme
▁amlodipine
▁angiotensin
▁anticoagulant
▁diuretic
▁insufficient
▁concise
▁intraepithelial
▁carcinoma
▁fluoxetine
▁cervical
▁hormone
▁births
▁predictive
▁regurgitation
▁obstructive
▁clarithromycin
▁antidepressant
▁therapeutic
▁thyroid
▁Treatment
▁injections
▁ventricular
▁CHF
▁diagnose
▁daytime
▁mononucleosis
▁inhibitors
▁tinea
▁erythromycin
▁thyroxine
▁questionnaire
▁alopecia
▁preterm
▁Patients
▁diarrhea
▁antibodies
▁gastric
▁smokers
▁discontinuation
▁corticosteroid
thyroxine
▁subclinical
▁redundant
▁interventions
▁headache
▁lymph
▁bowel
lipoprotein
▁terbinafine
▁biochemical
▁antibiotic
▁antimicrobial
▁morbidity
▁mellitus
▁prevalence
▁Achilles
elective
▁impairment
▁biopsy
▁acetaminophen
thyroid
▁fracture
menstrual
▁NSAIDs
▁benign
▁ultrasound
▁vaccination
▁hazard
▁statin
▁diuretics
▁maternal
▁coronary
▁ratios
