compared
achnoid
bacco
▁socioeconomic
▁fecal
26
▁alp
▁1.46
mortem
mined
odular
9).
tified
organism
rease
adder
CRP
ocytosis
▁IBS
▁antip
ussion
▁uteri
-79
▁defects
▁anesthetized
▁mucos
▁myeloid
ochromatosis
inflammatory
▁contractility
▁600
tine
▁plateau
▁confine
▁perfused
oselective
▁73%
▁Gonad
osin
Rs
▁cisapride
menopausal
▁lipid
cyt
▁(20%).
uestionnaire
▁analgesia
▁corticosteroid
▁51%
800
ittac
▁1.47
▁electrophoresis
ineal
▁azathioprine
89
▁arti
▁286
▁TC
1),
lyb
deple
▁clus
ometr
▁clonidine
osid
▁breakthrough
▁RBC
▁132
▁(4.0
▁Few
abain
▁RNAs
ints
▁phosphorylated
▁unde
▁Fib
▁70%.
▁pyruvate
1).
▁referrals
▁multin
▁appendic
poor
pir
▁disulf
▁superoxide
induced
▁hospitalized
▁lesion
▁dermat
▁Vitamin
▁infused
▁hormones
▁atenolol
▁strokes
▁interpretations
47
otrop
▁potentials
▁methimazole
▁ventral
▁55%
▁vaccin
ometrial
mentation
aem
atitis
▁colposcopy
llate
▁rigorously
▁leukocytosis
▁follicle
eprazole
▁repres
resting
▁fibrin
▁incontinence
▁(20
▁Assess
▁fracture
athione
▁mastoid
▁inactive
ecre
▁residual
▁30.4
mation
RH
vicular
▁-7
amide
piratory
▁Neu
▁foci
▁untrained
▁antitumor
▁5.2
▁calf
▁targe
▁cocaine
▁circumference
▁EMA
molality
▁multic
fasting
aminases
▁344
omatosis
methyl
▁203
olarization
▁Dental
▁homogeneity
▁chemot
▁endot
▁effector
▁calmodulin
rotid
▁biphasic
amilton
taining
roxen
▁(82
▁benzodiazepine
▁(97%)
▁abnormally
oscop
▁GABA
IU
▁Pseud
omain
cein
ocortic
.7%
▁upd
adenosine
-16
eak
▁achieves
▁Mayo
29
▁74%
▁92
▁28
10).
▁(0.5
▁preparations
▁septal
▁lithium
▁0.01).
vedilol
▁retinal
those
otox
▁salbutamol
▁HSV
▁benign
Cer
▁emo
▁116
toph
▁disturbances
▁prostate
diastolic
▁bisoprolol
▁lymphadenopathy
▁quinolones
tagland
keletal
achn
▁Gluc
▁amplification
valvular
▁withdrawn
▁eryth
▁PPD
▁356
esti
Kd
▁1.75
▁menopausal
▁antic
▁injur
▁insufficiency
▁wk
▁ecz
olem
eric
indol
▁confinement
titis
tents
▁supr
kines
▁Cardi
▁diverged
▁0.5
ologic
▁ganglia
▁postulated
▁furosemide
▁diabetic
▁tubercle
▁adi
▁occlusion
▁(1),
lycemia
▁persists
▁(1)
▁exchan
▁undetermined
▁vaccinated
▁micron
▁nude
▁stent
aline
ectom
▁Stress
▁(69%)
oretic
▁hypoglycemic
▁colonoscopy
diabetic
▁metatarsal
ispanic
▁tetr
▁BAL
▁diets
▁exceptionally
▁cisplatin
▁pefloxacin
▁9-
wes
▁socio
1;
▁125
54
▁283
tory
▁forskolin
▁25
tact
▁choline
▁71%
erad
▁rup
▁transcript
micro
▁implicated
iary
▁vaginal
▁prescriptions
▁contraceptives
avir
▁categorized
anin
▁epinephrine
azepam
▁oxymetazoline
▁1.4%
lycer
thym
▁Likewise
▁52
▁undetected
icin
▁agonists
▁Coronary
▁127
▁aspart
▁palsy
▁pacemak
▁intrav
▁4.5
tative
▁whee
▁(92
▁46
▁0.10
tectable
▁triglyceride
/10
aneously
▁benzyl
▁diap
▁21.
▁chan
trous
▁lipoprotein
omann
ylchol
▁5.5
iol
▁sugars
▁consis
plast
▁1.38
+,
▁Successful
▁mite
▁quantified
▁labeling
▁4-5
▁46%
▁adap
ocarcin
onidine
▁0.12
guing
▁epsilon
▁kinases
ostatic
▁expres
▁duplex
▁anoxic
▁(15
▁nore
▁interacted
arying
▁lamina
▁superiority
▁oss
welling
hern
SDS
▁streptococcus
enec
▁TI
pirone
▁exercising
▁apical
▁splen
▁msec
▁AFP
alsy
olip
▁conduc
▁acetaminophen
formin
▁curettage
▁430
▁viability
amphetamine
otential
ondyl
▁attemp
▁41%
▁reproductive
▁(8%)
▁nulliparous
▁centr
▁trig
▁fluctu
▁subcutaneous
uplex
▁urinary
▁(1.2
▁certainty
▁journals
idin
▁repetitive
▁HTLV
▁emulsion
▁verapamil
coag
▁antid
/12
▁0.05
▁dex
▁(0%
▁spanned
▁PGE
▁Rates
thel
robic
▁skinfold
▁interim
▁affinity
atonin
▁Evid
moking
7-
▁microscop
▁susceptibility
▁symp
▁inappropriate
▁conflicting
▁polysaccharide
▁41.5
▁internists
▁0.77
▁mV
▁54%
▁1%.
▁hepatitis
▁NPH
▁Relative
▁1.4
▁2.5%
▁obesity
▁compares
adone
▁paroxys
▁hypoglycemia
▁Statistically
4.1
▁melanomas
▁chorio
coup
aginal
▁ascertain
Ta
▁adulthood
▁5.6%
-2.5
▁exud
anate
determined
▁synthetase
▁340
▁antecedent
▁physiological
▁curric
▁atelectasis
▁Identif
▁embol
esthe
▁VP
▁0.00
▁VO
▁vasopressin
▁radionuclide
▁verte
tructural
oglyc
▁24,
▁diuretic
▁4.2%
▁(16%)
▁shunt
▁tuber
▁68,
▁irradi
erb
nisolone
timum
▁enlargement
arthritis
2]
ecutive
▁cef
▁Pn
clin
▁193
00
▁detrimental
▁ischemic
▁hyperlipidemia
▁posttreatment
▁(16%),
▁46,
▁(40%
▁acute
▁overestimated
▁PLP
▁jejun
odialysis
▁diaz
10),
urium
▁monoclonal
▁excretory
▁leukotriene
▁tubular
▁fluoroquin
itidine
▁90.
▁tran
▁electrophoretic
▁(41%)
▁Calcium
▁mononucleosis
▁obese
reactive
▁hypotonic
▁guanine
▁21.2
▁seropositive
44,
amethoxazole
tiary
▁recordings
ifferentiated
▁luteinizing
/18
▁premenopausal
ignant
▁ewes
▁malignancies
ervative
-0.0
▁LC
carinic
dibular
atesticular
▁(3.8
▁accessibility
▁postnatally
orated
lob
▁duodenal
▁surgeons
▁mutation
▁Oste
▁preferentially
enteritis
tives
kele
▁maneu
ilep
▁anticoag
▁renders
▁spectroscopy
▁273
idic
▁warts
omat
kic
piration
▁databases
▁vancomycin
▁(99
converting
6;
▁pigment
▁23
▁structurally
▁cremaster
▁Combin
▁Bac
Cu
-0.5
uled
kDa
▁Streptococcus
uccess
▁adrenal
nRH
▁homology
▁congestion
uride
▁extracts
41
▁menses
▁depletion
▁Chlamyd
▁ulcer
lomethasone
▁excitation
▁(39
▁Subjects
▁50%
abies
-65
▁intranasal
▁-0.6
▁disulfide
▁transverse
▁elective
▁aberrant
▁stimulants
▁kD
atum
oacetic
▁150-
apeutic
▁tryptophan
▁5%.
▁Ib
▁disapp
▁hypothe
uminum
▁posth
▁Stroke
▁proportional
▁cortical
▁0.1
osts
▁occult
ucas
▁cartil
tant
▁stenting
▁21
▁surgeries
▁SIDS
tically
hexidine
▁splenomegaly
▁Randomized
▁limbs
▁conserved
sustained
▁sulfonamide
phenyl
▁Addition
▁217
entia
ignificant
▁6.6%
▁0.49
▁levamisole
▁(4
went
▁9,
▁DBP
▁4.8
-8.
omonas
▁39%
▁suicides
▁1985
▁overlapped
-1.9
esic
oride
▁uncontrolled
openia
onyl
▁(63%)
tracellular
blockers
▁indo
▁accumulated
▁ethnicity
▁247
ocin
▁Magnetic
▁chromatography
3),
▁polyclonal
▁corp
▁histologically
sych
▁occlusive
▁sutures
▁lamb
▁enriched
ischemic
▁adenoid
▁thymidine
▁erythromycin
▁CVD
▁epit
-2.
ovine
2318
▁lis
▁antimicrobial
▁undergo
rocy
opulation
sors
▁OA
▁kinase
▁refractory
▁protoc
hea
▁nominal
▁postoperative
▁papillary
▁assay
▁intraper
▁immunotherapy
sparing
▁multicenter
▁PMA
▁pell
endi
31,
economic
androgenic
▁Secretory
▁cosmetic
▁surrogate
▁duct
havi
ystag
▁1:
▁Afric
quisition
0.6
rected
▁reticulocyte
▁5.5,
▁enrollment
▁chlorthalidone
vice
ytes
▁aqueous
oneph
▁ejac
▁breaths
tency
roph
aemia
▁regulate
opa
▁systolic
▁(67
8)
▁numb
▁82%
EMG
39
▁Apgar
▁57%
ceptive
atally
▁MCV
▁carcin
uvate
▁(0
olates
ducing
clerotic
▁alcoholics
▁gemfibrozil
▁Clinical
opamine
▁molecule
ucine
ogra
▁conception
▁(6
gol
▁basolateral
herence
4),
scop
▁genetically
▁attenuating
▁(93
▁catheter
terminal
bred
▁dismut
ococcal
▁neoplasia
▁96%,
plenic
▁(19
▁supplementation
12
ropyl
▁suppor
▁cataly
labeled
▁pathology
ipients
18,
hered
▁Dys
▁elevation
▁550
▁macros
▁cereal
▁durations
dered
57
tized
▁NADH
sants
▁1600
▁316
▁moderately
▁detec
ipril
0-
▁0.5%
▁viruses
alc
sensitive
▁17.8
▁3/
raconazole
▁obstructions
▁supervised
▁vesicle
▁fertile
▁hap
▁(80
terol
▁cancers
leukin
-18
▁102
▁Recommend
▁exposures
▁0.15
▁favors
▁postinjury
▁satisfactorily
▁instruc
▁Reas
000.
cinolone
3%
trop
▁suppression
▁phospholipase
▁analogue
▁1.1
rhea
▁biopsied
irubin
▁rheumatoid
▁osteoarthritis
▁2.5
▁headache
▁intest
▁estradiol
▁transluminal
▁balloon
1:
ficial
zard
bral
▁Included
▁7
▁outpatients
▁bile
▁resemb
▁codon
▁0.60
▁Conventional
▁traum
ocrin
6%
▁uniquely
▁enzymes
7/
▁perone
.00
vate
dine
▁83%
tizing
▁exacerbations
iasis
kephalin
endorphin
jug
medicated
eclamp
atid
odality
65
▁ATPase
Dawley
▁hypothesize
▁8-12
▁ocular
▁chromat
amus
▁betamethasone
▁KCl
mature
icine
▁penile
▁repro
tinent
▁31%
▁weakened
antoin
amid
▁91
glycerol
▁mM
▁surfact
▁endpoints
scher
▁urine
abdominal
▁suture
NK
000)
▁motone
▁discontinuing
▁unfractionated
icacy
▁clinics
iology
adders
▁PMS
127
▁isoproterenol
orphin
▁enroll
▁neuron
▁Exc
▁7.7
▁liposomes
geal
ventricular
▁LH
▁BCG
▁maturity
▁6%
hydration
severe
administration
▁dendrites
▁carbohydrates
roscopy
uebec
▁MM
▁medically
▁titration
▁digestion
ardias
minis
84
▁dyspepsia
iminary
ionized
heximide
▁persist
olis
erated
acylglycerol
147
otransferase
ylcholine
Tu
▁1.31
▁injected
chloride
▁airflow
▁correlate
▁cytosol
▁231
▁Nutrition
5%,
▁cations
▁Immun
▁transthoracic
▁49
50).
uric
amyl
▁aggression
▁inguinal
▁dete
▁ultrastructural
▁SPF
▁oligos
▁nonsmokers
olesterolemia
▁prazosin
tivities
▁13%
▁IgA
quine
▁ECGs
endri
▁autonomic
▁proportions
kephal
Wo
sives
idone
adily
dominal
▁locus
ognitive
jun
SMR
tomies
▁isch
roscopically
▁nonsteroidal
ofil
▁PTS
artum
▁suggestive
▁curet
▁subtypes
▁acupuncture
▁randomized
occi
▁atri
vail
1/
▁112
olgi
▁OD
▁juvenile
▁8.
ocardial
-9
imodipine
▁lacks
indings
▁encomp
▁Diabetes
▁Therapy
erating
▁physicians
▁9.2
▁pyl
albuminuria
▁33
▁solitary
▁anxio
▁dib
▁transcriptional
0,
▁Hyp
partic
▁mediate
▁sheath
coh
toc
visc
▁ventricle
▁Ace
▁duoden
lamin
onam
▁moiety
▁0.56
▁coval
▁isop
▁objec
▁nuclei
▁300
eces
gian
▁dietary
▁87%
▁trache
▁paroxysmal
▁leucine
reatine
▁stimulus
Daw
▁167
▁aspec
anic
hort
itant
5),
▁8.5
▁fulminant
▁homocysteine
clerosis
ressive
▁2.4%
00,
▁polysomn
▁reversible
aryn
▁alprazolam
▁SMR
▁fibrosis
significant
▁Calc
▁52%,
▁Concentrations
ylamide
▁gyn
▁poin
▁eti
apid
ATPase
▁kits
▁mediating
▁coagulation
▁bladder
▁MEDLINE
torchid
▁retin
76
▁specificity
▁postinjection
▁endobronchial
▁233
tipation
▁(32%)
▁218
▁modestly
▁transplant
inhib
ductive
creatinine
deficient
▁margins
olus
▁soy
ositol
▁anomalies
arrh
▁hypoth
▁oxygenation
▁21%
/34
verages
Ox
▁cerebral
▁cytos
▁lipase
▁reticul
▁insufficient
61
▁95
heat
▁ison
junction
ycin
▁Chlamydia
tabol
fatal
-6)
▁1,25
▁277
▁transfected
▁cytosolic
▁anastom
▁specimens
▁extrap
idation
▁thre
▁friction
▁induc
▁immun
▁bronchospasm
▁145
▁750
gestion
▁MHC
▁RNA
▁acin
▁Eleven
4,
▁cefixime
ochemical
▁30%.
mur
▁venography
▁15.8
▁cyc
anazol
3-
▁ves
▁abscesses
ietic
▁anes
Phe
▁185
▁1.09
▁immunore
▁thrombosis
(+)-
aminase
yloid
partum
-4.
▁squamous
▁polys
visual
ophren
eared
ferrin
▁spacer
▁idiopathic
copic
▁attain
▁18.
▁stres
▁patella
▁multivariate
▁subdural
portant
igaret
▁mutations
▁voluntary
choles
jac
▁tRNA
▁40-
▁reser
neph
ysts
▁postsynaptic
osome
▁2.1
▁calor
casein
▁phon
hydro
▁Benz
omated
rological
▁Strep
ophen
adian
:30
▁outward
ioid
olum
0.2
terus
▁ovary
▁undergoing
▁12.
▁neon
▁endo
▁suscepti
reased
andard
pig
▁nystatin
▁flora
PGA
▁spectroscop
5;
82
▁HBs
▁Incidence
▁comple
▁glutamate
5%).
▁SHR
gression
pendent
▁ejaculation
▁refrac
94
hyp
▁slices
▁(2
▁EE
▁20
▁mann
HB
▁anaerobic
▁0.35
terase
▁arter
orec
▁29%
oscopy
pore
lash
erable
glutinin
▁9.7
▁reconstituted
▁physiology
▁epidural
▁acros
▁nitrofur
▁infants
▁105
▁3.4
▁normotensive
▁islet
athiop
▁16.
▁serotoninergic
▁natriuretic
luc
4]
alan
osacral
▁colpos
▁subfractions
ariate
▁shor
%),
▁atheros
▁activator
▁preceding
urate
▁agar
▁93%
▁(4.6
▁relapse
histamine
convulsive
▁oes
odone
▁proving
▁tended
▁loci
▁(4%)
▁tendons
ivary
▁swelling
▁theophylline
200
27
-5.
▁resolving
queous
▁spinal
antigen
▁nip
▁ingu
8,
▁incubated
rati
▁(5.0
▁obstructive
▁VV
cus
▁neuroleptic
etal
clinical
▁examiners
▁eighth
▁yearly
▁pravastatin
▁histology
▁leukocytes
▁sulfon
▁protr
▁allyl
POA
▁(90%)
▁duc
▁encephal
▁shorten
▁ampicillin
▁56%
odia
▁1/
▁(4.8
.6%
▁graf
▁ultim
▁perc
▁formulations
lamy
umping
oxygenase
estrogen
-35
▁5.
isoxazole
▁diastolic
▁rhabdomyolysis
itamin
▁Scale
▁1.45
primarily
▁1000,
vely
▁artery
▁8.6%
▁270
▁derange
▁hams
▁91%
hepatic
adine
urin
▁85%
▁Tiss
▁GAD
▁120
pap
sufficient
▁sleepiness
▁jaund
opoly
epsia
▁1.58
odip
baseline
▁colorectal
▁hematoma
ilus
▁sero
▁3-
roxicam
▁neutropenia
idating
▁symme
▁cytokine
▁1986
▁biosynthesis
▁61%
detection
▁400
▁Diagnostic
▁-10
lusion
▁dyslipid
▁268
▁desatur
thre
▁ascer
▁deleterious
▁42%
hig
▁strand
▁128
▁corpus
otroph
▁hippocampal
puts
▁arrhythm
▁examin
▁magnesium
▁inflamed
▁follicular
BH
▁fertility
havioral
▁ack
24)
▁Thi
nei
▁18
▁saturated
▁oxid
oreal
▁determinant
▁(56
1-1
▁spac
▁4%
aturated
oronary
tations
-8)
urrent
operoxidase
▁ethn
▁(75
▁refusal
▁injections
▁nonsignificant
▁hydrophilic
sar
▁Lys
▁0.72
ergy
ventil
▁echocardiogram
otropic
urgical
aturation
4).
orepinephrine
bacter
▁deterior
selec
modulin
▁0.76
▁275
▁bac
itro
inamide
▁pollicis
TN
▁conditioning
▁endoplasmic
▁monit
▁biopsies
enol
yclic
erving
▁tachyc
▁neurom
▁1987
ipheral
11
▁CFU
▁synthesis
cephalic
imens
▁synapses
ochondr
▁specification
amet
▁dendritic
atation
▁Duc
▁Fourteen
▁Escherichia
▁90-
▁Reduction
▁(3),
maximal
▁superf
▁latent
phal
enin
inase
▁168
ionine
▁(33%
.7
▁radioimmuno
▁acetylcholine
-1.8
arcin
▁Forty
gA
diagnosed
▁7.8
▁12.5%
▁visc
▁antidepress
4;
erge
sectional
▁logistic
▁Adverse
▁278
▁mycoplasma
xime
▁bloc
idazole
▁algor
17,
▁carbohyd
▁immunocompetent
▁modif
▁inversion
▁uninter
udent
▁oxidase
▁sensitizer
istal
pharyngeal
:1)
ept
▁Urine
▁colonic
▁4.8%
▁coenzyme
.9%)
▁prostagland
▁47%
▁hu
▁prolongs
0.
-30
▁cloned
▁absorbable
▁tach
▁CAP
▁1.8
▁exudates
▁investigations
atell
adication
▁intraven
NB
ubicin
9.
▁bronchodil
thick
▁hapl
▁synov
▁bip
▁hyperb
▁progn
azin
▁twofold
▁apne
-1.
▁Ear
▁hir
▁Cd
▁molar
▁influx
▁clarify
▁inser
▁ganglion
▁.00
duction
uncture
TG
▁sonography
▁183
▁synaptic
▁radiolab
▁Respiratory
tance
▁transcription
▁33.3%
▁alcoholic
▁menstrual
▁6.9%
▁microgram
▁synthesize
tidine
▁Plas
▁Routine
▁hCG
opharm
rhy
▁encompassing
▁cholest
▁0.98
▁hysterectomy
▁celiac
▁complementary
▁specificities
ritis
▁granul
geons
▁purified
tir
othyroid
▁thrombo
▁crossover
▁stool
▁depres
roxic
▁lyso
▁reperfusion
▁viral
,6
▁psychomotor
cytosis
▁homogeneous
▁LPS
▁astrocytes
▁nif
▁entero
▁sexes
adequ
▁48
▁sarcoma
owever
▁insuff
▁Effic
▁correlating
▁42
ixation
lobin
▁2.3%
▁tymp
▁inversely
▁thi
▁initiating
▁beha
▁dosing
▁scarring
▁Trial
ospasm
imeth
▁monkeys
▁274
▁plasminogen
▁discontinuation
acycl
atibility
▁192
olesterolemic
▁thiaz
stress
▁0.11
ochemically
▁Angiotensin
clonal
lobulin
▁bismuth
Ra
/9
▁danazol
▁amniotic
▁panc
5]
limb
-7.
▁ulcers
▁secretion
ithromycin
▁projections
clamp
▁fluor
▁dilat
▁decarbox
▁defic
▁amylase
iatum
acyl
▁1991
▁augmenting
vivors
▁prophylaxis
eptid
uminal
tization
0.9
obac
▁phototherapy
▁(13
oblastic
▁radiography
▁1960
▁cryptorchidism
▁AO
▁invasive
notic
ospor
conventional
▁3.
▁reac
tally
▁1.7%
▁8.8
33
▁5'-
▁opioid
▁drainage
▁acces
▁strep
▁inges
▁Seventeen
radi
%).
▁[14
▁psittac
▁5
▁similarity
▁20-
▁serine
▁erythema
▁nutritive
embran
RCA
▁herb
HDL
▁positives
roxetine
▁basal
tase
▁pooling
▁elevate
▁0.1%
ystolic
▁negatives
carotene
▁meningitis
▁2.3
▁2%.
▁steroids
▁mitotic
vival
▁crystall
irds
▁hernias
▁chemotherapy
▁assesses
▁8.2
▁midw
ritten
▁Absolute
-14
resistant
▁remed
Ls
▁vasodil
▁regis
▁concurrently
▁placebo
▁(70
▁smear
▁paradox
▁0.90
▁COPD
▁Intra
opro
▁hereditary
educed
▁(71%)
spar
▁chromosome
▁(-0.
▁35%
▁seb
▁respec
▁9
potential
▁1%
organic
▁0.06
▁0.23
ositive
assay
▁antisera
2%
▁poten
▁nM
▁retardation
bloc
ohnson
▁bic
meter
positive
actin
▁cephalosporin
▁Protein
▁3.9
hydrox
▁50-
epine
uality
iton
DV
thoracic
zoster
qui
▁3.5
urgery
▁clinicians
▁positional
▁postprandial
▁toxin
▁phenotype
kinase
orrh
Hep
ulose
▁intran
▁biliary
tein
▁64%
hap
edle
assessed
▁unnecess
▁appendix
essional
chlor
xone
enoid
uran
acerb
▁luteal
▁LMW
atological
▁glomerul
▁dairy
▁bedtime
▁134
▁autosomal
▁meperidine
▁mobilization
▁practitioner
▁146
-0
itin
▁hippocampus
▁somatostatin
ults
Ts
oradi
dic
zyme
tened
▁Screening
▁sympathetic
atadine
▁81
▁follicles
▁(42
eliac
▁candidiasis
▁measurable
otine
▁2.1%
▁Statistical
▁occurrence
DH
▁Sensitivity
15
▁0.07
ASA
otor
▁Mortality
▁pec
77
▁stimul
▁CAD
tection
-40
▁67%
▁diges
0,000
▁ruptures
odipine
adenomas
dose
tropine
▁276
▁Hear
▁morphology
ylation
▁14.8
▁dehydrated
▁Epidemiological
▁recons
glycoprotein
adm
clic
▁paradoxical
illaries
ABL
▁(25%
6),
othal
▁414
▁pathway
▁tas
▁strips
opathological
▁averaging
peptide
▁administered
▁tolerated
adol
▁purification
▁monolayer
▁Transi
▁metoprolol
phen
iplinary
▁sequentially
▁mammalian
posable
▁200,
▁70
▁biopsy
▁0.91
▁filaments
▁1.24
entile
acids
onuclear
▁monkey
obarb
▁proteins
▁hemorrhagic
thmias
etween
▁membranes
uprofen
ovascular
▁CHD
▁phag
benefit
-45
▁TRH
5%),
6%;
▁psycho
▁intrinsic
incidence
inopril
▁PEFR
ofluores
cardi
▁modeled
▁conclusive
▁5.7
ctive
▁Eighty
tructive
16)
▁Factors
Cs
▁stepwise
tropin
▁170
lysis
romycin
▁Rats
vents
▁thiazide
▁suppres
▁activating
▁valve
▁yielding
▁Insulin
▁colitis
▁gradi
▁coping
▁derangement
strain
lasses
▁299
▁manifested
▁transi
▁5.9%
8).
▁cytology
tec
▁immunodef
evoked
▁cate
▁absorpti
ventilation
▁keratin
dihyd
▁dimethyl
▁0.18
▁(9%)
▁filament
▁30-
▁maternal
▁adenosine
▁reflex
▁staging
▁oxytocin
tel
▁introduc
▁paired
cells
.5
▁scanning
▁superficially
threatening
▁sequelae
▁63%
osclerotic
▁matur
firmed
▁7.
chloro
▁syndromes
▁neuropathic
▁Gyn
▁hypers
ejection
astatin
▁172
▁criterion
ropathy
▁cachexia
dihydropyridine
ocrine
oprec
oretically
▁myosin
orectal
▁179
▁hypocalcemia
▁86
▁antipsychotic
▁suppos
asthmatic
▁supernat
▁fractions
▁nodules
▁endogenous
▁detecting
GH
▁microb
8%)
▁lysine
▁genitourinary
▁Injury
▁abor
▁specifying
▁(2%)
▁GH
▁Hep
▁scl
▁5.2%
▁Serum
▁Survival
▁thyroiditis
▁anesthe
▁derm
▁Localization
▁amput
▁pharmacokinetic
linded
▁predic
oling
▁Biol
MW
uoden
adin
▁IgE
-9)
▁naproxen
exy
duced
▁percentages
▁bene
▁lifest
▁actin
▁thrombocyt
▁.0
oprost
▁stripping
▁predisposition
abd
irub
▁720
-5)
fir
▁28%,
▁abstinence
▁209
▁ND
uctose
▁bronchodilator
▁prednisolone
sodium
▁aspartate
▁Epidemi
esium
▁pharmacologic
emak
▁diame
buride
ophor
2/
lasts
▁20.
▁carriers
wk
▁inactivated
▁hyperlipid
▁turnover
▁miconazole
oporosis
▁restenosis
▁(8%
agic
▁tac
▁induce
▁differentiation
▁Esophageal
fec
▁agglutination
iae
▁simult
▁osmotic
▁parac
▁uterine
▁aerobic
4/
itively
Hb
thase
▁estimating
rotal
▁hypercalciuria
▁ofloxacin
etent
nitro
▁longitudinal
ocomial
▁660
▁spontaneously
▁Wistar
▁questionnai
▁0.26
1.1
▁actu
64
▁Finnish
▁catecholamine
urons
oproterenol
vating
▁glutamine
▁aerob
13.
glutination
▁(60%)
153
▁analogs
oracic
▁colonization
anad
4.
▁EF
1-
LG
▁confounding
yel
▁15%
floxacin
▁Invent
▁Adequate
thmatic
emin
▁premature
▁(2.6
▁bipolar
controlled
opoietic
▁mAb
▁preliminary
imazole
tigo
▁superv
atient
▁4.9%
▁1.5-
tam
bronchial
▁sten
▁ingestion
onance
▁cohorts
▁(24%)
reasts
.4%
ocrom
▁(2),
500
▁sham
▁FSH
thirds
▁circulatory
▁RR
sian
8]
▁effic
▁interferon
▁splenectomy
▁pep
lastoma
ectable
▁dissec
▁progest
▁intracranial
oyl
▁intermittent
9),
▁rehabilitation
▁vitamin
▁22)
▁fluoro
▁selectively
▁prenatal
rogenic
ymptomatic
otyp
▁reinforcement
▁eradicated
▁disclosed
umetanide
▁peaked
▁acad
▁fibronectin
▁hydrolysis
-1.7
sue
▁standardization
▁intensive
▁1)
athioprine
▁diarr
ociated
▁intake
amn
▁235
luores
▁mU
▁postin
fication
▁opi
▁tracheal
▁(22
▁atten
▁lumb
acil
▁0.34
oste
erant
▁pneumococcal
5%
▁aids
▁dextrose
▁5.4%
▁tracer
erate
▁intrapartum
-7)
stim
▁dus
▁1-
odop
▁thromboemb
▁orally
▁contex
ocated
tability
▁infectious
▁ANF
▁arginine
bearing
itching
ographies
versal
▁differed
▁0.84
lyte
acti
▁Infection
▁electrode
▁parental
▁96%
ventive
▁bathing
oag
▁myocytes
clo
ressing
▁displacement
▁radiologists
-1.3
tense
▁neonatal
▁competence
ullary
▁encompass
▁synthe
chymal
▁enti
▁acyl
▁regurg
▁57
▁enterocolitis
lyc
▁cycloheximide
▁nebulizer
▁accel
asalazine
oplastic
▁580
▁13,
iversity
tabl
ipar
▁homogenates
opha
acet
illus
asic
thrombotic
▁superficial
▁experim
▁(3%)
▁trigg
ller
▁fla
▁confirming
heres
▁isot
utaneous
▁muc
▁succes
▁96
▁plasmid
▁myopathy
lodipine
▁1.9%
▁polyc
ovarian
▁bacteriuria
▁normo
▁discontinued
ensi
▁graft
▁hypertensive
feeding
▁(1).
▁rigor
▁4.1
tomy
▁allergy
▁heterosexual
▁326
▁transplantation
▁irradiation
▁maturation
▁pertussis
▁differs
▁glycerol
▁60
▁rheumatic
▁beclomethasone
▁assayed
▁teratogenicity
▁decub
▁0.4%
ococci
atment
▁incorporation
▁choles
▁supplemented
-60
▁concentrations
achial
(2+)-
006
ograms
19)
▁7%,
▁fulmin
▁subjective
ritin
▁Bacter
▁assays
afe
▁ventricular
▁reductions
▁1.53
▁dementia
▁unsuitable
6-
▁bup
▁1.04
▁GMP
87
▁surgically
▁goiter
troduction
▁unilateral
▁comprised
▁beverages
▁285
cellulose
tent
▁incis
▁Depending
gic
▁cholesterol
▁agonist
▁(89%)
▁2.5,
siveness
rachial
siology
arrhythmic
▁allergens
▁complication
▁exudation
30-
endix
▁TSH
▁17.7
osac
ocysteine
otent
▁cardioselective
▁thyroxine
▁reviewing
95%
▁Capsaicin
oratory
▁hamster
▁angina
▁19,
ylephrine
▁182
▁Elevated
troph
▁3)
iterranean
LISA
▁cyclo
2+-
ophore
placebo
erally
▁6
▁gynecological
▁24.7
9)
▁buspirone
▁pneumonia
▁Investig
▁2,
▁chromosomal
▁rickets
diagn
inergic
cAMP
▁CK
tic
ifferenti
partate
▁32
thrombin
▁warfarin
uscular
ethylene
▁gonadotrop
.3.
/24
deoxy
▁secretagogues
▁CFC
▁(3
SAID
yzed
▁anaesthe
▁encoun
▁Intensive
ods
▁prono
▁ejection
▁-1
▁incid
▁6.2
▁0.05),
▁bran
7).
▁HBsAg
tero
▁Eb
▁3000
▁malign
▁pacing
▁fallopian
▁2.7
ensities
▁influenz
▁excre
utin
▁nicotine
fortable
▁anteced
▁anesthetic
mostly
▁clamp
macropha
responders
70)
▁0.40
orenal
tig
▁recurrences
pectively
▁0.19
uretics
▁microscopy
atified
ocyan
50)
▁retard
▁unin
progestin
▁steroid
azep
▁elec
▁GE
▁DSM
acting
3]
20.
sA
▁nonsur
▁thyro
▁ADA
▁prophyl
galact
omplete
▁Interestingly
ithelial
particularly
urine
▁definitive
▁26.5
▁pooled
▁anticholinergic
▁immunized
▁surgical
▁sti
▁GER
▁multim
otomy
ronate
▁phosph
▁accumulation
▁neurop
▁0
arcoma
▁sput
otre
▁antibiotic
odynamic
▁neuropsych
▁doubled
▁outbreaks
▁cerv
▁ramipril
opecia
▁modulate
▁hairy
▁overestimate
aminop
▁assis
▁fum
▁37%
▁Thy
▁CN
▁5.7%
apanese
▁3.5,
▁(5%
▁subjected
▁parity
ovir
▁defec
▁traumatic
▁perin
▁adduc
reduced
▁HBV
▁saliv
▁carvedilol
aerobic
volving
othiaz
▁capillary
▁Milk
tained
▁(31
olipid
▁cerebrovascular
▁washout
▁Modified
otr
▁saline
dor
▁alkaline
▁1.56
▁nitrogen
▁disadvantage
▁cessation
▁preserving
ported
▁audiometry
▁thyroidectomy
▁discharge
▁disappearance
1]
▁hematologic
▁0.64
▁specialty
▁119
▁Fifty
2).
▁Highly
▁increments
93
▁aggregates
▁interventional
▁vertigo
▁reproducible
▁PKC
NIDDM
▁crom
▁distinguishing
0%,
embrane
▁stenosis
2.1
tisone
▁DV
otriene
▁acutely
▁contiguous
▁arose
oung
▁incom
▁flexor
ludes
▁mEq
▁protease
▁10%
▁vitro
▁ACE
▁ischem
▁discom
▁glucagon
ameter
▁UT
fine
posure
▁expectancy
ochrome
orpor
ocytes
▁cystic
.5.
thi
0),
oplas
▁biased
▁kinetic
rophic
▁critically
mediately
amphen
▁miscar
▁deletion
▁monocyte
▁organism
rents
▁concurrent
▁Swed
examination
hips
▁NK
▁methyl
ometers
erver
▁subun
▁ascending
▁amino
omized
enzyme
▁HC
▁produc
lys
▁Neurop
urred
▁fibroblasts
italopram
▁15-
trin
oxin
▁recombin
immuno
75
▁incomplete
onary
▁labelled
▁interfere
▁(4.3
▁sonographic
▁pediatric
▁0.67
▁Bec
▁sarc
▁polym
lact
echan
Gs
▁ovari
olytic
▁293
▁indomethacin
▁84
versely
ocl
cence
eclamptic
contrast
vian
agin
ereb
rein
▁tyrosine
▁clindamycin
▁1.0
▁screened
rologic
▁plasmids
▁adop
▁Maximum
▁16%,
▁continuation
▁hygiene
▁Inhib
▁ambulation
responding
▁Sprague
▁fluores
▁fibroblast
zymes
▁neonates
▁scre
Ca
irone
▁hyperbil
▁39,
▁Inventory
▁Severe
▁17-
▁splic
▁connective
▁23,
▁innerv
urea
▁collagen
▁51
▁abnormal
▁UTI
atisfaction
ifug
▁alanine
▁stimulate
▁pylori
gland
▁immuno
anthine
illary
▁27,
▁ranitidine
▁differing
esophageal
▁1.11
▁concomitant
▁enzyme
▁117
14)
eryth
-1.4
▁ESR
▁NMDA
▁lability
▁139
▁6.5%
▁7.6
▁carbonate
▁emphasized
tub
▁-12
▁underst
▁enlarge
▁intram
diabe
▁(1.6
▁inhibiting
-2.0
▁(7.4
▁pate
ophils
onvul
oxetine
▁hyperactivity
▁90%,
sant
affec
▁currents
▁4.0%
▁persisted
ectomies
▁detrusor
▁denser
▁(0.9
▁evacuation
enters
achid
atrial
▁eradic
▁recurred
iuria
Ig
▁1.07
umerous
▁20%,
amisole
titution
▁gland
5).
tors
▁amphetamine
▁accelerated
razolam
▁hypercal
waves
retin
▁Alzheimer
onegative
oglob
fluoro
LH
reported
itus
cessive
▁obstetrical
epam
▁cytometry
vitamin
▁phosphate
▁inh
▁5)
vus
▁musculoskeletal
▁awak
▁retic
aptic
crimin
▁1.15
opramide
onazole
▁lact
▁8.4
orrhea
rometry
▁sedim
▁101
▁pharmacists
▁159
ropha
▁spermat
▁causal
▁pharmacokine
tivity
trophy
-85%
VH
▁rabb
▁diuretics
-3.5
phragm
▁bowel
▁reversal
▁epidermal
▁tricyclic
pirin
anking
▁78
▁Examin
▁positively
▁randomization
▁gum
▁fluids
/30
▁perit
▁Hb
▁wee
▁serologically
▁residue
mia
▁spasm
▁86%
▁103
odopa
▁saphen
▁67
acetyl
▁26
▁147
▁doubling
▁114
▁thymus
ogenic
onate
olateral
ticular
▁wheezing
▁genital
▁successive
▁carc
▁17
▁dischar
▁Mn
6.
▁rostral
▁synap
▁plas
▁Surgery
ylene
▁nadir
▁ventric
▁atopic
▁systemic
ergency
finding
adal
gressive
otoxin
gans
▁prosthe
▁interestingly
onates
▁extracorporeal
▁buc
5/
▁Binding
▁amoxicillin
▁couns
▁kidne
▁1000
▁persisting
.2%
▁9.
coated
▁chel
▁elast
▁preceded
▁40%
glycer
▁varicella
▁amputation
ulitis
▁advan
▁pulmonary
▁FDA
▁4.7%
▁elong
▁0.000
jec
▁5.0
▁1.2,
▁psychophysical
▁decreased
MH
▁uncomplicated
▁phe
enkephalin
▁exer
▁necrosis
▁homogen
▁psychotherapy
oprim
armac
▁deviations
▁manifestations
▁impairment
▁concludes
10
▁tetrac
▁0.026
▁optimum
▁insertion
▁admissions
▁neurolep
▁worsened
AFP
▁biosynthe
▁simplified
▁adipos
erents
▁Dip
▁0,
▁mitogen
▁lem
algia
▁50,000
▁kcal
▁264
▁mixtures
▁fibrob
tep
restricted
27.
▁diagnose
▁5.3
▁79
▁Disorders
▁7.7%
▁capsules
▁arthroscopy
▁neoplasm
▁disturbing
aceous
biased
▁indus
osteroids
▁compe
▁Doppler
atinine
▁nonm
▁clonal
▁outlet
▁47
▁routinely
▁Reduc
63
▁acceptor
▁doses
▁microv
cretion
▁5.5%
NIH
lood
isolated
encephal
▁sugges
▁analogues
▁depolarization
▁androgen
orbol
disc
▁diagnoses
▁satis
▁215
▁adversely
▁0.82
▁dysrhythmias
▁bicarbonate
▁exploratory
15.
▁ammon
▁accid
eeding
▁70%
▁peritoneal
▁allogeneic
▁100
▁0.17
▁spas
▁hybridization
▁descending
▁venti
▁pmol
▁ipr
▁prostatic
ospitals
▁nonp
▁linkage
terin
▁3%
▁(21
▁-5
ectomy
▁6.1
▁stools
tinu
inol
▁ambul
.1,
▁amin
▁implant
hydrop
estig
▁Exposure
▁electr
▁confers
▁variously
▁peroxidation
oprolol
-81
▁lorazepam
▁Tissue
▁0.7,
▁hazards
endazole
infection
▁55-
▁psychosis
▁physici
Gly
ocarcinoma
▁prolactin
▁perce
▁methodology
taken
haled
adic
▁10%.
▁cytologic
▁22%,
▁loos
▁attenu
sistent
▁8
▁hexa
▁clarithromycin
▁0.13
▁AMP
organisms
▁scin
▁lumbar
biotic
tum
▁efficacious
▁onset
▁embryonic
▁exacerbate
adrenoceptors
▁regimens
▁topical
23
▁cows
▁tremor
▁abd
ternational
▁88
▁classify
▁tuberculosis
▁HL
▁sickness
▁3.8%
▁inadequ
▁142
▁expressing
▁(5.3
▁antibody
5%)
▁hypogonad
▁transferrin
▁biochemical
▁promp
▁avail
ostomy
idney
▁1.35
▁0.45
▁membrane
▁receptor
blood
onomic
vular
▁hydrox
▁60-
▁22
▁propionate
▁neurologic
▁66%
▁immunobl
▁therapies
udin
-100%
▁centrifugation
▁radioactive
▁135
▁30,
lated
0%),
rays
▁4;
▁stained
tral
entif
▁dosages
▁illus
▁immobil
eroxide
▁subgroup
▁Higher
▁IU
orbent
▁ankle
.10
▁2.4
▁irregularities
▁abnormality
140
▁undere
▁infarctions
▁31,
inatal
▁flexed
▁PTH
rowing
ecretory
leuk
▁preeclampsia
ecu
▁Thir
▁CIN
▁tol
▁pretreatment
centered
▁therapeutic
▁PEF
ethyl
▁analges
▁compartment
▁diagnos
▁Salmonella
▁malarial
▁sulbactam
▁lymphocyt
▁motility
oten
▁77%,
deriv
▁5'
▁16
▁nifedipine
natal
-600
▁enzym
▁43
upus
▁hazard
caro
▁erosion
▁Biopsies
antial
▁ovulation
.9
tured
25,
▁63%,
charged
▁Phen
▁CRP
▁insulin
▁colic
terolog
▁56,
▁hydrophob
▁epidemiologic
109
▁ipsilateral
▁discriminate
tical
▁0.01),
▁cran
lep
▁mening
-1)
ylated
▁decreas
atriptan
▁caud
▁Americ
▁3.7
▁reinfection
▁electrolyte
▁93
▁normalization
▁0.016
▁Aspirin
▁levonorgestrel
istor
▁methotrexate
▁ionized
▁(1%
▁inherent
daily
▁imaging
▁(14
▁Somatic
▁Assessment
▁epilep
amate
▁Increas
Au
▁56%,
disciplinary
▁Optimal
▁suprac
▁uncom
▁appropriately
▁.05)
▁intub
nec
▁asymptomatic
▁arrhythmias
▁1969
▁radiological
fractions
opo
▁6.9
oppler
▁causation
▁angiotensin
▁catechol
ungal
NAc
anat
kinje
▁prostatitis
▁stratif
▁fasting
▁examinations
▁50,
▁237
5)
cine
tumor
obronchial
ocaine
▁preventive
atical
▁gradients
entan
▁factorial
▁inconsistent
▁graded
▁49,
▁intractable
usively
▁NADP
anavalin
lycerol
▁mortality
lec
▁voiding
▁7.9
▁precur
▁augmentation
▁0.09
▁Initi
▁1.95
tiguous
▁damaging
-96
▁bronchodilators
▁excessively
▁rupture
▁mediated
meg
▁(89
▁mononucle
▁dextran
▁judged
▁150
▁(10%),
iscal
▁tiss
▁(85%)
▁underway
/6
1%
sorb
▁Multiple
tise
▁manu
NH
ratic
'-
COP
osine
▁hormone
▁atopy
110
▁interpre
▁bromocriptine
▁pelvic
▁mitral
lod
▁spikes
▁confound
naud
▁Plasma
▁ouabain
▁15,
onuclease
▁Pseudomonas
▁rabbit
early
▁interventions
▁Copenhagen
▁anemia
▁dissemin
▁polymy
-22
▁1.18
▁11%
▁unrecognized
namic
▁simultaneous
929
▁microsomes
▁NMR
gment
emia
imaging
▁(250
-1
▁wt
▁enzymatic
▁dysfunction
glucose
helium
▁-0.4
▁sperm
▁cardiac
stin
meth
▁regained
▁insomnia
hemical
operative
▁106
drug
▁(1.0
opril
reasing
ecyl
10-
▁1.12
▁45
▁111
▁perfusion
sorption
▁foc
▁granular
8),
▁(16
▁CDC
fal
ostatin
pine
▁fractures
▁Mast
ocyst
▁morphologic
inj
ystatin
nisone
▁phenotypes
8/
▁Staphyloc
▁TCR
▁physi
▁Comparison
adrenoceptor
▁anae
▁fibre
▁recipients
productive
▁(5.1
-450
▁titr
cents
▁stimulant
▁7.5
uitable
sus
▁irreversible
▁irrigation
▁pren
▁maneuvers
▁0.81
▁AGA
▁universally
▁relapses
▁lifelong
promoting
▁conductance
embry
▁occl
▁abnormalities
83
imide
▁26%
ogenes
▁recor
LDL
operatively
▁Reflex
▁Combination
▁dendri
▁disturbance
▁hypokal
oxic
▁-0.0
ygo
ystic
uria
▁mimic
▁cylinder
opre
nai
▁33%
▁relieve
▁merit
▁rhinitis
▁hypokalemia
-10
▁scans
▁inhaler
▁precursor
▁datab
teroid
ocys
▁restor
▁revised
ominant
▁endemic
▁97
▁succinyl
▁CRF
▁neuronal
▁50%,
enil
odiazepine
cB
ovastatin
romy
3-4
sively
▁clon
▁nicot
omyces
▁80,
trogen
▁(500
ticle
iparous
administered
▁(75%)
▁neph
▁atrophy
▁statistic
olig
▁antigen
onor
anav
ustained
injury
▁15%.
xual
▁predominant
▁menstruation
▁envelop
cale
▁nondis
tran
▁0.2
-5
▁24)
▁avoidance
▁corticosterone
xin
▁nig
▁perinatal
▁homoz
▁bladders
lowering
▁transduction
▁secrete
truc
▁behavioral
▁relaxants
gents
▁dehiscence
vertent
ducible
▁metastasis
▁MMS
otonic
▁serolog
▁abscess
etirizine
▁CAL
▁expiratory
▁121
▁(49
▁4.
cyclic
▁clu
▁122
▁outflow
▁derivatives
▁detects
osmolar
-]
▁rhy
▁30
plasty
atural
▁hypertro
rophilic
▁microbi
▁80%,
▁recurrent
quid
▁endeav
▁PID
icul
anese
horm
▁173
weighted
▁condensed
▁5000
▁acetyl
▁threefold
tive
3%)
▁methodologic
tensin
▁suction
▁posi
opathy
achol
phthal
▁polymerase
▁androgenic
▁intravenous
▁sucrose
▁20)
HF
oclonal
▁limb
▁alleles
▁0.2,
▁physiotherapy
▁unreliable
13
▁glucose
-25
▁selec
▁inactivation
▁equivalents
▁NaCl
▁41
BMI
▁200,000
ections
▁Seventy
linic
▁carbachol
ophil
orac
pregn
erebral
stem
▁BMI
▁inhal
00)
▁constipation
astine
▁adjusting
nosis
▁250
▁0.7
▁lumen
▁Levels
▁grains
gluc
66
▁cyclospor
▁ae
▁0.88
▁BW
▁genotype
▁slowing
▁methionine
▁transient
pecially
▁benefited
othi
ulants
▁1983
▁resol
entical
▁1.17
▁(78%)
▁Neuro
TPA
▁fetal
▁hypoventilation
▁33-
▁morbidity
21
▁clues
▁nonc
ranolol
▁antifungal
▁aspirin
oxid
retest
▁440
▁sensitivities
▁glucocorticoids
▁19.
vity
▁correlations
▁fibrinogen
▁(84
▁glycosylated
(6
yx
onin
▁0.86
unced
tif
▁Asi
▁uric
▁reiter
henyl
▁0.05%
▁gastro
▁lymph
▁154
elic
essel
▁2000
▁enteric
▁neurons
0.8
▁emerg
ochemistry
VAS
▁persis
Ep
▁newborns
▁herni
▁5-
▁rati
▁proton
▁sple
acr
ayed
EDL
▁(95
▁(79
▁321
▁1.13
▁7.5%
.7.
▁apprec
amines
▁500,
▁fibrillation
▁anesthesia
romal
erop
▁underestimated
▁fatty
▁underg
▁0.42
▁examining
Tyr
▁undiagnosed
▁0.93
IgM
▁rGH
arental
zine
▁adiposity
▁80-
▁glycogen
▁prolonged
▁medulla
OH
▁docum
▁summarized
inic
▁intrauterine
apeu
reactivity
▁yiel
arynx
10)
▁ile
▁dips
▁EEG
arre
▁dorsal
▁16.1
▁verbal
crip
▁3'
▁eczema
muscle
arial
erin
▁0%
-8,
tead
▁antihist
▁suicidal
▁sulfonylurea
▁pharyng
oA
▁36
▁Pretreatment
olamine
▁cranial
emetic
▁mildly
▁sinus
▁aberr
▁Outcome
▁births
▁metabolite
▁exogenous
avail
phyloc
PPP
oskeletal
▁pollic
tics
50
▁creatinine
▁undertaken
▁11.5
toxic
▁ligation
▁organisms
venous
tested
▁clot
▁proliferative
▁252
aryng
00-
▁esophageal
▁stu
▁carbonic
calorie
▁methodologies
raine
kely
wenty
amel
▁perioperative
▁Framingham
owel
▁clinically
spectrum
▁remin
3).
▁thromboses
▁worsen
eptin
▁virtu
▁tachycardia
▁facilit
▁Haem
▁234
3+
▁exudative
ulcer
▁hypercalcemia
9/
▁MRF
lovir
▁constric
-4
▁prednisone
8-
23.
ocytic
iplin
▁esterase
atest
▁MDI
▁ana
▁EA
▁anomal
02
▁308
tential
▁desaturation
▁chorionic
▁68
▁fathers
monary
▁commercially
▁synovial
▁internally
▁pathological
▁25%.
arean
▁diarrh
dihydroxy
▁22%
▁retested
▁latex
olerant
▁colos
▁1.01
▁fric
.8.
epti
spectively
▁0.80
strual
olpidem
▁neoplas
lline
coronary
▁endos
▁16%
▁0.01
▁determinants
▁cyclical
albumin
elec
▁206
tention
icep
▁4.7
acted
tene
PaO
▁0.8%
uracy
▁mono
▁solvent
▁radiographic
▁isomer
▁sebaceous
▁prognostic
salt
ffer
▁implanted
▁PEG
▁nasal
EGF
▁4.3
▁nonin
▁40
bran
flammatory
▁kinetics
teric
450
▁ulc
▁heavier
▁addic
▁stimulating
▁esophag
▁enrolled
25).
▁3.0
luding
▁(68%)
▁secretory
oluble
▁hypother
▁memb
▁(44
▁cytoch
athyroid
deficiency
iability
phine
▁Failure
▁Lact
ofl
quamous
98
▁catalytic
fetoprotein
lymph
▁AIDS
▁302
▁kine
chym
thymidine
ostasis
▁bilateral
▁37
▁atypical
angiotensin
lun
▁marrow
56
▁albuterol
ucle
▁4.6
▁163
▁82
▁adolescent
▁eradication
okine
Gy
▁abl
▁-0.5
▁amp
▁10.0
CSF
ncy
osamine
▁PCR
▁adip
▁(10%
▁regimen
semin
▁1.3-
▁spirometry
parative
▁PPV
▁VIP
▁NN
0.4
▁Whereas
▁thrombus
▁LD
teroids
▁bism
▁glial
▁afferents
opressin
▁262
▁platelets
aminergic
timulus
prac
▁collagenase
▁8.0
ytoin
usually
▁subf
utive
▁adjuvant
▁8.1
itrate
▁inoc
ocusing
▁reversing
▁0.38
minal
▁comprising
-1.6
oplasty
▁Viral
▁irrig
▁acqui
+/
tension
tigu
IgG
.1%
ilol
300
▁(26
▁inadequately
▁strengthening
▁Abdominal
omycin
▁antim
releasing
▁(1
▁171
inally
▁mRNA
▁titrated
▁incidence
▁WK
▁iat
etus
▁cramp
▁potenti
vaccination
▁82%,
▁unil
▁infec
▁qualit
▁equilibr
▁(20%
▁phle
▁comparisons
▁Beta
aterally
▁endocrine
▁MIC
▁discrimin
Leu
brile
▁8-
▁Hyd
▁vesicles
▁angio
▁Lactobacillus
▁multiv
▁retinopathy
▁vomiting
▁intravenously
▁anemic
2+.
othane
▁133
▁desm
▁(94
0.00
iodine
.8%
▁discontinu
▁10.7
trates
▁peptides
▁umb
▁immunohist
▁Caucasians
▁Suc
reases
▁TNF
▁attrib
▁Abnormalities
▁halothane
▁elevating
▁xylitol
▁endoscopic
ocytopenia
▁antich
▁vertebral
containing
▁untreated
▁Fram
▁(97
▁Smoking
▁2.
arous
▁1.6-
-2.2
▁livers
▁epidemi
▁laminin
▁4-
▁adverse
▁sigma
▁antigenic
▁familial
▁lipophilic
hydr
▁muscarinic
meterol
cis
▁endometr
18)
-3.0
initi
trus
▁sph
▁cellul
▁operative
▁reactivity
conver
ulant
▁antichol
trimester
gli
▁autologous
▁thyroid
9%
sess
▁triazolam
tate
▁mellitus
▁outpatient
olesterol
▁Prac
ureas
▁perforation
▁islets
▁insol
▁resul
stab
▁reacted
cad
▁controver
VV
▁165
▁CABG
▁fibr
▁Extr
▁(72
▁myocardium
▁fulf
▁arteriosus
protein
▁bleed
Nor
▁exag
▁1.48
thma
▁generalized
▁streptococci
▁stratified
izability
thromycin
vices
▁(36%)
▁fibres
▁erg
.1
▁palp
▁(15%)
▁antibiotics
oplasmic
venty
▁lactobacilli
7%)
▁trimester
▁intrap
▁analysed
▁chloro
tte
gthen
▁ascorbic
▁impairs
▁disseminated
▁plaque
▁primiparous
▁monolayers
▁labial
▁412
jected
▁ADP
▁(35%
median
▁bacterial
azone
otropin
illi
▁noncom
anine
▁morphine
▁conges
-2,
▁emergent
▁unres
▁sulf
-11
▁acyclovir
cutaneous
▁GTP
▁1.3
▁phleb
▁granule
▁antec
▁contamin
▁subpop
▁airway
▁endoc
▁granulomas
▁serological
atab
▁therapists
ymmetric
▁(95%
ibrate
edocromil
olam
turb
▁lidocaine
7;
▁responsive
▁cyclooxygenase
▁deli
▁proteolytic
onatal
omatic
hormonal
fraction
▁1.36
riton
itic
▁streptococcal
▁sumatriptan
▁Secondary
▁granuloma
▁confounders
▁unipolar
ervical
38
▁triglycer
▁Evaluation
ogenesis
unctions
▁chlamydia
▁linearly
▁antithrombotic
stimulating
trast
▁(67%)
▁extraction
▁fractional
▁selen
▁27%,
▁leukemia
▁interf
oxine
-2).
▁3).
isters
▁Inte
mental
▁theoretically
▁Evidence
inositol
▁1.29
▁distin
.0,
ervations
▁unchanged
▁mec
▁0.8
:3
▁satisfactory
unctional
▁inflamm
siologic
▁255
▁statistically
62
▁physiologic
▁mitochondr
romes
imentation
▁myel
ocor
iagn
▁subscapular
cture
echanical
▁solub
▁gastrin
▁whey
▁indefinite
▁reticulum
mented
▁confined
atine
▁mitochondrial
▁nylon
▁hemisp
▁transmitted
▁addi
ensitization
▁77%
▁Ventricular
eptidase
traction
▁64
▁compartments
▁resour
▁etiologies
ohns
alact
exis
▁serogroup
▁meticulous
▁antigens
ureus
▁inotropic
-34
ergic
▁prognosis
▁vegetable
ucl
▁4,
versity
embers
▁lec
▁irrever
▁demonstrates
opam
▁sprin
▁gamma
▁cysteine
▁innervation
▁affec
▁0.001)
▁elucidate
▁8%
▁identifiable
▁escalating
▁-0.7
▁urography
▁25.3
fied
▁stric
▁(0.0
ococcus
▁jeop
53
▁endothelin
ffective
▁(90%
▁suppressive
(1
▁11.6
▁Longer
thmia
▁GSH
▁acet
▁80
▁exacerb
▁chloramphenicol
▁metabolites
▁drin
hyd
▁0.6%
▁shortened
▁metatar
merc
▁sulfonyl
yridine
ulsive
illation
rosemide
▁reflux
lication
▁proximal
▁6.4
32,
triglycer
▁efficacy
(7
smoking
▁arthritis
▁sulph
trophin
produc
ardized
▁4.6%
▁CCK
▁challen
retroviral
ilibr
tions
▁49%
▁relap
ionic
▁-0.8
▁malignant
▁discomfort
▁0.30
▁triam
▁shedding
receptors
▁phospho
▁quantif
▁LVH
aind
▁resear
▁189
ophilus
▁1500
▁48%
▁cured
▁revascular
▁1.00
▁substrate
renaline
▁previ
struc
ectin
▁ester
▁amn
▁ultrasound
▁Consequently
▁200-
▁concordance
▁mmol
▁quin
▁neoplasms
tivation
▁carotid
▁155
▁substitu
▁exhibits
▁renovascular
igarette
iotics
derly
▁14%
▁85
▁excretion
years
angl
▁ach
▁(2.5
thood
chol
cysteine
stolic
▁isoform
▁quoti
yocardial
103
▁1.26
▁Preliminary
14
▁synerg
▁requi
onography
eck
▁investigator
19
veolar
▁aluminum
▁oxy
▁(58%)
(3
orphine
ACh
▁Factor
▁medial
▁putative
▁assessments
▁EG
▁acidic
79
▁323
▁lymphomas
▁14.5
▁3
producing
▁plasmin
rox
▁acnes
surgical
▁80.
agonist
▁hypogonadism
▁propensity
▁pentoxifylline
▁serology
dens
▁propranolol
▁surgeon
tion
▁plasm
▁6.3
▁corticosteroids
▁Sodium
▁biases
phasic
▁grise
▁empirically
▁(63
▁28)
▁lor
cellent
▁osteoporotic
▁dissociation
▁resis
▁Acet
▁oxym
▁deviation
10,
cervical
brain
▁Treatment
▁corpuscular
rever
▁criter
uppressed
▁construc
▁nasopharynx
parous
botic
▁glycol
▁prophylactic
▁0.70
etence
▁Enal
▁systematically
▁Prevention
▁practiced
14).
xide
▁deoxy
▁nonspecific
▁antibodies
osite
ymp
▁supple
▁87
luded
roxim
▁retur
olones
▁cephalosporins
▁neutroph
▁gout
phot
▁cytotoxicity
▁60.
acrylamide
▁drip
▁prostaglandin
18
▁557
kage
▁retention
▁1.2
▁clones
azolam
ifedipine
rosy
icillin
athic
▁4)
itone
▁pla
▁pyr
▁INH
▁neomycin
▁Thirteen
▁1.08
.6
erum
genic
▁chromatin
kelihood
▁lymphocytosis
ocyte
▁Clinic
▁bradykinin
▁(62%)
81
▁transcripts
rotein
pecific
▁EGF
▁effec
▁6%,
chool
▁pellets
▁Estimates
▁NF
▁107
▁unexpectedly
ensitivity
▁glyc
ritical
▁immunosuppres
robial
▁ventilation
▁tolerability
therapeutic
greater
▁Notably
72
▁infarction
▁Delayed
gestational
▁testosterone
▁excluding
▁NH
▁rats
MV
uted
▁Doses
▁interv
▁impair
-2-
▁saphenous
hydroxyp
▁severity
▁Depression
0.3
▁incubation
▁mcg
▁cesarean
tilage
60
▁Ninety
retion
▁rash
▁anticoagulation
▁0.5).
▁etretin
▁attendant
▁1,
▁tubes
▁casein
(2
▁Comparative
▁conclu
▁proliferation
atent
▁etretinate
▁microtub
▁lowering
▁Estim
effec
ronchial
▁selectivity
ruc
▁1.25
▁gly
sul
▁urinalysis
▁5%
▁1.02
▁degen
▁intramuscular
ADA
gestrel
heavy
▁parame
9-
▁1.4-
anol
▁prevalence
arrhy
▁Caucasian
urane
▁ribs
-50%
▁carcinomas
etoprotein
▁0.89
▁strains
▁Adh
omagnes
▁Behavioral
▁infrequent
▁daytime
▁Subsequent
▁Individuals
uin
chid
activated
▁predictor
2,000
fibrozil
▁epitope
▁rejection
▁cefaclor
1-4
Nase
▁257
▁90
▁hep
▁tomography
25
oconazole
ermal
trac
▁regression
oglobulin
▁resuscitated
ipolar
▁suppressed
ustion
absorption
▁Enalapril
oidal
▁proteoglyc
tox
▁antacids
▁appraisal
▁ovarian
ionate
▁EST
▁attenuation
▁clinician
▁analgesic
▁infections
▁initiation
lip
omers
▁cann
▁pectin
▁40,000
▁sequencing
▁euth
▁deliveries
▁Regarding
▁26.7
blind
▁impaired
titut
▁exis
▁postmortem
.6,
▁144
97
▁mitochondria
▁localized
nthe
▁weighted
vements
▁1.16
▁ald
tite
enal
hers
4-
▁oint
▁BV
▁fructose
nish
▁isoniazid
CABG
valine
▁chec
oxicillin
onephritis
▁bouts
▁scalp
▁malformations
▁glutathione
sions
▁macrom
▁Oral
bic
▁methodological
▁mutants
▁dizziness
injection
▁1.6%
platin
weigh
▁Patient
phil
-52
ographically
uble
30,
▁Cyt
▁Progesterone
▁embry
▁sut
plantation
omegaly
▁24%,
▁8%,
▁uter
▁IGF
▁felodipine
▁mitogenic
▁hepat
▁blot
233
▁oximetry
▁0.08
▁prevalences
▁retrospectively
▁messenger
▁genome
inoc
3/
▁Prevalence
▁(150
ofib
▁4.0
▁BMD
▁phosphatase
▁mIU
▁oxidation
50),
osage
orating
▁Km
▁0.50
▁gluten
▁Leu
terl
pretation
▁binds
▁progressively
▁wean
angi
amphenicol
▁phage
omal
▁renin
▁reticular
▁chloride
▁40,
▁presynaptic
epin
▁injec
IFN
▁Triton
▁identi
▁herp
sequent
PCR
▁221
trypsin
aminidase
▁Engl
hetamine
otamine
cious
▁35-
▁cytoplasmic
azem
▁(1/
▁euthyroid
hene
vasive
oretical
▁fluconazole
▁markers
▁CHF
▁polymyxin
▁3.1
▁surrog
tak
▁2.0
tage
▁predicting
▁heavi
▁PHA
lox
▁intestine
▁Institutes
▁0%,
uppres
ective
entricular
▁2)
▁Approximately
enicillin
divid
arachnoid
▁hygi
▁glucocorticoid
amethasone
▁anticonvulsants
▁(12.5
▁autop
chlorothiazide
▁assessing
▁10.8
▁nmol
pharose
erence
▁deoxyrib
▁131
ilization
▁carbam
▁solit
▁136
▁70-
▁elicited
▁gangl
▁accessory
▁antidepressants
odies
▁cG
▁20,000
roth
▁blockade
▁50
rance
▁CU
▁30%
▁supra
▁ventilator
rans
quit
▁EI
▁sacr
▁vulgaris
▁TMP
▁lep
AO
▁spontaneous
▁chlamydial
▁comparative
▁degraded
▁carboxyl
▁tenderness
▁medicines
▁inad
osynthe
▁negatively
ocar
▁hepatocellular
ture
▁84%
▁econ
▁Hg
olism
▁spre
▁itching
▁trimethoprim
▁0.87
▁augmented
▁162
▁antidepressant
omiting
▁(1.3
▁distrib
▁Breast
insulin
▁83%,
▁cardiovascular
smokers
amole
▁gp
onad
▁neurob
▁12.0
mittent
▁8.4%
▁CAH
▁lactation
▁genotypes
25)
erose
ministration
umbered
▁granulosa
▁implants
▁200
▁rhabdomy
▁0.36
▁albuminuria
▁contractions
certain
36
alian
operated
▁iatrogenic
-800
roma
▁studi
▁dyspnea
ropo
increased
▁calorie
▁favorably
icardial
opharmac
▁microM
rography
▁Leuk
▁skeletal
▁intermedi
ralfate
usate
▁137
ampl
▁urtic
▁amph
▁positioning
▁186
▁cen
▁Nons
ipramine
▁hippocamp
▁Transient
▁10.
▁fec
▁sputum
occurring
▁titers
▁obstruc
▁256
uretic
▁psychiatric
opar
2.
▁perfor
▁Lymph
80)
▁secretagog
▁VAS
▁89
▁donors
▁valu
▁48-
oil
40.
tually
lytic
▁polymorph
▁gon
▁lith
itudinal
▁(50
▁appra
-36
▁coordination
immunoreactive
▁messen
omerular
▁computerized
▁metab
▁elimin
▁0.22
▁OC
▁radiotherapy
irc
▁secreted
▁inadvertent
▁caries
20).
▁Kd
▁menstr
chl
cellular
▁hydrolys
▁bronch
▁2
▁TS
▁19
▁590
▁autoradiography
▁39%,
oxazol
▁proteinuria
▁radioactivity
BMD
▁79%
lamyd
▁hyperplasia
affected
▁vaccination
▁0.01)
▁adolescence
▁antioxid
▁substitution
▁Fewer
▁metastatic
▁hepatotoxicity
2,
▁thirds
▁20.5
▁retina
▁spike
170
▁lipoproteins
▁deem
▁25,
▁targeting
▁promoter
▁10.2
▁pressures
trition
▁subjec
ulting
▁qualitative
▁12%,
cros
▁adjus
TCA
▁synthesized
▁196
▁0.74
glut
▁bacteri
▁characteris
blinded
▁zinc
▁Alz
1)
▁halved
ichia
▁metr
▁Ure
7]
1.2
calor
▁allele
▁prospective
▁1.5
▁cartilage
tronic
▁cytochrome
▁syncope
▁13.2
▁(40
▁89%
▁4
▁Candida
▁1.44
▁bacteremia
▁stratification
ophilic
ffin
▁leuc
▁Excluding
▁potentiated
▁phi
▁meningococcal
ejun
ylline
2.2
▁abduc
▁pem
▁mammography
▁1.33
esity
▁(69
trum
▁leuk
▁hemat
cycline
▁psor
▁ligands
▁nonprotein
▁transplanted
▁(28%)
▁spi
▁lectin
▁249
otom
▁quartile
inemia
fat
▁hemorrhage
▁pathogenesis
oglobin
sia
thickness
▁HPV
▁depressive
▁28.
▁abr
iological
▁prel
▁nonsurgical
60)
prising
▁3.6
diagnosis
▁compositions
ituit
▁aden
tration
▁restric
▁expon
▁hypertension
selective
dial
▁reas
▁anxiolytic
▁resection
▁constellation
respectively
lyce
▁adrenergic
▁ACh
intestinal
essation
▁budesonide
▁Retrospective
▁polycystic
idate
▁brevis
▁exhibited
▁vasoconstric
▁900
sion
▁fetus
▁schedules
▁topically
aturity
▁118
glucosidase
▁hypnotic
▁(10
asive
▁lys
▁reproduc
▁multimodal
ifugation
stro
▁calcitonin
▁ureter
▁crosso
▁follic
▁adenylate
/0.
▁aneurys
phrag
▁115
ometh
5'-
leu
▁keto
▁LN
▁confir
afloxacin
Ba
22,
utions
▁0.79
omagn
ipine
adrenergic
▁mutant
▁esters
ifed
▁snoring
▁30%,
edding
▁Diets
▁compart
▁symptomatic
▁brom
▁microscope
▁(24
6)
fiber
23187
-4-
ystitis
gene
▁concom
▁7-
▁269
▁calcification
▁overt
glyc
trib
april
HIV
37
-72
▁amenorrhea
▁postpartum
▁noninvasive
▁Exercise
-4)
myc
allium
ymal
▁carcinoma
▁3.2
▁6.6
▁halves
▁thir
▁spermatozo
▁90%
odil
▁Gynec
▁discriminant
▁preterm
duce
adren
-[
▁supernatant
excluding
▁urticaria
propanol
▁polymer
▁mug
▁hypothalamus
▁lavage
▁cic
▁5.1
▁(100
▁angiogram
▁tib
▁muscul
ardia
▁(400
▁tissues
tus
▁delirium
nons
▁fossa
▁acne
▁triamcinolone
▁recombinant
▁fluc
▁sequential
▁(7%)
0).
regulation
amol
▁HDL
yste
▁Adding
igl
▁pleural
▁quotient
50.
initiated
amilies
▁0.62
▁CST
▁lateral
activation
uppression
▁beats
▁presentations
ypass
▁provid
▁symptomatology
▁hydroly
▁+/-
▁tubule
▁hydrop
▁multis
trate
▁Ia
amycin
▁congenital
▁resistant
▁juven
▁quantit
▁polyacrylamide
distal
▁headaches
▁mutagenesis
▁tetracycline
▁hypothalamic
tib
▁deox
▁toxicity
cyte
phosph
umption
▁MAP
▁excised
oprotein
▁-0.3
▁0.27
▁potent
ortic
▁34
▁cardio
▁simvastatin
▁pulmon
49
▁progesterone
infected
▁onc
▁schiz
olac
thalidone
▁pneumoniae
▁incub
▁pregnancies
▁evaluating
▁fas
▁embryos
▁complexes
▁yielded
onucle
▁tric
▁1986.
▁pharyngitis
▁17.3
▁elu
▁800
▁Cutaneous
14.
▁(84%)
▁(43
osteroid
▁genomic
▁obstetric
▁characterize
▁98
▁inoculation
▁averaged
▁2/
▁Histologic
▁cytotox
▁decubitus
▁mononuclear
▁intrac
asal
actam
▁digoxin
▁HB
Ti
▁aerosolized
▁nal
▁consecu
▁sequenced
▁collec
▁interp
▁scro
phosphorylation
▁glycos
opus
esin
specified
odgkin
▁10(-8)
▁benzodiazepines
atients
ordination
lactam
isole
▁inhibits
▁muscular
▁filtration
▁glomerular
▁pH
▁connec
▁inten
▁autoantibody
▁monol
▁ole
tensives
faction
▁pati
galy
ovaginal
astases
▁NP
FEV
▁292
rals
tality
▁fron
▁241
▁hyperglycemia
acterial
▁cDNA
▁efflux
ipr
▁menopause
lactams
▁reag
▁instrumented
▁bilirubin
▁vagin
growth
▁pyram
2-
▁postnatal
▁prescrib
▁morbid
estim
mild
yrid
tering
ulence
▁somat
▁85%.
▁hemorrh
ected
▁phosphatid
▁lessened
▁allergenic
hicle
▁TCA
▁proges
articular
acute
weeks
atoid
▁Medicare
hydroxylase
▁apolipoprotein
▁Symptom
acid
▁parathyroid
▁Specifically
▁ultras
12-
▁exceeded
▁lethal
roscop
▁iod
▁anhydrase
anide
tation
▁stimulates
▁transvaginal
▁choleste
mobil
▁implic
▁Chronic
▁ticlopidine
▁Significantly
▁(80%
oblasts
atology
dil
aturia
▁(140
rement
▁conformation
▁appendicitis
▁substanti
mL
adrenaline
▁calculi
▁62
▁pall
▁renal
apsulated
▁85%,
arate
▁Antibiotic
▁(6),
ercul
▁ciprofloxacin
▁164
identified
▁utilization
▁ileum
▁penicillin
effectiveness
▁projec
rophob
▁RI
▁Incubation
▁metastases
ogonad
blocker
▁hypos
ochem
▁-0.
idol
ymptom
▁laparoscopy
stimulated
▁autoantibodies
▁balancing
▁optimally
▁overe
▁transmembrane
▁ketoacid
▁weakly
▁immunoglobulin
3-2
2),
▁macrophage
▁inhibitor
▁unresponsive
▁practic
99
▁chromosomes
▁synapt
▁codeine
▁compli
▁hamsters
▁(1000
lyl
▁58%
arrest
upuncture
▁strom
toxin
▁296
formerly
▁Antim
▁80%
obacillus
▁reactive
▁psoriasis
▁mucosa
osomes
zinc
▁75
▁81%
reening
▁hemodynamic
▁hyperthyroidism
▁deple
▁(10(
▁phenylephrine
▁phorbol
▁(76%)
▁uncl
20
▁galact
▁Fifteen
▁indeterminate
-6
osterone
edema
-70%
onorgestrel
emide
▁teratogenic
idem
cemia
responsive
▁repor
▁premenstrual
▁303
▁metformin
▁elicits
▁74
regn
▁afferent
▁spirometric
▁immunoreactive
▁69
▁semen
▁ultrason
-20%
▁pathways
parathyroid
▁placenta
▁fluorescent
▁NSAIDs
▁DVT
ostic
ATP
▁IUD
▁uro
▁implying
▁14%,
▁metic
yrox
▁ferrous
▁HPLC
▁radiolabeled
▁spati
▁(27
▁65%
▁recom
▁degradation
tages
ophyll
25.
enteric
▁psychopathology
CoA
lym
ogenous
▁pulses
90).
esia
▁nitro
▁(1.5
sibly
▁quintile
▁heterozygous
inesterase
▁scientif
▁-2
ields
ecal
▁homogene
▁alb
▁serotonergic
400
▁gels
▁electromy
▁localization
independent
▁hypocal
▁Risk
▁prodrug
▁alleviate
▁promoters
▁100%.
▁neuropathy
▁depleted
rosis
▁ASC
▁respir
tence
onine
tingu
▁evaluations
▁antagonists
amino
7.
ocalization
ontal
obic
otoxicity
ogel
▁selective
▁recombination
▁rifampin
▁104
▁cryp
▁27%
truction
icardi
▁Replacement
MDA
urban
▁11.2
▁autoanti
▁paren
▁395
▁contaminated
▁vivo
44
▁(0.4
ventional
▁1.10
▁frontal
▁mRNAs
▁depolar
Ni
▁7%
▁expec
tyl
▁endocrin
.4
▁predominantly
▁congestive
▁157
5.
olated
▁monomer
▁unlabeled
▁Hib
▁78%
osyn
▁diffus
rectomy
▁0.75,
▁arrhythmic
▁elastic
▁cytoplasm
FSH
adequate
▁endoscop
▁223
90,
lies
4%)
▁paternal
4-2
▁monocytes
▁incision
▁SDS
▁199
▁chol
▁mitig
▁HS
cyst
ylate
▁cephal
immune
ithi
▁52%
dies
▁Experiments
▁predis
▁tumours
eration
▁CI
azol
arbonate
]-
usp
▁0.3%
mend
▁129
sac
ilic
▁PGA
▁hormonal
▁evol
▁11,
▁gestational
▁hos
▁Impair
ignific
▁hepatomegaly
▁75%
ulmonary
▁intraperitoneal
▁adequ
▁striatum
▁favoring
▁clamping
aminophen
▁polyethylene
▁nef
▁1/2
phin
ampicillin
▁phosphorylation
▁distorted
▁Myocardial
Ly
monstr
▁243
▁11
subunit
▁desensitization
▁Cooperative
▁0.97
▁microns
▁perip
▁spind
▁distal
▁17.1
"-
kground
▁55
▁exce
▁dopaminergic
▁-3
▁Feeding
hemolytic
▁Cumulative
▁33%,
▁alkyl
mokers
-10.
▁scars
▁187
utyr
▁35
▁bioavailability
ximal
▁Hz
oconstric
▁micros
▁hetero
▁variants
tist
4%
▁mep
8%
6%)
▁10.4
perature
▁parat
Pa
oderm
▁regurgitation
avoid
.2
▁[3
▁tryp
▁DF
▁jaundice
▁bradycardia
grees
▁prematurity
▁2.2
ituitary
▁Lipid
tenti
▁220
▁4.9
▁Meas
accharide
▁exhaus
etitive
▁13-
▁immunogenic
isal
▁coughing
▁individualized
▁proceeded
▁1.05
▁roughage
▁infusion
▁carbohydrate
rotic
▁allogra
52
▁spon
▁LM
▁bony
▁76%
▁correlated
▁remission
availability
.8
tribution
▁colectomy
▁microorganisms
▁10(6)
▁343
kine
▁speculation
molar
opausal
approximately
▁lar
tomized
▁aeruginosa
▁4.4
▁uncovered
stranded
▁cholesteatoma
▁Raynaud
▁morb
▁bronchoscopy
▁plaster
otherap
▁prolif
▁Golgi
17
▁Computed
▁20%.
▁endoscopically
ailure
▁lessen
▁guan
▁oils
▁poorer
▁MH
▁22.
▁modulation
rague
▁colonies
▁direc
enon
osal
▁adipocytes
▁pea
▁0.05)
▁0.59
operox
▁sodium
prandial
indolol
▁conduction
eptide
▁24
▁58
▁MAb
▁(45%)
▁Ultras
otassium
vic
vul
▁EBV
ausea
▁junctions
▁0.6
▁-15
▁10.5
isol
▁affinities
▁anticonvulsant
idis
▁valerate
▁ineffective
▁ulnar
▁10-
▁caregivers
▁bactere
▁shortening
▁(9
/1000
▁phy
▁4).
valent
▁enrol
imin
▁infancy
▁Antic
3.
dip
▁corne
/3
▁tes
▁0.29
induc
▁fluorescence
▁subc
oxane
▁heterogeneity
otoxic
appropriate
▁resto
▁nonresponders
ositi
▁subclinical
▁contral
▁autoradi
▁Stu
tens
▁sial
▁transfusion
▁oxidative
exin
.3
▁0.14
▁1.03
lamp
▁(=
anuary
otrexate
opal
▁0.25
▁1.19
aund
▁(21%
ipit
▁acco
▁Epidemiologic
inum
▁NADPH
▁Centers
▁marketed
▁EB
▁deform
▁baro
▁allergic
▁100,
▁MRI
spective
▁thresholds
ogens
immun
▁reti
zation
▁Increasing
▁aggregation
seud
5,
gia
▁somatic
▁PB
gth
rophenyl
▁nodule
▁cerebellar
▁Hypertension
gesia
▁parox
▁oste
▁7.2%
izin
▁TPA
▁PV
ogenicity
▁mell
▁0.55
▁inositol
▁poses
▁leukotri
▁irritable
▁infarct
yrib
▁edema
▁ketoconazole
▁latency
▁yeast
▁100,000
▁Indo
▁optimizing
▁investigators
coun
▁Newly
▁plex
▁pharmac
▁postoperatively
CAH
▁20,
▁0.94
▁thromboembolism
▁antepartum
▁hydrochloride
ulon
Pu
▁dialysis
lycemic
▁electroly
▁descriptive
▁(2%
parathyroidism
▁subunits
obarbital
odine
ocomp
▁88%
▁dehydrogenase
▁peroxidase
▁microorganism
pyr
▁multiparous
porting
7)
▁ointment
▁8,
▁mammary
elan
▁unex
edic
erox
▁hypot
▁exon
▁ecological
▁blinded
▁PCO
TNF
-80
▁0.5-
▁pts
▁1.06
esting
▁0.66
measured
lora
-1.2
alp
throm
predominant
▁Ps
pinephrine
ertion
▁12-
▁lumbosacral
apine
acetate
oic
▁orch
▁monotherapy
▁ceftriaxone
▁nonsmoking
ROS
▁Bronch
▁-4
▁microscopic
opathology
ophylline
▁lute
▁hydroxy
▁12%
lue
▁standardi
▁0.001
▁oligonucle
effects
(2+
▁adhe
▁persistently
▁0.001).
roin
fused
▁synergistic
▁hairs
▁swab
▁1.30
▁diarrhea
▁omeprazole
onc
▁ACI
▁0.33
▁76
▁variability
titudes
▁72
▁cetirizine
apamil
WBC
▁chond
carbohydrate
tioned
▁orthoped
▁detectable
21.
▁1.9
▁59%
▁underwent
▁61
etine
34
▁immunosorbent
▁enlarged
hiscence
▁43%
▁brainstem
▁adnex
▁cardiomy
▁(38
32
▁endometrium
tophan
▁ablation
▁antagonist
phosphonates
▁lysosomal
.9%
pressing
▁horiz
cholesterol
▁bypass
-90%
hion
imination
olol
▁preferen
▁(77%)
athetic
astatic
▁substrates
▁somn
▁chor
▁aureus
molec
▁1990
▁tibia
▁carp
repres
2)
ropath
idium
▁phosphor
cepti
▁throm
assi
▁imipramine
▁WHO
▁relaxant
orin
▁metronidazole
▁intracerebral
lactating
pH
electro
ulatory
▁pneumon
▁100%
▁Subsequently
73
idespread
▁endothelial
ropion
thmic
▁ket
▁(46
▁(18%)
▁cleavage
Ala
▁adequately
chers
irubinemia
▁norepinephrine
ilical
▁glycoprotein
▁cardi
▁alginate
▁NAD
▁recruited
-1,
▁cation
▁67%,
▁1.6
▁embolus
▁backgrounds
-4.5
virus
▁Tc
estions
isomer
▁modifying
▁dox
opharynx
uris
genital
▁asymp
otri
tro
▁dissection
▁muta
▁tumour
gesterone
▁electrom
▁Tric
▁Previous
7),
ortal
heum
▁neutrophil
▁(25%)
▁adipose
itonin
ediatric
▁sensitiz
2;
▁immunity
▁torsion
▁350
▁bumetanide
phosphon
▁melanoma
gus
bility
▁epithelium
imethyl
▁gonadotroph
▁Increases
▁bronchial
aggressive
▁(62
22
▁enalapril
▁intolerance
cortisone
▁apnea
▁indications
▁focal
▁Diagn
▁asthma
▁ruptured
▁44
▁lymphocytes
iatric
▁77
omial
▁relieving
▁nonoperative
▁3.5%
▁hypop
/100
12.
▁effusion
▁[(
▁Sulf
quired
▁thromboembolic
50/
▁349
▁axonal
▁6%)
▁([
onit
▁ANP
2%)
▁hepatocytes
rophy
▁PDGF
iclovir
▁pancreatic
▁presumed
▁HLA
▁xyl
▁infiltration
0%)
0.5
▁estrogenic
classified
▁captopril
osidase
promazine
▁incontin
tradiol
iciently
numbered
▁309
▁libr
▁(17
arbox
erican
jects
▁phenyl
▁residues
▁treadmill
▁necrotizing
ogr
sies
▁38%
-3.
▁2.9
125
specifically
▁6.8%
48
▁ligand
kinin
▁mefloquine
▁hydrocortisone
▁inhibitors
▁Experim
▁consul
ticularly
ecan
▁concep
utable
aric
▁92%
▁vigorous
▁definite
2+,
▁antenatal
iphene
▁crust
▁interstitial
▁cystitis
▁problematic
▁antihistamines
▁functionally
▁aneurysms
▁lax
▁inadequate
0%).
dia
▁reliability
▁6.7%
ypro
▁adhesion
▁encephalopathy
sulf
ylase
estive
▁sedative
▁Pertussis
▁metabolic
▁veins
▁Wound
▁intercourse
roscopic
phor
1.0
▁212
▁nonres
▁deposition
▁fungus
▁cerebellum
urrence
▁cutaneous
▁ethanol
mol
risk
▁Combined
▁additive
▁subtype
95
▁formulation
▁enamel
moderate
▁miti
▁citrate
▁osm
ecia
▁aspiration
▁progestin
releas
ocular
ithin
▁adhering
▁hypoxic
▁vitamins
odiaz
▁(12
▁gonorrhea
▁25%
adjusted
▁amlodipine
▁ductus
▁68%
▁histamine
▁luminal
rof
▁63
▁masked
▁Improved
ocellular
▁poisoning
▁ascorb
▁HbA
▁slows
▁mucosal
uginosa
vated
▁BP
▁pyraz
▁0.03
depleted
▁epidemiological
titute
▁caffeine
▁defective
▁ranged
ilized
▁0.3
▁erythrocyte
▁Pneum
.3%
▁pretreated
▁Mild
erent
▁respiratory
▁obstruction
▁allo
opause
▁thoracic
▁olfactory
▁Estrogen
▁coated
▁mumol
▁encodes
/90
▁metabolism
sibility
▁wors
▁inpatients
58
▁blu
roids
▁myocardi
▁cyst
▁95%.
ucose
▁solubilized
▁constituted
valence
▁gastric
tide
▁neutrophils
proved
▁ELISA
ordin
alities
▁(18%
alic
rangement
130
▁(88%)
ylic
tosis
▁infil
▁(0.
butamol
▁unvaccinated
5-
▁Patients
▁ank
▁supine
▁commerc
▁longus
▁99%
▁pretest
▁lactulose
▁validated
▁brisk
▁Findings
concentration
tia
▁irregular
hemo
▁thrombin
nucle
▁38
0.1
▁traction
▁15.
▁nephropathy
▁induction
▁manipulation
▁RV
enyl
▁regain
▁degeneration
▁tonsillar
leural
ranged
▁uv
▁induration
▁(2)
▁0.28
ysm
ergen
▁epithelial
8;
▁hered
enan
▁oxide
▁nebul
▁counseling
▁TDI
yroid
crib
▁extensor
▁statis
▁65
▁subunit
vertebral
plate
-6-
till
▁histologic
▁43,
▁sensory
▁158
affinity
▁migraine
1.5
▁clearance
▁excision
▁98%
turally
▁proce
▁tubules
,000
▁fluoxetine
▁glucosamine
illin
▁cardiomyopathy
oreactive
▁TM
rength
▁gynec
▁Disease
▁occurrences
lipid
▁endothelium
▁optic
▁smears
▁estrogen
-5-
▁exerted
farction
tility
▁adhered
osclerosis
▁TGF
-50
3,
ritish
orsal
▁serotypes
▁0.25%
directed
lamydia
▁cyan
▁nondi
invasive
▁competi
▁312
▁abbreviated
iline
▁fenoterol
▁53
▁18.3
▁endoscopy
erance
▁predictors
nowled
▁enteral
ophag
▁gases
▁NGF
▁disposable
▁sulphate
▁characterizes
▁diazepam
osporin
▁dilution
pregnant
▁2.9%
▁227
▁Hispanic
▁increas
cancer
▁interrup
-23
5%.
▁preoperative
continu
titu
▁establ
▁benzoyl
▁attributable
▁inver
▁extrac
▁blocker
▁10(
6,
okinetic
▁280
▁heteroz
▁adenopathy
▁endometrial
▁converting
econd
▁lapa
▁abbrevi
▁anhydr
▁struc
onset
-100
▁noc
ociation
opi
elong
▁Tran
▁fibrill
▁FD
keto
▁adver
▁tympan
ellar
▁caudal
mitter
receptor
romatosis
▁32%
85
ipid
lavicular
▁itraconazole
▁soluble
▁inconclusive
▁syphilis
▁spectro
120
▁DMP
▁amo
▁Myc
bac
EI
▁(300
omia
mum
▁97%
▁333
▁11.0
eded
trial
▁expulsion
▁acquiring
gative
▁promo
peri
vaginal
▁239
▁hemo
▁occupational
▁kidney
itoring
▁hypothal
ADP
▁28%
afibrate
▁0.5,
cobalamin
▁efficac
▁transaminase
16
8.
▁pim
▁comorbid
▁Purkinje
:1
▁diagnosing
elvic
▁160
▁glycoproteins
▁insom
rogenase
▁Prel
associated
▁ECG
▁44%
▁Sixty
ectasis
▁6-
▁atropine
▁650
▁29
quam
▁ect
-2
opr
▁kidneys
▁5,
roxy
▁(32
▁trac
▁pancreas
▁glycemic
▁cereb
▁CTL
referred
▁aro
▁(30
▁(75%
▁GnRH
ixime
olipoprotein
▁precursors
▁1.42
drome
▁1
▁perox
oresis
linking
▁14,
▁Ig
▁dyst
tric
▁rabbits
▁deficit
▁(1%)
▁microbiologic
OA
)],
melan
▁47%,
▁evaluates
glutin
brom
umulative
▁strepto
▁lymphoma
▁decayed
▁sediment
umbers
▁0.61
▁Efficacy
otypes
▁electrodes
▁tablets
thromb
▁hematuria
▁hypothetical
exercise
opulmonary
▁catab
ophila
▁uncommon
▁lutein
eptic
▁abolished
▁0.7%
viral
▁Measure
▁epilepsy
dehyde
/4
▁Positive
▁terat
▁monophosphate
▁490
▁ure
aryl
otides
etaz
▁300-
▁heterogene
▁prox
▁108
temperature
tissue
▁4.5%
▁fati
▁(198
▁0.95
▁regularity
tamine
▁dilatation
icides
ycardia
iazide
▁SPL
thyl
▁hydrophobic
fected
motic
▁favored
lux
▁sucralfate
▁placental
▁nutritional
▁heel
▁perfusate
▁vascular
96
▁Twelve
▁Staphylococcus
▁aldosterone
odal
▁testicular
▁1.7
▁regar
▁bronchitis
titutes
▁unrelated
▁contracep
▁immunofluores
ropine
▁myc
▁inducing
▁cis
ffec
teral
▁lowers
▁antisecretory
▁irradiated
rospinal
facturing
▁65%,
▁immunological
ognition
▁modalities
bumin
▁experimentally
▁iden
-1.1
resist
▁neoplastic
admill
▁29,
ycline
▁conditioned
ighted
kets
-2.1
cation
50,
▁standardized
▁lamin
▁minus
plastic
▁erythematosus
▁7,
ximum
▁3;
ronch
▁simplex
▁genit
▁enox
▁radiograph
jective
.0%
▁Respon
▁0.0
▁gonad
▁adhesive
▁Carotid
▁searches
▁alternating
▁grading
▁42,
▁18%.
▁cerebro
▁9.5
▁virul
▁Chan
▁exaggerated
▁Formal
▁minimally
echn
▁7.2,
atible
▁absorptiometry
▁LT
▁stringent
▁hemochromatosis
▁mutagen
▁prospectively
planted
▁niacin
polyacrylamide
▁hydroxyl
olitis
▁0.99
▁(5%)
▁infrequently
▁7.2
inyl
opian
olone
▁pigs
▁(0.6
tening
▁modality
▁hypertrophy
▁fibros
gestin
▁uterus
▁differe
loon
gated
▁arterial
geneic
▁isolate
▁40.
▁21,
▁pituitary
▁reductase
▁fatigue
▁Nineteen
▁TIA
▁antioxidants
▁abstin
occus
▁inflammatory
▁tendon
▁Arter
pinal
▁eluc
▁ery
▁unbiased
▁0.44
▁0.2%
IgA
▁cultured
▁progression
atoma
▁canine
▁cholec
vaccinated
relaxation
illar
epines
▁2.7%
74
▁RIA
▁(1.25
▁discus
▁13
▁1966
tch
urys
▁17.
▁Hispanics
▁Systolic
aryngeal
▁gonorrh
reast
8+
59
ocrit
ologous
▁prednis
uterine
▁nucleotide
ulla
ritic
▁100-
▁deficient
▁0.69
1-2
-8
▁developmental
accharides
▁inward
▁ovaries
▁immunization
tional
otin
LR
iotensin
▁levodopa
▁Combinations
900
▁transaminases
▁precordial
▁(+/-
▁elevated
▁ventil
nine
▁PF
▁serologic
veness
▁tibial
▁birthweight
▁venous
▁minocycline
▁ionophore
acial
atectomy
▁PMN
overall
athy
tryp
idated
▁alopecia
silon
loxacin
▁adolescents
▁7.4
▁identif
▁30.
▁dodecyl
leb
rozen
5);
▁adenomas
▁norfloxacin
▁ips
▁(4-
gesic
rocyte
essive
▁contraceptive
▁degrad
▁calves
▁morphological
erative
▁inactiv
andida
▁erythrocy
ophy
▁hepatic
▁palpable
▁Physicians
▁0.54
▁arrhythmia
▁eosin
▁vacu
▁moth
▁aggres
tituted
tis
-0.
▁tamoxifen
▁eliminating
▁compounds
ffinity
▁lambs
ygous
olon
▁0.52
▁0.9%
motor
pecial
▁glutamic
ergenic
▁macrophages
▁macropha
▁helical
▁singleton
▁69%
▁2.5-
▁influenza
ocycline
▁progestogen
▁dosage
▁54
▁atrial
▁spleen
600
ocardi
24
jury
▁53%
gely
▁antiser
▁(25
lastic
▁infusions
▁canc
ithium
coagul
aldehyde
▁complications
tially
▁febrile
benz
▁Improvement
▁covariates
▁(28
▁(5
▁epiderm
▁RA
▁immunos
▁placent
renol
▁quantitatively
estis
68
▁ABR
HN
thin
retic
▁anatomical
/2
+]
▁esophagus
▁aortic
▁12,
xyl
▁glyburide
▁tolerate
ffe
▁artifact
▁receptors
azole
▁Premature
-3,
▁metered
92
▁substances
▁triceps
▁Injection
CHD
sensitivity
4)
▁preexisting
▁promin
din
▁0.05).
▁rostr
Ds
▁upstream
▁fmol
▁aor
scopy
tiz
LN
▁methadone
-1).
▁281
▁lymphoid
▁thereafter
dL
▁misoprostol
▁8.5,
oxifen
▁0.83
trical
saccharide
▁cyt
letion
BV
ymme
▁(4)
▁ech
renal
▁salivary
▁Steroid
(0.
▁1.32
▁questionnaires
▁waking
rates
▁symptom
rele
otting
▁tau
▁seizures
acquired
▁naloxone
▁IgG
▁histological
▁azithromycin
▁lactate
sible
▁1988
rine
▁progressed
hospital
standardized
▁antipsych
monitoring
▁10(-6)
▁contrac
▁0.21
plementation
▁paralle
▁anion
▁bacitracin
menstrual
predic
(5
▁EDTA
▁immunoblot
▁subcellular
▁(33
uclear
▁lymphocyte
▁blin
▁deformities
antibodies
▁assemb
atif
▁kDa
molecular
▁lam
-40%
30)
▁fixation
▁endotracheal
needle
tussis
▁sorb
▁coronary
▁hemorrhages
bly
▁IFN
vaccin
▁inhibited
oactive
adenoma
6).
rane
▁tertiary
▁kappa
odg
▁retrograde
▁1991.
▁cortisone
▁adren
transferase
▁sexually
ocamp
orbid
-1.0
▁enl
▁dehyd
▁etiology
▁Infants
▁cys
▁Hyper
▁Caps
7,
▁trichloroacetic
▁phospholipid
▁pene
▁ligament
▁229
▁45%
▁pharmacy
▁estrogens
loro
▁13.9
anis
.5%
enic
▁unco
▁probes
▁rectal
15).
etan
ypical
dimethyl
▁microtubules
tur
▁chlorpromazine
▁glands
▁femoral
gm
▁piroxicam
plemented
▁relied
▁benzo
retro
▁exert
▁VLDL
▁predictive
▁(60%
▁72%
▁(98%)
verbal
tition
Lac
▁cytokines
▁unusually
▁acetonide
▁antagon
▁RSA
▁plexus
▁197
▁4.0,
▁capsaicin
▁weighed
▁Prospective
▁95%
▁amitriptyline
▁otitis
90)
tries
▁epidermis
11.
▁Functional
▁resorption
▁neurotrans
FU
atase
▁Urea
▁1964
trover
cephal
urther
tetra
ynaptic
ophysical
▁asthmatic
▁attenuated
▁alteration
▁melan
▁astro
phosphate
▁myocardial
▁succin
▁infertility
Hg
pli
▁vesic
▁favorable
osition
opathic
▁Increased
pran
specificity
▁anatomic
700
▁DH
▁pulsed
NSAID
5,000
onas
▁caro
9%)
▁ions
-78
▁cac
35)
HbA
▁hepatotoxic
▁atherosclerotic
mortality
▁abdominal
yclo
▁neurogenic
0%;
labelled
▁analgesics
-66
▁anticoagulant
▁90%.
loid
▁alterations
12).
▁diphen
plants
▁deterioration
ophys
▁anat
iters
▁immunoprec
umented
IH
cessively
Fs
▁competent
scherichia
ubs
▁arth
0%
uating
▁3%.
01
hydropyridine
▁striatal
▁stimulation
▁glucocortic
▁5.4
▁Cells
ochle
▁mesenteric
▁cavity
▁1.
▁seroton
aldosterone
▁respiration
▁10
ordance
ffinities
lax
▁ambulatory
▁hypon
ellular
▁(86%)
▁infar
▁14.
▁gentamicin
▁2.6%
opped
▁311
▁11-
+)-
▁Fluc
ipitation
cemic
▁spleens
occal
▁bovine
▁progen
▁hypog
▁subgroups
▁2%
40)
100
▁gonadotropin
tures
▁allergen
▁irritant
▁hydroxylase
▁dors
▁HER
antibody
▁Caucas
▁delaying
▁Combining
idase
titial
ameters
▁pharmacological
sied
▁premise
dle
▁sedation
feron
,000)
acrine
tocin
▁axons
24,
tism
otide
▁glycosyl
▁195
▁sulfoxide
55
▁RS
▁surveyed
▁phospholipids
▁malaise
▁differenti
orotic
▁carbox
▁Systematic
▁leukocyte
▁trich
▁epitopes
▁correspondingly
▁sinusitis
▁dor
ongest
rogesterone
▁classifications
▁156
phyl
vascular
3)
▁argues
oxygen
▁provoke
vation
▁covari
▁0.41
▁disper
▁smokers
erus
-3
▁neurological
▁44-
ctomy
ellum
bodies
▁malabsorption
osyl
▁2.8%
▁stimulatory
12),
▁25-
▁resonance
electric
▁arachid
▁diclofenac
roxyprogesterone
lac
▁papill
iteal
▁swit
razosin
▁triad
▁3'-
tracted
oplasia
▁Holter
▁defib
▁3.6%
▁24-
ometri
▁erythrocytes
▁necro
▁(7.2
ughter
▁athlete
▁0.04
▁sci
osides
ondr
▁cep
▁inhibit
▁clind
▁excitatory
▁organs
tionally
pharmac
psych
▁caregi
▁0.51
▁dentures
omethacin
neonatal
▁transforming
amicin
▁130
sored
▁Stro
-7
cystic
.0
▁Veterans
▁abundant
▁psittaci
▁IB
▁typh
-6,
▁24.3
▁endometri
▁regeneration
▁ppm
▁responsiveness
xate
▁cysts
▁flunarizine
Gi
ranean
▁angi
▁pyrid
▁dele
▁enhancer
chond
▁parasite
odic
▁LMWH
▁hyperthyroid
ducts
ubation
▁thrombotic
▁regulated
omical
▁alcoh
▁perim
▁referral
▁Neph
9,
▁Thoracic
▁angiography
▁Lyme
▁disabling
dosing
▁(5.8
oprol
▁creatine
▁conservatively
roat
▁elic
▁articular
▁12.5
▁(72%)
▁ketoacidosis
▁cathe
▁CSF
▁3,
35
▁techniqu
▁14-
otone
▁interleukin
▁0.001),
omotor
tinguish
▁nec
gag
▁rehabil
▁questionnaire
average
▁cumulative
lometh
▁1.5%
▁fibers
0.7
fusion
▁dopamine
ivation
5-0.
▁Testing
eclampsia
▁intracellular
▁dextro
atropium
▁isolates
▁3.3
▁infertile
ofen
▁Taken
▁Topical
neumon
▁59
▁peptide
▁treatable
▁preservation
▁invasiveness
▁hyponatremia
▁orthostatic
overed
▁lisinopril
fib
▁incompletely
phosphor
▁echocardi
resis
▁Haemophilus
▁cervical
▁musc
▁absorp
MN
oprote
▁7.0
▁(3)
vit
1%)
46
olp
▁Significant
▁terminals
▁adenocarcinoma
▁offspring
91
▁4.3%
▁(31%)
▁(50%)
ranial
▁0.65
mega
15)
322
▁iso
arginine
reness
▁hypothyroidism
romised
uvant
51
TSH
omies
14,
▁lupus
▁(76
▁validity
▁Geor
▁7%)
▁Comparing
▁quadrup
▁atyp
ameth
▁extracellular
▁ori
▁7.1
▁autoimmune
▁inflammation
▁implantation
▁94%
▁cohort
oconstriction
▁caloric
▁supplements
▁(1.9
▁pyridoxine
▁inspiratory
▁thal
0)
▁dihyd
aemic
▁parie
gement
▁60%
ration
olysis
▁Subjec
▁cyto
▁thymocytes
▁nonf
RNA
▁3.8
▁confirmatory
▁preven
▁leukemic
▁zoster
▁unpredictable
lier
osus
avage
▁inoculated
▁2.6
▁Laser
▁abdomen
▁regulating
▁phospholip
ronectin
▁9%
▁3.7%
▁termination
80
▁compressive
▁seroconverted
intensity
tively
▁myelin
▁dysp
opram
▁tuberc
▁Adherence
▁diabe
▁insignificant
▁8.6
ditional
▁exten
olerance
▁lobe
▁malignancy
▁smo
consuming
▁intestinal
ispanics
▁17,
▁0.1,
ilateral
▁cros
timulation
ureth
▁13.3
▁tracts
▁Parents
▁gluc
▁42)
▁mice
116
▁arous
dent
oxyrib
▁inhalation
timate
▁ureth
▁228
▁capsule
iotic
eal
hydramine
▁Recurrent
obl
▁10%,
▁percentile
▁asymmetric
▁monitored
sulfamethoxazole
▁pHi
▁Glu
▁4000
rocytes
▁194
▁gonococcal
▁10(-4)
6/
▁DP
astric
onide
tiveness
▁LDL
▁serum
▁carpal
▁tox
▁(8
▁clomiphene
▁immature
▁readings
▁observational
ochrom
vac
▁bp
▁cigaret
▁arousal
▁coag
▁tubercul
▁mmHg
▁CEA
▁MCI
olec
oscopic
▁aggre
▁satur
▁hypotension
▁indi
either
▁differen
7,000
40
alanine
▁embryo
hyde
ulph
▁CMV
▁reversed
▁62%
odon
▁pneum
69
150
▁dehydration
▁Surgical
▁hyperg
▁elemental
ayers
▁inhibition
▁glomerulopathy
▁-9
bular
▁ATP
▁catecholamines
▁adherence
▁Compared
▁benz
▁clom
EG
▁(15%
▁puncture
adox
▁(23
establ
▁60%.
▁grouped
▁cyclic
▁ibuprofen
▁aerosol
▁fumarate
▁attainment
ALT
▁(1:
▁defecation
▁Specificity
asses
▁overweight
▁sulfate
▁exhaustion
▁PRL
▁17).
▁protec
▁unstable
▁chewing
▁alk
▁excreted
uting
▁athe
▁drinkers
/20
▁ow
▁usefulness
rk
expressed
10.
▁LHRH
assium
▁0.63
▁ovulated
▁11.8
obacter
▁brady
▁arteries
▁natri
▁osteoporosis
bladder
oxazole
azoline
▁molec
▁kb
▁bivariate
epithelial
▁neutralizing
▁acetate
▁decarboxylase
trated
▁noradrenaline
teroidal
▁undergone
7%
▁Decreases
▁94
▁restraint
▁antiserum
▁nevi
30
▁identically
opres
teine
▁thromboxane
1/2
ozo
,3
lives
▁herpes
▁unaffected
▁Biopsy
▁95%,
aternal
-20
▁80%.
▁stromal
▁Nit
▁meniscal
▁corresponded
▁0.4
▁urodynamic
▁insoluble
▁diffuse
tural
▁auditory
earance
▁dermal
▁dimer
formations
86
exposed
▁sampled
▁Thin
ormone
▁nonrandomized
▁ICU
4+
▁adul
dg
▁corneal
▁emboli
▁aided
-1-
ectomized
WB
▁rotavirus
0%.
▁6)
▁therapeu
▁rigorous
▁astrocy
tious
opsy
PSP
▁demonstrating
▁HAM
ithm
anding
PV
▁labelling
▁electrolytes
corrected
▁cirrhosis
rofen
▁110
patients
▁progres
▁Ade
-13
azepine
▁39
omyc
/32
▁postural
)2
▁doxazosin
ompan
▁evoked
▁uniformly
▁6,
▁Epid
hydrated
88
▁potentiation
▁-6
tebral
omn
oprostol
ocompatibility
enia
42
▁alveolar
LU
▁isoforms
▁hyperch
▁Changing
loride
▁suppressor
▁amyl
▁leu
▁700
▁ane
▁66
▁(47
▁BALB
DNA
▁exhibiting
asone
ogeneic
▁tic
traumatic
▁peri
elves
▁motif
▁elevations
▁histidine
▁70.
▁qualitatively
▁shif
▁retrospective
▁TP
▁susceptible
▁peripheral
uestion
ialysis
▁electrocardi
idne
ginine
▁uni
▁micrograms
▁guinea
vastatin
acetic
▁stripe
▁(50%
▁12
▁angioplasty
▁grafts
iatic
▁1.21
▁plaques
▁Surve
uling
oligo
▁splenic
aminob
▁illnesses
▁platelet
▁practitioners
▁ratios
▁tet
▁embolism
▁36%
▁18,
▁8.3%
▁granules
▁Mg
▁visualization
▁99
▁abortive
▁5.6
▁9.9
▁Inhibition
+)
▁(10.
eptides
▁transformations
Ace
▁hypox
▁classifying
▁obser
▁molecules
▁0.02
mediated
▁solids
▁23%
▁nontoxic
▁LR
▁preschool
▁unwanted
▁sampl
▁murmur
onstric
▁205
▁ultr
▁15
▁56
myocardial
▁membran
physiological
▁elas
centr
unar
▁intra
-1.5
▁Bacterial
2+
▁Thyroid
▁equivocal
▁0.2-
gulation
▁sting
▁bolus
ziness
LV
▁6.2%
▁uptake
▁0.
race
▁densities
agonists
▁quinine
▁terminus
▁hypoxia
▁SEM
monella
▁nonselective
▁unselected
flamm
▁3.2%
istar
-6.
▁microvascular
▁postmenopausal
▁rhe
▁perme
/8
hepatitis
openhagen
▁SG
orbidity
▁demonstrable
nee
acin
▁recurrence
▁antis
▁nitroglycerin
orubicin
▁glycine
ffeine
▁frog
▁Acad
▁incompetence
▁1.40
▁sedimentation
▁spor
▁triglycerides
predominantly
▁Chang
▁181
▁cyclase
▁nondiabetic
ogenetic
▁sclerotherapy
▁schizophrenia
positives
▁silic
ACA
▁Melan
▁thems
attern
▁contrib
▁obstetr
▁(3.0
▁initiate
▁communic
▁gestation
▁AVP
▁cortex
▁omega
▁pancreatitis
SBP
▁nonex
▁16,
▁10(-5)
ivered
▁congen
testinal
timal
tice
▁1.2%
▁equi
▁263
▁151
▁imaged
▁nm
▁sati
▁adenine
▁folate
LTS
meas
▁lacked
▁tendencies
-125
-2)
▁cromoglycate
phetamine
▁lesions
-1000
▁immunogenicity
▁ubiqu
▁granulocyte
▁hypo
▁75-
apular
.0)
ovis
entral
▁Progression
iloride
▁10,000
oplasm
▁asymme
▁deletions
ygen
78
▁decreasing
ophageal
▁valpro
▁PAF
▁PCOS
▁nonpro
▁[125
▁188
▁CNS
▁heterogeneous
▁reper
▁antif
▁dye
▁208
▁chemically
ancomycin
▁naf
entified
▁RAS
▁mL
▁reflec
▁109
▁8.3
▁metabol
▁electroph
▁ionic
▁polypeptides
▁circulating
▁6.
▁accounted
▁transpor
▁polypeptide
▁Nine
▁gastroenteritis
xiety
▁benzodiaz
▁inducer
/-
▁quanti
▁deduced
▁cortisol
▁pathologic
▁flashes
▁nipple
▁(11
taz
/7
▁ipratropium
▁instrum
,2
▁esophagitis
▁diffic
▁glut
▁(45
▁ultrasonography
1);
ohyd
▁198
0.0
▁prescribed
▁24.
▁weighing
▁stimuli
▁subarachnoid
▁hydrolysate
▁theore
▁biop
potassium
itriptyline
uresis
71
▁translocation
▁heme
tensity
▁cla
▁fertil
▁pathophysiology
oxide
▁123
ilin
▁0.9
tisol
emory
▁5.8
▁conjunctivitis
▁influenzae
▁TA
▁Abnormal
▁140
respective
▁fasci
▁possi
acteria
athe
▁cholinergic
▁cirrh
▁261
▁olig
▁oocytes
▁amiloride
▁blister
-3-
▁unrel
alazine
plas
oside
▁forsk
bronch
rene
examin
▁valproic
carb
▁1200
fate
43
▁warr
▁stren
lop
▁albumin
▁180
ovirus
rosine
▁porcine
▁empir
▁intraepithelial
▁deficiency
reas
▁withdrew
▁disrup
▁stimulated
Hyp
▁propor
oceptor
▁CG
▁xen
▁retinoids
▁Elec
▁valproate
▁yr
▁2.8
▁psychosocial
▁rheum
▁pressor
▁discharged
-15
105
▁10(-7)
incubation
-17
-400
▁113
tetr
▁induces
ubiqu
atrop
▁baths
uates
urement
olecular
▁hyperp
▁monke
▁apo
▁ethyl
▁sensi
28
▁promptly
▁immunocomp
▁glycer
▁thiol
▁83
▁dexamethasone
imus
-88
viron
▁receptive
/1
▁diminished
▁chorion
▁permeability
ealand
plasia
yro
▁cuff
▁HeLa
pation
▁Tolerance
▁potassium
▁0.71
generation
▁cytotoxic
▁markedly
-3)
oxyl
▁0.20
▁terfenadine
▁75%,
▁saturation
▁scrotal
▁chl
▁replic
phic
▁opioids
▁1.2-
within
▁contralateral
▁radiologic
▁incomp
▁(49%)
dural
0/
razole
▁quinacrine
▁Cardiovascular
▁rhin
enem
▁frac
▁fluoride
▁rebound
oterol
adex
▁adminis
izine
tolerated
▁279
umably
▁(18
conduc
▁divertic
▁150,
weekly
osm
2+]
▁Complications
thyroid
ourinary
▁86%,
roximately
▁carbamazepine
▁acids
▁antagonized
▁blockers
kelet
1.
▁resec
▁eluted
▁1989
▁reliably
▁enhances
▁(70%
▁contractile
▁2-
odds
▁homologous
-90
death
siological
▁percutaneous
▁potency
▁TT
▁unrestricted
▁0.48
▁prescribing
▁5%,
31
atosis
▁18%,
▁prol
traum
aminated
amuscular
▁cAMP
fts
inephrine
▁0.43
3.1
tial
▁toge
▁acetic
▁inhaled
-12
▁metast
▁facet
▁depr
▁166
▁6.5
adiol
▁worsening
tryptamine
▁LV
▁3.4%
oreceptor
tiazem
▁exclusion
rowth
▁Rif
▁ACTH
▁nocturnal
▁correlates
▁34%
▁plantar
▁152
astolic
transformed
dition
estion
▁unexplained
-19
▁improves
▁leakage
▁cholinesterase
▁apparatus
▁Rout
globulin
▁Sixteen
(4
▁32%,
▁adjustments
▁immunode
▁analyses
▁osteopenia
▁testis
▁seronegative
▁assessed
▁(197
obenz
▁0.46
tensive
▁psoriatic
urnal
scheduled
triglycerid
oate
▁doxycycline
▁1970
▁polyp
xia
hypertensive
70
cys
▁evid
▁serotonin
ifferen
▁posed
▁confirms
▁enal
▁audi
▁fetuses
▁cGMP
▁cutoff
▁37.5
oagulation
▁differentiate
terone
▁inhibitory
▁plotting
pain
helial
Bs
▁fulfilled
▁hipp
▁tumor
▁coli
▁284
▁subsets
▁contraception
cribed
▁wards
sive
▁gradual
alb
▁4.2
21)
▁lysis
uron
▁interc
▁septum
plen
apride
sial
tron
▁antiarrhythmic
yroxine
erythro
▁Subcutaneous
▁summ
▁antimic
9]
▁calcium
▁eccentric
▁Atrial
IGF
hydroxy
▁27
ynthe
feren
▁differentiated
9;
▁contraction
ingers
▁19%
▁arteri
▁recr
tiv
▁ischemia
▁tumors
▁difficul
itoneal
▁40%,
▁glomer
yses
▁cortic
▁177
▁Subjective
hep
▁metoclopramide
▁chronically
-2.4
▁hydrogen
▁neutrop
▁hepar
▁0.58
ximide
oporotic
▁17%
▁Vmax
opolysaccharide
▁dipyridamole
▁dihydro
trol
▁devi
▁paral
▁feather
▁endarterectomy
▁73
▁tec
▁anomaly
▁STI
▁0.57
teria
▁marginally
difference
▁interfer
▁(48
▁dias
▁neurones
▁cyclosporine
surgery
ews
▁conformational
derived
▁sorbitol
oxif
dihydrop
▁accep
acental
dop
▁PGF
▁352
▁297
▁31
▁cotinine
▁560
▁unclear
udation
Cy
▁transcrip
▁HI
▁coh
ipro
▁lovastatin
▁71
vant
▁Trials
▁(54
osomal
orption
▁nonpregnant
individual
▁chamb
▁discon
riched
▁nonfatal
▁NSAID
inear
▁unscheduled
19.
▁remo
phrine
secre
▁11.
▁reflecting
▁corticos
▁14
▁Diabetic
3;
atches
▁nedocromil
▁substantially
▁40%.
▁extre
▁(1.4
▁(0.1
▁dermatitis
osocial
▁transloc
▁milder
▁0.24
▁124
▁arachidonic
45
▁Infant
▁protracted
ocyt
-24
▁phosphodies
tices
gestation
Tc
aicin
▁hirsutism
▁adjustment
▁calcified
▁1.66
▁246
▁chlor
▁urethritis
▁dysplasia
buterol
▁DCA
▁agon
000
▁FEV
▁Sexual
▁haem
▁swabs
▁213
▁Older
▁replication
▁(5-
▁sepsis
▁quantitative
▁9.0
odium
farin
ths
▁phosphatidyl
▁endocervical
▁histopath
755
▁hypothyroid
vein
▁nasopharyngeal
▁176
FGF
67
▁hemoglobin
▁ceph
▁thromb
▁peroxide
pecies
▁murine
mmol
▁methyldopa
▁rhinovirus
▁trypsin
▁315
androgen
treated
▁Pregn
▁nausea
ostom
▁oxidized
phosphamide
▁24%
▁empiric
▁Examination
▁emesis
orrhage
▁nucleotides
orrheic
athered
osom
▁cellular
helin
▁axon
thanol
orh
▁medullary
▁IgM
▁heparin
convul
▁nucleus
topril
▁lipids
▁staining
▁indicators
▁precipit
▁reduc
▁newborn
▁crude
▁circadian
▁radiol
▁0.78
oxone
ogl
▁thym
otypic
▁murmurs
▁chlorhexidine
alene
▁(7
-70
▁hospitalization
▁urea
▁donor
▁cardiomegaly
▁bir
▁95%)
▁fung
90
▁conjunction
1,
▁Extensive
confirmed
▁microsomal
▁1980
▁conjug
▁gonadotrophin
▁0.47
▁10,
▁pancre
enterolog
▁infrared
lude
▁radicals
▁IVC
▁vein
▁MRSA
▁phos
▁PSA
▁5.8%
▁decreases
ordial
CDC
▁regen
▁allevi
idine
▁cephalexin
▁adenocarcin
▁Radi
tual
▁20%
osol
▁combin
▁arrhy
▁Registry
▁elimination
▁295
▁pyel
treatment
▁irritation
▁singlet
▁CsA
▁supernatants
proven
▁ferritin
▁Intr
glycerin
▁126
▁Leukotriene
▁endotoxin
bA
▁inters
▁erythro
▁13.
▁aorta
umbar
▁AMA
▁500
▁myof
▁junction
▁Barrett
▁cruc
▁Fc
▁nosocomial
▁prostatectomy
astom
▁synthase
acchar
▁18%
irradi
tin
▁contradictory
▁detergent
▁47,
▁0.75
ughters
comitant
ropriate
ditions
▁Thirty
