trast
▁primiparous
62
▁10.2
▁aberrant
▁Excluding
erin
▁PP
▁verapamil
▁therapeutic
▁elastic
opi
▁65%
▁1990
otropin
▁encephal
▁desaturation
▁ranged
4.
▁EI
▁summarized
▁hyperlipidemia
▁carbonic
▁infarct
▁teratogenicity
▁dehyd
▁Viral
▁CB
▁supportive
▁0.79
▁arter
▁scientif
5;
zymes
tituted
▁antenatal
ervical
▁Ace
▁excretory
▁302
▁Reduc
usal
amic
▁pound
oic
▁compliance
▁reflex
gain
vac
▁pell
Nor
▁heel
▁rup
▁experts
▁radiological
▁sampled
▁vomiting
oconstric
▁detectable
olates
▁1500
vival
▁modeling
ingle
▁1.4
▁lesion
ovascular
rography
▁supplementation
▁athletes
▁283
▁unrelated
▁(49
idone
▁rheumatoid
omethacin
▁pH
▁650
phosphon
▁hepatotoxicity
▁0.91
▁LD
ductive
icine
▁analgesia
▁diagnosed
▁gonorrhea
▁PCI
ocytopenia
▁kit
▁amn
▁unre
▁IVC
▁muscul
▁levamisole
▁inguinal
▁25,
Ts
blind
▁cephalosporin
▁vaccinated
▁46%
▁emesis
▁psittaci
▁37
▁abnormalities
abies
▁1.3-
0.
respon
▁Survival
charged
stro
:1)
thickness
enzyme
▁218
▁Diagn
▁specificity
jury
aminase
ithium
▁67
▁86%
lyte
motic
toc
▁72
ystic
▁15
▁induce
▁5.4%
▁infrared
▁minimally
▁osteoporosis
▁ranitidine
ureas
othiaz
leu
iclovir
▁167
▁satur
calorie
▁decarbox
▁recor
▁resul
▁slows
▁clon
▁serologic
imens
▁measurable
DH
VH
ocytosis
89
▁carcin
▁1)
▁responsiveness
▁trimethoprim
▁uv
erus
▁furosemide
▁stool
.7.
PPP
▁cremaster
▁subclinical
▁instruc
▁Trials
▁levonorgestrel
arate
▁Stro
▁2.9
▁Seventy
vertent
▁31%
▁6.1
▁(26
▁fasting
struc
▁amiloride
▁conservative
▁merit
▁posth
traum
itin
Ta
▁Forty
molar
▁ori
▁ethical
▁exceeded
▁unco
▁diseases
▁239
▁severity
▁3.8%
▁perfusion
▁panic
inatal
▁compartments
havi
atab
105
▁lovastatin
▁prescribing
▁20,
▁chor
▁splen
▁elicits
▁outlet
▁splenomegaly
▁adren
omatosis
▁estradiol
▁vancomycin
▁milder
trin
▁65
eric
▁postural
▁subgroups
13
▁71
▁conclusions
▁staging
▁22)
tance
▁344
▁Wound
▁microorganisms
indolol
chers
.5%
itr
osts
▁muscle
▁scrotal
idase
▁practic
▁extrap
▁glyc
▁polysaccharide
▁5000
▁20,000
▁capsaicin
▁(1.6
▁injected
olem
▁297
havioral
4,
edema
illar
▁knife
▁69%
ymptomatic
▁(40
▁3%
thalidone
▁mU
▁hospitalized
▁terat
Ace
▁chronically
450
▁postpartum
▁1.05
▁(5%
bran
3),
▁affec
▁pharyngitis
▁26.5
ediatric
▁11
pirin
▁Ure
yses
▁strokes
dihydrop
▁pellets
▁63
▁8.1
venous
▁restric
▁equi
▁intram
▁ketoconazole
▁Initi
▁curettage
▁tiss
▁cardiomegaly
▁1.38
TG
▁136
▁Hib
▁readings
▁intrap
tified
▁elas
duced
▁bony
jec
▁fiber
▁confirmatory
▁oxymetazoline
▁physiological
▁Clinic
▁outbreaks
▁hyperthyroidism
▁17.
▁adequ
▁0.51
orbent
tomized
▁tolerability
▁algor
74
▁nulliparous
amphen
▁nebulizer
▁viruses
strual
▁nocturnal
tide
▁equivocal
▁parat
▁(88%)
▁examiners
▁infancy
siveness
32
▁Caucasians
▁squamous
▁3.4
▁carpal
▁23,
▁diffic
▁256
ucle
▁treatments
osterone
▁yielded
▁7%
▁Mast
prac
▁fertility
iline
▁1987
iol
▁Oral
▁91%
▁exclusion
sodium
▁predicting
▁classified
ocysteine
atally
yloid
▁(3)
tracted
predominant
▁(9%)
▁rehabilitation
▁10-
▁194
▁95%
▁psychomotor
▁diuretic
ayers
ropion
▁bisoprolol
osid
▁neuropsych
▁151
▁fibr
hydroxyp
▁absorption
ctive
▁Feeding
▁(32
▁marginally
▁inconsistent
5%
▁eradicated
idine
▁labial
▁gluc
▁durations
▁Significantly
▁transient
▁confers
▁cardi
▁varies
▁(31
46
▁Arter
▁5.
ochrom
rays
▁2.7%
▁soluble
▁reduc
OA
▁90
▁cortic
.3
▁swab
▁16.1
▁discomfort
▁lumbosacral
itching
idating
thi
ensitivity
▁(19
onomic
acting
▁sleepiness
▁Older
▁(12
asalazine
pecial
▁maternal
entricular
▁coughing
erally
▁severely
▁PEFR
▁inges
▁(25%
▁ABR
mation
▁polycystic
▁bism
ximal
▁validated
▁56%,
25)
41
109
▁coronary
▁bacter
▁-0.0
gestational
cemic
PaO
establ
▁activator
▁Pertussis
▁78%
▁34%
▁judged
onance
▁21,
iazide
▁tended
▁reviewing
atient
▁bloc
▁20.5
5%)
▁mammography
▁Examin
▁1.04
athered
▁5.8
▁airway
-50%
▁11.8
▁1.32
▁Registry
▁prospectively
▁reproducible
inamide
▁respon
▁0.27
tested
valine
▁adjusting
wake
▁granuloma
▁secretagogues
▁Lymph
▁15-
▁prodrug
▁atopic
oterol
▁Positive
▁appetite
▁halved
gestin
lytic
feron
▁7%,
▁promptly
▁panc
50,
▁Sulf
▁(71%)
omerular
▁326
▁carbohydrate
▁retested
▁extracorporeal
pretation
ogel
menopausal
▁(67
▁antacids
▁Epidemiologic
lli
5%).
▁vesicles
MG
▁Tiss
▁membranes
50)
▁40%,
▁(3.0
▁pyridoxine
▁87%
▁5.0
▁amniotic
▁yeast
▁phos
▁97
ziness
uating
▁questioned
gic
▁cuff
755
▁(0.0
▁lifest
▁Laser
▁cran
▁2%.
▁hypokal
▁likelihood
▁incomp
▁35%
ospasm
-90%
▁1%.
▁neomycin
▁Thoracic
▁angio
ventional
▁189
gestion
▁2-
ulting
ulants
otent
2)
lline
▁transaminase
detection
onegative
▁nonsur
▁fasci
▁requi
resc
idem
▁vagin
▁nurses
▁premenstrual
▁insomnia
responding
▁414
▁uncovered
astric
ritin
1)
▁relapses
atent
▁inhibitory
12
10-
▁osm
▁sulbactam
xia
29
▁9.2
▁diet
cys
▁methodology
▁undergoing
▁cystitis
▁163
▁22.
▁gentamicin
▁4.7%
▁malignancies
▁etretin
buterol
▁quinine
▁-5
▁ratios
▁197
athic
▁Disorders
▁utilizing
▁diverged
▁psychophysical
opsy
▁reiter
▁27,
uitable
.9
pecific
▁bronchoscopy
▁teen
▁altered
▁11.5
▁Stroke
nish
ithromycin
▁pulse
▁secrete
BMI
-2)
▁emboli
▁radiograph
▁fetal
weeks
▁treadmill
▁maneu
▁decreases
▁phle
▁trials
ses
thma
▁nominal
tropin
▁37.5
▁Concentrations
▁6%)
▁1986.
▁Scale
▁cyclooxygenase
respective
▁functioning
ication
6-
▁rhe
▁maneuvers
▁surgeries
▁corpuscular
▁1.07
▁0.75
▁suspic
fatal
▁diagnosis
▁undetected
notic
thood
▁dissection
▁alcohol
opped
enem
▁Insulin
retro
confirmed
▁83%
▁biopsy
obacillus
▁lifestyle
▁CABG
alian
oporosis
▁anesthetic
▁Inventory
odone
▁calorie
ignant
▁benzoyl
▁postnatal
▁angioplasty
▁imipramine
▁300
lamp
▁regularity
▁methyldopa
▁inpatients
▁cetirizine
vedilol
adequ
vicular
▁Hypertension
-52
▁ascorb
▁immunization
▁seroton
ventilation
▁optimum
▁simplex
▁mmol
▁exercises
ycin
▁erythrocyte
inergic
▁inhibit
▁acutely
▁colorectal
▁lis
▁ascorbic
▁melanomas
▁134
robial
Ni
▁etiologies
▁21.
obal
▁hereditary
oxy
aem
▁concomitant
▁119
153
erate
▁withdrew
ashing
▁100
▁isolates
▁350
mentation
▁twofold
▁Seventeen
▁multin
▁amin
▁7.2
▁tissue
▁repor
▁deficit
▁protective
▁histopath
▁unrecognized
othi
▁Surgical
▁lowered
▁dehydrated
▁1.26
.6
▁4-5
troph
urations
▁surgeons
ospor
▁oils
▁9.
▁unstable
estern
▁declined
▁71%
▁thyroiditis
iuria
imentation
▁adipocytes
-7
▁laparoscopy
RM
ograms
reasts
▁17%
enterolog
▁prenatal
HN
▁anomaly
▁Pn
roscopic
▁nonin
▁0.01).
adol
▁attain
▁appendix
▁nursing
ailure
erge
▁20%,
hemolytic
▁neonates
▁indefinite
▁regulation
▁33
▁0.38
▁DV
▁1.1
▁differing
▁AFP
▁trich
▁maturity
▁interim
▁tuber
ofl
▁peritoneal
▁meth
▁urine
oxazol
gag
▁4.3
▁Parents
scherichia
▁200-
▁dose
▁drin
▁singlet
75
sants
hiscence
▁Diabetes
hep
▁53
▁43
amethoxazole
▁absorb
▁2.8%
pation
esting
lun
▁azithromycin
▁propionate
▁isch
monitoring
▁impairs
▁unexplained
▁21
▁confirms
1.2
▁attending
▁Haem
teral
placebo
oriented
▁(21
▁risks
▁uncom
▁reflecting
▁33%,
▁11.0
-14
▁Indo
aired
.7%
▁0.41
vents
▁enal
▁serologically
▁HPV
▁triazolam
scopy
sufficient
▁initiating
▁premature
▁reflec
▁electrodes
rated
▁suppor
▁overestimate
▁SIDS
▁Bec
▁Intensive
▁valproate
▁dopamine
arbonate
▁climb
▁relied
17,
ytoin
▁hospitalization
etaz
▁-4
▁potassium
ergen
acin
▁273
▁ruling
▁anat
formerly
▁hyperb
quamous
▁0.75,
/1000
▁ND
▁reflects
▁demands
▁grading
erts
▁sorbitol
muscle
▁12%
▁67%,
▁carb
▁suprac
▁cytochrome
eak
lyl
epti
▁lutein
usively
▁immunocomp
▁Fewer
▁concurrently
ications
.9%
queous
mia
italopram
▁trichloroacetic
01
cycline
sparing
▁pts
ogonad
▁223
teroid
expressed
▁extracts
▁fulf
▁helical
▁restraint
ycline
▁mortality
▁remo
7).
▁ruptured
▁iat
▁1.7
▁hazards
▁cyc
▁550
▁establ
▁atelectasis
▁adequately
thmias
istal
dial
▁243
▁erythromycin
imental
▁sugars
▁unres
▁pharmacokine
▁poorer
▁feather
600
Wo
▁inflammatory
▁alp
motor
geons
odiaz
▁antioxidants
omagn
▁radiologic
▁dipyridamole
▁plaster
▁NPH
ophy
▁classify
ominant
iciency
ocon
Ga
bacter
▁82%
▁augmenting
0,
▁bacteremia
▁plateau
▁tetrac
▁vaginal
▁antagonists
▁92
▁tape
▁moderately
▁cis
▁(5.0
▁paren
▁colonoscopy
50
170
▁unreliable
▁departments
▁methodologies
▁placental
▁5.5,
▁phleb
▁attrib
rele
▁balanced
ults
▁HI
okine
▁spont
▁gonad
▁cooling
▁(4.6
▁xylitol
▁transi
ocar
-72
▁Longer
▁chlamydia
esophageal
▁Tolerance
▁(90%
▁elevations
▁meals
DV
-1000
▁MRI
▁(28
onset
▁10%.
▁cavity
▁bronchitis
parathyroid
▁carbamazepine
12),
illus
ocardi
ept
▁(32%)
▁50%
nisone
reases
▁preparation
▁throm
▁incision
▁succes
▁intensive
78
rength
▁acetyl
▁screening
▁interviewed
▁decreased
▁implying
injury
▁pollicis
▁176
▁(1.9
tious
▁hematoma
▁epilepsy
elves
▁consumed
▁postoperative
positive
umbar
▁reinforcement
-36
▁adrenal
▁4.5%
plication
▁descriptive
elan
usate
▁hormone
buride
urine
▁analyses
▁luteal
timal
▁1.47
▁colic
enteritis
▁1.45
erum
▁mild
0%).
▁25.3
▁urography
127
▁Acad
.7
▁11.6
acycl
▁1/
immun
▁3.6%
▁0.66
trates
tiguous
idity
▁meticulous
▁29%
25
-19
▁electromy
▁cognitive
▁eliminating
▁preventing
▁Fourteen
▁challenges
▁consistently
▁diabe
itant
▁150,
▁synthesize
▁microb
ighted
▁acetic
▁diazepam
▁heterogeneity
▁trimester
induced
▁(85%)
▁continuing
kelihood
▁Twenty
▁alanine
embry
▁birthweight
▁prolactin
▁adolescent
▁4000
ermal
WB
.0,
flammatory
economic
▁occurrences
▁125
▁rGH
▁chorion
▁4%
▁3.7
ecia
kely
inopril
ceptions
▁metoprolol
▁BMD
▁hyperlipid
▁malignancy
▁CFC
▁ib
▁111
▁349
▁40.
zine
▁lep
▁chl
otriene
▁hypertro
opecia
▁ey
73
▁substances
▁computerized
▁detecting
▁Peak
Ox
vaccin
CRP
▁angi
▁antimicrobial
▁benz
▁ack
▁sedation
▁centers
▁hairy
▁3;
▁adenoid
ometrial
olesterolemia
▁sedative
▁Steroid
▁Statistical
▁1964
clinical
▁clindamycin
▁hygiene
ximum
▁initiation
▁HA
▁outbreak
plete
▁ultr
▁84%
/3
▁genitourinary
▁idiopathic
▁1.8
▁palp
orating
Ba
bumin
▁cys
iagn
25.
▁nonsmoking
▁3
▁commerc
▁reflux
aminop
▁Infection
▁overnight
ipine
▁4.0
▁(46
▁159
meg
▁indications
▁77%,
▁conductance
.3.
92
▁monotherapy
▁2.3
▁exud
hemo
versity
smoking
▁azathioprine
▁gastric
acking
▁genotype
▁mucosa
▁casein
▁echocardi
sor
▁diversity
▁5%
▁IgG
▁herni
▁(3
salt
-1
▁hypnotic
▁streptococcal
▁0.58
▁0.81
econd
▁odds
firmed
▁toge
▁5.6
▁Tes
▁0.5-
▁excretion
▁203
▁Adverse
▁pectin
waves
▁217
▁approx
8-
▁expectations
▁HER
▁lacking
▁rhinovirus
▁sulfonyl
▁Candida
▁MDI
mittent
diagnosed
omia
gian
erence
inic
▁interferon
▁intra
▁managers
▁surrog
oxid
rans
determined
ulose
▁1.01
3]
gulation
▁confounders
▁Assessment
amol
▁bacterial
▁airflow
erative
▁Improved
▁flour
▁cancers
▁nonp
90
▁wounds
sensitivity
otroph
▁Eight
thyl
Ev
gold
▁excluding
▁3.8
-70
▁Assess
▁compli
tep
▁600
▁standardized
tivities
▁knee
19.
▁echocardiogram
▁cryptorchidism
▁pneumoniae
▁specialists
8.
▁cyclical
omes
▁conducting
▁nonc
inj
▁31
▁Addition
▁hairs
tec
orated
mature
ipit
sych
▁exploratory
▁colos
▁neuropathy
▁previ
fed
▁60%
▁23
▁rehabil
▁Benz
viral
▁dorsal
▁lute
▁dentures
8)
▁Increases
▁abuse
oscopy
3-4
▁Phase
▁Twelve
▁myocardial
yster
▁glucocortic
▁techniqu
-70%
1/
▁abnormality
▁presumed
▁ketoacid
rogenic
▁menopause
4;
▁victims
▁experiencing
▁ulcers
rati
▁renin
▁ionized
▁vaccin
ypical
▁aluminum
ostomy
▁Swed
tile
atients
▁ensuring
▁dermal
fasting
ilin
azol
iplin
▁4)
lamin
▁produc
▁lesions
dL
▁pulsed
▁titr
terin
▁neuro
▁seated
comitant
izine
oice
8),
▁Thy
▁Hear
▁carbonate
hyd
romycin
▁progression
▁spi
neonatal
▁deemed
▁prevalences
cture
▁biological
usions
openia
▁pati
▁sustain
▁congenital
▁hernias
ratic
tact
creatinine
▁tobacco
rosemide
▁allergen
iant
▁correlates
▁192
▁gonadotrophin
▁favorably
▁285
▁emulsion
▁Lipid
▁incom
▁eradic
▁fungus
▁8.4
▁Recurrent
▁90%.
▁warrant
▁tendencies
iable
▁wearing
atoma
▁Chang
▁(25
vail
aturated
▁0.8
onatal
▁tolerate
▁sumatriptan
xiety
iterranean
mented
rease
▁Hyd
▁leu
hicle
ussion
olated
ositive
lyc
▁adequate
▁chec
▁215
umping
▁asthma
▁hypocalcemia
ranean
▁ovulation
▁(72%)
ancomycin
moderate
-88
▁diphen
▁hyperplasia
▁gemfibrozil
VT
▁vertigo
▁antihist
▁279
terase
▁supple
▁vag
iph
▁amoxicillin
▁alcoh
imazole
▁PLP
▁assessed
▁0.2
▁causation
formations
▁77
-4.
matched
▁HLA
rowing
ectom
▁persisting
Cs
those
▁diarrhea
▁fracture
▁occurring
ausea
▁condensed
▁nontoxic
guing
▁Atrial
▁ae
▁cate
oluble
▁snoring
▁dexamethasone
tingu
▁venous
containing
▁208
▁Measure
▁181
lyb
▁BM
lycer
▁(80
hers
▁prostaglandin
▁veterans
▁18.
spectively
▁covari
▁confound
5,
moking
potential
▁regain
▁triglycerides
▁15.8
uated
plen
▁doxazosin
ociated
▁succinyl
xime
anking
▁medically
lomethasone
▁codeine
cyte
▁propranolol
▁sequelae
▁favors
9/
arthritis
3/
▁thir
▁renal
▁overweight
ducts
ogenicity
ophilus
▁epidemiologic
▁cann
▁differentiate
▁Cardiovascular
ocrom
crib
▁consis
▁receptive
▁cerebro
vian
▁reass
▁responsive
▁0.8%
▁ambulatory
▁lymphocytes
IgM
▁medicines
▁OC
▁90-
▁identically
▁instr
▁duplex
▁unpredictable
▁284
-100%
ulitis
▁ovarian
▁exceptionally
kers
onin
▁Adherence
-65
eight
tension
▁proportions
roth
cyt
apine
▁sickness
▁FD
▁warr
▁mycoplasma
▁adjustment
roscop
▁59
▁juven
▁analges
ectin
NH
▁199
▁oxy
atoid
▁acces
administration
adenomas
▁expressing
stimulating
▁stric
-12
▁carbam
ranial
athyroid
▁danazol
▁competent
crip
▁mell
▁resear
wk
▁VAS
▁paral
▁methionine
natal
tant
▁theoretically
▁exce
▁caregivers
1-2
▁survival
▁murmur
▁nadir
initi
▁angiotensin
▁achieves
▁Treatment
▁Lact
▁adhering
▁2.0
▁numb
nate
▁Exc
▁fallopian
▁coagulation
hydrated
400
atched
▁193
▁(89%)
aise
▁DF
▁rhinitis
sequent
▁menstrual
▁eczema
▁1985
▁classifications
nisolone
▁encour
▁pressures
16
gents
▁-1
▁prophyl
▁embolism
▁(68%)
▁colonization
0%.
uates
▁specialist
▁(92
▁0.28
.0%
▁neuroleptic
yro
▁elimination
1.0
▁(25%)
▁reasonably
/24
▁aqueous
▁expense
▁providers
ylon
teria
SBP
▁-0.3
▁AO
▁scro
▁168
▁prednis
atitis
▁hydrox
▁rigorously
▁10,
odip
posable
▁(7
▁detects
▁enrollment
▁89
▁vesicle
▁Respiratory
tine
▁evac
58
▁reticulocyte
-0
amole
ipolar
▁nights
▁reductions
6,
▁clinician
▁positively
▁suppres
▁tach
▁researchers
▁(60%)
▁3.2
▁naproxen
▁benzodiazepines
▁bup
TSH
ariate
▁209
conver
GD
▁Holter
▁effectiveness
▁carc
▁facial
▁synthesized
cemia
▁irrit
▁depres
▁epidemiological
▁(76
▁hazard
uccess
▁perceived
▁acidic
▁stimulants
ypro
▁Relative
▁Finnish
estim
▁bouts
▁reproductive
▁(84
▁vaccination
▁146
13.
▁escalating
▁statistically
▁delaying
▁membran
ystolic
▁2/
sistent
▁resistant
ucose
▁parity
▁ethn
consuming
opause
▁15%.
▁100%.
▁relaxant
▁heal
▁187
▁decline
▁telephone
anol
▁splenic
▁Factor
opamine
▁stripe
▁Clin
0.3
zyme
▁diuretics
omegaly
tual
anide
▁presum
▁predictive
LISA
▁(6),
▁10.7
infection
▁subf
▁meningococcal
▁UT
▁incontinence
POA
-2).
▁hered
ithelial
orin
▁elic
▁ongoing
▁colonic
▁Stress
▁720
omplete
▁suicides
▁5)
▁46
-3.
▁stimulant
oxyrib
9)
▁nonex
▁gradi
▁13.9
▁psychosis
▁subarachnoid
▁Biopsy
▁clamping
▁4.0%
▁cereb
▁immunity
atical
▁Combin
▁interleukin
▁196
enters
attern
atible
▁relapse
aminases
▁preserving
▁Smoking
tent
CAP
▁0.23
▁posi
▁cerebrovascular
▁averaging
duction
▁exudates
4-2
(1
▁(18
-1)
bly
aternal
▁bronchodilators
▁40-
▁direc
ordial
▁suicidal
▁pathologic
partic
omated
▁nebul
▁viral
▁radiographic
▁consistency
▁overl
tained
ergic
▁100,000
-1.7
18
odal
▁9.0
6)
▁ascer
tch
▁loos
▁ankle
itidine
▁Cancer
udation
▁neurologic
opr
▁Sodium
quam
▁musc
▁Myocardial
▁amphetamine
▁absorp
erad
▁murmurs
▁68%
▁analyzed
▁45
▁slowing
▁231
▁antibiotic
-2.
▁noninvasive
▁228
1,
.5
▁descriptions
ervative
▁limiting
▁retardation
▁269
olesterol
10).
▁institutional
▁(4
▁Higher
ateral
▁sorb
armac
▁CRP
▁tet
▁irr
acetic
examination
▁possi
tage
▁warfarin
▁70
▁surgery
▁disturbing
orrhage
ovir
vertebral
▁(54
▁gestational
▁22%
▁palsy
oling
▁57%
31,
▁mothers
▁liver
▁0.9%
▁ate
▁nasopharyngeal
1%)
▁7.5%
▁dramatic
▁16%,
▁perox
▁26
▁fluconazole
tivation
▁eighth
▁27%,
▁psittac
▁adoles
▁widespread
▁elbow
▁stab
▁lacked
deriv
▁nitrofur
▁bicarbonate
atology
▁pravastatin
▁inducing
ensity
perature
▁infarction
-1.6
-1.0
▁bypass
▁alternating
rhy
▁infertile
olamine
zard
▁enhanced
▁62
iminary
▁colposcopy
okinetic
▁perioperative
opharmac
coag
▁tumor
▁verbal
▁Hispanic
▁(1:
▁nondiabetic
yel
▁DSM
▁(77%)
▁misoprostol
icide
▁physici
▁erythro
sive
lated
-1.
-20
opathology
▁exacerbate
lude
▁80.
oxin
▁mg
▁comparisons
▁perim
etent
▁superf
▁leakage
0.4
risk
▁pathology
adder
▁dextro
▁friction
▁serolog
melan
▁impairment
potassium
indol
3%)
▁autoantibodies
▁contractions
opar
cad
dihydropyridine
omies
:3
▁aspart
▁doubled
▁balloon
54
▁hirsutism
▁abl
▁postprandial
▁hyperch
chool
▁differed
▁harmful
▁Ade
▁targeting
▁bactere
reness
▁diets
hospital
▁persis
obenz
▁Haemophilus
▁characteris
-81
▁comprehensive
nine
▁esophagitis
surgery
cretion
tors
▁Likewise
ially
acrine
inally
▁Subsequent
cellent
estis
▁PCO
▁2.9%
▁athlete
junction
▁340
94
▁0.83
▁characterized
▁organic
▁Hg
partum
drug
▁adjustments
▁elevation
▁Enal
triglycer
astatic
aceous
ofib
▁bacteri
▁spleens
▁(0.9
4%
▁antich
yrid
▁0.54
▁124
▁165
spectrum
olytic
ymptom
dihyd
spective
▁20%.
▁1.3
50.
lodipine
heum
zation
apanese
▁antic
epines
▁morb
aldosterone
▁nonoperative
orts
▁1,
▁0.97
cystic
▁0.15
▁65%,
tention
▁arterial
▁adverse
sion
9]
acts
▁chlorthalidone
▁(38
▁Sleep
▁lidocaine
▁modality
48
▁peaked
1-4
▁mitig
▁intravenous
▁diagnose
▁49%
▁75-
▁sleeping
▁5%.
▁fibrill
▁favored
▁2.5%
ophys
▁adolescents
▁reas
▁progressive
▁24%
▁exposure
tigu
irubinemia
70
▁intact
▁progesterone
▁rigor
▁chemotherapy
/100
▁MMS
▁supra
asone
▁persists
▁appraisal
▁prescrib
▁gastroenteritis
ADA
▁prednisone
▁inherent
tism
carotene
▁upright
▁selective
enon
ophysical
▁cryp
▁-0.8
chlor
iters
▁perone
▁900
▁sero
▁polymyxin
▁prox
▁perinatal
▁fenoterol
-0.5
▁ketoacidosis
▁LMWH
44
plied
▁placent
▁efficacious
▁cytology
▁56
Ds
▁Tests
▁muc
▁glut
▁50%,
▁relieve
▁118
▁microscop
▁13
▁lapa
▁prognosis
▁(100
▁MEDLINE
daily
▁(39
mokers
▁lateral
▁radionuclide
▁VA
▁quoti
▁Capsaicin
▁caloric
▁enlargement
haled
▁contraception
▁abortive
▁sensitiz
vant
▁nitrogen
▁12%,
▁valpro
▁172
thre
RD
▁RSA
flamm
▁alleviate
▁arrhythmic
30
▁encompassing
▁DBP
▁hydrolys
/90
fate
▁expulsion
▁CHD
cence
▁Vitamin
9).
COP
▁unselected
olitis
WBC
exposed
Cer
▁lactobacilli
▁menses
atosis
▁overt
▁margins
▁suspension
odil
▁(20
formin
▁remission
14)
▁intraven
▁pretest
▁symptomatology
▁44
▁elevating
▁prol
▁pleural
▁neoplasia
▁Therapy
blinded
lactating
ocl
▁-3
▁GER
bodies
mined
▁rash
▁fumarate
▁whey
atesticular
resistant
▁intestinal
▁uncommon
▁0.62
▁piroxicam
▁extre
▁276
heavy
▁excre
▁3.9
frequency
▁1.13
aturia
tro
▁undetermined
▁injec
▁formulations
▁cotinine
▁prescription
▁denser
scheduled
▁necrotizing
▁fric
ocyte
▁(90%)
▁sonography
▁tenderness
▁modalities
emide
▁Lyme
▁660
▁phosphate
▁3%.
▁Criteria
weekly
▁correspondence
osclerotic
▁Reflex
▁156
athiop
▁recurrences
▁fractions
/4
▁Bronch
▁inhal
absorption
,3
▁examination
▁91
9%)
RR
3,
oride
Gs
ophag
▁HSV
tured
▁109
▁Fluc
romatosis
/8
ulence
65
loid
hydr
-6
▁feeding
baseline
▁nedocromil
120
adone
▁adolescence
▁nec
▁(20%).
▁39,
▁hyperbil
plies
▁autoimmune
▁hig
ocomial
icep
lep
▁exaggerated
ocusing
conc
oderm
▁DCA
umbers
▁mildly
79
acti
ctomy
▁Gyn
early
▁(97
▁8.5
▁inadequately
proven
ulon
▁empirically
▁pharmacologic
▁digoxin
brile
ognitive
83
astolic
ifferen
etan
-16
▁1.30
monary
▁cited
otom
100
▁visualization
caro
▁gluten
▁physiotherapy
▁blin
▁2)
▁sensitivities
▁nifedipine
▁Disease
▁0.1,
▁plac
opharynx
bladder
▁(16%),
▁insertion
▁PID
▁281
322
osteroids
▁traumatic
ipril
▁beliefs
▁orthostatic
unar
▁inhibitor
ching
▁thresholds
reactivity
▁CU
▁constipation
▁cachexia
▁kits
selec
21)
1.
▁pyr
▁protracted
▁2.2
orpor
tomy
▁explored
▁quinolones
▁postoperatively
▁postmortem
obac
▁Phen
▁childhood
26
7-
▁3.6
▁remed
tipation
▁osteoarthritis
▁impair
▁hepatocellular
ourinary
▁identi
▁kidneys
-0.
▁factorial
rous
acr
iscal
▁ductus
▁0.0
▁0.60
▁Findings
▁316
▁accessibility
19)
▁0.69
▁euth
▁0.
▁benzo
▁3.2%
EDL
▁phenyl
▁sting
▁0.1
pharyngeal
▁ceph
▁Increased
▁cured
▁bac
▁topical
88
▁bic
▁avoiding
▁solitary
▁Cutaneous
▁antif
▁retention
▁200
umented
▁discom
▁ligament
▁efficacy
yrox
▁operative
▁pharmac
▁glycosylated
5.
▁ipr
rologic
dose
▁infar
▁6%
▁fluoride
▁103
▁journals
ressing
plicated
lusion
▁adherence
)],
ertion
▁abr
▁-9
tory
BP
▁7.9
▁wors
▁Replacement
▁heavi
▁dental
illion
4.1
00,
▁resour
ioid
keletal
tition
▁aspec
▁Ultras
▁86
imination
▁0.7%
▁alprazolam
▁198
▁addic
▁TMP
▁outpatients
▁18%
ticularly
-17
▁cytologic
▁orthoped
95%
opharm
▁restr
0.1
▁infrequent
/6
▁104
positives
▁Severe
▁-7
▁mononucleosis
▁strategies
ethyl
28
▁tibial
hetamine
ditional
▁352
▁Americ
▁80
▁urea
amphenicol
▁reticul
gus
▁systematically
2;
▁detrusor
adders
eliac
▁soy
▁concentrate
erose
▁227
▁tablets
exy
2).
mmol
▁ure
sue
▁17.3
aced
oprotein
▁allergenic
▁thiazide
▁sediment
▁intake
▁0.99
▁308
▁cyst
▁ofloxacin
▁120
▁17.8
▁gonadotroph
▁ambul
assi
▁emotions
▁simultaneous
▁births
▁Nit
▁Doppler
▁0.80
amines
propanol
alp
▁Antic
oxifen
▁recipients
▁esterase
azone
uestionnaire
▁headache
▁24.3
▁rheum
▁5.7
▁Gynec
▁anemia
▁2000
▁retard
▁tymp
▁(5.1
rase
▁questionnaire
▁sucralfate
▁prevalence
▁complaints
▁traum
▁leukotri
30,
▁coping
▁(70%
▁hepatomegaly
▁dyspnea
1-1
▁venti
2%
portant
▁nicotine
▁(8%
16)
▁47,
▁percentile
▁opioid
▁surgeon
ture
severe
▁sprin
paren
▁OA
significant
ospitals
87
▁compressive
existing
ralfate
ilol
▁129
▁assessment
▁restenosis
urys
▁220
▁ultrasonography
▁ampicillin
ostatic
▁correlated
aryng
▁299
enal
▁aro
aric
▁healing
▁cranial
▁clinicians
arrhy
▁8-
His
troduction
▁transaminases
▁whee
▁polys
▁0.70
▁58
▁fossa
ognition
▁brom
enic
▁indication
TCA
▁Injection
8/
ocom
▁mono
▁triceps
▁Clinical
▁abscess
pharmac
otox
▁0.45
▁0.94
treated
▁auditory
onography
productive
▁glycosyl
▁prevented
▁lipophilic
▁introduc
▁conges
▁10.8
▁exhaustion
▁reac
▁occl
▁tympan
▁buc
utin
▁keto
ervations
▁Acet
oglob
▁practitioners
teroidal
▁anticholinergic
cessively
▁fulminant
▁seb
▁ointment
▁virtually
tur
Pu
▁blister
▁arousal
▁grip
▁endpoints
releasing
▁capsules
▁interventional
▁36%
drome
▁bronchial
▁crust
▁anhydrase
obic
▁(15%
▁sputum
▁supr
▁carotid
▁2.5,
BV
renal
▁spirometric
▁idi
adren
▁0.61
oconstriction
▁raises
▁241
▁tension
▁promp
admill
▁750
▁behavioral
▁pooled
▁constellation
jac
▁protec
imaging
lox
▁356
ophyll
▁distal
▁specialty
achn
▁equivalents
▁arth
orphine
▁nausea
▁0.11
0.8
erant
▁practitioner
▁0.86
mL
enyl
fem
▁0.13
▁26%
▁Barrett
▁waking
90,
onorgestrel
effectiveness
▁73
gesia
▁acute
rometry
▁defec
▁derangement
▁72%
▁stripping
irone
educ
▁bivariate
▁neurotrans
▁randomization
▁(1%)
▁recurrent
▁-10
induc
▁LDL
▁epic
▁Educ
leuk
imodipine
etoprotein
▁aspartate
▁insufficient
▁pneum
ilic
▁nig
700
6%)
▁allergens
▁EB
unately
▁dox
▁erosion
otyp
versal
▁(9
▁sugges
▁vein
▁controversy
▁evid
▁normalization
▁presumably
▁endemic
▁gels
SAID
-8
▁preexisting
▁infusion
meth
bearing
▁candidiasis
▁allerg
ophilic
▁hypertrophy
▁154
/2
▁6.9
300
▁volunteers
▁DVT
▁Coronary
▁calcium
▁hydrocortisone
▁endoscop
ofil
▁tear
tig
roscopically
odies
▁attributable
inely
-13
▁36
▁(5.8
▁47%
▁hepatitis
gthen
eprazole
▁24.7
▁nodule
▁endometrial
▁Physicians
▁45%
cents
▁acetate
▁68,
▁structural
▁237
▁aspir
▁cessation
stin
▁titers
opril
▁albuminuria
▁LVH
▁shorten
▁6.5
amide
▁disorders
tically
▁latex
▁84
▁bilateral
LU
▁cac
▁hemorrhagic
enh
coronary
▁curriculum
▁intractable
▁hypotension
▁24%,
ipients
▁(1)
▁158
▁drinkers
▁Failure
▁polyc
▁cumulative
disc
12.
▁enzyme
▁poses
▁ana
▁neutroph
orption
▁200,
▁deformities
actin
▁pep
▁nutritional
▁permanently
▁urinary
▁compounds
uled
▁investigators
▁surveys
ergency
▁unchanged
▁successive
▁poten
▁gynecological
operatively
▁LMW
▁dietary
▁5.5
▁interpretations
▁25-
▁intermittent
▁ulnar
visc
▁expiratory
▁limb
osage
▁asymp
▁budesonide
▁hypers
▁guinea
▁scans
hion
▁deoxy
mend
omagnes
18)
▁68
▁53%
▁MI
ischemic
▁3.3
▁Dop
▁intraepithelial
▁rotavirus
ogenous
iphene
iology
apride
▁Transient
romised
sives
▁arrhythmia
▁ligation
▁tetracycline
▁malabsorption
▁hypo
▁47
93
tif
▁strains
▁serology
hormonal
vitamin
atation
(2
▁sequenced
lactam
▁Prevalence
alazine
▁insulin
▁retic
▁rats
▁21%
-5
occal
▁seroconverted
▁mood
2-
▁48%
▁clamp
▁bolus
▁anticonvulsant
▁wrist
▁sple
8).
▁solids
▁retin
degree
igarette
▁exercising
elvic
▁receptors
▁puls
▁nipple
▁Adequate
▁abstin
ifed
dyn
lyce
dition
▁prescriptions
▁withdrawn
▁weighted
▁immunogenic
▁nonpregnant
quid
▁physiology
▁underestimated
▁1:
▁lasting
▁retinal
▁51
plasty
▁chloride
ysm
▁skinfold
19
ulous
▁(42
▁17).
▁chewing
reduced
▁traction
▁therapy
glycerin
endazole
▁headaches
minute
▁discontinued
▁resc
64
▁aureus
▁masked
sibly
▁Cycl
▁scanning
▁80%,
▁herb
▁evaluations
▁80%.
ystatin
▁discontinu
▁carvedilol
ulatory
▁epid
reening
▁lax
▁refusal
▁8.2
▁Chronic
arachnoid
oglobulin
titudes
▁hypertension
▁Physical
▁hydrop
emic
▁discharge
▁parathyroid
▁Oste
▁Few
roxicam
▁consecu
▁inconclusive
asic
▁beneficial
▁mamm
▁weighed
▁LM
▁gum
▁uteri
▁durable
▁pate
requ
▁atrial
were
▁graded
7/
▁tremor
▁6
▁6.7%
bacco
▁appendicitis
▁Thyroid
▁ELISA
▁herpes
▁bronch
000)
▁Changing
▁creatine
eration
asting
▁19,
,000)
stress
▁observational
▁5.5%
▁15,
roup
▁paroxysmal
▁(28%)
▁8.
uretic
▁neonatal
▁vertebral
▁divertic
▁12,
▁inver
placement
▁17.1
ithi
piratory
▁Thir
▁bradycardia
HB
▁atten
imus
▁stratified
arity
injection
▁dermat
▁17-
▁263
reactive
etus
▁tol
▁ultrasound
▁autoantibody
amus
▁congestive
▁calcification
▁respiratory
plications
▁preparations
▁hypon
▁backgrounds
▁subjec
▁Effic
▁195
▁PG
▁HAM
treatment
▁dys
▁vulnerable
molec
▁1.2,
▁7.7
tral
ials
▁50-
▁acetaminophen
▁0.36
▁51%
▁interf
▁titration
▁5,
▁(8
amel
▁(94
cutaneous
▁attenuation
▁paradox
kets
olute
appropriate
ruc
▁questionnai
▁(24%)
▁Impair
AFP
numbered
▁(150
▁nonresponders
sied
onary
▁paired
▁cesarean
▁4.2%
tigo
4/
▁dihydro
97
▁baseline
▁Fifty
▁parox
(7
800
▁Lactobacillus
▁concep
andard
▁hypoglycemia
▁Absolute
roxen
otypes
ectasis
converting
-8.
quine
▁1.29
▁creatinine
▁infrequently
▁toxic
▁neutrop
▁(79
butamol
▁normalized
▁terfenadine
▁transverse
brom
▁1.2-
▁(1/
▁immunotherapy
copic
▁188
▁psychiat
iological
▁fecal
▁malign
31
ucas
finding
▁smo
▁insom
▁Modified
▁syncope
hered
▁261
▁abor
▁Comparing
tussis
▁0
uprofen
▁steroid
▁tendons
▁cartilage
▁neoplasm
▁controver
omal
4%)
▁50
▁95%.
▁cardioselective
▁flashes
roxyprogesterone
▁untrained
IH
▁eradication
▁unexpectedly
▁1.44
ustained
▁quantified
▁inadvertent
traction
▁diaz
rofen
▁38
▁Recommend
▁estrogens
cyst
▁placement
-5)
▁referrals
▁fluoxetine
▁propensity
▁enalapril
▁residual
repres
▁(4.3
▁123
emin
▁predominant
effec
▁choles
▁uncontrolled
ective
▁fum
▁7.1
▁nonm
▁thromboses
phosphonates
entia
▁wound
▁Certain
▁abbreviated
(5
uretics
kic
▁titrated
vaccinated
volving
▁nip
avir
Bs
▁4.8
lected
yzed
▁fulfilled
▁85%
30)
▁penile
▁bladder
▁inflamm
▁PD
▁Impro
▁Thin
▁intranasal
▁compromise
lora
▁speculation
LN
▁Adh
amine
SDS
▁predictors
responders
▁presentations
▁smear
▁Risk
CAM
-66
▁dosages
▁Eighty
sian
ocol
▁gloves
▁choline
▁0.04
▁morbidity
▁0.59
ogens
▁empiric
▁behaviors
odop
vices
▁pefloxacin
▁drinks
▁construc
olism
azoline
atrial
-6,
HF
▁participating
▁endogenous
▁intercourse
▁somn
dil
▁endoscopy
▁obese
▁intracerebral
glucosidase
coun
6/
▁findings
▁unrestricted
▁0.44
▁sensitizer
▁CAL
loro
00-
▁sedim
odular
▁1.6-
▁qualit
smokers
trib
▁provid
▁suppression
▁indi
▁menopausal
▁receptor
▁needle
RF
▁rhabdomy
▁abstinence
▁94
▁Tissue
4)
▁acupuncture
18,
hop
chlorothiazide
▁tumors
effective
▁97%
epsia
amethasone
▁specialized
▁arthroscopy
titis
▁antim
▁infection
▁avoidance
ducible
cB
▁iatrogenic
▁problematic
▁subscapular
▁infarctions
▁4.6%
ypass
▁93%
▁264
vely
▁interfer
▁(0.6
nee
roxic
▁sodium
▁73%
▁alopecia
▁advan
▁heterosexual
average
▁minority
-5.
▁cefixime
usive
▁determination
▁lesser
0/
.10
▁9.9
▁blinded
▁8.5,
▁1.17
▁latency
rotal
elic
▁thrombosis
▁extrac
▁preschool
▁improves
▁0.33
▁Neither
▁2.
hydramine
vals
▁rebound
bral
april
▁postnatally
2),
either
▁diagnostic
▁chemically
▁validity
posure
▁otitis
▁adjusted
▁Epid
▁calcitonin
▁reveal
▁90%,
▁9
agonists
ameth
astine
▁antipsych
▁cros
▁demonstrable
▁HIV
▁coated
trop
▁Caucas
edding
aerobic
trophin
▁nonf
▁255
▁accidents
▁predictor
▁unsuitable
▁sustained
arly
▁dermatitis
▁Pain
▁0.46
fraction
availability
▁increments
▁(40%
▁Combination
ACA
▁smoking
▁GA
▁outcomes
blocker
genic
▁inflammation
▁yearly
▁peripheral
▁1.9
▁oxygenation
▁Tric
▁nonrandomized
▁CST
faction
▁EG
▁monthly
idin
▁glomerul
▁initiated
▁infected
▁Interestingly
▁12.5%
▁13.2
abdominal
▁chronic
▁7-
▁131
osom
10)
▁Exercise
astases
omain
▁54
venty
▁attemp
fec
▁0.55
▁eti
▁tonsillar
angiotensin
entric
traumatic
sectional
▁hematologic
▁1.16
▁Parameters
-1.5
hist
3-
aind
▁steroids
▁relieved
amisole
▁arteri
▁54%
uppression
icient
▁Hep
▁5%,
afloxacin
olesterolemic
gth
peptide
▁genetic
phor
0.5
tir
▁ECGs
▁3.
peri
arge
▁cortisone
▁hematuria
▁Evaluation
▁confirmation
▁(2.5
▁analgesic
▁pancreatic
▁1966
▁junction
pressing
▁247
odiazepine
▁Abdominal
▁ovaries
▁anomalies
ranolol
▁DS
itary
tein
▁competence
Bay
entif
whe
▁paradoxical
▁NN
14
▁sore
▁RAS
ungal
▁mL
▁hypogonadism
ughter
▁166
▁comparable
▁PMS
oretic
▁struc
amination
apamil
▁Patients
roxetine
▁fixation
▁4.5
▁lipid
80)
estrogen
▁Estrogen
▁52%
rk
▁4.2
▁favorable
ivary
▁multim
▁mitral
▁disseminated
erated
luc
▁protr
▁0.57
▁cerebral
reported
98
▁LR
▁reti
acked
coh
osmolar
▁(4%)
▁0.25
▁vitro
1);
▁emerg
▁60%.
▁pem
inflammatory
gated
3;
▁histological
inemia
▁recurrence
roscopy
▁257
▁wheat
▁smears
▁(5
▁aggressive
thoracic
algia
▁expectancy
▁113
▁dizziness
▁PGA
20.
▁bowel
rowth
▁arrhythm
lamydia
▁(44
▁therapies
70)
triglycerid
romy
BMD
arynx
▁CHF
valvular
isoxazole
▁1000,
▁1986
tative
▁DMA
▁progressed
▁diminished
▁molecule
uding
▁investigator
▁assay
▁Engl
▁scre
PGA
spar
otine
▁lasted
▁Beta
ologically
tation
exin
▁(80%
atropium
▁18,
uestion
▁meaningful
▁myc
ocrine
▁anhydr
othal
▁controlling
▁(63%)
▁confirming
▁contamin
▁neutropenia
▁1.48
35
itals
phosph
▁2%
▁spanned
▁excised
▁Subsequently
▁resonance
▁esophageal
▁1.15
tene
irub
▁febrile
38
▁healthy
ulant
▁Braz
▁grains
itrate
median
▁76%
▁Urine
atches
dip
iparous
▁transfusion
ejection
oratory
▁thrombus
rected
▁positional
▁nef
agic
9;
▁hemo
sA
reasing
letion
103
▁hypog
tive
▁dihyd
Lac
tations
molecular
▁aerob
▁adipos
▁pregnancy
▁apnea
▁16%
▁prescribed
▁couples
▁177
tron
▁antec
azepine
-0.0
-50
▁asthmatic
androgen
ohnson
olon
▁SPL
▁nasopharynx
▁neutrophil
particularly
▁artery
▁olive
▁5.2
criptions
vate
▁42
▁incontin
▁160
▁cholest
▁felodipine
▁0.42
▁1.46
5%.
▁grain
0%
▁lactation
▁2.4
▁79
▁32
▁fru
▁32%,
Gl
▁clus
▁Outcome
▁Testing
idney
patients
▁11%
▁mineral
oplasia
tures
▁detrimental
▁spas
inated
▁pyel
▁quantif
titute
▁nitroglycerin
hea
▁ventricular
▁facet
anis
▁6.
▁capillary
▁markedly
▁encomp
▁functionally
▁stenting
mega
▁luteinizing
▁complic
▁challen
needle
.6%
50),
▁nif
▁lifelong
▁inversely
▁respir
enol
▁ranging
omiting
▁asymptomatic
ameters
▁(56
▁40%
▁hypertensive
▁590
▁321
aturation
▁90%
▁administer
▁FE
▁eccentric
▁hir
▁tuberculosis
arbox
oung
shaped
▁substantially
▁persisted
▁ocular
▁(0%
▁Caps
▁sinusitis
▁bronchodilator
▁Rates
phine
▁underst
nons
▁supplement
ochemical
▁25%.
▁(14
actam
▁cephalosporins
▁133
▁granul
▁unfractionated
acquired
linic
▁cardiovascular
▁pretreatment
adjusted
oxyl
▁mobilization
▁Leukotriene
▁uncomplicated
▁580
pig
▁annually
▁Organization
▁nylon
ocycline
▁incub
▁induc
▁Mini
ducing
▁viewing
▁neurogenic
▁uncl
▁concentrated
▁Nineteen
▁admissions
ancies
▁bronchospasm
▁mefloquine
ureus
▁serogroup
retic
(3
▁6.6%
thmia
ocyt
▁attenuating
▁rhy
▁determines
▁sensi
▁corticosteroids
▁meperidine
▁Thi
▁provoke
▁threefold
▁herp
▁pharm
-4
▁323
▁assesses
▁hypothalamic
tist
tration
▁isoniazid
sively
▁hydrochloride
▁derange
inum
▁2.5
▁1.11
uebec
ensitive
▁attenu
▁700
osus
▁anticoag
▁ethnic
▁hemorrhage
▁ect
▁diagnosing
▁commercially
ipar
antial
especially
▁38%
82
erebral
xyl
▁1-
▁bronchodil
ereb
0%,
▁opioids
oneph
▁audit
▁85
-90
organic
orbid
▁imaging
anazol
rine
▁congestion
timulation
-10.
▁gonococcal
▁suicide
▁intolerance
fibrozil
olerance
0.2
▁nonfatal
▁enrolled
▁calf
▁crucial
▁Doses
▁110
▁orally
▁benzodiazepine
ths
ustion
▁TCA
▁13.3
9,
▁Subcutaneous
▁influenz
▁anesthesia
▁PV
ometri
pread
uble
▁laboratory
tering
lycemia
▁chest
▁(1).
▁29
▁testis
▁reinforce
botic
▁assays
▁Neuro
otamine
▁frac
fetoprotein
▁9-
depend
▁11,
▁weigh
earing
otype
▁3.4%
umbered
▁clomiphene
▁TD
▁cortisol
▁tow
HbA
▁indomethacin
▁diz
▁optimally
▁7
▁sour
▁150
▁rheumatic
▁celiac
otransferase
▁Complications
inol
▁biased
lamy
▁amput
▁instrumented
▁circulatory
PCR
tices
▁30%
.00
ocial
▁16
▁cigarette
otonic
▁counseling
aryn
▁recruited
ohns
Ly
▁412
▁23%
▁baths
isole
embran
verages
▁recommendations
▁Individual
▁poisoning
phic
▁invasive
ochrome
▁perit
▁posed
rosy
oyl
▁physician
▁46,
▁electroly
▁lith
▁EMA
▁1.18
▁aimed
veness
▁Escherichia
▁(0.4
oxygen
▁64
LV
▁surgically
▁162
▁pentoxifylline
▁crossover
▁hydrogen
▁Sensitivity
▁immunogenicity
▁96%
osin
▁98
▁compound
-85%
▁Breast
▁onset
▁emphasized
▁144
▁63%
▁Surve
onical
▁deem
▁1.02
▁physi
▁0.08
▁hypoglycemic
/30
▁(10%
seven
▁6.2
▁27%
mental
▁hypothyroid
▁1.2
▁excluded
clin
▁appendic
22
anad
▁concom
▁quinacrine
▁39%
▁Weight
▁incidence
▁aggression
▁cephalexin
▁(76%)
▁describ
▁66
▁dilat
▁DMP
▁sebaceous
▁Sixteen
tropine
▁saliv
uresis
indings
▁communications
cine
▁immunocompetent
▁0.50
▁dissemin
produc
▁rickets
▁12
▁outlined
▁tomography
▁intrav
▁0.64
▁(4-
idis
iteal
▁proving
▁enterocolitis
edocromil
▁duct
▁exhaus
▁acros
▁retinopathy
oil
▁appra
▁62%
▁8.3%
pregn
▁urethritis
uride
▁30.
▁specificities
7%
▁tamoxifen
Cu
▁nosocomial
▁(49%)
▁Ventricular
▁3000
ococci
▁defects
▁clues
▁ison
pirone
▁estimating
ylene
▁(1.25
▁suspicion
▁advised
tency
▁clonidine
aminated
IgA
▁250
▁endobronchial
▁0.5,
▁preterm
▁Surgery
▁Highly
ylated
▁RR
▁95
006
▁breaths
▁Cumulative
24,
▁PEF
▁spray
▁9.5
thmic
▁quadrup
ported
▁1.4-
onide
▁therapeu
▁Milk
▁4;
tens
▁121
▁274
▁plasminogen
▁inad
seud
adequate
ulsive
piration
▁hospitals
oagulation
▁cholesterol
▁112
▁Successful
▁reversing
ections
▁Recently
▁bacteriuria
▁sulfon
▁0.5%
▁8.8
▁ovulated
▁500,
▁185
▁enroll
tyl
▁interventions
oxif
14.
▁nicot
▁gases
▁intran
▁Regular
lym
▁melanoma
▁metered
▁hypercalcemia
▁embolus
▁HL
chol
porting
▁557
▁somatic
▁140
organism
▁skeletal
▁depress
ispanics
▁statistic
urred
▁resting
▁endotracheal
hydropyridine
onvul
▁400
-]
▁Angiotensin
▁1600
greater
▁CAH
▁suspicious
▁coordination
▁(70
▁gon
otor
erican
▁undere
2,
cellular
went
▁regulating
▁oxym
alities
▁tibia
lives
▁thrombocyt
▁chol
▁omeprazole
▁consciousness
eryth
taining
▁differentiated
reased
uminal
▁glands
▁neon
anding
▁etretinate
▁lipids
▁hemat
forming
▁occupational
▁HS
cinolone
▁WHO
▁agon
-15
▁addressing
14,
hydrox
.4
▁dosing
tib
▁midw
habil
▁proce
partate
▁suspected
▁ECG
▁superv
.2%
▁contex
linked
▁intracranial
▁obstructive
▁gland
lux
xin
▁5.1
▁thyroxine
▁Optimal
rein
▁VV
-10
▁spinal
▁secretagog
▁bip
▁139
▁lavage
▁262
illin
rement
▁Prel
▁30%,
▁symptoms
▁emergent
yclo
▁regulations
▁uro
▁ischemia
AO
▁scars
▁swabs
teric
isolated
azolam
▁hyperthyroid
classified
▁allyl
▁ecz
▁ery
▁methimazole
▁phenotype
▁breathing
ocomp
▁discharged
Hyp
ittac
-1).
protein
ameter
▁64%
▁consultant
▁antifungal
▁Decreases
molality
▁206
▁toxicity
▁alcoholics
horm
▁Bacter
▁ethnicity
▁triglycer
eptin
▁distress
▁jaund
ographically
▁syndromes
oprostol
▁13,
▁socioeconomic
▁manipulation
owever
▁115
▁monitored
▁PCOS
▁42,
▁concordance
ocellular
ytes
igl
amn
ensi
xual
▁suppos
adm
olic
▁outpatient
▁PT
▁(45
hexidine
sia
arrh
▁-0.6
▁constr
▁quartile
▁accounting
etirizine
▁hypercalciuria
▁0.17
▁116
uran
▁88%
▁mastoid
7),
▁abruptly
▁carriers
▁respec
▁prospective
▁worsen
3%
timate
oporotic
roids
sy
tility
▁worsened
▁abduc
antibody
▁phosph
onates
▁0.14
▁14,
opam
illance
▁thems
▁chlor
▁elevate
▁212
▁clinically
olol
▁3.5,
aid
lood
▁linearly
▁pertussis
▁Subjective
▁ICU
▁savings
▁acquisition
▁selec
▁sunlight
▁MIC
acial
▁deterioration
▁amo
calor
uncture
ongest
▁Comparative
topril
tential
▁perip
▁atherosclerotic
onstric
▁thrombotic
▁premise
▁sutures
▁detec
tee
▁dairy
▁metabolism
▁jeop
▁Biopsies
▁syphilis
Hg
▁physicians
tilage
▁0.01
-24
▁37%
ritic
udin
▁precursors
erop
▁cystic
▁antidepressants
atell
tia
▁anemic
▁127
osal
▁excision
▁illnesses
▁chlamydial
prandial
▁Estimates
roxy
▁embol
micro
▁(7%)
▁gonadotropin
AH
▁cep
▁fathers
ophor
▁Geor
▁leuk
ogl
epin
enin
▁anteced
▁patches
86
trated
incidence
▁cholesteatoma
arb
ilateral
▁accid
▁encouraging
Ep
antibodies
▁amplification
▁subdural
▁bioavailability
▁cramp
39
▁renders
ayed
androgenic
▁aerosol
upus
▁irritant
▁70.
opres
▁adjus
▁Ninety
bility
Fs
▁ineffective
▁Identif
otoxic
▁valerate
40)
▁glycemic
▁variously
urnal
42
▁Neurop
▁glycer
prising
130
▁Asi
acil
▁(1000
▁hep
ditions
▁achie
▁ferritin
▁wheezing
▁urinalysis
▁shortened
sulfamethoxazole
epine
itol
▁Approximately
▁heparin
▁aggre
▁bromocriptine
coated
amilies
▁nystatin
uterine
EI
▁guidelines
▁antithrombotic
▁anxio
▁anoxic
0.00
azole
-2.0
assium
feeding
▁0.10
▁ablation
▁verification
▁Retrospective
▁contiguous
▁doubling
▁440
▁Gonad
▁incompetence
▁deaths
▁expec
▁Carotid
ampicillin
▁0.49
▁CAD
Vi
excluding
▁correlating
▁calor
/7
8,
hyp
itonin
90)
individual
▁distorted
▁105
6).
▁pretreated
rocy
▁Whereas
▁10,000
ocyst
till
▁20)
▁cyclosporine
▁benefited
▁(16%)
▁Additional
ovaginal
▁cereal
▁80,
▁excl
epithelial
▁schiz
plasia
▁14%
dural
▁70-
▁1.6
▁concer
▁Functional
▁deficiency
▁wee
▁intest
invasive
▁pren
▁24,
▁Conventional
osm
▁(27
▁4.6
▁encompass
urea
rates
▁24)
▁Bacterial
▁demonstrates
▁77%
▁hypoventilation
linded
onazole
▁accurately
▁immun
arying
▁lowering
▁vulgaris
ureth
▁perc
mostly
▁8
▁seropositive
▁establishing
▁Medicare
-1.1
▁Prospective
▁0.77
ectomy
▁diastolic
▁(48
▁obstetric
avage
bA
▁6.3
▁eryth
▁stomach
rophilic
effects
matic
▁relieving
-60
▁derm
▁intense
▁98%
▁Calcium
▁AGA
hemat
affec
anin
▁focal
adian
rals
▁weekly
ococcal
▁copper
▁antecedent
▁Sexual
▁0.03
▁205
▁Fram
140
▁hygi
▁3/
thromb
▁indicators
▁tendon
▁artic
▁inhaled
▁examinations
40
▁inadequate
plast
▁incompletely
▁cutaneous
▁5.7%
▁186
▁1.5-
olerant
▁identif
tiveness
gressive
▁TDI
▁postinjection
cancer
▁40,000
▁4.9
pH
▁occult
fusion
▁cisapride
▁fibros
▁microbi
▁1.12
oretically
▁predominantly
▁-0.
▁vitamin
▁IgA
▁categorized
idated
ronate
▁acet
4),
▁94%
▁socio
▁7.
▁cohorts
▁0.05
▁unm
▁(1
▁focuses
-23
imeth
▁angiogram
▁55
24)
▁parental
onine
▁278
▁gynec
▁11-
▁endoscopically
▁symp
12).
thal
▁0.90
achol
vated
▁5.4
▁cylinder
▁ejac
.0)
enoid
▁Pregn
▁Raynaud
▁dehiscence
▁undergone
▁(10.
▁2
▁16.
▁complication
▁reversed
anat
▁Staphylococcus
▁Intr
▁quotient
▁TI
glycer
fib
▁HR
▁deox
▁subc
oste
▁serotoninergic
▁caries
hort
▁compositions
▁coenzyme
▁necro
▁correspondingly
tin
▁plasm
▁Individuals
▁metr
▁neurop
▁escal
urin
quir
▁bismuth
▁gestation
▁adnex
9),
▁cephal
essation
▁clind
▁neph
RB
▁emo
▁Transi
▁infusions
▁arous
▁heavier
▁actin
▁flora
▁lorazepam
▁systolic
exercise
timum
4-
▁beclomethasone
essive
romal
▁bladders
▁clinical
▁55%
therapeutic
trained
▁7.2%
▁dex
▁transthoracic
▁Abnormalities
ethylene
retest
secondary
-18
dominal
▁pulses
▁unin
▁transmitted
▁thereafter
▁CN
▁Rating
▁pyraz
▁nevi
▁Improvement
▁21.2
▁stimulation
▁endometrium
tensity
opl
▁1.40
▁1.09
▁50,000
▁retinoids
onad
modified
uded
▁28)
▁assessments
▁consultation
▁cyclo
▁(3),
IU
▁INH
12-
tionally
▁elective
ocaine
▁303
▁causal
8%)
▁221
-20%
5)
▁fetus
amphetamine
lactams
▁pregn
▁abdominal
▁precordial
▁aided
53
▁plotting
▁(24
orrhea
▁crosso
▁ane
▁enox
orac
pap
▁clot
▁vitamins
▁exploration
▁lithium
▁2.6%
▁fluoro
rief
▁psoriatic
1;
▁Examination
▁cromoglycate
Au
tract
▁246
tical
2.1
▁breasts
ipheral
▁immunized
▁1.31
▁adul
pran
▁DT
▁precur
specifically
▁25%
iability
▁14-
convul
▁resolving
lysis
67
▁emergency
▁augmentation
▁injuries
Ls
-1.2
▁histology
▁2.1
6%
▁39
▁extensor
▁assis
stem
▁Abnormal
ovarian
▁glyburide
▁49,
carbohydrate
▁Reas
generation
▁employment
▁drugs
▁nutrition
tial
▁(45%)
lometh
▁atropine
▁treatable
▁61%
▁multicenter
▁erythema
▁800
▁tic
opram
▁continuation
▁ingu
leural
▁overview
▁dors
▁hypothetical
▁hetero
▁ejection
▁7,
▁doses
roat
usp
tiary
▁motivation
▁235
oric
▁meal
▁targeted
▁48-
▁streptococci
▁serotypes
thirds
articular
cale
▁233
▁aerosolized
▁Tran
▁Increas
▁179
arcin
.1%
0).
ochem
▁lor
59
▁classifying
110
▁conservatively
▁iso
resis
▁sepsis
trophy
▁consensus
▁chlorpromazine
▁sonographic
▁discus
▁(86%)
iotics
▁biphasic
▁Veterans
thyroid
standardized
▁caution
▁postinjury
elong
▁0.09
▁Levels
▁hypocal
-125
▁absorbable
▁urodynamic
icin
▁damaging
onit
tric
▁Chlamyd
▁endoc
▁beats
mortality
▁1980
oxazole
▁clothing
▁18.3
Hb
▁suscepti
▁spasm
▁7.6
▁immunoglobulin
ews
▁recur
▁rhin
▁60.
deficient
atriptan
herence
▁Urea
bronch
▁57
plenic
▁nonsteroidal
▁-0.5
▁sheath
7;
▁unil
vivors
▁interp
▁24-
pled
heat
▁malarial
7)
▁diagnos
▁transc
ormone
▁NSAID
▁proteinuria
▁rigid
▁arti
trover
▁antiarrhythmic
80
▁agglutination
fine
▁17
orough
iotensin
ibrate
▁4.8%
▁ciprofloxacin
▁2.8
▁splenectomy
aline
galy
threatening
vaccination
gestrel
▁1991.
▁synovial
▁instrum
▁agonist
▁etiology
obronchial
▁averaged
▁pharmacists
▁CVD
restricted
esin
▁emotional
▁probe
eled
-600
arms
▁punch
▁antib
▁183
epam
death
▁morphine
onate
▁analgesics
hydration
▁fulmin
olig
▁2,
oppler
▁histamine
olum
sac
urgery
▁valve
▁(43
-2
7,
▁stren
▁canc
▁capsule
onyl
▁schizophrenia
▁determining
▁spor
▁0.3
mortem
▁0.6
▁irritable
▁dressing
▁nitro
▁disorder
rogen
referred
pregnant
▁0.34
umulative
▁HB
▁disposable
▁antidepress
▁urticaria
▁ward
lowering
icillin
63
▁glucocorticoid
▁hexa
▁0%
tox
ograp
zinc
▁exacerbations
▁choleste
sant
▁41%
▁abdomen
▁Overall
ometh
▁3.7%
▁indeterminate
36
▁xyl
▁Dys
▁anaerobic
▁adenomas
▁cultured
▁interc
0)
sulf
▁adhered
▁osteoporotic
▁infec
▁TS
acid
erythro
▁27
plants
-100
cg
▁developmental
5%),
0.0
▁clu
72
oskeletal
▁metabolic
ymp
▁Unlike
▁workplace
▁Nons
▁diabetic
apular
▁washout
▁alcoholic
▁0.48
▁obesity
iatric
rachial
ASA
▁HBsAg
▁lymphadenopathy
▁34
sies
▁omega
▁menstr
▁volunteer
▁Pneum
floxacin
▁polyethylene
ffeine
stant
▁PI
▁(2
8%
▁multiv
rotein
▁114
▁experi
▁5.2%
▁overlapped
-6.
▁obstruc
▁hyperg
▁(99
▁dehydration
▁additionally
▁diclofenac
▁maintaining
▁12.5
itro
asthmatic
azepam
▁potent
▁proges
▁electrolytes
▁unwanted
▁inducer
alene
▁85%,
▁preoperative
▁dextrose
▁NSAIDs
▁abscesses
▁survived
▁evaluates
opa
olp
NV
▁pooling
▁consul
apsulated
▁40,
fat
▁methyl
▁thromboemb
▁assessing
▁cholinesterase
idazole
eptic
medicated
▁gonadotrop
fortable
▁objec
▁Computed
▁caffeine
▁metastases
▁dosage
oping
duce
tioned
▁(22
▁0.88
▁gly
tisol
icides
otri
▁revised
opausal
0.6
olones
▁Diets
farin
5]
▁0.72
▁12-
gesic
66
▁homocysteine
▁170
sibility
▁87
ller
▁simvastatin
▁Somatic
▁32%
▁depressed
▁bacitracin
kle
▁glycol
atectomy
▁Fib
▁CDC
▁0.74
tosis
▁18%,
▁decreasing
▁Trial
▁alumin
▁6%,
lamyd
▁mandatory
specificity
▁oste
▁antihistamines
vements
▁injur
▁aging
▁Increasing
23
▁electr
▁IBS
▁surveillance
▁patella
1:
tents
illary
▁PTS
▁modest
▁yielding
▁polysomn
▁theore
otherap
▁1.33
sul
▁tolerated
7.
▁fulfill
▁4.1
gA
ffinities
itamin
▁cere
▁awareness
kage
gestation
2.
▁regurgitation
▁biop
▁(10%),
95
▁matur
-96
▁bleeding
▁tubes
▁tooth
▁0.19
▁Leu
mur
▁concentrations
▁aden
▁trends
teroids
▁42%
▁tolerance
etence
▁abd
▁0.21
5/
▁Caucasian
▁(0.
ociation
▁incis
disciplinary
▁Formal
61
▁panels
▁Alz
▁Individ
▁cultures
▁myopathy
00)
▁antibiotics
▁aneurysms
▁saturation
▁0%,
▁oint
▁Randomized
▁immunos
▁amenorrhea
ixime
ficial
ecal
▁bone
▁regurg
opathological
▁bab
opramide
▁ceftriaxone
▁superficial
osyn
▁0.89
99
orh
-2.5
nals
▁33-
▁adversely
▁argues
FSH
lobulin
▁halves
▁internists
▁17.7
▁hypot
▁cosmetic
▁LT
▁(75
▁seronegative
▁grades
ventive
▁presenting
resist
▁Aspirin
▁ecological
▁0.016
▁thirds
▁insurance
igible
▁Nutrition
erver
▁imaged
▁88
oprolol
▁quanti
gative
▁comparative
▁triad
anic
biased
.1
▁Calc
uscular
▁plaques
▁deliveries
▁1.4%
▁CAP
▁hydrolysate
▁11.2
tensin
▁horm
throm
▁1.08
ROS
▁antagon
▁participant
▁demonstrating
ffin
▁micros
900
▁uterus
▁negatives
uracy
gm
▁minocycline
▁ultim
▁genit
▁hemochromatosis
ifedipine
▁0.56
▁plas
▁Eye
▁OB
▁Diabetic
▁Framingham
xate
ALT
▁atypical
▁4.
▁reveals
acids
▁adop
▁inflamed
▁2.4%
oplasm
▁67%
mong
ituit
mol
▁qualitative
▁shedding
▁defecation
▁anticoagulation
▁(31%)
▁30-
pir
▁anxiety
▁Apgar
▁560
▁252
▁irregularities
▁reviewed
▁persistently
▁qualitatively
bronchial
▁referral
▁conflicting
rents
▁cough
▁Secondary
▁nonspecific
▁psychiatric
ecutive
▁pancreatitis
▁repl
-400
▁immunobl
▁(93
▁knees
ispanic
1.1
▁78
-1.8
▁metformin
▁Epidemi
tection
▁8%
▁efficac
▁Thirty
▁ventil
▁Authors
cysteine
▁calories
▁antidepressant
▁24
uric
▁39%,
▁incid
lys
▁MCV
▁(18%)
▁recordings
▁elec
▁4).
cephalic
measured
▁(7.4
15
▁autosomal
▁anticoagulant
▁questionnaires
▁unaffected
▁newborn
edle
ylase
▁influenza
NIDDM
▁antioxid
NSAID
▁histologic
▁80%
▁dyspepsia
▁discriminate
naud
▁nephropathy
-4.5
phetamine
▁pollic
▁VT
▁lessened
▁obstruction
▁(63
▁poorly
▁82%,
skin
erating
▁intrauterine
56
%),
▁trunk
gement
▁19.
duc
▁intub
▁hydroly
ressed
▁Compared
ocin
operative
.4%
▁zinc
methyl
1-
weigh
PEG
ercise
▁sulfoxide
sched
▁itching
▁TC
acer
otrexate
▁symptom
▁44%
▁apne
▁vasoconstric
▁Systolic
▁sulfate
gesterone
yocardial
▁7.7%
▁95%,
21
▁drip
▁prognostic
▁142
▁49
▁pancre
▁uter
▁14%,
eces
▁agonists
▁prevention
▁angiography
▁surge
▁syndrome
▁compartment
▁99%
▁14.5
▁0.82
▁atyp
zoster
▁rati
▁abortion
▁Meas
15).
▁awake
titut
▁kidney
tite
amily
▁answ
▁prostatic
▁14.8
▁cysts
▁colleagues
▁strongest
▁LV
▁induration
▁plantar
ionine
olpidem
▁slowed
▁wake
▁satisfactorily
▁retrospective
oronary
▁resec
titution
27
▁aids
0.7
▁mellitus
▁electrical
▁ppm
oxetine
otassium
5-0.
▁2.7
▁47%,
▁132
toxic
CDC
▁tertiary
idic
▁antipsychotic
▁manifested
▁MRSA
▁2.3%
examin
▁antagonist
▁strain
▁crom
▁7.5
49
orsal
osac
▁mononucle
▁trauma
▁comprised
▁couns
▁shor
▁EST
.3%
60)
▁covariates
/10
▁268
fied
▁depression
▁metatarsal
isal
▁10.4
ulin
▁(78%)
▁74
ferrin
25).
vation
irubin
-35
▁STI
olec
ardia
-22
▁biopsies
▁Progression
▁subfractions
itriptyline
▁uric
0%;
▁nons
▁carcinomas
▁106
▁decreas
echanical
▁biochemical
itoring
▁33%
▁(7.2
▁pharmacokinetic
▁substanti
▁renovascular
emory
conventional
▁inadequ
▁noncom
▁3,
lovir
▁elevated
8;
ticular
▁3.5%
▁inappropriate
verbal
anate
contrast
gely
3-2
▁OD
temperature
▁4.7
plo
▁ejaculation
odopa
▁thromboembolism
DNA
▁tube
uality
▁292
▁attitudes
/9
▁ingestion
▁modif
▁perforation
osclerosis
▁chorio
▁Invent
▁schedules
▁lowers
▁1.42
reast
▁cefaclor
iasis
tional
▁59%
▁conditioning
osol
▁tuberc
rhea
▁recr
▁measuring
▁predis
▁(300
▁examined
▁4.9%
▁deposition
▁1.5%
▁(20%
▁treating
hydrop
(0.
athioprine
trum
▁variability
▁Available
▁randomized
▁ascertain
▁hemorrh
▁HBs
icated
▁shaft
52
onidine
▁60-
▁(58%)
6;
▁magnesium
▁oxytocin
▁palpable
ortic
2%)
▁illness
▁medications
.1,
uminum
▁interestingly
encephal
osite
ocalization
concentration
Hep
▁sulf
▁mite
.8
▁89%
▁promin
▁contraceptives
▁Combining
▁neutralizing
▁309
▁ipratropium
▁-2
-78
▁(5%)
▁ACI
"-
▁injections
▁veins
tening
tions
▁0.78
oglobin
▁vegetables
▁TP
▁unc
riages
▁1.36
▁nasal
▁lumbar
▁weighing
▁55-
rogesterone
▁succin
▁abbrevi
thrombotic
▁75%
▁Secretory
69
▁cure
-8,
▁folate
▁acquiring
▁0.26
▁ischemic
▁8.3
▁exhibiting
acute
▁microscopic
1).
▁labeled
▁(33
pain
aryl
▁164
3.
GH
▁potenti
osteroid
▁strengthening
▁10%
immune
▁laser
▁sexually
▁biopsied
progestin
▁oss
ophila
▁sensitivity
tually
▁endocervical
entile
difference
▁modestly
:30
razole
▁transit
0.9
▁Systematic
iplinary
▁81
▁therapist
▁euthyroid
▁ventilation
21.
▁58%
▁irrig
osporin
▁fluoroquin
▁initiate
oselective
▁malaise
ronch
▁therapists
9%
▁investigations
nowled
Gy
tice
▁postmenopausal
▁HP
-34
▁duodenal
▁hypos
etine
▁miconazole
▁1.35
▁90.
77
▁androgenic
▁100%
▁bedtime
promoting
▁171
amicin
▁alginate
▁sha
vastatin
▁daytime
20
▁Dental
▁Incidence
oligo
▁babies
▁medication
▁diabetes
▁Significant
▁examining
▁pant
▁benign
▁pregnant
0),
▁6.5%
enicillin
▁bipolar
▁pneumococcal
odds
▁(11
being
▁triam
▁chlorhexidine
▁wards
▁torsion
▁(36%)
anine
▁antigen
▁withdrawal
▁familial
▁acne
▁impaired
▁mIU
▁practiced
▁colectomy
▁uterine
▁underway
▁1.21
▁achievement
▁examin
▁solely
▁cen
▁triglyceride
▁plasma
yridine
▁Eleven
▁deform
jun
▁(2%
▁pyl
otre
▁metic
▁Topical
ologists
▁(6
density
iron
▁metoclopramide
▁metatar
▁0.20
istar
osity
eclamp
glycoprotein
▁lactulose
ritis
▁pelvic
oprost
▁sedimentation
▁20
▁reliability
▁endarterectomy
▁hypothyroidism
▁HDL
55
▁subcutaneous
phil
ventricular
▁(30
lipid
▁improving
▁13%
▁predic
amuscular
▁122
athy
▁psor
olysis
▁transcription
▁evacuation
71
▁SG
assessed
▁urgent
▁reactions
▁2.5-
▁thromboembolic
▁evolved
▁prematurity
▁contributing
ecu
▁(15
▁electrolyte
▁RS
enil
▁Combined
▁hypox
choles
▁0.18
trogen
▁BMI
▁0.6%
▁dimethyl
233
oprol
▁positives
rocyte
▁10%,
▁1.06
▁fibrosis
NIH
SMR
▁anticonvulsants
within
▁2.1%
enteric
24
▁macros
▁pea
▁TIA
dered
▁interacted
▁testicular
00
ealand
RP
▁ureter
turb
distal
trical
fractions
GI
▁affects
▁progestogen
▁microorganism
itudinal
▁1.03
▁reproduc
▁donors
▁estrogenic
37
▁leukocyte
valent
▁amputation
▁(33%
▁acids
▁100-
tronic
▁placenta
ylic
▁circumference
▁juvenile
specified
▁0.07
▁stepwise
▁embry
▁Hb
▁weakness
▁Mild
▁50,
▁antisecretory
▁81%
6),
▁bacteria
▁5.6%
▁1970
▁oximetry
▁psychopathology
adenoma
▁nonselective
ococcus
51
yroxine
▁22
▁curet
▁rifampin
▁thyroid
ulum
▁abrupt
tomies
myocardial
▁methodologic
regn
▁habits
▁0.2-
▁exposures
oscopic
▁androgen
▁enhances
▁1.9%
▁multic
▁microbiologic
▁Veter
ectable
jected
▁41.5
▁56,
▁proximal
▁relaxants
taz
urther
▁moderate
▁rupture
adrenergic
▁stom
ositi
amid
▁indus
▁spine
▁NP
▁Symptom
▁manu
▁Depression
▁(1%
▁(0
▁experimentally
▁discriminant
▁(1.3
▁clinic
oidal
▁oxygen
▁kidne
surgical
uris
▁18
▁ultrason
itone
▁stimulus
▁secreted
▁irrigation
▁exclusively
▁(1.5
BG
oxine
▁enteral
▁ADA
3)
ologic
▁blu
15)
▁retrospectively
▁16,
▁0.7
▁biases
mild
▁throat
▁synthetic
▁155
▁stratification
▁bottle
omyces
tiv
▁mec
▁(50%
bac
150
ignificant
▁(1.2
▁accep
▁pyrid
▁monit
▁antimic
▁contraction
directed
▁unex
albuminuria
▁discontinuing
yclic
acies
▁43,
tially
▁analys
irds
▁108
afe
ritical
▁introducing
alic
8]
ergy
.0
orectal
▁Efficacy
▁tracts
▁10.5
ontal
▁chloramphenicol
▁evaluating
▁pediatric
▁saturated
afibrate
▁Epidemiological
▁cutoff
▁critically
68
▁10.
▁cerv
entral
▁antibodies
▁fourteen
15.
trol
▁conjunction
parous
associated
casein
aning
7%)
▁psychosocial
▁nerve
▁dips
▁0.43
▁fati
omotor
▁enzymes
▁ester
▁4.0,
▁flexor
▁Leuk
▁brevis
▁resection
▁43%
▁structured
▁fruits
▁19
intensity
▁contraceptive
apid
biotic
▁termination
▁COPD
▁spacer
▁obstructions
▁(95%
eeding
vaginal
obl
▁indoor
▁regimen
essment
▁glucocorticoids
entical
▁exagger
CAH
▁inhib
▁Subjects
▁stools
▁sput
ignific
▁mcg
▁312
▁conjunctivitis
▁182
2.2
apse
LG
▁conclusive
aicin
orable
▁deviations
▁hemorrhages
▁teratogenic
▁vigorous
(4
icit
osomal
▁35-
ergenic
43
▁SMR
▁eliminated
▁bumetanide
uppressed
▁suction
▁ventilator
▁lipoprotein
▁0.24
▁IUD
▁cardio
RCA
overall
▁scl
▁5.3
▁0.98
▁Evidence
responsive
▁1%
▁Nine
rolog
▁mann
▁suppressive
▁107
▁flunarizine
ymmetric
▁tricyclic
▁75%,
tinent
▁supplements
▁99
azin
histamine
ycl
▁1.6%
▁dysrhythmias
▁cef
▁1.00
titutes
mediately
3.1
▁suppressed
▁(75%
▁manifestations
lod
▁Factors
▁70%.
▁intrac
▁20-
▁0.5).
▁latent
▁(67%)
▁0.63
▁44-
ropath
▁glucose
promazine
Ti
▁thrombo
▁Prac
▁constituted
(6
ulcer
▁adver
ionate
organisms
insulin
sored
▁2.6
▁Grade
-45
alsy
▁prolonged
aemic
▁76
▁grise
▁progest
▁surf
oxide
▁MRF
▁Enalapril
▁antis
oconazole
▁peroxide
▁0.05%
▁hypotonic
▁genital
-79
▁methadone
2/
▁identifying
▁-0.7
vus
hypertensive
▁Afric
achnoid
▁(62
PV
▁1989
oxic
ortal
unctional
thmatic
▁clarithromycin
▁phon
▁epidemi
▁neurolep
▁tox
/18
▁Statistically
tiz
▁confine
ycardia
▁pneumon
▁exudative
LTS
yste
▁focusing
onor
▁morbid
▁sampl
years
▁1.2%
ixation
,000
▁increas
▁manufacturer
▁0.7,
▁Progesterone
tivity
▁83%,
▁(16
▁reser
▁hypokalemia
▁1.56
▁ultras
-2.2
▁overestimated
▁wash
▁(3%)
▁chan
▁pituitary
itively
trimester
▁screened
▁analogue
▁invasiveness
HDL
▁proton
respectively
▁Comparison
44,
▁4
▁meniscal
enec
▁underg
aryngeal
▁0.2%
▁stratif
▁atrophy
▁normo
astatin
▁pharyng
▁145
▁carp
▁excessively
▁(69
▁stenosis
adily
▁inversion
ughters
acerb
sess
▁fec
▁norfloxacin
hap
▁bilirubin
chond
▁conduc
lact
▁cytoch
▁(89
▁adiposity
▁distinguishing
▁mucos
omann
▁urtic
▁psoriasis
▁percutaneous
xide
leukin
tolerated
▁FEV
▁490
ophen
mum
orrheic
▁Sixty
-3.5
/1
▁1.5
▁therap
▁investigated
cholesterol
▁Reduction
tizing
oscop
EMG
▁0.84
▁7.8
32,
▁allele
▁uniquely
▁61
▁psycho
opic
opulation
arent
▁disadvantage
▁saphenous
tate
▁333
▁83
omatic
eclampsia
luding
anese
▁migraine
▁0.12
itness
▁CIN
▁affecting
tensive
▁1.
▁normotensive
isol
5);
primarily
sar
▁pulmonary
ropathy
iaz
▁clinics
▁Streptococcus
.2
▁articular
▁12.
▁lability
▁ingredients
▁60
▁dilatation
▁30%.
-3
▁79%
▁(2.6
▁0.65
neph
▁heterogene
rosis
▁weakly
▁Eff
▁dye
proved
ternational
-1.4
othyroid
▁Cooperative
▁(4.0
▁anes
▁visiting
▁parac
▁exag
▁considerably
oplasty
▁cartil
▁characterizes
ecretory
ithm
▁relaxation
meas
▁preven
vein
identified
▁(47
▁cream
ecre
atisfaction
▁decarboxylase
1.5
▁surgical
▁surrogate
▁experim
▁enlarged
5),
ocortic
ovastatin
▁15%
inating
cros
▁6,
osyl
▁insol
▁albumin
▁percentages
oids
▁Combinations
▁150-
▁0.06
▁fever
▁sten
timulus
▁saphen
▁voluntary
▁attainment
▁suggestive
metic
▁captopril
▁smokers
sors
▁1960
▁hysterectomy
▁157
mitted
▁70%
▁(500
▁fatty
olved
▁PCR
esic
▁sti
convulsive
yrib
tinu
▁1
▁30
▁(50%)
orbidity
▁13.
echn
hig
▁limbs
▁brisk
tensives
▁malignant
▁disabling
▁tas
▁enamel
▁(1.4
▁untreated
▁stent
▁500
▁(4)
▁12.0
▁drank
▁amlodipine
tran
▁practition
▁exis
opathic
▁Specificity
▁hydrophilic
▁doxycycline
▁hypothesize
tinguish
▁immune
▁(95
▁5-
tebral
▁susceptibility
▁postin
inoc
▁metastatic
▁tubercul
▁Centers
▁adults
▁progn
▁exten
ipid
▁430
blockers
▁paroxys
osacral
▁occlusive
91
▁vascular
▁meningitis
BH
tise
ometers
▁reversible
▁lymph
▁complications
azep
olus
FEV
▁resis
5%,
▁fertile
acted
▁uptake
-3.0
▁preeclampsia
▁92%
▁freeze
▁100,
urate
Ra
ilep
▁naf
▁pylori
chid
tic
▁mening
▁foods
▁estrogen
▁retur
predic
▁graft
▁encouraged
▁antid
▁hyperglycemia
▁(8%)
▁lumb
facturing
▁nonprotein
▁inhaler
▁sclerotherapy
▁1.19
▁nutritive
aminophen
▁certainty
▁varicella
▁atopy
▁painful
VV
▁cyclospor
▁arrhythmias
▁carbohydrates
▁endometri
tural
▁thyroidectomy
▁8-12
▁inhibitors
▁marginal
▁benzyl
▁1.24
fication
▁identifiable
sions
▁progestin
▁accounted
amet
▁6-
▁17,
▁deterior
alc
▁effusion
▁unvaccinated
▁contradictory
osamine
▁(72
▁thickness
▁(400
▁edema
▁Almost
/20
▁chorionic
▁spontaneous
▁0.29
▁3)
▁zoster
oacetic
▁awak
radi
▁3).
▁temperatures
▁methodological
▁spikes
▁20%
▁longitudinal
▁standardization
▁cyt
▁sequentially
▁GAD
▁Neph
▁pneumonia
olac
odipine
▁islet
acet
▁infants
▁Newly
vascular
▁confounding
▁(60%
ophil
▁breakthrough
▁stimul
▁(4.8
▁quantitative
▁213
▁126
▁intervention
▁200,000
,2
▁endo
▁professionals
▁thi
▁mEq
▁exudation
2]
▁preval
▁Estim
ionized
▁Thirteen
▁individualized
▁achieving
10
agonist
▁chemicals
parathyroidism
eck
imethyl
4]
aginal
▁56%
▁40
loride
▁rhythm
▁incorporated
▁(23
echan
▁methotrexate
▁(250
reement
adication
▁scarring
ophageal
BT
▁enteric
regulation
▁0.4
erent
iatic
eptide
raconazole
▁immunosorbent
▁128
▁unrel
parative
/34
▁Behavioral
▁0.67
ordination
ysts
idne
▁prednisolone
vul
deficiency
▁prostatitis
▁Consequently
▁101
929
▁gonorrh
psych
▁Infants
11
▁worsening
▁1969
▁implants
▁quantit
▁levodopa
▁superiority
CHD
▁tubercle
farction
nai
idation
▁aspiration
▁superficially
accharide
▁irritation
ectomies
amous
▁horiz
▁failures
hepatitis
▁-12
oprim
openhagen
▁multivariate
▁congen
▁0.25%
▁Extensive
▁PPV
cortisone
▁arthritis
/32
pore
▁encephalopathy
oretical
▁(12.5
▁pig
tense
ichia
▁rated
▁93
▁152
▁allergy
▁optimizing
▁warts
umerous
yroid
▁caregi
ochromatosis
▁endocrin
ufficient
▁colpos
▁nonsmokers
▁nore
ophren
▁69
▁infections
▁hyperactivity
tle
▁0.4%
▁streptococcus
▁responded
▁plasmin
▁citrate
▁0.87
ymal
▁0.40
25,
▁topically
▁recurred
ceptive
ocys
▁esophag
▁acetonide
▁lymphocytosis
▁FT
.6,
▁ech
exc
ygen
▁desatur
▁metronidazole
ordance
▁14.
ographies
▁insignificant
▁SPF
▁Melan
aund
thin
▁compares
▁FDA
▁reliably
▁0.5
▁4.3%
▁thromb
▁inh
benefit
▁5
▁anomal
▁prolongs
olam
▁usefulness
usually
▁intermedi
▁28.
▁calcified
albumin
▁6.4
▁deter
▁0.93
▁0.1%
▁277
▁cohort
▁fatigue
ritish
▁0.9
▁0.02
ithin
gol
▁75
onucle
cyclic
oracic
ostic
poor
84
▁Routine
▁serotonergic
▁obstetrical
▁blockers
▁Serum
kine
▁clom
▁ulcer
▁ibuprofen
▁salivary
BM
▁14
▁glomerular
▁angina
▁endocrine
▁niacin
▁abnormal
▁(5.3
isters
strain
▁progres
▁poin
▁definitive
adine
▁-15
▁Subjec
VAS
▁predisposition
▁1991
▁mep
▁Histologic
ovirus
Pen
▁discon
▁28%,
▁drops
▁transplant
▁(97%)
abd
▁74%
▁sati
▁diarrh
▁gyn
itus
▁supervised
▁massage
▁hyperp
▁coag
▁acad
odium
▁spirometry
▁(1.0
▁ESR
▁disability
▁salbutamol
76
▁inspiratory
0%),
▁corp
▁newborns
▁1.7%
▁Elevated
▁ribs
▁0.3%
▁249
razolam
▁293
▁(50
▁pulmon
ocardial
▁involvement
acental
▁Extr
▁117
▁adip
ludes
▁melan
▁chances
▁relap
▁HbA
▁40%.
▁hypothe
▁refractory
esity
▁swit
▁regained
▁tric
▁mice
▁juice
▁radiologists
oreal
27.
▁hepat
▁esters
nosis
▁miscar
ration
andida
500
▁antibody
Ps
ipramine
ffer
▁anatomic
▁diary
ondyl
iodine
opre
odic
▁dysplasia
▁PE
10.
tenti
▁duoden
▁leukocytosis
▁premenopausal
geal
iated
7,000
▁undergo
▁puncture
▁eligible
ilization
▁polyp
▁Gluc
diagnosis
neumon
▁295
omycin
roin
▁glomer
▁234
cessive
ucl
bic
81
▁posttreatment
▁jaundice
tally
otoxicity
▁endos
arean
▁66%
▁19%
terol
▁regulate
▁lisinopril
▁286
orotic
▁behavi
rof
▁complaint
▁8%,
sus
▁enti
▁Patient
▁albuterol
acchar
10),
limb
tam
onam
▁52%,
otherapy
▁homogeneity
▁11.
▁Injury
▁(15%)
▁insoluble
▁offspring
▁amph
▁exhibited
▁1.66
clusive
pectively
cervical
▁pronounced
▁positioning
omat
▁abnormally
▁bathing
▁tablet
.9%)
▁automated
▁(2%)
▁0.22
0,000
▁immunoblot
▁refr
diabetic
0-
▁suture
tenance
mates
▁-0.4
▁paternal
amycin
▁8.0
-1.3
5).
▁Chlamydia
iotic
▁oral
60
▁Notably
otting
▁0.52
▁systemic
▁275
▁10
orec
▁Dip
▁contaminated
▁pigment
▁absorpti
▁peers
▁implicated
compared
▁infectious
▁hypothal
inase
▁probes
▁valproic
emetic
▁0.47
▁gradual
▁microvascular
utaneous
▁uninter
loxacin
▁13-
▁obstetr
▁regimens
avail
▁hypop
▁(75%)
▁4-
ofen
▁fluids
▁(140
icacy
oxicillin
▁epidural
▁triamcinolone
▁defic
▁curric
avirus
▁enrol
▁surround
▁stres
▁atenolol
fiber
▁administered
tics
▁3.0
▁blocker
iloride
luded
▁absorptiometry
uplex
4).
▁glycos
▁multiparous
ampl
▁Protection
▁ferrous
welling
2,000
10,
tissue
▁subjective
▁dias
feren
▁dysfunction
▁270
▁blacks
23.
retin
▁disturbance
▁prophylactic
:1
▁Fifteen
urement
plemented
▁buspirone
▁acqui
▁28
▁allergic
upuncture
▁LN
angl
mg
▁Antim
▁underwent
MH
▁discontinuation
▁spon
▁symptomatic
-25
▁22%,
▁MH
▁Screening
▁modeled
▁diagnoses
▁10.0
ardized
1]
gluc
LH
stim
tively
▁blot
▁phenomenon
▁universally
osocial
▁relie
▁ket
▁drain
1),
▁lact
▁82
▁296
valence
▁7.2,
▁147
centr
▁28%
▁elemental
▁betamethasone
oes
hene
▁adhesive
▁8.6
▁beverages
alb
centered
▁unipolar
arrest
inyl
▁unilateral
ogenic
acterial
▁depressive
▁173
adox
▁thiaz
▁antichol
▁scalp
▁penicillin
▁insufficiency
▁pump
wes
▁arteriosus
onephritis
11.
▁135
▁adoption
3).
▁supplemented
▁differe
nec
▁asymmetric
▁(-0.
▁colitis
▁Mortality
opal
▁noc
▁Mediterranean
▁infertility
▁(2)
▁femoral
oustic
▁(0.5
artum
▁perfor
▁multis
tus
enan
.8%
vating
▁cuts
▁GE
▁differen
▁goiter
▁logistic
▁4.4
▁48
others
endix
▁intramuscular
trac
▁fluor
▁criterion
omyc
▁semen
▁ulc
▁addiction
▁unusually
40.
elec
ipr
increased
▁315
▁protoc
omized
▁31,
achial
ocor
▁AMA
34
▁lacks
▁osmotic
▁1983
ticle
▁glutamic
▁0.30
plas
▁rele
weighted
ifornia
conduc
▁vegetable
retion
▁PEG
▁beha
▁decisions
urgical
9-
▁tightly
▁80-
▁musculoskeletal
arental
▁(17
▁vaccine
▁placebo
▁erythematosus
▁9,
▁dementia
pli
uin
▁41
▁desm
vular
▁basal
22,
▁TSH
▁ank
merc
corrected
▁enl
57
ardias
▁electrom
▁remin
▁cruc
uation
omn
▁stain
▁1000
▁prostatectomy
ocated
▁PH
▁satis
▁malformations
▁decade
000.
▁Maximum
▁menstruation
▁contribut
7]
roma
▁dyslipid
▁needing
reated
erance
▁1200
▁Recent
▁anxiolytic
igaret
ocrin
▁hypercal
TN
▁itraconazole
cepti
odine
▁lumen
▁Prevention
▁0.00
chloride
▁coli
▁aerobic
yx
▁comprising
-9
▁statis
116
▁rectal
▁Delayed
▁1.25
▁Myc
▁stringent
idate
opian
Mu
▁ramipril
▁amitriptyline
▁sut
▁corticosteroid
romes
000
▁favoring
orenal
sis
▁revascular
▁recalled
▁300-
hir
▁technologies
▁esophagus
30-
▁(10
▁resuscitated
▁appropriately
▁disturbances
umetanide
oag
▁managing
▁polymy
▁implications
aturity
▁perception
▁kinase
oves
▁gains
tives
▁pim
▁lymphocyt
asal
▁Suc
▁hyponatremia
▁endoscopic
reatine
200
▁carcinoma
▁sulfonylurea
plic
▁deleterious
▁caro
▁heterozygous
▁elderly
▁brainstem
▁pathophysiology
xone
blood
▁-6
▁miti
llate
▁surveyed
▁0.2,
lec
▁9%
▁hypogonad
inesterase
▁ruptures
▁(84%)
▁reinfection
96
▁nervous
▁brush
▁130
dine
▁Diagnostic
-800
▁reactive
▁kinases
6.
▁29,
entified
intestinal
.5.
Rs
▁admission
▁aspirin
17
▁carbohyd
▁glycoprotein
▁3-
▁weakened
▁decayed
▁gout
▁pharmacy
-40%
▁20.
▁adulthood
▁transluminal
▁disclosed
▁voiding
▁3.5
▁hypoxic
▁adap
▁unbiased
▁5.8%
▁serum
▁6.6
ascular
ystag
▁affinities
lobin
arrhythmic
▁osteopenia
▁52
▁filtration
▁hepatotoxic
ystitis
▁137
▁(3.8
▁longus
▁allevi
▁tac
erable
▁(69%)
▁gastro
47
dle
▁Localization
ceived
▁cardiac
olone
vasive
hydro
▁1.0
▁deoxyrib
administered
cycl
pite
▁ambulation
-80
▁lupus
rox
▁serological
▁1.75
▁venography
▁routinely
atrop
▁trend
CABG
33
▁Alzheimer
▁psychotherapy
▁hepatic
▁neuropathic
eal
asses
▁96
avoid
▁UTI
5-
antoin
diagn
50).
▁dysp
▁TM
▁PPD
▁localized
ffec
▁(2),
ventil
▁unresponsive
▁cervical
versely
▁decub
atified
▁35
▁BCG
▁calculi
▁(82
▁25
▁fluc
▁drainage
▁genotypes
▁transferrin
menstrual
1%
▁undiagnosed
▁(62%)
▁fetuses
ondon
9.
▁acyclovir
▁pregnancies
▁exacerb
▁quin
▁continuously
opath
▁radiography
ressive
▁0.76
▁uni
▁formulation
▁iden
▁stu
▁preventive
ocytes
▁granulomas
estive
/12
▁nonsurgical
▁adi
▁9.7
▁nonsignificant
ronchial
▁EE
▁sham
▁perin
0%)
▁15.
▁(1),
▁0.71
allium
controlled
▁contracep
▁343
-7.
torchid
▁102
▁Copenhagen
▁3.1
▁hemoglobin
▁(41%)
▁cellul
▁intrapartum
▁influenzae
trial
▁adenocarcinoma
▁excessive
▁emissions
▁wk
▁reactivity
ipro
ocarcinoma
relaxation
idespread
LDL
▁fibrillation
published
olution
▁effec
▁BV
tum
▁enlarge
opathy
tisone
▁229
▁Magnetic
▁rigorous
▁nondis
▁testosterone
▁tes
▁punct
50/
▁prophylaxis
▁1.10
▁metast
▁attendant
▁glucosamine
▁systematic
▁0.95
arous
▁fractures
▁indo
genital
terone
▁leukotriene
▁psychological
▁280
▁0.35
▁Preliminary
▁IgM
▁nodules
esium
▁visits
initiated
85
▁Rif
▁Included
▁mast
45
▁PSA
orrh
▁outflow
