erance
inum
▁10.7
▁349
▁4000
▁IBS
▁fibrillation
▁jejun
11
▁sequential
▁underst
▁thalamic
▁hydroxylation
▁ultrasonography
▁9,
▁nascent
▁absorpti
▁clom
▁covariates
▁hemisphere
▁prolonged
▁intercal
▁opioid
▁obstetrical
atriptan
▁PEFR
Lys
▁adjustment
▁allergen
▁adriamycin
▁CDC
▁29%
▁NP
▁illus
▁inducers
anthine
▁3'
▁cephal
kinase
approximately
▁GMP
oyl
▁carboxylase
▁chemo
▁limb
▁encephal
▁periodontal
▁DMBA
▁NADH
▁glyc
▁8.4
▁biologic
▁collagen
▁cochle
▁experim
▁localization
▁malignant
lac
peak
▁anomalies
▁(71%)
▁exhaus
▁exocytosis
difference
▁neoplasm
▁LTC
FU
▁trache
pendicular
▁coded
▁systemic
▁potentials
▁Parkinson
▁anesthetic
▁EPSPs
pig
▁malarial
adone
▁98
▁bic
▁trypsin
▁Experiment
▁Consistent
▁1.2,
fluoro
▁parie
rogenic
▁biased
▁cysteine
▁0.005)
ivacaine
titude
roglobulin
▁78
▁Preincubation
traumatic
▁myotub
▁strokes
▁invasiveness
▁RS
▁fungus
▁cofactor
aethylammonium
▁residue
▁DCA
▁fron
▁oocytes
▁pec
▁BMD
othi
30)
▁lymphokine
▁LM
▁accelerated
▁latency
▁MCI
atonin
88
idated
▁PBMC
▁quantif
▁Eco
▁mucosal
▁interpretations
▁bismuth
ischem
▁Lyt
▁1.4-
herence
antial
▁fasted
operiod
▁replication
▁objec
tokinase
uran
▁kilobases
▁thromboemb
▁fistula
▁sodium
esin
▁cytochalasin
▁antiviral
olymer
▁heavi
imid
▁gland
▁7.5%
▁900
orrhage
▁oss
▁extre
▁infants
assium
▁arthro
acements
rene
▁secretin
▁Rates
sisted
▁ventil
ocytochemistry
▁EIA
pain
▁neuropil
▁ineffective
▁assessments
12
opian
Rs
▁irradiation
▁Biopsy
ximide
globulin
▁KD
▁maxillary
▁innerv
▁serotype
pontaneous
▁oxalate
▁pressures
▁pathological
▁antichol
▁31%
osylation
venty
▁cystitis
ensin
▁sensitiz
oproliferative
▁osteopenia
▁Neuro
(2-
▁precipit
▁flas
-5'-
▁expiratory
▁aneurysms
▁correspondingly
▁Doses
▁dialysis
▁prostacyclin
▁rRNA
oxone
▁antinoc
-8-
▁IUD
▁nutritive
▁constric
▁Whole
▁[(
16
▁allografts
▁circulatory
atent
▁dib
▁antihistamines
13.
▁esterase
▁Kinetic
▁triam
rography
ionyl
▁dextro
tracellular
▁skinfold
▁organs
▁Simult
▁Recom
▁expressing
amide
▁phyto
▁morphology
▁3).
▁melanomas
▁antagonist
▁nasopharyngeal
▁blotting
▁attendant
▁averaged
▁cyclical
isolated
▁esophag
-18
74
▁weaning
▁ICa
▁influx
opam
lycemic
tagog
▁(85%)
▁hypothetical
▁reflex
osol
▁(1.25
▁restor
▁2),
▁thrombin
partic
-1.0
▁4.7
▁3.7
▁centr
▁calibr
▁neurogenic
▁bromide
/9
placebo
amyl
ostat
parag
▁expenditure
▁practitioner
▁stimulatory
▁relapsed
ections
▁7.0
▁psoriatic
entile
▁uncommon
acquired
▁MCF
▁goats
▁hydroph
▁Recombin
▁dyspnea
▁pulp
▁expresses
tiv
▁adhered
▁proges
ucleotide
▁CN
reflex
▁Few
▁ACh
lactams
▁oxidation
▁aneurys
▁chromium
▁insufficiency
9,
▁53
tection
▁wheezing
▁clamping
▁pravastatin
▁nonsteroidal
▁paradigm
▁postnatal
▁friction
▁(1:
▁ligament
▁promp
▁(40
▁immunogenic
inesterase
compared
▁lactate
▁elong
▁phrenic
▁detachment
▁sugges
▁relap
▁135
▁prognostic
▁uncoup
▁CAT
▁opioids
▁6-
▁keratin
opolysaccharide
77
endothelial
omethacin
▁GSH
ventricular
tality
+)-
roth
▁categorized
▁33%
ongest
1-4
▁blockade
▁IgM
1210
▁OH
umping
enzymes
+,
▁epididymal
▁anticonvulsants
▁transmitter
▁pyrimidine
emius
lycemia
▁4.9
▁4.8%
▁vagal
▁clearance
osyl
▁incomp
▁antifungal
coated
▁modulation
▁rearrangement
▁potentiate
ytoin
▁Sodium
operoxidase
▁enamel
▁67
entanyl
▁palsy
▁rats
▁pelvic
▁arteries
▁(150
▁progenitor
▁hybridomas
cine
arthritis
▁mucosa
oride
▁migrate
tide
▁51%
▁unchanged
▁cesarean
▁enteral
hydrox
▁typhimurium
▁citrate
▁irreversible
▁37%
▁severity
▁predictors
▁bronchodil
▁[3
▁forskolin
substituted
olase
▁1.32
▁LT
▁0%,
▁diaz
leu
▁sugars
▁spasm
affin
▁radiography
▁searches
MuLV
▁86%
ophyll
▁valve
▁immature
mandibular
▁Transi
altered
▁histologically
▁1979
▁enanti
▁subdural
▁histopathologic
▁latencies
▁43
-30
oblas
▁invariably
▁topo
lavicular
▁cations
trimester
ausea
▁intram
▁granulosa
▁96
▁5)
▁Benz
▁239
teine
ococci
▁disposal
▁25%.
▁intran
-7.
▁tas
▁eryth
▁(72
▁photoreceptor
▁spectrometry
uates
▁differed
▁intubation
▁investigators
▁metaphase
▁Willebrand
therapy
▁titres
▁distor
menopausal
▁stringent
-2)
▁distorted
vaccin
▁inser
emble
▁oligonucle
▁otitis
▁precursors
▁passages
fal
BK
▁mitral
▁sulfonylurea
▁biosynthe
▁1.16
ziness
mole
▁6.9
ganese
▁immunore
risk
▁Duc
▁psychomotor
▁0.05
▁TPA
▁progestogen
▁dialysate
PMN
ogenicity
-1000
▁anion
▁libr
▁elas
acti
trating
ivation
▁(75%
▁unde
▁hypogonad
Fc
▁Exposure
▁(19
WBC
uebec
▁Adequate
▁lymphocytosis
mRNA
▁sphe
osac
937
▁0.90
▁proteolytic
▁11
▁genotypes
▁progesterone
▁deli
27.
▁proliferating
▁coh
▁prospectively
▁negatives
▁(6
▁acidification
tetrahydro
▁21%
▁coordin
molality
▁lec
▁selectively
▁ulnar
▁gestational
▁antimic
phic
vix
▁deterior
▁cereb
▁(28%)
▁instability
▁dosing
▁behavioural
▁exon
pont
30
▁CST
ANP
▁SIDS
Gal
▁perce
▁infarction
▁(1.9
▁myeloperoxidase
▁1988.
▁meticulous
▁lesion
otonic
essel
▁reticul
▁decarbox
▁arterio
▁superimposed
administered
▁adenocarcinomas
▁preincubation
▁dobut
▁peritoneal
▁dendritic
▁indicators
criptional
-1+
eptin
▁ductal
▁differenti
uestion
.2
retroviral
▁transmembrane
▁interneurons
ospinal
▁Purkinje
▁transiently
olarization
hesus
▁1.
▁Candida
▁amplitudes
▁0.001).
▁inoc
▁stimulant
▁compe
uctose
▁39,
▁Sequence
▁(68%)
▁ulcerative
oconstric
onegative
▁visualized
▁homogenates
loxacin
▁leukotri
▁unreliable
▁Experim
CHO
atibility
▁monovalent
▁cataly
▁catalyzed
▁Statistical
▁cyclooxygenase
-3,
▁detergent
▁17).
roin
renic
▁observers
oscopy
▁Hispanic
▁satisfactory
▁(500
▁Calcium
▁osteoporotic
▁obser
▁(29
▁predictive
/1
▁constituents
▁lys
▁amniotic
-4.5
ospecific
▁nutritional
rophilic
▁hepatoma
ographically
▁olig
▁Mortality
▁Rif
▁polypeptides
asal
▁intracoronary
▁doses
▁recr
▁ASC
ixation
▁fibres
▁adrenaline
baseline
-33
▁Incubation
thmatic
orac
cytosis
▁lowers
▁bumetanide
▁tumor
truction
▁Effec
▁marketed
▁sensitization
▁perikarya
▁MAO
▁0.001)
▁133
▁explants
▁deposited
▁myelinated
2).
▁proliferative
▁thromboembolism
enia
▁Cardi
▁microscopic
GlcNAc
glycer
-50
120
▁dehydro
▁incontinence
years
▁ICU
▁efficacious
▁Ery
6%
7,
▁neuronal
oglob
oblastoid
occlusion
▁snoring
▁arthroscopy
▁impair
onary
▁photoperiod
-2.4
zotocin
otrypsin
▁83%
17,
▁10.0
▁globulin
.8%)
EPO
▁ketanserin
8.
▁inhibitor
▁disseminated
▁75%,
▁carbonic
pressing
▁157
▁TMP
▁naproxen
▁Continu
1.
▁mitogenic
▁extremity
▁potency
▁70.
▁(2.6
aminated
▁adop
▁Patients
▁downstream
▁1.21
▁nifedipine
▁seizure
▁laboratories
▁afterload
▁Chlamydia
▁diabetic
▁0.58
▁Systematic
▁proteoglycan
▁BV
trogen
▁FD
▁15-
▁tetrac
▁Reflex
▁adhering
▁avail
▁eosin
▁coincided
▁arteriolar
▁GI
▁synergistically
▁enzymatically
▁urtic
▁BALB
rowing
teroid
ayed
nithine
▁42%
aceous
oreactivity
izin
essional
▁acad
rometry
▁glomeruli
fine
oproterenol
▁injected
▁competence
oprol
estive
▁forsk
Bs
▁ascorb
▁ciprofloxacin
▁dexamethasone
erule
choles
OA
traum
ophor
▁sati
sulf
▁antacids
▁LVH
▁gangli
uality
▁dementia
▁positioning
26
▁stripe
-72
▁0.66
▁chym
titut
▁Interestingly
▁hyperbil
▁Lactobacillus
▁(250
▁causation
▁Metabol
aterals
▁apolipoprotein
▁0.8
▁77%
othre
-1.6
▁hypercal
▁absorbance
▁diverged
oskeletal
chool
▁0.005).
▁ventilation
ografts
14
7%
-19
▁postinjury
▁microsomal
36
plementation
etween
/32
▁eosinophils
vice
admill
▁perfor
▁49,
otherap
▁42
▁13.2
▁codeine
▁genesis
▁germinal
▁9
titution
teria
ymptomatic
▁HPLC
▁1
ioid
▁rearrangements
CBF
onor
20.
▁kidney
▁monocytes
▁scle
▁presently
econd
▁4
▁inactiv
▁Inte
ficial
▁Stroke
dip
▁0.01).
tipation
▁47
▁glomerulopathy
▁microtubule
smokers
▁amel
▁topoisomerase
▁(1990)
▁0.09
sul
adjusted
reducing
▁nonlinear
▁acoustic
▁islet
▁11.8
8%
▁0.01,
arbonate
▁2.3%
guan
75
▁transpos
mented
indings
▁Diagn
▁mimicked
▁(97
▁inflammatory
▁Alzheimer
▁bipolar
▁26.7
▁adenosine
▁antagonized
▁scintigraphy
▁hypogonadism
tensin
▁tuberculosis
anate
orating
rati
▁undergone
▁menstrual
▁homozygous
amylase
▁infiltrates
▁0.69
▁microtubules
▁nociceptive
▁vomiting
▁endoscopically
pharmac
▁fibronectin
▁Tric
chloride
vember
/10(6)
▁dissolution
▁HLA
▁myogenic
▁atopy
▁interf
urban
ubular
▁nausea
▁(0.4
▁carpal
▁Formal
▁22%,
▁FU
▁histology
gment
tential
▁metatarsal
glyc
olesterol
▁athle
▁viral
▁optimally
chlo
▁ICI
▁64%
examin
enoic
▁confluent
▁unbound
turing
▁postural
ivac
▁Angiotensin
ionine
▁argues
trac
icacy
▁3000
▁summarized
phosph
renol
▁oxid
▁nitroprusside
lactam
▁cholec
apanese
trin
▁Dietary
apine
omerular
▁progeny
▁12%,
▁lesions
alp
▁attenuating
tives
▁(5.8
oprote
▁intake
bumin
▁gonococcal
▁dor
utyric
▁renin
▁(3)
▁LMWH
▁worsening
▁(24%)
NB
oretical
▁docum
5%
▁resemb
Rb
folate
▁grafted
▁evolutionary
▁FITC
▁infil
▁actin
▁overload
galact
ughter
adication
▁exceeding
MV
▁7%)
▁vitre
entia
▁Ade
amphen
ocortic
▁antiser
nowled
▁pineal
▁ascites
▁(63
oxine
▁behavioral
▁randomization
detection
.7
▁0.05),
▁ecological
▁daltons
▁diarrhea
▁0.79
▁125
▁prostate
choline
astolic
▁methodological
▁24-
▁2)
▁plaster
▁msec
/5
din
▁practic
▁granular
▁15.8
IDDM
▁melatonin
▁factorial
▁ribonucle
▁inoculated
▁macropha
▁staphyloc
thymic
olated
▁prevail
▁nodal
enriched
▁6)
productive
▁HbA
▁exag
▁penile
adrenoceptor
▁quinidine
▁actinomycin
▁(7.4
▁singlet
▁translocation
▁bacitracin
olus
▁80%.
▁desatur
▁hapten
▁afl
ginine
▁intermittent
2+,
▁nonex
▁exogenous
▁590
▁peri
▁192
▁computerized
opo
omyosin
▁1.42
▁myocardial
amethasone
achn
▁leuk
▁cationic
hep
▁inositol
aem
▁alteration
▁284
romedial
▁restenosis
▁retrograde
▁100
▁Esophageal
▁atrial
▁plateau
ubertal
fron
odic
▁anionic
▁(5-
▁strips
osum
53
▁midazolam
▁130
▁tec
▁coeruleus
▁agglutination
▁glycer
▁augmented
▁intraocular
▁CGRP
▁arrhythmia
▁0.04
▁CAD
▁DBA
▁recipients
▁Complications
▁characterizes
00,
▁Fluores
▁ADH
▁32%
▁exacerb
▁hyperplasia
kDa
▁propria
osomes
44,
▁magnocellular
▁consul
▁septal
▁0.02).
▁preserving
regulation
▁antagon
▁neuraminidase
orbid
tember
▁livers
▁condensed
3-
▁eicos
▁vaccinia
buride
lebrand
ervical
▁Nineteen
amate
▁8.9
▁psychopathology
oxyp
▁(72%)
▁pati
▁gynec
▁intrapartum
▁epithel
▁intral
▁25-
▁mec
-600
▁7.5
oneu
yrox
▁confers
▁symptomatic
▁preferentially
ietin
▁PCA
▁endotracheal
rophyll
▁merit
▁IFN
▁tracer
phorbol
▁dialys
▁164
▁forearm
▁Thr
▁IgE
▁benzyl
▁superfusion
apride
▁1/2
▁Tx
assay
▁phagocytes
▁clearances
itonin
molecular
ithm
/10(
▁uncomplicated
spective
▁1991.
cholesterol
7.
tryptamine
▁crossover
▁tryptophan
▁000
▁cadmium
▁splicing
▁Muscle
▁56%,
▁pyridoxine
▁246
▁6.2
▁prostheses
▁visceral
▁pentobarbital
erin
+/-
▁intox
0).
▁bactere
tron
anyl
rescine
▁hydrolyzed
▁oligodend
onin
▁endoscopic
▁Ringer
▁11.5
▁noradrenaline
opulmonary
▁fractionation
.7%)
▁inactivation
▁pren
▁Epidemi
cotic
atif
▁deviation
▁25,
▁1.13
-8,
▁ovine
himbine
▁diarrhoea
microglobulin
▁(70%
ensitivity
▁densities
epsia
tant
▁polymers
physiologic
EDTA
osage
▁assesses
plasty
▁tric
assi
▁antibiotic
otox
▁secretions
▁exudates
idespread
▁17.
-0.
▁321
▁oste
▁hemodynamics
▁hypon
▁TIA
▁ventilatory
aldehyde
▁clarify
ochrom
▁12-
▁slows
urin
rophy
oblastoma
▁acute
▁antip
atening
▁angiography
Au
tention
olon
▁structurally
alas
▁faecal
▁crystalline
▁encompassing
-800
alcip
rogenase
▁epithelial
▁uteri
▁constructs
valvular
obarb
▁guanosine
▁perinatal
▁chorionic
▁sporadic
▁pyl
cis
▁corneal
▁reas
▁0.52
▁descrip
aryngeal
▁RR
gonal
▁proteoglyc
▁catalytic
▁(1000
amisole
▁xyl
▁1,000
▁ultrastruc
▁apical
▁nitrous
▁adduct
graft
anis
▁oxytocin
opa
termined
▁estrus
▁ergometer
▁signaling
▁hemorrhagic
▁phon
▁thorac
▁antidepressant
pectively
2]
orbent
▁comorbid
iatum
botic
▁malignancy
ocusing
▁eccentric
▁inver
▁NMDA
▁229
ophore
thel
▁Caucasian
5%.
▁unin
▁hemag
▁lymphocytic
ocompatibility
ophren
▁retrie
▁ternary
otential
▁268
▁Urine
▁esters
▁17.3
▁cerebrovascular
limb
▁exhaustion
▁antepartum
acetate
▁menstr
▁NAD
oncogene
▁osteoarthritis
▁Acet
▁Examination
affected
CAT
odend
▁8.0
orin
▁defective
pine
opathy
idium
▁folding
▁reabsorption
sulph
umptive
▁sci
targe
▁mares
exercise
▁posti
▁observational
omatosis
ceptible
▁diphen
▁Carb
▁Pros
▁edema
▁0.45
ximal
▁ligation
▁septic
idne
▁benzodiazepine
▁127
nitine
▁hybridized
inhibitory
gangl
-40
cephalus
▁0.9%
▁disapp
▁1986
▁55-
▁TM
stim
PTH
▁attenuate
▁(82
▁40.
-0.0
▁tricuspid
▁inferred
▁normo
▁(1),
omical
rP
▁CI
▁creatinine
amphetamine
▁complexes
▁epsilon
▁catalyzes
▁infra
ositol
phyloc
▁radionucl
▁Mycobacterium
▁worsened
▁streptococcus
▁mAbs
▁erg
chest
▁rectal
▁Protein
▁labeling
▁AIDS
▁analyzing
responders
▁optimum
▁hydrophilic
▁Tris
troduction
hea
▁oxide
▁regimens
▁sickness
▁22
▁anaerobic
▁conjunctiv
(1
▁adequ
ocyanin
▁methimazole
▁microtub
kic
▁branching
affec
▁choro
Thr
▁nephro
▁adrenocortical
▁Arterial
-450
▁Oc
depr
tivity
maleimide
patients
▁Bronch
▁adipose
▁suppressive
▁pyro
▁comparative
▁immunoglobulin
▁69%
▁resis
oil
▁fossa
▁remod
esti
▁genit
sities
▁progn
▁saturation
Cer
oxybenz
▁48-
▁hepar
▁bacteri
enin
myristate
▁susceptible
▁primate
▁36%
▁elucidated
▁excreted
inol
▁reservoir
▁1990
▁intron
ullary
ystectomy
turnal
genesis
HLA
▁monocyte
fractionated
▁hypokal
atases
▁histone
lives
assisted
▁caffeine
▁27
presenting
▁intraperitoneal
▁phage
leucine
▁Infant
▁carbamazepine
▁calcified
10,
onium
keletal
▁Tryp
▁myosin
▁onset
▁anticholinergic
14).
olipid
▁retinol
▁sulfonamide
usp
▁DH
▁240
▁transcript
▁Intracellular
▁retrovirus
▁nicot
▁efferent
▁MMS
▁tran
▁immunoassay
vival
▁tumorigen
▁chicks
nitros
▁35-
▁Cox
▁Ear
▁proximal
▁mutagen
▁(50
▁scientif
▁gradual
olerant
▁0.74
cnemius
▁inh
▁outpatients
▁rotavirus
0),
▁rota
bacter
antom
▁labelled
▁replicate
▁AH
0%,
▁fused
tition
otomy
▁reductase
mend
▁amputation
▁lax
ylate
aicin
▁hemolytic
▁septum
bruary
olp
▁prerequisite
▁Chrom
▁sepsis
idation
imin
▁asymmetric
▁decreased
▁calves
▁CPR
▁terfenadine
▁phosphates
▁dosages
▁aqueous
uating
▁radiological
▁mV
▁tympan
osmolar
▁endocervical
▁Statis
▁brom
▁20.
roph
47
▁Finnish
6/
▁fractional
▁CK
otherapeutic
▁refractory
ortal
'-
▁Tn
▁globular
▁PFC
▁thal
▁subscapular
ctive
▁20)
▁(8%
gth
▁deox
ipril
1/
▁ECG
▁intimal
adal
,000
razosin
▁larval
▁compartments
atching
▁Efficacy
▁centrifug
rele
64
▁reinforcement
▁lymphoma
atches
ophysiological
▁MLC
bloc
▁infrequ
▁Leukotriene
urement
▁resol
nRH
▁pulsatile
▁seroton
incidence
▁schizophren
▁meningitis
▁nutrient
/7
▁infiltrating
▁EPR
▁pigmented
▁interacted
▁pulmon
pirone
IgA
pran
▁substances
urred
▁rodent
waves
lop
▁acces
▁Improvement
▁imipramine
vular
ALT
▁fluidity
▁reoperation
▁(16%)
▁putrescine
▁transfection
specifically
omethyl
HRP
oporotic
▁kidne
blastine
rength
mortality
tosis
▁203
▁aeros
▁balloon
▁Dys
▁1975
5).
▁differentiate
kground
urine
▁repertoire
▁mammalian
idney
▁synovial
igarette
▁supr
▁promptly
CAH
asic
▁(80
thanol
▁transi
▁4.9%
trical
▁unres
▁corticosterone
etition
-1.5
blood
▁(18%)
VH
▁adrenoceptor
/4
versity
▁strep
▁breeding
▁diazepam
▁Prospective
micro
▁proteinases
▁histological
▁chewing
atectomy
cad
▁propionate
minis
▁(7
▁remn
▁acupuncture
bromo
▁develops
▁Cutaneous
▁74
leuc
nisone
LTS
▁Mayo
arial
ethanol
Ni
▁Epstein
▁Systolic
concentration
eroxide
▁15,
▁263
entary
▁endometrial
▁AMA
▁eradicated
▁zym
dies
sulfamethoxazole
▁questionnaires
phosphor
▁208
ADP
ecyl
licular
TCA
▁clu
▁4.1
▁cardiac
▁0.50
▁0.026
▁chloroplast
▁1.5%
▁simultaneous
▁Biophys
etent
▁adducts
▁unexpectedly
tual
▁nucleotides
tened
▁physiotherapy
▁recognizing
▁intermediates
▁hypoglycemia
ogel
▁trabecular
1%
▁efficacy
▁valine
▁perpendicular
esity
ometrically
▁negatively
▁ulceration
▁activates
reased
deprived
86
▁thickening
%).
▁deuter
protein
deficiency
▁capsule
▁nitric
▁myc
▁1987
benzyl
▁favoring
▁electroph
▁0.05).
▁specification
genic
▁retrogradely
▁metabolized
▁exhibiting
▁0.7,
▁enzyme
▁raphe
obese
eration
▁Drosophila
aminobutyric
ocine
▁neurological
rinone
▁(35
▁0.03
▁(49
odeoxy
▁impulse
gradely
▁ventric
▁TATA
▁palp
▁lability
omn
+)
bacco
enic
▁substantia
▁hormones
ocrom
▁precursor
▁granule
▁initiating
▁familial
▁reduc
▁1-3
▁1.7%
▁ambul
▁alk
resist
▁lar
icardi
tructed
▁transposition
▁Maximal
▁fertil
(5
▁unilateral
▁distension
▁apop
americ
rolateral
▁-10
▁(3.0
amid
blocking
MIC
▁attenu
▁glycolysis
▁methyldopa
▁2.2
▁defibr
(-)
▁embolism
▁intercellular
opause
▁nominal
uitable
▁dilated
▁hormone
molar
▁diagnose
▁devoid
viral
▁acne
cellent
▁inability
▁6,
▁transplantation
utions
▁(89
▁mediast
tir
growth
▁5.1
oresis
▁coli
▁immunod
▁8.5,
ellum
▁Fourteen
▁accep
▁incremental
etine
▁CML
▁febrile
▁decarboxylase
ffinity
▁guanylate
lethal
▁glia
notic
▁LC
▁Magnetic
▁peritonitis
▁sedation
▁Specifically
▁spre
▁ligand
olesterolemic
▁35
▁classify
▁antral
2(+)-
▁(36%)
▁synap
▁9)
▁650
▁preliminary
▁1/
ophy
▁PAH
▁ganglionic
▁MIC
▁relapse
▁PDE
▁titers
oides
▁brachial
permine
etan
▁attenuation
▁superim
▁centres
ialysis
proteins
ustained
ypical
1]
▁Sensitivity
▁ureter
▁8.7
▁antis
hexyl
▁individualized
▁Tissue
▁5000
▁promin
dg
▁stratified
usively
▁frontal
▁biochemically
▁0.36
▁hyperactivity
▁leukemic
dor
▁MRSA
SEM
monitoring
▁2.5,
achid
urgery
erum
dil
▁miconazole
▁0.47
restricted
▁plaques
gression
alan
▁criterion
gthen
▁0
▁substitu
▁empir
▁(18%
▁clon
▁kinase
amuscular
oate
▁NF
▁labelling
▁acceptor
▁Concentrations
tionally
▁enzym
▁erythemat
owever
ylcholine
▁Older
▁requi
▁150
▁bronchial
▁reticulocyte
▁PRL
▁Sexual
tomies
▁precordial
isoxazole
▁hypoglyc
pecial
▁membranous
▁transluminal
▁attitu
4/
▁singleton
▁stimul
NK
▁deviations
iability
▁narrowing
▁laryngeal
coag
▁dehyd
oxan
esting
tase
▁3.7%
▁galactose
▁chl
▁programmed
gene
erents
▁validated
▁immunocompetent
▁HPV
▁amin
▁inad
ovis
▁coex
formin
▁olfactory
▁blas
versus
idol
pecially
▁vesti
▁lymphadenopathy
▁ganglioside
3)
▁emo
▁estrogenic
etus
tructural
albumin
▁22.
▁microorganism
▁dynorphin
▁butyrate
▁AChE
hydraz
irds
vaginal
▁carc
ropriate
▁75
▁sexually
▁normalization
▁leukotrienes
▁pancreas
▁hamsters
▁surfact
▁10)
xone
▁refined
▁IK
itamin
ysm
0,000
roxyprogesterone
osterone
▁orthoped
enil
okinetic
▁tibia
▁anesthe
▁pouch
▁recurred
pulse
anol
▁unid
2;
oluble
androgenic
▁0.17
▁65%
▁postmenopausal
▁rejection
rotein
omyces
▁32%,
▁(88%)
▁virul
▁ket
phylaxis
▁macros
retin
▁appra
▁HBsAg
gesic
▁10.8
oconazole
arcin
▁carboxyl
repres
▁radios
educed
▁postischemic
▁conclusive
▁dilution
▁elu
▁devi
▁entero
▁phospholipase
▁1.6
DPAT
▁(3.8
MSH
▁rickets
▁arousal
▁mefloquine
▁FS
▁valerate
▁LTD
▁theophylline
▁unrelated
▁alkal
15)
psych
▁allosteric
▁transaminase
emak
▁Leydig
▁titrated
▁termination
▁aggregates
▁substrate
85
▁isometric
▁mono
▁gases
rhy
▁serolog
▁conditioned
▁disturbances
Fs
▁CHO
▁pectoris
▁dopamine
▁1.09
produc
▁5.5%
▁bicycle
posure
▁alveolar
▁pharyngitis
▁Subcutaneous
5-
testinal
dent
ylation
acr
▁3.5%
oxal
▁(5
▁tendencies
otine
▁pallid
:4
corrected
▁defic
▁cen
▁desm
ealand
rological
▁coval
▁pep
▁denaturation
▁neuroendocrine
▁latent
ofen
iotensin
▁(-0.
▁emulsion
▁WK
▁naive
▁capsid
▁appreciably
▁physiological
icardium
▁evaluates
▁conjunction
38
dopa
rosine
▁reagent
▁clinician
▁5%
astatic
▁sampl
▁euthyroid
SHR
ropion
▁proton
▁jugular
interferon
▁plexus
▁cloning
▁0.26
▁immunoblot
yrosine
4%
▁prophyl
elong
▁sph
▁NR
▁soybean
▁irrig
▁incompetence
▁(2
▁chamb
coup
▁anaesthetized
▁Elevated
▁Capsaicin
▁rigor
▁microvilli
▁folate
EG
▁polypeptide
▁67%
sorb
▁heterologous
HSV
endocrine
(2+)-
▁asial
▁jaund
virus
iotics
▁0.5).
▁(+)
-6,
▁18.3
▁Ia
▁vasculature
▁nucleotide
Hu
▁plaque
▁enalapril
amagnetic
▁acetyl
▁arrhythmic
▁pigs
▁REM
▁42,
▁reflec
▁114
oxyl
dimethyl
▁canine
meg
▁sarc
▁parathyroid
▁repeats
2+/
stole
▁gangliosides
ovirus
▁HV
▁homocysteine
rosis
▁specimen
▁Increasing
algia
ormone
igand
▁0.02),
▁divergent
quamous
▁quartile
▁ASA
▁distin
ordination
-66
oten
▁interacting
▁immun
onuclear
▁7
▁nonsmoking
imidine
-2,
uling
▁1,25
▁puberty
▁fluc
olestero
mercapto
tub
-3-
▁163
▁subun
▁TNF
ocortical
▁successive
▁MK
▁prophylactic
▁analgesics
occi
▁twofold
▁Tum
LG
▁0.2
cemic
aminidase
▁69
polyacrylamide
▁trabec
ophys
▁chemically
▁vasoconstric
▁dendrites
ubicin
▁286
▁immunological
▁cranial
glutinin
ncies
▁plasminogen
-198
atment
taining
inducing
▁anes
odopa
oxic
ichia
▁ester
▁jaundice
▁positives
ofil
▁66
▁NN
▁generalized
exposure
.1%
(6
thrombin
▁rostral
▁employing
50,
▁persistence
▁20.5
veolar
endri
▁Subsequently
7),
▁tauro
▁immunohist
▁detec
▁Impair
▁duplic
iters
▁probes
▁histochemistry
▁TNP
bronch
▁microU
▁Tolerance
▁fibros
▁ovary
▁262
▁apprec
▁exacerbations
rocyte
▁inapp
DHT
opharmac
endorphin
lyc
▁disposition
ycin
▁secreted
6%)
male
vements
tiary
▁kPa
acet
▁spro
130
▁intranasal
▁warts
▁certainty
▁antigen
iceptive
▁babo
▁rhabdomyolysis
▁AO
▁aggregation
acterial
aluation
▁275
▁betamethasone
▁233
▁aminoglyc
▁quadrup
odium
tenti
▁depolarization
▁orthostatic
▁reconstitution
▁sumatriptan
▁depleted
-2
stab
tice
DG
▁aortic
▁prostaglandin
omod
▁Thyroid
dependently
▁donor
▁elicits
erant
ectomy
▁seques
▁Histological
-6
▁teratogenicity
▁capsaicin
planchnic
▁exert
▁neoplasms
▁lessened
▁Consid
vating
-1.4
▁parenchymal
▁2.7%
▁inconclusive
-3
▁revascular
▁Oste
resid
renz
▁nickel
▁TRH
▁45
PSP
obase
▁(69%)
▁ESR
▁phorbol
▁Decreases
▁nec
%),
▁benign
▁flora
▁fascic
▁Urinary
hydroxys
▁Biol
▁physicians
▁mell
▁Approximately
▁limbs
▁steroids
▁Identif
▁necro
▁malabsorption
Ba
Leu
▁crude
obl
▁silic
▁MoAb
erican
▁methodology
0.5
▁filtration
▁AMI
kling
▁contractions
▁speculation
-5,
ecia
▁disclosed
▁percentile
▁LMW
osal
nucleotide
▁clind
▁Trial
▁ery
▁transplant
▁Bac
ichloro
thiazide
▁pKa
▁transfusions
▁cDNA
-29
▁glyburide
▁172
▁Mild
▁Extensive
▁migraine
▁bactericidal
▁electrom
eprazole
adders
fasting
▁lobes
19.
▁cortisol
▁62%
▁digoxin
hips
MDA
17
▁frog
▁psychotherapy
centr
ogenes
▁determinations
cein
▁58
olum
▁gestation
00
▁Scatchard
olone
arre
▁23,
Cy
▁trachea
61
onazole
15.
enal
▁0.18
.4
▁escalating
▁unpredictable
▁adipos
▁23%
▁couns
▁CNS
▁PLC
▁multiparous
▁dilatation
inally
rates
▁(25
grams
▁microgram
naud
iline
vit
▁tubercul
▁immunogenicity
▁ICAM
▁graf
kele
▁nal
▁feasibility
▁96%
.1)
heat
▁collab
tensive
illin
▁fentanyl
▁progenitors
omeric
▁DP
▁platelets
,3
▁188
▁syphilis
▁8-12
▁erythrocy
▁Experimental
▁prescrib
▁MDI
▁metabolic
▁scarring
▁demonstrable
macrophage
atine
▁polymerase
▁isoprenaline
▁20-
▁herp
▁chromatography
lasses
▁waking
▁intrav
echanical
▁atrium
▁sca
▁RNAs
tance
oxazol
▁subjec
▁Comparisons
sequent
mental
▁catheters
responsive
▁cGMP
▁thalamus
ocholine
yramine
gestin
▁0.20
▁(10(-6)
▁cessation
▁19,
/3
▁mucous
▁eIF
▁ligands
▁predictor
50)
▁142
▁euth
▁irradi
▁1-
▁48%
Wo
▁supplementation
▁.00
▁trigeminal
hemagglutinin
▁PDGF
▁74%
weeks
▁TI
infected
▁noninvasive
▁Disorders
▁ect
▁nasopharynx
▁Plasm
▁Lyme
▁elucidate
▁contributes
ilum
▁antiarrhythmic
▁antidepress
2318
▁79
▁oval
▁NPH
neoplastic
▁infancy
▁sonography
▁0.28
deple
▁pyridoxal
▁TK
▁ANF
▁morbidity
amel
▁musc
iosis
ocytosis
▁stimulator
▁vena
sies
-43
▁Combinations
▁alanine
▁haemoglobin
▁hipp
▁ND
▁120
▁86
hene
wenty
▁filament
▁lysine
globin
▁lateral
▁7.2,
▁embry
▁1,25(
▁rectum
eclamptic
▁121
subs
▁cigarettes
▁trichloroacetic
▁11.
hypertensive
xide
yroid
HV
unctions
tis
▁PPD
alities
▁detects
▁Barrett
▁concurrent
stained
▁bleomycin
▁simult
ometr
propanol
▁Accordingly
tein
▁catab
▁dips
▁Repe
▁autologous
▁biopsy
ucine
▁cotransport
24
▁inversion
mitter
▁300
▁phosphoinositi
▁rost
▁arose
osyltransferase
▁intractable
▁repolarization
▁filaments
adox
▁76
bran
▁hematuria
assessed
gesterone
tolerated
tails
▁SBP
▁microm
arous
formerly
▁actuarial
▁grafting
ucle
▁pA
▁fetal
▁4,
▁(21
▁blister
▁transthoracic
▁Km
▁(47
▁erythropo
▁allogra
hemoglobin
▁glycos
▁reactive
▁MAP
▁EE
ubation
▁NaF
▁hernias
▁ulc
▁5,
andros
▁dimer
▁cardio
▁flunarizine
▁metoclopramide
abec
▁0.6
▁55
▁herb
▁dentate
▁alkylating
partate
▁synapse
▁guan
▁neuropsych
▁(33
odop
establ
▁bypass
eptic
▁imaged
▁captopril
▁Estimates
onam
▁309
MH
▁TCDD
▁amplified
(+)
▁econ
▁anxio
▁acnes
▁Fib
▁(0.0
secre
▁corticos
▁CFC
iparous
▁amo
▁swit
▁monkeys
ensitized
▁5.7%
ceptive
▁allele
▁1.47
rotic
▁thyro
arginine
erox
▁heparan
atural
▁PKC
▁bolus
enkephalin
cture
ffe
▁leukocytes
ensi
▁perip
ophylline
tiguous
▁plasmin
terin
▁Parents
▁20%,
▁substantially
▁adversely
▁repetitive
▁ewes
▁palmitate
▁vacu
▁biosynthetic
volving
▁sebaceous
PRL
▁(55
adiol
▁contrac
55
▁conserved
▁nystatin
▁Alz
PGE
▁glut
▁dairy
▁(18
▁EBV
▁Antibody
▁solubilized
0,
translational
ubilized
▁electrodes
activated
▁regulated
▁(+)-
vertebral
▁nonsignificant
OHDA
▁vinblastine
endazole
ifedipine
▁1990,
▁intracellularly
▁Apo
▁histopath
▁ODC
▁hematocrit
▁ofloxacin
99
lective
▁11)
▁causative
▁neon
▁oocyte
▁Therapy
.2%)
▁pacemak
8%)
gol
▁rhy
▁epidermis
▁wedge
▁Brain
coun
rospinal
▁translational
oprolol
▁nebul
▁blocker
▁yielded
▁monoamine
ecutive
▁quotient
▁10(-10)
▁planar
▁Geor
▁endoscopy
jects
omere
▁insertions
▁spirometric
▁monke
▁hippocampus
▁implants
olism
37
▁Staphyloc
titis
ritical
▁insomnia
lym
▁thiol
▁280
▁malformations
▁complexed
▁1.2
▁electr
▁assis
▁tertiary
▁POMC
opoietic
tized
▁100%
▁11.0
obenz
osarcoma
omotion
▁metab
▁440
▁suicides
▁dorsal
▁resistances
urnal
▁intrinsic
meas
▁positional
▁cic
▁peric
▁transformants
▁extras
▁sequel
rostaglandin
▁triglycerides
▁dispersed
▁slopes
tetradecanoyl
▁quantify
▁tendons
▁lecithin
▁heterodim
18,
-7
▁myocardi
▁glucagon
▁Abnormalities
omegalovirus
PSPs
▁bFGF
CRF
▁3;
▁transmural
▁statistic
erge
▁spleens
▁diagnoses
▁31,
▁eluc
dose
▁sulfhydryl
HbA
▁interrup
▁endometrium
▁Findings
▁dietary
▁unmodified
▁microv
▁deduced
▁fourfold
acylglycerol
▁denti
▁0.76
▁tiss
▁viscer
▁retrospective
allium
examination
▁xen
promoting
▁peroxidase
lys
▁retin
▁0.35
▁LDH
▁perfusate
▁mRNAs
glucuronidase
▁exudative
▁Laser
indol
▁polym
▁intravenously
▁1200
ophilus
Glu
▁2',
▁haemat
▁alternating
scher
weigh
▁infectivity
▁Adding
idin
▁subpop
▁30.
▁54%
▁restraint
androgen
▁coated
▁arb
▁bronchodilators
▁85%
▁mAb
▁TDI
▁conclu
▁abduc
▁5.3
othyronine
▁assessing
individual
▁(46
▁ovalbumin
tration
erent
▁(5.0
▁megakary
▁mildly
▁remo
oxo
▁adolescence
▁Antim
amethonium
▁coag
ylephrine
Ace
▁kcal
▁carotid
inear
▁PRA
▁electrostatic
▁0.1%
▁tyros
▁pyrid
derived
ogens
icin
▁sten
feeding
chers
rendipine
▁measurable
▁staging
▁antipsychotic
▁preterm
▁cultured
▁menstruation
▁hos
▁propensity
▁implant
carboxy
▁8.2
▁inverted
▁molar
reactive
▁gum
roso
TG
LR
▁addi
ulants
athetic
▁NGF
-4
itre
HIAA
umbers
▁histidine
▁artifact
▁triflu
10.
▁OD
▁alloster
HETE
▁iodo
mM
▁pHi
▁periodon
tage
adin
▁0.000
kilobase
fibrin
▁carbox
-96
▁aided
▁insec
▁randomised
▁inoculum
▁vagin
▁(28
▁recurrences
▁20,
▁sulph
▁supine
500
edocromil
▁improves
utaneous
dihydro
▁phagocytic
▁synthesis
▁unscheduled
▁cows
.6
▁hypothesized
april
ococcus
roma
mTc
▁ducts
▁paraffin
▁nodular
▁secrete
▁routinely
▁(6),
tetric
enten
▁midw
▁Surgical
▁unfractionated
▁shorten
ysts
▁remarkably
ropriately
predominant
▁(2%
▁colitis
▁equivalents
▁(89%)
▁adenovirus
▁glands
omized
▁exhibits
▁Conventional
controlled
/0.
▁unexplained
▁cardiomyopathy
athiop
▁fluorescent
▁TCR
▁mucus
filtration
▁paradoxical
▁94
▁traum
amus
▁cascade
tening
▁quinine
▁abbrevi
▁polymorphisms
▁diffic
titial
▁700
adap
▁Comparing
monella
▁overlapping
▁direc
▁dismut
▁flavin
▁186
thysm
90,
▁screened
jug
▁detrimental
▁HI
tense
▁bursts
▁myristate
▁moderately
▁artery
▁interfere
opeptides
▁proving
omann
ritten
▁possi
▁0.001,
▁prosthesis
10
▁similarity
farction
▁Positive
▁0.02)
▁Pt
▁oxy
▁Isolated
▁Consequently
razolam
▁attemp
929
233
2/
▁apo
▁allergens
irone
▁dyst
enhanced
▁streptococci
▁meiotic
▁118
▁thym
▁prepro
▁autoantibody
▁construc
▁ions
▁dodecyl
twitch
▁chromat
adine
hydration
▁cardiomegaly
▁ech
▁magnesium
▁IGF
sored
▁subdi
-20
▁1-2
▁nitrogen
▁competitively
7]
▁30%.
▁dermal
yloid
ordance
AVP
▁(16
▁gon
yste
▁behaved
atoma
▁imbal
olones
median
▁palmit
ortical
▁microscopy
▁0.88
▁chimeric
ogonad
lymphocyte
▁antithrombotic
▁infiltrate
▁injections
110
adequ
haem
ionate
▁instrumented
ectasis
icides
lasting
proven
▁seminal
convul
▁crosso
▁DBP
▁RAS
▁displacement
enoid
▁CoA
▁2%
(2)
tussis
▁competi
▁inhaler
▁crust
▁glu
oactive
VIP
▁100-
▁sarcolem
atidyle
▁fecal
llate
ields
tilb
astric
▁transforming
▁bleed
▁gonad
▁atypical
otriene
▁cathe
▁exerts
▁neonates
dii
rocytes
.6%)
▁reag
▁(2)
▁trophob
▁Pb
▁geniculate
initi
▁Estrogen
urther
▁10.5
▁confinement
ovascular
▁guanine
opropyl
PPP
▁syndromes
▁10.2
▁polyethylene
28
▁28)
▁cation
phot
▁quanti
kinje
MHC
▁13%
▁5),
▁RIA
▁hyperlipidemia
▁Meth
▁60,
dine
▁internally
▁somatic
▁postmortem
arate
▁9.5
4,5)
▁preload
▁sting
▁3-
▁reversible
aceu
▁Nons
rences
induc
▁cyclosporine
lometh
▁conjugated
▁0.13
▁0.75,
▁inhibition
achial
▁paired
Tu
▁permeabilized
▁Diabetic
thrombotic
▁eosinophil
▁enlar
▁lor
▁Changing
omia
▁cardiople
▁1.30
-7-
ivocal
▁junction
▁apomorphine
▁innervated
obacillus
othiaz
ograms
▁tRNA
▁1.5-
▁0.5%
-17
udation
▁anemia
▁Eighty
▁elastic
▁platelet
:1
physiological
▁pall
ozo
▁colposcopy
ometh
▁heterozygotes
6.
▁trach
visc
lix
▁EEG
▁chondrocytes
▁Fifteen
▁haplotype
▁71
therapeutic
▁toxins
▁cruc
▁PGs
▁compressive
thromycin
▁phospho
3;
▁glomerul
▁differentiating
▁frac
ncy
▁lifest
ocytoma
▁72
▁electrically
itrate
▁rhesus
▁extensively
▁ars
▁examin
▁analogues
oposide
rine
▁appendic
▁cycling
Ki
onitis
34
▁respiration
▁scaven
▁provoked
▁CSF
▁PTCA
philic
▁303
kely
exposed
▁thyrotropin
▁deficiencies
▁PEG
▁0.59
▁antipsych
▁218
.6,
▁326
sions
▁serotoninergic
▁astrocytes
facturing
▁ubiqu
BW
▁mandi
yzed
▁analgesic
▁fibrosis
lofen
▁aureus
▁endurance
▁217
▁4.6%
▁endometr
BMD
▁eliminating
6;
▁adiposity
▁macromolecules
▁barium
▁250
galactosidase
▁albuterol
avail
▁ips
horm
entricular
italopram
▁kain
ignificant
▁antiserum
cyte
promazine
76
▁degen
▁279
▁57%
▁osmotic
aund
▁Cyt
▁ureth
▁propagation
synthe
▁Mg
▁differe
▁genital
▁offspring
▁intraoperative
▁(0.3
▁ramipril
▁hydrogen
▁monkey
▁10(7)
othyroid
▁dibutyryl
erate
▁rheumatic
▁12.5%
arone
▁Routine
▁haloperidol
▁diminution
▁airways
▁cortisone
3%
▁1.35
▁quenching
orrh
▁tamoxifen
▁seb
▁interleukin
▁0,
othelial
▁GnRH
▁(5.3
roxy
▁Hep
▁embryonic
▁paraventricular
▁hypothesize
▁troponin
▁107
▁starvation
▁propofol
▁(45%)
GTP
▁1.0
umulative
atab
▁substrates
▁proteinase
▁apne
ximum
edic
▁circulating
▁oligos
glycoprotein
▁1%.
▁percutaneous
▁stren
namic
uria
onate
21.
▁superf
olis
ifug
obutyl
▁intracor
andida
▁interruption
▁gonadotrop
▁microscop
macropha
▁conditioning
▁vasodilation
▁transfected
▁12.
▁1966
▁Ace
heavy
▁perim
▁inconsistent
▁halves
▁3.8%
▁MRI
junction
abies
▁impairment
tivation
▁neutralized
▁abscesses
▁posi
ocyan
ilution
▁ABP
▁clamp
▁Biopsies
abin
sives
▁submuc
▁4).
tested
▁accumbens
▁uniformly
▁hypox
▁Randomized
▁coordination
abbit
rane
▁equi
▁incom
▁rabb
▁hypertensives
▁vertebr
azole
rophic
▁metr
▁chromatin
▁123
▁parv
▁increas
▁Multiple
▁larvae
ikary
trisphosphate
▁adver
▁myot
estrogen
coh
▁discharges
▁-20
▁159
cristine
▁airway
vant
oxide
▁cytotoxic
▁cytochromes
MTV
▁kHz
▁tyrosine
▁binds
dop
5/
▁inappropriate
▁0.03).
▁5.9%
▁extravas
▁analogue
erose
▁LFA
▁IAP
silon
oplasia
▁albumin
▁sarcolemmal
incub
▁pediatric
▁chol
▁vaccinated
uminum
▁mononuclear
▁hydroxy
97
voltage
▁steroid
▁weighted
▁ELISA
11,
▁inten
▁hamster
▁adrenergic
▁luminal
▁0.6%
asone
▁adduc
▁covalent
▁ultraviolet
▁Sulf
▁PCO
▁immobilization
▁bacteriuria
▁coping
▁referral
▁responsiveness
▁anions
▁-0.6
▁intest
▁2.
▁5.6%
▁phosphorylation
▁etiology
▁contaminated
▁glycoprotein
▁(60%
▁ribosomes
▁(4)
▁phenylalanine
▁uninfected
▁cytomegalovirus
ylchol
ulses
sial
▁155
▁rhe
▁rup
▁doxazosin
▁weaker
portion
▁emin
▁EDRF
▁withdrew
▁ulcers
▁sero
▁epilep
dosing
▁CFU
mAb
▁unstable
▁propor
nitrophenyl
0.3
aminase
▁assay
▁iris
eeding
▁recor
▁phyl
▁(6-
▁endpoints
tics
tituting
tively
ovarian
▁NM
2%
▁0.25%
progestin
-28
-[3
osin
veness
▁orch
ulators
ishman
▁caro
ulant
illaries
▁5.2
▁invasive
▁7.7%
grees
trast
▁sonographic
▁82
embedded
▁Estim
▁expec
▁femur
inositol
▁lysosomes
▁2.1
atesticular
SMC
▁pneumoniae
▁atenolol
1%)
▁newborns
dividual
ureth
▁Bmax
▁mumol
▁(41
▁aluminum
▁placental
▁projections
otidase
▁COOH
epi
▁(32
diastolic
▁stools
▁estrous
ensitization
venous
▁amelior
▁necrop
acetamide
▁goat
14,
▁24%
▁uniquely
▁kappa
▁1.3
nai
▁Wistar
▁subdivided
ustion
▁cisternae
▁fibre
▁appendicitis
▁conflicting
▁depolarizing
▁2.1%
▁leuc
ydig
▁regimen
▁injur
▁contrib
▁-0.0
phage
conventional
▁1969
alact
▁systematically
atchard
lact
oretic
▁renders
▁clotting
ruc
▁perif
▁fathers
▁hemat
dT
versal
▁fibr
▁enlargement
▁MPO
thyroid
30,
otting
▁154
▁3.8
dihydroxy
zoster
▁ribosome
▁conjunctivitis
▁immunization
▁CPB
▁infertile
▁3'-
phoresis
▁23
▁1.06
▁unbiased
▁alkali
▁sinus
▁Purified
▁(8%)
▁retrospectively
▁OKT
hydroxyd
calor
▁Specificity
ductive
▁hyperthermia
▁36
urc
▁persisting
omated
▁ascer
atids
ostasis
▁radiographic
▁intrac
▁immunoblotting
▁PET
ejun
Dawley
membrane
-400
▁semin
lysin
▁diuretics
▁185
▁suppor
▁4.4
/-
▁follicles
ludes
▁acqui
▁sulfoxide
8;
▁covari
ophosphate
▁adenine
▁HSP
▁unaltered
entical
▁neocortex
oplas
▁shunt
takes
▁bacterio
▁hydrocortisone
uprofen
▁pellet
▁7.9
▁connec
mobil
▁lengthen
2.2
▁drin
▁discontinuation
▁Hyper
endi
11.
▁prostatic
▁outlet
▁MgATP
aminob
appropriate
▁isoproterenol
SBP
itoneally
.9
147
othionein
▁1.07
▁abrogated
tivated
CoA
▁Trp
▁splanchnic
▁emphyse
oglobin
▁attributable
omagnes
issive
embryonic
▁fores
▁STI
▁3/
ygotes
▁homogeneous
▁serogroup
▁Breast
MN
▁2,
▁succinyl
▁neuron
▁atelectasis
▁myopathy
▁sows
▁nedocromil
▁ciliary
▁chemilum
▁hexa
▁Examin
▁filamentous
▁unipolar
▁(1)
plemented
ogr
welling
othreitol
▁Monoclonal
▁.001)
▁incidence
▁2.9
▁perforation
▁triglyceride
▁grading
▁immuno
▁ultrastructural
abilized
rected
▁7)
▁bronchi
▁tox
/18
▁41%
▁isotope
▁metronidazole
▁sulf
▁8.8
▁joints
▁transgenic
▁immortal
▁oximetry
▁fura
▁suture
▁pars
▁(48
▁unstimulated
▁cloned
▁mesenchymal
PMA
inamide
▁supervised
▁concep
▁fixation
▁catalysis
▁nodules
BMI
▁227
ovastatin
▁halved
▁PAF
▁Renal
proline
▁baths
fused
▁feline
▁87
▁SG
▁harves
Cu
odopsin
▁fati
amet
nucle
▁sulfon
schemic
▁HSV
▁sut
-2.1
▁sucrose
▁postoperative
▁0.2-
▁diame
▁obstructive
▁termini
▁phenotype
adecan
▁tumors
▁205
▁HCO
urospor
▁tegmental
ardized
▁.0
▁LHRH
▁nucleic
▁leu
▁109
▁sorb
labeled
▁myel
▁hypothermia
▁malign
20).
▁anastom
▁insom
▁hepatomegaly
▁ChAT
▁thromb
ocor
depleted
▁erosion
7/
iciently
eradish
▁5-10
producing
▁neutropenia
▁1960
BAL
▁antibacterial
▁mitogens
▁8.1
▁84
▁auditory
▁normals
▁allergic
tumor
▁CRH
▁fluconazole
▁ferritin
▁hygi
-8)
▁enrich
▁Chan
▁160
▁immunode
▁attain
▁opi
▁diuresis
▁arising
▁(31
ture
▁guinea
▁weakened
▁(93
imentin
▁antitumor
▁preferential
ostic
▁substitution
▁sedim
▁adhesion
▁Various
▁diseased
▁ammonium
▁fatty
embran
▁Electron
▁gonorrhea
embr
▁priming
▁previ
ipolar
▁ionomycin
▁messenger
oreactive
▁(-)-
ethyl
▁aor
▁stellate
▁rheum
▁CHF
otoxicity
0.9
iodo
specified
ixime
▁glandular
1;
▁EG
▁transloc
▁regis
▁19-
▁ascertained
phine
▁recurrence
▁arrhythm
▁52
▁endo
▁cornea
Ra
▁lute
imol
ographies
titu
ergenic
▁10,000
osclerosis
▁oncogene
3).
▁PLP
isqu
▁tetrodotoxin
▁putative
▁exudation
43
▁diagnosing
ammon
▁blots
▁lipid
▁NADP
▁0.43
▁51
▁transcrip
▁lactose
▁clinically
uvant
orporeal
yoto
▁1.4%
▁modestly
uppressed
▁(14
mature
▁66%
▁treatable
▁outward
▁mutants
▁comprises
chid
tel
0.7
lux
▁14
▁-15
▁polyamine
▁fallopian
vus
▁asymmetry
▁4.5%
▁yeast
▁selec
▁contex
arose
▁276
NMR
▁colonic
▁influenz
▁stal
▁tet
▁Chang
tilis
▁90%
olysis
▁adenylate
▁favorably
▁justif
▁catheterization
heres
monary
▁complication
▁NI
-1
▁chec
▁perfused
▁tandem
▁splic
.7.
bac
▁Meas
▁4.2
006
▁desensitization
ylcholinesterase
▁nylon
▁quantitated
▁cannula
eclamp
opyr
adecanoyl
calmodulin
▁amiodarone
zymes
▁9-
▁biases
ervations
▁audiometry
▁hypothyroidism
▁16.
▁azithromycin
tigo
oalveolar
▁tolerability
opres
18
▁lymphaden
bino
ulla
▁asthmatic
▁amphotericin
▁dithiothreitol
urrence
platin
▁diethyl
0.2
gia
retic
synaptic
15).
plast
ycline
▁Copenhagen
▁Treatment
urys
hepatic
Cs
▁sorting
anthrene
▁diarrh
chloro
▁SCLC
▁356
prac
▁resuscitation
▁simplified
▁unvaccinated
iae
▁molec
▁throm
▁18%
▁pneumonia
▁complications
▁muc
▁Gs
▁rises
▁lumb
▁Hyp
otypes
/20
ilateral
EI
▁recons
▁spiral
othane
▁delaying
▁92
▁occurrences
▁penicillin
▁pooling
hydramine
▁2.6%
▁atherosclerotic
▁optic
weekly
NH
upuncture
leukin
▁Vitamin
▁ultim
▁aldehyde
▁circumst
▁1,
▁occult
tions
agin
▁(0.25
▁laminae
erebral
▁felodipine
enyl
▁allyl
▁diaphragm
▁4%
rowth
▁neuropath
▁disabling
▁PW
▁drainage
▁1.00
cAMP
▁mucin
▁papilloma
▁1.9%
▁concurrently
▁60
▁34%
▁superficially
▁wards
▁unwanted
▁autosomal
▁unequ
▁beverages
hydroxyp
mL
▁defecation
odon
▁nude
▁106
▁(198
frontal
▁difficul
▁101
agonist
▁cerebro
itro
lusion
▁immunologic
olization
▁alprazolam
▁foetal
▁immunocyt
ilol
▁3.4
ocul
tropine
functional
▁excretory
▁piroxicam
▁0.24
▁hydrox
▁fluoxetine
▁bloc
ntolamine
▁chlamydia
▁spacer
▁hepatocytes
▁73
▁parenchyma
adminis
▁gallbladder
urosporine
▁tubules
▁Abnormal
methylation
▁thromboxane
▁compounds
▁favors
▁cefixime
▁NK
ocarb
▁exclusion
▁pharmacists
40.
▁lep
▁ultracentr
▁neph
▁peripheral
▁amn
▁312
severe
ylated
oside
▁progres
▁divalent
.4%)
idym
▁condens
▁centrally
hexidine
▁metastasis
▁colliculus
▁persis
macroglobulin
atinine
lated
▁Hz
▁sacrificed
▁encompass
▁0.78
▁GS
▁Contr
▁enrollment
tracted
▁cathepsin
▁erythematosus
▁(3-
referred
uanti
▁Cys
sue
▁etoposide
▁neoplas
▁symptomatology
▁4.0,
▁ultrac
▁Seventeen
▁0.81
heum
cephal
▁effluent
▁intraepithelial
vaccination
▁polyunsaturated
ocellular
▁24.3
▁fulmin
esophageal
yridine
▁phi
ROS
Hg
▁radiotherapy
igenic
▁favorable
▁thir
roximately
oporosis
▁inhibited
▁differentially
thmia
omotor
ypro
▁mep
▁Radi
uplex
arterial
prisingly
idine
hetamine
▁nore
▁prerequ
2,000
▁asymp
▁lymphocytes
▁85%,
ailure
▁7-
▁discrep
▁segregation
optic
bisphosphate
gesia
▁deterioration
▁concanavalin
▁hindlimb
▁Comparative
istal
▁natriuresis
')2
trol
erebro
▁tac
0.00
▁thereafter
ffective
▁marginally
▁resistant
▁(3
▁Intra
Ts
▁omega
iary
▁excitation
▁permits
▁hybridization
itin
phragm
▁regulates
▁3)
average
▁89%
▁acceleration
alene
bladder
▁dissemin
roxim
those
▁triti
▁DD
▁hemodialysis
▁suppres
▁exer
ropha
ganglionic
strain
▁internalized
teroides
lactate
iuria
15
▁exogenously
▁NHL
▁experimentally
unar
▁ison
▁pretreatment
▁synthesize
aggreg
▁Localization
-)-
▁ICP
▁6%)
▁0.56
▁autoradiography
uronal
▁subf
tinguishable
▁lymphocyt
▁viruses
▁equivocal
ospasm
trated
araldehyde
▁paroxys
▁fragmentation
▁introns
ostatin
▁200,
▁disturbance
▁(27
▁suppos
▁glycogen
.7%
▁readings
▁Kine
▁chlorpromazine
▁mitig
tero
onatal
▁cGy
▁Dip
.0
▁blinded
▁tolerate
▁(67
.3
▁nonselective
iterranean
▁acros
▁deficient
▁excessively
▁lamellar
10)
▁anatomic
▁apoB
rophenyl
oprotein
queous
▁nephrectomy
ordin
▁nig
malignant
▁ovulated
▁pericardial
▁Fraction
▁hepatotoxicity
48
EPs
gic
▁cryp
▁cytos
▁confined
▁80%
▁dorsolateral
▁theore
odal
6-
rospor
▁doubling
▁Registry
▁cystic
▁polymyxin
▁catalase
rophenol
▁plex
▁originating
amethyl
cysteine
▁(45
-45
▁spike
▁13,
imentation
▁136
▁mediates
▁uncl
▁pore
▁brisk
inephrine
▁neuropeptide
iruses
▁asymptomatic
aryn
▁Severe
▁Antibiotic
9;
▁biotin
▁cistern
▁acutely
▁hypothal
▁0.5-
ominant
▁Golgi
▁fulfilled
▁350
▁Evaluation
tillation
havioral
▁formalin
▁vitreous
▁subgroup
▁preparations
▁manifested
▁conjugate
▁linole
oxetine
▁lactulose
▁(7.2
▁Viral
▁RPE
facial
▁vasopressin
▁1.1
▁61
▁1000
5'-
▁lysozyme
▁(3%)
hicle
ionized
▁detergents
acrine
▁aggres
▁dyes
erating
▁subtilis
fortable
▁arbor
▁polysaccharide
▁proceeded
▁doxycycline
2-
▁scars
▁hemo
▁gonadotroph
AIDS
enicill
▁examines
othalamic
▁hirsutism
▁tuberc
▁groove
▁extraction
▁inhibin
▁stimulate
▁LPS
▁jejunal
▁trimester
▁hyperthyroidism
▁bacterial
▁AFP
▁selectivity
ostom
▁axillary
▁degran
▁choroid
5-0.
▁diabetics
▁confirming
▁selen
cholate
itriptyline
▁incontin
olec
-13-
▁cys
▁menses
▁perikary
▁preoperatively
thase
▁RA
▁HCV
▁territ
2+]
▁toxicities
▁gallst
▁7.7
▁monensin
▁hydroly
-13
▁primers
▁(4
▁deoxy
-48
idis
▁splice
▁30,
▁Behavioral
▁HAM
▁disadvantage
azolium
▁Morph
▁ischaemic
▁owing
▁Notably
azin
▁autoreg
▁vesicles
▁5.5
tib
▁10
▁nasal
ogra
▁manifestation
imetic
▁bism
69
.3%
parathyroid
▁quies
▁Optimal
▁repres
59
▁Ultras
haled
▁vitamin
cation
▁fractures
acetic
▁fibroblasts
oreal
terminal
▁radiologists
tence
▁immobil
-10
▁FF
opoly
actin
▁(15%)
▁addic
▁carcinoma
trophin
butyrate
▁.01)
▁gluten
▁TT
▁anaesthesia
▁mmol
▁sequencing
plenic
eryth
▁donors
▁androstenedione
▁0.22
olpidem
▁anatomical
optimal
▁dissociated
▁0.19
oconstriction
reasts
▁asthma
▁adherent
▁lithium
▁Enalapril
anuary
▁hyperins
▁nitrate
▁neuroleptic
▁termed
atories
▁depletion
▁patella
▁corp
▁phy
▁strepto
▁Thirteen
▁trimethoprim
▁seropositive
▁hairs
▁microgra
metabol
anin
tec
▁26
▁lis
▁adulthood
afe
elec
CSF
▁hyal
▁therapies
sar
▁vasoconstrictor
seud
▁hypertrophic
rease
▁evaluable
istar
▁drinkers
▁grise
)],
▁ATPase
▁terat
▁repor
▁6.9%
▁incompletely
▁Bec
ervo
razole
tia
tribution
▁ammon
▁neonatal
▁sham
lomethasone
▁spas
reas
aginal
ofluores
50),
▁exchanger
fts
▁palpable
▁mRNA
▁DNP
▁129
▁0.001),
▁criter
▁multicenter
▁demographic
▁dermis
▁Glyc
▁papill
▁80.
▁bilateral
olamine
▁suicidal
▁opiate
ophag
▁preeclampsia
▁46,
▁mosa
▁reticular
▁truncated
sodium
▁protocols
paired
mortal
▁DSM
▁PB
▁incubated
▁combin
amilies
uppres
▁peptid
▁spac
65
sess
rehen
▁diclofenac
cyclo
ecre
sion
▁17
▁propranolol
▁hysterectomy
organic
tigu
▁erythroid
▁ozone
angl
ermal
meter
Sepharose
▁phosphatidyle
▁pigment
ognition
▁phenytoin
epid
▁submandibular
▁5'
▁42)
▁resembling
▁subgroups
▁Proc
filaments
PDE
inescence
▁1988,
olesterolemia
aminophen
ancre
▁plotting
▁Maximum
athic
lamy
▁Depart
roblasts
onset
oselective
▁purine
junctional
▁GAD
rogenesis
estis
▁preoptic
casein
▁neoplastic
▁CEA
▁cytoch
▁thems
physe
tomy
▁arachid
▁lowering
▁transporter
▁hypother
▁reser
▁-6
▁122
▁mIU
▁neurolep
phosphon
atell
rement
▁promoter
lebsiella
▁overestim
▁umb
otamine
▁94%
▁subjective
▁131
▁reversing
▁insensitive
numbered
▁galanin
▁leukocyte
azepam
▁cytochrome
▁homology
▁Hodgkin
▁VE
▁Bacteroides
▁discon
adder
▁Prevalence
▁malnutrition
▁CCK
▁NH
stem
▁lae
▁memb
ardipine
onad
gestation
perfusion
▁oxidative
▁spectrin
▁7.3
initiated
▁nontoxic
divid
ogenic
▁CABG
-1.2
▁neomycin
▁resembles
▁GAP
▁decreasing
▁postprandial
fos
▁ablation
glucose
92
8+
▁pyramidal
▁empiric
anadate
turb
rometer
82
4;
▁laparo
▁5.5,
hydroxy
▁transvaginal
▁markedly
▁(1988)
-2).
eroxidase
▁taurine
▁hypoth
ucl
tiz
▁5.0
hion
▁vulg
▁fluo
▁197
ocytes
LISA
▁extensor
▁averaging
nish
essive
alciparum
▁proline
▁(2,
▁64
▁CSA
brids
▁stably
▁ultrastructure
▁(35%
otent
Ca
surgery
▁278
▁lumbar
▁inhibitors
TN
▁([3
ergen
regulated
▁genitourinary
.6%
)2
▁2%.
edle
otropic
▁Acute
-31
ogold
▁reinfection
▁locus
Ala
-2.
▁Enterobacter
▁hydrophob
.3%)
▁hepatocyte
▁diagnos
▁Diagnostic
▁thyroiditis
anserin
▁100%.
4)
injury
iodine
ochromatosis
▁1980
▁norepinephrine
▁velocities
▁hyperplastic
posterior
▁heme
▁EPO
ymme
kets
ressing
valence
ighteen
▁DF
▁spermat
▁gonorrh
▁premature
▁mathem
anese
▁levamisole
▁Stro
▁TC
▁heterogeneity
▁definitive
adex
taken
4,5-
▁reperto
▁alve
untary
cortic
▁radioactive
▁calcitonin
8-
▁100,
isole
▁Possible
lysine
▁SKF
▁Symptom
▁56%
▁93
5;
▁derm
earance
▁kinetic
▁Functional
arrhy
selec
▁BP
iatic
▁Hepatic
▁21,
▁tau
tole
▁intensities
▁exons
▁graft
▁phosph
ministration
▁discontinu
▁tendon
▁Increased
▁196
▁axon
▁intraven
acetyl
▁OV
kelihood
▁glycine
adian
▁HTLV
▁pyraz
▁subacute
▁theoretically
▁regain
▁dispro
▁200
▁199
ochrome
▁17.7
▁progen
lax
▁intrag
hydroxyphenyl
ardiac
▁reflecting
▁glycosylated
▁1,25-
▁osmolality
▁Pseudomonas
▁1,25-(
▁recirc
▁40-
▁oes
▁precipitation
▁6.7
oligo
▁Serum
72
▁deliveries
▁aorta
▁inflow
▁oligosaccharide
▁Graves
otroph
embrane
▁Repeated
▁resour
▁satis
▁9.1
▁Higher
▁(300
▁recom
cryst
▁sedative
▁scl
1.1
▁radionuclide
▁ticlopidine
▁cac
▁243
trodotoxin
▁polymorphic
▁gynecological
icul
methylene
▁specifying
▁Diets
▁margins
25)
▁89
anesthetized
▁unfav
triphosphate
▁retard
peri
▁231
▁cytosolic
▁lam
▁adip
▁poten
▁prosthe
▁congenital
▁glycosyl
▁MM
▁questionnaire
yroxine
▁herpes
insulin
gement
PAC
▁illumination
oA
odermal
igl
▁sympathetic
fate
omiting
▁Concomitant
ostigmine
azem
▁0.00
PaO
▁31
lysis
▁aspiration
mokers
▁Oral
DTPA
7%)
▁incubating
ficially
olam
uodenal
ocalcin
▁opac
▁interfer
▁Cardiovascular
▁mellitus
▁490
retion
▁immunity
▁13.9
itone
erver
▁initiate
uble
▁prophylaxis
▁favourable
▁50%,
motic
thood
▁breaths
▁jeop
▁0.8%
▁corpus
▁bedtime
otre
▁cortical
:3
▁brach
▁delirium
▁Intr
tRNA
▁sarcoplasmic
anoid
ffin
identified
▁constellation
▁35%
▁daytime
.1,
▁10,
ochemical
oplasma
odil
-79
▁8
▁abscess
orec
14)
▁hydrophobic
▁obese
▁predicts
▁chemotherapy
▁scinti
▁retarded
-1;
-125
excluding
▁Longer
-1-
esthetized
opeptidase
▁ADA
▁inhibits
exin
rof
▁PMNs
▁abnormality
potential
▁255
▁urine
▁(15%
▁gentamicin
apeutic
▁(8
13
▁OA
▁angina
▁antigens
13-
eclampsia
▁Disease
▁relaxant
▁incorporation
selective
TCR
▁evidenced
Cys
▁3.6
iatr
▁interfering
iably
apo
▁residues
▁allogeneic
▁thymocytes
aemic
olig
▁peptides
ohnson
▁1989
pregnant
▁neutrophils
▁stratum
▁databases
ytes
▁castrated
▁implicated
▁hormonal
▁(140
onc
glutamyl
entgen
yrin
NIH
▁disturbed
▁parity
▁regression
Hb
▁abstin
1/2
▁sacc
▁tumour
tries
▁1.5
ASA
▁8-
▁antecedent
▁cis
▁moieties
▁erythrocyte
primed
▁regeneration
▁agglutinin
omyelitis
41
▁retardation
▁kb
▁subtype
▁isoelectric
▁hsp
▁ingested
▁parasite
▁libitum
▁modalities
▁vertebral
▁lipase
7-
trum
▁1.25
▁EGF
ilization
enec
▁lupus
pG
▁1990.
advan
tissue
▁verapamil
▁mediated
tene
tif
▁fasting
opramide
▁monos
▁nucleus
▁Secondary
▁specificities
icine
70
▁cirrhotic
▁hypercap
pendent
▁Retrospective
▁considerations
▁allergy
▁4.7%
▁osteoporosis
▁endocardi
uccin
▁benzodiazepines
duce
▁clonal
planch
▁saturating
▁Cooperative
▁pancreatitis
.10
▁hippocamp
▁ingestion
▁proteoglycans
▁subend
▁practitioners
▁38%
▁phenyl
▁ances
thym
CABG
▁pathophy
▁paralleled
rometh
otone
▁depolarized
rague
▁urethritis
▁arter
▁0.94
tak
astom
▁arterioles
tilled
▁basal
▁diastolic
▁50,
acchar
▁0.016
uoden
▁preservation
▁Prevention
lastic
ronectin
oflurane
tomas
▁2.6
▁avoidance
apeptide
utyr
ticular
▁serotonin
▁examining
▁1964
▁microbi
fentanil
▁germin
4'-
▁arteriosus
▁Intensive
▁mercury
105
SOD
▁hepatectomy
▁5.2%
aneously
moking
▁clinicians
otassium
▁gilts
▁4.3
▁capillary
▁132
▁isot
(-)-
▁malignancies
▁parental
▁Epidemiological
▁impedance
▁tritium
▁questionnai
▁expulsion
▁reversibly
gulatory
afloxacin
1-2
iomas
▁basolateral
▁toge
▁gradients
25).
▁560
▁electroly
▁0.2,
▁induces
ranged
ulline
▁mononucleosis
hosts
violet
ulence
▁LDL
▁(84%)
AO
▁premenstrual
▁segmental
-24
/10
▁0.14
▁50,000
▁cate
titudes
▁intestine
▁helix
fraction
yclo
▁modulating
▁cholinergic
▁monol
▁conto
▁11-
▁standardization
omyc
▁10(8)
thromb
/1000
▁progestin
▁plots
▁pituitary
yron
450
romatosis
▁cyan
▁receptor
▁mutans
▁selective
▁estimating
oclonal
▁vestibular
Kyoto
▁cumulative
▁minocycline
▁refrac
▁phenotypic
▁necrotic
clic
odia
vaccinated
▁Whereas
▁10(-6)
▁phosphatidyl
▁impaired
▁phag
tep
▁220
dial
naph
▁0.98
▁Gly
phospho
inhib
azoline
ditional
▁297
▁PHA
▁accel
▁dehydration
ritic
▁osm
ctomy
COP
mia
KD
intestinal
uccess
gag
okine
▁corpuscular
▁resolving
▁poses
-8.
▁ileum
iodothyronine
▁rhythms
atite
-6.
▁7.6
olateral
▁solvents
▁resear
9-
▁Lung
▁PLA
▁feces
▁hypertensive
turition
▁infarctions
▁recombination
strand
▁44
uclear
▁genomes
▁envelop
▁occl
▁circadian
▁persistently
tyrosine
▁10(-9)
67
▁curative
▁esophagitis
▁57
▁recruited
▁cromoglycate
▁NADPH
▁fibrils
blockers
orsal
▁diploid
▁doxorubicin
▁granulomas
▁pI
▁1.11
▁sensory
▁valpro
▁WBC
potassium
tococcus
partum
▁leprosy
▁newborn
asalazine
pretation
▁kinases
apsulated
atisfaction
helin
▁1,3-
▁vulgaris
1);
5%,
orepinephrine
▁lectin
▁pentoxifylline
enzym
▁210
▁resuscitated
mediated
▁neutrop
mmol
hydryl
▁24)
▁colectomy
thyl
bronchial
▁reversal
▁97%
▁mitomycin
▁2.8
hydrop
▁Throm
▁titer
▁prostatitis
▁rash
tants
▁azathioprine
▁-4
▁mite
▁electrochemical
▁ascribed
▁15%
thle
phenyl
▁gastrin
vitamin
▁leukocytosis
▁conformation
oxidation
conver
▁11,
▁malate
nourished
▁0.01
rocy
▁pacemaker
▁(34
▁cytologic
▁10(9)
▁2-4
▁4.0
avoid
▁proteases
tochemistry
▁pathways
▁methylation
▁anticonvul
▁treadmill
glutamate
▁Cul
▁deferen
▁oedema
peptide
▁endocrin
▁carbonate
oronary
▁enox
▁6.5%
▁Significant
▁collateral
▁vibration
teroidal
▁microvessel
▁PGF
utaneously
▁hyperpolarizing
sA
▁endotoxin
kephalin
edded
▁somata
▁MgCl
▁degraded
roprusside
▁Elec
Tyr
▁activating
▁sigma
▁7%,
▁glucuron
▁neoplasia
▁hydration
▁thermo
▁deletion
▁Cd
▁dus
▁Injury
▁0.57
▁convul
▁Likewise
▁lymphomas
▁monitored
▁chorio
roscopy
-40%
▁accumulation
▁synapt
▁denervated
▁2.5-
glutin
▁analgesia
▁metast
▁2.4%
teral
▁(20%
mentation
obac
▁recordings
▁acids
▁ald
Hodgkin
▁mucos
▁secretory
uminal
apeu
▁physiologically
▁manipulation
▁underestim
▁compartment
▁dichro
▁abd
oratory
▁fluctu
▁Surprisingly
pendence
▁longitudinal
ampicillin
▁radiol
▁smo
▁synaptic
▁bilayer
▁transients
lodipine
lies
▁nicotinic
▁Growth
▁inorganic
▁mesangial
.1%)
▁immunized
▁UT
▁3.4%
▁formulation
otid
▁ANP
vessel
▁80-
▁thrombo
▁transformations
▁hypertro
clo
▁nondis
▁identi
uretic
▁femoral
ferrin
nary
▁estrogens
diagnosed
▁Prac
▁13-
▁foc
▁11.2
izability
▁emesis
▁0.99
▁androgen
▁thi
amole
▁70
▁resul
▁diffus
phthal
▁displaced
normally
▁Ninety
▁insemin
▁Saccharomyces
otor
▁reproduc
▁intercourse
▁0.
▁hemorrhage
▁tubule
▁digesti
▁murmur
tempor
▁predominant
▁TEA
hydroxylase
▁baroreceptor
▁receptive
▁anastomoses
▁radioligand
▁micron
▁weakly
platelet
▁trachomatis
▁Apgar
▁sexes
osus
▁Actin
▁(97%)
▁waveform
▁endothelin
irradi
prising
▁fertilization
ducible
▁untreated
▁(49%)
aminop
mitoyl
▁LV
▁cla
▁linkage
cale
▁ppm
▁pleural
orotic
▁responsive
2)
▁venous
together
▁feather
▁5.7
▁7%
diabetic
▁oxym
ollagen
▁protects
▁54
▁pts
▁furosemide
▁UDP
▁investigator
▁obstetric
2(
inase
treatment
▁constipation
idating
alasin
▁initiation
▁integrin
▁5%.
▁pacing
▁thrombolysis
▁Ae
▁indole
enon
icillin
osome
▁NaCl
▁pulses
ongue
▁freezing
▁Pretreatment
ofol
▁(1,
▁potentiated
▁prenatal
▁nebulizer
ogenous
▁bonding
▁IgA
▁histones
▁oesophageal
treated
23
▁gamma
▁focal
▁obli
▁25.3
▁cleft
▁agglutin
00)
▁amenorrhea
tyl
▁DMP
▁studi
hap
tabl
▁protease
rotid
▁cytotoxicity
soluble
▁regulating
▁caregi
▁concomitant
90)
▁GER
teric
avir
-2-
▁placenta
uric
▁LTB
▁immunoreactive
▁0.15
ANF
scop
feren
▁microscope
pore
▁limbic
▁phototherapy
esthe
▁progressed
turally
▁asbestos
trous
ignific
▁defec
▁transplants
oxif
▁incision
▁nevi
▁unusually
bred
myocardial
▁wors
osteroids
phenylalanine
nei
ystic
▁contiguous
ipital
▁Neph
▁glauc
ometrial
▁10(-7)
▁genotype
cessively
AFP
flurane
▁pectin
▁nicotine
▁thiazide
▁appraisal
carbox
▁glycerol
▁chickens
▁virion
▁126
▁curric
▁fenoterol
uridine
▁diphosphate
▁underwent
alsy
▁ascorbic
▁cerebrospinal
▁93%
ocardial
▁homogene
▁isolates
▁lenses
▁omeprazole
opr
▁clindamycin
oarth
▁administered
hydrated
sia
▁45%
▁SPL
▁kerat
▁83%,
▁elevation
▁theta
odontic
▁47%,
▁connective
terl
proved
ologic
fec
azolam
▁Lys
▁88%
otyrosine
aline
-9)
▁34
▁vaccination
otypic
▁converting
▁immunobl
▁activator
▁radiographs
▁worms
▁SMC
▁breakthrough
▁uremic
-64
ifugation
ported
▁inoculation
ittac
dia
▁resum
PLC
▁ana
▁redox
immune
▁distal
▁endocrine
▁sclerosis
iciencies
▁gingival
▁ultrason
▁commercially
▁isoforms
charomyces
▁polymy
▁tectum
▁cured
MW
▁eluted
▁constitutes
illi
▁spines
▁journals
50/
▁sonic
▁(80%
rinary
oscop
▁lovastatin
olates
▁recessive
▁vasoactive
modulin
▁Oxygen
anat
▁234
▁Lp
▁quinolones
▁decayed
140
▁indis
▁occlusion
▁laparotomy
▁cyclo
▁50%.
▁nephrotic
▁Tran
▁induc
ulatory
entified
▁nadir
▁mortality
.8.
flamm
istor
toxicity
ochem
▁ADP
▁spontaneously
sAg
pyruvate
▁stains
▁altering
▁silica
▁targe
genital
troph
▁arachidonic
conditioned
arbox
▁Seventy
▁serosal
PV
▁precur
▁stimuli
ellar
▁strands
▁amphib
predominantly
drug
▁sulbactam
POA
▁autop
▁Evid
▁Glucose
▁alb
ureas
-81
▁hered
gnetic
▁proliferation
▁0.72
▁enlarged
▁0.1
▁epidemi
▁neutrophil
▁deoxyrib
▁SPECT
plantable
▁compensatory
▁25%
▁0.5,
19)
▁possessing
▁agon
▁mosaic
ophila
▁microliters
asions
▁63
▁2.8%
ovine
ingers
orporation
fir
▁angiotensin
▁thirds
▁Eleven
▁leaflet
▁simian
smoking
▁withdrawn
▁proce
plas
▁cachexia
cys
natal
▁parasites
olipids
omatic
▁chronically
iferous
▁microspheres
▁Kd
tion
▁intra
olac
▁bupivacaine
zyme
▁secreting
▁bronchodilator
▁delays
nee
yro
▁lisinopril
olytic
▁6.6%
▁noc
▁valu
▁algor
0%;
▁1.10
▁ophthal
isters
▁0.4%
▁spor
▁electrophoretic
iflu
▁carbonyl
▁conjug
▁8.3
▁dizziness
▁Gonad
▁maternal
▁isolate
▁bony
▁confine
▁kD
▁streptozotocin
▁(1987)
▁aberr
▁cartilage
inyl
ystag
▁parap
▁amput
epam
▁thermodynamic
kephal
▁lactating
esium
▁leucine
itoneal
3-4
▁potent
▁controver
▁GV
etirizine
▁striatum
▁bulb
▁peroxis
▁microelectro
dUrd
▁abbreviated
▁cardi
▁progression
▁membranes
xin
▁disulf
▁immobilized
▁interventions
▁evid
ensory
▁gyr
▁uridine
▁(98%)
▁mammary
▁lymphokines
▁cutaneous
▁(95
▁concom
▁PN
▁colonoscopy
VAS
▁parac
▁Hg
▁heterogene
osides
puts
-90%
fied
▁bathing
terologous
otoxic
▁neo
▁reac
▁2,3-
tam
▁suppresses
▁tol
▁3.2%
pended
▁hypercalcemia
tomycin
▁212
WB
79
▁somat
▁cohorts
▁stimulated
ponin
▁branched
▁PTH
eruleus
ispanic
▁22,
hyp
mitters
▁distrib
NAc
fib
▁19
floxacin
▁spermatozo
▁MCA
▁SLE
atropium
sied
otides
oxygenase
ifferenti
-34
▁identically
-5-
▁156
▁normotensive
▁subcutaneously
▁operative
▁infec
▁unlabeled
terious
▁vaccines
tailed
▁thresholds
mol
hered
▁convulsions
▁cerv
▁mitogen
▁recurrent
▁biopsies
▁0.82
▁(94
▁16,
▁intracellular
opi
▁puber
▁ischaemia
▁cleaved
daily
thin
▁skeleton
▁quantitation
▁apoprotein
gestrel
imaging
▁lactic
▁MF
▁immunostaining
▁stoichi
adrenal
▁EA
(7
ionic
▁nuclei
▁facilitates
44
iatric
40
▁2.5
▁symptom
▁Gynec
▁kary
▁400
▁Increases
independent
▁lumbosacral
▁8.6
portant
▁SHR
▁phenomena
GSH
carb
roscopic
▁alcoholics
▁adrenocortic
muscle
esic
▁metoprolol
▁oxidase
ophasic
▁caloric
aturation
immuno
▁uro
▁115
buterol
nthe
▁constituted
odine
TGF
▁brid
vac
▁infused
▁MN
conversion
▁isoenzymes
▁halothane
sibly
▁aerosol
▁(23
▁conduc
▁orific
▁MHz
▁24%,
▁implying
▁carcinomas
mediately
ophils
▁flanking
▁fluxes
▁1.2%
▁intoxication
▁fivefold
▁modulate
▁phosphoryl
▁keratinocytes
raconazole
▁carbohyd
▁fimbr
yto
▁dihydro
▁shortened
▁PPV
▁lipoprotein
▁transpor
▁quiescent
▁presentations
▁reperfusion
▁sequestration
▁hemorrh
▁BH
▁21.2
lipid
etence
4%)
oxia
▁multil
▁elicited
stimulation
aryotic
▁respec
▁calorie
▁puncture
▁oxymetazoline
▁electrophoresis
▁currents
▁panc
▁1985
▁Inhibition
▁adnex
▁stimulation
▁aneurysm
▁(40%
▁matur
ocl
oxygen
▁diarr
▁discontinued
▁homoz
▁arteriovenous
▁elab
vices
ophen
▁macrom
▁contracture
▁postinjection
▁phenol
inj
▁melanogaster
inergic
(3
parous
▁cardiopulmonary
▁ambient
▁internalization
▁10%,
▁premenopausal
▁logar
orectal
▁225
oretically
▁Myocardial
aemia
idem
toxic
▁duplication
▁biopsied
imeth
▁thrombosis
▁Antic
▁Suc
00-
▁epit
irectional
▁Excluding
57
oxamine
▁(0.9
-3.0
▁antin
rostagland
▁cataract
▁LN
ipitation
▁saliva
▁exploratory
VV
iotic
▁80,
▁phosphate
▁upstream
loidy
▁neurotensin
rever
▁inbred
▁acuity
▁blu
diabe
▁histories
rotoxin
▁inversely
yx
▁granuloma
ilibr
▁radiograph
▁erythro
▁introduc
▁deprived
/34
▁masked
▁RP
motor
Ig
tocop
▁strengthening
▁homogenate
.2)
▁yearly
heal
uted
▁LR
5%).
▁infective
▁antioxidant
▁immunocomp
▁succinate
▁apoA
iazide
ocin
▁10%
▁ow
▁microb
obacterium
Trp
▁indicative
▁Highly
agonists
▁Escherichia
osomal
natally
ocys
▁intrathecal
▁assemb
amicin
▁stepwise
▁triceps
▁Somatic
▁mesenteric
▁stoichiometry
▁antithrombin
▁Epidemiologic
▁neurop
▁consecu
▁pneum
Ta
▁recombinants
▁ultr
performance
▁ribs
▁luteal
diagn
effects
atological
sensitivity
▁toxicity
glycerol
▁macrophage
▁PCR
▁LF
▁chlorhexidine
▁6.
▁209
oagulation
▁hemolysis
▁sulfur
oblast
▁motif
PGF
▁hazards
lyb
▁GLUT
▁lem
▁Neu
terus
▁admissions
▁6
▁ampicillin
▁excitability
▁(1989)
▁replic
lational
rents
▁261
/2
5,
▁nicardipine
ioma
ithium
atation
▁exchan
▁iliac
▁(67%)
▁tomographic
organization
▁discom
▁1970
▁(92
▁corresponded
▁adenylyl
▁pellets
▁chlorthalidone
▁lymphocyte
carotene
▁leth
▁glucose
▁adenocarcinoma
▁varicella
▁arous
tradiol
,000)
ymmetric
▁paradig
▁4-
▁relaxants
lycer
▁struc
/30
▁(69
▁derivatives
▁reactivity
▁bacilli
quine
▁twitch
himb
Ile
Km
▁7.2%
▁estrogen
▁wavelength
▁angi
▁CHD
▁nigra
▁tonic
roitin
▁292
ovalent
▁1982
▁180
▁triglycer
acrylamide
▁Combination
2.
oplasmic
onephritis
sible
▁paroxysmal
ylyl
▁hypothermic
▁somatostatin
▁nonpregnant
anav
lymph
retest
▁differing
▁synergistic
▁(90%)
ffeine
▁subclasses
▁neutroph
▁prostatectomy
▁1:
▁mannitol
epti
struc
needle
▁examinations
▁vertigo
ronch
effec
▁323
▁fertility
▁phle
▁412
LN
rometric
ective
lod
▁regurg
▁Lipid
▁concordance
▁Lym
hydroxylation
▁(43
ranean
vasive
▁psittaci
▁derange
▁glutamic
▁multim
▁covalently
▁spectrophot
▁rati
▁70-
▁44-
▁Injection
▁fum
▁3-4
▁endobronchial
8,000
▁trigg
▁18
opal
▁(37
▁cyt
▁exis
▁motone
VLDL
▁urethral
▁squamous
▁multis
▁disulfide
.0)
(1,4,5)
▁purity
▁unrecognized
atoid
ameter
▁operon
.2,
▁vege
▁blockers
sively
▁vanadate
▁audi
▁0.54
.8%
▁75%
▁advan
▁mediastinal
▁cortic
▁fmol
▁anaesthe
▁rhodopsin
4,000
significant
oppler
▁(31%)
osynthe
▁inotropic
▁endothelium
CNS
▁saturable
▁Subst
▁VP
terone
helium
tium
▁nonprotein
-65
▁AVP
▁PF
▁iden
▁nonm
▁affinities
▁pyram
farin
keratin
▁erythema
▁spindle
clerotic
lived
9%)
▁arthritis
▁Outcome
▁(76%)
103
▁prednis
▁leukemia
▁augmenting
▁vascul
vitro
-60
methyl
▁serologically
geneic
▁monophosphate
▁bicarbonate
▁susceptibility
okinase
▁parat
roxic
▁cephalospor
▁calor
▁bp
▁dextrose
DH
▁sperm
zine
▁FGF
▁Activation
blind
▁343
▁solub
(+)-
apamil
▁223
▁1976
oxane
meth
▁Immuno
▁18%,
▁tumours
ifers
sectional
-90
▁eminence
ositive
▁[125
▁triphosphate
▁hygiene
▁39%,
▁tib
▁.000
lue
▁oncogenes
▁stratification
▁IDDM
anine
▁cavity
▁infarc
▁Increas
▁electrode
▁sampled
chym
nitro
pregn
▁calmodulin
operidol
flammatory
▁amp
orbol
▁exerted
▁MEDLINE
▁osteoc
TRH
▁cardiovascular
▁purification
opathic
▁monoclonal
omal
-22
oconjug
utive
39
▁antif
6%;
▁synaptosomes
irubinemia
rox
aethyl
▁aspartate
▁hydroxyproline
umetanide
▁NIH
▁AGA
▁poorer
comitant
erated
▁0.42
▁somatosensory
inemia
lastoma
▁deposits
▁kd
▁145
▁overlapped
iphene
ept
irradiated
▁InsP
▁gyn
▁transferase
admium
▁prospective
▁visc
▁pools
▁encephalopathy
adrenaline
tamine
▁GHRH
taz
▁antimicrobial
aggressive
planted
▁ultrasonic
stimulating
▁nonin
arrh
▁oligonucleotide
umbar
RNP
▁placent
▁abr
▁semiqu
▁tolu
3,000
▁Pseud
▁patency
▁-9
▁iso
kinin
0/
▁brevis
▁hypercalciuria
▁emboli
eptides
▁9.6
ethylene
▁catabolism
▁logistic
▁hairy
▁incubation
▁0.93
▁disturbing
▁messen
▁mice
▁sensi
▁PRP
▁sciatic
▁bronchoalveolar
▁mutant
▁mediating
Ox
▁550
▁hydroxyl
ereb
iclovir
▁0.2%
chol
letion
▁nephrotoxicity
▁accumulated
▁26.5
▁GRF
▁bran
pirin
▁blin
▁PAI
▁diuretic
thms
▁androgenic
▁salivary
-]
ecal
▁sterol
755
▁cereal
ratic
▁cleavage
▁amygdal
▁cocaine
artum
▁9.2
mineral
▁4.0%
▁ank
antoin
▁RL
-(3-
▁projecting
enzyme
apid
▁carp
▁59%
glycerin
tine
tually
eared
▁cervix
▁postpartum
▁carbam
▁shif
▁arth
gus
yanodine
▁194
▁proximity
amphenicol
▁saturated
▁intravenous
▁atherosclerosis
.4%
▁CBF
oic
▁Ventricular
-27
▁dermatitis
ilized
▁resembled
▁215
▁(63%)
▁183
▁hypertension
urgical
▁solids
▁CRP
titute
ophysical
lamydia
50
tizing
▁yr
▁venules
▁histologic
▁progest
▁aggre
anding
▁VV
isopropyl
▁smear
.2%
▁crom
▁recombin
▁undetected
ogeneic
▁digestive
▁regulate
▁splenocytes
▁Failure
▁82%
▁compart
ucleated
▁allevi
▁progressively
aryl
▁turnover
▁gels
oxim
▁750
▁electrolyte
▁polycystic
orax
myc
▁elast
▁neurones
▁barb
▁scin
omegal
oceptor
etoprotein
▁trig
ews
▁Secretory
irubin
▁(60%)
opsy
▁proteolysis
(3)
▁tetra
stro
orubicin
antagonist
14.
▁epidemiology
ACTH
cence
/100
luent
▁elemental
▁perox
testosterone
▁cigaret
▁95%
elvic
▁MRF
▁8.
icep
▁acrome
▁surgeons
▁0.83
29
adenosine
fractions
secreting
▁discomfort
▁lysate
▁(75%)
tilage
▁Included
4]
▁Sephadex
uspid
▁316
▁leakage
▁thrombi
yrate
eal
▁correlating
▁pla
46
▁absorp
methoxy
atellite
▁transaminases
▁ECGs
oleucine
▁irritant
▁0.38
▁pate
▁depolarizations
osacral
▁fluids
▁Steroid
opram
alkyl
catalyzed
inflammatory
▁functionally
▁deletions
pation
helical
▁interventional
▁simplex
▁polymorph
dihyd
▁multivariate
resis
administration
▁vegetable
▁laminin
0.0
▁iod
melan
▁catar
▁retic
▁membrane
fusion
▁vertebrate
▁physiology
▁nmol
▁Lact
▁enhances
▁hematopoietic
▁crystall
▁99%
ituit
▁myotubes
ineal
oterol
▁71%
▁erythromycin
▁124
chymal
micrograms
▁superv
▁1.48
plen
▁0.60
▁thiop
▁0.55
▁Fewer
utroph
▁supplements
▁myoglobin
▁reactivation
poor
▁proteins
▁carcin
oidal
▁fetuses
▁Hyd
▁DNase
9).
▁Subjects
sive
IIb
▁plantar
odular
▁PEF
▁indirectly
SAID
xime
▁COPD
▁17.1
▁muscarinic
▁sprin
leural
▁ferric
▁mesenchym
▁enzymes
▁anae
EGF
▁microns
▁chyl
▁innervation
▁117
umptions
▁Compared
▁28%
▁(26
▁conjugates
▁neuroblastoma
▁8.3%
evoked
agic
onuclease
▁0.41
73
▁isch
oxazole
▁FcR
umably
▁prolongation
ubiqu
▁264
▁amph
▁congestion
▁pylori
▁cisapride
▁tracts
clamp
ifferentiation
▁prol
▁(1.0
▁0.7
iferative
acids
fetoprotein
▁casein
.5%
▁stripping
▁threefold
▁ventral
perature
▁6.3
▁(1.3
ucas
▁inherent
duced
▁hypers
▁82%,
▁ischem
▁0.27
▁GE
▁tolerated
▁laparoscopy
tetra
psin
▁65
itching
▁selenium
▁isotonic
5);
olesterole
▁instruc
▁.001).
▁hypotension
▁erythrocytes
-70
▁198
▁somn
conduc
▁600
▁bile
▁50-
fat
velength
-1).
▁polymer
▁neutralization
biotic
▁116
▁neuros
▁neurites
▁lactobacilli
▁problematic
▁ischemia
▁Tumor
▁[1
50.
▁0.16
▁(78%)
odality
▁corticosteroid
▁CCl
▁verte
▁peptide
56
1-
▁kDa
NGF
▁rigorously
▁ATP
▁4.6
▁1987,
▁degranulation
verages
▁protec
tox
acteria
▁nonresponders
,2
▁vimentin
5%)
acycl
▁reapp
▁grafts
nec
hans
▁TSH
timal
tability
▁6.8
uin
▁zinc
▁echocardi
▁nadi
chemical
▁17,
linking
▁pontine
▁denatured
[3
▁Groups
uting
▁hyperox
▁(90%
▁Factor
bile
▁8.5
▁uncovered
▁tritiated
▁167
▁nitrendipine
carbohydrate
oplasm
▁(2.5
▁renal
▁2,4-
-99
▁saline
jec
▁infarct
uccessful
▁Fc
vate
▁60-
lash
lier
▁158
▁trophic
▁acetate
▁nM
benefit
▁acetonide
▁cephalosporins
31
udent
inic
▁cann
▁MH
uncture
▁72%
▁PGI
tate
▁catheter
erative
▁Experiments
▁microinjection
▁0.11
▁7.1
hig
▁Eighteen
ropo
▁alkaline
imethyl
▁sutures
eak
phin
▁psycho
▁hypnotic
edding
▁antisera
armac
▁curet
4+
▁healed
olem
▁astrocy
▁transfect
▁wt
▁prox
▁Tc
▁activators
▁Raynaud
ipro
▁285
▁ethn
▁counterparts
▁150,
▁cylinder
opressin
amido
ometri
▁RSA
▁meperidine
▁hir
Ls
▁phospholipids
ologous
oglyc
carinic
▁0.08
▁schiz
▁transient
EMG
▁fumarate
embers
▁accessory
▁uve
▁presynaptic
torchid
▁14.
ographs
-36
serine
▁revised
dihydroxyvitamin
dehyde
▁maximally
▁Immunohist
▁lorazepam
▁deprivation
othel
▁Staphylococcus
neph
▁nuclease
▁subsets
▁tubes
8,
ACh
otri
bly
▁supernatant
▁pector
▁allo
▁diacylglycerol
ropath
▁morb
▁abundant
▁dosage
▁phosphorylase
▁-1
mum
RBC
▁Membrane
orpor
▁PSA
▁immersion
tages
▁midline
▁Combin
▁hetero
compart
▁Caps
▁uric
▁[35
▁endonuclease
ropathy
sorption
▁lavage
rk
rested
▁ventromedial
-10(
▁TB
▁Diabe
relations
▁amounted
keleton
▁(0%
▁yiel
▁(1/
dU
▁allograft
▁elimin
pharyngeal
jun
▁Fram
onates
▁bup
▁14,
▁mobilization
azepine
iasis
renaline
▁Testing
▁itching
▁cyc
ordant
▁transection
gulation
▁dioxide
▁0.67
▁definite
▁bivariate
▁stres
▁enriched
▁haemodynamic
▁adherence
ogenesis
▁RU
albuminuria
▁reinfor
▁differs
▁anemic
ranolol
rangement
▁permissive
▁degenerative
▁biosynthesis
▁2.3
▁10.4
▁uptake
athe
▁NSAIDs
▁superoxide
▁stroma
gressive
ensities
▁Recommend
erad
/12
▁purified
▁invari
2+-
phal
▁medial
▁parenteral
▁vancomycin
ystatin
▁hyperb
supplemented
▁beha
▁2-
antibodies
▁acetylcholine
▁condyl
▁Salmonella
▁15%.
roids
NMDA
▁dox
▁41
4),
▁agarose
▁strikingly
▁beclomethasone
▁bronchoconstric
ardia
.00
odies
▁fas
▁conception
antigen
▁venography
▁periphery
ovaginal
erving
umerous
tious
angerhans
centered
aldosterone
▁Aden
▁GABAergic
relaxation
▁70%
perg
▁Pharmac
▁exud
▁tachycardia
otopic
ervoir
▁consis
▁ocular
tenosis
▁steroidogenesis
▁insoluble
perfused
bA
estim
▁etretinate
▁(12
▁44%
-1.7
lec
▁hap
atid
▁senes
▁PU
aminoglyc
▁abortive
atified
▁lipophilic
▁60%.
5]
▁implanted
▁midbrain
▁MBP
:30
orbidity
▁LAD
sant
romes
▁WHO
▁promotes
lip
sensitive
▁adsorbed
▁acr
1).
▁serologic
went
▁solute
ducts
anic
ilus
lactating
organisms
▁ranged
▁247
▁triamcinolone
▁evoked
▁fulminant
▁ultrasound
▁18.
▁12)
gestational
▁1)
-50%
opulation
acting
▁acet
▁endocardial
odone
pinal
umbered
700
▁genomic
▁trout
▁70%.
ondyl
▁bombesin
▁blot
▁ibuprofen
illar
elic
attern
ATPase
0%
▁96%,
▁photon
▁contractile
▁summ
dural
▁dobutamine
0)
mined
▁GTP
▁degrad
▁pyel
(1)
▁ovid
▁zymosan
▁ovulation
▁herni
occus
▁pipette
▁unexpl
▁proes
▁AKR
ticle
▁anesthesia
ritin
▁0.23
▁Adherence
▁contraception
▁multin
▁glutathione
▁Triton
▁angiographic
aminases
▁IU
▁aspart
▁(70
▁nodule
oderm
converting
▁6.2%
alb
timulation
▁Amino
▁catabolic
▁hCG
▁correlate
20
▁statis
▁unil
▁Thirty
▁(0.6
▁deple
maximal
▁attained
HCO
phasic
acin
▁PMS
.5
▁24
PAP
▁10(-1
▁psoriasis
glut
lood
ocysteine
▁0.01)
▁Phe
▁oriented
▁carcinogenic
▁ejection
allik
▁dipyridamole
ths
WK
▁inhalation
▁DMSO
▁acco
▁abnormal
▁hyperg
▁Computed
▁scro
▁(100
▁juvenile
▁triazolam
▁ketoacid
▁Plas
labeling
sych
▁cG
▁(20%).
ylline
aptic
▁270
▁medicines
▁inpatients
phil
▁Effects
▁29,
▁backgrounds
▁fluoroquin
resistance
▁benefited
▁Thir
▁Animals
▁33.3%
▁penetration
labelled
▁ointment
▁Combined
▁enzymic
quam
▁bronchospasm
▁SCH
▁gastr
▁disadvan
▁151
▁occupancy
▁budesonide
▁5.6
▁carriers
thmias
1:
▁ruminal
▁adi
Pu
eptidase
roat
▁1.19
-(1
ochle
▁luteinizing
▁overestimate
▁pem
▁wee
onine
▁lact
▁14-
▁indo
erus
▁ventilated
overed
▁numb
▁tymp
▁intub
oventricular
tolerance
▁gastric
▁overestimated
oxid
-15
▁nephron
▁vesicle
▁locomotor
▁-5
▁(62
▁Ps
▁measles
▁RB
unced
ulcer
ocap
▁amplification
▁hydrop
reatine
▁stationary
oblastic
▁peptic
▁noxious
▁0.97
▁laevis
▁deficiency
▁63%,
▁antihist
operative
▁92%
▁1.56
dipine
▁340
▁aberrations
▁Flu
-4-
▁preceding
▁fibroblast
ostomy
▁transferrin
▁maneuvers
27
operatively
▁phosphatase
49
▁hapl
purified
asthmatic
odiaz
▁Progesterone
▁solitary
▁arrhythmias
▁Myc
▁anticonvulsant
▁carcinogens
lyce
▁1.02
▁hydrochloride
▁25
▁1.95
osensory
▁indus
▁Swed
orenal
▁lumen
▁24,
merc
▁alp
▁Tyr
▁fractionated
▁resected
tensity
phyrin
▁(5.1
▁9.
▁cefaclor
▁Inhib
ylamide
▁scrotal
▁provid
moderate
9%
▁DVT
valent
▁aden
piratory
▁sensitizer
acental
polar
▁ecz
weed
▁ferrous
▁sti
▁gyrus
81
dotoxin
toph
▁mutagenic
ilical
helial
dA
divided
▁8)
gestion
▁HBs
▁principally
romycin
posable
▁regulator
loro
▁ductus
▁scre
▁2.5%
▁38
oung
▁endos
phosphate
▁CAPD
▁22%
imbr
toid
▁Plate
▁predicting
histamine
▁19%
▁237
▁430
▁diabe
▁alkylation
▁ABR
▁ontogeny
▁nox
▁tremor
▁thromboembolic
▁determinant
opoiesis
▁58%
▁usefulness
opus
trip
▁myo
▁lamina
▁baro
▁acetone
▁ruptured
▁Biochem
▁relevance
▁methotrexate
▁spherical
atrial
▁atria
bility
indolol
-38
▁vap
▁enteric
exy
▁undergoes
▁ero
▁iat
▁afferent
▁WGA
▁12
▁methodologies
▁Tg
▁CBA
89
▁Combining
brom
▁monomer
uresis
butamol
▁tricyclic
▁phos
reness
▁collaterals
▁Acad
ulon
63
▁methadone
87
tension
▁proteinuria
▁Screening
inducible
▁ori
▁specimens
▁adenopathy
5%),
▁descriptive
▁exhibited
▁glaucoma
▁(10%),
▁0.05%
▁0.30
robial
tism
luores
ynaptic
▁30-
▁exposures
▁overweight
▁trich
ardias
ystitis
▁vacuoles
lactamase
liters
▁myof
ffinities
▁Clinical
▁fec
▁EMG
▁sedimentation
▁24.
▁Surve
-52
▁discharge
sulfate
▁Centers
▁paternal
▁chromosomes
▁phe
onorgestrel
▁labial
▁GABAA
omorphine
▁subpopulation
▁Melan
▁quintile
▁encomp
▁Cs
▁indexes
▁valproic
▁Fischer
▁lacked
▁adren
▁9.4
▁sickle
phen
ecretory
availability
glycine
kD
abdominal
▁isoniazid
▁dissolved
uppression
▁ectopic
thma
▁ara
PHA
iplinary
plates
adol
▁socioeconomic
upus
▁collic
▁homeostasis
▁formaldehyde
▁(56
▁12.5
▁conformational
22
tetr
abain
▁schem
▁(38
▁caudal
▁intravascular
12).
viron
ospor
▁borderline
dIns
▁castration
▁endarterectomy
▁intrathe
estig
enolpyruvate
▁IOP
▁hereditary
▁hypoglycemic
▁0.95
▁(0
▁protoc
▁medically
▁fibrill
▁PCP
▁sequentially
▁[32
▁backbone
▁glioma
▁1.26
ivered
▁(42
elan
▁16
▁concentrations
▁interpre
▁hypocalcemia
▁Reduction
▁upd
153
ussion
▁clarithromycin
▁autoantibodies
▁chymotrypsin
▁fulf
ller
▁blunted
▁28,
ulsive
▁unsuitable
▁transcription
▁chan
blocker
▁isoenzyme
▁syncy
▁nocturnal
afibrate
▁bundles
5),
▁chond
▁bouts
▁modeled
ameters
▁phasic
▁cysts
▁duodenum
▁jejunum
▁affective
▁piglets
▁suspensions
romal
▁6).
▁remin
▁diminished
▁([
▁capacities
▁(4%)
echan
▁irritable
▁awa
▁0.65
.5.
erb
6,
▁40%.
overall
formyl
▁interne
ynthe
ygen
▁extrinsic
luding
▁(9
▁iatrogenic
▁Measurement
imens
▁AML
iminary
epiandrosterone
▁compensated
▁flexor
opar
▁256
▁wean
▁soleus
▁cerevisiae
udine
respectively
utable
▁ketoacidosis
▁APC
▁epidermal
▁MV
oprec
activating
alazine
tally
▁insertion
▁HL
▁parame
usually
▁TP
▁poliovirus
▁melan
1,
▁multiv
oreg
▁189
ovir
▁hens
▁polyclonal
▁Mn
ituitary
▁ves
▁polysomn
▁Intravenous
etal
▁vesic
▁prescribing
▁saliv
ocyte
▁2).
▁17.8
viruses
▁endings
LDL
▁perit
▁urokinase
▁unex
amethoxazole
▁urticaria
▁infrequently
medicated
▁Forty
Nase
ophil
tch
▁cuff
amines
▁constitutively
▁prednisolone
osidase
45
▁microenviron
▁evol
▁hydroxyp
till
▁2.9%
▁illnesses
▁infrared
▁lutein
▁yielding
▁haem
▁viscosity
▁comple
▁modality
▁recombinant
FEV
▁attainment
▁thrombotic
▁aerobic
▁solvent
▁rheumatoid
▁increments
▁Schwann
▁Removal
,6
ulph
▁coagulation
▁neuropathic
▁histamine
0.1
ogaster
▁lymph
▁supernatants
24,
copic
▁(25%)
▁possesses
▁migrating
osom
Hyp
ediatric
▁disper
84
▁erythropoietin
8]
▁mL
▁pharmacy
▁secretagogues
activation
▁prothrombin
▁comprise
▁nicotinamide
▁glycosaminoglyc
▁6.7%
-6)
▁analogs
xanthine
▁(5%)
▁constitutive
aortic
▁intakes
▁stimulants
▁Responses
vents
▁arteri
▁stiffness
idate
▁182
▁glycemic
oxin
▁abrog
▁conservatively
wes
▁0.0001).
▁cholest
atase
▁77%,
▁exce
primarily
▁codons
▁thio
opecia
amol
▁tachyc
itant
icardial
transferases
▁dysrhythmias
robic
▁transducer
yronine
idazole
▁parotid
▁deficit
▁gastritis
▁20
▁buspirone
▁PID
▁abdomen
vascular
▁10(-5)
▁recruitment
▁RSV
▁tumorigenic
▁86%,
▁undere
▁notic
▁40%,
▁heavier
▁adjus
▁characteris
10).
▁22)
▁spati
deoxy
▁thrombolytic
▁(77%)
3+
▁10(4)
▁tetracycline
▁1.12
(2+
▁sphinc
stress
▁hypog
gents
▁lacto
▁4.3%
phila
▁61%
▁hippocampal
oprostol
▁synapses
▁ruptures
▁murmurs
▁1.6%
uracy
▁10(6)
▁moth
ocomial
▁confounding
▁CAL
odds
▁95%)
▁hypoxic
▁allelic
▁laminar
▁paradox
▁levodopa
demic
▁psychosis
tum
000,
LPS
▁autocrine
ayers
disc
▁spectro
▁standardized
eck
▁ligated
race
▁Subsequent
enteritis
Ci
▁grouped
▁ure
▁referrals
encl
▁ubiquitin
▁5-
▁intrauterine
▁pathology
▁benzo
▁chondroitin
-78
alues
▁NIDDM
▁(13
ochondr
▁Histologic
▁(7%)
IAA
▁nonspecific
▁0.0001)
crystall
▁2'-
▁293
▁exponential
▁3.5
▁prescriptions
▁Relative
imination
▁teratogenic
obic
▁Inde
▁primiparous
▁clones
▁antero
ocortex
BV
▁Crohn
▁probing
▁Gluc
▁varic
jective
▁FSH
6)
.0,
triglycer
▁ane
rosophila
▁effectors
otin
▁Newly
▁sarcoidosis
ventil
▁coughing
▁dihyd
subunit
▁bradyc
▁transcripts
▁sarcomas
charged
▁anticoagulant
loride
▁sarcoma
▁epididym
▁cholesteryl
▁DHEA
▁granulocytes
▁histochemical
HN
▁ae
otransferase
90
iteal
▁ratios
▁lymphoblastoid
▁choleste
▁3%.
▁coincident
▁hospitalization
▁MW
▁hypocal
ovulatory
▁Previous
wann
▁meniscal
▁0.3
58
▁metabolism
andard
certain
rotal
astatin
32,
bilities
▁(36
ogenetic
iptine
▁urinalysis
insensitive
▁90%,
▁GFAP
▁(0.8
▁47,
acted
▁(25%
▁stresses
▁specificity
ochemically
oscopic
▁sacr
gland
▁virtu
▁uncontrolled
averine
kade
▁nonoperative
induced
isite
▁1.66
Phe
▁epidemic
▁pharmacokinetic
▁Abdominal
pecific
vein
vated
▁176
▁Recep
ressive
▁morphogenesis
exis
athioprine
0%).
▁encodes
erop
▁tubulin
urones
estradiol
▁stent
▁KA
roprus
yrid
umbens
▁Peripheral
▁cardioplegic
▁76%
562
tory
▁arginine
▁inhal
tization
kinesia
asses
▁cramp
▁ionized
▁ornithine
▁aggregated
opre
▁adminis
▁chlo
terminus
tectomy
▁UTI
▁anomaly
▁Natl
▁miscar
▁pressor
sorbed
▁104
18)
directed
▁cytoplasmic
lining
▁redistribution
aturated
▁inducing
quid
▁9.0
heximide
▁cyst
35)
▁transduction
▁stained
▁psi
▁influenzae
itoring
▁Institutes
opathological
adrenoceptors
▁0.70
▁21
▁lactation
rogesterone
▁fasci
cessive
▁homolog
▁marrow
within
▁inadequ
trig
7;
▁postnatally
riched
▁(50%)
▁414
▁discontinuous
▁autoimmune
▁follicular
▁metabolite
▁3',5'-
▁practiced
▁inhibitory
olerance
trients
ilts
▁stenosis
▁Americ
▁monolayer
itidine
▁Basal
▁coil
ancreatic
▁GH
▁fung
▁9.7
▁TA
ods
quinone
.5,
robenz
▁emptying
▁neuropathy
▁microvascular
▁hydrocarbon
▁thymocyte
▁0.63
▁bisoprolol
Ep
▁gonadal
uptake
▁obesity
▁granul
▁malaria
butyl
▁heifers
iagn
▁pathogenesis
▁hybridoma
▁symmetrical
onyl
900
▁1983
▁0.40
oplasty
2.1
ygo
▁cmH
PCR
▁obstetr
aterally
▁mannose
invasive
▁affinity
tivities
▁nef
▁atyp
-14
ogl
▁lympho
▁contracep
▁traction
fluorouracil
stranded
▁metastatic
▁venti
▁analysed
▁tidal
▁postoperatively
acyclin
▁rehabil
oproteins
▁antec
▁quin
▁stratif
grown
▁gating
▁Patient
hern
▁insol
▁subpopulations
alveolar
▁exponentially
▁450
▁48
opharm
▁(1.4
/6
▁GVHD
▁supplemental
▁endocarditis
▁3%
▁pancre
hydro
▁myeloid
▁pretest
odipine
▁subcl
▁testis
▁saphen
semin
▁attrac
tices
▁excre
▁poin
▁diges
▁Glut
▁84%
▁273
deriv
ulitis
▁stimulating
▁methanol
▁ventricle
▁Adh
▁comparatively
-200
ected
finding
▁prevalent
esarean
▁20%
▁inactive
▁enkephalin
pA
▁Factors
tracheal
▁supra
▁flap
▁smears
▁antic
▁mitosis
▁cephalexin
▁inflammation
▁facilitation
▁Trials
dL
▁predic
▁spanned
luc
plasmin
90).
▁295
ungal
▁8.4%
▁sigmoid
▁kits
▁ceph
yrib
▁580
-85%
▁sulfonyl
▁dete
▁contradictory
IgM
omplete
▁roughage
PAT
▁cardiomy
▁benzodiaz
bral
▁alcoholic
chicine
▁(1.1
▁restric
9]
▁tubular
▁embryo
▁Enzyme
▁airflow
▁chloro
jury
▁comprehen
▁preventive
▁53%
cervical
pecies
▁centrifugation
▁responders
▁athe
▁soma
▁biom
azep
▁modifying
roscopically
urane
anoids
▁intestinal
▁muta
▁reiter
▁TGF
▁lymphoid
▁29
▁NMR
▁accessibility
▁surrog
tional
generation
▁indefinite
▁synthesized
▁rehabilitation
388
▁surgically
topril
phrine
▁abrup
▁recognizes
▁interc
▁mesoderm
▁peroxide
▁salbutamol
ocyst
▁800
ygdal
yelinated
intensity
▁seasonal
ammonium
▁voluntary
▁(10(-7)
immun
▁nonsmokers
▁dissoci
GMP
▁retested
▁illustrate
▁Adenosine
▁splen
stolic
5)
▁0.49
incubation
▁establ
▁elongated
▁reversed
▁abstinence
▁iodide
phosphatase
obarbital
adren
▁Pneum
▁papillomavirus
▁characterize
▁162
TNF
sac
▁autoanti
▁cycloheximide
tris
▁dissociation
▁gastroenteritis
▁macrophages
▁xanthine
▁283
▁interp
62
▁furthermore
▁typh
▁radiolab
▁congen
300
▁4)
spectrum
pir
acute
▁ventricular
▁pK
83
▁menopause
▁ethnicity
▁enterocolitis
crip
arrest
▁mA
CFU
▁euk
▁injec
▁GDP
pressure
▁influencing
ocaine
▁comprised
▁occipital
▁clot
▁rho
▁kinetics
▁xylitol
tructive
Tc
▁perturbation
▁transported
▁Infants
▁thiaz
▁dB
▁sinusoidal
▁prednisone
▁drip
entral
▁dividing
▁SMR
uracil
▁proceeds
▁3
▁agar
▁evacuation
▁suppressor
25,
tinguish
trus
▁lith
umption
ocytopenia
TSH
▁milder
ergency
wk
▁cotrans
▁relaxations
▁274
▁3.9
yocardial
▁spermatozoa
▁DTH
▁polyp
▁irrigation
▁reflexes
oxyrib
▁ascending
kinetic
faction
▁exacerbate
ampl
oracic
▁irregularities
▁benzoyl
▁rhabdomy
▁tryp
▁Nit
resting
onance
▁spp
▁inflamm
+]
▁manifestations
odg
▁molecule
▁examiners
weighted
▁Infection
enching
▁0.75
retro
▁spind
▁homose
glucosidase
▁hepatitis
osan
Ds
▁thromboses
athione
rae
▁malaise
▁dextran
iscal
cus
▁2-5
▁rabbits
▁pathologic
itively
▁warran
▁transduc
▁IB
rosal
▁disrupted
agit
irradiation
1)
▁atropine
▁emphasize
lyte
▁77
expressed
▁prono
▁permeation
glia
▁methodologic
▁221
amino
▁socio
▁coenzyme
▁GABA
▁cervical
▁micromolar
▁retention
▁motility
▁235
▁lytic
▁droplets
myrist
▁colorectal
▁eti
▁displaying
▁alcoh
▁antid
▁mesen
▁anterograde
▁BF
▁spectroscopy
physeal
umented
oreceptors
plasts
iol
SMR
omat
▁complementary
23.
▁cones
▁spermidine
▁testosterone
▁LD
▁CG
0%),
▁methylated
rostened
oglut
▁Chlamyd
▁spirometry
▁ACI
▁HRP
crist
▁sedentary
ymp
-23
▁3.
▁mitochondria
▁Asi
phor
mercap
▁7.4
▁nephropathy
▁99
▁staurosporine
onucle
particularly
rans
▁Smoking
▁underestimated
heric
▁Cardiac
HCV
▁resusc
▁Subjec
▁postin
▁rodents
▁amiloride
▁palate
cyt
4-
urea
▁contractility
▁suckling
▁targeting
1-1
▁1.38
▁serine
▁344
kinson
olab
hydropyridine
squ
▁perivascular
carbon
42
▁radioactivity
▁isotype
-0
Gy
▁circumferen
▁stabilization
▁ack
25.
PKC
igaret
▁amide
▁nonsurgical
▁11%
▁4;
▁(9%)
2+.
▁foci
▁MAbs
▁-12
emin
▁neurite
▁unsuccessful
aternal
12),
▁atopic
▁1.29
opeptide
▁phosphodies
▁longus
opha
inoc
▁Obs
▁90%.
▁nonsur
▁communic
muc
▁azide
▁alterations
▁Sprague
▁internists
▁effec
▁fractions
specificity
▁Depression
▁beats
bular
▁linearly
glucuron
▁unfol
▁FK
▁179
▁(125
▁births
▁0.01),
▁buffered
yses
▁respiratory
-3.5
dic
▁cytosine
ervated
▁rigorous
throm
▁144
▁(33%
▁uv
▁endoc
hospital
ectin
▁aromatic
hyd
▁ultras
▁aspec
▁0.71
▁glucocorticoid
regn
▁phosphor
▁warr
tist
▁irradiated
▁immunoprecipit
emias
ystokinin
▁cyanide
▁diets
▁neurologic
▁synthetase
tural
feron
▁1(
▁vitamins
-0.5
truc
▁monomers
▁cytokine
▁swine
uretics
teryl
▁testicular
▁chromatographic
▁fibers
rhea
GABA
sepithelial
assays
▁EGTA
▁subcellular
ritish
(2
arental
continu
▁-0.5
▁biop
▁dilat
tioned
▁excluding
98
▁ganglia
▁fungal
▁NG
▁superc
▁50
▁62
▁prolongs
▁Depending
▁collec
iesis
▁inward
▁Subjective
▁sensitivities
ofib
activities
3.
▁MCV
trates
▁(58%)
prol
80)
MLP
▁correlates
▁Phosph
▁rhythmic
odynamic
▁permeable
-88
▁endogenous
▁disrup
illus
flanking
opausal
schem
▁prolif
▁transmitted
▁(12.5
▁colonization
leuk
▁sucralfate
▁brainstem
tite
olip
akary
permissive
▁rIFN
▁ADR
▁induction
▁infections
Barr
osteroid
▁calcification
12,
ischemic
▁nosocomial
ocamp
▁15.
▁(=
tact
▁posttreatment
sistent
piride
▁iodine
▁homologous
▁rGH
▁Pregn
▁apex
▁16%,
classified
▁hypotheses
omain
▁Surgery
disciplinary
▁inhibit
▁56,
▁intraluminal
▁indomethacin
000.
chrom
▁Thereafter
▁ethyl
▁reper
ropine
▁isomers
obases
▁pS
▁5.
thalidone
▁muscul
atical
tro
tead
orded
Hep
▁Chronic
▁152
▁glutaraldehyde
encephalon
▁dele
▁1991
▁0.05)
▁streptococcal
▁500,
▁persists
▁VO
▁resultant
▁villus
▁HDL
▁111
▁contamination
HPLC
▁81%
▁fla
▁Michaelis
ietic
0%.
thick
ocalization
▁-0.7
▁anastomosis
othal
▁reflux
▁thyroidectomy
alc
▁indi
hyde
▁Enal
▁hyperpolar
uantitative
▁Bacillus
▁responder
78
.0%
▁0.07
gA
▁200-
▁contour
▁thallium
-6-
-(2-
▁1986,
▁oscillations
▁AE
▁glycoproteins
▁biliary
▁splenomegaly
eric
accharide
▁165
▁Calc
▁Postoperative
0-
▁(75
▁polyaden
reases
▁ventilator
▁sphingomyel
▁glycosylation
▁glycolytic
inatal
▁0.29
convulsive
mur
▁thyroglobulin
ults
▁detectable
▁10.
tagland
responsiveness
▁-0.3
▁cochlear
▁1.18
▁cyclic
▁myelin
▁trophoblast
▁2.4
tran
▁embolus
▁confirmatory
tensives
▁dendri
Daw
ohns
▁shor
gans
ocycline
▁morphologically
▁contraind
▁caudate
▁Sera
ervative
▁60%
▁urea
gely
cB
▁mediator
enteric
urium
▁synthe
▁solubility
▁favored
▁-7
▁metic
▁elongation
-300
▁assayed
▁quinacrine
illary
transformed
▁0.02
▁anteced
▁prostagland
idovudine
-1,
positive
▁SCC
▁ketone
dR
▁fluor
enol
▁incomplete
▁mesang
ocriptine
visual
▁bradycardia
▁12%
/8
▁aro
LH
▁carvedilol
▁rotational
▁acinar
▁phleb
▁10(
▁parturition
ositi
▁salmon
anide
▁cytotox
▁amyl
50).
▁lumin
ophageal
ociation
▁epitopes
ubs
orption
▁Biochemistry
▁Systemic
▁bacteriophage
iloride
▁anaemia
▁bilaterally
lob
▁112
▁EST
ipit
odip
▁loci
▁28%,
▁1.08
▁ouabain
▁10(-4)
▁sensitized
▁lymphatic
▁indications
concentr
▁minus
▁ammonia
▁(24
80
▁mosquit
▁pulsed
opathology
-16
aind
▁placebo
▁mononucle
injection
▁1984
▁quantitatively
stimulated
▁Premature
hCG
▁demonstrates
alic
▁systolic
oxicillin
rologic
colem
ffec
▁transcriptional
cephalic
▁transcriptase
▁subc
▁metformin
atosis
▁subarachnoid
▁collagenase
▁superiority
▁surrogate
erythro
ysin
ancomycin
GFR
chl
31,
▁necrotizing
adily
▁soy
▁Bacter
ochemistry
▁biologically
xual
▁fertile
▁sple
▁haemorrhage
▁aberrant
vic
▁Levels
▁actu
▁TCA
▁swabs
trial
▁techniqu
▁transfusion
▁mutagenesis
▁146
atitis
▁46%
▁Carotid
acyl
▁CDDP
▁miti
▁endot
restingly
▁Pn
▁accumulate
▁quantit
ylene
▁cytology
▁9.9
▁hyperch
▁cartil
▁sequelae
▁2.7
24)
▁atheros
▁orally
▁viability
omycin
0.6
▁MG
plying
▁thrombocyt
▁bioavailability
pap
5,000
▁ANG
translated
acid
▁junctions
▁strand
tonic
▁sagittal
▁aggression
iliac
▁weighed
othione
▁hyperthyroid
tenolol
▁macromolec
▁nip
ostr
▁(54
▁uni
▁27%
▁reacting
▁18%.
▁137
▁147
▁intensely
▁microorganisms
▁catecholamine
▁chloroquine
dihydropyridine
▁agonists
▁linoleic
▁confir
essation
stin
▁topically
▁0%
▁synthase
▁boutons
▁myofibr
▁infar
▁phosphorus
▁exceeded
odiazepine
lora
tral
▁Improved
▁localize
otrophs
operox
▁Effic
▁hemorrhages
▁[14
oflav
omial
-5)
▁prostaglandins
.9%)
▁occlusions
mation
cinolone
athyroid
phosphamide
▁epithelia
crimin
organism
▁(10(
▁ethylene
dibular
▁cirrhosis
▁clinics
▁40,000
Glc
cycline
▁amyloid
▁neurotrans
acholine
▁whereby
▁(1.5
▁tach
▁nitrite
▁mammals
▁markers
▁dysplasia
▁compositions
▁detrusor
surgical
traction
▁capsules
▁substanti
operated
▁rostr
▁(0.2
▁falciparum
▁nephritis
▁sediment
▁variability
▁transp
▁prolactin
▁psychosocial
orh
▁axonal
acerb
▁abolish
hepatitis
▁appreciable
reast
▁suprac
▁pharmacologic
▁(21%
▁contamin
▁permeability
▁infiltration
▁microbial
▁simvastatin
▁113
▁mimic
▁chromaffin
chond
otide
▁astro
vely
drome
otropy
▁pregnancies
600
epin
▁VL
receptor
▁damaging
Ly
▁regained
▁insufficient
▁outbreaks
▁1000,
eces
trypsin
▁bac
▁standardi
▁hypertonic
▁cooperative
▁chloramphenicol
orrhea
▁dias
graphy
plastic
▁keto
▁bim
▁1989,
▁assays
▁traumatic
pyr
▁pharmacological
▁segreg
▁+/-
▁prone
tive
▁uterus
▁0.89
▁lipids
▁Phy
▁stool
gated
▁sulphate
iton
10),
21
olecular
agas
▁eighth
▁Progression
▁intracerebral
imide
▁cytoskeletal
▁anomal
▁transplanted
mild
▁organism
▁adaptive
▁obliter
▁endeav
▁Milk
positives
abd
▁-0.8
measured
onit
▁creatine
▁antidepressants
▁vigorous
▁spectroscop
▁PTS
02
oxygenation
ithine
odialysis
ulinemia
▁contraceptive
▁Absolute
ymethyl
▁adjusting
▁Stress
androsterone
cancer
▁acyclovir
▁52%,
▁SRIF
▁humoral
agittal
zation
▁congestive
ronate
isol
ragment
▁denervation
▁CaM
terase
▁tic
▁tracers
3-2
▁headaches
:1)
▁43%
achnoid
limiting
-4)
▁Chemical
▁.01).
▁enroll
tectable
▁atrophy
▁32
▁decreas
▁105
▁Arter
emetic
HB
▁anxiolytic
totic
thickness
▁3.1
epine
▁canc
▁1.75
▁PIP
▁vaginal
▁gag
▁angioplasty
▁glomerular
▁12,
cellular
▁pollen
▁mycoplasma
ectable
▁thymidine
▁3-5
iology
▁impairs
▁tris
▁conformations
▁(1.6
▁hypothalamic
▁Laboratory
▁(+/-
etitive
▁epileptic
infection
xyl
▁bradykinin
rays
▁surveyed
HM
▁hypoxanthine
▁eug
iplin
▁65%,
▁AMP
▁hepatocellular
▁1.45
▁corticosteroids
▁dimeric
IH
▁heel
▁257
▁0.0
transferase
▁Pertussis
▁duoden
▁OC
▁diap
109
▁mann
▁inguinal
▁complementation
fluores
▁autonomic
perme
▁28-
ocardi
▁pyruvate
pril
▁Coronary
▁sclerotherapy
▁dispersion
urk
▁whey
▁migrated
ucose
▁88
▁Wound
▁formulations
▁thoracic
▁projec
▁hypere
▁obstructions
▁metastases
322
▁adenoma
tigmine
▁rebound
▁desaturation
▁metatar
▁whee
▁colonies
▁Physicians
aminergic
▁100,000
▁critically
tric
▁interacts
▁bip
ipheral
▁microp
linded
▁rupture
▁immunosorbent
▁mutated
▁Survival
pired
esicular
▁heterosexual
▁Platelet
▁developmental
▁adequately
ulose
▁curettage
tency
ditions
▁buc
tent
onvul
▁ether
▁carcinogen
▁170
▁excised
NSAID
▁organisms
▁resin
52
ofl
imetric
ece
▁prepubertal
ellular
▁repression
IgE
enopus
▁antisecretory
quit
dihydrop
▁deaminase
▁tetanus
oplastic
olet
▁dissected
▁polyc
54
siologic
▁deficits
▁retinoic
▁thyroid
▁extracellular
▁dopaminergic
▁incis
▁follic
▁63%
0.4
ectomized
▁resonance
▁Vmax
▁Beta
coagul
phrag
ecu
▁85%.
▁exocrine
▁ole
▁etiologies
chin
ipr
▁menopausal
▁102
▁177
ifferen
▁Topical
ternational
▁bif
ductase
pituitary
▁(30
PAF
▁NB
▁ventricul
▁0.0001),
▁streptokinase
▁antibody
▁seronegative
utin
trations
▁Hypertension
▁subunit
▁cephalosporin
▁unsaturated
▁dentures
actam
mittent
▁bronchitis
▁terminate
ints
otyp
ygous
▁exudate
▁Respiratory
onas
isomer
onide
▁verbal
▁thrombus
▁awak
▁counseling
▁carbohydrates
▁gonadotropin
▁alopecia
▁reproducible
▁cremaster
oreductase
▁labile
▁glial
▁suppressing
▁kidneys
▁carboxy
▁urography
000
▁thymic
▁derangement
▁pulmonary
▁analges
osid
imetidine
▁0.44
▁amylase
▁Differences
▁18-
lun
▁unco
▁isomer
serum
orphine
▁0.4
redoxin
▁Dose
ilin
▁TcR
adenomas
omatous
▁6.0
▁immunoprec
edema
▁neurom
▁discrimin
▁evaluating
▁39%
tained
▁homogeneity
6).
▁synchronous
ergic
▁amphetamine
▁52%
▁lambs
▁(400
▁valvular
▁differen
▁glutamine
▁preceded
-25
▁5'-
ycardia
▁occupational
▁281
▁aerob
▁assessed
▁slices
▁haplotypes
verbal
ometers
▁anaerob
alate
▁Doppler
romed
/90
CDD
▁Clinic
henyl
▁Hb
radi
▁scans
▁amino
▁spleen
▁9%
▁333
▁oxygenation
▁cytosol
accharides
▁phenotyp
▁Measurements
▁exercising
transplant
▁(10(-5)
reported
▁Immun
reactivity
sufficient
icidal
▁concomitantly
▁bacterium
enan
▁adrenal
▁fluores
▁FFA
▁201
tering
▁quantified
▁percentages
3.1
▁cava
▁4.5
▁recycling
▁rhinitis
▁unaffected
▁undertaken
▁articular
95%
▁persisted
yel
parathyroidism
▁Sepharose
▁atten
▁Invent
thanolamine
▁myocardium
▁physi
▁colchicine
2'-
▁inclusions
urrent
▁Binding
▁starch
▁adipocytes
▁ovari
▁clustered
▁antagonism
▁eczema
▁splenic
▁dams
▁baroreflex
▁esophagus
dialysis
▁(197
hemo
arrhythmic
▁Iso
▁zoster
▁caregivers
thre
▁mM
IGF
▁lipoxygenase
plate
▁0.06
ulae
▁kinin
▁5).
▁(60
▁21.
ipid
▁protons
▁interestingly
▁triggering
terolog
▁ophthalm
rogra
uride
eliac
▁6.8%
tingu
▁33-
▁14.8
ordial
▁histi
▁carin
amycin
▁hrs
▁CTL
▁radiolabeled
▁sarcoid
▁hypoventilation
.3.
quisition
]-
21)
▁epithelium
▁psittac
▁feasible
▁Cumulative
atally
▁171
▁vesicular
▁BMT
▁dichroism
tise
▁(2),
benz
▁antich
avage
electric
▁Sertoli
gmental
apatite
▁91
releas
▁Recombinant
▁supplemented
9.
9),
▁0.51
Nor
▁transepithelial
▁HC
▁desirable
▁clonidine
▁resto
atum
encephalic
▁DV
brile
66
▁heterozygous
nisolone
atient
sparing
endix
▁ile
▁elution
▁gout
▁reentr
omatis
▁9.8
▁abnormally
tinu
▁4.2%
lamp
▁ankle
▁posttrans
▁kainate
ivary
▁ingu
▁Eb
▁morphologic
▁additive
kerat
▁intrad
▁prel
▁Fluc
astine
▁anticoag
▁13
▁(0.
▁Indi
roxen
▁(44
glycero
▁72-
▁ubiquit
▁nipple
▁pyr
▁doubled
osm
▁bicuculline
▁diluted
residue
▁attenuated
-3.
▁cortex
▁4-5
▁grains
▁pollic
lamin
rofen
-201
▁insuff
ifed
▁comprising
▁(16%),
oea
▁1.33
▁MAb
▁muscular
▁ureteral
▁cytokeratin
▁extrav
▁utilization
▁Electro
▁swelling
▁fluoro
▁Hear
lytic
▁mediators
▁locomotion
ulmonary
tic
▁maneu
ymal
osition
12.
2+
▁dischar
cystic
▁liposomes
▁capsular
cutaneous
▁carbachol
▁reacted
opyran
▁anore
cious
▁56
tryptophan
eptid
▁undergoing
▁anoxic
▁antiv
▁circumflex
▁dimethyl
tially
▁78%
▁danazol
lline
▁PV
▁PMA
▁judged
loon
▁residual
ifferentiated
▁irritation
▁antagonistic
ocrin
▁cobal
▁2
omers
resistant
▁Mast
▁FDA
▁horiz
▁veins
▁suscepti
roxicam
▁Aspirin
HF
creatinine
ATP
IgG
cents
imurium
▁extrap
▁(76
clin
▁deoxyribonucle
▁augmentation
ritis
arean
▁haemorrh
▁500
▁lethality
▁axons
▁dentin
▁lobe
▁50%
▁obstruction
▁titration
▁immunodef
iprofloxacin
▁cAMP
▁tissues
▁aneup
tors
▁muM
▁DNAs
▁dismutase
CDC
▁pathway
asive
thoracic
▁40,
▁oleic
▁6%
oling
▁instrum
▁mug
versely
kine
▁neutralizing
PGA
▁reliability
parative
▁(3),
▁micros
▁valves
▁2.0
romic
▁substituted
▁comparisons
ranial
▁ovariectomized
▁topical
▁plasm
▁melanoma
▁8%
▁1.17
▁relied
calorie
▁anticoagulation
zard
▁parasympathetic
▁tes
▁SOD
▁genic
onidine
▁EI
ypass
▁nitro
▁660
▁anat
▁avid
lamyd
ACA
9)
▁DEAE
▁sorbitol
phospholipid
helix
geons
▁natriuretic
▁ach
▁avian
▁Caucasians
▁antim
▁emphysema
▁33
ergy
▁Lymph
lycerol
▁amine
▁elastase
▁bowel
▁rhinovirus
EDL
tinent
6,000
orrheic
olgi
▁Asn
unsaturated
(1,
▁0.25
▁wk
erine
▁horseradish
▁4-6
▁transitional
▁cytometric
▁Conversely
▁reproductive
▁24.7
▁originated
▁1500
▁108
▁subjected
▁correlated
▁Median
▁ambulatory
ethylmaleimide
ertion
hydroxydopamine
▁salic
▁cholecystokinin
▁rabbit
▁holo
▁elimination
▁Thy
▁quisqu
▁specialty
▁supple
100
▁correc
-1.9
▁PCOS
▁Nutrition
▁slowing
orated
-[
▁worsen
ocar
▁0.80
▁chel
▁headache
▁choles
occurring
▁microcirc
▁sterile
trically
▁buccal
prin
800
▁1989.
▁endothelial
ELISA
▁proliferate
vedilol
thirds
16)
▁presumed
170
trib
25
▁Streptococcus
restric
▁lysates
▁serological
▁277
ercul
EAE
▁0.48
▁embryos
atients
▁40
▁Differen
openia
▁equilibr
▁cytometry
atization
vul
▁murine
ithelial
bearing
▁roset
oglutarate
▁Hib
▁parietal
scherichia
▁paren
▁cyclosporin
▁oestrogen
▁37
▁commiss
▁qualitatively
▁analogous
oreceptor
responding
▁Biochemical
▁67%,
yrene
▁psor
▁epiderm
▁mitotic
osocial
▁variously
▁decreases
▁181
thio
▁-2
3),
adic
blast
porting
▁carcinogenesis
▁GST
▁underg
▁acquiring
▁leukaemia
▁CaCl
vail
effectiveness
▁caries
▁excretion
▁perone
▁semen
uronic
▁75-
▁irrever
cellulose
▁modulates
▁296
▁lidocaine
linic
▁commerc
ectom
atoxin
▁promo
▁(15
▁modulated
iodarone
▁enzymatic
▁determinants
3]
alian
93
atadine
▁BAL
▁hypercapnia
otrophic
.8
▁meningococcal
▁395
150
urons
coronary
▁porcine
▁vasodilatation
onomic
▁0.9
▁enrol
▁constitute
▁adrenoceptors
▁tachy
▁metabolically
▁glomer
▁antenatal
▁dehydrogenase
▁intracranial
19
▁diameters
▁Cells
▁nondi
▁inspiratory
▁regar
▁remission
▁salts
dominal
aventricular
hemolytic
ymptom
▁(1
▁ovaries
keto
▁Recovery
▁cutoff
▁syngeneic
lasts
tidine
▁Stimulation
▁positivity
▁hyponatremia
dens
iliated
▁tubercle
▁absorptiometry
ulting
-4.
▁Prol
izine
▁immunosuppres
▁biology
400
▁10(3)
ainide
▁lipolysis
ylase
zot
unctional
▁caud
▁galact
▁stromal
▁yolk
▁ellip
▁40%
▁succin
catal
▁CMV
▁1.46
▁overt
-1.3
mannose
▁nitrofur
▁INH
▁Evidence
-67
▁16.1
▁MMC
obut
ysto
▁polymorphism
▁dye
atized
▁antagonists
23187
guing
ADA
▁sput
▁cadaver
▁bene
▁neuromuscular
ustif
▁cancers
▁-3
▁schedules
ocarcin
▁medulla
▁methionine
▁anatomy
▁1.53
▁decub
ithi
▁hypotensive
▁nonf
▁fibrinogen
▁1.44
increased
jected
tig
▁calculi
▁sial
uronium
▁Perc
▁naloxone
TPA
▁consequently
ropyl
moid
lude
▁hyperlipid
▁epidemiologic
▁epilepsy
▁20%.
▁dors
▁17-
▁(4.0
▁Reas
idone
▁maturation
9/
▁implantation
▁Investig
enters
▁retinal
▁paralle
▁steers
inhibition
▁1988
▁ECM
▁59
nutrition
ocyanate
▁43,
▁enal
esia
▁depolar
▁Exercise
(4
ilic
▁0.77
vertent
hers
▁alleles
▁vein
-32
omyel
▁prognosis
scheduled
deficient
IFN
idic
ecan
7,000
▁phospholip
▁clomiphene
▁pyrophosphate
sibility
▁accid
▁ration
romethyl
releasing
phosphonates
affinity
▁platinum
blinded
▁cytoskeleton
▁paralysis
▁VIP
▁infusion
▁Tox
▁ileal
Lac
-20%
▁vitro
▁denat
▁antide
▁tolerant
▁ranitidine
CHD
▁SEM
▁cytolytic
▁adenomas
▁posture
erally
▁apnea
▁(50%
▁reagents
▁Risk
▁ventricles
▁352
▁pene
▁venom
▁qualitative
▁itraconazole
-75
91
▁adenoid
▁sequenced
olol
▁tenderness
ABL
▁Induction
▁motoneurons
▁stenting
▁3.5,
ompan
▁undiagnosed
▁albuminuria
cyst
▁triad
▁appendix
▁Kupffer
▁stenoses
▁Subs
▁antigenic
▁analytical
▁anoxia
▁ORF
▁AK
▁deleterious
▁appropriately
fatal
▁ACE
▁virulence
▁esophageal
▁voiding
30-
osclerotic
▁empirically
▁chemot
▁HF
▁yohimbine
▁0.12
▁constituent
clonal
▁(5)
▁supernat
▁90
▁bacteremia
▁inters
tin
LU
▁(95%
ejection
greater
▁durations
▁depres
adrenergic
▁pertussis
▁mutation
▁8,
▁aeruginosa
▁vasodilator
▁128
▁anhydrase
▁anesthetized
Gly
-21
cobalamin
▁(1.2
▁clues
▁91%
coupled
tical
acil
▁ionic
Kd
▁preoperative
obronchial
▁conductance
otom
atous
▁thyroxine
arynx
▁1.24
itability
▁beads
▁1.6-
▁[2
▁irrespective
▁ketoconazole
▁osteoclasts
▁39
▁datab
▁predisposition
-1)
oinositi
▁triacylglycerol
▁16-
ighting
ocular
▁4.
-1.
-5
▁secretagog
▁1%
▁mcg
kage
▁premise
10-
▁peroxidation
▁divertic
▁mycobacter
▁EB
glutination
▁15
▁83
mega
▁10(5)
4.
▁68,
▁95
▁bioassay
▁spon
utyryl
▁pea
tial
ventional
▁contracted
▁genome
▁Respon
▁252
▁musculoskeletal
▁metered
▁splenectomy
menstrual
xia
▁cholesteatoma
▁codon
▁fibrinolytic
▁tryptic
▁insignificant
▁trac
dered
▁monolayers
▁pathogenic
▁dithi
▁mutagenicity
▁pM
▁eryt
▁heterogeneous
pH
bic
▁sphincter
▁DG
▁1986.
diol
▁ventrolateral
▁primates
-5.
▁differentiation
▁LPL
▁cytogenetic
▁Thi
▁receptors
imus
▁radiologic
hort
40)
osine
▁Ib
▁hypokalemia
▁acin
▁dermat
▁cholera
▁contraction
▁gelatin
▁protr
▁ethanol
▁glucocortic
▁3,
▁identif
▁phosphatid
tebral
▁Leu
▁cil
▁serum
zinc
▁transverse
1.5
▁monotherapy
vian
▁microM
▁ipratropium
▁chromosome
▁polarity
▁vWF
▁chori
▁Glc
cros
▁Measure
▁statistically
▁steroidogenic
▁retinoids
brain
▁monit
▁PGE
▁leukemias
▁pharmacokine
▁sympath
▁torsion
▁quoti
-2.0
▁achieves
▁suggestive
▁perioperative
▁preexisting
▁modif
▁poli
▁resection
▁aids
▁pim
CCK
▁schizophrenia
▁TS
▁chemotaxis
4).
▁deform
3,
▁kallikrein
▁variants
▁heteroz
▁weighing
▁mutations
▁pups
▁surgical
▁eradic
▁medullary
▁streptoc
▁conjugation
-7,
▁enlarge
▁interferon
▁depr
▁ribosomal
scopy
▁intensive
▁glucosamine
uscular
▁efflux
romised
▁induration
rosemide
▁lacks
▁bir
▁procollagen
▁elevated
▁mandibular
osoma
lep
▁duodenal
▁necrosis
▁lysosomal
riton
▁monomeric
▁localized
▁anomalous
▁19.
ralazine
▁heparin
▁spikes
▁skeletal
raine
cardiac
ivariate
▁pooled
diss
▁30
▁attrib
tryp
cade
▁adolescents
▁goiter
osyn
▁pollicis
▁gp
▁affec
▁hams
▁cocul
▁effusion
▁choline
▁3.6%
tation
▁7,
▁phosphorylated
▁virions
▁cerebral
ocated
▁0.21
rein
▁(-)
▁BN
emory
▁cirrh
▁inges
▁reductions
▁defects
ibrate
▁6%,
▁CsA
▁pelvis
▁househ
▁IVC
▁90.
▁quantitative
eded
entif
pinephrine
▁sphing
▁predominance
▁absorbable
1.2
▁8.6%
▁abolished
▁resemble
▁3',
-1),
esides
▁ambulation
116
▁7.8
estion
apular
▁quantitate
▁calf
otrop
▁duplex
lyl
mortem
▁adul
antigens
tility
▁stimulus
mostly
▁polyacrylamide
▁potenti
openhagen
▁Phen
vicular
▁reviewing
achol
Gs
gian
▁proportions
▁49%
▁retroviral
sus
▁cDNAs
▁dysfunction
▁315
▁ejac
▁10(-8)
▁(0.1
▁valproate
▁mongrel
▁hypothe
lymer
odgkin
▁BK
▁1.31
▁cryptorchidism
timum
▁conduction
▁GFR
▁solubilization
▁apoE
eptide
piper
▁nonfatal
▁arrhy
▁KCl
trophy
FGF
oag
▁perme
▁.1
▁Replacement
▁6.5
▁98%
osporin
▁(11
▁intolerance
▁disruption
distal
▁degeneration
▁athymic
derly
nour
▁retur
▁enti
titutes
▁insulin
▁parenchym
▁FV
atible
▁forebrain
▁undergo
▁hypothyroid
▁regenerating
▁exaggerated
unctiv
▁2/
▁fracture
▁6),
▁37.5
▁birthweight
▁unselected
teroids
▁LH
7).
tiveness
▁bronch
▁injecting
▁predominantly
▁epicardial
▁-0.
▁spontaneous
▁superficial
rangements
▁fibrob
irub
▁(1).
▁1.9
▁ACTH
▁radioiod
piration
▁distinctly
proliferative
▁emergence
▁cotinine
▁arti
▁17%
▁6.6
▁tetr
adm
▁CIN
vity
tocopherol
▁rods
▁identifiable
ocrine
▁VAS
roline
▁etretin
▁polarization
▁contral
▁pretreated
▁flashes
onography
ighted
▁1987.
azosin
yridamole
▁Thoracic
▁shrin
-1.1
▁Urea
▁14%,
▁mediate
oprost
▁-0.4
▁shear
▁(20
▁(84
ameth
▁gluc
▁methyl
duction
phadex
▁abdominal
▁unresponsive
▁NSAID
▁oxidant
ylic
▁degradation
▁natri
▁80%,
▁chromosomal
▁globin
▁classifying
tisone
▁10%.
▁bromocriptine
▁hemisp
▁cisplatin
▁Haemophilus
▁Apparent
imetry
▁gm
xiety
▁oxidized
▁reserpine
▁Epid
-100
▁cytoplasm
▁hydrolase
▁Continuous
▁206
▁infectious
▁flexion
▁relieving
▁Mice
▁glutamate
ospitals
▁exceptionally
▁pharyng
22,
▁Comparison
▁neurob
▁genetically
otericin
fibrozil
▁unnecess
lovir
opril
ralfate
▁seizures
imolar
▁follicle
▁(4.8
thymidine
▁hu
▁subclinical
.5%)
fibr
trop
reduced
▁lineage
plants
▁0.7%
▁pige
0.
▁hyperglycemia
▁hypoxemia
ococcal
2%)
▁COS
▁proportional
idov
▁gemfibrozil
timulus
kines
▁dysp
consuming
phosphates
▁300-
onstric
illation
▁cellular
threatening
▁5.4
▁fluoride
geal
▁microbiologic
▁plasmids
early
▁pell
▁metals
▁twins
▁emphasized
▁rifamp
▁dilation
▁anhydr
▁190
71
▁Determin
.1
tubulin
▁chorion
clerosis
toc
▁(41%)
▁catechol
▁pharmac
▁Statistically
▁28
▁Taken
▁6.4
-4,
8/
▁gastrocnemius
▁RV
▁Neurop
▁competent
ociated
ETE
▁methylene
▁bronchoscopy
▁leucocytes
▁vicin
▁(79
▁0.46
▁gangl
▁contras
ognitive
confirmed
▁gonadotrophin
▁incubations
hemical
▁intras
aerobic
▁Modified
▁brady
thmic
4-2
▁carnitine
▁55%
▁periv
▁maturity
▁(4.6
sustained
▁morphological
▁(199
osamine
▁103
▁cros
125
ugular
▁Successful
▁Langerhans
cyclic
▁308
sors
meterol
leb
▁relieve
▁30%,
▁immunoglobulins
▁challen
▁therapeutic
▁prevalences
▁5.4%
▁asbest
▁visualization
▁anesthetics
-1.8
▁overex
▁Pulmonary
▁tuber
▁irregular
▁unrel
▁terminus
neu
▁synov
cholic
▁consequent
fected
itus
▁vasodil
+/
▁transcribed
▁excision
▁declines
rostenedione
▁cardioselective
▁8644
death
▁inadequate
magglutinin
gran
▁ischemic
▁amlodipine
▁shedding
aturity
▁rectif
▁substitutions
▁conges
▁hypop
▁corpora
▁expon
alim
orphin
▁1.04
▁terminals
▁dissec
▁outflow
▁Haem
▁16%
hiscence
pretreated
▁139
▁8%,
▁hep
▁phentolamine
IIIa
▁noradrenergic
12-
RNA
athy
▁bladders
OH
▁CU
▁IGFBP
▁organelles
▁HM
▁provoke
▁levonorgestrel
▁1.05
▁0.86
▁elevating
▁syncope
▁compli
▁chemotactic
▁Plasma
▁hypotonic
▁bilayers
ogeny
▁digested
▁Bacterial
▁720
▁universally
▁pancreatic
occal
▁hypertrophy
tituted
rance
▁(99
formations
▁fructose
▁myocytes
RIA
▁corticotropin
tonin
▁relapses
▁EcoRI
▁efficac
▁discontinuing
▁Cushing
▁protracted
romy
▁elevate
▁cystein
▁motifs
▁banding
▁serially
▁chor
filament
▁sclero
▁0.05,
▁166
▁nif
▁phosphoprotein
33
▁11.6
▁Dex
▁replicated
▁distinguishing
▁AUC
▁FMLP
▁PaO
imazole
ithin
▁1.7
▁(1%
ostatic
▁classifications
trition
▁confirms
▁HCC
▁3,4-
▁nondiabetic
▁5.8%
▁(5%
▁subunits
▁obstruc
▁produc
▁plasmid
omonas
▁vicinity
▁LS
▁intermedi
▁hemochromatosis
▁remodeling
▁particulate
▁isoflurane
▁6.1
▁Incidence
emia
▁threonine
electro
▁debr
▁EMA
hydr
▁resonances
▁vivo
▁reticulum
▁duc
▁immunotherapy
▁lining
obacter
▁dystrophy
phosphatid
uvate
▁spi
▁nitroglycerin
roxetine
▁investigating
▁Recurrent
▁emerg
▁granulocyte
▁parox
▁strom
▁vagus
▁latex
▁autopsy
▁mating
▁instillation
▁20,000
0.8
diagnosis
▁abor
▁juven
1.0
enicillin
8),
▁BSA
▁RFLP
▁effic
ochondrial
▁posed
▁extrac
▁naf
▁ganglion
▁candidiasis
toxin
▁lesioned
erable
▁predis
▁homogen
▁graded
▁fatigue
▁striatal
▁lectins
▁ketamine
▁axial
▁Veterans
▁cran
oprim
▁cooperativity
3%)
▁biphasic
nons
▁Framingham
Pa
▁mmHg
▁bilirubin
osts
associated
galy
▁quantification
▁glucone
▁defib
▁HBV
▁uncom
systolic
▁soluble
▁preincubated
▁Preliminary
▁lifelong
omies
▁imaging
▁7.
▁renovascular
▁chambers
differentiated
▁hematoma
▁umbilical
▁therapeu
arying
-70%
▁bovine
▁0.91
▁0.84
▁168
omegaly
▁sinusitis
▁atri
▁uninter
benzo
▁isovol
▁manufac
phied
▁remed
▁clus
▁cyto
▁Entero
immunized
▁coronary
▁Fifty
echn
udin
itum
▁immunofluores
ariate
▁RNA
▁fluorescein
CRP
chase
▁chimer
▁nonres
osylated
RCA
BH
▁schist
▁micrograms
▁outpatient
▁PaCO
opro
▁urinary
lox
▁concludes
▁preferen
jac
amental
hormone
-2.2
▁elicit
▁methacholine
▁cerevis
▁0.33
▁aerosolized
▁28.
timate
▁195
▁discriminate
3'-
glial
tically
epines
▁satur
▁originate
▁228
▁EF
▁eukaryotic
tures
▁expectancy
▁unclear
tronic
▁endoscop
oneph
▁30.4
▁analyses
▁stabilized
▁enhancing
▁ovarian
▁leukotriene
▁PGA
electron
GnRH
▁fetus
lowering
▁cyclospor
▁FN
▁hypos
▁stu
▁broth
uestionnaire
luded
▁(10
tropin
phetamine
▁Gyn
imodipine
▁terminated
▁differentiated
▁lysis
fiber
Mg
▁hematologic
▁pseudop
96
▁150-
▁atmosp
▁phagocytosis
▁discus
▁pepsin
▁cyclase
▁cues
▁tended
lobin
▁cerebellar
neonatal
▁angio
mide
▁arterial
▁precipitated
▁vagotomy
▁poisoning
▁PAP
▁pefloxacin
▁utero
▁26%
▁10-
▁implic
▁alters
nosis
▁aort
▁compares
birth
▁Sixteen
eminal
IU
0%)
ipramine
▁Assess
omagn
thi
▁macroscopic
▁Afric
ocyt
▁cef
▁potassium
▁hyperp
saccharide
▁vincristine
firmed
ventive
35
▁regularity
otoxin
▁hydrolysis
▁retina
▁simulated
uterine
otrexate
▁hybrids
▁acini
ellae
▁athlete
spar
▁46
8)
▁intrap
▁isozyme
▁morphine
▁myrist
▁deposition
▁Klebsiella
+.
▁Rout
▁cetirizine
-26
▁suction
60)
tative
▁HS
▁299
▁facilitated
▁0.87
GH
▁1),
▁mechanically
ocomp
ortic
▁nonpro
01
rocal
containing
▁suppressed
▁contraceptives
oglobulin
▁exten
ilep
▁epitope
cytochrome
▁androgens
▁acetaminophen
ureus
▁acidosis
▁80
strual
rozen
▁sulfate
vivors
▁psychiatric
loid
atrop
▁1.8
▁cep
▁nonp
tisol
▁inadequately
ispanics
▁urodynamic
▁benzoate
▁oestradiol
BSA
▁gradi
▁noncom
▁epidural
▁rumen
entan
▁Tiss
▁0.62
▁3.0
uron
▁refusal
▁hyperther
▁amines
▁neuropeptides
▁fric
tte
▁adjuvant
▁aspirin
▁morphometric
▁reti
▁subtypes
▁phenylephrine
▁amitriptyline
trient
▁thre
▁81
▁aldosterone
articular
▁islets
enolone
▁metabol
▁basophils
▁30%
uginosa
▁hypo
▁untrained
vation
pharose
▁blasts
▁(86%)
▁Strep
▁mixtures
fluo
▁PMN
▁subcutaneous
▁subclass
aturia
▁onc
exchange
▁1.15
▁1.58
▁disappearance
▁serotonergic
etaz
▁adverse
▁IA
-120
▁spanning
sizing
▁demonstration
▁neurons
▁elastin
4,
▁dimers
▁Retro
▁elective
▁TG
▁polymerization
▁prevalence
havi
▁occurrence
▁RNase
1),
chlor
▁electrolytes
▁1,2-
tents
▁extremities
▁roentgen
onucl
osaminidase
▁macromolecular
usate
▁ionophore
▁polarized
▁193
HDL
qui
reasing
▁carbohydrate
▁vaccin
▁thymus
▁dex
conjug
▁microsp
▁physici
tations
▁elec
▁3.3
isal
▁21-
▁denser
▁biochemical
atology
anad
000)
fication
▁HCl
▁unrestricted
▁benz
▁Inventory
▁cerebellum
▁adenocarcin
standardized
▁95%.
vastatin
▁resec
▁1).
plasma
"-
amn
▁5%,
▁interstitial
▁endometri
▁vascular
economic
uled
lesion
▁morbid
▁Twelve
▁therapists
▁novo
▁Asp
propyl
▁secretion
▁chow
▁ejaculation
opharynx
▁SDS
▁12.0
▁junctional
▁trypan
▁unidentified
▁3.2
▁preschool
▁intraper
▁helical
▁Ure
▁glucocorticoids
▁Insulin
▁acyl
▁anis
vae
▁Samples
opamine
▁hospitalized
▁Engl
azol
7)
▁269
siveness
▁balancing
ethoxy
200
▁acetic
▁physiologic
▁outgrowth
amilton
uculline
▁crest
▁5.8
▁quail
▁1.01
▁(62%)
▁discriminant
▁chronotropic
▁14.5
▁sleepiness
▁Rats
itance
▁postsynaptic
▁duct
▁colic
▁Assessment
▁lyso
▁steadily
ducing
▁capillaries
▁dehiscence
kelet
▁spinal
ipients
▁scalp
▁ascertain
▁underway
▁Kup
▁diurnal
▁potencies
▁demonstrating
▁polys
▁extracts
▁accounted
▁shortening
▁fibrous
▁apparatus
▁lessen
▁0.10
▁0.3%
▁hepat
▁Significantly
▁facilit
▁descending
▁microf
▁33%,
▁warfarin
▁infrequent
▁equimolar
▁saphenous
▁inducer
▁papillary
▁angiogram
▁134
▁negligible
clinical
▁resorption
ithromycin
tur
▁amoxicillin
▁antioxidants
▁Atrial
▁titr
▁pmol
siology
▁occluded
▁divergence
▁alleviate
▁prescribed
▁87%
▁2-3
▁enrichment
▁dehydrated
-2.5
ocytic
tophan
olipoprotein
nitroso
▁60.
▁nonc
▁213
▁hydroxylase
▁Ig
▁Spontaneous
▁harvested
terol
▁nonrandomized
▁colloid
▁testes
▁moiety
cardi
▁discharged
absorption
▁digestibility
▁200,000
idase
▁cellul
▁membran
▁.05).
monophosphate
▁tibial
▁embol
▁(2%)
▁140
▁47%
▁hydrolys
▁freshly
▁benzene
▁loos
iversity
▁Adverse
▁tetan
▁hazard
▁reciprocal
caro
▁IgG
▁4.8
/24
rachial
sero
▁posth
▁Fetal
▁induce
rophen
▁illumin
▁regen
▁gly
▁Indo
▁tracheal
▁respir
▁multimodal
▁colos
▁mEq
▁metabolites
▁dyspepsia
▁deline
▁uterine
▁pathogens
▁ceftriaxone
▁elic
▁hemodynamic
▁flexed
oste
▁rhin
▁inactivated
▁similarities
LV
ronchial
▁(4.3
sants
respective
▁RBC
▁RII
enedi
▁regurgitation
▁.05)
▁restrictive
▁oils
▁electromy
▁mesenchyme
ignant
▁kine
▁pH
▁endoplasmic
tomized
▁lymphoblastic
sian
dle
:2
▁vertebrates
▁investigations
▁fibrin
otropin
-100%
▁retinopathy
acial
▁antioxid
▁psychophysical
urate
▁Sixty
▁washout
athered
32
ovol
▁(2-
▁Leuk
▁Addition
ontal
▁decubitus
▁perin
▁1.03
siological
▁depended
▁institu
gluc
▁cytokines
cells
phosphorylated
phs
quired
▁1.2-
▁hypoxia
ectomies
▁satisfactorily
▁autoradi
▁Scale
▁isoform
ystolic
▁expres
▁catecholamines
lycero
▁immunologically
▁demyel
romyces
▁110
▁HMG
▁(17
▁MDR
iological
encephal
▁10(-3)
▁cholesterol
arachnoid
51
▁suppression
▁Transient
▁adhesive
4.1
olitis
▁contralateral
▁persist
▁positively
▁CAH
oblasts
▁Hispanics
owel
▁niacin
rals
▁reconstituted
indole
▁EPSP
▁Ala
plantation
▁ipsilateral
▁circumference
biased
-10.
HCl
▁CRF
▁radicals
▁serology
▁diffuse
▁preven
DV
toli
▁lamin
▁toxin
▁postulated
▁disposable
rolase
▁excitatory
lymphocytes
ocrit
▁chimeras
▁abl
rophob
estions
-3)
▁27%,
▁myometr
temperature
lobulin
▁extracorporeal
▁prematurity
angi
▁isozymes
▁5
▁allergenic
▁cholinesterase
▁hydrolysate
▁arteriography
▁phenobarbital
rectomy
-9
ourinary
▁lysed
▁inheritance
▁strains
▁sialic
6),
aryng
95
▁Antibodies
▁granules
▁Amin
▁Krebs
▁endocytosis
▁cimetidine
determined
guanine
▁inhibiting
▁adsorption
▁Rb
▁dissection
▁gingiv
ipar
contrast
▁302
▁BW
▁occlusive
▁PBL
xate
▁nutrients
▁dihydropyridine
renal
▁endemic
cemia
▁confounders
▁0.64
▁emergent
▁impulses
▁VLDL
▁encoun
▁adolescent
trone
▁tonsillar
ventilation
▁asymme
▁249
HIV
▁eradication
.9%
▁0.61
-7)
▁elevations
▁gastro
predic
▁qualit
▁cosmetic
trate
▁epinephrine
▁VH
tured
astases
(0.
▁crystals
▁Synthe
▁continuation
▁Bone
spectively
▁MHC
▁fluorescence
▁pathogen
▁5.9
▁validity
▁scanning
▁187
▁aeti
emide
▁promoters
ticularly
dense
gm
reening
▁randomized
uris
▁mitochondrial
▁corne
etidine
▁27,
angiotensin
▁deem
▁73%
▁lethal
▁mU
▁chlor
tus
8).
FSH
▁minimally
▁enhancer
▁depressive
ughters
▁perfusion
▁Thin
▁Feeding
▁facet
70)
▁deformities
ohyd
ograft
tiazem
▁distric
ophilic
▁myeloma
competitive
▁compromised
▁incub
▁equine
▁arachidonate
▁Exc
▁mitochondr
▁symme
▁(6)
▁pneumococcal
▁colpos
▁0.001
cortisone
dyle
60
▁influenza
▁BCG
▁idiopathic
▁ipr
chlorothiazide
▁inducible
▁mineralization
▁diffraction
incubated
antibody
▁intramuscular
▁HER
-10)
monstr
▁85
▁CVD
▁Extr
▁estradiol
▁Prel
anking
▁CAP
▁pneumon
▁albic
▁rIL
▁inflamed
prandial
▁uter
rosy
inopril
▁incid
▁inhaled
gative
entanil
▁Delayed
▁prosthetic
▁isop
-35
▁1.3-
enterolog
▁constriction
▁lamb
vive
▁DHT
▁submaximal
▁indeterminate
▁aneuploid
▁seroconverted
▁FEV
▁Nuclear
▁infusions
bodies
▁interv
ocarcinoma
dC
▁311
▁(32%)
▁adap
▁Holter
myr
▁confound
▁2000
▁Diabetes
oradi
crib
▁echocardiogram
▁infertility
antagon
▁sputum
▁hemoglobin
▁evaluations
▁Medicare
▁adjustments
plasia
▁calcium
▁sheath
▁stimulates
▁18,
▁potentiation
neumon
▁RI
▁(22
▁amygdala
▁nm
herol
lication
▁peaked
▁microsomes
▁undetectable
▁Immunobl
▁solit
▁hypot
▁Simultaneous
▁effector
▁norfloxacin
▁salvage
▁glycol
▁1600
immunoreactive
valine
▁9.3
phyl
epithelial
▁respondents
▁49
▁Caucas
▁chlamydial
Gi
▁virulent
▁dyslipid
▁diltiazem
receptors
pyrene
▁radioimmuno
127
▁prazosin
▁cellulose
▁rifampin
▁optimizing
▁epidemiological
▁(39
anavalin
methionine
alanine
cepti
▁molecules
pli
oacetic
▁OT
roscop
▁reacts
▁97
otr
▁ploidy
tens
itudinal
uliar
▁multic
osite
▁Initi
▁(200
▁repressor
cretion
▁plas
▁celiac
▁perc
68
▁hGH
▁guanidine
DNA
▁Infusion
▁BMI
▁68
ploid
▁archite
▁ulcer
▁Bam
▁Individuals
▁LAK
▁electrocardi
▁Previously
nine
-11
tified
▁repro
▁misoprostol
arcoma
▁mastoid
▁serotypes
adherent
gli
▁hepatic
tocin
▁Nine
▁undetermined
ympathetic
allikrein
opped
94
▁antibiotics
▁antibodies
aspartate
▁hyste
▁agonist
▁mening
▁octa
▁adhe
▁alkyl
▁aromatase
▁inadvertent
▁swab
▁1.4
▁Glu
▁tomography
▁Regarding
▁embolization
▁protamine
▁(10%
elves
isomerase
ogenously
adequate
inone
▁tetrap
▁79%
arum
▁detecting
▁chloride
▁succes
2),
dition
▁Concentr
▁0.5
▁manu
suppres
▁cohort
itic
▁EDTA
▁AII
▁basilar
▁hepatotoxic
▁acidic
▁synerg
▁0.025
▁discrepancy
either
irc
▁pathophysiology
▁overe
▁palli
▁0.34
▁(4-
▁prodrug
▁95%,
5.
salt
adenoma
▁staining
▁correlations
SDS
▁(10.
enem
▁SPF
tabol
▁nucleoside
▁oint
▁IIb
▁devised
▁241
▁ascorbate
▁1.36
riamycin
▁hypophys
▁surgeon
▁digestion
azone
▁1:1
▁1-4
atest
RIF
▁asparag
erence
▁Dental
anazol
hormonal
▁hypothalamus
phosphorylation
▁immunos
▁aryl
ondr
▁alginate
▁causal
NIDDM
▁oleate
▁13.3
maximum
▁lipoproteins
▁arises
▁smokers
▁deferens
▁opson
▁phospholipid
ration
▁173
siella
▁bladder
▁dP
▁primed
▁surfactant
▁surgeries
tochem
▁119
ffer
▁1981
embry
trover
▁afferents
minal
ophores
▁68%
oxifen
conjugated
▁enl
▁HB
▁subfractions
▁tablets
▁Reduc
▁(0.5
-8
-12
ipine
yclic
▁paral
▁reproducibility
▁557
injected
▁phenotypes
cribed
-80
▁cobalt
3/
Ti
▁14%
▁lapa
▁7.2
triglycerid
▁stric
▁(1%)
▁carcass
▁nulliparous
▁1.40
▁harb
▁Stu
RH
▁abnormalities
▁HeLa
2,
▁enrolled
▁albicans
▁mammography
▁0.1,
▁13.
▁interim
glucosamine
▁90-
▁symp
▁reliably
▁41.5
aric
cytes
molec
