hydr
▁ovarian
▁somatic
▁Fourteen
CHD
erance
trogen
ioid
▁explored
▁GA
▁aluminum
▁arteriosus
rals
▁warfarin
▁questionnaire
▁titrated
▁uncom
▁perone
▁accep
▁psycho
▁suscepti
▁intracerebral
▁ascorb
▁psychiatric
▁gly
TCA
oskeletal
▁Criteria
erent
genic
gulation
frequency
▁interventions
▁slowed
ectin
▁disorder
▁elastic
▁PH
odal
▁transaminase
▁arous
adequ
▁reversible
▁hyperch
▁confound
▁rupture
▁augmentation
▁eradicated
▁choles
rowth
▁contraceptives
▁pyr
ithelial
▁TC
▁addiction
▁Concentrations
▁emo
▁adjus
▁visits
▁histopath
▁measuring
hydration
▁asthma
ytoin
▁satisfactorily
idase
ophysical
▁nocturnal
▁dias
▁efficacious
ogenous
▁pneumon
▁managing
kets
▁pooled
▁adolescent
▁conjunction
▁randomized
▁infertility
▁IVC
▁surge
▁continuation
▁manifested
▁inges
▁excretory
▁antibiotics
▁EE
ralfate
▁leukotriene
▁incub
▁Evidence
otyp
▁mmol
▁adenoid
retic
elec
▁cryp
otor
▁lax
▁blin
convul
▁exposures
▁bone
intensity
heum
cad
opathy
urnal
▁polysaccharide
isolated
ture
▁mammography
▁raises
▁deficiency
trum
titutes
▁differen
▁TMP
▁thickness
▁doxycycline
▁acids
▁pneumonia
▁prostatectomy
lysis
inoc
▁dosages
▁verification
veness
▁investigator
ometrial
▁responsiveness
teral
inated
mmol
▁GAD
▁preventing
▁emissions
▁HPV
▁anemic
▁lacks
▁revascular
coag
▁statistically
▁desm
ampl
▁mitral
IH
compared
▁hypoglycemic
ovastatin
okinetic
▁quinine
ths
▁plac
▁ventilation
▁fluoxetine
▁Cardiovascular
assessed
tein
▁consul
▁ciprofloxacin
ithin
▁psychosis
▁amput
▁cellul
▁mobilization
terin
▁Epidemi
▁flour
gm
▁cerebro
▁tremor
requ
▁lasted
▁modestly
▁Approximately
ectomies
▁awak
▁hormone
▁abl
kage
generation
▁dysplasia
ergy
▁resection
▁eliminating
idation
▁survived
▁vesicles
gth
▁PEF
▁biopsy
▁twofold
amphen
lactam
▁Unlike
▁oxy
▁sclerotherapy
▁nonf
▁Tests
▁unrelated
▁clamping
atitis
▁demonstrating
▁operative
▁Adverse
▁initiating
▁predisposition
▁clindamycin
cinolone
amethoxazole
▁exagger
▁awareness
▁metast
anat
▁iatrogenic
inating
▁ib
▁deleterious
▁gon
▁immunoglobulin
▁factorial
▁inhib
▁pregnancy
▁lability
▁stimul
▁bronchitis
▁resis
▁progressed
▁stres
▁interviewed
▁inhibit
▁intrac
atell
lux
▁exposure
▁allergens
itidine
▁Fifty
hydro
ositi
▁complaint
▁pathophysiology
▁dizziness
ximum
▁gonadotropin
lamyd
▁regurgitation
▁injections
LH
▁Myocardial
methyl
▁manufacturer
▁Braz
▁characteris
▁microbi
▁electrolytes
ospasm
▁bronch
apsulated
ococcal
▁produc
cents
▁metoprolol
▁hep
▁meals
arean
▁inflammatory
▁preserving
smokers
elves
urine
ograp
▁covari
itro
▁crosso
▁calculi
▁optimum
▁Bacterial
▁subcutaneous
ruc
ochemical
▁exacerbations
▁remission
▁smoking
▁augmenting
butamol
heat
▁polycystic
▁iat
▁drinkers
▁Mild
▁predis
IgM
agonists
seud
▁restr
▁endo
▁mothers
▁Disease
▁symptomatology
▁febrile
ulum
partum
▁aqueous
▁buspirone
▁terfenadine
thre
▁contribut
tors
upuncture
▁colpos
ogenicity
tosis
trates
▁physiology
oxic
corrected
duction
uncture
▁Nine
▁capillary
apine
▁anomal
linked
ronchial
tified
▁recurrences
oxyl
esting
▁regained
enem
teroid
▁Twelve
arying
zyme
▁gains
▁tablets
▁rhinitis
oxetine
▁aerosol
olism
▁relie
cence
sions
glycer
effective
▁demonstrates
▁hepatitis
plants
▁clues
▁lactation
▁muscul
tions
taz
ulsive
▁establ
uation
▁observational
▁interc
▁traum
admill
▁transit
▁hydrox
within
▁enl
▁anticonvulsant
▁suicidal
NH
▁cruc
abies
▁atherosclerotic
▁probes
▁Diabetes
▁cystic
▁euthyroid
▁chemicals
▁Clinic
▁contracep
▁screening
▁overlapped
▁injuries
ensitivity
ipine
gesterone
mented
▁abnormalities
herence
osocial
▁savings
▁rebound
▁disturbance
▁chorio
▁sulf
astatic
▁considerably
early
tively
fib
▁absorp
▁angioplasty
▁immunization
hydramine
▁accounted
▁clom
oplasia
▁quinacrine
enteritis
▁impaired
oscopy
▁fracture
▁colic
▁incid
▁titration
▁evaluates
oxid
odds
▁improving
aturated
▁compartments
eration
▁nutrition
▁terat
clinical
▁medication
▁necrotizing
▁standardization
▁benz
▁postmortem
▁CAL
mum
▁spray
roxen
hion
▁diagnos
timate
▁DS
▁inflamed
▁serogroup
▁imipramine
▁Increas
▁inhibitors
▁weighted
arly
tur
▁hypocalcemia
▁extensor
▁nipple
▁persisting
▁stratif
opi
ygen
▁obstetric
▁carriers
▁Absolute
▁Clinical
chloride
stimulating
inally
▁agglutination
▁decisions
plicated
gus
bac
▁hypothyroidism
therapeutic
▁detectable
▁aging
▁UT
ifedipine
▁transluminal
▁favored
▁syncope
ofil
▁uptake
measured
▁stom
▁uncontrolled
▁Myc
▁resuscitated
amines
▁margins
▁automated
▁MRI
ilateral
trin
▁intrauterine
▁fenoterol
▁assessment
▁uncomplicated
▁Haem
ducing
buterol
▁cohort
tissue
▁symptomatic
▁colleagues
oglobulin
rowing
▁reactivity
▁aggressive
▁elderly
iaz
iplin
▁comparative
olec
indol
▁pneumoniae
▁cuts
▁exud
angl
▁relapse
obronchial
▁norfloxacin
▁hepatocellular
▁citrate
▁objec
resist
▁Afric
ximal
▁urea
oxide
▁initiated
administered
▁receptor
▁adhesive
SDS
▁spon
▁restraint
otype
▁elimination
ylic
ocys
orrhea
▁stab
▁plasm
▁cognitive
▁cortisone
▁lavage
▁donors
▁Subsequently
▁specialty
reactive
▁vaginal
stim
ervative
▁spleens
olone
▁cyst
athiop
▁arrhythmic
▁multic
ylated
▁serotoninergic
epam
▁mellitus
letion
▁nonp
▁verbal
▁transplant
ispanic
ifed
▁answ
azolam
▁Diabetic
▁supplements
reement
▁RR
▁enteral
▁seroton
iuria
lowering
▁achieving
▁Abnormal
rolog
eliac
▁fatigue
vaccin
▁beats
esin
▁Sixty
▁histamine
▁sequelae
▁depressed
▁normotensive
iant
erable
hop
▁expiratory
▁aspirin
▁levodopa
etaz
romes
▁synthesized
▁sensitivities
▁nif
▁unfractionated
▁targeting
▁Cumulative
▁predic
▁specialized
▁modality
imental
etus
tituted
utaneous
▁Leu
▁sour
formations
valent
▁advised
▁infancy
merc
▁regulate
▁perforation
apid
▁covariates
▁infants
sia
▁ipr
▁clinician
▁brom
▁juice
▁antec
▁Diagnostic
▁multis
▁exhibiting
▁deaths
▁COPD
▁correlating
▁prematurity
▁relieved
iphene
controlled
▁deliveries
▁diazepam
lytic
athioprine
▁PD
stro
attern
oxin
▁albuminuria
▁prenatal
▁structural
tivity
▁retur
▁hemorrhagic
coated
▁pediatric
▁overestimated
▁Urine
▁overl
▁strains
▁socioeconomic
hap
▁Benz
▁optimally
▁ejection
▁acros
▁phleb
▁thirds
▁eryth
casein
thirds
▁atropine
arms
▁thems
idone
oconstric
lude
▁Individual
▁reass
▁calf
aerobic
▁Few
▁Physicians
onary
▁aerobic
▁toge
▁thromboembolism
bodies
▁antimicrobial
▁occl
▁allevi
▁glomer
▁administered
sied
▁alcoh
edle
▁tobacco
▁assis
wes
▁sedation
▁defic
ipramine
eryth
ardized
erge
bacter
teroidal
▁chronic
oprolol
responsive
AO
▁edema
▁amoxicillin
▁pulse
▁tension
▁discom
lym
▁adjusted
▁predictor
▁seronegative
▁inhibitor
▁LMW
▁interpretations
▁disability
▁ESR
▁ranitidine
▁abdominal
▁vitro
urin
▁direc
▁splenic
orac
▁Ninety
▁epidemiological
▁kinase
▁tube
▁promp
▁puls
▁bypass
phic
lycemia
ingle
ported
▁providers
▁euth
oric
▁dehyd
▁neutrophil
ept
▁cigarette
▁hypon
▁bolus
▁blacks
▁retinoids
▁comprising
▁panc
▁Complications
▁oxygenation
▁schizophrenia
phosphon
arrh
hypertensive
▁tuber
▁colectomy
omn
ylase
itary
▁yielding
eptic
▁standardized
ermal
▁Beta
▁hematologic
▁MRSA
▁discharged
oxygen
prandial
▁saturation
▁deoxy
▁deformities
▁nominal
▁carbonic
▁detects
atrial
thyroid
▁supplement
▁TD
atches
▁Atrial
rosis
▁dehydrated
▁concurrently
▁cardi
▁DCA
▁diagnostic
olytic
▁telephone
farin
▁prophylactic
▁ecological
ching
▁contraceptive
sies
▁nontoxic
arent
ospitals
▁conges
▁expressing
▁tissue
▁resec
▁correspondence
▁worsening
▁affec
asses
orough
eclampsia
onate
onor
yocardial
▁secrete
▁strokes
▁smokers
proven
▁caffeine
POA
▁hepatotoxic
etan
▁interacted
amination
tents
▁HI
▁counseling
▁matur
▁toxic
▁toxicity
▁retic
▁termination
ediatric
▁antagon
▁depression
yroxine
ophen
▁mg
▁confounding
rocy
nec
▁asthmatic
▁anticoagulation
▁sple
▁juvenile
▁tomography
▁blocker
▁glyc
▁dosing
▁linearly
antibody
▁Chronic
▁transcription
oxine
HN
ofib
▁altered
▁complication
▁infarctions
▁intercourse
ophilic
▁drain
▁symptoms
rogesterone
roxicam
▁lupus
▁Rates
troph
▁ablation
▁fluoro
▁Feeding
▁plateau
▁rhe
▁fungus
▁hypotension
ophag
▁malabsorption
▁chloride
ocl
▁longitudinal
▁thi
▁ferritin
▁outbreaks
▁alternating
▁vitamins
aceous
▁polyp
▁basal
▁echocardiogram
▁furosemide
roscop
▁exceptionally
assi
▁Epid
▁radiograph
▁multim
▁Milk
dL
▁amlodipine
estis
yste
▁positively
achn
▁antagonists
trop
▁postnatal
▁anat
azole
▁instrum
Ly
▁atrial
▁penile
▁measurable
▁Veter
▁depres
▁indication
▁suppressed
▁unipolar
▁encompass
▁tet
▁intact
▁fractions
establ
▁weakly
amol
▁HbA
▁Organization
aicin
FSH
▁subclinical
▁Serum
▁gastric
▁Nineteen
▁menopause
▁discus
▁sti
▁Bacter
ondon
▁quantitative
uccess
▁assays
▁wee
▁exploration
tic
▁poten
▁Assessment
▁mec
▁identifying
estim
▁sequenced
▁confirmation
▁cartil
▁arrhythm
responding
▁cys
▁crossover
▁proportions
▁mood
olesterol
emin
tro
chol
▁indus
▁constr
ycl
keletal
ressed
▁dys
▁undergo
hydrox
ateral
rous
▁markedly
▁panic
▁postoperative
▁inhaled
NIDDM
▁biological
pite
▁absorb
▁pregn
▁lowering
ensitive
eptide
▁vag
▁promin
▁diets
▁experimentally
▁encour
▁abruptly
▁undetermined
▁bab
opulation
▁doses
▁inconsistent
▁glucocortic
▁obstetr
▁lacking
▁consecu
▁evaluating
▁extracorporeal
posable
pharmac
distal
▁occult
imeth
▁increments
▁offspring
▁incorporated
stant
▁colorectal
▁lor
▁PSA
▁inpatients
▁idi
▁diabetic
▁evaluations
▁diastolic
ocusing
▁rhy
oretic
▁flexor
▁incision
▁identif
▁topical
▁dose
▁qualitatively
▁enal
fem
Ox
chlor
▁eti
▁targeted
▁concentrations
▁alcoholics
▁vein
ycin
▁tymp
omatic
oride
▁intolerance
▁anticoagulant
tyl
uestionnaire
azone
▁placent
▁hypothesize
▁diz
▁drank
cutaneous
iron
vitamin
idine
▁retin
itness
▁suprac
▁pyridoxine
vian
▁bactere
▁dorsal
pirin
increased
▁disturbances
▁enti
molec
▁sha
▁celiac
tine
▁oils
ecu
▁prostaglandin
fiber
▁idiopathic
rease
▁unre
TG
▁nonc
▁severity
▁mildly
▁Almost
▁epidural
▁cosmetic
erican
▁dementia
menopausal
▁cohorts
▁cephalosporins
▁cereb
▁CAP
anine
▁isch
vating
arous
▁agonists
▁ecz
tipation
▁cutoff
ventilation
▁hepatomegaly
regulation
▁determination
▁coordination
peptide
▁paroxysmal
odil
▁nonspecific
ealand
elan
▁mell
▁annually
▁Statistical
plied
▁nonresponders
▁capsule
actam
inol
▁ovulation
▁disorders
orbidity
▁carvedilol
▁placental
▁fertile
osts
salt
▁benzodiazepines
articular
aind
icillin
▁weighed
▁BV
▁lipids
amphenicol
▁pellets
feron
▁differentiate
orbid
▁hypog
terone
▁coag
nai
▁antithrombotic
▁inherent
▁spas
▁sten
oids
olved
Ds
▁cholest
▁DBP
atical
xone
dil
▁lymphocytes
▁coated
▁thyroid
▁referral
IU
moking
dine
▁concomitant
▁distal
ulose
▁casein
educ
tomy
▁detrusor
▁acutely
▁hypercal
sion
▁moderately
▁acqui
▁tox
irub
luc
▁titers
▁Conventional
luding
aund
tron
olution
▁babies
▁interf
▁Oste
▁dentures
tigo
cepti
▁CABG
ocyst
▁oste
cemic
▁behavi
▁urine
▁malignancies
▁clomiphene
▁aden
▁rhythm
acterial
▁ipratropium
▁modeling
osity
caro
▁yeast
▁aureus
▁painful
▁preexisting
▁beneficial
tenance
osus
▁emboli
ospor
▁analgesics
▁audit
▁progn
▁advan
ffinities
▁mIU
upus
▁abnormal
▁embolism
▁ate
▁victims
▁Magnetic
▁manipulation
olol
▁suture
ocrine
▁creatinine
▁adherence
▁heterogeneity
▁vulgaris
▁bacteremia
▁transmitted
▁benign
▁birthweight
▁contraception
▁CHD
▁accidents
injection
rotein
▁Dip
phosph
▁lifest
▁irrig
▁sexually
▁atten
▁caloric
resistant
▁Meas
anol
ocardial
▁suppression
stress
vant
▁spi
▁discontinu
▁yearly
trical
▁hematuria
▁mite
romy
▁uro
▁vaccination
▁technologies
diagnosis
itus
▁enzymes
ylene
▁corticosteroids
DH
▁latent
▁comprehensive
▁anhydrase
omal
otox
onam
estive
▁unexpectedly
▁abrupt
▁glycer
▁colonic
▁renders
ophys
▁granulomas
▁glucocorticoids
rachial
▁commerc
usp
athic
being
▁nicot
ystag
▁tolerated
▁seated
lec
▁reproduc
▁chest
▁Factors
▁curric
▁uter
▁coagulation
▁recurrence
rogen
▁rhin
▁disclosed
▁fetal
▁conditioning
▁leu
lox
▁hairs
▁complic
tric
trial
▁pts
pharyngeal
▁ech
▁marginal
associated
▁infusions
atology
▁predicting
emic
▁Phase
▁anomalies
tisol
▁medications
eprazole
▁Swed
epsia
▁progressive
▁eccentric
ologic
especially
yro
tory
▁antif
imazole
etence
▁AFP
▁Measure
opecia
▁bip
▁shortened
omatosis
omiting
▁anxiety
agic
SBP
ronch
▁prol
sue
▁blot
▁PP
icin
▁inversely
▁olive
▁grise
▁Cancer
▁Engl
atible
reased
▁sleeping
ication
▁hydrophilic
▁Twenty
dip
junction
skin
molality
▁imaging
oxazole
▁reas
HDL
▁caries
epti
▁Statistically
▁diary
▁weigh
neph
▁wheezing
▁fossa
▁secretagogues
▁chor
▁enlargement
enzyme
▁treadmill
▁reinfection
▁teratogenic
itone
tam
gestation
▁syphilis
▁delaying
lobulin
welling
▁precursors
sess
tested
▁constipation
aric
iscal
ceptive
▁testis
▁volunteers
▁duplex
▁retention
▁absorption
elic
▁adi
▁nutritional
▁physician
ecal
▁tas
▁readings
GD
▁analyses
illin
▁neuropathy
▁parental
ffer
▁circumference
icient
▁lisinopril
▁oxytocin
rase
▁ester
▁thrombotic
▁virtually
odular
tenti
▁pharm
▁preoperative
plen
ventive
▁outpatients
otherapy
▁fluids
ungal
ipheral
▁consciousness
▁sero
tral
dition
▁Lactobacillus
▁favoring
vaccinated
acids
▁endocrine
iteal
aminases
insulin
▁lith
odine
urations
▁hypop
▁carcin
▁receptors
▁agon
modified
Ep
▁chemically
▁quantified
▁invasive
▁controlling
▁trials
▁Stro
loro
esic
imus
▁Significant
amet
otropin
▁reversed
molar
▁prolongs
▁autoantibody
▁perioperative
▁quotient
▁heavi
elvic
avage
▁electroly
coh
▁paradox
spective
▁elic
bumin
▁antid
fatal
▁healthy
▁reproductive
▁laboratory
▁Holter
▁antenatal
▁bilateral
▁perfusion
▁atopic
▁canc
enicillin
▁uv
antial
▁responsive
ostomy
▁Depression
▁pronounced
hormonal
▁reductions
thmia
drug
▁survival
okine
▁monotherapy
▁paired
▁Sixteen
▁posth
▁heterozygous
▁sensitivity
▁mep
▁spacer
disc
▁hyponatremia
▁neurogenic
▁wors
▁erythromycin
ressive
tening
yrib
▁endoscopically
ivary
▁angiography
▁lymph
▁calorie
ipit
▁correlated
iotics
opr
▁glucocorticoid
onidine
▁adop
bacco
▁saphenous
▁alanine
▁fetuses
▁transverse
▁rehabilitation
▁acute
▁concordance
llate
▁Registry
▁coping
▁carotid
▁methodological
angiotensin
▁rated
arynx
▁unpredictable
▁melanomas
▁absorpti
assium
▁viral
oconazole
▁pituitary
tec
▁reliability
otri
▁MCV
asone
▁underg
▁hypertrophy
▁fixation
uplex
▁prednis
▁Injury
▁spontaneous
▁uterine
▁syndromes
havioral
usually
▁angiotensin
otoxic
idic
▁antibody
▁electrical
▁potenti
▁spikes
plies
▁alcohol
▁miti
▁micros
▁quinolones
tensives
▁reser
adication
▁bony
▁opioid
▁outcomes
olute
tir
▁brainstem
▁stringent
lycer
▁urticaria
hexidine
▁psor
▁ibuprofen
▁grain
▁PCO
▁excre
▁BMD
▁bic
▁VV
▁Exc
ophil
▁tic
▁phosphate
▁VA
cg
▁professionals
▁differed
itoring
▁anatomic
▁ceftriaxone
adily
▁consumed
▁genital
▁Combined
▁regulation
achial
▁CHF
▁bronchodilator
romal
▁Comparing
CAM
▁hemorrhage
ocial
▁influenzae
▁swit
cysteine
▁serologically
▁radionuclide
indolol
usate
▁cate
▁femoral
▁duodenal
▁weekly
▁childhood
▁dex
▁feeding
ogens
▁achie
hemo
▁abstin
▁Survival
▁commercially
deficiency
lep
iline
▁bladders
▁favorably
▁nasal
▁vertebral
▁progres
lamp
▁insom
▁eradication
sensitivity
▁NSAID
▁interleukin
▁crucial
▁curriculum
cyt
ritish
▁persists
▁thrombus
gthen
▁satis
▁manifestations
zine
▁elemental
oice
ticularly
▁experi
▁artic
ithium
▁microscopic
uterine
▁articular
▁warr
oprim
idated
▁Combin
▁Overall
▁achievement
xate
leukin
fate
ameters
▁usefulness
▁descriptive
oste
▁cough
▁elas
▁challen
lusion
▁maneu
▁goiter
ovascular
psych
▁TDI
▁quoti
amycin
▁cesarean
▁bism
osomal
LTS
deriv
▁complications
BH
▁Oral
umerous
flamm
▁methyl
▁osteoarthritis
▁desaturation
thyl
▁HL
▁awake
opathology
▁valpro
▁cure
▁ultras
existing
▁radiological
▁shorten
lated
▁hairy
▁localized
entile
▁prognostic
▁reflects
▁stent
▁hypercalcemia
▁MI
isal
▁supple
▁unresponsive
acetic
▁adren
▁ascer
▁strain
yses
piration
▁stric
Ga
cholesterol
▁prevalences
▁multicenter
▁BM
▁jaundice
▁clot
▁stimulation
ethylene
▁acyclovir
▁potassium
▁climb
IgA
omann
ipolar
▁Tiss
ignific
▁examinations
patients
iatric
▁warrant
▁intracranial
▁concentrated
roscopy
▁anesthetic
▁homogeneity
▁abscesses
▁Dental
▁placement
▁derangement
immune
▁ELISA
unately
hyd
▁compounds
▁appropriately
▁cytoch
▁untreated
▁carb
hydrop
mentation
▁Peak
▁Abnormalities
▁Estimates
▁satur
▁nitroglycerin
romycin
▁testicular
▁Clin
▁anteced
▁Bec
▁amiloride
irubin
▁Fib
▁recurrent
atropium
arb
▁substances
acid
ereb
VT
▁impair
achol
▁subgroups
▁thromb
▁longus
▁Higher
▁dermal
▁Specificity
uitable
sA
▁prevalence
amine
otriene
▁regulating
▁PPD
▁surveys
▁pressures
▁multivariate
ocytosis
▁lact
▁paral
▁immun
phine
RP
▁secreted
▁schiz
▁dysfunction
▁cysts
▁varies
erum
operative
otroph
▁inducing
▁underestimated
Hyp
ailure
▁avoiding
▁metronidazole
▁intest
▁validated
▁initiation
Cs
treatment
cellent
▁nephropathy
▁adults
▁anhydr
▁radiologic
▁sorbitol
illar
▁ulnar
effec
▁immunobl
ayed
thma
▁valve
▁meperidine
▁cartilage
umbers
drome
▁lipophilic
▁inflammation
▁surgeons
sy
▁hyperg
tracted
▁triceps
▁Increasing
▁Lymph
▁eighth
▁drainage
aturation
atab
▁neuropsych
hep
▁trimethoprim
▁percutaneous
▁outpatient
▁flashes
▁autoimmune
▁dopamine
tance
▁percentages
▁moderate
▁tablet
▁modest
▁compartment
▁subjec
tingu
went
ureus
▁parox
▁contractions
▁immunized
▁couns
▁recruited
olated
▁likelihood
▁increas
placebo
▁withdrawal
▁dipyridamole
perature
ticle
leuk
odium
▁progression
▁resc
▁deem
▁ison
▁unchanged
othi
▁comprised
olam
▁encompassing
▁neonates
▁competence
▁positional
▁Comparative
▁provid
▁malformations
inj
▁salivary
▁fluoride
▁mandatory
▁yielded
umping
▁Dys
notic
▁ae
▁discriminant
itol
▁undetected
▁aspir
omerular
▁statis
tained
▁exce
▁discontinued
▁structured
▁malignancy
ocon
▁Risk
▁Delayed
▁arti
▁permanently
▁persistently
▁Effic
▁anesthesia
▁dental
▁placebo
▁deemed
▁nervous
▁infar
▁exag
orsal
▁islet
motor
▁spine
▁intense
▁succin
▁surf
trib
▁renal
▁manu
▁Subjects
rometry
▁estradiol
▁Tissue
tise
▁antidepress
obal
icide
▁ramipril
▁Exercise
roin
aturity
▁niacin
individual
▁Pregn
▁preeclampsia
deficient
edocromil
▁Improvement
opsy
▁perinatal
▁bipolar
intestinal
▁reversing
▁lifestyle
dyn
▁demonstrable
surgical
▁sodium
iability
▁Recently
▁musculoskeletal
kely
ergen
▁Rating
▁decarboxylase
▁heal
induced
poor
▁horiz
tiary
rated
▁biochemical
ocor
▁triam
▁suppressive
▁Combination
▁infusion
▁Interestingly
▁polymyxin
matic
▁formulations
▁analogue
acer
▁balanced
▁Recent
razolam
▁throat
▁Prevention
▁injected
▁hemo
▁syndrome
▁overnight
esium
anad
▁substanti
ophilus
▁salbutamol
▁adenomas
▁ischemic
▁Surgery
floxacin
▁rheumatic
▁duoden
sis
▁postnatally
▁recor
onad
converting
algia
▁examined
atients
▁comparisons
▁adversely
▁indeterminate
▁tes
▁failures
▁GE
▁Additional
▁chronically
effects
anding
uding
kine
▁TM
▁osteoporotic
omes
oag
▁Neither
hospital
▁Elevated
▁theore
endix
▁confers
▁CAH
▁saphen
▁obstructive
▁unexplained
▁pelvic
▁arteri
▁congen
▁urinary
otassium
▁penicillin
▁exacerb
▁nondiabetic
▁pep
▁adap
tene
imodipine
▁newborn
▁nebul
▁sati
tig
▁buc
atched
▁poorly
▁subf
▁probe
▁mEq
▁logistic
oriented
▁hemoglobin
▁hysterectomy
▁exhaustion
▁carc
▁alp
▁pathologic
oreal
▁predictors
▁TS
aid
▁fati
▁assessments
apse
uestion
plas
acchar
▁methodology
▁airflow
▁surgical
▁acidic
tivation
▁traumatic
▁successive
▁familial
▁infrequently
udation
ressing
criptions
oprostol
▁sputum
▁trends
▁suction
tensity
▁sequentially
zymes
▁psoriatic
▁proce
▁wk
▁glands
▁atyp
▁psychomotor
tional
otoxicity
▁erythema
▁phenyl
▁multin
determined
epine
▁leuk
▁monthly
▁tightly
ranolol
years
▁Ace
▁waking
▁Seventy
▁esophagitis
avir
roxic
▁appetite
▁argues
enteric
valence
▁assessed
vival
tite
▁diagnoses
timulus
orated
▁vascular
▁undergone
mend
▁varicella
partic
ilization
▁experts
tee
▁fibros
▁Sleep
vaginal
pir
▁solitary
▁junction
▁validity
▁chl
jec
▁biphasic
▁marginally
▁Apgar
▁reti
▁nons
▁dosage
▁transthoracic
▁asymmetric
▁cyclosporine
▁adolescents
▁prednisone
▁pH
▁SIDS
avail
▁LT
onvul
androgen
▁adoles
▁thiazide
▁plasminogen
▁Optimal
▁drip
▁correspondingly
ognition
onin
▁exercising
▁visualization
▁detecting
ertion
osclerosis
ses
urea
▁characterized
▁diuretic
pran
▁cyclooxygenase
▁obesity
osterone
▁intra
inergic
▁Arter
▁vigorous
SMR
tative
sives
▁transient
▁exhibited
onyl
onegative
▁stomach
▁practitioner
▁adoption
opause
▁histological
▁glycos
treated
▁bioavailability
PEG
ergency
▁bleeding
▁surveillance
ritin
irds
gold
▁voluntary
dominal
▁Staphylococcus
▁glucosamine
▁gum
▁administer
▁immunocompetent
hea
venous
▁seropositive
mong
▁AO
adjusted
rays
▁compli
▁postpartum
promoting
▁metabolism
▁Gluc
encephal
▁IgA
quir
renal
▁PEG
meas
sibility
▁qualit
▁nonfatal
▁predominantly
acial
eak
▁screened
potential
▁bloc
▁oxygen
▁lesions
haled
▁heterosexual
▁pound
▁naproxen
aminop
acycl
▁declined
▁deox
▁variability
▁Whereas
kers
▁cortisol
▁gradual
ochrome
▁suspected
▁NSAIDs
tically
▁amin
▁cultured
▁subdural
▁thrombo
▁foods
▁competent
versity
▁lidocaine
▁cited
▁indomethacin
acental
▁doubling
topril
▁glomerular
adder
▁ruptured
▁perceived
ypass
horm
owever
▁analys
▁abduc
▁normo
▁psychophysical
baseline
▁duct
radi
▁rats
▁adrenal
mur
▁drugs
▁Eight
ocomp
▁halves
Ev
▁systolic
▁averaging
orh
opre
▁tape
▁drin
▁rifampin
▁dextrose
induc
olig
jun
ancies
ylon
▁infertile
opian
▁eradic
apamil
▁supplemented
opres
relaxation
▁neurop
▁benzo
▁colonization
▁RS
▁thresholds
roup
▁workplace
▁iden
▁undergoing
▁monit
▁tendons
▁HSV
pli
▁posi
▁resour
▁behaviors
▁acet
▁Hear
▁electr
▁classifications
▁SPF
▁unm
feren
▁frac
ensi
valvular
▁criterion
▁ethnic
parous
itively
acute
ypro
▁squamous
mittent
ochrom
pation
ications
ipid
▁dehydration
▁summarized
▁enalapril
▁enhanced
RR
▁glycol
▁corticosteroid
▁muscle
udin
▁cerv
▁attenuation
▁guidelines
▁cutaneous
▁evid
▁reticulocyte
▁dextro
▁TCA
▁exceeded
thickness
▁protr
▁hydrocortisone
▁HP
▁impairs
▁antioxidants
ceptions
▁neonatal
otonic
limb
▁fluor
▁postural
▁knees
▁scanning
▁Dop
pregnant
▁guinea
ocyte
▁transc
▁incontinence
▁autoantibodies
▁EB
▁membran
▁Sensitivity
▁diffic
▁fecal
epines
▁grades
▁Physical
▁conservatively
▁concep
▁homocysteine
▁cromoglycate
entia
ipro
idne
▁fathers
▁uncommon
▁tubercle
▁diagnose
ographies
▁preterm
▁analges
tide
concentration
▁CB
inely
tact
▁routinely
vul
▁adul
▁anemia
▁nodules
effectiveness
▁spirometry
▁elec
▁deviations
▁supplementation
▁adjustment
athyroid
▁peaked
▁plasma
▁urgent
▁confirming
cancer
ucas
▁interferon
▁HBs
▁endarterectomy
estern
jected
TSH
ucose
osage
orbent
▁attending
▁tibial
osyl
tus
▁hexa
tensive
▁departments
▁encomp
▁evac
▁wheat
amn
▁intake
▁sepsis
▁lovastatin
▁Streptococcus
▁proteinuria
▁ECG
responders
▁Authors
▁Ultras
▁hospitals
tib
bic
▁Haemophilus
torchid
▁protective
▁folate
▁immunotherapy
▁widespread
robial
▁semen
piratory
▁psychological
sus
▁treating
▁improves
biotic
entif
lipid
▁ascorbic
tens
▁carbamazepine
▁involvement
▁ingu
▁sheath
otom
▁desatur
▁implicated
▁polyethylene
nine
▁evolved
▁azathioprine
azin
▁SG
▁arousal
edema
oprol
embry
blocker
▁amniotic
terase
otent
▁bronchoscopy
▁membranes
▁gestation
▁nylon
titute
prising
entricular
▁Factor
▁ionized
gluc
amole
omies
▁spinal
▁cerebral
▁Protection
▁Educ
itant
ameter
▁irr
▁injur
▁establishing
uble
▁spor
▁lipid
▁Thyroid
▁progesterone
▁excretion
DNA
▁incontin
▁estrogen
▁stools
▁unilateral
sant
▁zoster
▁excluding
lact
▁Vitamin
▁reticul
▁Estrogen
regn
stem
retro
uality
fat
▁prognosis
ropath
gesia
ibrate
▁surveyed
▁luteinizing
alc
▁Acet
▁ICU
terol
sulf
▁smears
▁bacterial
▁Thirteen
▁kits
▁serologic
▁attributable
occal
mokers
▁blinded
▁rigorous
▁reflux
fetoprotein
▁peritoneal
▁herni
arity
habil
▁ineffective
▁activator
▁prophylaxis
▁steroids
ocomial
BP
▁admission
▁melanoma
▁doxazosin
▁antagonist
▁bismuth
vents
▁uric
▁genetic
▁accessibility
oplasty
▁anxio
▁cylinder
▁classified
▁Pain
uretics
▁algor
ystitis
▁patches
▁kinases
ecre
▁injec
tinent
▁immunity
▁albumin
▁ejac
▁chorion
hetamine
ionate
▁severely
▁Trial
▁Severe
▁wrist
placement
▁labeled
▁Individ
▁amphetamine
▁eligible
▁plantar
▁epidemiologic
▁Patients
athered
▁abscess
▁seb
▁postoperatively
▁examination
▁relapses
imination
monary
▁pig
▁instrumented
▁cortic
ypical
▁thir
▁responded
▁kidney
▁hypothal
▁immune
▁LD
▁antimic
▁preparations
▁fasting
▁Chlamydia
▁damaging
▁enrol
▁Pneum
icep
▁congenital
▁favorable
opam
▁cervical
▁occlusive
▁vaccinated
▁prescribing
▁HS
▁propionate
▁efficac
▁poisoning
▁neurologic
amide
utin
▁myocardial
▁splenomegaly
▁influenza
▁ligation
▁medically
▁maintaining
umbar
▁capsules
▁categorized
▁facial
orption
▁antib
▁ket
▁amn
▁peripheral
▁nurses
onical
echn
vastatin
ymp
olerance
▁disadvantage
onomic
▁immunogenicity
▁elicits
▁temperatures
ensity
▁retrospective
tant
▁radiographic
iable
▁occurring
▁musc
▁hypogonad
▁tolerate
▁hypokal
▁suppres
promazine
opharynx
avirus
▁affecting
▁sinusitis
▁outlet
Ra
▁atypical
▁Ade
▁acquisition
▁weakness
orotic
CAP
▁perip
▁sediment
▁stren
▁Recurrent
pore
carotene
▁hypocal
odop
▁cumulative
ausea
yrox
▁nodule
▁knee
thromb
aternal
geal
yzed
▁posttreatment
mL
enh
timal
▁streptococcal
▁inconclusive
▁gland
▁potent
▁Scale
▁chan
amid
▁incis
▁Nons
▁theoretically
▁stratified
plasty
▁antipsychotic
▁undere
▁cardiac
rocyte
▁clind
▁enzyme
▁surrogate
▁tooth
inflammatory
▁glut
▁modif
▁cholinesterase
▁INH
sequent
oluble
▁reliably
▁appra
▁hypothalamic
osid
▁cream
rele
▁hyperthyroidism
▁benzodiazepine
ovarian
▁calcification
▁soy
▁esophageal
ascular
▁tach
▁dietary
▁Phen
▁allergy
▁indefinite
olamine
meth
▁discon
▁preval
▁bicarbonate
▁psychosocial
ethyl
▁tolerability
gestrel
▁fertility
inesterase
▁diagnosis
▁decade
indings
▁neph
duced
iazide
tice
▁nosocomial
ardia
tration
▁Highly
▁anxiolytic
usive
▁Lact
azep
▁epidemi
tential
▁strategies
ophageal
▁respiratory
yroid
▁bacter
▁overt
gol
▁pharmacologic
▁quanti
▁Progesterone
▁ery
▁defects
▁orthoped
diagnosed
▁absorptiometry
▁lesser
▁serology
▁tubes
tious
▁bradycardia
▁stain
▁sonographic
▁decreas
▁accurately
▁Calcium
▁cuff
▁LR
▁omeprazole
opath
▁fibrillation
ffin
▁compressive
▁cyt
▁equivocal
▁Ure
▁unsuitable
▁pancre
▁differentiated
▁Surve
▁hemorrhages
▁Preliminary
urther
▁polys
▁sickness
▁fourteen
▁systematically
▁mineral
▁correlates
▁Successful
▁NP
mitted
ipril
▁pectin
▁plaques
▁irritant
▁bathing
cine
▁aids
opathic
Ni
oidal
▁investigators
plo
aning
▁unstable
atectomy
▁CDC
▁keto
▁decreasing
rogenic
▁metoclopramide
oic
▁copper
▁expectancy
tin
▁derm
▁Significantly
▁unselected
▁Hib
▁relaxant
tizing
▁reveal
▁inver
▁encouraging
▁daytime
queous
chid
▁viewing
trac
pig
▁specialist
▁discomfort
▁poin
▁ureter
▁computerized
▁suppor
▁depress
▁expense
osacral
either
▁pertussis
etine
ycline
adine
▁Reduc
▁allele
▁reflecting
acted
▁parathyroid
▁vulnerable
▁adhered
traction
▁Relative
lamydia
▁ascertain
▁Failure
▁tetracycline
roma
▁supra
pirone
▁tac
▁hyperlipidemia
idney
▁hydrochloride
blind
acr
ogl
apride
▁attenu
▁ECGs
▁piroxicam
▁conclusive
exercise
partate
▁hir
▁addic
▁Estim
▁hypers
▁cardio
reases
▁requi
▁Behavioral
pressing
ALT
▁subfractions
▁adulthood
▁MIC
▁instruc
antoin
tiz
▁Replacement
spectrum
iminary
▁acces
ureas
▁numb
▁sedative
gestin
▁cystitis
▁persisted
▁hypo
eces
▁hematoma
astolic
trated
reening
▁IgM
▁enlarged
▁irrit
othiaz
▁carbonate
opa
▁resting
▁prescriptions
▁prodrug
▁slowing
▁rele
▁grip
▁consensus
▁contamin
▁analyzed
▁choline
▁Gyn
ococcus
trimester
▁luteal
▁steroid
▁Ventricular
ranial
▁transferrin
omotor
▁bouts
▁precur
matched
blood
fusion
▁antic
▁kit
illance
▁retardation
▁testosterone
illus
▁triazolam
▁glycoprotein
▁harmful
dural
▁placenta
ytes
severe
▁suspicion
▁graded
▁metastatic
▁nausea
xiety
▁intravenous
▁cyc
▁superf
rents
▁diarrhea
ysm
▁lutein
▁Initi
brile
▁examin
▁morb
▁gestational
tensin
▁persis
▁exten
wk
▁osmotic
▁resonance
▁extre
▁infected
▁orthostatic
▁rotavirus
ophila
▁CIN
▁retinopathy
▁lowers
▁bumetanide
▁cere
▁inadequate
▁regurg
▁Hg
▁functionally
opar
▁freeze
▁esophagus
▁neutropenia
▁unc
▁cooling
▁expectations
iparous
▁esophag
▁antibodies
▁HBsAg
olus
histamine
▁HDL
▁surgery
▁rheumatoid
reduced
▁adolescence
▁refr
▁ADA
tations
▁favors
ocated
▁neoplasm
▁amitriptyline
▁Increases
cyclic
ctive
onazole
tisone
▁IgG
▁arterial
muscle
▁chorionic
▁endogenous
trast
ostic
▁comparable
micro
ologists
sors
▁healing
▁vancomycin
▁focal
▁pell
▁calcified
▁nig
▁anaerobic
▁zinc
tical
▁postmenopausal
pregn
oxifen
infection
▁treatments
▁insertion
coun
tract
ituit
▁stratification
▁maneuvers
opic
oretically
ritis
teroids
▁insurance
tives
▁limiting
▁employment
▁disseminated
▁critically
▁wound
▁rigid
▁serotonergic
organic
▁indicators
ifferen
▁Positive
▁mann
ithm
tivities
▁recipients
▁retrospectively
▁synovial
ials
▁latency
▁pharmac
▁exhaus
releasing
▁ventricular
tebral
▁rheum
lyc
▁biopsied
▁elevate
▁findings
EMG
▁normalization
▁ultrasound
▁colos
conver
▁diseases
▁attitudes
▁opioids
▁subarachnoid
ignificant
risk
ludes
▁assessing
charged
▁lapa
▁rectal
oustic
cemia
▁Nit
▁ofloxacin
▁insoluble
ronate
idin
nons
▁intensive
▁Identif
▁sedimentation
▁aspec
ulitis
▁elevated
Ta
tual
▁hypothetical
▁PCR
mortem
entral
▁Hypertension
ercise
strual
threatening
▁referrals
▁unrecognized
othal
erating
▁phenomenon
▁fractures
▁neutralizing
▁extrap
PCR
▁hepatic
▁conducting
acked
▁extrac
visc
aldosterone
▁antidepressant
particularly
▁perin
trol
▁Prevalence
enyl
▁insulin
▁Barrett
▁PLP
▁experim
▁ori
iatic
▁postprandial
▁filtration
▁endometrial
▁venography
▁progest
▁PT
▁Impro
▁laparoscopy
▁worsened
▁decline
ulant
▁pea
▁characterizes
zard
▁poorer
▁saturated
acrine
▁nursing
▁vegetable
▁etiologies
▁prospective
▁conservative
▁hepat
plemented
FEV
▁fatty
▁oral
▁fiber
arate
sibly
▁gynec
▁tibia
▁lumbosacral
feeding
▁juven
oxif
▁biopsies
▁insufficient
essive
atation
▁avoidance
alic
brom
▁transi
▁leakage
▁liver
▁Transi
▁wounds
▁prednisolone
sants
glycoprotein
▁respec
▁Evaluation
erver
▁tolerance
tured
▁suggestive
▁colitis
▁scans
▁ductus
LU
izine
▁intranasal
▁experiencing
▁maturity
▁serolog
reast
▁excised
repres
▁codeine
▁exis
▁colonoscopy
▁dexamethasone
MH
▁intramuscular
opramide
▁multiv
▁glomerul
▁auditory
▁consistently
taining
▁Intr
▁caregi
glycerin
sistent
▁behavioral
▁kidne
▁escal
zation
▁receptive
▁specificities
entric
▁hyperplasia
▁ane
▁fever
▁unusually
▁pleural
▁tendon
▁derange
diabetic
▁pylori
▁Comparison
▁consultation
ventil
▁intervention
acet
▁Tran
tive
▁pump
tiveness
▁specificity
▁fulmin
▁hygi
▁restric
respon
thrombotic
▁extracts
▁judged
exin
▁exclusively
moderate
▁naf
tolerated
▁circulatory
▁congestive
ancomycin
▁DMP
reness
specificity
▁menstrual
▁abstinence
▁abuse
▁whee
▁promptly
initiated
▁stimulants
▁ischemia
▁clamp
ziness
▁EMA
▁accid
▁methionine
▁CAD
▁onset
farction
▁lasting
invasive
ontal
▁granul
iagn
choles
▁breathing
▁Inventory
▁rati
▁ulc
tering
▁amenorrhea
▁HLA
▁recommendations
▁synthetic
▁dressing
▁Viral
ropathy
▁resul
erebral
adone
▁voiding
▁bronchial
▁endocrin
havi
▁suicide
▁headache
tent
aginal
vascular
▁VT
ferrin
aminase
▁herpes
▁antis
▁amph
ecia
ulence
▁parac
▁compositions
▁Mast
▁allergic
▁inguinal
▁smo
asting
amethasone
▁clinicians
▁risks
containing
▁appendicitis
▁adequately
▁endoscopy
▁stimulus
osal
lected
▁stenosis
median
▁adequate
erop
▁renovascular
▁FD
▁excl
▁prospectively
▁genit
▁utilizing
▁regimen
onset
▁epilepsy
gative
▁excluded
▁challenges
▁esters
gely
tention
▁punct
blockers
▁cancers
▁clinic
▁erosion
▁gyn
tigu
▁mU
▁Mortality
▁nights
▁reactions
tually
▁paroxys
▁heavier
▁arthritis
▁Doses
xual
▁verapamil
▁scarring
irone
ilol
▁decreases
▁fetus
▁detec
metic
tures
▁Breast
ration
▁pim
tense
▁sampled
titution
▁angiogram
adders
▁certainty
arachnoid
eric
▁Calc
▁incom
adrenergic
▁carbohydrates
▁intermedi
▁DF
▁discharge
▁Respiratory
rief
▁endometrium
▁modeled
▁contaminated
▁describ
▁iso
▁psoriasis
odic
▁alopecia
▁pigment
aminated
▁hyperb
▁Neurop
▁cef
chool
▁sucralfate
uded
▁cyclo
▁recordings
▁participating
coronary
▁maternal
▁PI
uris
ulatory
pecific
▁endoc
▁viruses
vation
▁tuberculosis
▁hospitalized
▁Caucas
▁hetero
▁paternal
▁transfusion
▁ankle
ocytopenia
▁discriminate
▁leukocytosis
▁angi
▁glucose
▁intran
▁PE
▁discontinuation
directed
▁DVT
▁ppm
ischemic
omized
▁serotypes
CRP
mol
▁pharmacy
▁aerosolized
▁untrained
oprotein
▁Subsequent
sparing
ditions
▁occupational
atient
▁outlined
ithi
▁Histologic
▁apnea
▁creatine
▁abr
rotal
fine
itudinal
iplinary
accharide
▁inadequ
▁horm
azepam
athy
▁fluc
▁quantit
▁elective
molecular
toc
▁pneum
▁Functional
▁splenectomy
centr
▁prevented
▁subjective
▁nonsur
roscopic
▁sutures
erence
▁meningitis
▁TP
▁newborns
▁flora
▁actin
▁affects
ergic
▁illnesses
▁Thirty
▁histologic
▁instr
▁cyclical
▁tertiary
▁clinics
spar
oscop
ystolic
▁infrequent
nish
▁prolactin
idity
▁oxym
▁reveals
▁doubled
comitant
▁attainment
▁neoplasia
ighted
▁fulf
▁cerebrovascular
sectional
▁Lipid
▁condensed
▁trend
▁cis
reatine
throm
▁wearing
▁endoscop
▁perc
▁wash
▁cardiovascular
▁effusion
▁excessive
▁incidence
▁outflow
▁controversy
ocellular
▁infectious
▁prescription
▁hered
▁endemic
▁malignant
onatal
examin
▁Certain
▁necro
▁antidepressants
ometers
▁Compared
▁impairment
▁apne
eal
▁histology
ohns
▁hypertensive
▁epid
orts
omycin
▁tric
▁simplex
xime
albuminuria
▁imaged
▁ure
▁deoxyrib
▁pati
lys
till
agonist
▁atenolol
▁superficial
▁intram
▁Likewise
▁Lyme
▁positioning
▁gentamicin
▁coli
▁electrodes
reported
▁unaffected
▁neon
naud
▁schedules
leural
▁predictive
ongest
rofen
difference
▁noncom
▁deter
▁Acad
▁nadir
▁mamm
▁mucos
clusive
mature
▁acetate
▁thyroiditis
illion
▁Consequently
▁retinal
▁deterioration
▁eliminated
▁percentile
teric
rography
▁labial
arbox
▁unreliable
▁elbow
▁dermatitis
▁spont
▁deterior
tension
▁Bronch
enic
greater
▁elevations
▁tended
idazole
▁inversion
genital
▁leukocyte
▁practition
▁malign
▁psychotherapy
▁consistency
▁continuously
▁kidneys
▁DSM
▁superiority
▁efficacy
▁glycemic
april
▁blockers
▁sustained
▁Cycl
▁cholesterol
▁aspiration
armac
orable
▁sulfate
Pen
hist
▁lep
▁carpal
▁compromise
▁palsy
urate
▁estrogenic
▁ligament
▁bromocriptine
▁melan
ominant
thmic
average
bility
▁elevating
▁Increased
▁isolates
▁Thy
mia
▁Transient
▁vomiting
▁artery
▁hypoxic
▁antibiotic
▁indi
▁embol
▁calcitonin
▁perception
ureth
▁dihydro
▁masked
▁scars
uprofen
iasis
nisolone
▁estimating
▁symptom
ostatic
▁candidiasis
inemia
▁immunosorbent
▁adenocarcinoma
▁myopathy
▁monitored
▁esterase
abdominal
idate
▁physiological
▁threefold
▁Treatment
amic
dihyd
▁pulmon
▁rehabil
▁Laser
erate
vivors
ventional
▁arter
▁Thir
umented
▁asymp
▁abd
onucle
▁bup
plete
▁cultures
▁effec
▁therapeutic
▁analgesic
▁cavity
reasing
▁pyl
▁polyc
▁LDL
▁uterus
▁differe
arge
eclamp
▁bacteri
▁infections
ositive
▁defec
▁anoxic
▁angina
▁SPL
▁presentations
orphine
produc
ustained
▁otitis
ulin
▁Infants
▁diabetes
▁underst
▁estrogens
▁minority
▁cessation
▁revised
▁Raynaud
odies
▁ovaries
ulcer
▁sham
▁renin
▁neuroleptic
▁plas
cycline
▁skinfold
▁peroxide
roat
▁enrolled
▁detrimental
▁Eighty
initi
fed
▁aggression
▁centers
▁preventive
sych
PV
▁headaches
▁overweight
▁implants
▁preparation
▁sensi
▁cran
▁pharmacists
cessive
▁inhibitory
▁practitioners
▁ultim
▁bowel
▁cytology
▁oximetry
▁androgenic
▁protoc
▁grains
▁graft
amicin
▁CRP
olic
▁dairy
▁Escherichia
esity
LDL
▁ventil
▁Centers
▁Prac
tle
▁respon
ometh
▁Diagn
▁Findings
▁concom
emetic
▁quadrup
▁gels
▁Eff
uled
▁solids
▁reac
erally
mega
cture
formin
▁migraine
▁bronchodil
▁ferrous
▁dye
▁WHO
thi
odiazepine
▁hyperglycemia
▁elevation
▁HIV
▁subc
lyl
▁thyroxine
resis
▁splen
▁antiarrhythmic
▁restenosis
▁enteric
cyst
▁Stress
▁topically
▁neurolep
▁nitrogen
ervical
▁calories
versely
▁Weight
▁parity
▁decayed
▁prescribed
▁smear
▁infrared
tics
ially
acts
▁suspic
▁aimed
minute
▁positives
▁underwent
inopril
▁succes
▁therapies
▁FT
▁coronary
▁Neuro
orrh
eled
▁gases
▁neomycin
▁dox
▁streptococci
▁sulfoxide
daily
▁bilirubin
▁reinforcement
iological
uscular
▁enamel
arbonate
umulative
ocytes
▁hydrop
yclic
oung
▁clonidine
▁anticholinergic
▁ack
▁ketoconazole
tiv
▁organic
oligo
▁adverse
oppler
▁alumin
▁noc
▁identically
neumon
hemat
▁solely
PPP
▁investigated
▁identifiable
▁infarct
ritic
oporosis
lood
acquired
▁Surgical
oprost
▁pulmonary
ociation
▁alcoholic
▁orally
retin
▁Computed
tif
thmias
▁chloramphenicol
tial
opamine
▁trich
▁acetaminophen
▁durations
dial
▁diversity
▁cephal
▁Sulf
density
▁breaths
▁Hb
▁traction
▁inappropriate
▁scre
itamin
ocyt
▁PMS
▁formulation
▁triad
yx
▁practic
viral
▁Addition
seven
▁relaxation
▁Reduction
ignant
▁throm
▁contex
▁eczema
▁pem
▁electrolyte
▁carp
▁distorted
orpor
▁conclusions
ashing
▁phosph
▁EG
▁enlarge
ections
loxacin
hydroxyp
▁exploratory
anin
adren
▁ey
▁attemp
▁conflicting
▁socio
▁initiate
vely
uates
▁UTI
cephalic
▁hypnotic
▁prevention
▁inducer
▁chlorpromazine
▁stool
opril
▁metastases
WB
▁needle
▁hig
osteroids
▁biop
tiguous
▁emphasized
▁equivalents
plasia
▁calcium
▁morbidity
cyte
▁antigen
olitis
tox
▁thromboembolic
iotensin
dle
▁trunk
▁Gonad
▁institutional
emide
▁acupuncture
▁focuses
vac
temperature
▁wake
thmatic
▁torsion
▁tricyclic
▁limb
▁benzyl
▁supportive
▁meth
▁staging
▁lateral
▁myc
▁captopril
▁MMS
ASA
imens
▁backgrounds
ardias
▁cros
aryng
▁individualized
▁puncture
itrate
▁recurred
orectal
strain
▁TI
▁possi
▁examining
▁conduc
▁anomaly
▁Seventeen
loid
Ls
▁precordial
omegaly
▁capsaicin
▁respir
▁nonsmokers
▁neutrop
▁descriptions
▁sedim
▁warts
edding
▁supr
▁latex
▁Caucasians
▁dyspnea
potassium
▁shor
▁indoor
▁clinically
▁abor
exc
▁presum
▁investigations
predic
amily
▁inspiratory
▁meaningful
▁hypotonic
endazole
▁sustain
▁assay
▁enhances
▁odds
▁amputation
▁osm
▁radiography
▁swabs
▁presumably
▁lacked
▁acetic
▁reactive
▁oss
▁Symptom
ucl
▁remo
▁outbreak
▁insufficiency
▁titr
▁serum
duce
▁pregnant
▁sugars
▁dissemin
weighted
▁perox
ochem
▁exaggerated
▁encouraged
adm
economic
ordance
▁contradictory
weekly
▁normalized
were
usions
▁LM
▁hypot
ovirus
cortisone
▁endpoints
▁TSH
▁felodipine
valine
▁CVD
▁plasmin
▁resistant
▁simultaneous
▁morphine
▁chewing
▁upright
significant
▁withdrawn
▁attenuating
istar
calor
▁Caucasian
▁bacteria
▁autosomal
oxicillin
▁couples
iloride
▁nore
▁dissection
▁vaccine
vedilol
exposed
ocaine
▁shedding
▁synthesize
▁emergency
▁concentrate
▁therapy
▁lis
▁induce
yrid
▁agonist
ocin
▁ward
▁ethn
▁palpable
inyl
tation
▁lorazepam
▁coenzyme
▁lumen
▁diet
▁embry
▁fibr
eight
▁omega
ffec
▁susceptibility
buride
▁dihyd
ughter
▁adjusting
▁fumarate
arcin
▁sugges
BMI
oneph
▁mortality
▁Smoking
tency
▁abnormally
▁obese
creatinine
▁magnesium
▁dimethyl
▁nip
▁granuloma
aired
OA
thoracic
tially
▁minimally
▁nifedipine
▁surgeon
▁Finnish
▁affinities
albumin
toxic
tionally
▁aneurysms
pain
tinu
▁physici
▁therap
obac
▁unrel
▁diaz
▁methadone
▁abdomen
▁ulcer
▁compliance
sive
▁rigor
▁vesicle
▁PGA
ortic
▁incompetence
▁cefaclor
▁glutamic
amphetamine
▁fulfill
azol
▁irritation
ystic
▁obstruction
anide
astric
ifornia
▁pregnancies
facturing
▁methotrexate
aryngeal
▁pancreatitis
iotic
▁residual
acerb
▁antifungal
▁chol
lamin
siveness
▁thereafter
▁introducing
▁hospitalization
▁incompletely
▁tonsillar
▁demands
▁caution
shaped
▁lute
▁hypothe
▁neuro
phor
▁clus
atoid
▁insignificant
▁adipocytes
forming
▁hemat
▁lumbar
▁PV
▁strongest
igible
plication
odipine
amus
▁nerve
rein
▁concer
usively
hene
▁selec
▁ABR
▁dramatic
organisms
bladder
▁trichloroacetic
▁DT
▁modalities
▁menstr
▁weighing
▁tetrac
reactivity
acking
▁continuing
▁ingestion
▁distress
▁lipoprotein
▁infection
▁immunos
▁pretreatment
▁contraction
▁tracts
▁ratios
razole
jury
▁parat
tices
▁motivation
sian
▁volunteer
▁regimens
sodium
▁Fifteen
▁thyroidectomy
▁sampl
▁bacteriuria
ariate
▁genotypes
selec
gag
▁reflex
▁loos
▁relieve
▁diagnosed
▁Doppler
▁preven
▁Tolerance
▁crom
▁hydrogen
▁deposition
▁mcg
▁intrav
▁relap
nee
ilic
▁protracted
turb
▁physi
▁premenopausal
tility
▁GER
▁diuretics
icated
▁athletes
▁reasonably
onstric
▁intestinal
▁sonography
▁aerob
▁pathology
▁diarrh
▁chlor
▁Candida
▁milder
▁diclofenac
yclo
▁ultrasonography
▁hypokalemia
▁admissions
▁uteri
vular
▁gonadotrophin
▁emesis
allium
oyl
▁mening
tition
▁amplification
▁cytologic
▁Eleven
▁Hyd
ipr
▁reflec
▁skeletal
▁Maximum
▁effectiveness
enters
oxy
igaret
▁carcinoma
▁mucosa
▁provoke
▁chemotherapy
▁Examination
lodipine
▁bladder
ecretory
▁vitamin
obenz
isol
atosis
▁births
▁rash
ceived
▁deform
▁digoxin
▁Patient
▁LV
atrop
orec
▁asymptomatic
▁etiology
▁abortion
ophyll
▁thromboemb
▁glycosylated
▁paren
leu
carbohydrate
▁dors
oscopic
▁erythrocyte
▁fluconazole
▁limbs
▁determining
lobin
▁Extr
▁confirms
▁Infection
▁molecule
▁conductance
▁propranolol
▁ampicillin
rosy
▁adhering
ocysteine
▁balloon
▁biased
▁clinical
ionine
▁resolving
▁Levels
▁clon
▁indo
▁Alzheimer
sul
ogenic
▁veins
▁randomization
▁shaft
▁nonex
▁baseline
▁refractory
▁dysp
▁Insulin
arrhy
otypes
▁gout
▁diabe
▁hereditary
onephritis
▁Retrospective
glucosidase
rologic
▁focusing
▁Tes
▁hazard
▁enroll
ducts
icides
▁surgically
▁implications
▁ocular
▁selective
▁atrophy
▁pyel
tection
osamine
eeding
▁intermittent
natal
▁hypoglycemia
LISA
▁distinguishing
▁infarction
SAID
osol
▁sorb
▁ranging
▁angio
tropin
▁beha
▁arrhythmia
▁struc
uminal
▁genotype
▁questionnaires
▁dilatation
▁pretreated
unar
▁Leuk
▁isoniazid
▁BCG
▁Screening
openia
▁determines
▁cep
▁triglyceride
andida
▁pancreatic
▁diverged
▁Suc
▁triglycerides
ectomy
▁gluten
struc
romised
▁researchers
▁Subjec
tally
▁Injection
etent
▁vegetables
ameth
▁HR
ocar
crib
oporotic
embran
▁nicotine
illary
▁menopausal
crip
▁Systolic
▁carcinomas
▁laser
▁tumors
stin
tate
▁drops
▁illness
earing
▁ongoing
traum
tural
▁constituted
inic
parative
▁caro
▁causal
lives
▁Americ
ller
astatin
onography
▁triglycer
ologically
fraction
▁muc
▁urtic
▁compares
roxy
▁nasopharyngeal
▁emerg
▁enrollment
alsy
▁proton
odopa
▁gonad
▁ultr
▁singlet
▁noninvasive
oglobin
▁glycosyl
▁fulfilled
▁OC
rine
▁erythematosus
ymptom
aline
▁lithium
rosemide
▁cured
▁fibrosis
▁depressive
vail
amisole
▁HB
▁immunoblot
expressed
anate
▁endotracheal
▁presumed
BT
▁washout
tronic
▁developmental
▁emulsion
▁contiguous
▁lymphadenopathy
▁emotional
▁Veterans
▁proximal
▁premature
abd
▁helical
▁murmur
▁accounting
▁stimulant
▁aspartate
▁pulsed
▁paradoxical
▁arrhythmias
▁sput
otrexate
amuscular
vices
ofl
ometri
▁microvascular
▁osteoporosis
▁approx
otting
opl
▁preschool
▁reproducible
▁antich
actin
▁gluc
▁ambulatory
apanese
▁mast
plenic
▁resear
ucle
▁physicians
▁mice
ejection
▁indications
contrast
▁heparin
▁repl
iciency
▁tol
▁scalp
immun
hyp
duc
bearing
▁complaints
▁pulses
echan
▁habits
▁trauma
▁identi
acting
RB
▁xyl
▁techniqu
▁excision
▁hepatotoxicity
▁fulminant
▁lumb
iph
▁suspension
▁mL
▁stepwise
▁diminished
▁thrombosis
▁quin
▁Forty
▁meal
▁Incidence
▁pneumococcal
azepine
▁ethical
▁congestion
▁regulations
tinguish
▁microorganisms
istal
▁mild
▁Alz
▁perit
▁LVH
bral
faction
▁perfor
▁pharmacokinetic
▁propensity
▁decreased
tioned
▁averaged
▁tumor
▁inh
▁whey
▁tamoxifen
▁Grade
oterol
gressive
▁nonsignificant
quine
▁definitive
protein
▁prophyl
▁quantif
▁recur
ticular
ophy
medicated
▁Sodium
▁BMI
cellular
retion
▁airway
asal
tussis
aminophen
▁dermat
▁Extensive
▁deficit
trained
LV
▁contributing
▁aberrant
iated
amous
uran
oracic
▁trimester
▁nonselective
dose
osom
▁tiss
▁inflamm
▁analgesia
▁postin
ffeine
▁Prel
onide
▁suspicious
▁cytochrome
▁presenting
▁hazards
▁progestin
▁nitro
titis
▁abnormality
▁brush
▁Subcutaneous
▁differing
▁hypox
omyces
estrogen
▁Coronary
hers
▁pyrid
▁functioning
▁Individuals
▁additionally
▁evacuation
AFP
▁tear
▁lesion
▁reduc
▁chlamydial
ulants
▁arth
▁chlorhexidine
▁gastroenteritis
▁lowered
acin
▁systemic
▁FE
▁Nutrition
ithromycin
▁tuberc
▁prostatic
▁nonpregnant
▁Angiotensin
▁exclusion
inum
conduc
▁adjustments
osac
▁soluble
uretic
▁androgen
▁overview
▁prolonged
▁acne
▁hyperactivity
▁grading
▁specialists
▁exercises
rected
▁metformin
▁EI
▁hypothyroid
amilies
▁hygiene
▁Therapy
▁surrog
▁adip
▁tenderness
aryn
▁carbohydrate
▁vaccin
xia
▁diagnosing
ichia
andard
▁intractable
▁hemorrh
▁expec
▁reviewed
epithelial
erad
▁inhal
▁systematic
▁Steroid
▁ulcers
▁palp
▁bac
▁HA
ults
▁irrigation
ductive
rox
galy
atally
iol
luded
opausal
▁repor
▁jaund
▁encephalopathy
▁consis
▁questioned
ilin
▁metabolic
▁cranial
▁unex
organism
▁venous
▁beliefs
econd
▁gonococcal
aturia
consuming
▁ranged
▁substantially
▁intrap
idating
▁gradi
degree
urgery
itonin
▁postinjection
mg
PaO
▁sut
kelihood
▁ventilator
urgical
▁hypertension
▁Medicare
▁rhabdomy
▁Prospective
uresis
▁endoscopic
vus
tile
▁scientif
▁nec
isters
amel
▁gastro
mental
cys
▁wards
▁implying
omethacin
otre
▁RAS
▁nonsteroidal
▁recr
▁diphen
▁stu
yridine
▁FEV
▁teen
▁phenotype
▁Secondary
inamide
Ps
olysis
uric
odiaz
positive
▁uniquely
▁intraepithelial
olones
