▁angiography
▁peritoneal
▁dosing
ctomy
▁LPS
lusion
▁clus
▁pla
▁physiological
▁forsk
▁leukocyte
▁stren
odium
▁intravenously
▁Afric
acr
▁mucosa
▁0.01).
tries
▁tiss
▁Golgi
asive
▁Thir
5-
▁stimulatory
▁substitution
hion
▁peptides
ields
▁kerat
21
virus
▁metabol
idine
ophren
ietic
▁cortical
ifferen
ondr
▁leakage
▁adjuvant
7-
▁mitochondrial
▁specimens
▁auditory
sies
▁autoradi
▁NADP
tetr
Ig
▁anat
RH
ureus
umerous
▁incub
▁rats
▁Previous
ighted
/1
▁hippocampus
▁synthesis
▁extracts
0-
illin
feron
▁genome
aptic
▁decreasing
epti
▁ipsilateral
titial
▁hypertension
idin
ilical
ogra
▁PCO
omized
▁clearance
ociated
ocaine
▁embry
urine
▁paren
induced
▁systolic
ogenic
gic
▁latency
▁thi
mature
▁putative
opathy
▁TNF
88
▁10%
▁injections
▁1.1
▁connec
titu
▁cyclase
▁purified
phal
-450
went
▁repres
▁ppm
▁deletion
▁tissues
▁neurologic
▁proteins
unctions
oracic
▁kidney
ergic
▁transloc
loro
-7)
▁yr
▁testis
▁thrombo
ifedipine
▁amino
▁overe
▁recombin
ocytic
▁prenatal
▁mann
▁soy
37
▁hipp
idation
toph
▁tib
▁cis
uretic
▁differen
▁tumour
-60
sible
▁42
7,
▁glands
▁gastric
onyl
▁vascular
▁cate
hyp
ncy
▁Treatment
▁inflammation
▁ejection
▁microtub
▁LV
▁2
▁tomography
adrenergic
▁clinically
▁LDL
▁obese
▁(18
▁mutants
▁7
▁obstruction
▁cardiomy
▁prevalence
▁ventric
ochemical
▁injec
▁cytotoxic
▁questionnai
▁microscop
▁acidic
▁cutaneous
▁ech
▁subgroups
▁coag
▁glucose
▁metabolites
▁ultras
▁produc
▁upstream
▁4
▁confir
▁subjected
▁expres
▁systemic
phrine
▁attenu
teroid
zyme
oxic
▁TRH
▁reproducible
▁reductase
▁gland
▁spectro
▁sensory
▁electroph
oceptor
▁contraction
▁sti
▁pene
tion
▁hydrogen
▁leukocytes
ATP
lycerol
▁junction
▁aspec
ypical
truction
▁pigs
▁digestion
▁receptors
▁hemoglobin
▁examin
▁analogue
▁0.00
▁deficits
▁synthesized
▁mumol
▁500
▁assay
▁AMP
▁spleen
etitive
▁70%
ulose
▁induction
mediately
▁induce
▁perip
▁toge
.1
▁62
ynaptic
nRH
▁possi
▁NH
.9
tamine
▁(2
▁variability
▁chan
▁brom
sych
▁stimulated
▁cytotox
▁lam
▁60
▁lumbar
sulf
▁antigens
▁correlated
▁opioid
cribed
▁somatic
▁accounted
▁interpre
LH
hydro
▁rejection
▁cytosol
▁VO
ATPase
urther
ophag
▁affec
▁23
▁hydrox
▁suppression
eric
▁suppressed
▁5
▁dete
▁RA
▁polymorph
bladder
▁decreas
derived
terase
associated
nec
enic
ipit
otor
atif
▁arthritis
▁bp
▁hypers
ximal
▁synaptic
▁hams
▁precursors
terminal
▁undergoing
▁plas
tub
▁13
▁underg
▁dele
idated
owever
▁neuronal
▁67
ubation
/6
ynthe
▁20%
▁AIDS
▁heterogeneous
▁antibodies
▁preferen
▁graft
regulation
ocardi
▁contributes
▁1.4
▁95%
▁influenza
▁inadequ
▁oste
rehen
▁acids
▁pancre
versely
lastic
▁microgram
▁subgroup
▁48
0%
▁differentiated
unced
▁mmol
omotor
▁infec
avage
4,
▁RBC
▁96
lobulin
▁benz
▁contamin
atoid
osom
oA
tabl
▁sepsis
▁synthe
▁lateral
▁selec
▁cytosolic
▁thoracic
▁discon
LV
onin
-4
▁54
iol
RNA
▁evaluating
ofluores
▁ach
▁tumors
trogen
▁endometr
▁46
▁histologic
osomes
▁ventilatory
yroid
▁yeast
asal
omat
▁(14
tics
▁discrimin
▁1)
echan
bic
▁diabetic
▁homogeneity
▁organisms
imens
▁molec
▁ECG
▁CNS
▁selectively
siologic
▁biliary
EGF
tabol
gment
crib
▁gangl
dition
▁hepatitis
lym
activation
scherichia
▁suppressor
▁phag
▁fracture
▁dehydrogenase
armac
IFN
▁microscopy
▁spermat
▁indi
▁HL
▁3.
▁reversible
▁200
▁epit
▁52
▁SHR
tration
▁scanning
▁IFN
itin
▁implantation
▁depletion
▁defic
rocy
ituitary
▁29
minal
▁nucleotide
angl
utions
enia
450
▁correlates
▁nitro
▁Hep
▁NaCl
▁(8
▁regis
▁alkaline
affected
phyl
elec
▁Acute
▁Taken
ocyte
acil
▁inhibitory
▁prospective
▁emerg
5).
tensin
tured
▁terminals
uppres
mentation
kinase
▁cholesterol
athetic
-12
iliac
▁44
ocar
▁unex
arate
▁indicative
10
anol
▁vivo
▁beha
▁isolates
▁qualit
tral
▁studi
icine
▁immunodef
▁disapp
tectable
mented
opamine
▁22
▁pancreatic
▁mL
▁arteries
thma
▁oocytes
▁quanti
▁supple
illary
/-
tiv
▁myocardium
▁11
atories
▁symptomatic
ration
▁wk
▁hormonal
▁PB
▁contractions
▁250
▁substituted
▁posi
tization
partate
28
▁glutamate
▁Tum
▁ANF
ylation
▁judged
lip
▁reflex
▁fetus
▁overlapping
kephal
iary
-8
ochem
22
▁anomal
▁assessed
tase
certain
▁intestine
oclonal
▁pineal
▁90
esium
fected
9)
▁comple
▁porcine
▁venous
anine
▁infused
hyd
ochrome
occi
▁dexamethasone
▁lys
▁chemotactic
▁mAb
5)
itro
▁conduc
▁GTP
▁immunoglobulin
▁follic
▁embryonic
▁esophag
23
▁corne
tility
▁radioimmuno
acin
▁phosph
oplasty
▁hypot
▁GH
▁agonist
▁43
▁shor
▁34
omycin
▁Fc
tagland
▁poten
veness
▁cataly
▁49
▁0.001).
▁mellitus
cAMP
▁echocardi
▁199
vul
bloc
dine
urrent
ipitation
▁collateral
tophan
▁36
.2%
pir
▁disappearance
▁lobe
▁metabolite
▁accel
idase
▁competi
▁axons
▁corneal
▁tachyc
-2
▁residual
▁85%
▁40
▁anesthe
▁equilibr
▁molar
vice
▁35
▁wt
▁discharge
▁0.05),
▁adap
▁abnormal
▁fetal
estion
lood
▁angina
▁schiz
▁amo
▁ulcer
▁venti
▁unclear
▁inhibition
▁depres
▁maturation
ologic
itoneal
▁potent
▁specificity
ocardial
/3
▁allo
planted
▁(1)
▁elu
-1
rosis
▁glomer
▁vesicles
▁cathe
obl
▁markers
▁elimin
centr
▁monocytes
lec
▁chemotherapy
receptor
erance
▁chec
▁(3)
▁27
unctional
rotid
pinephrine
▁insertion
ipine
▁arachid
▁traum
▁pretreatment
▁conduction
fusion
luded
▁kinetics
okine
taining
▁phosphor
henyl
echn
actin
▁dodecyl
-30
athione
▁stimulus
ochemistry
till
▁perc
phic
▁localized
▁ligand
▁oxide
amide
▁cytoplasm
bility
reased
▁epithelium
▁noradrenaline
▁1
▁endot
▁(4
▁consis
▁IgM
olytic
▁fati
▁anastomosis
▁grafts
▁resection
4%
▁compe
▁onc
▁propor
▁hypo
▁artery
▁phe
▁recom
HB
▁bile
▁sensi
▁practic
apamil
▁encoun
▁HDL
turb
▁0.2
atum
prising
▁immunological
ometh
▁ACE
▁turnover
ensitivity
125
▁creatinine
▁bloc
▁epitopes
2.
▁iso
esic
encephal
▁cen
▁tran
tional
itic
5.
irc
▁GV
▁kDa
4-
eration
▁retic
▁antigen
quine
▁adverse
▁polymer
pig
▁pelvic
osynthe
▁infections
▁sperm
▁cyst
▁clamp
osal
▁reactive
rates
fec
▁0.3
orectal
nthe
▁aortic
clerosis
ints
▁reversed
2%)
duced
▁196
▁bip
▁implanted
clic
pine
▁ester
▁uptake
▁resusc
esity
3-
osomal
▁rhe
▁vaginal
▁filtration
oside
▁dex
▁guinea
▁superficial
▁hypoxia
hyde
▁Km
▁soluble
teroids
coh
▁neutroph
▁immunore
▁pregnancies
ymp
▁acqui
▁38
MDA
0.
▁manifestations
▁parental
bodies
tiz
▁relapse
renal
▁potency
spectively
▁potenti
▁antigenic
▁adi
▁carcinoma
▁biopsies
▁consecu
▁molecules
▁epidermal
obarbital
▁latent
LISA
-20
▁cyto
▁ana
▁hepatic
▁indomethacin
atient
rected
▁techniqu
▁fron
▁oxy
obarb
00
▁sinus
▁prognostic
80
▁cartil
▁pancreatitis
▁LD
▁lipids
▁dysfunction
▁saline
▁compli
▁0.01
▁ANP
▁conjug
▁postoperatively
▁rhy
▁devi
▁isot
tus
tition
estig
▁projec
▁7%
0%)
▁Plasma
▁strep
oradi
tors
immune
ronch
▁macrophages
▁synovial
▁statistically
ochondr
▁norepinephrine
▁compartment
ylase
-14
▁elicited
▁0.05
terol
▁tris
oglobin
▁anatomical
▁pneumonia
▁compounds
4+
▁recombinant
▁3,
ylated
astric
▁lec
▁herpes
▁8.
acetate
▁65
trum
▁ischemic
▁marrow
▁stimulate
▁substanti
▁sulfate
▁irradi
▁HLA
▁infar
▁comparisons
▁0.001)
▁1.2
CSF
▁estrogen
▁exce
▁ACh
▁prophylaxis
opro
▁antagonists
ejun
▁isoproterenol
▁bene
▁diastolic
27
rever
tual
▁haem
▁atrial
57
quid
ecal
▁synthase
▁carriers
▁neon
▁chromat
▁arachidonic
▁contral
▁phy
▁heparin
▁Lys
▁catheters
▁agon
kground
rophob
▁testicular
▁unaffected
▁chemot
▁ovarian
▁tachycardia
sia
olarization
▁muta
▁exchan
▁anaesthe
▁repor
otropin
▁histological
▁replication
3.
▁recipients
▁stimulation
▁MHC
ellular
▁fibr
▁sulph
adequ
▁16
▁detec
▁regulate
▁alk
▁IU
namic
ylamide
▁(1
sive
▁ventral
imin
ximum
selec
▁vagal
▁CG
▁symp
▁hormones
▁congen
▁10,
athyroid
kDa
▁fluorescent
50
▁cys
▁phosphorylation
emia
thym
▁lactate
▁IgG
▁canc
▁cytoplasmic
▁fibrosis
▁somatostatin
▁isoform
8-
ogens
-7
MN
▁0.9
/10
▁developmental
otypes
▁preparations
▁56
▁pneum
▁chor
▁adminis
▁acetylcholine
▁quin
arbox
idate
▁arginine
▁tes
▁relap
ompan
▁1,
tures
ymptomatic
coun
85
▁hamster
▁plasm
menopausal
▁60%
▁enzymatic
▁reperfusion
tak
▁25%
ologous
▁umbilical
▁aldosterone
▁distin
▁physicians
▁muc
rhy
seud
▁definite
▁nutritional
▁effec
▁follicles
positive
odon
ayed
▁pathogenesis
erating
▁adren
keletal
gely
▁mucosal
ronectin
2)
▁alcoh
▁undergo
▁.0
▁peptide
▁dissociation
▁vaccination
▁8-
tent
ivation
▁fatty
▁90%
▁differenti
itamin
▁impaired
▁antagonist
-[
▁clon
▁Neu
▁79
ariate
iotics
LDL
esthe
6-
▁protoc
EG
▁alterations
-2-
▁erg
▁skeletal
▁angi
▁agonists
▁mutant
▁pharmacological
▁10
▁symptom
xia
▁myel
entif
▁donors
▁renin
▁inactivation
▁metastasis
phyloc
utyr
▁LT
▁12-
▁gon
▁optic
▁tumor
▁differentiate
ocellular
▁depolar
CoA
-1-
▁endometrial
▁spon
ontal
▁intraven
▁angiotensin
regulated
▁antagon
▁thal
iminary
17
tiveness
▁intrav
▁spontaneously
▁inositol
▁prosthe
▁Intra
ercul
▁0.05)
resistant
▁Hz
▁behavioral
▁ammon
▁immunobl
ulatory
▁mice
6)
▁diabe
▁insulin
▁inges
renol
▁fasting
amines
▁polyclonal
clin
60
resist
▁fractions
▁enti
▁scre
▁exten
▁ions
-5
▁respec
▁3)
roscop
otides
olysis
cence
lasts
▁defects
labeled
▁1.8
amino
▁transcription
ectom
32
jug
▁promin
essel
tomy
▁phospholipase
▁ligands
▁decreases
▁characterize
▁perin
rological
Phe
▁(19
▁cyt
hern
▁resul
▁insufficiency
ymptom
▁elimination
▁receptor
▁5'
▁cation
loid
▁5'-
▁PCR
▁prophyl
▁assessing
▁cows
▁25
carinic
+)-
▁SDS
▁supplementation
▁thir
reas
20
▁seroton
▁premature
.6
▁hemat
▁impairment
▁rati
adder
▁glycogen
▁dendri
▁PMN
▁supernat
▁influx
▁nal
▁1.0
5,
cessive
▁examinations
leukin
vic
▁anastom
▁hybridization
▁1:
mittent
fos
▁prostate
athe
▁ACTH
tur
▁valu
eded
chym
▁oes
▁degeneration
▁ATPase
▁regimens
kele
▁-0.
▁(11
▁efflux
siveness
fts
▁positively
▁autoimmune
blind
ospor
▁(50
▁complementary
▁tyrosine
▁synerg
▁unstable
ffe
eptidase
▁injected
▁suscepti
▁1.7
▁vasopressin
eroxide
▁stimul
▁atherosclerosis
▁induc
▁somat
▁circulating
'-
▁uncom
▁inten
▁wee
▁GFR
▁urinary
▁hypertensive
saccharide
immuno
ialysis
▁administered
erent
▁fixation
▁amp
ucle
▁radiol
▁maternal
ceptive
0.5
11
uvate
uncture
▁exis
NH
▁predic
sensitive
▁enl
▁quantif
▁modulate
BV
▁synap
▁surgical
-4-
▁bronchial
ocarcin
▁3-
▁underst
radi
▁inver
mental
▁incorporation
▁0.
▁acetate
feren
▁alveolar
eptides
▁TPA
▁actu
▁enzyme
▁FSH
▁melatonin
derly
(2+
phosphate
tero
▁kine
▁viruses
lymph
tensive
▁antibiotic
▁hydrolysis
occal
▁previ
▁dilated
Hg
▁strom
▁IA
▁retina
▁8
glutin
34
▁persis
▁reticul
▁30
ositol
▁eluc
▁biop
ctive
helium
▁diets
ranolol
▁Serum
▁underwent
▁adequ
venous
▁phosphatidyl
olesterol
dies
▁(9
▁microsomal
-19
▁entero
▁mediated
▁rabb
▁radiolab
▁secreted
▁5,
▁1.
▁gestation
▁sph
▁polypeptides
▁olig
▁blockade
▁protease
▁cG
▁leuk
oproterenol
methyl
▁residues
-100
▁400
▁7,
inic
▁mM
pH
▁progn
▁phorbol
▁congenital
▁3'
▁peroxidase
▁subunits
chol
▁pati
tis
sion
▁elic
▁(6
aemic
▁(20
▁homogene
▁creatine
▁gamma
insulin
wenty
tidine
▁45
▁prolif
atinine
▁differing
veolar
▁complexes
▁58
▁abolished
▁interc
▁infil
▁adenomas
▁10.
tention
▁criter
ocrine
osterone
%),
▁synergistic
▁distrib
▁hydrophobic
▁HPV
▁decreased
resting
▁IgE
▁hypothal
▁seizures
▁alteration
▁1-
▁40%
glyc
▁BAL
oresis
phosph
▁edema
▁aor
▁hyperp
3,
6.
▁adrenergic
luores
▁scin
▁inflammatory
▁chol
tively
▁forskolin
lux
▁hormone
▁tracer
mTc
▁lith
bac
▁nucleus
▁pathways
.6%
ifug
▁bypass
▁potentials
▁capillary
▁1.3
▁inhibitor
▁chromatography
▁70
alian
▁gradi
▁metastatic
40
▁cereb
▁obser
▁deficit
▁molecule
rene
▁keratin
plate
sial
▁hap
▁thresholds
▁microscopic
▁150
▁kb
▁prostatic
▁ventil
▁ventricular
▁proportional
stolic
onucle
▁coh
▁thre
▁deple
adrenaline
otox
▁indications
▁HB
▁ow
glut
uron
▁potassium
acchar
crimin
▁neurop
▁homogeneous
▁fas
▁24-
▁occupational
▁pmol
▁establ
0,
▁determinants
▁kinetic
▁abdominal
▁promoter
▁paralle
▁excision
▁arrhy
▁caud
▁physiologic
19
1%
igaret
rine
tingu
ditions
▁nodules
chlor
▁lipid
MV
phen
▁intravenous
▁(5
assi
uting
atment
▁1.9
1),
▁fractures
cepti
▁favorable
14
otoxin
otomy
▁ure
▁exhibited
.3%
otrop
▁restor
adiol
▁glucocortic
▁0.03
ovirus
▁PAF
generation
▁eryth
▁198
dle
treated
▁shif
1-
ilep
▁cerv
ymme
▁reag
-4)
urons
▁urea
▁residue
ograms
aturated
astom
lycer
entricular
invasive
▁yiel
▁intrac
4)
glucose
▁adop
▁chond
▁adenosine
▁Ig
entral
▁elevated
ilibr
▁depolarization
uria
▁apo
kines
▁measurable
▁carcinomas
monary
▁10(6)
2-
bral
▁inhibit
tron
▁morb
▁nmol
▁occurrence
inephrine
▁retention
▁stained
▁64
▁construc
ergen
▁CSF
▁dialysis
▁precursor
mobil
ogenesis
▁pathology
▁inh
▁BP
▁mononuclear
▁calcium
▁(3
onomic
1.
▁resec
▁Asp
▁pituitary
▁pacing
▁natriuretic
▁solub
▁incidence
▁nM
▁Mg
▁carbox
ocular
▁erythrocytes
▁10(
odal
▁mitochondria
▁kinase
-10
▁Comparison
entanyl
▁thrombin
▁embryos
▁uterine
▁vasodil
natal
ardia
▁avail
ycin
▁membran
▁phospholip
▁metast
riched
▁ket
▁embryo
ophilic
▁diffuse
opres
ults
▁(15
▁normo
▁Nine
▁elucidate
▁conductance
ostatin
onate
▁ae
▁immuno
acted
▁urine
-9
otypic
▁incubation
ept
▁cyclosporine
▁Cyt
illus
▁satur
0,000
▁retin
iability
▁50
▁exer
▁membranes
▁cocaine
▁monol
adic
plas
▁leukemia
▁adenocarcin
▁follicular
thmic
▁retur
▁placebo
▁stimulating
▁displacement
▁adenylate
erate
▁PRL
independent
▁.00
▁197
itrate
controlled
phenyl
▁collagen
plants
tox
▁monkeys
▁progres
▁fluores
▁ane
▁66
▁metabolism
lobin
▁perfused
▁thyroid
▁umb
▁resto
▁verte
▁nonc
▁stenosis
trition
▁indicators
urys
aryn
grees
▁4,
▁reactivity
▁6-
uvant
▁apical
▁lesions
rowth
▁susceptible
▁monit
▁EGF
rosine
▁foc
ulmonary
▁organs
▁iod
▁affinity
▁untreated
adm
▁septum
▁antibody
oxygen
▁renal
▁androgen
▁reac
▁injur
▁astro
▁mono
▁intra
mol
▁GABA
▁gastro
alact
▁thromb
▁120
tif
TG
▁fetuses
▁preservation
▁complication
▁Significant
▁hetero
▁cholinergic
erated
DG
aemia
▁silic
asone
ture
itus
effec
▁Hyp
-6
ophil
▁vitro
▁airway
tation
ropha
+,
▁resemb
▁reagents
▁surgically
ulla
lact
6,
▁genomic
▁limb
▁hemorrh
▁restric
omers
▁hypoth
▁125
▁amyl
▁hemorrhage
▁10(-6)
▁1,25
ergency
rotic
fused
.8%
▁concurrent
atonin
opa
tum
3)
greater
▁immature
stimulated
▁screened
▁extrac
▁substrate
▁pH
▁implic
99
onuclear
tinu
000
embran
▁compart
▁GnRH
▁anesthetized
▁PGE
oplastic
▁polymerase
▁repro
anthine
▁perme
otting
▁acco
otroph
▁morphology
▁incubated
▁ELISA
▁ile
▁0.8
risk
▁melan
▁recor
▁epinephrine
2),
▁deterior
)2
▁Plas
9,
▁periodontal
▁prel
ginine
▁thym
ffin
.4
lated
▁nuclei
▁tach
yro
▁atheros
odynamic
▁asthma
▁testosterone
▁epitope
▁PMA
▁cervical
▁unilateral
tec
aneously
ignificant
▁sarc
▁(0.
kely
▁5%
▁53
▁0.000
▁cyclo
ropriate
%).
sors
▁collec
opausal
GH
cardi
roph
▁ratios
▁transi
▁phosphate
galact
▁predominantly
▁37
ostic
▁concentrations
2+,
8,
endri
▁33
▁connective
3%
▁hepat
▁analges
▁ambulatory
▁epiderm
erence
▁anesthesia
▁hemodynamic
▁compartments
▁utilization
tradiol
▁catalytic
qui
▁evoked
▁Addition
▁sulf
▁ips
produc
▁pathological
duction
▁neph
▁lamb
▁TGF
astolic
▁transfusion
▁transcripts
▁Chan
▁mortality
▁[3
▁irradiated
carb
olated
▁assemb
▁inhibited
amus
acetyl
▁2.5
▁diffic
ectomized
▁subun
▁Hg
▁saturation
plantation
▁centr
▁ischemia
▁quantitative
trate
tension
▁accep
.3
▁ald
▁(198
dehyde
▁prospectively
eak
▁recurrent
▁macrophage
tin
▁analyses
▁Experim
olus
▁deli
athy
illation
▁elec
▁scans
▁cardiomyopathy
▁analysed
tical
▁granules
clonal
erb
▁markedly
▁susceptibility
oplasm
▁nucleotides
▁transplantation
antial
▁homogen
ffec
▁morphological
▁excitatory
▁hydrophob
estis
▁glomerular
▁lesion
oidal
oglyc
▁immunos
▁[14
▁4)
▁kidneys
▁athe
▁sten
ectin
▁cytochrome
oic
29
▁labelled
▁drainage
ithi
-3
eptid
▁induces
osine
azole
▁antiser
▁pharmacokine
53
rectomy
▁fibronectin
▁extraction
trac
ministration
tead
▁cann
▁thymus
▁prono
▁duoden
▁differed
▁increas
gland
inergic
▁LH
▁80
▁uter
▁4-
ocytes
activated
▁nec
▁experim
▁arti
▁medial
pecially
▁nicot
2/
omethacin
▁biopsy
▁identif
▁arterial
▁progesterone
mL
▁randomized
▁Stu
▁contex
ovascular
▁pyr
uted
hydrox
▁intrinsic
yel
ometr
▁80%
▁Escherichia
▁dietary
▁epithelial
kinin
itone
▁sham
▁prolonged
oag
▁microv
tence
▁impair
▁hepatocytes
▁arth
-2,
▁75%
▁CI
▁hypog
.5
rele
8.
▁Elec
▁radiotherapy
▁pathway
▁pathologic
iotic
▁quantit
▁shorten
▁electrophoresis
lysis
▁antisera
▁requi
▁cellular
nai
▁2.
oscop
▁cortic
▁acidosis
90
▁staining
aline
▁hazard
orac
▁lectin
16
▁basal
▁cirrh
▁tas
1).
olec
tance
overed
versity
▁sucrose
▁ablation
▁DF
▁adhe
▁diame
ichia
osin
ventricular
aturation
▁tetr
▁struc
▁TSH
▁albumin
▁conformation
▁ultrasound
▁99
affinity
▁metastases
▁contractile
ylate
▁effic
▁simultaneous
▁glycos
▁heterogene
▁monke
▁dorsal
icardi
tel
▁tox
tact
embrane
▁amin
▁allergic
.8
▁subjec
Pa
abain
gans
▁yielded
oscopy
▁recurrence
▁regar
▁preoperative
▁bovine
-5)
▁0
▁PKC
ionic
▁coli
▁cDNA
▁metabolic
sions
56
▁endogenous
▁10-
▁hypertrophy
▁macropha
▁7.
▁acute
erox
ygen
▁adrenal
▁demonstrates
▁stimuli
▁provid
▁usefulness
▁binds
oprotein
▁throm
alanine
otyp
ifed
▁subtype
49
▁ethanol
amethasone
▁adherence
bumin
heal
▁immunohist
ohyd
▁multivariate
▁nm
▁activator
olism
▁proton
▁obesity
mediated
tents
ophore
▁advan
44
▁phenyl
▁catechol
▁6
▁predicting
▁satis
ocamp
oyl
tric
glutinin
otropic
glycerol
tions
tic
▁saturated
phosphor
▁reagent
▁bowel
▁rabbits
▁homology
spective
(+)-
▁plaque
▁subc
▁microM
▁combin
▁chamb
oxin
amate
▁Bec
ignific
▁fluorescence
atine
▁amyloid
onc
ensory
platin
▁numb
modulin
leu
▁excre
vation
assay
▁segmental
▁unchanged
▁20
▁catheter
▁trypsin
▁5-
▁rheumatoid
▁fibrob
iatric
▁transcrip
▁15%
▁41
dose
▁0.4
▁cumulative
▁contrib
▁exposures
▁(12
uoden
rents
lys
▁asymptomatic
▁morphine
minis
▁occlusion
▁propranolol
8%
▁17
▁neutrophil
operative
▁hypoxic
tituted
urgical
entan
▁facilit
ographically
▁0.6
▁homologous
rogenase
▁chlor
7.
▁adhesion
tural
▁3.5
▁(0.1
18
▁summ
▁endothelin
tically
2+]
iciently
▁unde
▁frac
cephal
uscular
▁pneumon
ticular
▁Thirty
▁parame
▁HSV
▁investigations
othelial
otide
mitter
▁gp
▁subunit
▁postoperative
▁bilateral
▁Hb
▁insuff
osyl
▁degrad
thase
▁MV
35
▁bladder
ocyt
▁progressively
▁39
▁rectal
▁assayed
▁excretion
▁CK
▁msec
▁imaging
.0
maximal
▁graf
▁mutation
▁duct
-6)
▁valve
occus
▁cloned
▁hypothalamic
ilic
▁biosynthesis
protein
▁predictive
adren
▁fibers
▁lute
▁plasmin
▁membrane
▁inters
zard
achid
usp
▁IgA
▁fibres
piratory
▁sodium
▁femoral
iably
▁esophageal
▁phenotype
-1.
▁lymph
olone
trol
▁cleavage
2+-
▁pharmac
▁glyc
vascular
oprec
▁dehyd
▁expressing
thrombin
apeu
▁inactiv
▁smo
▁dors
▁reas
▁aden
▁phosphatase
▁aggregation
▁monoclonal
48
ophageal
▁bran
rophy
atid
▁fatigue
▁polym
terone
▁24
▁eosin
25
ameth
▁hippocamp
▁efficacy
▁hydroly
▁defec
bacco
iatum
▁pediatric
gia
asic
▁infants
osts
▁pyramidal
▁antic
▁estradiol
▁toxicity
▁ovari
▁carbohyd
estions
▁cancers
thyl
tially
▁50%
truc
enteric
hea
tive
▁glut
▁(13
odies
▁progen
DH
▁Whereas
▁(30
▁47
▁55
-15
▁intensive
otassium
▁salivary
bly
▁unrelated
▁polypeptide
eared
▁malign
▁Increas
▁diminished
▁transient
▁enzym
▁hep
▁assis
▁spre
▁lymphocytes
▁mitral
▁6.
cine
helial
▁regulated
▁ouabain
inemia
▁cytos
▁interferon
brain
▁variants
1,
▁proce
▁substantially
▁infusion
▁sexes
/2
▁superoxide
trib
▁30%
▁4.
▁demonstrating
iae
▁9
adrenoceptor
▁NK
▁responsiveness
▁100
-3-
hydroxy
▁canine
▁cytotoxicity
affec
▁tubular
itant
▁pyl
ilization
▁myocardi
▁natri
▁(100
tious
▁opi
▁lymphoma
▁PF
hep
▁pate
owel
▁remission
▁platelet
▁21
scop
▁multic
ulph
operatively
ropyl
▁0.01),
▁challen
2,
tory
▁remo
tro
▁neutrophils
atest
atients
opha
▁pancreas
▁irradiation
ethyl
▁currents
▁psychiatric
rox
▁endothelium
▁analogues
▁neurones
genic
labelled
▁longitudinal
aryngeal
▁31
ylcholine
▁murine
ropine
▁6,
tructural
▁prostagland
▁slices
vely
▁microns
roximately
▁virtu
orbol
▁28
gesterone
jun
▁HM
▁cyclic
tig
▁serum
atase
lix
7)
▁14
▁TG
onography
▁donor
▁cortex
▁inhibits
obacter
▁contrac
▁mutagen
▁disrup
▁anemia
▁necrosis
▁hyperg
tage
▁inactive
odialysis
▁astrocy
▁0.05).
▁severity
opressin
24
▁simult
oxide
▁100%
ylchol
apeutic
▁comparative
FU
oprote
▁hypothe
eptide
▁NP
▁viral
▁conserved
▁dosage
▁trig
▁sequential
▁assays
▁mRNA
▁benign
▁differentiation
▁discus
▁infarction
▁59
▁multiv
▁sci
▁19
gluc
▁carcin
▁oxidase
▁endothelial
▁86
▁colorectal
▁stu
▁2)
▁prognosis
▁tryp
ucine
erad
▁peripheral
▁hypertro
▁tolerated
▁lysis
accharide
▁inser
▁electr
▁cigaret
▁exogenous
▁(7
6%
▁oxid
DNA
acet
▁pall
▁attemp
▁TA
▁aerobic
viron
transferase
▁15
▁vaccin
rease
ellar
teine
▁ery
65
▁depr
siological
▁heterogeneity
▁blot
4).
trin
▁pressures
▁RNA
▁abnormalities
▁operative
▁2-
▁morphologic
▁reflux
omal
▁carotid
▁conclu
▁cortisol
▁drin
▁resistant
odil
▁morbidity
▁aneurysm
▁deterioration
▁histamine
duce
onium
▁abnormality
▁transplant
▁dissection
2%
▁12
12
▁intrap
▁0.0
acyl
clo
▁lar
▁localization
-13
45
▁myocardial
▁Increased
Ca
▁TC
▁oxidation
▁hemodialysis
▁chloride
▁coronary
▁placenta
▁preven
▁substitu
-1)
▁ADP
sA
▁theore
lyc
ocor
mend
▁perox
▁gluc
▁retinal
orrh
treatment
▁sacr
▁steroid
deficient
▁precur
▁correlate
inally
▁Tran
ergy
▁mRNAs
▁lipoprotein
tryp
▁phospholipid
4.
▁sple
▁MRI
▁0.7
olol
plasia
▁phosphatid
▁51
mia
▁respiratory
▁objec
▁interleukin
lyce
▁swelling
▁intramuscular
5%)
▁CMV
cious
▁kidne
dominal
▁acetyl
hydr
▁cardi
▁biosynthe
▁correlations
ociation
▁proliferative
▁mammalian
▁tric
.5%
▁probes
▁bronch
▁differe
▁lymphoid
lob
agic
▁IGF
▁suppres
▁sero
▁promo
▁ATP
acrylamide
infected
▁micros
5%
▁trache
testinal
orepinephrine
pyr
▁mutations
▁transcriptional
▁interstitial
oluble
ensi
olip
▁etiology
▁locus
▁0.01)
▁regimen
▁initiation
ecu
▁phosphorylated
▁modulation
▁rabbit
▁5.
▁reticulum
▁retrospective
▁evid
9%
tained
▁concom
▁deficiency
▁percutaneous
▁polymorphism
▁conformational
75
ovine
▁selective
▁postnatal
▁neurological
toc
▁0.5
▁neonatal
▁saliv
monstr
▁mammary
meth
▁inversely
ffinity
epam
.4%
dia
iotensin
▁guan
ilized
▁vein
▁influenz
▁invasive
ilateral
▁neoplas
▁attenuated
▁lumb
titution
▁glutathione
▁arter
oplasmic
▁aneurys
intestinal
▁inflamm
▁carbohydrate
▁vitamin
▁glucagon
▁hypothalamus
tein
ocortic
▁infiltration
▁RP
oride
▁progression
▁(16
ogenous
▁granul
▁acet
NB
vices
▁ventilation
▁derivatives
utaneous
assium
▁interf
▁Doppler
roxim
ritis
▁extracellular
▁(+/-
▁LC
▁75
tivity
thmias
kine
▁reductions
▁undertaken
orpor
▁distal
▁spati
▁chromosome
▁reper
tice
▁1.5
romes
▁(10
▁inadequate
▁Clinical
▁doses
▁targe
lier
▁ionic
▁antiserum
▁microsomes
▁refrac
▁reproduc
▁bir
▁limbs
▁undergone
tens
▁contralateral
▁fibrin
▁atrophy
/100
erative
oglobulin
15
▁implant
taken
osome
oreceptor
▁biochemical
orphin
▁predominant
▁deprivation
▁prolactin
lox
▁detectable
pecific
trop
jected
▁adenocarcinoma
uble
Tc
▁cultured
▁transpor
▁tended
▁cephal
▁mell
scher
▁intermittent
▁reduc
▁Vmax
▁innerv
tized
sively
physiological
▁moderately
▁fibroblasts
inhib
entical
tisol
▁zinc
▁spinal
▁chloro
▁strains
▁(2)
▁cerebral
sess
iasis
▁nig
▁prostaglandin
.7%
▁bic
▁cohort
opo
onary
▁glycoprotein
olgi
1)
▁cystic
orption
alc
▁intracellular
▁dissec
▁reflec
icin
▁radioactivity
etal
▁erythrocyte
▁intest
tial
throm
▁phospholipids
phasic
▁filaments
▁enzymes
nucle
▁immunoreactive
2+
▁0.1
▁immun
▁isch
▁mmHg
]-
urea
▁permeability
luent
▁2.0
▁cardiovascular
▁lymphocyte
13
▁pulmonary
ficial
▁85
▁substances
▁eti
▁nasal
lue
mide
▁statis
amycin
▁peri
▁newborn
vents
eces
▁atropine
▁pyram
▁adjustment
▁intram
▁hemodynamics
▁plasmid
▁characteris
▁immunode
+)
▁interv
▁[125
▁degradation
▁72
▁dopamine
▁implicated
-17
sities
.7
▁adduc
geal
▁+/-
▁platelets
▁Mn
▁erythrocy
▁regression
▁micrograms
▁physici
atitis
immun
▁docum
▁labeling
▁confined
▁57
▁proliferation
ionine
,000
▁triglycer
▁anticoag
▁proximal
▁accumulation
loon
▁cardiac
ullary
70
▁secretion
▁PTH
▁brady
▁26
▁substrates
anding
▁methyl
erin
ortic
▁inoc
robic
▁onset
ectomy
gative
ocl
▁polyp
gth
▁vesic
▁18
▁arteri
oplas
▁(10(
sorption
benz
▁(0.0
helin
inositol
ocytosis
▁300
piration
gene
▁suppor
▁2,
TNF
▁3
▁HC
▁afferent
▁trac
▁immunofluores
lytic
▁melanoma
reast
▁diagnoses
jec
▁PV
▁ganglion
▁hCG
▁sugges
oxygenase
▁ultim
vity
▁vasoconstric
▁hepar
▁therapeutic
▁attrib
▁atten
▁inhibitors
din
tality
bular
▁reflecting
▁familial
dial
30
▁intestinal
▁32
▁hypox
tages
▁malignant
▁mV
▁bac
▁ranged
esti
31
▁perfusion
▁neurons
▁gradients
▁serotonin
▁toxin
▁endoscop
acting
▁1.6
▁Patients
▁sampl
8)
▁lact
▁concomitant
adily
▁63
▁elevation
ineal
▁recons
-1,
crip
▁clones
▁gonad
▁aorta
▁sympathetic
▁disruption
▁memb
lasses
▁synov
▁micron
onstric
▁extre
idne
▁bolus
rogenic
▁secretory
▁resonance
▁myosin
pendent
▁bacterial
▁intake
▁Pretreatment
stim
oconstric
.2
▁reacted
▁preliminary
▁enhancing
▁Immun
enzyme
OH
▁ischem
▁Compared
▁follicle
▁aureus
▁spontaneous
▁panc
ranial
omical
▁nitrogen
▁complications
oxid
▁cAMP
79
▁monitored
▁undetectable
▁ventricle
7%
2).
▁mitochondr
hemical
▁tumours
▁actin
▁lamin
▁prol
containing
ecyl
▁1%
