▁linkages
▁hypoglycaemia
relevant
▁arterial
▁epidemic
ensitive
▁interc
▁DG
▁proce
▁ventil
▁unde
entan
jun
▁palli
▁correlations
▁exercised
hering
ressive
▁mutations
rone
▁physici
▁presum
astatic
phth
▁distin
▁histological
ullary
ventional
opi
▁sclerosis
▁presenting
▁exce
▁diabetes
▁mothers
cence
▁reas
▁tymp
mixed
▁atm
placement
▁constitutes
▁MRC
rine
▁arth
roin
▁IVF
▁diminished
andard
xone
▁clinical
▁unexpl
▁ulcer
▁platelet
vaginal
▁cultures
▁curative
MIC
▁improving
iary
adequ
rogra
▁favorable
▁improves
▁throm
▁postmenopausal
▁phagocy
▁follic
▁pter
ressed
▁prescribing
▁immig
esting
patient
▁carb
▁eradication
▁HM
▁treating
▁trend
▁preliminary
▁necro
▁Bec
▁inflamm
▁concentrations
trast
ologic
▁stren
▁regimens
keletal
itance
monary
▁identifies
ipient
▁accumulation
▁hepar
▁morb
itin
▁circulation
tected
▁demonstrates
▁molar
▁widening
otent
Phe
rated
▁accurately
▁pyram
ogenous
▁HLA
▁tympanic
▁poorly
▁tobacco
▁pall
▁deterior
▁mellitus
▁adhesions
▁atr
▁exhibit
omiting
▁telephone
▁coel
▁surveys
▁discus
ineal
▁awa
coun
▁intrag
▁rhe
oglyc
▁confined
▁audit
▁receptor
itamin
▁remission
▁theore
guided
▁lobe
▁bone
▁anastom
▁attending
▁advisable
▁symptomatic
urc
▁TB
▁Eff
▁fatty
▁variability
▁modif
▁compressed
▁GV
sess
amic
pies
arent
▁TC
pation
▁abdomen
▁allergic
▁ventricular
▁tet
illic
anyl
retro
olic
GI
▁schiz
opl
▁adequate
venth
utroph
▁GF
▁LOS
bility
▁biopsy
▁evolving
geal
▁encouraging
▁endometrial
▁assessment
▁screening
iosis
atid
▁alve
▁prevalence
▁aorta
▁mL
omerular
▁GVHD
▁toxic
mental
▁dental
▁HPV
▁utero
▁infection
sities
▁comparisons
▁endothelial
▁distal
▁questionnai
▁hyperg
▁sequelae
lapping
▁COS
▁chloroquine
▁recurrent
cessive
▁ALT
▁radiological
ocl
▁excimer
▁gangl
ration
▁pathogen
ipid
essential
▁numb
orin
erations
▁adolescents
▁molecular
▁assessing
▁cortisol
▁Clinical
▁sensitivity
▁affects
▁staging
▁cervical
cyst
▁heavier
▁influences
▁pylori
ailure
▁harmful
▁BS
▁emissions
▁hepatitis
▁alcohol
▁mec
heum
▁preferen
▁superficial
IgM
▁systematically
▁psychiatric
▁postnatal
▁clinically
▁abnormal
▁subsp
▁availability
lep
▁coex
▁ovari
▁polymorph
▁evacuation
▁enhanced
rophyl
omatic
▁awareness
▁readings
▁Increased
▁atmospheric
sul
▁follicle
▁vaccination
erate
duce
▁cancers
tical
▁tas
▁correlates
▁concordance
▁workload
▁disorder
ostic
▁increas
▁cate
tomy
Ka
onin
▁excluded
▁perfor
itr
incip
odic
▁prognosis
▁diffic
yses
▁cochlear
▁physicians
itro
▁adjustments
iminary
▁metastases
tum
▁geniculate
IIIa
▁ration
oplasty
▁neonatal
tectable
rested
▁rectal
▁mucosa
▁reproduction
▁ASA
thma
▁buc
atheter
▁TG
▁vitro
ught
gulation
FV
▁prognostic
▁psychotropic
monstr
▁defic
▁drugs
comitant
hern
▁identif
▁Therapeutic
▁scanning
itudinal
▁preservation
▁physiology
▁hospitalized
athyroid
▁PCT
▁mamm
arcin
▁discriminative
▁eosin
▁poorer
rants
ustained
acer
▁contex
ulfonyl
loid
taining
spectively
▁needles
eces
▁migrated
▁sedentary
▁statistically
▁inadequate
▁survival
▁TBI
uvant
▁spontaneous
▁organisms
▁melatonin
▁somatostatin
▁synerg
▁targeted
▁oligo
atonin
▁drin
▁PH
▁Mucosal
▁cere
▁underg
▁irrit
▁pati
▁inpatient
▁prospectively
▁aortic
erin
nai
▁visually
▁extensor
illus
▁reagent
▁testicular
olated
oes
▁Cox
▁heparinized
▁colorectal
tific
▁bowel
▁GD
▁Estrogen
▁Tum
jected
▁prostate
ophren
tic
▁practitioners
▁diversity
▁AMI
▁transient
▁bac
erine
▁bacter
▁inappropriate
▁Severe
▁comparative
▁subtraction
▁verteb
▁neurological
▁coronal
▁pneumon
responding
treatment
▁potency
▁saturated
▁intrap
▁prostatectomy
▁subgroups
▁seventh
rents
▁encoun
▁atresia
▁thickening
tebral
▁Impro
▁palpation
▁silic
▁crest
seal
▁undergoing
▁CAM
▁opportunities
occi
▁validated
▁etiology
▁NPC
rection
▁deficit
▁percutaneous
▁Phy
▁GFR
▁disadvantages
▁UL
▁iatrogenic
▁predomin
vation
▁tuber
▁gradi
▁institutional
▁underlie
▁kerat
▁explored
genic
ostat
▁Significant
tions
▁progressive
▁axillary
▁endoscopy
uccess
astric
ometr
▁patellar
▁transplantation
ococci
ivation
▁prevention
▁seropositivity
▁cited
▁unresectable
ctomy
valence
▁socioeconomic
▁preoperatively
▁ket
ronch
▁tumours
▁rehabilitation
reast
▁controversial
▁Contrary
▁annulus
▁dentists
▁gait
▁resear
▁Chemical
▁urinary
▁pancreatic
▁catheters
▁anticoagulation
requ
▁ovarian
▁tric
▁cardiomy
▁unex
alsy
lected
▁elevation
▁suppression
▁prevalences
▁reactions
▁gyn
onary
▁reliably
▁atrophy
SPECT
diagnosed
MH
lymph
▁broader
helial
▁decreased
▁endoscopic
▁DS
▁unc
▁prophylactic
▁antibiotic
▁describ
▁HA
▁HIV
▁viable
▁complaints
▁neutrophil
intestinal
▁decreas
▁Effective
▁intravenous
▁Neither
ographically
inj
▁stom
mur
hers
▁sphincter
▁vascular
▁infants
operative
▁ultr
VR
▁withdrawn
▁atten
▁labial
▁characterized
gative
erican
FG
▁Preoperative
▁tracers
▁elderly
phrine
▁fulfill
evaluated
▁emphasizes
▁haemorrhage
threatening
oplas
▁experts
▁Kup
▁syndromes
▁melan
▁controlling
othelial
tinu
▁reac
▁encour
odies
▁impaired
▁elic
▁prescrib
▁labeling
▁plantar
sial
▁Additional
▁tertiary
▁longitudinal
odialysis
▁provid
▁Tumor
▁childhood
epit
ece
tle
fat
▁Findings
▁promoting
▁synchronous
▁individualized
▁metastatic
iron
▁Compared
lore
ithin
▁hypoxia
▁progestin
▁ischem
▁eosinophil
▁paraventricular
▁GM
▁adop
▁ultrason
▁graft
hemical
sive
▁epid
▁confron
▁ascer
▁attrib
omotor
utaneous
▁tissue
atitis
renal
ressing
▁Phe
▁lesions
▁atheros
Ds
ymp
ollicular
▁allevi
▁habits
▁IgM
▁causal
▁infect
▁ana
ioid
tensive
▁deem
iciencies
years
▁cerv
▁wrist
▁congenital
ureus
inol
wk
acental
▁selective
▁supplementation
▁plur
▁cholest
▁advan
sion
ureth
▁complementary
▁recipient
▁mineral
▁modulates
▁lymph
▁resis
diol
idated
orts
veolar
oracic
▁aort
stress
▁phagocytic
amine
▁overlapping
osity
▁warranted
▁somat
otor
tual
EGF
omes
oxif
▁FV
hemo
▁encourage
cine
▁tooth
▁traum
▁rotated
dition
opathy
▁moisture
MG
pir
ariate
immunization
▁slowed
arean
idne
▁cava
effectiveness
adily
▁gluten
▁artery
▁Patients
lastic
▁advances
▁merits
▁nosocomial
▁SB
▁continence
▁pregn
▁GBS
▁safer
▁leuk
▁enucleation
acil
▁adjunct
mTc
▁PRP
▁juven
▁ane
▁elucidate
PB
▁exposures
ysm
amily
reported
▁chec
▁pelvis
▁complemented
▁enlarged
▁noncom
▁trials
▁contribut
▁drainage
crib
hig
▁agon
▁neurologic
tate
▁confound
▁intraoperative
▁validity
eptin
▁monitored
▁exacerbations
gesia
▁infil
▁RS
tact
gmental
▁enhance
▁intra
ovascular
▁nonadherent
▁inadequ
▁horm
rele
▁protective
▁macrophage
▁initiating
crimin
luc
ulae
▁interv
▁solely
iotic
phosphonate
▁heroin
▁PCP
iferol
oplasm
eal
irrh
tation
▁creatine
▁swelling
▁fatality
especially
▁geriatric
▁caro
▁ascertained
▁substances
feren
▁excre
▁reagents
erance
▁AGE
▁scoliosis
▁leu
▁episodic
▁overexpression
▁considerably
▁hernia
mitted
opathological
▁randomized
uptake
▁referrals
▁malignant
▁locus
▁multifactorial
▁proteins
uding
▁mandatory
▁VE
▁establishing
▁arter
bly
ectom
▁rati
▁PT
▁feasibility
▁consensus
▁reproduc
lectomy
▁muscle
▁Engl
ternational
ministration
▁Comparisons
▁pregnancy
▁warr
icide
▁tibial
ervice
▁abnormality
▁pyl
ameters
▁irradiated
▁agonist
▁cyt
odynamic
▁emerg
▁TK
▁chlor
severe
▁hypertensive
▁physiological
▁prophyl
▁esophagitis
▁strom
ditions
▁cystic
▁acqui
▁apop
acerb
namic
▁preferences
anding
ropine
▁polymorphism
totic
▁chan
▁quantit
ceptual
atell
nutrition
▁cuff
▁hypot
▁LD
▁consequent
▁packing
▁microm
PV
▁benz
▁moles
ubtedly
▁Swed
▁RB
CMV
▁meal
birth
▁soybean
BW
Tn
▁bronch
responder
ensity
▁biological
▁inev
▁pathologies
▁sph
AH
▁poisoning
▁Samples
mong
▁sciatic
▁reproducibility
▁rele
▁Phen
ologically
▁unrelated
▁vaccines
▁microc
▁RP
faction
tib
▁enhancing
omies
▁bloc
▁Neurop
centr
▁concentrate
▁abortion
▁examinations
▁endpoints
▁anemia
heal
▁undoubtedly
▁collateral
▁amputation
▁surgeons
rectomy
▁resonance
▁socio
NH
▁infarction
▁evaluating
▁PCO
teric
▁mechanisms
▁strategies
▁dysfunction
▁poten
yel
ejun
▁adhering
onyl
▁dislocation
▁hypothyroidism
MN
▁nec
taken
▁pressures
▁masked
MV
▁heterogeneity
▁IHD
osal
estim
orotic
ilical
▁HS
entral
▁pregnancies
onatal
▁nerve
icine
▁femoral
▁estimating
▁septum
▁overl
▁pharmac
▁bypass
otropic
bic
sian
▁limb
duction
hep
▁Concomitant
Fs
PAP
RH
istal
versity
▁neo
▁unre
▁diagnosed
genesis
▁sustained
▁financ
▁antec
▁ratios
▁ventilation
stem
▁engraftment
▁deaths
ximum
oratory
▁CK
▁silicone
iatic
▁demands
▁multiv
stim
▁Weight
▁Chest
▁insurance
▁metabol
▁reduc
▁menopausal
ocyte
▁arthritis
▁vancomycin
tage
▁sensory
ingle
▁bipolar
▁perceptions
▁relap
▁guidelines
▁concomitant
▁biopsies
▁concom
▁systematic
▁acyclovir
itness
▁ethanol
▁OT
tial
▁uremia
illary
▁lob
▁birthweight
▁lymphadenectomy
plantation
ectable
omical
▁gaps
▁buccal
▁warrant
▁ventric
▁consultations
▁resuscitation
rox
GF
▁manipulations
▁tumour
▁analys
erad
▁nutrition
▁tol
erable
ycl
odial
asive
▁Atropine
▁corrections
▁tidal
invasive
tent
▁hemorrh
▁Tests
rosis
▁surgery
▁severity
▁enhancement
▁expend
entanyl
▁pronounced
isqu
▁apex
▁modestly
▁striated
▁Dil
▁disability
▁MG
▁disrupt
▁interacted
▁psychotic
▁pathway
ogra
▁endoscop
▁reflecting
vely
tering
▁hypertension
▁inapp
▁phe
▁investigated
▁vaccin
▁Dop
entical
iant
▁depression
▁inhibitory
▁wound
▁overd
▁mucos
▁abilities
▁intercostal
lective
TNF
riend
▁VO
▁vitamin
erally
▁micron
▁Clin
itary
ourable
ociation
▁Bone
▁increasingly
inic
itus
▁alteration
▁atmosp
oxid
▁chloride
▁imaging
ffer
orest
▁ile
▁comparable
ronchial
▁sulfonyl
▁UT
urea
▁promising
▁determination
otype
▁advancement
Ga
associated
hospital
▁infusion
edullary
▁acupuncture
▁adolescent
versus
amet
ethyl
acking
▁homogeneity
▁ultrasound
▁chemot
▁designing
▁mediated
▁cirrhotic
▁mediates
▁unrel
▁morbidity
▁acids
▁interventions
WL
▁hypox
hemia
▁epinephrine
VL
ilized
▁abuse
▁cardio
▁corne
▁subtype
▁NH
▁hazards
ilic
▁deterioration
plo
contrast
bacco
▁esophag
ritish
▁LVH
mide
onol
atest
otom
▁consol
▁plac
▁irr
ograp
▁unsuccessful
enzymatic
zation
▁drain
LF
▁investigations
idity
etus
▁laboratories
iological
lead
▁contamin
▁indicators
tection
▁waist
▁pancre
▁hypothe
▁carc
▁rationale
ication
▁judged
iliac
stolic
▁ACL
▁displ
▁racial
▁pelvic
licular
▁palliative
▁outs
▁corneal
roma
▁invasive
athe
▁sustain
tec
▁undes
hop
alc
▁measurable
▁cues
▁incidence
▁nutritional
▁complic
reement
▁unexplained
▁vaccine
▁Sout
▁iliac
▁nonc
▁Pregn
employ
▁dissection
▁resusc
farct
acial
▁exposure
▁dexamethasone
▁evid
▁impair
ociated
ignific
seud
▁anatomic
▁resour
rogen
▁carcinoma
▁Muc
arity
functional
trop
▁pathological
▁metabolic
▁tissues
resting
▁benign
▁CSA
hesive
▁heterogeneous
▁inherent
▁ongoing
▁healthy
▁regimen
onomic
▁infar
▁atropine
tur
esity
▁amyloidosis
atients
▁gallbladder
▁PP
sensitive
▁implicate
lyc
noise
gents
▁prostatic
▁disks
▁excretion
▁consolidation
▁pathologically
▁unres
ophag
▁vomiting
▁rash
glyc
ocial
▁deformities
▁HU
ositive
▁reconstruction
ulcer
alues
ameth
sions
LB
usive
▁unil
▁parap
▁esophageal
▁Blockade
illance
▁neph
▁perone
ceptive
ials
herent
▁differing
▁limbs
▁VC
▁gluc
▁asthma
▁Hb
▁hig
▁differen
▁postoperative
▁athle
acet
atectomy
▁torsion
iated
▁physi
arous
▁ablation
▁depr
▁DST
▁warrants
effective
▁drinking
eight
▁PCR
▁ward
hea
venous
▁examined
▁positioning
▁comprehensive
Ra
▁clinics
otomy
▁liver
▁exclusion
▁pituitary
mend
▁deliveries
▁IA
implantation
▁injuries
▁metoclopramide
▁skeletal
▁metastas
▁atrial
sts
▁microbiological
trexone
ustif
WB
▁preventive
▁bedside
▁propensity
▁Contr
▁subf
▁thoracic
▁ECG
▁bab
Tc
lusion
▁preterm
▁genotypes
ameter
uscular
thal
▁intrinsic
▁neurolog
▁correlated
▁peripheral
usions
▁focusing
ergy
amination
perfusion
▁compli
vail
▁WHO
▁medial
▁doses
▁neutroph
RB
tach
BP
clin
▁molec
▁PAN
ulatory
▁insulin
▁overdose
opic
uterine
▁thigh
▁edema
▁worsened
▁DT
▁RAR
▁exo
▁contral
oag
▁paradig
respon
iplin
iferation
rals
▁rated
inated
▁surge
▁vulnerable
▁carriers
▁ambulatory
▁thyroidectomy
iciency
clim
▁chol
▁ischemic
▁suicide
▁undergo
antial
▁adhesive
▁Intra
▁immature
entists
▁latency
▁pneum
aginal
ducts
▁intervention
▁metast
▁resection
vascular
ulitis
itic
▁diagnosis
Ki
tration
eclampsia
ervations
▁putative
▁implic
tein
▁onset
▁involvement
urred
lys
▁assis
▁proct
▁specialty
arate
▁Denmark
▁NT
eliac
▁MV
▁enrolled
▁somatic
▁spont
▁TD
▁CRP
icient
▁positively
▁surviv
▁adolescence
▁aging
aryn
▁decreasing
ercise
▁practic
▁discontinued
▁facilitated
▁regulation
▁enl
▁survived
▁adequ
▁normalized
identical
▁characterize
▁LF
▁sti
▁unstable
▁antibodies
olution
▁irritation
ocar
tak
▁correspon
▁repl
▁surgeon
▁anticoag
aryngeal
▁rhythm
trib
ascular
▁unm
▁alveolar
▁inflammation
▁obesity
▁hemorrhagic
▁extre
▁Increas
▁mandibular
itally
▁stellate
▁detachment
▁Treatment
▁endarte
matched
▁athe
▁supervision
▁stimulation
▁enteral
▁fetus
▁insufficiency
▁melanomas
▁ACE
▁stenosis
▁parotid
▁respondents
▁segmental
immun
▁specimens
▁feeding
▁guided
▁conservatively
ignant
tro
▁Vitamin
▁placenta
echn
▁classified
▁HCC
▁bronchial
▁modality
elan
▁unselected
▁stu
▁identically
▁differentially
▁suggestive
▁surf
HN
▁oxy
valent
▁establ
▁reveals
▁microv
▁periodon
▁illness
▁utilization
▁EMS
▁suspicion
▁perception
▁obese
asses
▁unilateral
oidal
udin
▁ICS
▁definitive
▁meaningful
▁occlusal
▁ascertain
▁BMI
▁MN
▁periodontal
atched
apse
opsy
▁diluted
▁deemed
lated
▁techniqu
injured
▁affecting
▁hemodialysis
loro
▁Acute
oprote
▁inhibin
gland
ometrial
▁clinic
▁undetected
ocusing
Ts
entary
▁pig
▁detectable
▁Steady
▁reproducible
isol
▁medication
▁Intravenous
▁adhe
▁aspiration
immune
▁acad
atories
▁laboratory
aminated
icin
▁gout
▁BM
KD
▁debridement
▁clus
▁rebound
▁osteoporotic
erper
▁rigorous
▁gains
▁acidosis
tries
▁clinician
▁lithotripsy
Hb
▁diabetic
HF
opamine
lym
▁leakage
▁viewing
aneously
▁reag
▁adhere
trative
▁weigh
DH
quid
▁nig
▁cathe
▁supple
▁concer
spective
▁oss
▁valve
▁anastomotic
▁indication
▁blin
▁suture
▁soy
▁angi
▁bronchoscopy
▁stimul
▁cocaine
▁topographic
▁enrol
▁undertaken
▁relating
ture
phic
▁cognitive
▁previ
ocytes
▁HI
▁vag
▁intermittent
▁Ket
▁bilateral
urethral
regulated
▁HN
imination
▁monit
▁discusses
▁ae
▁malign
stro
▁cannulae
▁carbohydrates
▁splenectomy
▁PEG
▁analyses
▁serum
TK
mittent
rotein
▁amyloid
▁participate
▁shallow
▁compartment
▁deficiencies
▁turnover
▁ocul
bral
▁progest
dial
▁perfusion
▁misleading
rehen
▁differentiate
▁uncommon
vated
angli
igaret
▁Greater
graft
emic
hap
▁prel
▁mediation
▁immunode
▁IBD
RD
▁underst
relations
▁HG
LU
▁distinctly
anic
▁Magnetic
▁differentiation
formin
olysis
vents
olute
▁occl
▁cephal
▁lobectomy
▁aspir
pendent
ilization
radi
ceptions
induced
▁retrospective
▁ageing
▁avascular
▁intrauterine
estis
▁wee
▁conclusive
▁biop
rolog
▁PV
▁sedation
▁employing
onium
▁pulmonary
▁vaginal
▁sequentially
▁hypog
aline
AO
▁IH
▁surveillance
▁colloid
▁therapy
▁decisive
igel
▁endometr
▁seiz
▁LV
ycin
rae
▁physician
ochem
▁appendic
vac
arly
▁assessments
▁discern
▁repaired
occal
▁gland
▁heavi
▁metastasis
▁Thromb
▁glu
▁chole
orax
ologists
▁Educ
▁presumably
▁Biochemical
quine
▁stratification
▁tamoxifen
▁demonstrating
GD
▁eliciting
discharge
▁streptococcal
▁preparations
▁anticipated
retion
CRP
▁modulate
▁counseling
▁screened
▁quantitative
ipolar
obal
Ps
▁lax
▁membrane
▁enti
▁loosening
carcin
▁ossification
ococcus
▁indications
ochemical
▁Kupffer
▁implantable
▁unevent
▁Treatments
▁herpes
Mu
ploy
▁restorative
▁moderately
▁autoimmune
idate
educ
abies
sequent
enin
acr
▁glyc
uran
▁necrosis
▁elevated
▁pulmon
▁GE
opramide
EA
▁lis
erop
▁wors
▁behavi
▁tris
▁profound
▁Slow
▁anatomy
▁remo
▁Large
ileptic
▁salivary
▁circumference
aceous
▁receptors
ectomy
onit
oric
▁dosing
▁debr
osomal
▁hemodynamic
▁likelihood
agic
▁Improvement
▁FT
▁chemotactic
oic
▁beha
Ev
uin
▁revealing
▁fatigue
▁FD
▁oxygenation
▁headache
oprotein
BM
▁experim
▁diet
mL
ystolic
uated
▁suspic
orative
erator
onography
▁iso
▁injur
▁homogeneous
▁neoplasm
▁proliferation
▁RT
▁cadaver
otomies
HB
uccessful
▁seizures
▁ey
pH
▁vulnerability
▁chemotherapy
▁cutaneous
▁Alcohol
▁Removal
▁muc
▁substantially
▁pneumonia
▁Certain
positive
gm
▁radiographic
▁exacerb
▁implicated
▁challen
ritis
▁underestimated
▁premature
tam
lasting
dose
▁questionnaires
▁sliding
▁manifestations
ergency
▁cigaret
▁cholestasis
▁sour
ulates
▁insufficient
▁newborns
▁insertion
LN
▁raises
▁LC
oradi
▁outpatient
▁gradients
▁hazard
▁vein
responders
▁pharmacists
LV
weighted
▁adherence
orac
▁gly
▁transurethral
aluation
▁fibers
versely
▁mobility
▁coeliac
▁thi
▁trophob
▁abl
▁alterations
oplastic
▁develops
▁abolishes
▁carcin
iable
SCC
▁fluor
▁surgical
ituitary
▁approx
▁researchers
▁recur
yroid
▁Pretreatment
▁cerebral
▁inserts
▁inspection
▁Whereas
▁professionals
▁acetab
▁neurop
▁thromb
▁hygi
▁prol
▁provocation
▁tow
enhanced
▁achie
nec
ecre
▁Biochem
amn
▁conclusions
attern
natal
▁Adverse
tus
ivariate
▁femur
▁radiotherapy
▁assay
▁spikes
cardi
▁uter
thre
▁latent
chol
▁MEP
▁hepat
▁OSA
▁cancellous
▁pleomorphic
▁births
▁perip
▁stomach
▁consistently
piration
Hu
▁Emergency
ithms
▁conservative
▁ruptured
ucle
▁pathologists
▁pharm
▁inhibit
▁burden
▁reper
controlled
▁implications
▁backs
▁venous
▁shor
▁insertions
▁compartments
▁substance
romed
▁RBC
rophob
▁lumbar
▁intervertebral
gments
▁distinguishing
▁catheter
anin
▁hepatocytes
▁responsiveness
▁healing
urys
Cer
▁beating
▁complication
▁gastric
utin
▁ESR
ancies
▁aureus
ancre
idation
▁endemic
▁facilitate
▁prophylaxis
▁Lys
▁managing
▁haem
acts
▁cardiomyopathy
aturated
▁evac
oung
ithi
ialysis
▁disparate
▁infections
▁providers
▁Delayed
▁followup
urate
BK
idement
parative
▁Dopamine
▁deficits
omat
▁oxide
▁carbohyd
duc
fine
economic
▁myocardial
ses
▁GI
▁fragile
oplasmic
mia
hyd
▁achievement
▁Cycl
▁Vac
▁substituted
▁gad
xiety
▁behavioral
▁bip
rophy
ognition
xual
▁exogenous
▁cesarean
▁spati
▁CPAP
▁palsy
vant
▁minimize
ostal
▁synergistic
▁ADH
▁eluc
vertebral
▁HCMV
entric
▁seb
▁appreciably
▁LS
othel
▁coexistence
itively
▁lesion
cture
agal
asal
▁carotid
uality
▁aimed
▁poin
▁shortened
▁genotype
astom
▁canc
inemia
▁indicative
▁examination
▁satur
▁Chronic
▁impairment
▁disruption
enic
razole
Ba
alp
ectomies
▁MRI
▁compliance
▁IgG
clusive
▁hygiene
▁undo
▁perc
▁reactivation
▁recor
▁ethnic
▁anomal
vating
▁dyn
▁Tes
▁Cushing
ocarcinoma
▁gallst
ophil
▁trough
▁cardiac
▁manifestation
▁BP
▁PF
iatric
▁thromboembolic
▁cervix
▁lacking
▁chl
ophilic
ucleation
▁derange
tolerated
Ly
vival
oplast
▁perinatal
▁radiography
▁streptococci
▁inhib
▁counteract
▁heparin
chers
▁hypoxic
elvic
olenic
▁instr
▁inhibition
▁embryo
▁muscles
▁musculoskeletal
▁Taken
▁cure
aints
▁cancell
▁scl
▁APC
▁fragility
▁scre
▁spine
▁cue
▁cigarettes
▁colonization
▁diagnose
▁amput
lux
DNA
▁pharmacy
rati
unctional
▁fixation
atical
▁DF
▁PI
ineph
▁indetermin
▁stimuli
▁excision
oride
either
ventricular
▁musc
▁fracture
▁intrarenal
▁Medicaid
▁depar
▁LN
▁rCBF
oxia
▁muscul
▁elu
loride
▁transfusion
uded
yro
pT
▁discon
ctive
▁chemo
▁PEEP
▁vena
▁restenosis
▁peroneal
▁adjustment
echanical
▁portions
▁Failure
aid
▁nodules
▁screw
ficial
▁behaviors
▁synthesis
glum
▁Trial
▁systolic
▁delivering
▁tumor
▁comprehen
ilateral
▁tox
▁deform
▁scans
▁laparoscopic
▁Operative
▁aor
▁bronchi
▁predictors
▁knee
umulative
▁ischemia
▁derangement
dominal
▁technically
regulation
osin
▁AO
▁differentiated
▁beneficial
▁athletes
▁Serum
▁susceptibility
ufficient
ulin
ximal
▁oils
▁vegetable
▁phon
▁psychosocial
▁sev
reatine
▁undergone
▁Inclusion
encl
evaluation
▁uncomplicated
▁technologies
itant
▁nurses
▁therapies
▁SG
▁hypo
▁tracer
▁parental
▁oste
othermic
▁thrombolysis
▁tes
kers
APC
▁symptoms
▁linoleic
▁immunomod
▁sut
▁doctors
▁rheumatoid
lact
▁neutrophilic
▁coronary
▁recurrence
undibular
▁haemorrh
cysteine
usal
▁barriers
luent
odynam
essive
aired
▁needle
ontal
▁localized
oxidation
▁overe
▁instability
tyl
▁pathology
▁abnormalities
iol
▁preclude
atab
▁MH
itone
▁intake
▁implant
cold
▁chor
▁attendance
▁SNP
▁SLE
▁chorio
▁sten
anol
▁therap
orable
▁syndrome
▁grading
▁causative
▁temporarily
atment
▁outcomes
bladder
▁infiltration
angl
aventricular
▁parag
▁activated
▁tert
atoid
trimental
OA
▁demographic
▁adenomas
jug
VT
tead
▁preparation
▁pancreatitis
▁AE
▁overlying
▁Addition
▁disorders
▁excl
▁temperatures
sor
sies
▁hospitalization
erative
▁adaptive
▁predictor
moid
sized
▁restric
▁chori
reness
▁phag
▁referral
▁homogene
vul
umulation
▁familial
dle
▁caution
▁stimulate
lowering
▁calcified
▁babies
▁PE
▁assurance
omedullary
▁glycoprotein
▁regis
▁tonsil
▁intram
Ns
▁intrav
▁overweight
▁pathologic
▁Doppler
▁volumetric
▁oes
▁pulp
hei
urther
▁Analy
▁prevented
ocked
ofol
▁metabolism
▁stab
▁pyramidal
▁cholecystectomy
▁Streptococcus
▁complications
▁AMP
oscopic
omal
orrhagic
▁encouraged
▁regar
physiologic
ropriate
ACS
▁IIb
ospor
ivary
tant
▁neon
▁echocardi
▁directional
▁cen
urin
HM
▁displacement
▁thorac
oscopy
▁undetectable
▁predicts
▁prevalent
▁RH
TG
▁colonoscopy
onset
oscop
▁hemis
idney
▁angiography
His
rous
▁Pregnancy
▁Surgery
▁tumors
enh
▁toxicity
▁phenotype
legia
▁anxiety
urse
orectal
▁LDL
▁melanoma
eration
▁postoperatively
▁trophoblastic
KA
▁laser
herence
tin
Ta
▁subjected
▁HP
▁emergency
▁concurrently
zard
ocaine
▁lipoprotein
atine
▁anomalies
▁molecule
▁Paget
drome
ithm
Ti
▁rotational
cents
▁thresholds
▁atres
tens
rogenic
▁sequel
▁SCH
unar
▁chond
ervical
▁corrective
▁peripher
isture
fos
ithiasis
▁amyl
▁divertic
▁precedes
▁psychological
▁tear
ications
▁equivocal
alian
▁balanced
▁cerebrovascular
▁respon
▁tolerated
▁meals
▁synovial
▁plates
▁decline
derly
roup
▁facial
kage
▁retention
▁disparity
▁cardi
▁epi
▁opi
▁appendicitis
istically
▁thrombo
▁flexion
▁discrimination
▁requi
▁nurse
▁ketamine
▁mammography
▁rhy
eak
▁schizophrenia
▁justified
ocytic
▁specificity
thle
▁DSM
increased
mg
▁ultras
▁endarterectomy
inely
▁abd
▁HSV
▁satis
anish
olved
aemia
▁eating
▁parame
▁progn
▁favourable
▁diagnostic
▁shif
▁effectiveness
▁contributes
occus
▁suspicious
▁opioid
▁endoc
▁reflux
▁preferable
▁microb
▁discrimin
▁inflammatory
▁inducer
▁challenges
▁osteoporosis
▁microcirc
▁arteries
▁chewing
▁depress
▁alp
▁pH
▁adjuvant
neumon
▁myo
▁predicting
Ia
▁practition
ygen
arb
▁radiograph
▁ET
bac
▁lipids
▁insult
duced
▁chest
▁detrimental
▁synthe
▁multic
▁follicular
▁exis
▁elimination
▁adequately
▁migraine
armac
helin
ivoc
kade
▁paras
▁inh
▁lith
rates
▁VA
▁intensive
▁TGF
▁hormone
opam
onad
▁glut
▁nal
osocial
▁RM
▁margins
▁paradigm
oping
▁BV
ortic
▁reveal
▁UTI
Cu
jejun
urgical
▁examin
▁experi
imental
▁fati
▁measuring
▁sepsis
▁circumferential
▁biom
▁prospective
▁linole
▁histologic
▁OC
▁secretion
econd
▁discharge
lec
▁reperfusion
▁morphologic
▁deformity
▁synov
adication
▁antegrade
▁FH
▁trauma
▁eosinophilic
▁gynec
▁fitness
gic
▁infected
iably
▁sulf
▁caregi
▁deter
ewish
▁inver
▁porcine
oagulation
heric
▁OA
▁tomography
▁MI
▁deficiency
▁Cyt
▁practically
▁regulate
▁cumulative
▁antic
▁Patient
▁lithotrip
lateral
opia
acted
▁oral
▁uncontrolled
ropriately
▁thir
▁adverse
▁placent
ogens
▁symptom
▁routinely
graftment
▁restor
▁treatments
▁laparotomy
ubted
▁prednisone
▁MCP
iasis
activation
atrial
▁anastomosis
▁sampl
FH
▁deprivation
▁MBC
▁coexist
▁dilated
ensory
▁depressive
▁hemodynamics
▁multicenter
▁Surgical
▁APD
ograms
CBF
▁sexes
uation
arer
▁determinants
▁connective
gely
onate
matic
owever
▁desm
rins
sue
▁suppressing
asting
▁decisions
▁influenza
▁uncom
▁assays
▁pate
itoneum
▁minimally
▁uptake
▁prolonged
▁peptic
▁pregnant
▁pigmented
▁AI
▁cyst
▁Comparison
genital
▁plaque
ibi
asic
▁lipid
▁simultaneous
▁leukocyte
▁thickness
sia
▁operative
lix
▁reasonably
▁thyroid
▁naltrexone
▁endothelin
▁ganglion
echan
▁amines
▁barrier
▁usefulness
mig
toc
▁minority
▁specialist
▁PAS
▁isch
diagn
omized
▁vitamins
▁dose
▁dex
▁aerob
▁adoles
▁manu
▁implantation
▁normo
▁phy
▁olig
risk
ighted
▁functioning
▁manufacturers
▁perin
▁intramuscular
sy
ocyt
▁preoperative
romes
degree
▁mg
▁contaminated
ateral
▁widespread
▁testis
clinical
▁indeterminate
▁unin
▁airway
▁inversely
ultural
▁discom
cele
ults
▁investigating
ostatin
▁scintigraphy
▁errone
▁mortality
▁laparo
kely
▁morphology
orphic
▁multim
tif
▁adenoma
eric
▁overex
▁highl
▁injections
estive
urgery
▁facilit
▁hep
▁speculated
▁acquire
▁predominantly
regn
▁CABG
▁reductions
▁cyclosporine
edle
opa
▁fulf
▁intense
▁fold
▁occurring
filtration
▁carcinogens
stant
▁selectively
▁hepatic
ipher
▁TA
tors
atient
▁mono
▁predic
▁genetic
▁immun
▁residency
▁ure
▁hormonal
ially
urally
▁Prospective
▁atherosclerosis
▁auditory
operatively
▁palp
▁physically
hest
▁chloro
▁PB
▁biochemistry
▁urine
xia
▁glomerular
▁rigidity
▁hemisphere
▁Tran
▁tubes
▁spinal
erated
▁mell
▁consequently
clerosis
ventive
▁circumferen
▁influenz
entif
▁clinicians
▁phenomenon
elfare
▁multivariate
▁tiss
BG
▁diseases
▁shorten
▁structural
▁identifying
▁desirable
ampl
▁HCM
▁cann
▁Histologic
▁abdominal
▁smo
▁Percutaneous
▁cardiovascular
▁Medicare
▁cereb
adherent
▁microvascular
athy
▁advised
rectal
▁depic
▁pT
▁sequential
ocular
▁surrog
gth
▁epileptic
plic
▁pharmacological
▁amin
ayed
olism
▁pediatric
fron
mentation
▁evaluations
▁chronic
▁traumatic
pite
▁immunological
▁rigor
ergic
▁versa
▁tracing
▁Throm
▁genes
▁TAA
▁diagnoses
▁myoepithelial
▁irradi
▁hCG
otyp
▁GER
▁efficacy
▁prenatal
idis
aning
▁adenocarcinoma
▁tolerance
▁modest
▁onc
tig
icated
trol
ocardial
▁occupational
ypical
▁cohort
lesion
▁aerobic
▁coincidence
umbar
erating
arge
opulation
tained
▁CMV
▁dys
▁umbilical
▁Accordingly
▁immune
▁supplement
imens
▁failures
NM
▁maternal
resses
▁preval
▁relapse
▁polyps
odal
otherapy
▁appropriately
eled
▁minerals
▁zinc
sych
▁predictive
▁embry
uncture
▁contralateral
▁MHC
▁scin
ervative
facial
phosphon
▁fractures
▁severely
tive
▁aden
▁pylorus
▁anat
▁hypertrophied
MRI
▁mitral
omod
osom
ifol
ellosis
▁recessive
▁decades
oxic
DG
▁ventilatory
▁feasible
▁mucosal
saturated
▁eyel
sus
aemic
prising
asone
▁Systolic
▁overestimated
lysis
▁saliv
▁discordant
▁laparoscopy
▁NP
▁eliminated
▁glands
IU
lood
ocul
mented
▁behavioural
▁smoking
ocele
▁NB
onor
acting
▁Physicians
▁systemic
▁mild
▁HL
▁cohorts
▁overlaps
ococcal
cutaneous
▁continuing
▁bladder
olones
▁saline
opausal
▁resected
leu
▁Afric
ochemistry
BV
dents
▁nursing
▁DN
▁adults
▁aneurysm
▁spon
▁PSA
▁risks
▁determining
▁HC
▁sickness
nee
▁polyethylene
trip
RP
transplantation
▁physiologic
▁conceptual
▁vasomotor
oice
▁conducting
▁genic
▁nail
▁diagnos
▁Continu
adder
osts
▁fetal
▁metformin
ths
▁estrogen
ostomy
▁progression
▁CM
ections
▁pineal
▁fever
▁FS
▁dietary
▁ultim
▁surgically
▁pathogenesis
AIDS
▁glucose
oleic
cad
▁disappearance
▁drops
▁topical
sis
erals
▁algor
▁intraven
▁ultrasonography
▁renal
▁injected
▁mann
▁adjusted
ivocal
ardless
▁inhibitors
▁surrogate
▁discomfort
ept
ediatric
consuming
▁BD
▁PVR
▁VL
▁therapeutic
istrib
▁autosomal
▁heterogene
▁antib
▁nucleus
▁illustrates
▁oxygen
▁fiber
▁nasal
▁anatomical
menopausal
▁lumb
oskeletal
▁correcting
▁transi
▁emotional
▁spi
▁stillbirth
▁VD
▁empirical
▁maintaining
were
▁cytology
▁PD
dimer
▁hypers
▁calcification
urine
▁constitutional
enol
▁histopathology
▁findings
▁moderate
▁pS
▁Overall
▁congen
morph
ertion
▁stroma
▁thromboemb
▁Considering
▁avoiding
▁glomer
▁PET
▁intragastric
erum
▁vagal
IH
fusion
embr
▁evoked
mature
▁umb
ortal
rying
▁acute
orrh
▁kidney
▁fentanyl
▁gallstones
▁juvenile
usp
▁heal
