▁subcellular
▁13-
rozen
▁decline
▁minimize
▁TC
▁fractures
▁rebound
▁2)
▁3.5
▁chronically
▁Phosph
▁titer
▁caregi
▁complementary
▁involvement
▁intensive
▁gout
cholesterol
entif
helium
erated
▁prognostic
ithm
▁laparoscopic
anine
eration
▁molec
▁tonsil
▁chol
▁TSH
▁methionine
dU
▁atten
▁Streptococcus
reast
fib
▁plaques
▁mobilization
▁referral
▁Prophylactic
odynamic
▁institu
▁Analy
▁hypoxia
▁chan
▁cigaret
▁reproduc
kephal
/10(
nisone
▁laparoscopy
▁25-
▁AE
▁lumbar
▁Stroke
▁10(-8)
▁Trial
▁plur
glut
▁abnormality
phenyl
aspartate
▁Trials
▁nmol
▁remission
▁apoptotic
▁1.6
Ins
▁AMI
▁3.8
ipient
▁Neither
valent
timulation
▁papill
▁ischemia
▁suspension
▁Discre
icin
ocol
▁congenital
istar
▁immunodef
owever
▁Patients
▁contribut
hyd
▁Pseudomonas
▁beating
tiazem
▁amylase
▁blockade
▁alterations
Cu
tingu
▁respec
▁microgram
▁bovine
▁agar
alate
piration
▁EGF
▁postin
▁sacrificed
ulatory
▁angina
▁ure
▁Healthy
▁progestin
thyroid
▁overweight
▁chemotherapy
2318
acr
▁Tyr
▁Systolic
47
▁indi
▁inadvertent
▁muscular
▁glutamine
hep
▁breasts
▁envelop
lyce
-2)
▁decisions
▁drinking
▁elimination
▁conclu
phragm
essential
ographs
▁receptors
▁respiration
trogen
▁Addition
arental
inol
▁solubilized
▁dislocation
ilic
▁tachy
▁consolidation
▁vesti
dial
placement
lux
▁consangu
radi
▁neurob
▁NMDA
▁benz
▁osmotic
▁Surgery
▁myc
▁antigenic
acial
▁ovari
cyclic
▁ascorb
▁adhesive
▁overestimated
▁Emergency
▁lept
▁conjunction
admill
sess
▁surrogate
5.
opathological
▁msec
▁adequate
▁amph
physe
acclim
cretion
▁differentiate
igaret
▁strips
(2+)-
▁waist
▁pharm
osomal
▁4.5
▁penetration
trient
▁toxic
minal
ropriate
▁platelet
▁globally
onol
yel
▁mec
▁indetermin
▁equivocal
ulates
▁phosphatidyl
idazole
▁hyperplasia
▁cholec
ewish
▁haemorrhages
▁accelerated
▁sulfonyl
▁cirrhotic
▁preferentially
▁predicts
▁purified
▁Concomitant
▁Severe
▁reconstruction
▁audit
▁pylori
▁initiated
ported
▁everyday
▁pharmacological
▁periphery
▁Immun
▁inorganic
ompan
▁adducts
▁temporarily
▁fasting
▁cardiopulmonary
:1
▁glucagon
▁birthweight
▁schiz
itre
▁elevation
▁PCR
▁60%
asting
▁aggressive
▁fentanyl
sities
ogra
▁minority
▁multifactorial
-100
maximal
▁lifelong
▁peptide
imetry
▁dodecyl
wk
hydrox
▁10(-6)
▁DF
▁progressively
▁Sertoli
▁biosynthe
cutaneous
oic
avage
▁(7
rins
-10)
▁0.02)
▁characteris
Glc
▁nuclei
vein
erop
▁HCC
▁iliac
▁ACh
iability
▁codon
▁parasite
▁epiderm
trial
▁designing
▁HL
▁unc
hemia
▁lact
mediated
▁suturing
▁protective
heres
▁cancers
▁IGFBP
▁39
osus
atine
▁STI
▁dial
▁breathing
▁TB
▁amyl
▁revealing
▁incidence
CSF
-4-
▁implications
pap
▁fibroblasts
▁continuously
ochlear
▁TAA
▁receptive
▁bicarbonate
▁rhy
▁disadvantages
pinal
▁recess
▁abolishes
opamine
▁rectal
▁illness
discharge
VR
▁intub
▁(15
▁excimer
78
reness
▁esters
illus
▁carboxy
-1),
▁expiratory
-20
▁loosening
▁follicles
▁resec
▁hapl
▁131
▁vancomycin
▁NI
▁mechanisms
cycl
requ
▁Strep
▁frontal
▁smokers
plo
▁glu
sorption
median
ocardi
▁1988
▁therapy
weighted
▁lymphocytic
ectom
▁strom
▁chromatin
veness
▁loci
▁lyso
olamine
enzyme
▁(24
▁cleaved
▁promo
▁reproduction
▁normalized
▁constr
▁infused
▁decreased
▁diagnos
▁phosphorylase
vements
▁extre
▁anastomosis
ocele
▁perception
▁ery
isure
obase
▁derm
▁seizures
▁asthma
oproteins
▁neurological
atories
▁eti
▁potenti
ilateral
ergency
▁hemisp
arotid
▁supervision
romed
▁rostr
▁horseradish
▁Increasing
olipid
ighted
oprotein
timal
ronch
▁catheterization
angli
▁34
▁hyperp
atoid
▁mA
graftment
▁RIA
▁surge
himbine
otype
▁similarities
▁infusion
▁acyl
treatment
▁erythropo
▁fluorescence
▁discrep
SAP
ophore
▁TK
atients
rosine
▁mediate
▁gyr
▁7.
tran
erus
esting
ncy
▁modulation
▁contex
▁accumulate
▁sarc
vac
▁telephone
▁dextran
▁saturation
▁chloro
infarct
▁20.
▁psychological
▁causation
▁electrical
▁mutations
Nor
▁chym
toxic
34
▁trache
▁4-
▁atm
effec
herence
▁PBMC
anded
1),
▁incorporated
▁trend
▁pulse
55
▁suppressing
▁axon
▁multivariate
▁thrombin
▁cann
▁comprehen
▁CB
duced
PSPs
cysteine
tant
▁fibre
66
▁(16
globulin
1,
hers
▁hern
▁recipient
ropha
▁regulatory
glutin
▁Considering
▁surgeons
▁exert
RIF
trone
▁facial
iasis
▁moisture
▁traum
▁preconditioning
▁enucleation
omies
▁PKC
amicin
▁300
▁inoculated
taz
▁lipoprotein
▁7
▁Phe
▁declined
▁colitis
▁immobilized
▁diabetes
▁succin
▁injected
▁peroxidase
▁peroxide
▁GD
▁acces
till
▁immature
▁nig
▁docum
▁pyramidal
tific
▁monos
▁10(-7)
▁electrodes
▁typhimurium
▁radiotherapy
▁fiber
▁conformational
▁addi
▁tubulin
ontal
cells
heximide
birth
▁patency
▁appropriately
▁deduced
▁nonspecific
▁NB
ensities
▁heparin
▁pathologies
gic
▁tRNA
▁colony
▁visually
minis
orphic
▁diaz
▁unin
▁immune
▁cervix
▁laboratories
▁tumor
▁99
▁cognition
▁molar
▁comparisons
▁accumulation
were
▁immigrants
oplasmic
ypical
ximum
arous
▁depicted
uran
▁deter
generation
siological
hap
▁Pregnancy
▁resection
educ
▁plex
▁dissociated
thrombin
▁intrapartum
eces
▁calves
tophan
▁tubular
▁astrocy
▁carcinogenesis
▁administered
▁transfusion
▁mono
▁endoc
ffinities
▁emotions
sies
▁distin
▁pathophy
▁coagulation
▁diame
osomes
▁worsened
▁Throm
▁spike
▁facilit
▁WHO
▁29
▁elevated
+)-
▁chest
yroid
▁outs
odial
▁chromosome
▁foci
▁preincubation
▁Fifty
growth
▁rIL
▁orthopaedic
scopy
▁biphasic
▁deterior
▁SHR
▁diagnosed
▁appendicitis
opathic
▁lith
hern
▁abor
eled
▁consultations
▁Dop
▁duodenal
▁posttrans
▁safer
arers
▁4.2
ylline
▁Subjec
▁MV
▁derangement
▁Trauma
ylated
▁suppression
▁inev
iatric
▁choline
dine
▁pools
truc
▁(+/-
irradi
▁epithelial
ceived
▁conclusive
▁ration
urse
thle
▁NGF
0.
gain
3),
immune
rocytes
Hb
▁interpersonal
▁hemat
▁atmosp
artum
CRP
▁chor
▁positively
alact
▁striatal
-5
irubin
▁latent
effective
▁perox
▁Removal
▁medulla
▁pH
arate
▁0-1
▁selectively
49
lected
▁interference
▁arachid
▁8-
▁conjugate
IgG
acrylamide
▁prenatal
mutant
rocal
-2,
▁particulate
▁ae
ocytosis
▁ELISA
ogl
▁vibr
▁physician
▁RT
▁parame
obacter
▁thickness
severe
omatic
ducing
urgically
5,000
testinal
▁immunosuppres
▁parenteral
▁disulfide
▁laparotomy
▁responsive
▁.00
trus
▁10
▁continuing
pregn
▁ducts
oclonal
▁Experiment
▁trough
▁monkey
▁corticosterone
▁plantar
▁8
zole
abin
▁PGI
)2
▁tas
takes
jug
▁chromosomes
ceptive
▁mitotic
immunoreactive
rague
ophilic
▁airways
Ka
▁Insulin
▁aneurys
▁0.2
▁bulb
tured
▁vena
mia
▁autosomal
▁chloroquine
icep
opolysaccharide
iological
▁chamb
▁hyperg
▁impair
▁conjugated
▁naloxone
▁provocation
tec
▁synapt
▁NAD
▁predominant
▁osteoporosis
▁0
nucle
▁pronounced
kDa
etus
▁CRP
LDL
▁radioactive
thma
clamp
▁cytometry
▁dexamethasone
▁23
ctomy
centr
▁-0.5
▁ATPase
▁modality
▁distal
▁intramuscular
▁dialysis
ascular
▁nephropathy
▁uter
▁hydroxylase
▁transcrip
▁2-3
▁favourable
▁adequ
▁radicals
▁exten
▁physiotherapy
pendent
▁influenza
▁phosphatid
▁phenotypes
▁cranial
-17
▁hybridization
▁tendency
▁plexus
▁adoles
oretical
trast
▁mening
enic
▁ions
ofluores
▁aor
tif
▁(4)
itures
▁rese
▁thems
resistant
▁postnatal
▁forsk
ocardial
▁heterogeneity
itro
tub
▁basement
aired
▁debr
▁moiety
▁thi
liters
▁classified
▁11
comitant
▁advised
-24
▁relevance
odies
▁pathways
▁amplification
▁inhal
-50
▁unid
▁Certain
onuclear
▁tubule
HF
ropriately
▁chromatography
▁hemodialysis
▁Cells
▁disulf
▁tonic
▁shunt
rae
▁muscle
▁polymorphism
▁peripheral
▁lysis
▁sodium
▁astrocytes
▁precursors
▁autopsy
▁12
seud
▁cate
ycin
▁chond
adiol
▁pathologic
67
▁callus
ventricular
▁10(-4)
▁vasoactive
▁TPA
▁leukemia
▁injur
ANP
▁1990
▁subjective
BW
odynam
▁staining
▁saturable
entists
▁specificity
cine
thre
▁actively
▁Sout
4.
▁endpoints
toc
ocarcin
HG
▁selective
▁Hep
▁trigg
▁6.8
habil
riamycin
▁cytoch
▁adjunct
▁sinus
odipine
oplast
▁selec
accharides
▁meals
uctose
heric
tenance
▁dendri
▁microtubule
glutinin
▁cyclospor
▁parental
▁distinguishing
▁ile
▁inoc
▁Vac
GF
tiv
Tn
▁prostate
ophren
65
HCO
orbol
iron
▁clonidine
▁Clinical
1).
tinguishable
▁coel
omycin
▁statistically
▁77
erum
IGF
.8
▁regis
▁cloning
▁Physicians
▁LC
▁connective
▁synthesized
ymptomatic
▁pathway
▁ongoing
▁paralleled
▁coag
oceptor
ognitive
▁transcription
▁immunosorbent
▁inactivated
.1%
+.
7.
igravid
▁puber
▁dendrites
titial
▁gland
▁phospholip
▁placent
▁tumour
bacter
▁poorer
▁ech
▁Lym
▁graft
▁inability
▁oesophagitis
▁strain
▁lactate
▁biopsies
▁annulus
▁schizophren
▁IBS
▁spati
armac
-11
molec
chers
▁capsule
vant
▁prostates
tribution
▁forearm
osides
▁OA
▁genetic
nitro
▁illus
piratory
▁uterine
▁leukotri
▁arti
▁sphinc
▁hypothalamic
▁ovariectomized
▁tailored
.5
otactic
▁GM
ancre
riched
▁allogeneic
phosphonate
rophic
▁intact
▁Intravenous
▁attributable
▁47
▁poses
▁fluoroquin
▁initiation
tration
▁prostaglandins
▁axillary
▁heavi
▁Significant
▁PET
▁correspon
▁MAb
▁hypertrophy
phthal
ometrial
▁stimul
▁GH
▁femoral
▁gyn
▁soluble
▁neoplas
illar
erents
erence
▁Muc
▁fmol
▁visc
▁targe
odgkin
▁produc
▁mum
adrenoceptors
urine
▁92
▁granular
inatal
onate
▁isoelectric
limiting
▁(10(
▁arachidonic
▁prednisone
olol
tence
▁recordings
▁deposits
Gal
esium
▁weekly
▁deciding
ervative
▁-3
▁oxide
versity
▁PG
▁aging
▁secreted
▁vivo
▁sarcoplasmic
athione
▁phosphor
▁leukemic
rocy
▁plasmid
▁osteoporotic
ocul
odiaz
▁5.
icients
ropo
opressin
▁Elderly
▁exce
▁catab
acyclin
▁lipoproteins
▁myosin
regn
▁muscul
▁migraine
▁reposition
▁Radi
▁chemically
▁subtype
▁junctions
bly
phasis
▁20%
icient
▁Tumour
acer
▁extracts
▁0.01).
siology
▁amn
itary
▁precipitation
tructural
lycer
▁locus
▁psychotic
▁NH
tively
udin
ulum
LISA
▁1/
▁synovial
▁determinant
▁PAN
olytic
▁7.5
▁Sprague
lowering
▁confound
5-
ondr
vated
ensi
gm
.2%)
▁abundance
MH
▁intervertebral
▁aspiration
roprusside
▁prospective
▁oste
▁reconstituted
▁yiel
tryptamine
▁prolif
▁refractory
▁25
▁acetabular
▁paradigm
either
▁mucosal
▁captopril
▁vein
▁rhe
▁isch
ophils
aneously
stolic
erin
▁EMS
▁Neurop
▁aimed
iper
clerosis
ymptom
▁lobe
▁specificities
ectomized
▁depression
▁disparity
▁incorporation
▁0.000
▁pathology
▁bonds
▁structural
ospitals
erating
0-
▁epidermis
iminary
chondral
▁ureth
▁correlations
▁discordant
▁substances
▁stain
▁diagnostic
▁researchers
▁advances
▁prospectively
▁hepatocytes
▁bacterial
▁nervous
▁digestion
▁frozen
vasive
chicine
▁adminis
▁dosage
▁lowered
▁spermatozo
kinson
patients
▁affects
esides
geons
eminal
▁organisms
admium
▁hypers
erican
tically
xone
▁cathe
▁epithelium
tivities
▁hyperfiltration
titution
▁persis
▁predictors
▁blocker
▁sympathetic
▁CsA
▁Afric
kelet
▁induces
▁questionnai
▁genotypes
▁examiners
▁coated
▁UV
aemic
11
▁centr
ffeine
undibular
▁calcium
▁RF
▁(200
▁xen
▁KCl
▁conceptual
▁epit
▁exons
▁DS
▁withdrawn
menopausal
riton
▁microscope
▁acquisition
enzymatic
▁underlie
▁presumably
▁MAP
▁prox
▁illicit
▁monocytes
▁colorectal
▁CSF
▁incub
▁4.7
▁NT
▁validity
titis
▁acyclovir
Lys
icated
ffinity
▁implantation
▁solely
nitine
▁Findings
▁10,
plasia
▁standardized
▁salts
hering
PTH
▁healthy
sorb
125
obl
▁substitu
carinic
▁excessive
▁impaired
ropyl
responder
▁MHC
▁10(-5)
▁immuno
▁bleeding
▁degen
▁soybean
▁infected
lycemic
▁beha
▁ingestion
unctions
▁250
▁prognosis
ffs
ailing
▁reagents
▁32%
▁treadmill
▁undergone
▁contractions
▁postoperative
15
▁alkaline
▁scanning
▁Improvement
DH
coated
▁nutr
▁hydrogen
▁suspected
▁CK
▁ventricular
siveness
ginine
▁28
1-
arcoma
▁Mothers
aminidase
▁Larger
erance
▁precur
▁tolerance
osom
ithms
▁adequately
▁noncom
esic
▁systematically
▁abilities
▁repetitive
▁relied
20
▁14,
▁psychiatric
▁adrenoceptor
▁amplified
gents
▁ultras
▁heavier
▁lep
oplasty
deoxy
eptid
▁severity
ogenicity
umerous
DNA
▁neutrophils
▁crude
▁detach
▁concentrations
▁attentional
oskeletal
▁LT
graphy
▁envelope
▁pyl
▁HR
▁mucos
▁venti
▁synaptic
▁genomic
▁Weight
ovir
eal
yzed
yrox
▁affinities
▁qualit
▁calcification
▁0.01),
▁thym
▁palp
▁overlaps
▁uncomplicated
▁tear
▁deletion
▁cited
altered
▁resting
.4%
achol
▁clones
▁streptococcal
reactivity
▁allogra
▁demands
▁ascites
▁sampl
▁analges
▁ald
ogenetic
▁gait
▁glycaemic
amphen
▁irritation
▁catechol
umulative
macrophage
ocytes
▁reasonably
▁differs
▁omega
▁hypotension
▁Pt
▁subcutaneously
▁accurately
arly
▁Tran
▁Greater
uminal
amethasone
▁linkage
▁reabsorption
▁cessation
romycin
hemical
EA
tracted
▁HM
▁attitu
▁aqueous
-7)
idespread
▁proton
▁intracellular
crimin
▁Tn
0%
▁adi
▁chec
▁axonal
▁calcified
▁homologous
▁ocular
ucleation
▁35
thel
▁RNase
olon
ulose
anding
▁polymer
▁onset
▁radioactivity
▁excision
▁1-
tition
amel
▁ovarian
▁HLA
▁infil
▁hydrophob
acerb
▁Preoperative
epam
▁uniformity
▁AGA
otomy
thmic
dition
glutination
olec
50,
00
▁disturbances
▁weakly
▁specialty
▁cation
▁ionic
▁Twelve
▁herpes
ophag
17
▁Increased
rophob
▁BW
▁-1
▁blots
uppression
▁intraoperative
▁rash
▁Previous
▁exclusively
▁phage
▁underg
▁diffic
ropathy
▁laboratory
▁analogue
▁Cycl
methionine
▁lumen
▁tert
imental
FU
▁eosinophilic
▁uro
▁1.7
▁differed
▁suspicious
noise
▁steroids
keto
▁discer
retro
occus
otin
IFN
▁3.2
▁Measure
▁Intr
▁sulfonylurea
▁epithel
rological
▁microscop
joy
▁cysteine
▁isolation
▁tris
▁actin
▁PT
oping
▁antagonism
▁analys
▁antagonists
prol
oice
▁susceptibility
orpor
▁chicken
6).
▁2.4
▁differe
lusion
▁intrac
▁lipase
▁maturation
micro
ostic
▁scin
▁unexplained
▁capped
▁erythrocy
▁trials
▁0.001).
▁Initi
SSA
arcin
▁lethal
▁cardiac
▁managing
▁degradation
▁diarrhea
▁GI
▁cerebrovascular
▁GnRH
ticular
▁spectroscopy
▁identically
▁cisplatin
6,
▁proteolysis
▁evaluations
▁phospholipids
stimulating
▁transplanted
▁RI
▁cortisol
▁100%
▁preferential
▁sulfhydryl
▁kinetic
▁ultr
evaluation
▁irrit
tially
sequent
▁attained
▁PMN
▁neuron
ceptual
kinje
Hu
▁45
▁proteases
▁refrac
▁synov
ectomies
▁phospholipase
allik
▁homozygous
onit
iesis
ylate
ibi
▁43
▁pharmacokine
▁epidemiological
▁underst
▁lithium
tabol
▁0.9
▁5.6
▁smoking
▁augmented
vate
▁initiating
rosis
▁plasminogen
▁suprap
▁Rats
illaries
▁mU
▁absorbed
▁shig
▁collagenase
▁chel
▁indus
▁histopathology
▁microscopy
▁influences
▁relapse
mega
▁7%
▁consistently
geneic
▁transrectal
Ps
itic
-67
functional
1%
▁colonization
vian
▁hepatocellular
(1
embrane
▁splicing
olone
▁Tren
▁indicators
Au
▁veins
▁cG
▁cros
tidine
▁phenobarbital
oscopy
rectal
▁fatality
GI
▁cholera
economic
apanese
otri
▁inequ
▁facilitated
▁stillbirth
ampl
uded
▁reductions
▁concentrate
▁overlapping
nRH
olgi
▁antimic
▁eyelid
▁determination
▁PV
amus
▁hyperpolar
▁sustained
▁deposition
sectional
angl
▁moderately
▁morbid
▁0.
elvic
▁lam
▁yielded
hydr
▁elic
▁progest
▁nec
phyl
38
▁gluten
▁ACL
▁divertic
▁abundant
-450
▁phenomenon
▁synapses
▁discus
▁tol
thase
▁placenta
ensit
sive
bred
fts
▁rati
▁decisive
▁Cardi
echn
▁cytoplasm
KA
▁cholinergic
▁oligonucle
sions
▁therapist
▁motif
▁30
ifferen
NAP
▁investigated
▁accel
oscop
▁steroidal
quid
Ns
▁modestly
AH
athe
seven
geal
▁diabet
uccess
▁conditioned
▁molecular
▁pter
3-
▁ana
bac
▁lithotripsy
▁viability
▁85%
▁unilateral
vaginal
urys
▁outward
versus
▁exerted
▁heterogene
▁exceeded
▁81
ellum
nowled
▁infect
▁fibrillation
▁OC
▁hipp
▁pene
▁placement
0)
▁lis
▁10(
▁duodenum
tact
▁alve
▁unres
oids
chond
▁acco
phadex
▁radiol
▁inhalation
▁arteries
▁schem
dimer
rogenase
▁inhibited
▁glucose
▁angiotensin
▁ket
itus
▁diagnose
▁(1.0
▁membrane
▁intermediates
▁Mn
▁extensively
▁aldosterone
ositive
▁DL
2.
▁inters
▁10-
2).
ardless
▁hospitalized
▁translocation
▁cadmium
▁altering
▁aberr
▁ASA
ortal
tic
▁physiologic
▁timely
▁transloc
▁continence
ographically
▁athletes
8-
▁adults
▁cohorts
EGF
▁screening
50
morph
▁methyl
▁ascertained
▁catalytic
trex
agic
▁indirectly
▁detachment
▁disorder
▁uneventful
▁lesion
▁screened
ervice
▁lymph
eptin
aptic
othel
ostal
yses
▁93
▁considerably
tens
adenosine
▁nerves
▁ranging
▁Glu
erts
▁immunisation
erable
anish
ograp
▁pati
▁reproducible
▁analysed
▁enrol
▁survivors
ileptic
▁stabilization
lyc
▁monoclonal
▁varic
tig
▁practitioners
▁instability
ceptions
▁4.4
▁satur
▁31
ifol
▁epinephrine
▁releasing
▁prosthe
-12
▁natri
▁catecholamine
▁stret
▁wors
▁adhering
▁desm
▁preceded
▁discharge
infected
▁VE
▁15
▁attrib
estive
▁NSC
▁myeloma
▁pregnant
lobulin
xia
▁isop
▁subgroups
▁financ
▁promising
▁kinase
▁shortening
▁athe
▁carb
igel
▁Subjects
▁focusing
▁Compared
▁sedimentation
phorbol
unts
▁denervation
receptor
▁FDG
▁lymphomas
▁TBI
▁twitch
ymme
thanol
-6-
▁reduc
▁exercised
▁nursing
▁analogs
▁fluids
▁lysozyme
▁pharmacy
▁encodes
iatic
▁dele
▁Atropine
▁complaints
▁coexist
▁microtub
▁questionnaire
▁phy
mg
prepared
▁hap
affinity
▁caudate
ineph
activating
▁65%
▁24
▁HB
(2)
sor
▁carcinogens
▁malignancies
chloro
▁7-
▁modif
▁eliciting
▁adduct
unar
▁accessory
▁reimplantation
urally
BM
▁slic
tened
fluoro
▁adenylate
▁nM
▁disparities
▁Chest
▁allograft
▁thalamus
▁(6
anking
▁symp
▁spontaneously
▁preoperative
LV
ohy
45
▁cGMP
▁cereb
ohyd
▁aiming
▁BA
▁contral
gulation
▁Educ
▁indefinitely
▁resusc
elong
▁balloon
gely
ellosis
entical
▁competi
atible
trating
tum
odg
▁6-
▁leucine
▁demonstrating
▁familial
33
opes
amuscular
▁sensorineural
teroids
roxim
▁superoxide
▁proteolytic
▁protocols
▁Dopamine
IU
His
▁testes
▁impacts
▁sialic
▁overl
wes
razosin
itally
▁Cytoplasmic
▁NP
tin
clin
▁cyst
▁bipolar
clonal
▁comparable
▁habits
▁Surgical
▁(100
▁malignancy
▁PB
dotoxin
aterally
▁gastro
▁hernia
▁fron
▁renal
▁insertion
lox
▁genetically
lact
clerotic
incubation
identical
▁exclusion
▁pancreatic
▁additive
▁murine
▁Histologic
▁overdose
▁inadequ
▁highlights
▁increasingly
▁brainstem
▁melanomas
▁angiography
▁regulated
▁patella
▁oxytocin
responsive
▁ascending
ocular
▁acutely
UV
▁sphincter
-8
▁APC
induc
▁sensitized
erad
imens
utyr
▁recons
▁enamel
▁organelles
associated
▁myocardi
reactive
▁accumulated
macropha
▁immunologic
▁verteb
▁stu
▁subpopulations
▁serum
▁AO
▁barrier
▁contralateral
▁entero
21
omatous
▁histologically
oea
▁HP
▁morb
istrib
▁.0
200
ections
▁bip
vascular
▁retur
▁blast
▁periodontal
▁(5)
▁diet
▁FD
▁decreasing
▁immig
▁multic
▁Golgi
▁corneal
▁utero
-9)
▁quantified
▁manu
▁OSA
▁progn
▁meal
▁centrifugation
▁prevalences
adex
▁Drosophila
▁FT
▁Treatments
Ara
▁raises
▁flanking
ointing
▁gonad
▁disability
terone
oxane
▁Staphyloc
▁intestinal
▁aortic
ixation
▁fever
urin
▁chromat
▁PDGF
▁dramatic
regulated
▁progressive
▁pneumoniae
▁saliv
▁microtubules
▁ANP
sensitive
▁Hear
▁ascertain
▁glycine
▁Alzheimer
orative
mature
▁duplic
▁natriuretic
▁diseases
▁virtually
▁yeast
▁glycosylation
▁expenditures
▁horm
atonin
▁porcine
▁16%
▁Consideration
brom
tonic
▁mandibular
urium
▁immunocyt
sus
▁Salmonella
tory
SAH
▁Medicare
eptide
amination
▁repl
▁hamsters
▁thrombo
▁negligible
-6
▁2
▁causative
▁surveillance
▁TGF
▁microbiological
▁NPC
▁interfere
▁feasibility
ignant
▁preven
▁aerobic
▁vesic
mitted
▁anesthe
▁somatostatin
toid
▁unresectable
mates
trated
▁empirically
▁Older
▁wee
▁embry
BP
▁drops
FV
rals
▁recur
▁physicians
erent
▁concordance
▁bull
▁colloid
ditional
▁mediator
54
tization
mend
deficient
iplin
▁oes
▁HCM
pinephrine
bic
amn
SPECT
entric
subunit
▁jejun
bumin
LU
oventricular
▁moist
▁mothers
▁decades
ocrit
▁antegrade
▁menstr
▁mg
▁donor
umulation
HV
▁elu
▁catheters
▁exhibits
▁tetrodotoxin
▁anastom
isture
▁regurg
traction
yroxine
▁87
romy
▁gradients
▁undetected
▁6.0
▁differentiation
trop
▁thrombosis
▁180
ximide
cad
▁atri
▁septum
SCE
omethacin
iliary
otting
acental
▁inges
▁aureus
▁epi
▁microv
▁genic
▁chori
amous
▁autoantibodies
omedullary
▁leu
NM
ociation
▁abd
▁cephal
▁encouraged
▁marrow
▁compound
ochondr
▁somat
▁laxity
omotor
arrhythmic
▁disparate
operated
tach
relations
▁70
▁beneficial
▁coincidence
▁interf
thal
Kd
chym
ventional
▁limbs
▁Thromb
▁theophylline
▁motoneurons
▁occl
▁retinoic
▁endothelial
jejun
gesterone
otoxin
▁4.1
▁deficient
rosclerosis
▁exo
▁emerg
ially
▁IgM
▁freshly
urgical
▁19%
▁macropha
▁vesicles
▁apolipoprotein
▁tympanic
▁promoting
sis
▁proposes
▁ane
kinase
▁standardi
▁substitutions
osterone
yrate
bodies
▁activating
▁202
▁IgG
illin
▁PE
otone
▁localization
▁scre
▁cys
toxin
▁muc
▁nitroprusside
▁hepar
▁obese
otrypsin
▁tow
▁relaxation
▁triglycerides
▁infectious
▁inflamm
fec
▁enzym
ognition
▁LN
▁discon
glumine
▁IA
5)
▁needle
gmental
▁gaps
▁inhibiting
ullary
tention
enal
▁Paget
ulant
▁HU
peri
▁FEV
icit
irub
▁duoden
utyryl
▁renin
Mu
▁reinfor
75
▁hypog
apeu
allikrein
5),
▁consensus
▁morphologic
▁polymerase
▁hydrophobic
▁neoplasms
▁aspartate
rometry
▁developmental
ithelial
▁DST
itals
▁enl
tors
▁orally
▁55
▁ACE
▁pHi
▁isometric
ulae
▁metabolism
▁construc
▁toxicity
▁correcting
▁physi
-2-
3).
years
▁selen
▁bedside
▁50
thmia
▁interventions
▁implants
muc
▁reag
▁8.
▁rabbits
▁minerals
▁specimen
kines
▁(54
▁TT
reported
▁BMP
▁fragility
▁sev
▁bif
oglobulin
▁1.9
elves
▁alleviate
▁oxy
▁meaningful
▁concurrently
ulph
-2.
orable
▁surfact
▁lesions
reated
▁sedation
▁vagin
▁bromide
galact
▁(40
26
▁TCR
▁hydrochloride
feron
PAP
▁150
▁umb
▁pediatrics
toli
▁fetal
oxygenase
keletal
▁monocyte
▁19-9
▁errone
▁haemodynamic
▁neutroph
▁iodine
▁euk
iotic
▁consol
2-
▁LS
CMV
-5)
brain
▁rotational
▁laminin
▁55%
3.
cellulose
▁brady
▁paraplegia
▁infusions
▁myeloid
▁multicenter
▁uncom
▁magnesium
eric
olved
▁arrhythmias
▁warr
▁biom
▁depar
▁perforations
▁micron
▁ablation
▁glomeruli
knee
▁abdominal
▁glut
quine
arterial
zard
▁keratinocytes
RNA
▁ect
▁IHD
▁electroph
▁enalapril
igenic
▁IFN
▁unrel
▁serotonin
▁carrier
ithi
itoneal
thi
embr
▁abnormal
vents
acking
aning
▁adolescents
▁constitute
▁diameters
▁discern
ulting
-9,
▁forebrain
▁thoracic
tagland
▁nonc
▁spectra
-1).
▁Adverse
▁40%,
▁subc
▁inducer
▁characterize
▁GA
▁elast
5,
tality
▁obstruction
-13
▁alumin
▁cirrhosis
▁evidenced
▁201
oracic
▁TG
drug
▁sensi
tituted
▁comprising
▁Therapeutic
▁bilayer
▁reductase
▁ventilatory
▁hypothe
gans
acil
ploy
▁5-
2+
▁malignant
selec
▁thiol
▁resistant
▁citrate
▁caregivers
imide
▁dysplasia
▁engraftment
▁fluoride
▁elevations
▁cardiovascular
▁hygiene
.8%
▁promin
▁paradig
immuno
▁Meth
ecyl
▁encour
▁Acute
ration
▁hazard
omal
▁propranolol
▁Experiments
ventive
lastoma
semin
opathy
▁transverse
▁undes
▁implantable
trained
ogens
76
▁schizophrenia
frequency
▁37
otypic
▁weaning
▁bac
▁17-
fraction
▁mobility
occi
▁negatively
▁atrial
▁120
▁dB
▁assays
trimental
ifug
▁ml
ACS
ochrome
▁respondents
▁prescribing
▁induce
▁mutagen
▁retention
Ga
▁trophob
Cer
▁irrever
▁adhesions
alanine
▁BD
▁overlying
▁accep
▁excit
▁CRF
▁ambulatory
▁postoperatively
▁cere
▁discontinu
▁reevaluated
hetamine
▁cycloheximide
▁canc
▁CFU
▁MK
▁hepatocyte
▁resis
ionine
oreceptors
ilization
▁relap
▁prevention
mitter
▁immunity
tering
▁linkages
idney
▁detrimental
▁oxidative
▁isolate
▁traumatic
▁dissemin
-18
▁0.07
,000
6-
▁doctors
▁mucosa
▁phospholipid
▁nulliparous
▁19
▁regulation
▁leukocyte
▁activates
▁washed
pharose
uoden
puts
▁neutrophil
▁erroneous
▁elucidate
▁stimulate
▁widening
ucl
duce
▁hemodynamics
▁15%
▁Plas
▁membranes
▁ligand
3+
▁amiloride
pT
▁pneumonia
TSP
▁lungs
▁deficit
▁11%
▁ammonium
mL
▁36
▁thyroxine
polyacrylamide
▁termed
▁Sephadex
▁referrals
ronous
▁Dil
icacy
igible
Tyr
▁stiff
uron
thmatic
actin
▁bacter
▁amput
▁stroma
▁halothane
limb
▁EB
▁implicate
▁haem
▁derange
▁Forty
roximately
uary
▁followup
ocyan
motic
ranial
rein
6%
▁idi
▁sca
tocin
▁gestational
▁antic
▁tymp
▁esophagitis
▁warrant
▁reliably
olute
▁ET
▁cirrh
▁wash
▁sequencing
▁apparatus
2+.
MDA
▁responding
▁divalent
9)
▁sedentary
iciency
▁0.02
▁highl
ocar
▁seizure
▁capillary
▁autoimmune
104
▁cultures
▁poverty
▁0.06
▁hypertensive
spectively
▁horiz
▁abuse
▁capillaries
▁ethanol
onomic
ithiasis
▁asymme
lym
hei
HM
▁triglyceride
▁mixtures
acyl
.7
angi
▁nitrogen
▁ganglia
56
▁cryp
▁assessed
ochle
▁bloc
▁inclined
filtration
erper
▁Incubation
▁contrac
-14
ipar
▁unde
▁drugs
▁2.3
rosemide
VT
especially
▁preservation
▁placental
stem
▁3.0
▁monolayers
▁epid
▁poorest
aid
fentanyl
oactive
orbent
operidol
▁infections
upus
APC
▁intraper
▁presynaptic
▁24-
▁physici
▁sliding
▁challenging
▁novo
▁sti
▁(26
lix
▁LTB
itrate
▁abl
▁Engl
orrhagic
▁metabol
NAc
▁caution
entan
▁stained
▁births
orption
ectasis
cold
BH
mur
▁ank
▁cleavage
▁survived
▁vulnerability
▁sequelae
▁suppres
9-
0%,
▁tuberculosis
▁lens
▁ventil
▁preferable
rolase
23
xate
▁ligament
▁influenz
▁rats
▁lobectomy
renal
▁lumb
reement
▁evid
▁hydrox
tead
▁colonoscopy
▁UTI
▁spi
atched
▁glyc
▁90
bral
osamine
▁fatty
000.
teral
ivered
▁dopamine
irrh
▁gp
▁alcoh
▁metastatic
▁ADP
▁dilution
▁versa
▁myof
▁SDS
▁Recently
▁stimulates
phrine
▁pyruvate
▁failures
▁0.001
▁deemed
▁antagonist
▁metabolic
▁periv
oinositi
▁mammalian
olestero
▁hemis
▁NADPH
7).
▁(28
▁ADH
▁geniculate
▁synthetic
omers
trative
▁tes
mol
▁pren
▁insensitive
▁thymic
aryngeal
entary
▁avoiding
activated
otide
▁interrup
▁synthase
acted
▁availability
▁Eight
▁endometr
oxif
▁sclerosis
uated
ygdal
▁kidneys
▁lacked
7,
▁hyperther
▁hemodynamic
▁nasal
▁assurance
sial
etidine
ADP
▁neoadjuvant
idate
▁cesarean
▁grafting
▁ranged
▁vasoconstric
chloride
▁mutagenesis
▁consecu
▁binds
obarb
▁anastomotic
▁unic
oluble
▁aneurysm
▁transfected
silon
▁avian
▁arthritis
▁SBA
icardi
▁thymidine
▁6%
ressing
▁ANF
xual
▁guan
▁silic
▁dose
▁seiz
ostomy
tine
lysine
earing
▁5
acement
▁polypeptide
▁Hg
▁shortened
▁pars
resting
▁dilated
▁substance
▁NN
phos
amide
CAM
▁lactation
▁drain
▁consultant
▁TS
▁promoter
ocusing
tension
hemo
▁6.
▁Alcohol
mittent
14
tures
vae
mide
▁Delayed
▁0.05
▁descending
▁mitral
▁warrants
wenty
ipine
▁compounds
▁bronchoscopy
serine
▁olfactory
▁autonomic
▁galactose
▁fluores
dihydro
▁develops
▁gels
▁histone
9,
▁heterologous
▁elicit
▁anaesthe
▁discomfort
▁5.0
▁gradi
trol
▁95
▁medicines
▁norepinephrine
▁atmospheric
thyl
▁53
▁antitumor
rever
▁bolus
stim
▁cyto
▁(0.0
▁longitudinal
encephal
▁1989
▁neuropeptide
BV
▁Alz
▁eryth
▁histology
▁kidney
▁emissions
▁encoun
▁effectiveness
▁rearrangement
▁inadequate
iflu
▁allele
himb
▁urinary
sue
1)
▁fractionated
▁26
odop
▁cytosolic
▁anion
▁cigarette
trum
onyl
opath
▁devoid
▁unaffected
▁3.7
▁challen
▁desirable
▁82
▁aorta
▁reactions
inhib
rowth
directed
atinine
97
idation
oretic
▁spor
protein
phasic
▁hypothesized
omonas
▁tryptophan
▁acetyl
▁PCT
▁symptoms
ostat
▁benign
EAE
▁proximal
▁prostatectomy
▁comprehensive
anuary
▁irradi
▁79
yste
▁neurolog
▁uncovered
uric
ameters
▁alcoholic
subs
▁coeliac
▁infarct
▁seas
▁mild
▁14%
LF
▁medullary
▁spermat
rehen
▁inhibin
▁biologically
exis
tomy
▁perinatal
plied
loxacin
▁excluded
▁thigh
▁(10
▁Cys
▁hematocrit
feren
3,
alian
▁lasting
ching
luded
ortic
totic
▁intake
▁biochemistry
▁surveys
BG
hist
▁fluorescent
▁analyses
vail
▁awa
▁mitogenic
▁endoscopic
▁rated
▁Purkinje
jected
▁undertaken
▁receptor
tages
yridine
▁clinical
FGF
labelled
▁activate
▁strepto
ayers
▁splic
▁secretory
▁differentially
tensin
▁5.5
▁endothelin
▁3,
▁contraction
▁preparations
itance
▁nutrition
▁agon
▁impacted
▁HCO
▁preval
iated
sistent
ximal
onatal
ilical
▁RB
peptide
▁GPs
▁thrombolysis
▁ultrason
▁coexistence
▁197
olism
▁intramedullary
injected
▁nerve
▁paraventricular
zyme
▁(13
▁Changes
ogenous
opam
▁MIC
2%)
▁knee
▁metoclopramide
rophenyl
rele
▁GABA
▁deficiencies
▁Pretreatment
▁perip
▁underestimated
oglobin
▁activated
▁perme
▁3.4
▁ey
▁excised
▁Unlike
▁intercostal
▁livers
-3-
DG
monary
▁ageing
tional
▁iod
▁neuronal
▁eluted
0,
▁nosocomial
rants
▁EG
▁compartment
▁targeted
▁estradiol
openia
▁spon
▁adenine
etan
incidence
▁mV
▁lamina
▁calmodulin
▁hepatoma
saturated
▁sour
ygo
▁46
omod
olus
iotics
▁BV
tral
▁eyel
teine
▁mitochondrial
amine
agal
▁creatinine
▁retrospective
▁spind
▁experim
▁bladder
▁dys
▁scaled
▁Recurrence
▁remin
ressed
▁widespread
▁13
▁hydrolysis
▁disorders
oresis
(+)-
▁SG
▁promoters
▁examined
▁lidocaine
idis
▁GCS
▁reciprocal
▁glands
▁phenomena
▁endot
▁responders
▁clus
inergic
▁inhibitor
ifferentiated
▁humoral
▁malle
30
▁commerc
▁subunits
▁tended
asone
▁effector
ficial
▁affinity
▁gallst
▁compe
itant
diabetic
positive
sion
▁rCBF
pS
▁restor
▁[125
tRNA
▁oxidized
▁phorbol
▁morphology
▁synchronous
▁synerg
▁healing
▁molecule
▁pancreas
odil
▁mature
▁implic
▁pmol
▁prostatic
oxic
▁RR
ipramine
veolar
▁Inhibition
leukin
▁insec
▁Differences
▁interne
▁insufficiency
▁endoscop
▁7,
olateral
▁NMR
adherent
6.
▁HBsAg
▁HI
lyl
▁recombinant
ogenesis
▁mL
▁5)
▁pT
▁400
seal
coup
▁packing
▁exhibiting
lesion
▁surfactant
▁opportunities
▁Evid
▁paired
▁mRNAs
▁sial
idne
versal
▁2.5
▁adherence
▁IGF
teric
▁barriers
▁childhood
effectiveness
▁bile
imurium
▁14
otropin
tumor
▁antagonized
▁cytos
▁retard
▁occupational
▁explored
▁biop
8%
uridine
▁harmful
▁potency
▁inoculation
▁reac
▁suggestive
▁utilisation
▁heparinized
mber
▁overe
versely
Rs
▁thrombectomy
▁episodic
▁disagreement
.4
▁salivary
▁monitored
IIIa
olarization
▁acids
vation
hydryl
oxid
atment
▁exis
▁bilateral
▁biologic
▁granulosa
▁normo
95
▁outpatient
▁Stimulation
▁underline
▁15-
▁slices
▁anatomy
▁0.03
IDDM
▁SNP
onor
▁Medicaid
stro
▁ether
ustment
▁EGTA
ordance
▁menopausal
▁scintigraphy
requency
hig
▁cutaneous
fron
▁vasomotor
▁atypical
▁ejection
▁ultim
Tc
▁radiolab
hea
derly
lead
posure
▁Steady
▁circumferen
▁sexes
RP
▁baseline
▁distinctly
went
▁surgeon
▁Cushing
▁Km
▁labelled
oxia
amycin
▁aromatic
▁MBC
▁10(-9)
nary
▁Treatment
▁adjusted
29
▁insuff
▁introduces
tect
▁accounted
▁200
▁wk
▁preferably
▁saline
▁pregnancy
▁-0.
▁spinal
▁unlabeled
▁neurop
▁hemo
fos
FG
▁ips
▁investigating
▁supplementation
olecular
imentin
▁defective
partate
▁causal
operatively
▁84
neumon
trib
▁attenu
▁5'
tinu
▁sugges
opsy
estim
▁drin
ureus
▁mammary
▁Exposure
▁gastrin
kephalin
▁responsiveness
▁motility
▁stimulation
glutamate
terologous
▁pelvic
▁congen
▁infiltrative
▁fecal
gesia
ynaptic
▁ouabain
▁80
▁structurally
epti
▁coli
▁labeling
aric
▁groin
osin
▁spectroscop
▁vege
▁83
▁phosphorylated
▁describ
▁mineral
▁anxiety
▁ester
▁ACTH
▁ancestor
▁guanosine
Leu
arity
▁intram
otropic
▁(19
▁AII
resid
lys
▁tach
▁0.4
amet
tate
▁labeled
▁HeLa
rapid
ministration
▁inspiratory
▁thal
▁optimum
▁deserves
rected
▁dyn
jun
ses
▁triv
2/
▁retic
▁inversely
▁polyethylene
oneph
▁isomer
▁contamin
▁(18
uvate
ococcal
▁0.1
▁epitopes
roglobulin
ichia
▁ultrasound
▁subcutaneous
▁ammonia
▁inspection
▁cDNA
▁monol
anavalin
▁MT
▁seb
▁abolished
-1)
32
▁97
teroid
▁20,
▁hippocamp
▁corticos
▁elution
iferative
trip
usive
faction
osity
▁hams
▁turnover
▁1.1
▁phagocytic
▁restenosis
▁implicated
CCT
ecre
Mg
▁globulin
onstric
▁12-
▁pacing
▁adipose
▁irrespective
▁cigarettes
ropine
▁inappropriate
idase
▁insult
▁dysfunction
itr
ufficient
▁infec
parative
▁chole
▁reversed
▁aden
▁pregnancies
19
▁autoradi
ojejun
-(1
yrid
▁Elec
▁electr
clinical
inely
▁Thir
▁Randomized
afe
trac
▁affecting
▁endoscopy
AIDS
▁crystals
▁testis
intestinal
▁diltiazem
▁Leu
▁polys
▁plaque
▁umbilical
▁1985
▁positioning
erations
inositol
▁pulses
▁glial
▁irreversible
▁89
orac
▁symptom
▁enlarged
acetate
▁corresponded
anthine
▁thymus
▁SCH
rospinal
▁Vmax
▁Magnetic
tus
]-
pig
ethylene
▁1.
▁pelvis
▁adenocarcinoma
▁successive
▁tuber
▁9-
zymes
glycer
▁socioeconomic
▁advancement
▁chlor
▁SLE
abain
9%
▁0.005).
▁evoked
▁hypothalamus
▁pulmonary
▁Chemical
▁serotype
▁ulcer
▁depleted
oprol
▁pM
▁labelling
▁pylorus
▁48
▁pharmac
▁pK
▁retin
▁unselected
physiological
tally
ACh
▁cyclosporine
▁dentists
lytic
2;
▁peptic
▁efficacy
▁(3
onary
▁speculated
▁stromal
▁autologous
ynthe
ydig
▁afferent
▁10.
mental
▁estrogen
▁immunofluores
▁dihydro
formations
erine
▁downstream
consuming
▁duct
othermic
▁remo
▁LH
▁dors
▁depressed
stages
▁tubes
▁illustrates
usions
▁phenotype
▁ventric
▁tubercul
▁lavage
▁leuk
▁NF
▁61
opha
tolerated
▁thyroidectomy
▁epididym
ochemically
▁coronal
inic
ipid
ysm
▁unprotected
▁ferritin
▁endarterectomy
▁transgenic
▁recessive
▁practition
▁Kd
opulmonary
▁lymphocytes
▁Biochemical
▁delivering
▁caud
monella
▁menstrual
▁advan
▁cholesterol
ayed
▁labial
▁gangl
▁ultrasonography
▁monkeys
platin
▁32
gnetic
▁Roux
-25
▁cyclic
urther
▁MI
.2
rologic
▁pulp
▁bradykinin
deple
▁suppor
▁superv
▁neurologic
▁PP
▁endocrine
▁succinate
oA
▁vesicle
▁ICM
▁carc
ylation
▁inh
▁tooth
▁exon
.6%
▁inflammatory
urred
coh
▁TP
▁HS
ogenes
ococcus
▁Scatchard
endot
▁tissues
otrexate
▁hybrid
4).
▁limb
▁HBV
▁intrav
▁neon
▁sten
SCC
othane
legia
▁sero
▁residues
▁euth
▁VC
▁13%
53
olum
▁vaginal
encl
▁complexes
▁BM
opic
2%
amic
hyp
▁Denmark
▁polymorph
tive
turally
retin
▁52
▁palsy
nI
▁chromatographic
inactivation
▁indis
apeutic
▁dissociation
▁syndromes
▁reveals
▁granules
▁inotropic
Ta
iosis
▁uptake
▁cloned
ective
▁infarction
▁numb
LN
▁systematic
hered
▁torsion
▁THA
gments
▁carotid
▁perceptions
▁69
imination
urea
▁incubation
▁quantitative
estern
▁LVH
▁Comparisons
▁crest
▁hemoglobin
conjug
▁perc
tation
NH
▁withdrawal
▁caffeine
▁regen
▁arter
Ts
.9%
.2%).
▁deletions
rophilic
▁preparation
ofl
▁diastolic
▁86
leucine
▁4.6
▁enrolled
▁96
▁2.9
88
▁diarr
-3,
▁deem
▁detergent
▁secrete
▁amygdal
▁41
▁PEEP
▁cancellous
▁(-)-
kD
▁plasma
▁(17
▁surgically
tioned
oplas
▁endoplasmic
▁hCG
▁laser
▁killer
gement
▁encounters
moid
▁unco
▁infants
▁findings
othelial
▁unre
oxin
▁validated
▁bypass
▁anemia
▁saturated
oate
▁disappearance
thymidine
▁specialist
lateral
accharide
▁20
▁deple
▁pups
▁carriers
▁Clin
▁leisure
isol
-32
▁calcitonin
-2
loidy
sively
oblasts
apamil
helial
▁insertions
acetylcysteine
▁focal
▁subpop
HIV
▁macrophages
onucle
▁histopath
▁microsomal
▁assis
ceptibility
▁muscarinic
▁preferences
▁ineffective
▁expend
▁pep
▁ECG
8.
▁oocytes
▁tidal
▁cytokine
cAMP
▁consequent
▁polyc
-1.
▁maternal
mortality
▁isot
tance
▁VT
nthe
▁arth
ositol
▁indeterminate
▁elderly
▁injuries
scherichia
▁catalase
▁hypot
▁idiopathic
▁stimulated
▁compliance
▁cerevisiae
▁immobil
entral
cepti
ocom
80
plemented
▁mmHg
▁78
▁admission
▁transplants
▁hepat
▁coronary
▁(0.
▁possi
36
▁lysosomes
▁oligo
▁disper
▁LV
ulcer
otyp
▁tet
▁contractile
8,
saccharide
controlled
▁copper
▁embryonic
▁counseling
iary
icidal
▁emergency
atisfaction
derived
▁alp
▁anat
▁ketamine
▁rhythm
▁ratios
ocellular
ranged
immunization
▁experi
RB
oung
avail
namic
▁disappointing
▁suspic
▁repeats
ocial
▁localized
psin
oag
Fs
opi
▁defic
▁excreted
▁mediating
ostatic
▁Samples
▁pathological
hop
▁intraperitoneal
enon
arose
▁cytosol
▁esophag
KI
▁analyzed
ogeneic
▁fractionation
▁septal
▁epitope
▁Effec
▁carbohydrate
▁doxorubicin
▁predomin
▁cava
▁38
cyt
tized
▁2.2
▁striatum
LB
▁ruptured
occal
▁multim
▁cerebellar
▁epidemi
▁carcinoma
▁nonoperative
mong
▁apical
▁lipids
-4
▁dye
ostatin
phot
▁ole
▁superficial
pread
▁ART
▁0.05).
▁AI
▁oocyte
uresis
anin
▁viscer
84
plas
▁enteral
▁potentials
april
aminop
▁lute
▁socio
▁glomer
ologous
▁hypertension
▁transpor
▁pedigree
▁variability
▁counteract
▁Large
▁residue
▁gastric
▁cerebrospinal
▁inactive
▁homogen
▁immunobl
▁asymptomatic
▁reticular
▁thickening
▁intense
▁resected
▁providers
▁paralle
ormone
▁disturbance
opoietic
▁antiserum
exposed
▁irradiated
rangements
isqu
▁nucleotides
▁disruption
▁atresia
▁persisted
▁moles
▁amputation
▁proliferating
▁thrombocyt
restricted
▁circumferential
oglyc
imetidine
▁NADH
appropriate
▁virtu
resist
▁rheum
▁tumors
▁31-
▁micromet
▁(20
diastolic
▁3.9
▁minimally
ocamp
▁8%
▁Contr
hyde
▁poin
▁Fc
▁68
▁proliferative
AO
lymph
▁0.01)
▁dib
eliac
henyl
▁platelets
▁arginine
▁thyro
▁tertiary
rox
chymal
erate
esthetized
▁intercellular
assi
▁cAMP
Ia
▁85
▁collateral
▁encephal
▁Prospective
ressive
▁pineal
▁exacerb
▁tube
shaped
▁0.02).
▁hemorrh
▁brains
▁secretion
▁amines
sych
stranded
▁nicotine
▁cytokines
▁evacuation
▁neurom
azole
▁enhances
atase
gene
osyl
dipine
▁(0.1
▁tibial
tradiol
▁kcal
▁retrograde
▁triti
▁antiv
▁enzymatic
urement
▁0.05),
▁chick
▁elicited
▁techniqu
dered
▁regulate
ipitation
▁21
▁CHO
▁endemic
▁tachycardia
orotic
▁unsuccessful
utroph
▁unemploy
ication
▁nucleus
organic
▁facilitate
▁fluor
▁regimen
▁modest
uble
▁priming
▁CNS
▁destro
▁aspec
xiety
▁cardi
▁substantia
▁catecholamines
▁metastas
inated
▁antigen
▁0.25
ffer
olysis
▁filament
phosphatid
sts
titu
ducts
▁acqui
▁diagnoses
okine
▁hig
▁VO
tussis
▁pyr
450
▁expertise
▁60
taken
▁tumours
detected
fused
arginine
assay
▁neoplasm
▁GVHD
▁intest
▁1,
ineural
dents
ivation
ustained
▁1:
▁melan
▁mitochondria
▁fixation
▁4
▁achie
▁1)
atchard
▁laparo
▁precursor
▁OT
▁palpation
Ev
▁Ia
▁transient
▁[35
▁spindle
▁immunoblotting
ologically
MG
▁metast
▁membran
▁Tes
▁homogenates
anad
roup
▁neuropathy
enicillin
▁routinely
▁communications
▁mesen
▁varies
▁inhib
adrenergic
activation
▁calf
▁reactivation
tyl
▁deliveries
▁cytotox
▁genome
opausal
▁granulocyte
spective
otherapy
▁obesity
▁typh
ensory
▁unchanged
PB
▁TF
▁tyrosine
rates
▁homoz
▁predis
▁pacemak
natal
▁PTCA
▁examination
ervations
overed
linked
▁1000
azol
atient
ycl
▁pyram
▁surviving
▁utilization
▁Kup
▁diabetic
▁tetr
▁degraded
▁10%
▁MG
epit
▁predic
olip
alveolar
▁contamination
▁biopsy
▁readings
▁microb
rans
69
▁follicular
▁effec
▁practically
tox
▁seropositivity
▁indomethacin
bilities
arbonate
▁circulation
▁tamoxifen
▁PAS
opram
protective
tative
mig
▁HN
▁parotid
ygous
rof
▁terminals
▁splen
▁unevent
▁Sequ
sia
▁circulatory
▁oxygenation
▁cerevis
oderm
▁transcribed
▁heating
▁Ultrasound
▁sciatic
▁analgesia
herent
ulfonyl
▁apex
pite
oprec
ubicin
reed
▁excre
epithelial
▁intrag
▁kb
/3
oyl
▁chromosomal
rk
▁Continued
▁interstitial
electro
▁trophoblastic
emory
▁biases
▁compressed
▁mann
cale
▁enzyme
▁AH
▁Vitamin
▁behavioural
▁circadian
entia
LH
gastric
▁congenitally
uppres
▁regurgitation
▁antisera
▁endarte
▁thromb
lue
.3%)
▁atheros
uterine
▁randomized
▁ulcers
ionate
sulf
▁rigidity
▁gestation
▁potentiation
▁intestine
▁caro
transfer
▁basolateral
MV
▁adip
▁solvent
▁confined
▁complications
100
ubtedly
▁inapp
▁circumference
▁cortic
▁Accordingly
▁excretion
itoneum
▁IVF
ifedipine
▁HDL
ylase
uginosa
▁MAbs
▁predicting
▁Improved
▁ascer
40
linking
lasses
▁prolongation
▁preliminary
▁angi
▁obstructive
▁RAR
tric
orax
▁therapies
containing
▁peritoneal
4,
▁alleles
iably
urethral
▁effusion
▁homogeneous
▁stomach
▁balanced
▁recurrence
▁offspring
▁concer
▁chemotactic
▁yr
▁adenocarcin
▁parag
▁identifies
▁lamb
Cs
▁anomalies
olones
▁debridement
▁deprivation
▁supplemented
▁prono
▁nonadherent
▁ramus
ussion
otre
▁600
▁erythrocyte
▁arterial
tib
▁mononuclear
▁LD
CoA
erals
▁4.8
▁survival
terase
▁subjec
▁solub
ields
▁uninjured
▁segmental
estis
ercul
▁chronic
asal
sized
▁CM
▁restoration
▁meth
▁concep
▁cotrans
▁conducting
▁0.0001).
▁000
9%)
▁lacking
▁elastase
▁astro
▁Doppler
▁absorb
-15
▁OCD
2)
▁suspicion
edle
▁anomal
▁anaerobic
▁tubules
▁hypoxic
▁evolving
enteric
▁messen
+-
▁phosphatase
trition
▁(11
▁cocaine
ospor
▁physically
▁influx
▁Staphylococcus
▁discussions
▁morphologically
▁septic
roscop
▁cytochrome
▁FH
▁adrenal
▁pretreatment
▁lectin
▁enlargement
▁pulmon
▁naltrexone
▁enal
phosphamide
pies
dividual
▁isoforms
▁radiography
FN
▁stere
▁thromboxane
▁lymphadenectomy
itone
aventricular
▁(2)
▁conditioning
▁hospitalization
▁reveal
▁diluted
▁radiological
▁simultaneous
▁(21
▁ortho
omes
▁probe
▁artery
▁peroneal
ithin
▁PAI
anav
otroph
▁dyst
▁ammon
▁intrauterine
lood
▁recombin
-3
▁macrom
RF
▁SB
anic
asive
0%)
▁54
▁2-
respective
hydro
▁embryo
▁leukotriene
▁pyro
▁APD
forcement
ophys
atation
phosphate
3%
▁cef
▁retina
▁mutants
▁venous
▁advisable
▁tracer
▁pharmacists
▁paren
idity
▁inevitable
▁reflecting
▁parietal
heal
echan
phila
▁improving
▁gynecological
itol
▁(30
ococci
ongest
untary
▁instr
▁microsomes
▁peroxidation
▁patches
▁consumed
▁outcomes
▁kDa
▁epidemic
7-
▁moderate
-16
▁tau
andard
▁160
greater
guided
▁proteinuria
▁TNF
arer
receptors
▁stab
uccessful
asic
ifferenti
stress
▁63
glucose
▁malign
▁putative
▁histological
mixed
▁undiagnosed
rC
aryotic
▁EBV
▁adherent
tice
▁tric
ivary
density
▁fibrosis
▁spikes
▁slowed
▁PRL
hort
brids
▁augmentation
▁indicative
ulmonary
▁clamp
▁dissec
idated
sul
▁manipulations
▁recor
▁Wistar
▁AMP
▁quantitatively
▁dissection
▁bic
.5%)
▁adenomas
▁Estrogen
obarbital
ifugation
▁hepatitis
57
tility
▁oss
▁amplitudes
▁BMI
▁isolates
▁hydroxy
risk
▁4.
▁belie
▁employing
▁predictor
▁preclude
ustif
▁inflammation
▁bowel
▁AVP
▁alveolar
▁atria
▁Chronic
▁conservative
▁ischemic
ternational
graft
albumin
▁testosterone
▁progenitor
▁favorable
▁deformities
▁shar
incip
okinetics
▁connec
▁acad
▁reproductive
▁Sixty
oves
oside
▁islet
▁noc
erative
▁EDTA
▁erythroid
omerular
▁biliary
-[
▁excitation
TPA
▁sequenced
▁ruptures
▁unrelated
▁Respon
▁rup
▁immunomod
▁lob
trous
▁induc
tries
▁femur
▁stimulus
▁HTLV
eclampsia
▁rupture
▁GTP
▁1980
▁(1)
▁sequel
▁56
▁dehyd
▁cats
ditions
▁guidelines
aryn
▁sucrose
▁Meas
▁encouraging
▁profound
▁RBC
urc
rolog
▁elastic
▁syngeneic
ovine
▁GFR
▁OKT
▁tympan
▁gad
releasing
▁antibody
flammatory
matched
▁aeros
▁diabetics
ystolic
ications
▁establ
▁plasmids
-19
▁rheumatoid
ylamide
▁toge
electric
▁adren
▁abnormalities
▁buc
▁vaccines
▁adjuvant
tur
trical
▁fluc
▁enti
5%)
GTP
▁normotensive
▁geriatric
ondral
relevant
phosphon
ochemical
lep
▁achievement
luc
riend
▁alkal
▁Tests
ocortic
▁complaining
roprus
flamm
opia
▁isoprenaline
▁juvenile
sAg
viral
▁acin
endan
tisol
/1
licular
▁asthmatic
▁contaminated
hepatic
ials
▁dorsal
▁saliva
farct
37
▁suppressed
▁cortical
▁prostagland
astatic
▁spleen
xide
▁hemisphere
▁carboxyl
▁spermatozoa
▁protoc
▁microcirc
▁neurons
tics
etween
ocaine
▁PEG
▁11,
tivity
divid
▁antec
EO
▁oral
▁arom
▁postulated
▁fetuses
▁guanine
.7%
methyl
▁diffuse
▁metabolite
▁transcript
▁forskolin
▁3'-
▁21-
▁Whereas
▁steroid
▁arrhy
▁soy
▁feasible
-4)
loon
60
▁dosing
▁comprised
▁irr
ronchial
▁palli
▁infar
idym
▁predictive
▁gynec
▁measuring
▁conformation
ught
ivariate
▁morphine
ritish
▁adhere
▁neoplastic
▁recurrent
▁utilizing
tected
▁1987
▁fluctu
4),
anis
vul
000
▁neutrophilic
▁merit
Nase
abies
ocyt
▁unex
ensity
▁replication
3%)
▁thymocytes
▁IBD
▁difficul
▁gains
▁unm
itin
▁detecting
atab
▁discontinued
▁GBS
▁wheat
▁105
sors
osynthe
▁fibres
▁spine
PAGE
▁hypothal
▁0.00
▁deformity
anol
▁volunteers
▁nitro
6)
▁contractility
▁MN
▁supra
istal
▁bacteri
▁hypertro
▁technically
edullary
12.
ocys
▁enzymes
injection
ochemistry
pyr
chol
phrag
▁3.3
▁arising
plic
▁Leydig
astolic
trates
.1
enopus
▁CAM
-200
▁Routine
▁corrections
▁sulfate
▁ossification
▁viable
▁colonies
▁lax
▁regimens
▁cations
▁mitogen
ostasis
▁Serum
enhanced
▁cellular
▁decarboxylase
bility
▁10(-3)
▁intragastric
▁uncontrolled
otomies
▁gangli
▁microscopic
▁cholest
▁fist
▁57
▁overd
▁chloride
edded
▁exchan
▁feeding
▁demonstrates
otent
▁casein
adily
diabe
ingle
eradish
-0
▁opi
▁antiarrhythmic
▁SUP
▁percentages
▁potassium
▁chemo
▁12,
▁acceptor
formin
iaz
▁(0.5
▁simplex
aemia
acet
▁myel
1-3
3/
▁Thy
▁GSH
▁urine
▁spont
▁fractured
cein
▁constric
▁antagon
▁8,
▁duplex
▁suspensions
▁Tum
▁ileum
aminated
▁concentrated
▁autop
thmias
-6)
immun
neal
▁mutation
18
▁glycerol
TU
elfare
▁199
obal
▁abdomen
▁auditory
▁fragile
▁chl
▁0.005)
odal
▁complic
ipit
▁pneumon
▁dox
▁cytotoxicity
issive
▁presum
itamin
plies
alities
▁adop
1/2
▁genotype
oidal
▁tachyc
▁glucocortic
arean
▁40
▁stimulatory
▁5%
.0
▁therap
▁consequently
tial
ocrine
▁(0
▁undo
(5
▁ETA
▁Patient
atest
▁Calc
▁ALT
tiveness
▁viruses
▁cue
ituitary
▁immunos
roscopic
▁ETS
▁posi
razole
▁proline
▁phagocy
erox
▁Americ
plast
▁ganglion
▁pate
echanical
▁vascul
erebral
▁Additional
▁confron
▁dimer
▁adenoma
▁Lys
▁0,
▁mellitus
TK
emak
▁1.6%
▁transiently
99
▁PBB
▁3)
▁aggres
▁mediation
▁grading
▁mAb
▁substanti
ocomp
ensitization
▁adjustment
▁micros
▁conduc
▁strains
▁ultrastructural
bacco
▁undergo
▁susceptible
Vi
▁atr
fed
inesterase
ervical
▁synap
▁panc
▁[14
▁covalently
▁preventive
▁thromboembolic
▁incubated
ologic
▁precedes
acrine
▁collagen
insulin
▁deterioration
▁VD
▁excitatory
▁inducing
▁depletion
opoly
osocial
▁0.15
▁51
forming
induced
tase
olipoprotein
▁monophosphate
▁inad
▁angioplasty
truction
▁measurable
RD
▁splenectomy
▁synergistic
▁impairment
▁thresholds
evaluated
diagnosed
▁cycling
▁hep
▁conclusions
▁perone
▁1.4
▁prednis
▁surrog
70
▁FS
▁benzodiaz
▁treatments
whe
urons
▁blot
isomer
▁correlated
tle
▁cholecystectomy
19-9
▁allerg
RH
ecal
itonin
▁manifestations
olated
▁nigra
▁frac
▁1,000
▁Inhib
▁smo
alc
glyc
▁perfused
▁proteins
▁segreg
oes
cardi
otoxic
ranolol
▁phi
▁inositol
▁workload
▁neuromuscular
carb
▁chemot
▁0.05)
▁3.
kade
▁plasm
▁nomenclature
▁passive
▁eluc
▁CSA
▁HCMV
▁intraven
phosphatase
▁scinti
▁4.0
▁adver
▁rele
▁HC
▁premature
▁innervation
▁58
MRI
▁experts
▁hetero
24
NK
▁TM
▁glomerul
ntolamine
▁1986
cele
▁displ
▁10(5)
▁Whilst
▁assayed
▁throm
ymp
▁constitutional
ilized
▁eliminated
▁(14
dle
▁clinically
▁shif
▁electroly
hesis
▁examin
entanyl
▁mediators
▁67
▁neph
▁percutaneous
astric
▁concanavalin
alues
▁evac
▁opioid
▁rabbit
▁PMA
fat
▁Bec
▁0.0
▁cochle
▁struc
coun
modulin
ylic
reased
dimethyl
▁controversial
▁Percutaneous
▁adhe
▁Fib
aline
▁mammals
▁FV
▁reacted
▁maintaining
▁(50
▁reperfusion
▁haemat
grams
▁epidermal
▁sulph
.9
▁anticipated
▁algor
▁theore
▁echocardi
tak
olectomy
▁breakdown
▁elec
patient
▁enlarge
▁5.4
eck
aminase
alas
▁inpatient
▁fatalities
▁determinants
lated
ometr
▁MRI
▁PGE
▁enriched
▁islets
hydrop
▁DP
degree
▁messenger
Hg
▁necro
▁qualitative
tained
▁enhance
ocompatibility
▁quin
rated
▁controlling
GU
▁provid
lasting
▁plastic
▁hemorrhagic
▁polyacrylamide
28
▁clearance
▁defects
selective
▁melanoma
cessive
tro
ogenic
▁suicide
ivoc
tical
utaneous
crip
▁aspir
▁mandatory
▁GF
linic
▁vasopressin
▁carbohyd
▁colonic
ults
0.5
▁inclusive
copic
-30
roma
▁Blockade
▁immunized
▁decreases
▁deaths
▁characterized
▁prel
sibly
ucle
plete
▁adolescent
▁Alternative
▁lymphatic
IH
▁upstream
▁terminus
▁depic
▁systolic
▁vulnerable
PV
crib
HB
▁intermedi
▁vegetable
oxone
▁500
▁65
▁negl
▁bab
▁anatomic
▁perin
▁conserved
rophy
▁microvascular
▁neurones
▁ovulation
▁heal
▁0.8
▁radioimmuno
▁vomiting
▁1.8
▁TD
▁thio
▁pig
renol
▁modulated
▁rostral
cence
▁examinations
mobil
▁synthe
dibular
▁nicot
▁projections
threatening
▁vacu
siologic
7%
▁RNAs
▁BP
oreceptor
uation
▁ewes
▁dilatation
ometh
▁biological
▁CAP
icine
▁seventh
adication
molecular
▁diversity
▁overexpression
▁rehabilitation
▁thorac
▁lowering
▁justified
ubation
▁fertil
inj
ectable
▁cerebral
▁assessments
▁uni
bloc
▁mutant
▁95%
▁shifts
▁endothelium
▁morbidity
respon
▁professionals
▁monomer
▁ionophore
79
▁simulated
▁1%
anyl
▁subchondral
▁Measurements
▁behavi
▁phe
▁quantif
▁blin
▁4,
ercise
lective
▁arteri
▁allergen
osome
▁subun
▁5'-
urgery
▁incom
pir
merc
educed
▁regulating
rous
▁phag
tent
▁mesenteric
▁sepsis
treated
▁comparative
▁discrimination
▁gamma
ectin
▁resour
▁unaltered
▁hypoglycaemia
olic
▁noradrenaline
▁2,
8%)
▁strand
▁AVR
▁multiv
onium
mentation
topril
-5-
Ala
ducible
▁transmembrane
▁Tc
dihydroxy
onad
▁pathogen
▁ultra
▁+/-
▁attemp
amily
oproterenol
▁anticoagulation
▁stom
▁alcohol
▁corrective
amines
▁relating
▁10(6)
arent
delayed
▁emotional
▁oligos
▁Operative
▁electrocardi
idium
▁headache
vival
▁bronchial
▁improves
lapping
▁DFS
▁sensitivity
▁VLBW
▁iso
▁organism
▁ppm
▁kinases
▁FHR
▁titers
▁Comparison
▁IMR
▁erythrocytes
depleted
▁treating
▁mammography
▁indications
▁fibrous
▁neonates
2,
▁cardiomy
▁streptococci
epine
▁disrup
▁SGA
▁Biochem
HN
cture
▁HPV
▁parathyroid
▁stimuli
▁ethnic
▁progen
▁acidic
▁exposures
loro
▁uncover
▁intrinsic
ameth
▁determinations
▁surgical
vitamin
cephal
▁amyloid
▁RH
hicle
aced
aldehyde
dehyde
▁zinc
▁oils
▁respiratory
+/
▁thromboemb
▁wrist
kage
▁displaced
nee
▁1-2
▁94
▁modulates
essment
▁quanti
acylglycerol
▁Mg
omiting
▁depolarization
▁necrosis
▁exposure
amino
▁degeneration
ensitive
ectomy
kground
arge
viruses
▁cues
▁strep
▁gallstones
▁acquire
▁testicular
▁PD
▁acet
▁larvae
▁depolarizing
▁surviv
affec
▁afferents
▁LPS
▁adduc
tococcus
▁limiting
elec
leu
▁replic
▁grafts
▁integrating
▁pertussis
▁covalent
transformed
▁DG
▁supine
bladder
▁Taken
▁ocul
▁cardiomyopathy
▁increas
▁protease
queous
VH
▁fulfill
▁crystal
▁triglycer
▁androgen
▁acute
▁pneum
▁organic
opl
▁TRH
▁nutritional
▁lateral
▁inhibitory
floxacin
plantation
▁metastases
▁transmitter
▁elong
ylephrine
▁lutein
▁canine
injured
▁reticul
▁9
ophil
▁PH
▁62
opulation
▁avascular
nec
▁rotated
married
▁acetate
▁-2
▁haemorrhage
▁shorten
ocyte
blind
▁bacteria
▁Cox
▁inhibits
▁pathogenic
+]
producing
▁UL
▁rejection
enoic
alasin
▁striated
▁experimentally
▁ventricle
▁epidural
adian
produc
▁depolar
▁adolescence
▁progression
▁Hb
dies
▁gangrene
independent
▁occlusal
▁Nine
▁chewing
CGP
▁(1,
▁metastasis
▁ischaemia
oural
hesive
uclear
▁transcriptional
oratory
▁interc
▁radiograph
acin
▁lamin
▁analogues
vices
▁coval
▁0.04
▁fibronectin
▁2.6
▁VP
lectomy
▁pall
omia
kely
▁judged
▁IIb
▁glutamate
▁CCK
▁beats
soluble
▁CPAP
▁virul
uptake
tents
▁91
(2+
▁hormonal
bular
▁glucocorticoid
WL
mediately
phosphor
▁autoxidation
▁filtration
▁anesthetized
▁trauma
tability
▁psychosocial
▁fibers
▁physiological
▁amin
▁hydroly
▁dehydrogenase
Gly
▁(22
▁blotting
▁dismut
▁granul
▁confronted
lec
▁onc
▁75
1/
▁anesthetic
▁stratification
diagn
81
tetr
▁glycoprotein
▁injec
▁ensured
▁pituitary
▁fracture
▁sediment
BK
▁reflex
▁eosin
reatine
lasts
▁intrap
terolog
fication
▁diabe
▁pretreated
uvant
▁PRP
▁topical
▁sustain
▁syndrome
olenic
omat
rotein
▁discrimin
Sepharose
onset
▁amyloidosis
▁7.4
▁estimating
▁phospho
HU
▁3.6
▁retardation
▁filaments
▁Tumor
▁75%
▁4)
▁ward
▁intron
▁masked
iliac
oprote
ecan
▁30,
arb
▁neurotrans
▁unaware
ferential
others
▁antibiotics
▁PI
▁objec
bearing
▁demonstration
▁Effective
▁agonist
▁immunode
nine
▁HPLC
▁98
cys
▁bronch
ardia
▁rationale
▁buccal
▁CBF
lycerol
hion
▁hematopoietic
▁LF
▁resuscitation
▁VA
▁cavity
▁identi
▁baro
▁carbachol
▁genes
/2
tions
▁fetus
▁sequential
-40
▁0.3
tetra
▁plac
▁discom
▁PID
▁tracing
assium
▁(1
▁gradual
▁clinicians
▁catheterisation
acchar
onine
▁Excessive
▁kinetics
▁Continu
▁prazosin
itum
▁endotoxin
▁79%
iatum
iloride
▁interv
entricular
kers
▁vascular
loride
▁cytotoxic
▁heteroz
▁vaccination
.5%
▁MCP
▁MH
▁0.01
taining
amphenicol
▁mediates
22
▁pine
▁adrenaline
conc
▁thyroid
▁transduction
▁surgery
▁GMP
osine
tensive
▁systemic
▁defec
▁inhibition
▁peripher
▁manufacturers
stimulated
clusive
▁proliferation
.3
embran
uding
▁congestive
▁utilized
▁cruc
tivation
ioid
restric
idine
▁pancre
ece
Ly
▁AIDS
stant
▁microm
▁ventilation
labeled
ithine
▁amo
▁PF
CDD
▁differen
▁supplement
25
robic
4)
inephrine
▁usefulness
▁bp
▁pediatric
▁oestradiol
▁nm
throm
▁diethyl
tein
▁monke
▁IgA
portun
secre
phosphorylation
atid
▁fibroblast
▁unexpl
▁nodules
ozo
luent
amyl
▁unil
▁recipients
▁(197
▁burden
▁granule
▁mediated
▁mM
rief
▁kidne
athyroid
keleton
▁vasodilator
▁peris
90
2(+)-
▁uncommon
▁cartilage
trover
▁retinal
▁Escherichia
▁conservatively
renaline
▁topographic
▁5,
▁staging
▁puls
▁3'
▁hippocampus
icide
▁intra
▁kine
▁glycoproteins
genesis
anserin
▁22
▁44
▁tiss
▁fibr
▁complemented
▁1.0
▁hippocampal
▁viral
▁biochemical
responding
arbox
▁transcripts
▁antibiotic
▁cohort
ritis
osts
ariate
▁1.5
adrenaline
Phe
▁intravenously
▁glycos
▁liposomes
▁kD
▁inhibit
▁cryst
▁phosphate
▁enhancer
▁polyp
▁cows
▁1/2
▁dismutase
meth
48
▁reflec
▁maximally
tectable
+/-
▁immunoreactive
uscular
▁subcl
.2%
▁cortex
▁anaesthesia
▁spectro
▁Pregn
ancreas
ocon
▁phenyl
osal
▁microns
▁muscles
genic
▁fractional
▁cure
toxicity
▁probes
rogenic
oxy
rength
▁ventral
▁pleural
unting
etitive
▁clinician
sar
▁infiltration
▁pacemaker
▁prolactin
▁differing
Ra
▁27
ethyl
▁squamous
ipro
▁DSM
▁junction
enkephalin
▁splenic
▁atrium
▁heterogeneous
▁satis
▁mug
▁vitro
▁cannulae
▁respon
cents
▁mucin
hydroxy
odium
▁pathologists
▁functioning
▁hamster
4%)
▁linoleic
▁transferrin
▁cholestasis
▁allergic
▁cytoplasmic
▁reticulum
WB
.0%
▁2.
23187
▁surround
▁ascertainment
▁reflux
arthritis
ipr
WBC
▁electrode
jec
▁undoubtedly
phic
oxidation
▁occurring
▁efflux
ophylline
▁peaks
▁optimizing
▁vaccin
▁9%
▁endometrial
▁physiology
▁dietary
orepinephrine
▁supernatants
▁subjected
cyst
▁lymphocyte
GD
-80
▁questionnaires
▁polyps
▁substituted
▁operative
▁mesang
▁scoliosis
▁40%
endri
1-2
ialysis
atitis
▁3
▁clonal
ochrom
aicin
illance
▁definitive
▁WK
Gl
▁CGRP
▁myo
aturated
85
RM
▁proteoglycan
▁chickens
▁assessing
▁anticoag
▁Ket
▁verapamil
▁inver
▁(5
approximately
▁technologies
antial
regulation
▁keratin
iotensin
▁pathologically
ovascular
ertion
ffin
▁satisfactory
▁swelling
▁myoepithelial
▁substrate
▁15,
▁scl
▁eating
rogen
▁NaCl
▁enhancing
3)
oplasm
▁deoxy
invasive
▁thir
▁cultured
verages
▁approx
idement
onuclease
5'-
▁conjugates
roin
▁monounsaturated
UF
▁individualized
ylchol
▁investigations
▁purification
▁iatrogenic
umbar
▁(25
▁18
▁disrupt
▁interferon
▁RP
transferase
▁acetylcholine
▁controver
rences
ograms
▁reviewed
▁appreciably
▁epsilon
ociated
▁2.8
▁streptoc
▁intrarenal
▁1
▁analogous
▁resul
▁3.1
pecific
▁margins
▁APTT
▁mast
▁sut
▁bilirubin
physiologic
▁tomography
iol
▁BALB
▁ligation
▁AGE
▁discriminative
▁sperm
▁documenting
▁temperatures
▁25%
▁aeruginosa
▁kerat
▁fibrob
▁Twenty
▁oxidation
▁specimens
▁centers
▁responded
▁lymphoid
▁6)
uncture
▁toxin
restingly
▁10(4)
amate
▁2%
orphin
icardial
rease
▁perfusion
drome
vals
elan
▁presumed
▁Swed
▁cerv
-8)
▁pigment
▁dischar
▁supernatant
uanti
ture
▁cyclo
▁apop
▁homogeneity
▁brom
▁carbohydrates
fine
▁carcin
▁prostaglandin
▁cumulative
helin
▁nucleotide
▁mim
▁fractions
tural
▁previ
▁Phy
glycerol
▁interp
▁dramatically
genital
oconstric
▁donors
oxide
▁tryp
▁64
robial
▁exogenous
contrast
otides
tructive
orts
▁PVR
▁lipid
lastic
▁Groups
▁RM
▁sph
myc
aminergic
operox
ourable
▁adhesion
▁damaged
▁liver
odialysis
Ba
▁oxid
▁compli
acting
▁EA
eptides
8)
▁contributes
trodotoxin
▁clinic
itness
venous
ubted
▁muta
▁GV
▁cen
▁functionally
▁glycogen
▁pancreatitis
operoxidase
ancies
12
▁poisoning
▁mell
ultural
atent
responders
▁attending
▁parap
▁extrac
▁practiced
▁thereafter
mand
▁isoform
ergen
▁5.8
operative
trexone
▁concom
▁LAK
▁capsaicin
▁phosphorus
▁0.08
adder
▁leukocytes
▁rigorous
-1,
endorphin
ensitivity
▁inactivation
▁reproducibility
▁aspirin
▁Morph
▁doses
▁edema
▁carcinomas
▁polypeptides
ept
▁1.3
emic
▁weigh
▁recr
▁suscepti
▁CTL
▁ori
rectomy
oride
▁extracellular
▁perfusate
▁synthesize
ocortical
-1
▁33
ctive
▁proportions
▁macrophage
▁DH
ulin
employ
▁corne
▁lymphoma
▁latency
oreactive
▁Recent
▁lysosomal
▁corpus
▁Protein
▁inactiv
▁20-
▁valve
▁granulocytes
▁Bone
▁wound
▁warranted
▁hypother
5).
▁glomerular
▁synovitis
▁underwent
▁palliative
8).
valence
▁interacted
▁0.5
adequ
▁59
▁supple
▁ambul
▁erosive
overall
▁Animals
attern
▁poten
▁institutional
nosis
▁0.001),
tiz
trin
▁PCP
ofol
▁49
alsy
modified
tile
▁cartil
▁likelihood
▁trypsin
GH
▁8.5
▁resear
▁lec
▁phosphodies
▁deficits
▁shallow
ronectin
▁coeff
acts
▁decreas
rangement
▁racial
▁hypothyroidism
acid
▁7.0
▁statis
▁expressing
ameter
▁vitamins
▁hygi
kine
▁30%
▁untreated
icillin
resses
▁Impro
rophyl
▁homology
tam
▁overex
▁residency
▁manifestation
▁flexion
▁follicle
▁electrophoresis
7)
benz
▁evaluating
▁pS
▁curative
▁shor
otassium
▁myelin
gland
▁130
▁RV
-9
▁proct
▁tension
▁atherosclerosis
▁reagent
illation
idin
luding
▁VLDL
▁esophageal
Ti
▁1,25
olesterol
▁circulating
▁prevalence
achid
▁IUD
▁Failure
itudinal
▁preoperatively
▁chains
▁detectable
▁(9
▁decarbox
▁empirical
▁spontaneous
ocarcinoma
▁histochemical
lysis
yro
▁fati
▁cyclase
▁inserts
/10
prising
flux
▁atrophy
▁mumol
idol
▁repor
▁mortality
IgM
▁phon
▁differentiated
▁calor
▁dimethyl
ilated
▁reactive
▁ulc
▁penicillin
▁homogene
▁subunit
27
▁caudal
▁intervention
FH
▁110
▁insufficient
▁precipit
▁alanine
▁serine
▁wean
▁HG
9).
thio
▁anesthesia
▁beverages
▁attenuation
ritin
▁basal
▁aggravation
▁shifted
▁Mucosal
lore
ths
▁participate
▁trachea
otypes
▁conges
adren
▁immunore
▁subtraction
▁malaria
16
▁haemorrh
▁35%
▁restric
▁invasive
ocin
▁50%
▁Poor
estigated
-60
▁nail
▁tox
2),
▁immunoprec
rotid
ositi
▁etiology
acetyl
cored
aem
▁myocardial
urate
▁intracranial
▁140
ignific
▁appropriateness
rement
optic
▁ribosomal
▁clinics
inemia
odic
▁postsynaptic
carbon
esity
▁scans
▁supernat
▁misleading
▁7.8%
existing
rine
▁uterus
▁VIP
▁permeability
▁volumetric
▁stren
▁visualized
▁stenosis
▁CMV
▁risks
▁neuro
▁inhaled
grees
▁IH
▁UT
rection
vertebral
.3%
rogra
▁NADP
1.
▁symme
▁graded
▁attenuated
▁HIV
tives
▁extensor
hest
▁acetab
alp
▁GE
▁quantit
▁hormones
▁90%
omized
▁subf
▁diazepam
▁CEA
transplantation
▁musc
▁leakage
▁phosphorylation
▁depressive
▁1.2
▁PCOS
▁oxidase
▁newborn
▁localities
▁adap
▁hazards
▁emphasizes
▁undergoing
▁electrophoretic
▁vaccine
linolenic
▁organs
▁hydroxyl
▁coupled
▁preferen
▁hypo
onin
▁80%
▁HAM
aturation
▁EMG
rotic
▁digoxin
opa
rosophila
▁radiographic
▁LDL
ochem
utaneously
cores
▁implant
▁prophylaxis
▁agglutinin
istribution
0.0
▁intermittent
plication
▁nal
▁eosinophils
▁potentiated
nutrition
▁marginal
sian
ergic
-10
▁consis
▁(4
genes
▁Experim
▁prolonged
▁sebaceous
Wo
heum
▁aggregation
▁contracep
▁follic
▁albumin
▁immunoprecipit
▁exhibit
/100
urane
▁70%
▁80-
▁leuc
ineal
▁practic
31
sA
▁selectivity
clim
▁establishing
▁Phen
▁reper
▁diges
oleic
▁endos
▁transi
▁ubiqu
▁fertilization
▁atres
ulitis
▁acidosis
▁COS
zation
Ds
▁requi
▁athle
▁modulate
ietic
lecting
inally
orectal
▁PCO
▁determining
▁encourage
hydroxyp
duction
▁adverse
▁knife
▁competitive
▁PGF
▁prophyl
ateral
▁preventing
▁metformin
▁prescrib
▁cataly
▁hyperthyroid
▁assessment
▁6
▁IgE
▁apprec
ivocal
▁exhibited
▁autoanti
▁insurance
TG
▁PHA
▁Conversely
▁substantially
▁isoproterenol
▁problematic
▁epilep
▁deform
▁agonists
2+-
absorption
▁stric
▁lineage
▁eosinophil
01
▁progres
semb
▁nifedipine
▁frog
▁hybrids
▁plateau
▁clon
▁9,
orec
ignificant
▁preterm
▁cystic
7%)
▁awareness
6%)
onance
▁axons
▁100-
▁pharmacokinetic
terminal
▁fibrinogen
▁therapeutic
atrial
▁HA
▁challenges
%),
aints
oric
▁activator
ucine
2+,
▁deficiency
wann
▁DT
▁undisturbed
▁affec
unced
▁velocities
ergy
▁termination
▁crystall
romes
▁settle
otom
ilep
▁diets
▁concomitant
▁allevi
▁viewing
▁vasodilation
iant
▁depress
ocked
ureth
iferation
/6
incub
implantation
ATP
▁fulf
▁mitochondr
tabl
▁pigmented
▁carbox
▁mimic
▁amy
▁prol
▁depended
▁urea
illary
▁chorio
▁lambs
matic
venth
▁identif
affected
▁3-
diol
▁regar
▁30-
▁acupuncture
▁sham
▁76
mTc
▁DN
▁Progression
▁nons
▁prevalent
eroxide
▁radiolabeled
▁fasted
▁alkyl
▁[3
▁pregn
▁HRP
ilibr
44
▁microM
▁tracers
-1-
▁transported
loid
CBF
Daw
▁altered
▁(198
eptidase
35
▁indication
-4,
▁procedural
itively
▁Triton
▁Biol
▁Thirty
▁catheter
▁drainage
ocor
perfusion
▁hospitals
otox
orubicin
phyloc
TNF
▁dental
rested
▁needles
rati
▁antibodies
anese
▁6.2
▁repaired
8+
▁potent
oscopic
▁tolerated
▁LHRH
▁hind
-0.5
▁ceph
▁Contrary
ipolar
▁PTH
▁stimulating
tron
▁EEG
iable
▁innerv
▁pleomorphic
duc
tryp
▁morphological
▁discre
▁71
▁ipsilateral
▁dopaminergic
▁antigens
▁subtypes
13
▁rigor
erally
▁conductance
sibility
▁gluc
▁cervical
retion
▁cognitive
PSP
1%)
hydroxylase
MIC
▁Differen
▁immunological
▁collec
urations
▁0.001)
phil
▁transforming
▁instrum
▁periodon
▁catalyzed
▁inhibitors
hypertensive
uretic
▁Inclusion
arrhy
▁immunoglobulin
▁detec
▁microc
▁colchicine
▁ovary
▁CABG
yloid
enol
▁extraction
▁broader
▁contributory
monstr
▁linole
oplastic
39
essation
▁12%
aceous
+,
eight
▁suppressor
▁reversal
▁skeletal
▁diaphragm
usal
istically
▁averaged
▁oligonucleotide
▁cytology
magglutinin
lycemia
▁molecules
▁2.1
azem
▁excl
tamine
▁neo
▁Overall
▁42
mented
▁reflects
▁polyclonal
uin
▁proteoglyc
▁BAL
▁guided
opres
▁Adherence
▁airway
ejun
▁suture
▁infection
iciently
athy
▁wt
TN
fected
roso
▁adaptive
▁epileptic
▁libr
▁enhancement
atheter
▁kappa
ailure
▁inducible
▁myocardium
▁comprehension
▁ischem
▁hypertrophied
luores
▁16
▁nude
▁phagocytosis
▁cyt
▁endogenous
▁dete
▁twofold
▁unstable
▁compartments
▁196
▁sple
▁0.6
▁nurses
▁45%
sant
▁eradication
▁fatigue
facial
unctional
tebral
▁fold
ffec
▁ligands
▁aort
▁BS
partum
trate
▁efferent
▁4.3
▁markedly
▁medial
▁vasodil
▁VAS
▁(5-
▁displacement
▁diagnosis
▁intravenous
evoked
▁(3)
▁autoradiography
▁cis
▁diminished
▁bone
▁behavioral
pation
esthe
VL
plastic
▁chicks
▁plasmin
▁73
▁abscess
▁histologic
▁axial
▁reas
▁monit
gth
▁microsp
▁cerebellum
▁newborns
▁histamine
kinin
▁reser
▁monolayer
ygen
ophageal
▁phenylephrine
orrh
▁glutathione
▁heroin
▁melatonin
▁paras
-7
▁MRC
▁proteinase
▁challenged
▁resorption
▁projec
▁antib
▁optic
▁sarcoma
tium
▁PCI
-3)
▁regeneration
▁cadaver
▁luteinizing
2+]
▁creatine
▁Slow
orest
▁screw
▁72
▁abortion
▁lesser
▁helix
▁sigma
▁pressures
▁lys
▁olig
▁sensory
▁recombination
apse
oagulation
▁zym
▁HMO
acetic
▁rRNA
▁blockers
carcin
ylcholine
▁MEP
▁Cd
chemical
irrhotic
▁chemicals
tual
▁constitutes
▁depr
OA
▁BPs
▁lithotrip
ellar
econd
▁correlates
oblastic
▁Excess
toph
erator
▁pathogenesis
phosph
▁symptomatic
▁Plasma
yron
▁discusses
▁gallbladder
▁attendance
iferol
▁amino
▁mmol
▁methotrexate
▁hormone
▁74
▁injections
4+
▁pump
▁motone
▁2.7
Ki
tection
▁alteration
▁densities
tinguish
▁mamm
▁occlusion
▁(95%
▁hypothyroid
▁VL
▁elongation
▁subsp
ipher
▁complication
▁Eff
▁presenting
adm
eak
▁antiser
▁backs
▁rehabil
▁predominantly
▁micrograms
gthen
▁prevented
▁aggregates
ucose
▁postmenopausal
▁fitness
▁luminal
▁(2.5
▁HSV
▁sulphate
▁sulf
tious
vating
▁phosph
▁RS
▁Vaccin
SPE
4%
adrenoceptor
increased
ravid
inflammatory
▁exacerbations
antigen
▁cyan
▁(8
▁4%
▁uremia
▁somatic
▁pigs
▁luteal
0,000
▁histidine
rays
oradi
▁merits
▁appendic
▁bundles
▁0.7
▁7.2
ediatric
▁GER
▁metabolites
▁inward
aluation
▁SEM
▁anae
▁galact
▁gonadotropin
▁herp
essive
carbox
▁musculoskeletal
▁TA
ATPase
▁ICS
▁tissue
gluc
onous
▁aerob
▁prophylactic
▁125
mation
ellular
▁artic
▁Increas
▁transurethral
▁100
aginal
▁Kupffer
▁atropine
▁cysts
▁synthetase
▁gon
▁nurse
nai
▁reactivity
chlor
▁disks
utin
▁implanted
▁plates
▁lysine
otor
▁vag
▁bronchi
ollicular
neu
500
▁adrenergic
▁currents
▁66
▁RNA
atectomy
.6
▁synthesis
▁insulin
▁depres
▁interleukin
▁proce
▁UF
osidase
inusoidal
illic
opr
▁inherent
▁brush
▁198
▁mRNA
MN
▁directional
▁residual
▁Inte
▁surf
▁demographic
▁anatomical
omain
omical
thym
osyn
▁direc
▁LOS
onography
86
▁degrad
ocl
idem
▁heme
olution
▁oxygen
rone
ophy
omyel
otoxicity
dominal
usp
▁desensitization
tracellular
▁2.0
tisone
▁placebo
▁poorly
▁transplant
HDL
▁glycol
▁ESR
▁hemorrhage
▁psychotropic
Glu
▁vagal
▁cochlear
rents
▁reversible
▁tetan
▁coex
▁equilibr
▁FSH
▁myocytes
▁medication
▁embryos
▁neonatal
atell
▁juven
▁88
▁fructose
▁behaviors
ereb
▁progesterone
ifed
▁assay
oxygen
plants
athetic
glum
▁cardio
▁perfor
▁migrated
atibility
ochondral
▁hypox
enh
▁immunohist
usate
▁sequentially
ecu
virus
▁3%
ocytic
▁propensity
▁mice
▁patellar
▁restorative
▁stellate
▁PAF
▁biosynthesis
▁tobacco
▁sustaining
▁Evidence
▁cuff
46
▁immunization
ethanol
planted
rying
gative
Dawley
▁enhanced
▁portions
▁(12
lobin
tage
vely
▁tracheal
venty
▁6.5
▁vertebr
phth
▁undetectable
▁dendritic
▁ethyl
▁cancell
▁.05)
▁parie
▁seroton
▁fibrin
rhy
▁outflow
▁methylation
dose
ologists
▁resonance
43
▁hepatic
▁vitamin
▁inclin
▁Cyt
▁identifying
▁dex
▁immun
▁adenosine
sy
▁Hz
asses
KD
▁5.2
▁silicone
enin
10
▁imaging
▁sore
pH
trypsin
obic
▁resemb
▁EO
▁6,
▁metabolized
▁PSA
opramide
▁peptides
▁papillary
ovirus
▁phenotypic
▁linearly
▁adjustments
uality
ubiqu
▁substrates
▁clipping
▁strategies
▁conduction
terol
▁transplantation
4-
▁pressor
▁gly
▁severely
iology
▁babies
▁absorption
turb
▁NPH
orin
lymer
▁Intra
▁guinea
▁irradiation
hospital
iciencies
▁antero
5%
atical
▁sickness
▁footprint
▁plas
▁17
fusion
aminob
minute
astom
▁(2
