▁angiography
phosphonate
▁Biochemical
▁dosing
ctomy
lusion
▁clus
▁predicts
▁pla
mixed
▁physiological
arous
▁leukocyte
▁stren
▁extensor
odium
▁Afric
acr
▁mucosa
▁0.01).
▁carbohydrates
▁mucos
▁Cox
ulae
tries
▁tiss
asive
tific
5-
▁substitution
▁VD
▁atres
Hu
▁peptides
▁kerat
21
▁metabol
idine
ophren
▁insertions
▁endarte
▁AO
▁cortical
▁gly
9-
▁underestimated
▁coel
ondr
▁Multiple
responders
▁leakage
▁adjuvant
▁mitochondrial
▁improves
▁specimens
▁constitutes
▁auditory
sies
Ig
▁anat
RH
▁bronchi
ureus
▁pS
▁incub
▁rats
ighted
/1
▁synthesis
▁microbiological
▁extracts
0-
Ba
aptic
▁decreasing
aginal
epti
▁topical
▁genotypes
▁reproducibility
▁hypertension
▁nosocomial
orative
ilical
ogra
▁PCO
omized
▁Kup
-9,
▁clearance
ociated
ocaine
▁embry
adication
urine
▁appropriately
cele
ffer
induced
▁systolic
ampl
ogenic
gic
▁latency
▁exclusion
▁thi
mature
▁putative
opathy
▁TNF
▁Vac
uccess
▁radiography
▁10%
▁injections
▁connec
titu
▁cyclase
▁purified
phal
undibular
lateral
▁PCP
went
▁repres
▁tissues
▁neurologic
▁proteins
unctions
oracic
▁kidney
ergic
loro
GV
aceous
▁testis
▁DSM
▁thrombo
quired
▁amino
▁overe
▁recombin
ocytic
-0
▁prenatal
▁mann
▁soy
▁radiograph
▁hipp
idation
▁polyps
▁tib
▁cis
▁differen
▁tumour
orphic
sible
▁42
▁sciatic
7,
▁glands
▁alve
▁gastric
onyl
▁wors
▁vascular
▁cate
ocul
▁modulates
▁Treatment
▁inflammation
▁LV
▁2
▁tomography
adrenergic
▁clinically
▁LDL
▁obese
▁mutants
▁7
▁palsy
ivocal
▁cardiomy
▁prevalence
▁ventric
▁cerebrovascular
ochemical
▁injec
▁questionnai
▁microscop
▁cutaneous
▁ech
▁subgroups
anic
▁progestin
▁glucose
enin
▁metabolites
▁awa
▁ultras
▁produc
▁4
▁confir
▁subjected
▁expres
▁Streptococcus
▁systemic
phrine
▁worsened
▁attenu
teroid
▁Trial
▁endarterectomy
zyme
oxic
46
▁reproducible
phosphon
▁gland
▁sensory
▁electroph
oceptor
▁contraction
totic
▁sti
tion
BK
▁deformity
▁Phe
ATP
lycerol
ypical
truction
sul
▁pigs
▁receptors
▁examin
▁0.00
lective
▁deficits
ithms
▁synthesized
▁counseling
▁mumol
▁500
▁assay
ceptual
▁11,
▁AMP
▁spleen
Tu
▁induction
mediately
▁Ear
▁induce
Cu
▁perip
▁toge
onol
.1
▁discom
▁possi
▁evolving
vant
▁NH
.9
Cer
▁(2
▁variability
▁chan
sych
▁stimulated
▁cytotox
▁60
▁lumbar
▁aort
▁antigens
▁correlated
▁opioid
cribed
▁somatic
trative
oung
▁VO
urther
ophag
▁affec
▁23
▁hydrox
▁suppression
eric
▁suppressed
▁mediates
▁5
▁dete
▁striated
▁RA
▁polymorph
▁overlying
oscopic
bladder
▁decreas
derived
associated
nec
enic
otor
atif
▁adenoma
▁arthritis
▁hypers
ximal
gents
terminal
▁undergoing
mig
▁plas
tub
▁13
▁laparoscopy
▁underg
▁pter
▁dele
idated
owever
▁neuronal
ynthe
▁traumatic
▁20%
▁heterogeneous
▁antibodies
▁neo
▁preferen
▁graft
regulation
ocardi
▁contributes
▁influenza
▁inadequ
▁oste
rehen
▁acids
▁pancre
versely
lastic
▁microgram
▁subgroup
▁48
0%
▁differentiated
mur
▁linoleic
▁mmol
omotor
herence
▁infec
avage
4,
▁RBC
lobulin
kade
▁benz
▁contamin
atoid
osom
tabl
▁cervix
▁sepsis
▁synthe
▁lateral
▁selec
▁thoracic
▁discon
LV
onin
-4
iol
RNA
▁laparo
▁evaluating
urgery
▁surgeons
▁antec
▁ach
▁tumors
trogen
▁endometr
seal
▁histologic
▁epi
astatic
▁eradication
osomes
▁laparotomy
▁ventilatory
▁anastomotic
yroid
asal
omat
tics
▁discrimin
▁cohorts
▁1)
▁Phy
echan
bic
▁diabetic
▁homogeneity
▁organisms
imens
▁molec
▁ECG
▁amput
▁selectively
EGF
tabol
gment
crib
▁resol
▁gangl
dition
▁hepatitis
▁Removal
lym
activation
▁mandibular
▁perinatal
▁phag
tam
orin
▁occlusal
▁fracture
▁dehydrogenase
agin
armac
1-2
MRI
▁evaluations
▁microscopy
▁indi
▁HL
▁3.
▁SNP
▁200
▁epit
tration
▁feasible
▁psychosocial
▁scanning
▁IFN
itin
▁implantation
▁defic
rocy
▁favourable
ituitary
▁29
minal
anyl
▁nucleotide
angl
injured
utions
dent
epit
▁modif
▁rCBF
▁correlates
▁nitro
IgM
ostat
▁(8
ancre
▁regis
phyl
elec
▁Acute
▁Taken
▁detrimental
ocyte
acil
▁inhibitory
▁pathologically
▁prospective
▁emerg
tensin
▁MCP
▁detachment
tured
mentation
▁thickening
▁cholesterol
athetic
▁HI
isol
▁shortened
iliac
▁physiology
ocar
iferation
▁unex
arate
▁indicative
10
anol
▁vivo
▁beha
▁oxygenation
tral
▁studi
icine
itance
▁disapp
tectable
mented
opamine
▁22
▁pancreatic
▁mL
▁arteries
▁adhesive
thma
▁paradigm
▁quanti
▁supple
illary
▁Ara
▁therapies
/-
▁demographic
tiv
▁11
▁sut
atories
▁symptomatic
ration
▁hormonal
▁PB
▁eosinophilic
▁streptococci
▁substituted
▁PAS
ducts
▁posi
▁endoscopic
28
▁Tum
ylation
▁judged
lip
TK
▁fetus
▁overlapping
iary
-8
ochem
22
▁genotype
▁insufficient
▁anomal
▁assessed
▁40%,
tase
▁tamoxifen
▁HCMV
rogra
certain
oclonal
▁pineal
▁90
fected
ventional
9)
▁comple
▁porcine
▁venous
anine
hyd
ochrome
uptake
occi
▁dexamethasone
▁nonadherent
▁lys
heum
▁chemotactic
5)
▁referral
▁outpatient
itro
▁conduc
▁follic
▁vaccines
▁esophag
23
▁corne
tility
▁surgeon
acin
▁phosph
oplasty
▁hypot
▁GH
▁agonist
▁MN
▁shor
▁APC
▁34
omycin
▁occl
tagland
▁poten
veness
▁cataly
▁0.001).
▁mellitus
▁echocardi
▁implicate
vul
▁paradig
urrent
▁collateral
▁36
.2%
pir
▁disappearance
▁lobe
idase
▁competi
▁corneal
-2
▁removes
▁85%
▁40
▁anesthe
▁communic
▁molar
PV
▁parotid
vice
▁circumference
▁35
▁discharge
urc
▁concordance
▁ossification
cture
▁abnormal
▁fluor
atical
▁fetal
estion
anish
lood
▁schiz
▁amo
▁ulcer
▁venti
ostal
▁VC
▁unclear
▁Continu
▁postmenopausal
▁inhibition
▁depres
▁oligo
ologic
▁mediation
itoneal
▁potent
▁specificity
ocardial
▁birthweight
▁allo
▁(1)
▁microb
-1
▁elu
▁glomer
▁vesicles
▁positioning
rosis
▁prophylactic
▁cathe
▁markers
▁elimin
centr
▁compressed
lec
▁chemotherapy
receptor
erance
physiologic
▁socio
▁chec
▁27
unctional
pinephrine
▁insertion
ofol
▁amines
trip
▁traum
▁pretreatment
fusion
▁pedig
▁kinetics
taining
▁phosphor
henyl
echn
actin
▁precedes
▁stimulus
ochemistry
KD
till
▁perc
phic
▁localized
▁oxide
amide
bility
reased
▁epithelium
▁1
▁endot
▁abdomen
▁(4
▁consis
loride
thle
▁IgM
olytic
▁glu
▁HU
▁fati
▁anastomosis
▁carcinogens
▁resection
▁LN
▁chewing
4%
identical
ectable
▁onc
ailure
▁propor
▁predictor
▁concurrently
▁Cushing
▁hypo
▁artery
▁phe
▁recom
HB
▁bile
▁sensi
▁causative
▁practic
▁encoun
▁lithotrip
turb
acental
▁0.2
prising
▁thorac
odial
▁immunological
▁femur
▁ACE
▁turnover
▁Contrary
encl
▁adhesions
▁bloc
2.
▁iso
tection
▁appendic
esic
▁cen
▁Surgery
▁tran
tional
itic
5.
cad
irc
▁GV
▁kDa
4-
eration
▁retic
▁antigen
quine
▁adverse
▁polymer
inol
▁biom
▁naltrexone
▁pelvic
▁infections
▁sperm
▁gait
▁cyst
osal
▁pulp
▁Phen
genesis
▁pharmacy
rates
fec
▁0.3
▁ascertained
▁engraftment
orectal
idney
nthe
raine
▁aortic
clerosis
ints
ocusing
▁sequelae
2%)
duced
hips
▁bip
▁unexpl
pine
▁ester
omerular
▁uptake
▁resusc
esity
othel
▁chl
3-
osomal
▁rhe
▁vaginal
oside
▁dex
▁guinea
▁superficial
▁hypoxia
reatine
▁soluble
coh
▁neutroph
▁immunore
▁suture
▁pregnancies
ymp
iatic
▁acqui
▁38
▁empirical
0.
▁manifestations
▁parental
▁relapse
renal
▁muscul
umulation
▁potency
spectively
▁potenti
▁prescrib
▁carcinoma
▁biopsies
▁amyloidosis
anin
▁molecules
▁HN
▁latent
▁juven
▁cyto
▁ana
▁hepatic
atient
▁techniqu
▁poin
▁oxy
00
▁enrol
▁palli
▁prognostic
80
▁gallst
▁deform
▁pancreatitis
▁LD
78
▁lipids
▁migrated
ithm
▁dysfunction
▁saline
▁ambient
▁compli
▁endemic
▁caro
▁postoperatively
▁rhy
legia
tus
▁debr
estig
▁projec
odic
▁7%
▁PET
0%)
oradi
tors
immune
▁Contr
ronch
▁macrophages
ods
▁metastas
▁synovial
▁circumferen
▁statistically
ochondr
▁mammography
▁compartment
ylase
▁vitamins
▁0.05
terol
▁tris
oglobin
▁anatomical
▁pneumonia
▁compounds
▁exacerb
▁recombinant
▁3,
ylated
astric
inj
▁herpes
▁8.
▁coronal
aminated
ipient
▁ischemic
▁marrow
▁stimulate
▁sulfate
▁irradi
▁HLA
▁gluten
▁infar
▁bronchoscopy
▁comparisons
▁0.001)
▁perone
CSF
ervations
▁estrogen
▁exce
▁prophylaxis
▁HS
opro
▁enlarged
▁parap
▁antagonists
ejun
▁axillary
▁bene
ths
27
tual
▁haem
▁atrial
57
quid
ureth
lasting
▁hemorrhagic
▁carriers
ileptic
▁neon
▁chromat
▁contral
▁phy
▁heparin
▁Lys
▁catheters
▁agon
rophob
▁testicular
▁consolidation
▁chemot
▁overex
Ra
▁ovarian
sia
olarization
▁contaminated
esia
▁exchan
▁repor
▁histological
▁stimulation
▁identifies
▁MHC
▁intrag
lep
ellular
adequ
▁16
enzymatic
▁detec
▁regulate
▁alk
▁IU
namic
▁(1
sive
imin
▁placent
ximum
▁unil
▁vagal
▁symp
▁congen
athyroid
kDa
▁cytology
transplantation
50
adherent
weighted
▁cys
▁phosphorylation
emia
▁IgG
▁canc
nutrition
▁cytoplasmic
▁somatostatin
ogens
▁FH
-7
▁autosomal
MN
▁0.9
▁preparations
▁pneum
▁chor
▁adminis
▁19%
idate
▁tes
▁relap
ompan
▁1,
tures
coun
▁acetab
85
▁overexpression
clinical
▁plasm
menopausal
▁reperfusion
tak
ologous
▁umbilical
opulation
▁distin
▁physicians
▁muc
rhy
seud
▁definite
▁nutritional
▁effec
positive
odon
ayed
▁cuff
▁pathogenesis
erating
▁adren
keletal
gely
▁mucosal
2)
▁cochlear
▁alcoh
▁undergo
▁.0
▁peptide
▁vaccination
tent
onatal
ivation
▁DG
▁fatty
▁Engl
▁Biochem
▁differenti
itamin
▁impaired
▁antagonist
▁gynec
▁clon
▁Neu
▁79
ariate
▁CAM
esthe
6-
EG
▁alterations
-2-
▁restenosis
▁utero
▁Findings
othermic
▁poorer
▁erg
xual
▁skeletal
▁angi
▁agonists
▁mutant
▁pharmacological
▁10
▁assessments
xia
▁symptom
entif
▁myel
▁renin
▁metastasis
▁Estrogen
iciencies
▁gon
12.
▁tumor
▁differentiate
▁MG
birth
▁endometrial
▁spon
ontal
▁intraven
▁angiotensin
regulated
▁antagon
▁menopausal
iminary
▁comprehen
▁stratification
▁intrav
▁COS
▁LF
blast
▁Intra
▁0.05)
▁Pregn
orax
▁behavioral
ulatory
chers
▁mice
6)
▁bipolar
▁diabe
▁insulin
clin
60
▁evol
▁fractions
▁enti
▁scre
▁withdrawn
▁exten
▁PEEP
-5
▁respec
▁employing
otides
olysis
cence
lasts
labeled
lax
amino
▁transcription
ectom
32
jug
essel
tomy
▁rebound
moid
▁21-
▁decreases
▁characterize
▁perin
eliac
cis
Phe
▁(19
▁cyt
ronchial
hern
▁resul
▁insufficiency
▁elimination
▁receptor
loid
▁PCR
▁prophyl
atell
▁anatomic
▁assessing
▁25
rants
+)-
▁adolescents
▁supplementation
▁thir
ioid
reas
20
76
▁IB
▁premature
▁deliveries
.6
▁hemat
▁impairment
▁rati
adder
▁nal
▁1.0
5,
cessive
arean
ostomy
▁examinations
iplin
vic
▁anastom
mittent
▁prevalent
▁IVF
fos
▁prostate
athe
▁ACTH
tur
▁Bone
▁endoc
▁depic
▁valu
eded
▁validated
▁oes
▁tuber
▁regimens
kele
siveness
fts
▁positively
▁autoimmune
uterine
ospor
▁complementary
▁synerg
▁unstable
▁melanomas
▁injected
▁suscepti
▁1.7
▁stimul
▁atherosclerosis
▁induc
▁somat
'-
urethral
▁uncom
▁inten
▁ascer
lac
▁wee
▁GFR
▁urinary
▁hypertensive
▁MM
rested
diagn
ialysis
▁administered
erent
▁rationale
▁tol
▁fixation
▁amp
uccessful
ucle
▁Vitamin
▁WHO
▁preventive
▁maternal
nee
▁cirrhotic
ceptive
dic
0.5
11
uncture
▁exis
ecre
opsy
NH
▁predic
sensitive
▁enl
▁modality
▁Tumor
▁modulate
▁trough
▁fragile
▁tibial
BV
▁surgical
▁bronchial
▁3-
▁underst
radi
▁inver
mental
▁incorporation
▁0.
feren
heric
▁alveolar
eptides
▁seb
retion
▁suggestive
▁enzyme
▁melatonin
derly
phosphate
tero
▁kine
▁myo
lymph
tensive
▁antibiotic
occal
▁previ
▁peroneal
▁dilated
Hg
▁strom
elan
▁IA
▁exo
▁8
glutin
34
▁persis
▁reticul
▁30
ositol
▁subtraction
▁eluc
▁biop
ctive
54
helium
econd
▁Serum
MIC
▁underwent
▁adequ
venous
olesterol
▁pelvis
▁(9
▁socioeconomic
▁mediated
▁rabb
▁Alter
▁1.
▁sph
ught
▁olig
▁leuk
methyl
cutaneous
▁residues
inic
▁mM
pH
▁progn
sian
▁dentists
▁versa
▁congenital
SCC
▁subunits
chol
▁pati
tis
sion
▁facilitated
▁silicone
▁elic
▁(6
aemic
▁consequent
▁homogene
▁creatine
▁persist
osition
▁gamma
▁provocation
rae
wenty
diol
▁laboratories
▁subsp
▁45
▁causal
▁torsion
▁prolif
▁differing
Ds
veolar
filtration
agit
opathological
▁complexes
▁abolished
▁interc
▁infil
▁adenomas
▁10.
▁criter
ocrine
osterone
▁desm
%),
▁synergistic
▁DN
▁distrib
▁HPV
▁heavi
▁decreased
resting
ithiasis
▁hypothal
▁seizures
▁alteration
▁1-
▁40%
glyc
▁omitted
▁adjunct
▁ultrasonography
▁paraventricular
oresis
phosph
▁edema
▁aor
3,
6.
▁unsuccessful
economic
.2%)
▁thromboembolic
▁scin
▁inflammatory
▁chol
tively
lux
▁rigorous
▁radiographic
▁hormone
▁tracer
mTc
▁lith
bac
▁nucleus
hers
▁bypass
▁potentials
▁repaired
▁inhibitor
▁chromatography
▁70
alian
▁gradi
erally
▁metastatic
▁thrombolysis
40
▁cereb
▁obser
▁deficit
▁molecule
rene
CRP
sial
▁thresholds
▁abolishes
ortal
▁150
▁prostatic
▁ventil
▁ventricular
▁intrauterine
▁proportional
stolic
onucle
sus
▁coh
dor
▁Samples
▁thre
▁deple
otox
▁indications
▁flexion
▁ow
glut
▁reactivation
eal
▁OT
▁MH
▁potassium
▁musc
acchar
crimin
▁neurop
▁esophagitis
▁homogeneous
▁fas
▁occupational
▁vomiting
▁establ
▁appreciably
0,
▁determinants
▁abdominal
FV
▁paralle
▁promoter
▁excision
▁physiologic
19
1%
igaret
rine
tingu
ditions
▁nodules
ipolar
▁lipid
MV
phen
▁intravenous
▁32%
▁(5
assi
uting
atment
1),
▁stroma
▁fractures
cepti
▁favorable
14
otoxin
otomy
▁ure
▁exhibited
otrop
▁metoclopramide
▁restor
oskeletal
adiol
hap
▁eliciting
▁eryth
▁198
dle
treated
▁shif
ropriately
1-
▁cerv
▁reag
▁microm
▁RH
carcin
▁gallbladder
ograms
aturated
astom
lycer
entricular
invasive
▁yiel
▁geniculate
▁intrac
4)
▁adop
▁chond
▁adenosine
▁Ig
entral
▁elevated
ilibr
▁apo
▁AE
▁scintigraphy
▁measurable
ithin
monary
2-
bral
▁inhibit
▁morb
▁nmol
▁occurrence
▁retention
84
licular
hospital
gm
▁complemented
ogenesis
▁pathology
▁inh
▁multifactorial
▁BP
▁propensity
▁calcium
▁hospitalized
▁(3
onomic
1.
▁resec
▁Asp
▁pituitary
▁manifestation
▁incidence
▁nM
▁TK
▁Mg
▁inserts
onor
ocular
▁pathogen
▁intragastric
▁readings
▁milieu
▁10(
odal
▁followup
▁undes
▁kinase
▁ceased
-10
▁Comparison
entanyl
graft
natal
▁avail
ycin
▁membran
▁phospholip
▁metast
▁iliac
▁immunomod
▁ket
▁embryo
ophilic
▁aspiration
ressive
unar
ivoc
ults
▁normo
▁adolescent
▁elucidate
ostatin
onate
▁distinguishing
▁cigarettes
erable
▁ae
Ki
▁immuno
acted
▁urine
-9
▁incubation
ept
▁cyclosporine
▁Cyt
illus
▁unres
▁satur
▁retin
▁50
▁exer
▁membranes
▁cocaine
adic
plas
▁leukemia
▁follicular
▁retur
▁placebo
KA
perfusion
▁displacement
▁heroin
erate
▁FS
-67
▁197
controlled
Tn
razole
▁collagen
▁preterm
tox
tected
▁progres
▁fluores
▁ane
▁develops
▁metabolism
▁minimally
lobin
▁thyroid
▁umb
▁verte
▁nonc
▁stenosis
▁indicators
urys
aryn
omial
grees
▁reactivity
▁6-
uvant
cyst
▁lesions
iferol
▁monit
AIDS
threatening
▁EGF
essive
rosine
▁foc
▁affinity
▁untreated
atrial
▁enrolled
▁septum
▁oss
67
▁antibody
▁renal
▁reac
▁injur
trast
phe
▁mono
▁intra
mol
▁tertiary
▁GABA
▁gastro
▁thromb
tif
TG
▁preservation
▁complication
▁Significant
▁hetero
onad
erated
acerb
▁biochemistry
DG
aemia
▁silic
▁initiating
asone
ture
itus
▁CRP
▁Accordingly
romed
▁uremia
▁Hyp
-6
ophil
udin
▁juvenile
▁vitro
▁airway
▁CABG
tation
▁pigmented
ropha
+,
▁reagents
▁surgically
lact
▁Adverse
▁phon
6,
▁limb
▁hemorrh
▁inducer
▁restric
▁hypoth
▁125
▁pylori
▁amyl
ergency
.8%
▁concurrent
atonin
▁uncomplicated
opa
tum
3)
▁laparoscopic
▁immature
stimulated
▁screened
▁extrac
▁substrate
▁endoscopy
▁RB
▁pH
▁implic
asses
▁questionnaires
99
▁streptococcal
tinu
▁BMI
000
▁compart
▁prescribing
oplastic
▁polymerase
▁repro
oxif
▁perme
▁acco
▁morphology
▁incubated
▁chloroquine
▁ile
▁0.8
▁BV
risk
▁melan
▁recor
▁epinephrine
▁deterior
▁Plas
9,
▁definitive
▁periodontal
▁prel
implantation
▁thym
ffin
.4
lated
▁nuclei
yro
▁PRP
▁atheros
odynamic
▁asthma
▁prostatectomy
stress
▁osteoporosis
ustained
▁algor
▁cervical
andard
▁unilateral
tec
aneously
▁(0.
kely
opia
ropriate
%).
▁collec
functional
▁alp
opausal
cardi
roph
▁ratios
▁transi
▁phosphate
tebral
FH
▁predominantly
▁37
ostic
▁concentrations
▁ration
8,
▁episodic
ritish
▁33
▁connective
3%
▁hepat
reness
▁OC
▁ambulatory
▁epiderm
▁apop
0%,
idis
▁staging
▁hemodynamic
▁compartments
▁utilization
tradiol
81
qui
▁haemorrhage
▁evoked
▁Addition
▁sulf
produc
▁pathological
duction
▁neph
sequent
▁TGF
▁directional
trexone
astolic
▁transfusion
▁Chan
▁mortality
▁[3
▁irradiated
carb
olated
▁inhibited
amus
atectomy
uin
▁rash
▁2.5
▁VE
▁diffic
▁LS
▁subun
gulation
▁microc
▁Hg
plantation
▁phagocytic
▁ischemia
▁quantitative
embr
▁consequently
tension
.3
▁multicenter
▁prospectively
▁practitioners
eak
▁recurrent
▁macrophage
tin
▁distinctly
▁schizophrenia
▁analyses
▁cue
▁deli
years
athy
▁GI
▁sclerosis
▁elec
▁scans
itoneum
▁cardiomyopathy
tical
fine
▁calcified
▁calcification
erb
▁markedly
oxidation
▁susceptibility
oplasm
▁transplantation
antial
▁linole
ffec
estis
umulative
▁glomerular
HM
▁lesion
oidal
▁physi
▁Ket
oglyc
▁immunos
▁athe
▁sten
▁cytochrome
oic
29
ternational
▁drainage
ithi
OA
-3
osine
▁investigating
▁antiser
53
rectomy
trac
ministration
▁CSA
tead
▁cann
vail
▁increas
gland
▁LH
▁80
▁uter
▁4-
ocytes
osocial
▁nec
▁experim
▁Failure
▁medial
pecially
2/
▁microvascular
▁NPC
sue
▁biopsy
▁identif
▁arterial
▁progesterone
mL
▁randomized
▁topographic
▁contex
ovascular
▁pyr
uted
hydrox
contrast
xone
▁intrinsic
▁vancomycin
▁consol
yel
ometr
▁ALT
▁routinely
▁dietary
▁epithelial
itone
▁adolescence
▁prolonged
oag
▁microv
(5
tence
▁Steady
▁impair
▁hepatocytes
▁arth
▁abd
▁sedation
ulitis
▁CI
▁hypog
.5
rele
8.
▁radiotherapy
▁Severe
urin
▁pathway
▁pathologic
iotic
▁quantit
▁shorten
▁electrophoresis
lysis
▁ruptured
▁requi
▁cellular
nai
diagnosed
▁2.
oscop
▁cortic
▁acidosis
90
▁staining
aline
▁hazard
CBF
▁rehabilitation
orac
▁colonization
16
▁basal
entary
▁tas
▁preferable
1).
▁poisoning
▁confound
▁exercised
olec
▁BD
tance
enhanced
overed
▁apex
ysm
versity
▁Thromb
MH
iosis
▁hazards
▁ablation
▁DF
▁perceptions
▁adhe
▁diame
osin
ventricular
alues
▁equivocal
aturation
▁struc
▁dislocation
▁albumin
▁ultrasound
▁99
▁stellate
▁metastases
Ia
ocele
▁uncontrolled
ylate
▁effic
▁simultaneous
alsy
▁chori
▁heterogene
▁ESR
▁monke
vival
▁tec
▁dorsal
tel
▁clinics
▁tox
tact
teric
▁amin
▁allergic
.8
rone
▁instability
▁subjec
Pa
▁splenectomy
oscopy
▁recurrence
▁regar
▁preoperative
▁bovine
▁0
▁colloid
▁resis
▁acyclovir
▁coli
▁cDNA
▁metabolic
sions
56
▁endogenous
▁10-
▁sequentially
▁macropha
fir
▁7.
▁Concomitant
▁palliative
▁acute
erox
▁OA
ygen
▁adrenal
▁behavioural
▁demonstrates
▁stimuli
▁provid
▁80-
▁usefulness
oprotein
▁throm
otyp
▁subtype
49
▁ethanol
▁adherence
bumin
▁neoplasm
tant
heal
zation
ohyd
▁multivariate
▁nm
▁Systolic
▁intraoperative
olism
▁obesity
mediated
▁subf
▁advan
44
▁gallstones
▁6
▁predicting
▁underlie
▁satis
▁ADH
ocamp
uran
tric
otropic
▁Regarding
▁pT
tions
tic
▁saturated
comitant
▁athle
▁reagent
▁fulf
▁bowel
▁rabbits
▁adequately
spective
kage
urrence
▁plaque
▁subc
▁microM
▁combin
▁hypothyroidism
amate
▁Bec
ignific
▁fluorescence
▁anomalies
▁interacted
atine
▁amyloid
onc
ensory
▁numb
leu
▁hypertrophied
▁excre
vation
assay
▁derange
▁Chronic
omiting
▁grouped
▁reliably
▁segmental
▁unchanged
▁20
▁catheter
▁5-
▁mec
▁Surgical
▁rheumatoid
▁linkages
▁fibrob
iatric
▁transcrip
▁15%
relevant
dose
▁0.4
omies
▁tracers
ocarcinoma
▁cumulative
▁contrib
▁exposures
▁abl
rents
venth
lys
minis
▁occlusion
illic
8%
gments
▁17
▁PEG
▁neutrophil
▁recessive
operative
▁hypoxic
urgical
entan
▁facilit
ographically
▁0.6
rogenase
▁chlor
7.
▁peptic
tural
ected
18
▁summ
▁endothelin
tically
2+]
▁hernia
▁cholest
▁eosinophil
▁unde
uscular
ococci
▁pneumon
▁needles
▁epidemic
▁TBI
▁parame
valence
▁HSV
▁investigations
othelial
otide
▁subunit
▁postoperative
▁bilateral
▁Hb
▁degrad
▁MV
35
▁PSA
cents
▁cues
▁bladder
ocyt
▁39
▁rectal
▁excretion
▁CK
oxia
▁imaging
.0
▁graf
▁mutation
▁valve
occus
ilic
ivary
▁predictive
rati
adren
▁fibers
▁acceleration
▁preoperatively
isqu
97
gesia
▁membrane
zard
▁sickness
usp
▁conceptual
piratory
▁sodium
▁femoral
▁margins
pation
iably
▁esophageal
▁phenotype
-1.
▁lymph
▁adjustments
trol
▁Histologic
▁Throm
▁rotational
▁pharmac
▁overweight
either
▁glyc
▁79%
▁warranted
vascular
▁dehyd
apeu
▁inactiv
▁smo
▁dors
▁reas
▁aden
utroph
▁cadaver
▁epileptic
▁adaptive
▁monoclonal
ece
48
▁bran
rophy
atid
▁fatigue
▁polym
▁thyroidectomy
erine
terone
▁24
▁eosin
25
▁headache
ameth
▁Dil
▁hippocamp
▁differentially
▁efficacy
▁hydroly
▁defec
▁unselected
bacco
▁pediatric
ipid
gia
asic
▁resuscitation
▁infants
osts
▁Magnetic
▁spi
▁pyramidal
▁antic
▁toxicity
▁ovari
▁carbohyd
estions
▁cancers
thyl
tially
▁Atropine
▁inheritance
▁50%
atural
▁cla
truc
gression
hea
tive
▁glut
odies
▁inpatient
DH
▁Whereas
onit
▁allevi
▁intensive
▁verteb
otassium
▁salivary
bly
▁unrelated
▁polypeptide
eared
▁crest
▁tymp
HF
yses
▁malign
▁Increas
▁diminished
▁transient
▁enzym
▁hep
▁Patient
▁assis
▁disadvantages
▁lymphocytes
▁mitral
cine
helial
inemia
▁cytos
▁variants
▁SCH
1,
▁proce
roin
▁births
Ts
▁substantially
▁infusion
▁clinicians
▁Muc
▁empir
▁sexes
reported
/2
trib
fron
vac
▁4.
▁demonstrating
▁9
▁responsiveness
▁100
facial
opramide
hydroxy
▁Swed
▁highl
wk
itant
▁pyl
ilization
▁myocardi
▁anatomy
▁opi
▁PF
hep
▁cesarean
▁pate
owel
▁HCC
▁remission
▁platelet
graftment
▁sphincter
▁21
scop
▁multic
▁coexistence
operatively
▁challen
2,
tory
▁atresia
▁remo
tro
▁heavier
▁multim
atest
▁hemisphere
▁systematically
amet
atients
opha
ethyl
olones
▁psychiatric
rox
ucleation
genic
IIIa
▁longitudinal
aryngeal
▁31
ylcholine
▁murine
ropine
PAP
▁prostagland
relations
vely
roximately
▁rigidity
▁28
gesterone
jun
▁HM
▁cyclic
omatic
tig
▁serum
atase
lix
7)
▁14
▁TG
onography
▁cortex
▁TB
▁contrac
▁resear
▁anemia
▁necrosis
▁hyperg
▁MEP
BW
tage
▁Preoperative
▁divertic
odialysis
▁0.05).
▁severity
▁simult
▁100%
ylchol
apeutic
▁comparative
oprote
atheter
erican
▁hypothe
attern
eptide
▁NP
▁viral
urate
versus
▁trig
▁endpoints
▁GVHD
▁sequential
▁assays
▁mRNA
▁benign
▁differentiation
▁discus
▁infarction
▁intercostal
luc
vertebral
▁ketamine
▁multiv
▁reproduction
▁sci
▁19
gluc
▁carcin
▁endothelial
▁colorectal
▁stu
▁2)
▁prognosis
▁tryp
erad
▁peripheral
▁plantar
▁tolerated
▁inser
▁electr
▁cigaret
▁exogenous
ressing
▁(7
6%
▁oxid
DNA
acet
▁pall
▁attemp
▁TA
▁speculated
▁aerobic
viron
transferase
▁15
ervical
▁workload
▁vaccin
tyl
rease
▁ery
▁chemo
vated
65
▁ASA
▁depr
siological
Hb
▁heterogeneity
▁blot
4).
▁pressures
▁RNA
▁abnormalities
▁operative
▁2-
▁morphologic
▁reflux
omal
▁carotid
▁conclu
▁cortisol
odynam
▁drin
▁resistant
aluation
odil
▁SG
▁cava
▁morbidity
▁aneurysm
lectomy
▁deterioration
▁Dopamine
▁coex
▁histamine
duce
▁resected
onium
▁abnormality
▁dissection
2%
▁12
12
▁intrap
▁0.0
clo
▁lar
▁myocardial
▁Increased
Ca
▁TC
▁hemodialysis
▁chloride
▁coronary
▁placenta
ACS
▁preven
▁substitu
-1)
▁feasibility
▁theore
lyc
▁palp
▁pleomorphic
fal
erations
▁vasomotor
mend
▁perox
▁microcirc
▁gluc
orrh
▁periodon
▁genic
treatment
▁sacr
▁steroid
▁precur
▁correlate
inally
▁hypoglycaemia
▁Tran
IU
ergy
▁desirable
▁lipoprotein
4.
gmental
▁sple
▁MRI
▁0.7
olol
▁phosphatid
▁Comparisons
noise
mia
▁respiratory
lyce
▁swelling
▁intramuscular
stro
▁CMV
tering
▁NB
▁radiological
cious
▁kidne
dominal
▁buc
▁cardi
▁correlations
ociation
▁tric
▁bronch
▁differe
▁APD
lob
agic
▁IGF
▁hygiene
▁suppres
▁estimating
▁AMI
▁amputation
▁sero
▁promo
▁ATP
▁micros
5%
▁aerob
▁ultrason
orepinephrine
▁mutations
ensi
olip
▁adhere
oagulation
▁etiology
▁locus
▁immig
▁trophob
▁0.01)
▁Intravenous
▁regimen
ecu
▁rabbit
▁5.
▁retrospective
▁inappropriate
▁anticoagulation
▁evid
9%
▁uncommon
tained
▁concom
rins
▁visually
▁deficiency
▁percutaneous
▁polymorphism
75
cysteine
roma
ovine
▁selective
▁postnatal
▁neurological
toc
▁0.5
▁neonatal
▁saliv
▁syndromes
fat
monstr
▁inversely
ffinity
dia
▁intrarenal
iotensin
▁grading
ilized
▁vein
otent
▁influenz
▁invasive
ilateral
▁masked
▁lumb
▁arter
oplasmic
intestinal
▁inflamm
tate
▁vitamin
▁RM
▁ascertain
▁deficiencies
tein
▁enteral
▁Considering
▁infiltration
▁RP
▁buccal
▁validity
▁progression
oride
▁suppressing
▁tubes
▁haemorrh
▁manipulations
ogenous
thre
▁granul
▁sequel
▁acet
NB
▁ventilation
utaneous
assium
▁Doppler
roxim
ritis
atab
▁extracellular
opi
▁LC
▁75
tivity
quit
▁disparity
▁reductions
▁CPAP
▁undertaken
orpor
▁distal
▁spati
ignant
▁depressive
▁chromosome
▁reper
▁1.5
▁prednisone
romes
▁lis
▁(10
▁inadequate
▁Clinical
▁doses
▁targe
▁oils
lier
ococcus
alp
▁RAR
▁reproduc
▁bir
▁discomfort
▁emphasizes
▁manu
▁SLE
▁ocul
▁inapp
▁limbs
▁undergone
tens
▁contralateral
▁fibrin
▁atrophy
erative
▁diluted
▁vena
cus
15
▁diagnose
▁implant
▁discern
lead
taken
osome
▁biochemical
▁predominant
▁deprivation
CMV
▁detectable
pecific
ameter
trop
jected
▁adenocarcinoma
uble
Tc
▁VL
▁curative
▁cultured
▁cephal
▁discontinued
▁RS
▁mell
▁intermittent
▁reduc
tized
▁moderately
▁fibroblasts
▁acad
entical
▁zinc
▁spinal
▁chloro
▁modestly
▁cholecystectomy
▁vulnerability
▁strains
▁cerebral
▁ultr
eptin
▁(2)
sess
iasis
▁nig
▁hygi
▁Chemical
▁cohort
trimental
onary
▁soybean
▁glycoprotein
1)
▁cystic
umably
orption
alc
▁intracellular
▁reflec
icin
▁Alternatively
etal
echanical
▁intest
tial
▁enzymes
▁carc
LF
2+
ediatric
▁0.1
▁immun
▁isch
▁mmHg
urea
luent
▁HG
▁cardiovascular
regn
▁lymphocyte
13
▁pulmonary
ficial
▁LVH
▁85
▁newborns
▁substances
▁Kupffer
▁nasal
mide
▁statis
▁fentanyl
▁peri
vents
▁FV
eces
▁atropine
▁pyram
▁unexplained
▁adjustment
▁necro
imination
▁intram
▁hemodynamics
ollicular
▁characteris
▁immunode
▁interv
▁perfor
istal
▁degradation
▁72
▁dopamine
▁implicated
sities
.7
geal
▁+/-
▁platelets
▁erythrocy
▁regression
▁tidal
▁micrograms
▁physici
abies
omod
▁GBS
atitis
immun
▁labeling
▁confined
▁57
▁proliferation
▁respondents
,000
▁anticoag
▁proximal
▁accumulation
▁cardiac
▁coeliac
farct
oru
ullary
70
▁secretion
▁26
▁hospitalization
anding
▁methyl
erin
ortic
▁onset
lowering
ectomy
gative
ocl
opam
▁polyp
gth
▁vesic
▁18
▁illustrate
oplas
helin
▁thromboemb
piration
gene
ococcal
responding
lesion
▁suppor
▁2,
TNF
▁(54
▁3
▁Prospective
▁lithotripsy
▁inherent
▁HC
▁trac
erving
ivariate
▁resour
▁melanoma
▁migraine
▁interventions
onset
reast
▁clinician
▁diagnoses
jec
▁PV
▁ganglion
▁hCG
▁sugges
▁histopathology
▁201
▁ultim
▁progest
vity
▁hepar
▁geriatric
▁therapeutic
▁blin
▁attrib
▁atten
▁inhibitors
olenic
din
69
tality
▁cholestasis
▁reflecting
▁familial
dial
30
▁intestinal
▁32
▁hypox
▁malignant
▁mV
▁bac
▁ranged
esti
ustif
31
▁perfusion
▁neurons
amn
▁predictors
▁gradients
▁toxin
▁endoscop
acting
▁1.6
▁Patients
TB
▁sampl
▁lact
▁concomitant
adily
eclampsia
▁polyethylene
▁elevation
Ka
ineal
▁recons
-1,
▁inhibin
crip
▁clones
▁gonad
▁aorta
▁IIb
▁circumferential
▁disruption
▁memb
▁synov
▁micron
▁extre
▁pulmon
idne
rogenic
▁gyn
▁resonance
pendent
enol
▁bacterial
▁intake
▁audi
▁Pretreatment
aventricular
stim
.2
▁preliminary
▁enhancing
▁Immun
OH
▁ischem
▁Compared
oratory
▁follicle
▁aureus
▁irritation
▁spontaneous
▁panc
▁spikes
dimer
omical
▁atmosp
▁complications
oxid
▁ageing
▁sedentary
earance
▁cAMP
79
▁monitored
▁undetectable
7%
2).
▁mitochondr
hemical
▁tumours
▁actin
▁lamin
▁prol
containing
▁synchronous
