genes
▁ovarian
▁bypass
▁diet
▁discharge
▁rats
▁fixation
▁urine
▁fentanyl
▁palsy
differentiated
▁cancers
▁tissue
▁carotid
▁eating
▁vitamin
▁saline
lateral
▁implantation
▁arterial
▁thyroid
carcinoma
▁spinal
▁thresholds
▁diabetes
▁mucosa
▁residual
▁onset
▁prevention
▁prosthesis
▁biopsies
▁wound
▁centers
▁symptom
▁fatigue
symptom
▁Students
▁professionals
▁categorized
creatine
▁mediated
▁mmHg
▁fractures
▁differentiated
▁bronchiectasis
▁concentrations
▁poorly
▁Compared
▁prophylactic
▁tomography
▁asthma
▁intravenous
▁stratified
▁prostate
▁providers
▁ward
▁antibiotic
▁complications
rectal
▁lymph
▁predictive
▁vaccine
adjusted
▁offspring
▁leukocyte
▁intervention
▁tailored
▁recurrence
▁ventilation
▁abdominal
▁staging
▁prognostic
▁lateral
▁coronary
▁classified
▁surgical
▁peripheral
venous
▁practitioner
▁anticoagulation
▁screening
▁resection
▁arthritis
▁demographics
▁LOS
▁fracture
▁tibial
▁emergency
gastric
▁GERD
▁diagnostic
▁aggressive
▁controlling
▁menopausal
▁mutation
▁lesions
▁infection
▁physicians
▁socioeconomic
▁pulmonary
▁creatine
▁alcohol
▁hypoxia
▁contamination
▁effectiveness
▁Cox
▁catheter
▁insertion
▁examined
▁antibiotics
▁caregivers
▁pressures
▁tube
▁residency
▁isolates
▁examination
▁paediatric
▁ethnic
▁laboratories
▁cholecystectomy
▁ischemia
▁incidence
▁availability
▁parity
▁ultrasound
▁symptomatic
▁spontaneous
▁retrospective
▁atrophy
▁cardiac
▁complication
▁gland
▁decelerations
▁chronic
▁tumor
▁prospective
▁angiography
▁cervical
▁limb
▁laboratory
▁demographic
▁screw
▁admission
▁odds
▁Medicare
▁receptor
therapy
▁admissions
▁Clinical
▁acupuncture
▁sectional
▁Scale
▁anxiety
▁histology
▁malignant
▁metastasis
▁aneurysm
▁findings
▁biopsy
▁cycloplegic
▁physician
▁PET
▁cardiovascular
▁airway
▁epinephrine
▁Patients
morbidity
▁infarction
▁psychiatric
▁schizophrenia
▁bowel
▁mice
▁clinical
▁liver
▁inflammatory
▁myomas
▁dose
▁aortic
▁imaging
vascular
▁systolic
▁multivariate
▁metastases
▁necrosis
▁cystectomy
▁clinic
▁attending
▁deformity
▁injuries
▁medications
▁insurance
▁impairment
▁Questionnaire
▁specimens
▁infusion
▁amputation
▁graft
▁moderate
▁adjusted
▁Mosaic
▁eligible
▁preoperative
▁recurrent
▁specificity
▁appendicitis
transplantation
▁axillary
▁trend
▁laparotomy
▁pneumonia
▁prescription
▁elevated
▁binge
▁radiotherapy
▁ischemic
stenosis
▁progression
▁exposure
▁hCG
▁obese
▁seizure
▁interventions
▁gastrointestinal
▁outcomes
▁lesion
▁oral
▁inflammation
▁uptake
▁concordance
▁longitudinal
▁percutaneous
▁diseases
▁resonance
▁illness
▁therapy
▁morbidity
▁emotional
▁medication
▁reviewed
▁chemotherapy
▁susceptibility
▁Patient
▁guidelines
▁placebo
▁pancreatic
▁dissection
▁influenza
▁untreated
▁ratios
▁gluten
▁adenocarcinoma
▁investigated
▁mobility
▁logistic
▁kidney
▁expectancy
▁prevalence
▁nursing
symptomatic
▁expenditures
▁scans
▁laparoscopic
▁insulin
▁stenosis
▁needles
▁diagnoses
▁depression
▁Significant
arthritis
▁prolonged
▁pelvis
▁rectal
▁facial
▁consensus
▁hypertension
▁hormone
▁muscle
▁arteries
▁tumours
▁serum
▁Statistical
▁GDM
▁hypertensive
▁Treatment
▁perceived
▁transfusion
▁adequate
▁examinations
▁unchanged
▁pregnancies
▁survival
▁resistant
▁biochemical
▁syndrome
▁patella
▁myocardial
▁carcinoma
▁assessment
▁gestation
▁pelvic
▁pregnant
▁psychotic
▁mild
▁bleeding
▁benign
▁diagnosed
▁adults
▁severity
▁fasting
▁doctors
menopausal
▁disorder
▁vaginal
▁postoperative
▁cTnI
cystectomy
▁smoking
▁ultrasonography
▁gastric
▁initiation
▁migraine
▁healing
▁bilateral
perfusion
▁genes
▁decreased
▁maternal
▁pancreas
▁sensitivity
▁tertiary
▁diabetic
▁tumors
thyroid
▁inhibitors
▁deaths
▁parotid
▁rupture
▁disorders
▁Median
▁pulse
▁contralateral
▁gestational
▁chest
▁knee
▁mellitus
▁intraoperative
▁mothers
▁reflux
▁tumour
▁infants
▁baseline
▁questionnaire
▁Cancer
▁symptoms
▁Retrospective
▁plasma
▁respondents
▁aureus
▁acute
▁hazard
▁bone
▁hospitalized
▁clinics
▁treatments
▁VAS
▁cohort
▁transplantation
▁needle
▁diagnosis
▁venous
▁toxicity
▁aspiration
▁pregnancy
▁vaccination
▁urinary
▁ventricular
▁deprivation
▁obesity
▁metastatic
adequate
▁atrial
▁relapse
▁renal
▁hemorrhage
▁vascular
toxicity
▁carriers
▁perception
▁glucose
▁anatomic
▁mortality
▁remission
▁secretion
▁enteral
▁neonatal
▁Overall
▁feeding
▁compliance
▁metformin
▁elderly
▁radiographs
▁hospitalization
▁awareness
▁invasive
▁perfusion
▁reperfusion
▁artery
▁knees
▁intensive
▁trauma
▁elective
▁adjustment
▁therapeutic
▁infections
▁hospitals
▁questionnaires
▁valve
▁surgery
▁fetal
▁pyloric
▁headache
▁drugs
▁Doppler
