retic
uretics
keletal
▁testosterone
alp
▁diets
▁cyt
enzyme
plants
uran
▁restric
▁Thirteen
▁positively
ongest
▁ane
▁underwent
▁allele
▁visualization
resist
▁localized
▁grading
-60
gents
▁competence
▁56
ration
▁(17
havi
▁gon
▁probe
andard
▁atherosclerotic
▁pulsed
quid
▁sedimentation
tein
46
9-
sy
▁propionate
7).
imens
xime
▁gly
▁89%
idic
▁TSH
▁occlusive
▁LN
▁5.2
▁reduc
▁latex
▁sodium
▁slowing
▁glucose
▁demonstrating
▁regulating
▁arrhythmia
▁14%
▁39
eled
▁persisted
fusion
▁incom
▁170
▁6.
SDS
▁Clin
itus
▁familial
▁selec
▁8.3
ymp
otre
▁hydrophilic
▁births
MG
aemic
▁129
▁hig
▁identif
▁Likewise
tility
▁surveillance
ologically
▁ranitidine
▁bup
▁genetic
▁3-
tivation
▁30-
79
▁regulate
▁unchanged
▁incision
▁(43
▁drin
▁qualitatively
▁injected
▁attributable
coh
▁acros
imeth
▁fulf
▁defects
▁evolved
9%
▁splenic
oic
5%),
insulin
▁phosphate
7-
eric
itidine
▁malign
▁enal
ocyte
▁0.6
▁abd
roscopy
▁resc
tensity
▁respec
▁endoscopic
amphenicol
▁drain
▁Evaluation
▁thresholds
▁developmental
▁nurses
▁augmentation
rected
▁spi
▁surgical
73
▁excluding
▁likelihood
▁Nineteen
went
▁chloride
▁salivary
▁10
partic
▁mg
▁prednisolone
oderm
▁anhydr
-2
▁isch
▁transc
▁neon
▁grains
▁bromocriptine
▁pellets
▁79%
icide
▁rats
▁3)
▁leuk
▁intake
▁extre
▁schedules
eryth
▁PCR
▁bacterial
affec
otropin
▁122
ochrome
-1.0
▁arteri
▁symp
▁64%
▁metabolism
▁scientif
effective
▁sten
lycemia
▁outbreak
ogens
▁gastric
▁(28
▁Calc
▁tuberculosis
ospasm
▁excision
▁hyperthyroid
RF
▁infertility
▁exacerb
80
ophilus
▁poorly
itone
frequency
▁concer
▁1.1
▁adolescent
ensitivity
uretic
▁premature
▁nec
▁cann
▁predictor
▁BM
▁polys
▁enzymes
hydropyridine
▁supr
▁muc
urys
inyl
▁hospitalized
roup
oxide
feeding
▁220
▁cardi
thmias
▁HS
▁successive
▁disturbance
tingu
▁24,
▁surgery
ylase
▁cyclooxygenase
limb
▁67%
▁algor
motic
cholesterol
▁3.2
▁isolates
▁98%
▁1000
▁inducing
▁tumors
▁CHF
▁compositions
ischemic
otypes
.2
▁immunosorbent
olone
exc
wes
oporosis
▁diastolic
▁investigations
▁plasminogen
▁acidic
ranial
▁PD
▁4.5
▁occurring
▁hypercal
reduced
BG
▁0.08
cortisone
▁surround
brom
▁stres
osclerosis
▁pump
romy
terin
▁0
▁clus
▁parox
▁78%
▁depression
▁2000
▁coated
renal
▁ultrasound
tural
▁Sixty
▁(22
▁undere
▁45%
▁leukotriene
▁ascer
▁vaccin
▁scans
▁84%
otting
▁infusions
dial
lobulin
▁renal
▁arth
▁(1.4
▁21,
▁(2)
▁inspiratory
▁expressing
▁(80
sis
▁plasm
▁progn
sectional
▁standardized
aired
▁67
amine
▁2%
▁angioplasty
▁prognosis
▁CB
▁blot
▁magnesium
eces
▁graded
ichia
▁antic
▁intracerebral
IgA
ffeine
55
▁estrogen
▁hygi
▁resul
OA
▁pharmacologic
▁euth
▁athletes
▁73%
associated
▁Epid
abdominal
Mu
▁24
▁brom
▁gonadotrop
▁HP
echanical
▁diabetic
opathological
▁traumatic
▁fetal
/3
▁74
▁(11
▁plasmin
▁squamous
▁96
▁infarct
thirds
▁dye
▁focal
48
ilization
▁treatments
▁57
▁strongest
▁agglutination
▁rehabilitation
▁adoles
LH
51
inamide
▁receptive
-13
▁diagnosed
8-
▁49
ughter
▁recr
▁fluoro
▁Addition
▁(32
63
5;
▁cerebro
fem
plied
▁restenosis
▁analgesia
▁psychosocial
▁hyperglycemia
▁synthesized
▁socio
▁autoimmune
▁calcium
60
▁55
▁exaggerated
▁hyperthyroidism
amic
▁4.4
ogl
sian
ilep
intestinal
300
▁hypotension
▁Treatment
aturated
nec
tained
▁pigment
enic
▁protective
▁89
▁sheath
▁46
▁implying
▁surgically
▁exploration
▁validity
trial
ditions
ulant
▁tamoxifen
▁atrophy
▁CRP
▁neuropathy
▁transplant
tig
▁PLP
▁Significantly
▁cere
onazole
▁(16
▁confirms
▁6-
▁perfor
▁abnormalities
▁2.0
▁babies
▁PG
CAM
iteal
▁genital
inase
▁renin
▁electrical
▁124
▁adjusted
elic
amination
respon
alc
ronchial
▁dermal
▁glands
▁(7
lysis
▁5.
▁seroton
▁Gluc
▁12,
tration
▁suppression
▁euthyroid
2)
▁caffeine
tensin
▁influenzae
▁microorganisms
esophageal
▁postin
▁Eighty
oprolol
sistent
▁30.
▁stimulation
31
▁titration
idase
▁(12
openia
rometry
thmia
▁(25
▁epid
▁articular
▁pelvic
tional
▁0.9%
▁hospitals
▁experi
▁78
▁sham
▁consensus
enal
amel
▁7.8
▁61
95
▁diet
▁65%
▁bowel
▁62%
4.
ecal
▁pancre
▁calcification
/8
▁judged
▁PH
sion
▁therapeutic
▁varies
▁paradox
▁10%
▁cancers
▁regurg
tate
▁neutralizing
protein
▁intensive
sively
▁sequelae
valence
▁Fib
▁18%
abies
▁ovulation
odine
▁2)
▁1970
▁immune
▁actin
▁incid
bly
apid
ventricular
▁morb
▁meal
7.
▁bip
rays
tics
▁arous
retin
▁32%
plast
▁5.1
▁unresponsive
acterial
▁18
mentation
▁bronchitis
tigo
▁immunogenic
▁IgG
irubin
:3
▁gentamicin
▁panc
trum
osity
amphetamine
9.
FSH
▁bronchial
▁82
ffin
▁pylori
23
▁LR
▁retention
▁ward
▁erythematosus
▁dextro
▁immunoglobulin
▁2.6
▁ank
▁analgesic
▁occl
0%)
▁0.20
▁hemoglobin
ocaine
▁prednisone
▁adap
▁Leuk
erence
▁fractures
50
▁kidney
RP
aturity
thood
▁recordings
▁incontinence
▁11%
till
▁3
▁106
elec
▁7.2
arb
▁assis
tations
▁15-
.2%
tec
▁compartments
-17
▁weighed
Rs
BH
▁reticul
▁obstruction
▁5.6
100
▁maturity
▁neutroph
▁contractions
▁92
▁exis
0.1
▁glycos
▁lep
▁concom
▁exclusion
▁ib
▁proteinuria
lox
mong
▁sour
accharide
ectom
▁femoral
▁parac
▁structural
achol
rein
▁sero
LV
roscop
▁HBsAg
▁lesser
▁nephropathy
▁encour
▁gonadotropin
▁Factor
immune
12
▁efficacious
▁ablation
converting
▁carotid
▁38%
entric
▁500
▁93%
▁modest
organic
▁anomalies
▁traum
▁Levels
▁48%
▁experimentally
▁5.0
orectal
▁alternating
▁awareness
.1
▁manifestations
▁concurrently
▁attain
▁600
▁1
farction
xia
ameth
▁preventive
▁predictive
ifedipine
▁surgeons
gm
▁horiz
▁34
blockers
▁145
ionine
plemented
mL
initi
tene
▁antidepress
▁plasma
▁Subjec
▁sampled
▁absorp
▁glycosylated
▁dosages
-90
▁pancreatitis
▁contraction
▁mmol
▁neonates
flammatory
▁ICU
▁anatomic
▁ovaries
versity
▁6.4
otype
▁5,
▁susceptibility
april
▁evaluating
▁RS
▁intraven
▁enlarged
inergic
▁angiotensin
▁remission
ardia
▁(5
▁nicot
▁123
▁58
▁(19
▁16
0)
iol
phic
▁brainstem
tally
6).
▁subjective
clin
▁progestin
▁nasal
▁concentrate
exposed
▁findings
▁aneurysms
▁obstructive
.0%
idation
▁tetracycline
ologists
▁anticoag
▁LV
▁60%
▁accurately
▁(0.4
▁Tran
rowth
▁doses
ogenic
▁immun
▁hemo
▁38
▁dosage
opic
ensi
97
▁auditory
▁LM
requ
▁epidemi
▁percentages
psych
▁pathologic
8%
42
▁differe
▁avoidance
▁calf
▁neurolep
▁eliminated
▁Haemophilus
▁12%
▁(30
▁grades
▁sustained
▁uterus
▁manifested
▁Chronic
rous
idespread
6),
▁uptake
▁repl
▁ingestion
▁59
▁lactation
▁coronary
▁presumed
lyc
▁terat
▁(39
iable
▁Phase
irub
▁mening
.0
▁amo
▁captopril
olism
oplasm
igible
eration
▁10,000
pH
▁cranial
▁3.0
ses
10.
▁10,
▁antimic
otent
▁HA
▁113
oyl
▁aureus
itro
greater
ipine
▁heterogene
onephritis
albumin
▁0.11
tioned
▁fiber
▁presenting
▁uncomplicated
thal
▁CN
orrh
▁definitive
▁oxytocin
▁tightly
orphine
▁potent
▁(1.3
200
68
▁canc
gus
▁35
▁dietary
▁71%
romes
otyp
▁21%
11
▁citrate
▁consciousness
▁tube
▁targeted
▁54%
athyroid
▁intermedi
▁responsiveness
▁presum
rogen
▁SG
▁5%
▁summarized
00
▁6.9
▁reductions
▁Increasing
18,
tant
-80
▁dysfunction
▁hir
▁marginal
▁modality
GH
▁(18
idine
▁thrombus
▁deform
trover
▁antib
▁fluc
▁postpartum
anking
▁objec
plic
▁21
ethyl
acetic
4/
▁antagonists
▁awake
▁substances
▁116
▁39%
▁amput
aline
▁(10
▁28%
opi
▁crosso
▁exposures
.7
▁1,
▁medications
▁regurgitation
53
▁7,
oprost
▁attenu
▁latent
▁requi
ventilation
▁quantitative
▁toxic
▁transit
▁dipyridamole
tency
atients
▁ionized
▁pituitary
▁nitrogen
▁Intr
▁caution
threatening
▁perioperative
upus
▁declined
▁donors
directed
venous
eptide
▁rotavirus
butamol
inely
▁endoscop
ferrin
▁aggressive
▁nicotine
ealand
▁nonc
▁hemorrh
▁progressive
▁laser
▁lesions
78
▁surf
▁recommendations
0%),
▁exag
▁salbutamol
▁84
ocated
▁pyr
▁expiratory
teroids
▁114
onstric
▁25
eight
▁tes
▁excluded
▁determines
olus
▁insufficiency
▁83
▁cros
▁99
▁4.8
piration
▁40.
▁pneumoniae
▁conges
▁lacking
tyl
▁artic
▁0.04
▁4.2
▁4%
▁Afric
▁sensitivities
allium
▁52
LISA
▁stain
▁epilepsy
▁109
▁nondiabetic
▁embolism
▁absorb
74
▁overt
▁weakness
▁40-
▁20
▁chronic
20
risk
▁(75
▁pulse
▁emphasized
-22
9%)
rief
▁resection
▁bradycardia
lobin
▁tubes
▁microscop
▁vitro
NH
horm
orated
onine
infection
▁pati
▁bic
▁nervous
▁Subsequent
▁artery
▁66%
▁1.25
iasis
oride
▁assays
▁hypo
ulum
▁discharged
▁perception
▁lesion
▁toge
osin
▁nausea
rolog
▁characteris
iotensin
▁enteric
▁53
▁cohort
orough
▁formulation
induc
IgM
▁embry
▁intest
▁ket
▁physicians
yridine
▁voluntary
oglobulin
diabetic
▁resonance
▁resour
monary
inj
odium
ophag
▁tric
lamp
9).
ortic
tors
amn
▁comparative
▁cervical
arbonate
▁(24
▁vertebral
▁venti
5),
ocrine
▁68
yrib
DNA
ithelial
▁dox
atell
▁junction
ept
▁Caucas
chol
▁TP
▁erythrocyte
ximum
▁leukocyte
▁1987
opathic
▁respiratory
diagn
methyl
inemia
▁2.8
mokers
▁Patient
▁31%
▁bactere
▁trauma
obenz
▁gains
▁disorder
▁ocular
50)
▁serum
▁33
▁discon
▁pregnancy
▁remo
▁concep
uscular
▁weakly
▁bypass
▁toxicity
▁immunobl
▁hypox
▁69
amphen
▁fecal
▁2,
▁VT
▁estimating
▁postprandial
▁dementia
conver
▁genotype
arbox
▁aluminum
▁0.9
aryl
▁herpes
TSH
▁tomography
▁enalapril
echan
▁atropine
1/
▁(46
.4%
ithm
▁elec
▁doubling
tivity
▁echocardi
gated
▁undergone
▁hypertensive
▁350
patients
ocarcinoma
71
3-
tile
▁pregn
▁7
▁1%
▁tetrac
▁neutrop
▁9
▁discontinued
▁(150
▁poten
▁fixation
floxacin
▁bone
aminophen
▁effec
tential
▁bladder
ophys
▁41%
▁injec
▁Dop
8)
induced
esin
▁vaccination
▁ischemia
▁stimulus
▁suscepti
▁recur
urations
▁mildly
rati
▁wors
▁(56
▁recruited
33
▁rehabil
▁histology
▁WHO
▁choline
▁118
▁efficacy
▁chorionic
▁ulcers
trical
▁100%
apamil
▁systematic
ygen
kage
▁perinatal
ymptomatic
regn
▁tumor
turb
65
▁interfer
1;
4;
▁wee
iatric
▁focusing
▁cholest
▁termination
▁persists
▁incontin
▁197
▁protr
▁110
▁54
▁indus
loro
oxif
▁lasted
36
brile
ayers
▁meth
bility
▁thereafter
▁nitroglycerin
▁excre
▁quantif
zation
▁40
▁scanning
tial
▁viruses
trained
5-
▁regimens
partum
▁assessment
85
▁tolerance
istar
▁esophageal
phosphon
arean
▁AFP
▁HPV
▁paired
mortem
2%
▁hyperp
roscopic
rogenic
mitted
▁analyzed
▁-3
ruc
▁comparisons
-12
aginal
▁107
moking
▁impaired
▁labeled
▁cyclospor
▁anesthetic
▁questionnai
▁diabetes
deficient
▁bloc
▁adren
▁decisions
okine
ocar
▁experim
3)
▁fractions
▁nodules
▁anesthesia
▁126
▁injections
▁PSA
anad
▁0.06
▁capsaicin
▁penicillin
▁neurotrans
4)
▁parental
nine
angiotensin
▁Fourteen
otoxicity
▁hepatic
▁Clinical
▁133
indolol
itin
▁casein
▁(1
▁reas
apse
▁6.1
-18
▁malignant
▁chec
parathyroidism
-1).
▁100-
▁hypers
bic
pir
▁carcinoma
▁acqui
▁unc
osamine
lated
ocyst
▁direc
▁activator
0.7
▁elic
omies
etan
yroid
▁adjus
▁PI
▁reproduc
▁DS
tissue
▁3.6
▁LT
uminal
▁8.
illin
▁inconsistent
kers
/24
▁imipramine
restricted
trates
▁bronch
operative
▁transmitted
▁asthmatic
▁possi
▁calories
▁105
▁compound
▁idiopathic
earing
▁theore
▁throm
▁constr
▁pep
▁lapa
▁Hear
amol
▁dosing
▁neurologic
▁classified
▁crossover
▁emerg
mol
oconstric
▁paral
availability
▁obese
▁cessation
▁200
▁electromy
▁perfusion
olute
▁retard
▁dysplasia
3).
▁23%
iline
▁altered
▁nifedipine
▁perceived
xate
▁computerized
▁0.1%
adren
93
▁affects
▁abdomen
▁ranging
acts
3/
▁investigated
ostatic
▁micros
phosph
3),
ocor
containing
▁continuing
otri
▁cystic
-24
▁genotypes
sych
▁hospitalization
weighted
▁epidemiological
struc
▁splen
▁antid
▁HSV
▁grain
bumin
▁16,
▁reveals
omized
▁Streptococcus
▁6,
▁manipulation
▁facial
▁behaviors
▁(1)
flamm
▁injur
average
▁outpatient
-10
fraction
▁vaccinated
vian
▁25%
▁enti
▁incorporated
▁targeting
▁elevations
idazole
▁trunk
sensitivity
▁restr
metic
iloride
▁Fifty
▁phenomenon
▁monthly
▁effusion
▁5.3
▁cholesterol
▁benz
▁(23
▁unstable
▁steroid
▁newborns
.9
▁4.3
toc
▁discontinu
▁26
▁spikes
-14
▁11,
▁routinely
acet
▁diuretic
▁identifying
38
ausea
▁rectal
▁maintaining
tic
1,
▁ischemic
uresis
cemia
▁mellitus
gth
▁infants
mental
▁contaminated
70
pli
▁distress
▁systematically
▁critically
rosy
▁Whereas
▁8.8
▁longitudinal
▁Statistical
thma
▁decade
▁regulation
▁kinase
▁qualitative
(2
▁diazepam
▁lipid
▁hypog
▁supplemented
▁36%
▁6.3
▁insertion
▁poin
▁suppres
uccess
▁1.6
▁52%
▁intrauterine
2),
▁selective
▁electrolyte
1.
▁baseline
▁Serum
▁lateral
▁skeletal
▁volunteers
▁decreasing
▁trend
▁methotrexate
▁plas
▁Lymph
occal
▁utilizing
▁1-
▁1990
sA
▁parathyroid
▁blocker
▁reflects
eliac
TG
▁caloric
ipit
▁risks
▁asymmetric
tiveness
▁biopsies
glycoprotein
blood
▁presumably
amycin
azole
▁consis
▁4.6
52
▁pregnancies
crib
▁adenomas
genic
:1
▁survival
uncture
0%).
▁bac
▁76
pig
▁balloon
▁hydrox
▁Measure
3%)
▁retinopathy
▁Alz
▁lymphocytes
▁56%
linked
▁83%
▁aberrant
▁duodenal
▁800
▁27%
lactam
▁carbohydrate
atrial
▁saphen
▁peripheral
▁manu
yses
▁minority
▁17,
▁superficial
jac
▁cereb
▁transcription
▁43
▁enlargement
odiaz
▁derm
iability
▁bicarbonate
▁Hep
▁eti
▁8.6
epti
toxic
1%
osterone
▁assessments
▁75%
▁Compared
0.4
gesterone
fetoprotein
promazine
▁gland
000.
▁diversity
▁2
▁balanced
▁cerebral
▁attitudes
▁amphetamine
▁coordination
tual
/6
▁neoplasia
▁Increases
etent
opathy
▁minimally
12-
50,
▁tach
▁doubled
.8
ypro
▁12
▁widespread
-35
▁diagnosis
▁1985
▁Recent
vated
▁intervention
reast
▁aspirin
▁glomerular
▁overnight
atab
▁11
0.2
▁clon
lamy
▁amiloride
▁allergen
sies
▁hydrocortisone
▁11-
7%)
▁discus
▁infections
▁lith
tum
urin
▁Hg
▁14,
▁-2
hemat
▁linearly
▁DBP
▁responsive
▁exud
ostic
aryn
triglycerid
▁clonidine
▁fetuses
▁laboratory
▁0.18
▁semen
▁simultaneous
▁chemicals
tral
▁ongoing
5%,
▁acutely
▁ae
mia
▁hypothyroidism
ateral
epithelial
-65
▁lidocaine
▁0.01).
igaret
▁juven
▁implicated
▁affinities
▁62
▁pulses
▁PP
▁frac
2%)
▁sut
PV
▁preterm
othal
▁limb
▁3.
▁achie
▁lacked
▁infectious
▁(10.
opr
▁0%
▁(15
isol
▁Sixteen
▁deterioration
usate
▁70
▁44
admill
▁HL
invasive
76
▁emergency
▁incis
treated
tisone
▁implants
▁7%
▁thrombocyt
▁HDL
oneph
▁moderate
▁promp
orbent
gely
▁NP
▁48
terone
▁ineffective
▁exten
▁rup
▁recipients
▁physici
▁valve
vices
▁97
62
▁15%
phil
orin
feren
triglycer
▁melan
▁(50
▁microbi
▁electrodes
▁gluc
tine
ropathy
HDL
glycer
▁intestinal
mg
▁cortisol
▁inflamm
00,
▁kidne
▁abrupt
▁42%
▁400
onate
▁94
▁100
▁antidepressant
atation
▁wounds
▁Acad
erebral
▁65
▁3%
▁specificity
▁excessive
▁HIV
▁electrolytes
▁bipolar
acerb
thyl
▁4.
▁stratified
▁3.5
▁exhaus
▁electr
▁solely
▁capsule
▁cardiac
▁dissection
▁50-
▁HI
olesterolemia
esity
▁paren
tric
▁(8
▁guidelines
anine
▁beats
▁adenocarcinoma
▁61%
-6
▁antagon
▁gradi
▁Reduc
▁ery
injection
▁inadequ
▁loos
urine
ifed
▁acquisition
▁7-
▁(44
▁gonad
▁microscopic
lux
mend
▁intolerance
▁indicators
▁syndromes
▁0.13
▁confound
.5
5%).
▁indomethacin
▁119
▁4)
▁dental
▁pharmacokinetic
▁therapies
▁cyclo
-16
▁induce
acr
▁onset
▁aspiration
▁alumin
▁Meas
120
▁participating
▁(38
▁(4-
▁resistant
tures
uded
▁surveys
▁provid
tur
▁comparable
▁staging
omycin
▁pharmac
mature
▁Interestingly
▁127
▁79
▁sequentially
▁31
tening
assium
entile
▁retrospectively
▁23
/1
▁oxy
▁stomach
▁2.5-
▁implications
▁prostatic
▁recurrent
oustic
chlor
lycer
▁sple
tosis
▁Ultras
▁Candida
arate
▁46%
▁acces
agic
▁detectable
ytoin
▁normotensive
▁defic
▁lis
uterine
Cu
▁predominant
96
orec
aicin
jun
opausal
▁deoxy
▁101
▁ESR
urgical
iminary
onvul
27
▁glut
▁irr
▁mucosa
▁sampl
▁8.1
yzed
romycin
▁graft
1),
▁bilirubin
▁cyclosporine
ignificant
osyl
bacco
▁deterior
▁thrombo
49
▁normalization
vac
▁73
▁pregnant
9),
ocellular
tizing
BM
▁lowered
10,
yro
▁29
▁endometrium
▁reliability
ocon
▁depressive
ophil
▁MH
oprol
▁sensitivity
tenance
▁glucocorticoid
▁precursors
▁deviations
odipine
ochem
▁agonist
▁saphenous
▁triglycer
spective
▁treating
▁DT
▁tended
▁weighing
▁108
▁2.1
▁challen
▁132
▁latency
▁supple
▁Injection
trin
▁adrenal
osom
▁pancreatic
fec
▁suspected
▁140
▁measurable
-36
▁soy
sions
▁endogenous
onegative
▁abuse
▁luteinizing
▁calor
▁preparation
▁weigh
▁orally
blind
▁neonatal
▁interf
feron
▁9.2
razole
▁coli
opath
-1)
▁folate
▁arthritis
25
▁aqueous
▁malignancy
▁stepwise
▁glyc
▁137
itant
pregnant
▁leakage
elan
matic
▁37%
▁bilateral
orpor
quine
▁ureter
▁protoc
▁behavi
pite
▁opioid
▁reactive
-50
Bs
▁retrospective
▁triglycerides
astatin
▁titers
▁stimul
▁81%
▁Sodium
▁rhy
▁adipocytes
▁revascular
▁logistic
tured
▁bioavailability
onad
oglobin
▁amputation
0.5
▁intermittent
▁polysaccharide
▁0.12
▁heavi
▁circulatory
▁depressed
▁Bacter
▁Recently
▁adop
sives
▁encephalopathy
otrexate
▁80
▁Patients
61
▁inherent
▁tol
▁supplements
▁196
▁Eleven
1-
loxacin
▁screened
▁smears
▁allergic
ermal
▁adequ
olated
ococcal
▁(4
▁differentiated
trac
6)
▁examinations
▁encephal
essation
▁initiated
▁cyst
traum
▁75
▁endocrine
▁3.1
amide
tially
▁feeding
ometh
▁adhesive
▁responded
▁suppressed
tious
▁Calcium
-3
BP
▁lute
acute
LDL
▁interventions
▁untreated
▁therapy
▁calcitonin
▁predicting
▁28
▁metastases
oung
▁complication
▁mL
.9%)
olved
▁gonadotrophin
▁amniotic
▁horm
.1%
▁immunoblot
▁58%
icated
ositi
▁Twelve
▁30%
▁37
antial
odal
▁admissions
embry
ications
▁trimester
ritin
14)
gative
▁acute
▁symptomatic
▁aging
ignific
emic
corrected
ociated
▁glomerul
▁3).
▁PV
habil
▁hepat
▁immunos
▁subf
oprotein
amid
HB
▁lithium
teral
▁endemic
▁Unlike
▁ascertain
▁postmortem
▁inges
ystic
▁Estim
▁PE
olec
illary
utaneous
▁recurrence
adequ
▁99%
▁9-
▁deficiency
roma
▁Insulin
amuscular
▁bleeding
600
▁tox
▁0.7
▁histological
oxyl
rhy
▁1)
19
atology
▁dehyd
▁exhibited
▁steroids
▁(14
▁10-
▁autoantibodies
▁amin
▁cerv
▁CHD
▁ECG
▁infec
▁systolic
itrate
arachnoid
tropin
▁cytochrome
▁scre
▁7.9
▁ND
▁phosph
shaped
▁examination
vaccin
▁biop
tact
▁endometrial
olysis
▁psychiatric
▁extracts
ximal
▁vitamin
▁rheum
▁abnormally
enol
lytic
▁lutein
ported
ceptive
▁clinically
▁1.3
▁subgroups
hydr
▁creatinine
illus
acid
▁ech
economic
▁neutrophil
▁clinics
parathyroid
▁tas
dominal
educ
▁specialized
▁deficit
▁serotonergic
tent
▁suppor
hyd
▁uro
▁hepatitis
▁86
▁dehydration
▁hydrop
▁propranolol
density
4-
arent
▁inadequate
pran
▁interferon
forming
unctional
▁heal
▁(1.2
olig
▁hygiene
▁0.10
▁angina
ocl
▁epidural
ching
▁posi
▁fetus
▁nocturnal
▁influenz
▁mood
lude
▁mortality
▁explored
▁pneumon
inesterase
▁Abnormal
▁tubercul
▁distinguishing
▁contex
▁conservative
esic
▁regimen
▁tissue
▁microb
▁instruc
▁(9
▁attenuation
▁tiss
▁blockers
▁tymp
▁contamin
▁chronically
▁accid
▁50%,
-25
kelihood
▁antibiotics
▁serological
stim
ariate
▁benign
ocial
▁0.05
▁ligament
▁drugs
erative
ipr
▁intact
tussis
▁74%
▁retinal
▁epidemiologic
▁compounds
▁accounting
aid
▁commercially
▁immunization
▁polyc
▁8.5
▁crom
ayed
▁demonstrates
letion
ofl
xual
itary
▁Increas
▁involvement
▁0.15
▁100,
0.8
taining
▁wound
▁Tes
olesterol
epam
sess
▁urinary
▁infusion
▁8.2
▁fluor
idis
▁mild
▁decreases
▁glycol
▁placental
▁coenzyme
▁bolus
ucose
tation
▁fasting
▁concentrations
▁exhibiting
▁antioxid
ulose
▁needle
urnal
▁7.6
-5)
▁fever
▁elastic
reactivity
fat
▁DMP
▁physiological
▁fibrosis
▁Significant
▁mec
owever
▁heparin
orption
urate
▁monitored
47
vul
▁cardiovascular
▁64
▁colitis
▁PEG
500
▁postural
▁offspring
▁5.7
35
▁mU
▁cavity
ensitive
cture
▁dose
leu
▁deleterious
▁Subjects
▁inversion
llate
▁drainage
ipheral
▁enhanced
▁pharm
▁controlling
▁Disease
▁glucocorticoids
ocytes
▁flora
gestin
▁adolescents
▁zinc
itol
▁criterion
▁insufficient
▁(26
omerular
▁osm
▁GA
▁metabolic
▁acetyl
▁adip
▁hypertension
ergic
gluc
▁anxiety
avail
▁Consequently
6%
ffec
▁clinic
▁(2.5
ophilic
▁reflex
▁enrol
▁MIC
▁excretion
▁0.0
40
▁4.7
▁albumin
▁diaz
venty
pressing
▁phenotype
▁analges
▁oste
▁ethnic
.9%
▁nonpregnant
▁lact
▁identi
▁VA
ureus
▁aspec
idin
▁uncom
tition
▁interleukin
▁formulations
▁rupture
▁pediatric
azepam
▁atten
▁reversible
acted
▁insoluble
entical
-15
▁Evidence
▁0.00
▁duoden
1).
▁cognitive
▁hematologic
aryng
▁tracts
▁hetero
▁(45
angl
▁90
▁9.
▁fatigue
▁histopath
lym
2,000
sibility
▁96%
hep
▁hyperplasia
▁unaffected
▁intravenous
▁deter
▁-0.
▁differing
▁81
56
▁thickness
▁survived
▁1980
▁chan
▁ejac
▁puncture
2-
▁tension
▁headache
▁47
59
▁ey
▁streptococci
▁45
▁pts
77
▁wheat
▁transi
▁carcinomas
dL
ceived
▁77%
lives
▁nons
▁0.17
tia
pecific
▁duplex
cyt
▁elevation
▁olive
▁inhibit
▁bathing
▁extracorporeal
lep
▁surveyed
▁18,
▁(4)
▁(300
▁ascorbic
▁agon
▁enhances
▁glycoprotein
▁relaxation
pread
yrid
▁prolactin
▁intrap
▁initiating
▁verapamil
tle
▁discontinuation
-3.
otox
▁anomal
tron
▁metoprolol
encephal
sant
▁Diagn
▁enl
▁reactions
▁lowering
▁86%
ctive
▁bacter
▁elas
sequent
▁optimum
rowing
▁cough
▁bacteria
▁crucial
prandial
trib
entral
titis
tensive
▁PT
▁ranged
▁1989
omes
▁strategies
▁4).
▁stom
▁guinea
▁moderately
▁monit
▁prophylaxis
▁cooling
SAID
▁discharge
▁filtration
▁occupational
▁ventil
▁emotional
ipro
osomal
▁250
erating
antibody
▁vaccine
▁35%
molality
▁repor
▁preven
rosemide
▁kit
▁infected
ociation
▁fati
ographically
▁questionnaires
Ds
▁extrap
estrogen
▁0.14
99
26
▁reversed
▁10.
▁Ace
ocytosis
▁liver
farin
plete
▁irrit
▁131
▁cryp
,000
ocyt
83
▁desm
tracted
▁predic
▁pronounced
▁emo
Cs
▁85%
oes
▁inflammatory
zard
vitamin
▁FEV
hospital
oxin
▁2.
tif
▁muscul
▁adul
▁ultrasonography
▁healing
usive
ervical
▁poorer
▁Examination
▁atenolol
taz
ycin
▁competent
▁postmenopausal
erin
▁potenti
▁tendon
▁19,
▁inver
▁hydrochloride
▁spon
▁12-
traction
ffer
▁-7
▁(0.
▁cured
▁inh
▁triglyceride
▁analyses
▁sugars
▁reser
.5%
▁symptom
▁fracture
▁33%
▁5)
▁functioning
▁automated
vival
▁thrombosis
▁persis
0%.
▁indication
opl
▁metastatic
sulf
▁unil
▁rhin
▁Alzheimer
▁trials
▁substanti
▁unex
▁vesicles
▁osteoporosis
▁6%
41
▁ferritin
5.
▁Scale
ulatory
▁prolonged
▁uric
▁physician
▁conduc
▁alcoh
.8%
▁34%
▁infar
▁lipophilic
ordance
iotic
▁construc
▁advan
ycl
▁97%
-4
ostomy
kets
▁24%
▁2.9
acrine
lipid
▁unm
▁16%
▁rated
▁26%
▁examin
▁questionnaire
75
-23
▁serolog
uation
▁Bec
▁psor
▁durations
▁enrolled
▁normalized
otoxic
▁9%
▁reproductive
3%
▁relapses
ials
▁Cancer
3;
▁supra
▁postnatal
omegaly
tively
▁Swed
▁2-
▁neurogenic
▁spasm
duced
onit
▁anaerobic
▁topical
▁endoscopy
▁answ
▁88%
▁0.2
olol
▁EG
▁Doppler
idity
median
amily
▁angi
▁trich
-20
▁32
▁instr
odop
▁satis
▁lacks
▁disseminated
▁reflec
▁increments
▁airway
-1.1
▁impair
Hb
opril
▁tertiary
othi
placement
▁threefold
▁kidneys
▁esterase
-0.
vail
acin
oretic
▁organic
▁synthetic
osts
oxic
-2)
▁employment
▁withdrawal
▁cultured
▁pressures
▁5.5
terol
▁63%
▁superf
▁synthesize
▁Thir
illance
▁alcoholic
usal
▁antibody
67
thyroid
▁cytology
▁autosomal
/2
/4
▁(0.5
▁comprising
▁illness
▁hypoglycemia
▁66
lys
ritic
▁7.
▁hematoma
▁-4
▁enlarge
▁thromb
▁sorb
▁examined
39
17
▁anemia
▁transaminase
ograms
▁usefulness
▁perc
▁sexually
▁pertussis
10-
▁detecting
▁transluminal
▁aspir
▁3.9
inated
posure
▁Oral
topril
▁EE
▁diminished
▁Ninety
▁newborn
partate
molecular
tory
▁compartment
▁digoxin
cessive
▁LD
apsulated
▁amn
▁vomiting
▁demonstrable
▁noc
▁resec
▁radiological
itonin
entif
▁initiation
▁numb
▁1.2
▁sepsis
▁(3)
5,
▁Neither
orrhea
▁TM
ignant
▁hypothalamic
▁Reduction
▁spinal
▁supplementation
▁3.8
▁diuretics
oscop
▁copper
trol
ysts
▁myc
▁1.9
▁Haem
sive
▁limbs
▁reliably
88
▁fibr
matched
▁accounted
▁8-
▁130
Hg
▁melanoma
▁spine
ercise
oxifen
▁establishing
▁4.1
▁hormone
▁complications
ereb
▁0.01
▁excised
▁constituted
▁brush
VT
echn
▁stratif
ucl
andida
▁gradual
irds
yx
▁colonic
▁22%
▁pathology
▁progesterone
▁agonists
▁capillary
▁carbohydrates
▁(21
releasing
▁strain
▁hazard
▁antiarrhythmic
▁112
ritis
onset
▁Holter
▁limiting
▁mann
▁underg
▁Seventeen
15
astric
▁5.4
5).
hers
iaz
▁contributing
ilateral
▁gestational
leukin
▁favorable
jec
▁apnea
cycl
▁(500
▁outflow
450
▁85
▁mineral
▁29%
4%
ionate
▁attending
▁comprised
▁24-
titution
tituted
▁sti
▁relaxant
yroxine
▁vasoconstric
assi
▁helical
▁characterized
plies
▁benzodiazepine
▁5.8
elves
ectomy
1)
▁Prel
2).
thre
onyl
atched
4%)
▁symptoms
astolic
86
omiting
6.
▁prevention
▁abnormality
▁fertility
ticular
▁malignancies
▁proportions
▁schiz
▁alanine
▁perin
▁assessed
▁alcohol
rocyte
▁saturation
▁disability
▁diabe
duc
0-
▁IgA
▁depres
▁benzo
▁hereditary
▁thems
▁0.
▁(27
▁seronegative
essive
▁disorders
estis
▁respon
▁omega
▁HLA
▁concomitant
vular
ocardi
▁methionine
icine
cepti
▁plac
atible
responding
▁shortened
▁congestive
vascular
asic
-34
▁immunocomp
ifferen
▁MRI
▁tolerated
▁exceeded
▁heterozygous
▁gastro
orh
olution
▁radiographic
▁insignificant
▁clinical
▁statistically
hydroxyp
▁vein
▁ect
idne
lood
72
▁adjustment
▁statis
▁0.02
▁suggestive
ascular
▁102
▁Thirty
ocortic
okinetic
ospitals
▁antibodies
entricular
▁schizophrenia
▁normo
▁diagnoses
▁pyrid
ecu
▁Coronary
iph
▁(40
▁improving
▁suppressive
▁cytologic
lact
0%,
bodies
▁assay
▁1983
teroidal
▁twofold
▁128
▁progres
▁raises
▁progression
▁ratios
▁50%
▁decline
▁homogeneity
▁evid
ture
arge
▁antagonist
trop
▁cen
alian
▁fibrillation
44
▁Seventy
etine
odil
opamine
dine
acental
tox
5%)
ophen
ureth
seven
meth
▁bacteremia
▁establ
▁120
▁abor
acting
tering
▁peroxide
effec
▁multim
anin
▁0.4
▁hypot
▁beneficial
▁tibial
▁sput
▁initiate
thmatic
▁pretreated
▁Hyd
▁overl
▁hypercalcemia
▁deposition
ronch
▁oxygen
▁asthma
▁retardation
▁20,
▁conditioning
▁antimicrobial
▁concentrated
▁Mortality
alsy
rocy
ocin
▁struc
▁prol
▁dissemin
▁quantit
tinu
uprofen
otassium
▁antis
▁basal
▁cran
▁rhe
▁prednis
6,
peptide
▁withdrawn
▁mell
▁neuro
oxy
▁cutaneous
erge
14
▁dys
▁encomp
▁1:
cyclic
treatment
yclo
▁ovarian
rofen
▁0.03
aund
▁7.1
comitant
osocial
▁confirming
▁puls
▁hydrogen
▁reveal
tensives
▁hep
0.6
▁60-
▁perox
▁daytime
▁reinforce
▁asymptomatic
▁1.4
uble
rease
▁yielding
%),
omal
▁transferrin
▁therap
erad
bral
▁HB
▁pH
▁upright
▁assessing
immun
Gs
▁failures
▁fatty
57
atical
▁practic
existing
▁postoperatively
▁sedation
▁91%
▁erythromycin
▁receptors
▁-6
atoid
▁ana
▁blacks
▁hyperb
▁improves
▁5
ressed
▁veins
▁confirmation
▁anat
▁reflux
▁chloramphenicol
▁carcin
promoting
1%)
▁cerebrovascular
▁soluble
▁76%
yel
▁lipoprotein
▁7.5
mented
▁validated
▁sulf
▁examining
▁osmotic
umerous
▁granul
▁prescribed
▁vesicle
epines
icep
▁reactivity
vents
▁preoperative
▁70%
-100
radi
adjusted
▁92%
▁yielded
▁perforation
▁68%
9,
▁dihydro
ochrom
▁ELISA
▁extrac
▁uter
▁consecu
▁87%
vation
sue
▁mono
BT
34
▁circumference
esium
▁100,000
▁elderly
64
plas
ceptions
▁strains
▁affec
mediately
▁gases
▁percutaneous
atosis
▁surge
▁produc
PCR
cence
▁increas
entified
/100
▁intran
45
▁comprehensive
66
-6,
hetamine
▁distal
▁thyroxine
▁72%
▁103
osus
▁urea
▁substantially
ortal
▁1.
▁carbohyd
▁retur
▁hyperg
amus
plications
▁atopic
▁fluids
▁pulmonary
▁knee
▁shorten
▁TS
▁thi
▁25-
▁prognostic
▁progressed
▁2.5
▁1.0
▁sensi
▁0.1
icillin
ctomy
uric
▁diarrh
▁admission
▁detec
▁continuously
▁lipids
▁6
▁OA
▁relap
▁hypothal
▁menstr
trogen
lyce
osal
▁carriers
▁wash
▁margins
▁Fifteen
▁coag
▁0.5,
▁smo
▁serotypes
▁accidents
▁capsules
bladder
▁0.5%
▁cis
asal
92
▁compli
▁60
adily
early
▁secreted
▁Leu
▁stu
▁poisoning
oste
▁gels
ication
69
▁effectiveness
▁inhib
16
▁abscess
actin
▁pig
▁reviewed
▁pooled
arrhythmic
▁Approximately
▁(95%
▁decarboxylase
hydrox
▁10.5
▁multicenter
▁-5
▁contracep
aternal
▁attrib
usp
selec
hist
natal
gthen
▁variability
▁multic
hypertensive
otor
hion
adm
▁biochemical
▁syndrome
timal
ectin
▁defec
0.9
.4
ulin
.00
onin
▁buc
13
▁aden
▁aimed
tin
▁modalities
▁Combin
stimulating
▁gyn
▁receptor
itr
▁centers
leuk
bacter
▁prophylactic
hyp
43
7),
▁199
▁prenatal
▁cate
▁chest
aric
tative
▁invasive
▁prophyl
reactive
21
▁metast
30
▁exposure
▁luteal
tiary
▁leukotri
-2.
idate
▁smoking
▁esophag
▁mothers
▁ori
▁membranes
▁4-
▁fibros
▁qualit
ituit
▁hypoxic
lec
▁pathophysiology
ologic
▁investigators
▁aerobic
ighted
▁13%
▁sequenced
▁suspension
hydro
▁estradiol
▁wk
ucle
reased
molec
▁menstrual
▁socioeconomic
▁stool
▁carbam
▁0.07
▁8.4
▁undergo
yclic
▁125
▁TI
arynx
robial
.7%
▁(3
▁cephal
▁ascorb
meas
▁stab
ilic
atient
years
scherichia
fib
▁heterogeneity
▁promin
▁congen
▁smear
athy
▁additionally
▁attemp
▁87
▁stric
▁pyl
▁analogue
▁47%
clinical
▁plaques
▁Surgical
establ
▁55%
▁Preliminary
▁oral
▁practitioners
▁160
▁clamp
▁chemically
rox
generation
▁prostaglandin
▁uterine
▁underst
coun
merc
oric
▁IgM
6-
versely
▁outcomes
rele
▁serologic
oidal
▁ppm
▁slowed
ergen
▁sputum
ancies
centr
▁affecting
▁dexamethasone
▁117
ogenous
ffinities
▁dermatitis
▁quantified
armac
▁membran
ylated
▁4.0
piratory
0,000
uled
▁Positive
▁Thy
tiz
oracic
galy
▁virtually
▁lupus
▁opioids
4).
ameter
▁complaints
▁arter
ethylene
▁nonspecific
▁Additional
▁0.3
▁aerosol
▁healthy
▁injuries
▁suture
▁sugges
▁diagnostic
ocardial
▁childhood
▁intrac
▁unrelated
7)
ogenicity
▁elective
epine
▁fluoride
rents
olamine
▁xyl
erated
▁psychological
tivities
▁describ
▁intub
▁randomized
▁instrum
iotics
▁proce
▁8
▁previ
▁300
ingle
▁Comparison
Gl
▁2.4
▁deaths
▁perip
▁tooth
▁predis
▁hypothe
▁antibiotic
ipramine
atectomy
▁pate
▁systemic
inflammatory
3.
▁1/
▁Nine
▁mamm
GD
▁nutrition
▁30
idney
▁(100
▁27
▁interc
▁conjunction
▁uncommon
omat
▁biopsy
tically
▁etiology
▁prevalence
▁Tiss
▁LDL
▁mobilization
▁relie
▁hydroly
▁44%
▁indications
▁dilatation
▁determining
rates
▁probes
positive
reness
entia
▁pneumonia
▁freeze
mega
CAP
▁complic
▁androgen
rologic
ovascular
viral
▁Relative
▁prospective
oxid
▁enamel
▁20.
olic
agonist
▁exagger
▁congenital
▁medication
▁biphasic
▁esters
▁cumulative
▁cytoch
sibly
▁consumed
0.
▁elevated
▁visits
▁adequate
▁measuring
▁hypertro
▁interviewed
kine
plicated
enteric
▁DF
abd
▁adi
▁glomer
▁histologic
▁venous
▁satur
▁inducer
tice
▁cigarette
▁idi
▁esophagus
▁Overall
▁inhaled
▁preparations
.6%
tinguish
▁(31
▁jaund
tus
▁150
▁excl
▁gonadotroph
anic
▁cef
ycline
▁diffic
estern
▁FT
▁82%
▁demands
▁inhibitory
▁0.5
▁exce
▁RR
-45
▁hemorrhagic
▁amplification
▁ciprofloxacin
0.3
▁verbal
▁predominantly
▁arti
▁functionally
▁diarrhea
kely
uppression
duction
▁48-
▁endo
▁neutropenia
▁3.3
▁glutamic
ranolol
10)
▁recor
xone
▁acet
tention
▁emulsion
vely
▁sediment
-7
▁4.9
▁differen
▁viral
▁evaluations
responsive
▁obesity
▁aspartate
▁lumbar
▁spont
▁practition
aturation
▁acetate
anol
▁solitary
▁prospectively
mittent
▁disturbances
8%)
▁colorectal
▁controver
.3
▁arrhythmias
produc
▁91
▁ambulatory
▁thyroid
azol
responders
▁anticoagulant
98
▁dex
▁(2
▁Individual
▁Tissue
inally
▁Phen
iazide
eptin
▁Hb
▁predictors
▁carb
▁correlated
His
▁reflecting
▁ulcer
8.
▁77
▁coagulation
▁rhythm
▁extensor
▁Americ
ults
▁chol
▁carc
ressing
▁differed
▁ankle
oscopy
▁53%
▁spleens
onary
▁0.8
▁biological
aryngeal
ducing
dose
idone
▁saturated
▁13-
▁HR
urther
HF
▁233
pregn
28
▁protec
▁abortion
ophageal
icin
▁undergoing
arrhy
hydrop
▁-1
▁juice
▁adversely
luding
eak
2.
eprazole
▁inhibitors
▁nig
▁Subsequently
▁infection
2,
▁135
(1
▁(0
▁abdominal
▁88
edema
▁intra
▁reass
respective
tiv
▁Peak
▁peritoneal
▁patches
▁diseases
▁tablets
ovirus
▁retin
▁40%
chloride
thmic
geal
▁20%
▁intracranial
▁ester
▁peaked
▁prevented
▁conductance
ially
▁(20
▁17-
▁8%
.3%
▁intramuscular
▁Forty
▁severely
▁deoxyrib
▁50,
▁inappropriate
▁(6
▁spontaneous
▁71
▁chemotherapy
▁acids
▁pleural
▁insulin
▁relapse
Ps
▁4
▁discriminate
▁ulc
▁hemat
resistant
▁cortic
▁pretreatment
▁3.4
▁reproducible
▁deox
▁eryth
▁HbA
eal
▁placement
▁lavage
amethasone
▁TC
▁hered
etoprotein
▁tobacco
▁washout
000
8),
▁antigen
▁dors
▁adulthood
-5
▁efficac
orts
▁1.7
6%)
fed
▁quin
▁monotherapy
▁dias
▁microvascular
▁immunotherapy
▁hypertrophy
▁transient
▁(1.6
odies
▁40,
▁neph
erance
ontal
oxygen
▁couns
▁43%
tens
▁choles
iagn
▁molecule
BV
▁elimination
muscle
▁ligation
▁Maximum
▁3.7
▁0.35
▁caries
▁multiv
embran
ventil
▁severity
▁maternal
▁placenta
▁cesarean
tee
▁sulfate
oluble
idated
▁rheumatic
oratory
tomy
▁adults
▁techniqu
▁CAP
▁90%
pation
▁13,
▁thromboemb
minute
▁breathing
ergy
-1.
0%
▁Initi
▁atypical
▁specificities
▁shor
94
▁glucocortic
▁nerve
iant
▁15,
▁cartil
▁succin
▁intrav
aminase
▁operative
▁morphine
omotor
rosis
gic
cys
▁perit
▁methodology
ficial
▁preventing
▁compliance
ithi
▁Twenty
▁duct
▁mice
ediatric
ypical
▁Severe
adrenergic
▁creatine
▁averaged
▁synovial
▁stenosis
▁20-
RR
▁spor
▁vaginal
amous
achnoid
ithin
▁13
▁inflammation
▁rigid
▁angiography
ophren
▁12.5
▁lumen
-19
▁incomp
2/
▁hepatocellular
▁proximal
arly
operatively
measured
▁averaging
0.0
▁chlor
achn
acchar
▁placebo
cysteine
iciency
ymptom
▁2.2
tage
▁cruc
▁93
▁refractory
▁2.3
sus
▁cysts
▁immunity
tions
onor
▁proton
▁subarachnoid
▁bronchodil
▁chor
rine
▁kinases
dered
▁conclusions
▁dysp
▁vascular
ospor
onomic
▁decreased
veness
▁cys
cents
▁edema
8,
▁hyperch
5%
anding
▁behavioral
▁acetic
54
▁analys
IU
10
amole
▁correlates
micro
▁gestation
onucle
▁somatic
▁iso
▁(1.5
▁malformations
▁referral
▁ejection
▁corticosteroid
modified
▁0.25
▁enzyme
▁9.0
-9
▁juvenile
▁stren
▁Increased
▁considerably
▁imaging
▁dopamine
▁intense
zyme
▁subjec
-70
glycerin
▁inhibitor
▁lasting
▁surgeon
▁19
▁104
jected
▁beha
▁(33
▁noninvasive
ocys
▁42
▁19%
▁vag
▁cultures
▁ultras
▁95
ylic
▁suicide
luded
▁0.75
▁EB
▁polyp
ensity
enh
▁contraceptive
▁eligible
ampl
5)
omethacin
▁1.5
▁Eight
prising
▁ampicillin
▁physiology
▁residual
terase
sia
▁incub
Ts
▁1.8
▁14
▁furosemide
▁allergy
▁cartilage
▁mitral
▁mast
timulation
ochemical
onography
▁(0.0
▁absorption
▁polyethylene
▁Concentrations
4,
adder
37
▁causal
▁resting
▁saliv
▁3,
▁estrogens
erate
ocomp
menopausal
▁neurop
▁multivariate
▁41
▁foods
0,
▁thir
controlled
▁induc
▁pneum
▁inversely
▁intram
▁5-
dition
titute
▁Escherichia
ergency
7%
22
tance
urea
▁plateau
teroid
▁approx
▁25,
▁(42
32
▁corticosteroids
tro
acil
8).
dle
▁disclosed
▁incidence
ucas
▁precur
▁testicular
▁odds
▁rele
▁10.0
▁Higher
▁195
ophy
▁ventilation
▁abnormal
▁methyl
▁1986
▁9,
▁198
tran
▁95%
▁meals
MH
▁muscle
bearing
aind
▁94%
sor
sors
▁ventricular
tives
ominant
asting
▁quanti
▁subc
▁hypothyroid
▁decarbox
▁potassium
otherapy
58
▁oxygenation
▁hyperlipid
▁decreas
▁simplex
▁secretagog
opres
▁Staphylococcus
▁115
amicin
tive
▁BCG
DH
oids
▁(1.0
tents
▁urine
▁swit
▁arterial
▁islet
throm
▁secrete
enicillin
aced
opa
▁Myocardial
▁bacteri
▁Arter
drug
▁transfusion
90
siveness
▁colonization
▁(48
▁arousal
▁markedly
duce
▁CAD
erent
bac
9)
apanese
▁lymph
▁inhal
seud
spectively
asone
tical
▁0.09
▁Survival
-0
▁flexor
/10
▁9.5
▁infarction
▁smokers
▁reac
▁immunized
24
▁recurrences
itamin
lusion
▁dermat
▁differentiate
effects
ecre
▁Functional
/12
cine
▁omeprazole
▁Myc
arrh
urgery
▁consistently
▁pharmacokine
▁700
▁8.0
▁adverse
▁121
▁indi
▁mEq
▁influenza
trated
orac
▁myocardial
▁6.2
thi
▁treadmill
▁144
oag
90)
icient
hea
▁MI
▁80%
administration
▁subcutaneous
queous
▁amph
▁rati
olytic
-1
▁testis
rated
▁electroly
-8
plasia
yrox
▁hemorrhage
tension
.6
▁adequately
▁cure
▁bab
oscopic
coated
▁6.6
wk
oreal
▁31,
▁98
▁ure
▁dimethyl
▁supplement
▁challenges
pain
ysm
▁nitro
▁51
amines
▁impairment
▁50
▁dramatic
▁atrial
▁histamine
▁yeast
▁morbidity
▁7.7
▁lumb
▁6.5
▁determination
▁unres
organisms
▁preval
▁phenyl
atitis
loid
▁screening
▁111
itals
▁retic
▁postoperative
▁radionuclide
▁outpatients
lyl
▁vigorous
7,
▁reticulocyte
illar
▁dorsal
inic
▁clot
▁commerc
4),
▁meningitis
▁17
▁2.7
▁accep
▁temperatures
tisol
▁achieving
▁habits
▁exclusively
▁nutritional
aminop
2;
18
▁57%
formations
29
▁adherence
crip
▁weekly
plication
adian
▁36
absorption
▁15
▁72
oplasty
▁22
obl
▁ultim
▁trends
▁PCO
salt
▁transverse
▁unilateral
▁cuff
regulation
yste
otroph
▁17%
▁seropositive
▁63
▁administered
nai
avage
azolam
3,
▁nursing
▁rheumatoid
zymes
▁14-
