trast
▁primiparous
clerosis
62
▁10.2
▁cations
▁aberrant
▁Excluding
erin
▁PP
▁verapamil
▁therapeutic
▁elastic
opi
▁65%
▁1990
otropin
▁encephal
▁desaturation
▁metabolites
oreactive
▁ranged
▁accessory
4.
▁reductase
▁EI
▁stret
▁summarized
▁hyperlipidemia
▁carbonic
▁dischar
▁infarct
▁teratogenicity
▁Strep
▁dehyd
▁Viral
▁CB
▁cardiomy
▁10(
▁supportive
▁0.79
▁arter
▁scientif
5;
zymes
▁pacing
tituted
PSP
▁antenatal
ervical
ocamp
▁Ace
▁excretory
▁302
▁Reduc
usal
▁phosphor
amic
▁pound
oic
▁compliance
cellulose
▁reflex
gain
vac
▁pell
Nor
▁heel
▁rup
▁experts
▁radiological
▁sampled
▁vomiting
oconstric
▁detectable
olates
▁immunofluores
▁1500
vival
▁modeling
ingle
▁1.4
▁lesion
ovascular
rography
▁supplementation
▁athletes
▁283
▁unrelated
▁(49
▁shif
idone
▁rheumatoid
omethacin
▁pH
▁650
▁passive
phosphon
▁hepatotoxicity
▁0.91
▁LD
ductive
ialysis
icine
▁morphological
▁visc
▁analgesia
▁maturation
▁cytometry
▁diagnosed
▁gonorrhea
▁PCI
ocytopenia
▁kit
▁amn
▁unre
▁IVC
▁muscul
▁levamisole
▁peroxidation
▁inguinal
▁25,
Ts
▁autoanti
blind
▁cephalosporin
▁vaccinated
enkephalin
▁46%
▁emesis
▁psittaci
▁phag
▁myocardium
▁37
▁abnormalities
abies
▁1.3-
0.
respon
▁Survival
charged
stro
:1)
urane
thickness
enzyme
▁PTH
▁218
▁Diagn
▁specificity
jury
aminase
ithium
▁67
▁86%
lyte
motic
phosphor
toc
▁72
▁keratin
ystic
▁15
▁induce
▁5.4%
▁infrared
▁minimally
▁osteoporosis
▁ranitidine
ureas
▁genes
othiaz
leu
iclovir
▁fluorescence
▁167
▁satur
trate
calorie
▁decarbox
▁transmembrane
▁recor
▁resul
▁slows
▁clon
▁serologic
▁myocytes
▁phosphatase
imens
▁measurable
DH
VH
ocytosis
89
▁carcin
▁1)
▁responsiveness
▁trimethoprim
▁uv
erus
▁furosemide
▁Plasma
▁stool
.7.
PPP
▁cremaster
▁subclinical
▁instruc
▁Trials
▁levonorgestrel
arate
▁Stro
▁2.9
▁Seventy
vertent
▁degraded
▁31%
▁6.1
ranged
▁(26
▁fasting
struc
▁amiloride
▁conservative
▁luminal
▁merit
▁posth
▁grafts
▁WK
traum
growth
itin
Ta
▁Forty
molar
▁ori
▁ethical
▁exceeded
▁unco
▁proteoglyc
▁diseases
▁239
▁severity
▁3.8%
▁frog
▁perfusion
▁panic
Leu
inatal
▁PMA
▁compartments
havi
▁antagonized
atab
105
▁lovastatin
▁prescribing
▁20,
▁chor
▁splen
▁elicits
▁outlet
▁splenomegaly
▁adren
omatosis
▁estradiol
▁vancomycin
▁milder
trin
▁65
eric
Phe
▁postural
▁subgroups
13
▁71
▁conclusions
▁staging
secre
▁22)
tance
▁344
▁frontal
▁Wound
▁microorganisms
▁stere
indolol
▁pancreas
tages
chers
.5%
itr
osts
▁Inhibition
▁muscle
▁scrotal
idase
▁practic
▁extrap
▁glyc
▁polysaccharide
olateral
▁5000
▁20,000
▁myelin
▁capsaicin
▁(1.6
▁injected
olem
▁297
havioral
4,
edema
illar
▁knife
▁69%
ymptomatic
▁cycloheximide
▁(40
phyloc
▁amyl
▁3%
thalidone
▁phospholipase
▁anesthetized
▁mU
▁hospitalized
▁terat
Ace
▁chronically
▁homogenates
▁AIDS
450
▁postpartum
▁1.05
▁(5%
bran
3),
▁affec
▁pharyngitis
▁26.5
ediatric
▁11
▁apolipoprotein
pirin
▁Ure
▁elu
yses
▁strokes
dihydrop
▁pellets
▁63
▁8.1
venous
▁ventricle
▁restric
▁equi
▁intram
▁ketoconazole
▁Initi
▁activate
▁curettage
▁tiss
rophenyl
▁cardiomegaly
▁.0
▁1.38
▁irradi
TG
▁136
▁polypeptides
▁Hib
▁readings
▁intrap
tified
glut
▁elas
duced
▁bony
jec
anded
▁fiber
▁confirmatory
▁oxymetazoline
▁displ
▁physiological
▁Clinic
▁outbreaks
▁hyperthyroidism
▁cytosolic
▁17.
▁adequ
▁0.51
orbent
tomized
▁tolerability
▁algor
74
▁regis
▁nulliparous
amphen
▁nebulizer
▁viruses
▁epithelial
strual
▁nocturnal
tide
▁equivocal
▁parat
▁(88%)
▁examiners
▁infancy
siveness
32
▁Caucasians
▁solvent
▁squamous
▁3.4
▁carpal
▁23,
▁diffic
ylate
▁256
▁nm
▁docum
ucle
▁axonal
▁treatments
osterone
▁yielded
▁7%
▁Mast
prac
▁fertility
iline
▁1987
iol
▁Oral
▁91%
▁exclusion
sodium
2+
▁vesic
▁predicting
▁classified
ocysteine
atally
yloid
▁(3)
tracted
▁Sout
predominant
▁(9%)
▁rehabilitation
▁10-
▁194
▁95%
operated
▁psychomotor
▁diuretic
ayers
ropion
▁bisoprolol
osid
▁neuropsych
▁151
▁fibr
hydroxyp
▁absorption
▁oxidized
ctive
▁Feeding
▁(32
▁rabbit
▁marginally
ogra
▁inconsistent
5%
▁spectroscop
▁eradicated
idine
▁labial
▁gluc
▁durations
▁Significantly
▁transient
▁confers
▁cardi
▁varies
▁(31
46
▁Arter
▁5.
ochrom
rays
▁2.7%
▁soluble
▁reduc
▁reper
OA
▁90
tumor
▁cortic
.3
▁recombination
▁swab
▁16.1
▁discomfort
▁CsA
▁lumbosacral
itching
idating
thi
ensitivity
▁(19
onomic
acting
▁sleepiness
▁Older
exis
▁(12
asalazine
pecial
▁maternal
entricular
▁coughing
erally
▁rostr
▁severely
PAGE
▁PEFR
▁inges
▁(25%
ropyl
▁ABR
ometr
mation
▁paras
▁polycystic
▁bism
▁DH
▁progressively
ximal
▁validated
▁56%,
25)
cephal
41
109
▁coronary
▁bacter
▁-0.0
gestational
cemic
PaO
establ
▁fluores
▁3'-
▁activator
apeu
▁(0.1
▁Pertussis
▁78%
▁34%
▁shunt
▁hydrophob
▁disper
▁microtubules
▁judged
▁astro
onance
▁21,
iazide
▁tended
▁reviewing
▁immobil
atient
▁bloc
▁20.5
5%)
▁mammography
▁Examin
▁1.04
athered
▁5.8
▁airway
-50%
▁immuno
▁11.8
▁1.32
▁Registry
▁prospectively
▁reproducible
inamide
▁respon
▁centrifugation
▁0.27
▁bile
tested
valine
▁adjusting
wake
▁neutrophils
▁seas
▁granuloma
▁secretagogues
▁analogues
▁Lymph
▁15-
▁prodrug
▁atopic
oterol
▁Positive
▁appetite
▁ADP
▁halved
gestin
lytic
feron
▁7%,
▁promptly
▁panc
50,
▁Sulf
▁serine
▁(71%)
omerular
▁326
▁carbohydrate
omers
▁retested
▁extracorporeal
pretation
ogel
menopausal
▁(67
▁antacids
▁Epidemiologic
lli
5%).
▁vesicles
MG
▁Tiss
▁inhibited
ochemically
▁membranes
50)
▁CFU
▁40%,
▁(3.0
▁pyridoxine
▁87%
▁5.0
▁amniotic
▁yeast
▁phos
▁97
▁lipase
ziness
uating
▁questioned
gic
▁cuff
755
▁(0.0
▁lifest
▁Laser
▁cran
▁2%.
▁hypokal
▁likelihood
▁incomp
▁metabol
dibular
▁genomic
▁35%
ospasm
receptors
-2-
-90%
▁1%.
▁neomycin
▁Thoracic
▁angio
▁conformational
ventional
▁189
gestion
▁2-
ulting
ulants
otent
▁IGF
▁reag
2)
lline
▁transaminase
detection
onegative
▁PF
riched
▁nonsur
▁fasci
opressin
▁requi
resc
idem
▁vagin
▁nurses
▁currents
▁premenstrual
▁insomnia
responding
▁414
▁uncovered
astric
▁outs
ritin
1)
▁relapses
atent
▁inhibitory
12
10-
▁osm
▁sulbactam
xia
erox
29
▁9.2
▁opi
2+.
▁diet
cys
▁methodology
▁undergoing
▁cystitis
▁163
▁22.
▁gentamicin
▁4.7%
incubation
▁malignancies
IGF
▁etretin
▁reconstituted
buterol
▁quinine
▁-5
▁ratios
▁197
athic
▁chains
▁promoter
ymme
▁Disorders
▁muscles
▁utilizing
▁diverged
▁psychophysical
opsy
▁reiter
▁ions
▁27,
▁Km
uitable
.9
pecific
▁bronchoscopy
▁teen
▁altered
▁11.5
▁Stroke
nish
▁striatum
ithromycin
▁pulse
▁secrete
BMI
-2)
▁emboli
▁radiograph
▁fetal
weeks
▁treadmill
▁maneu
▁decreases
▁regulatory
▁phle
▁trials
ses
thma
▁nominal
tropin
▁37.5
▁Concentrations
▁6%)
▁Incubation
▁1986.
▁Scale
▁cyclooxygenase
respective
▁functioning
ication
6-
▁rhe
▁maneuvers
▁surgeries
▁corpuscular
▁1.07
▁0.75
▁suspic
fatal
puts
▁diagnosis
▁undetected
notic
thood
▁dissection
▁alcohol
opped
enem
▁Insulin
retro
confirmed
▁83%
▁biopsy
obacillus
▁lifestyle
▁CABG
alian
▁+/-
ploy
oporosis
▁anesthetic
▁upstream
IgG
▁Inventory
ocytic
odone
▁calorie
▁Triton
ignant
▁benzoyl
▁postnatal
▁angioplasty
▁imipramine
▁300
lamp
▁regularity
▁tau
▁methyldopa
▁viable
▁supernatant
▁inpatients
▁cetirizine
▁transcrip
vedilol
adequ
vicular
▁Hypertension
-52
▁ascorb
▁immunization
▁seroton
ventilation
▁optimum
▁resorption
▁simplex
▁libr
▁alkaline
▁mmol
▁labeling
▁exercises
aneously
ycin
▁erythrocyte
inergic
▁inhibit
▁acutely
▁colorectal
▁arachidonic
▁lis
▁ascorbic
jug
▁melanomas
▁134
robial
Ni
▁etiologies
▁21.
renol
▁morphologic
bred
obal
▁hereditary
Kd
oxy
aem
▁mutagen
▁concomitant
▁119
153
erate
▁withdrew
aemia
▁NMR
ashing
▁100
▁implanted
▁isolates
▁neuronal
asive
▁350
mentation
▁twofold
▁Seventeen
▁seizures
▁multin
▁amin
▁7.2
▁tissue
▁repor
▁deficit
▁protective
▁cerebellum
lycemic
▁histopath
▁unrecognized
othi
▁frozen
▁Surgical
▁lowered
▁dehydrated
▁1.26
.6
▁4-5
troph
urations
▁surgeons
ospor
▁oils
▁9.
▁unstable
estern
▁declined
robic
▁71%
▁thyroiditis
iuria
imentation
▁adipocytes
-7
▁laparoscopy
RM
ograms
reasts
▁17%
oplas
enterolog
wenty
▁prenatal
▁kcal
HN
ifferenti
ochle
▁anomaly
▁Pn
roscopic
▁nonin
▁0.01).
adol
▁attain
▁appendix
▁nursing
▁inoc
ailure
erge
▁20%,
hemolytic
▁neonates
▁indefinite
▁regulation
▁33
liters
▁0.38
▁DV
▁1.1
▁differing
▁AFP
▁trich
▁maturity
▁interim
▁cholec
▁jejun
▁tuber
ofl
▁peritoneal
▁meth
▁urine
oxazol
gag
▁4.3
▁Parents
scherichia
▁200-
▁dose
▁drin
▁singlet
roxim
75
sants
hiscence
▁Diabetes
hep
▁53
▁43
amethoxazole
▁addi
▁virtu
▁absorb
▁2.8%
pation
esting
▁radiolabeled
lun
▁azithromycin
▁homogen
▁propionate
▁isch
monitoring
▁impairs
▁unexplained
▁Golgi
▁homogene
▁21
▁confirms
1.2
▁attending
▁Haem
teral
placebo
oriented
▁(21
▁risks
▁acyl
125
▁uncom
▁reflecting
▁33%,
▁11.0
-14
▁Indo
aired
.7%
▁0.41
vents
opes
▁enal
▁serologically
trition
▁aorta
▁umb
▁HPV
▁triazolam
scopy
sufficient
▁initiating
▁premature
▁GTP
▁cerebellar
ifferentiated
▁reflec
kinase
▁electrodes
rated
▁suppor
▁overestimate
▁alteration
▁SIDS
▁Bec
▁Intensive
▁valproate
▁dopamine
arbonate
▁climb
▁relied
17,
ytoin
▁hospitalization
▁pHi
etaz
▁-4
▁potassium
ergen
acin
▁Exposure
▁273
▁ruling
▁anat
▁GnRH
▁phorbol
formerly
▁hyperb
▁aggres
quamous
▁0.75,
/1000
▁ND
▁reflects
▁demands
▁grading
erts
▁sorbitol
muscle
▁12%
▁67%,
▁carb
▁suprac
▁cytochrome
eak
lyl
tectable
epti
▁lutein
usively
▁immunocomp
▁Fewer
▁concurrently
ications
.9%
queous
mia
italopram
▁trichloroacetic
01
cycline
sparing
▁pts
ogonad
▁223
▁ultrastructural
teroid
expressed
▁extracts
▁fulf
▁helical
▁restraint
ycline
▁mortality
▁remo
7).
▁ruptured
ellular
▁iat
▁1.7
▁hazards
▁cyc
▁550
▁establ
▁homogeneous
▁atelectasis
▁adequately
▁kb
▁fist
thmias
istal
dial
▁243
▁erythromycin
imental
▁sugars
▁unres
▁pharmacokine
▁poorer
adenosine
▁feather
600
Wo
▁inflammatory
▁alp
motor
geons
odiaz
▁antioxidants
omagn
▁radiologic
▁dipyridamole
▁plaster
▁olig
▁lamb
▁NPH
ophy
▁classify
ominant
▁spermat
iciency
▁synthase
ocon
Ga
▁adrenergic
bacter
▁82%
▁augmenting
0,
▁bacteremia
▁plateau
▁tetrac
▁membrane
▁vaginal
ATP
irradi
▁antagonists
▁92
▁tape
▁moderately
▁cis
▁(5.0
▁paren
▁colonoscopy
▁naloxone
▁spike
50
170
▁unreliable
▁degeneration
▁departments
▁methodologies
▁placental
▁5.5,
ellum
▁phleb
▁sequential
▁attrib
rele
ocarcin
▁balanced
ults
▁HI
okine
▁RIA
▁spont
▁gonad
▁cooling
▁breakdown
▁(4.6
▁xylitol
▁transi
ocar
alact
-72
▁Longer
▁chlamydia
esophageal
▁Tolerance
▁(90%
▁elevations
▁meals
ietic
DV
-1000
▁outward
▁MRI
▁macrophages
oactive
▁(28
onset
▁10%.
▁cavity
▁bronchitis
▁necrosis
parathyroid
▁carbamazepine
12),
illus
ocardi
tryp
ept
▁(32%)
▁50%
nisone
reases
▁preparation
▁throm
▁incision
▁succes
▁intensive
78
rength
▁acetyl
▁cAMP
▁screening
▁interviewed
▁strep
▁decreased
▁implying
▁dopaminergic
injury
▁pollicis
▁176
▁(1.9
tious
▁hematoma
▁epilepsy
elves
▁densities
▁consumed
▁postoperative
positive
umbar
▁reinforcement
-36
▁adrenal
▁4.5%
plication
▁descriptive
▁carbox
elan
▁swelling
usate
▁ET
▁neurom
▁hormone
buride
urine
▁analyses
▁luteal
timal
▁1.47
▁colic
enteritis
▁(13
▁hydroxyl
▁1.45
erum
▁sph
benz
▁mild
0%).
▁25.3
▁correspon
▁urography
127
▁Acad
abain
.7
▁11.6
acycl
▁1/
immun
▁3.6%
▁0.66
trates
▁thyro
▁shifts
▁neuron
tiguous
idity
▁meticulous
▁29%
25
-19
▁electromy
▁cognitive
▁eliminating
▁preventing
▁Fourteen
▁challenges
▁consistently
▁diabe
itant
▁150,
▁synthesize
▁microb
▁recombin
ighted
▁acetic
▁diazepam
▁heterogeneity
▁trimester
induced
▁(85%)
▁continuing
kelihood
▁Twenty
▁alanine
▁disulfide
▁utilization
▁adminis
▁oligonucle
embry
▁birthweight
▁prolactin
▁adolescent
▁4000
ermal
WB
selective
.0,
▁responding
flammatory
economic
▁msec
▁occurrences
▁inters
▁125
2+-
▁rGH
▁chorion
▁4%
▁3.7
ecia
▁30,
kely
inopril
ceptions
▁metoprolol
▁BMD
▁hyperlipid
angi
▁malignancy
▁CFC
▁ib
▁111
▁349
▁40.
zine
▁hybridization
▁lep
▁chl
otriene
▁trigg
▁hypertro
opecia
▁ey
macropha
▁inoculation
73
▁substances
▁computerized
▁detecting
▁dendrites
▁Peak
Ox
vaccin
CRP
▁angi
▁tracer
▁antimicrobial
patient
▁benz
▁ack
▁sedation
▁centers
▁hairy
▁3;
▁adenoid
ometrial
olesterolemia
▁sedative
▁Steroid
▁Statistical
▁1964
clinical
▁clindamycin
▁hygiene
ximum
▁electrocardi
▁atri
▁initiation
▁ventric
▁HA
▁outbreak
▁PHA
plete
▁ultr
▁84%
/3
▁genitourinary
▁idiopathic
▁1.8
▁hydrolysis
▁palp
▁availability
orating
Ba
bumin
▁pmol
▁cys
iagn
25.
▁nonsmoking
▁3
▁commerc
▁reflux
aminop
▁Infection
lue
▁overnight
ipine
▁4.0
▁fibrob
▁(46
▁159
▁thymidine
meg
▁indications
▁77%,
▁conductance
.3.
92
▁monotherapy
▁2.3
eptid
▁exud
hemo
versity
▁molecular
▁cytokines
toph
smoking
▁anion
▁azathioprine
▁gastric
acking
▁genotype
▁mucosa
▁casein
▁echocardi
sor
▁diversity
▁5%
▁IgG
▁herni
▁(3
salt
-1
▁hypnotic
▁carrier
▁streptococcal
▁0.58
▁pene
▁0.81
▁lymphocyte
econd
▁odds
firmed
▁toge
▁5.6
▁Tes
▁0.5-
▁excretion
▁203
ofluores
▁Adverse
▁pectin
waves
▁217
▁approx
8-
▁expectations
▁conditioned
▁HER
▁islets
▁lacking
▁Elec
▁rhinovirus
▁slic
rangement
▁sulfonyl
▁Candida
▁MDI
mittent
diagnosed
omia
gian
erence
inic
+/
▁interferon
▁intra
▁managers
▁surrog
oxid
▁fibre
rans
▁lamina
determined
ulose
▁1.01
3]
gulation
▁confounders
▁Assessment
amol
▁bacterial
▁airflow
lycerol
▁PDGF
erative
▁Improved
▁collagen
ohyd
▁flour
▁cancers
uary
▁nonp
90
▁wounds
sensitivity
otroph
▁Eight
▁VLDL
thyl
Ev
gold
▁excluding
inephrine
▁3.8
-70
▁Assess
▁occlusion
▁compli
tep
▁600
▁standardized
tivities
▁knee
19.
ovine
▁echocardiogram
▁cryptorchidism
▁CEA
▁pneumoniae
▁specialists
8.
▁chel
▁cyclical
omes
▁conducting
▁nonc
inj
▁immunosuppres
▁31
▁10(-6)
▁Addition
▁hairs
tec
orated
mature
ipit
sych
▁substance
▁exploratory
▁colos
▁neuropathy
▁previ
iliary
fed
▁60%
adex
▁23
▁rehabil
▁Benz
viral
▁dorsal
▁contrac
acetate
siological
▁projections
▁lute
▁phospholipid
▁dentures
8)
▁Increases
otin
▁abuse
oscopy
3-4
▁Phase
▁Twelve
▁myocardial
yster
▁glucocortic
▁techniqu
▁ml
▁medulla
-70%
1/
▁abnormality
▁presumed
▁ketoacid
rogenic
▁Plas
▁epidermal
▁menopause
4;
▁victims
▁experiencing
▁ulcers
rati
▁renin
▁ionized
▁vaccin
ypical
▁ureth
▁aluminum
ostomy
▁Swed
oate
tile
atients
tetra
▁ensuring
▁mum
▁dermal
fasting
ilin
▁replication
azol
iplin
▁4)
lamin
▁produc
▁lesions
▁binds
phrine
dL
▁pulsed
▁titr
▁monoclonal
▁hippocampus
terin
▁granulosa
▁neuro
▁seated
operox
comitant
izine
oice
8),
▁Thy
▁Hear
▁carbonate
▁follicle
hyd
romycin
▁progression
▁spi
neonatal
▁deemed
▁prevalences
▁predomin
cture
▁anatomical
▁biological
usions
tophan
openia
▁pati
▁sustain
▁congenital
▁hernias
ratic
tact
creatinine
▁tobacco
rosemide
▁allergen
iant
▁immunological
▁correlates
▁192
▁guanine
▁gonadotrophin
▁favorably
▁285
▁emulsion
▁Lipid
▁incom
▁eradic
▁fungus
phosphorylation
▁8.4
▁Recurrent
ygous
▁90%.
▁warrant
▁tendencies
iable
▁wearing
atoma
▁Chang
▁histidine
▁(25
▁Kd
vail
aturated
▁0.8
▁acco
onatal
▁tolerate
▁sumatriptan
xiety
iterranean
ynthe
mented
rease
▁Immun
▁Hyd
▁leu
odgkin
producing
hicle
ussion
olated
ositive
-3-
lyc
▁Sprague
▁adequate
▁chec
▁purification
▁215
umping
▁asthma
▁hypocalcemia
ranean
▁ovulation
▁(72%)
ancomycin
▁staining
moderate
-88
▁chromosome
▁diphen
▁hyperplasia
atase
▁gemfibrozil
VT
▁vertigo
▁antihist
▁279
terase
▁depletion
▁supple
▁vag
▁reacted
iph
▁amoxicillin
▁alcoh
imazole
opha
▁PLP
▁assessed
▁0.2
▁solubilized
▁causation
formations
▁77
▁immunohist
-4.
matched
▁HLA
rowing
▁bp
ectom
▁persisting
▁platelets
Cs
those
▁diarrhea
▁fracture
▁occurring
ausea
▁condensed
▁nontoxic
▁aneurys
guing
▁Atrial
▁ae
adrenoceptor
▁cate
oluble
▁sulph
▁snoring
▁dexamethasone
tingu
▁venous
containing
▁cleavage
▁208
▁hap
▁Measure
ulates
▁181
lyb
▁BM
lycer
▁(80
2318
hers
▁additive
▁prostaglandin
▁veterans
▁perfusate
▁18.
spectively
▁covari
▁ganglion
▁confound
bular
5,
moking
potential
▁regain
▁triglycerides
▁15.8
uated
plen
▁prostagland
▁inhibiting
phasic
▁cG
▁doxazosin
ociated
▁succinyl
xime
anking
▁medically
lomethasone
▁codeine
hepatic
cyte
▁propranolol
▁sequelae
▁favors
9/
▁killer
arthritis
3/
▁myof
▁thir
▁renal
▁overweight
ducts
ogenicity
ophilus
▁epidemiologic
▁cytoplasm
▁cann
▁reconstruction
▁differentiate
▁Cardiovascular
ocrom
crib
▁consis
▁receptive
▁cerebro
vian
▁reass
▁responsive
▁0.8%
▁degrad
▁ambulatory
▁endothelin
▁lymphocytes
▁UV
IgM
▁medicines
uctose
▁OC
▁90-
▁identically
▁desensitization
▁instr
▁duplex
▁unpredictable
▁284
-100%
ulitis
4+
▁ovarian
▁autologous
▁exceptionally
kers
onin
▁Adherence
-65
eight
tension
▁proportions
roth
pinephrine
cyt
apine
▁sickness
▁FD
▁warr
▁mycoplasma
truction
▁adjustment
roscop
▁59
icardi
▁juven
▁analges
ectin
NH
▁199
▁oxy
atoid
▁blockade
▁acces
administration
rocytes
adenomas
▁expressing
▁leukemia
subunit
stimulating
▁stric
-12
▁carbam
ranial
athyroid
▁danazol
▁competent
▁potentials
crip
▁mell
▁resear
wk
▁VAS
▁paral
▁methionine
natal
tant
▁theoretically
▁exce
▁mucosal
▁caregivers
1-2
▁survival
▁murmur
▁nadir
initi
▁angiotensin
▁achieves
▁Treatment
▁Lact
▁adhering
▁2.0
▁numb
nate
▁Exc
▁fallopian
ulmonary
▁coagulation
hydrated
400
atched
▁ligands
▁Hz
▁phenotypes
▁193
▁(89%)
aise
▁DF
▁phenylephrine
▁rhinitis
sequent
▁menstrual
▁eczema
▁1985
▁classifications
nisolone
▁encour
▁pressures
16
gents
▁-1
▁prophyl
▁embolism
▁infused
▁(68%)
▁colonization
0%.
glutin
uates
▁specialist
▁(92
acyl
▁0.28
.0%
▁transfected
▁neuroleptic
yro
▁elimination
1.0
▁synap
▁(25%)
▁reasonably
▁spind
/24
▁aqueous
▁expense
▁providers
ylon
teria
divid
SBP
▁-0.3
▁AO
▁scro
▁prolif
ochemistry
▁168
▁medullary
▁prednis
atitis
▁hydrox
▁rigorously
▁10,
odip
posable
PTH
▁(7
▁detects
▁enrollment
▁7.0
▁mim
▁89
▁vesicle
▁Respiratory
▁inactiv
tine
▁cyclase
▁evac
58
▁reticulocyte
-0
amole
ipolar
▁nights
▁reductions
6,
▁clinician
▁oxide
▁RF
▁positively
▁suppres
▁tach
▁researchers
▁(60%)
▁3.2
▁localization
▁naproxen
▁adenine
▁benzodiazepines
▁bup
TSH
ariate
▁209
arcoma
hest
conver
GD
▁Holter
▁effectiveness
▁carc
▁facial
▁synthesized
cemia
trous
▁dissec
▁TNF
▁irrit
▁depres
▁PB
▁epidemiological
▁(76
▁hazard
uccess
▁perceived
▁acidic
▁stimulants
ypro
▁Relative
▁Finnish
estim
▁bouts
▁reproductive
▁(84
▁vaccination
▁146
13.
▁escalating
▁statistically
▁delaying
▁membran
ystolic
▁onc
▁2/
sistent
▁determinants
▁resistant
ucose
▁parity
▁ethn
consuming
opause
▁15%.
▁100%.
▁relaxant
▁natriuretic
▁heal
▁187
▁decline
▁telephone
anol
▁LC
▁splenic
▁Factor
resting
opamine
▁stripe
▁Clin
0.3
zyme
▁diuretics
omegaly
tual
anide
▁presum
▁accumulation
hydroxy
▁predictive
LISA
▁(6),
▁10.7
infection
tead
▁subf
▁meningococcal
▁UT
▁incontinence
POA
-2).
▁hered
ithelial
orin
▁elic
otropic
▁ongoing
▁colonic
▁Stress
▁disulf
▁720
omplete
▁suicides
▁spermatozo
▁5)
▁46
-3.
▁stimulant
▁moiety
oxyrib
9)
▁kinetics
▁nonex
▁gradi
▁13.9
▁psychosis
razosin
▁subarachnoid
uppres
▁Biopsy
unts
▁clamping
▁4.0%
▁cereb
▁immunity
atical
▁Combin
▁interleukin
▁196
enters
ncy
attern
atible
▁relapse
aminases
▁preserving
▁Smoking
tent
CAP
▁0.23
▁pathway
▁posi
▁cerebrovascular
odynamic
▁averaging
duction
▁exudates
4-2
(1
▁(18
-1)
bly
aternal
▁bronchodilators
▁40-
▁direc
▁TCR
ordial
▁suicidal
▁pathologic
partic
omated
▁nebul
▁viral
▁radiographic
▁consistency
▁overl
tained
ergic
▁100,000
-1.7
18
odal
▁9.0
6)
▁autonomic
▁ascer
tch
keto
▁loos
▁ankle
itidine
▁Cancer
udation
▁0.05).
▁neurologic
opr
▁Sodium
thanol
quam
▁musc
▁corticosterone
▁Myocardial
▁amphetamine
▁absorp
athione
erad
Tc
▁murmurs
▁68%
▁neurological
▁analyzed
▁45
▁slowing
▁231
▁antibiotic
▁bovine
-2.
▁noninvasive
tradiol
▁228
1,
.5
▁descriptions
ervative
▁limiting
▁retardation
cAMP
▁269
olesterol
10).
▁regen
▁institutional
▁(4
▁Higher
ateral
▁sorb
▁diffuse
armac
▁CRP
▁tet
▁irr
acetic
examination
▁possi
tage
▁warfarin
▁enhancer
▁70
▁surgery
▁disturbing
atinine
orrhage
ovir
vertebral
▁(54
▁gestational
▁22%
▁palsy
oling
▁57%
31,
▁mothers
monstr
▁liver
▁0.9%
▁ate
▁nasopharyngeal
1%)
▁7.5%
▁dramatic
▁16%,
▁neoplasms
▁perox
▁26
▁fluconazole
tivation
▁eighth
▁27%,
▁psittac
▁adoles
▁widespread
▁elbow
▁stab
▁lacked
deriv
▁nitrofur
▁bicarbonate
atology
ATPase
▁pravastatin
▁inducing
ensity
perature
▁mitotic
▁infarction
-1.6
trus
-1.0
▁bypass
▁alternating
rhy
▁infertile
olamine
▁oxidase
zard
▁enhanced
▁62
iminary
▁surviv
▁colposcopy
▁portions
▁mammary
okinetic
▁perioperative
opharmac
coag
▁tumor
▁verbal
▁antitumor
▁Hispanic
▁PAF
▁(1:
▁nondiabetic
yel
▁DSM
▁(77%)
▁misoprostol
icide
▁physici
▁erythro
sive
lated
-1.
-20
opathology
▁exacerbate
lude
▁80.
oxin
thymidine
▁mg
▁comparisons
▁perim
etent
▁superf
▁dissociated
▁cysteine
▁leakage
0.4
risk
▁pathology
adder
▁dextro
▁friction
▁serolog
melan
▁TT
▁impairment
potassium
indol
3%)
▁autoantibodies
▁contractions
▁lysosomal
opar
cad
dihydropyridine
omies
adiol
:3
▁aspart
▁doubled
▁balloon
54
▁hirsutism
▁competi
▁abl
▁sperm
▁protease
▁postprandial
▁hyperch
chool
▁nucleotide
▁differed
▁harmful
▁Ade
▁targeting
▁calmodulin
▁organism
▁bactere
reness
▁diets
hospital
▁intestine
▁persis
obenz
▁Haemophilus
▁characteris
-81
▁comprehensive
nine
▁esophagitis
surgery
cretion
tors
▁Likewise
ially
▁epithelium
acrine
inally
▁Subsequent
cellent
estis
transfer
▁PCO
▁2.9%
▁athlete
junction
▁340
94
▁0.83
▁endometr
▁diges
▁characterized
▁organic
▁Hg
partum
▁polyclonal
drug
▁messen
▁adjustments
▁compe
▁elevation
▁Enal
triglycer
astatic
aceous
ofib
▁bacteri
▁spleens
▁(0.9
4%
▁cytotox
▁cytosol
▁antich
ilibr
yrid
▁0.54
▁124
▁165
spectrum
olytic
ymptom
dihyd
spective
▁20%.
▁1.3
50.
lodipine
heum
zation
ubiqu
apanese
▁antic
epines
▁ovari
▁morb
aldosterone
▁nonoperative
orts
▁1,
▁0.97
cystic
▁0.15
▁65%,
tention
▁arterial
▁adverse
sion
itoneal
9]
acts
▁chlorthalidone
▁(38
▁Sleep
▁lidocaine
▁modality
48
immuno
approximately
▁peaked
1-4
▁mitig
▁epitopes
▁intravenous
▁mumol
▁diagnose
▁49%
▁75-
▁sleeping
▁adjuvant
▁5%.
▁fibrill
▁favored
▁2.5%
ophys
▁adolescents
▁reas
▁progressive
▁24%
▁inactivated
▁exposure
tigu
irubinemia
70
▁intact
▁progesterone
lastoma
▁CK
▁rigor
▁chemotherapy
/100
accharides
▁MMS
▁supra
asone
▁persists
▁appraisal
▁prescrib
▁gastroenteritis
ADA
▁prednisone
▁inherent
tism
carotene
▁upright
▁selective
enon
ophysical
▁cryp
▁-0.8
chlor
iters
▁perone
▁900
▁sero
▁polymyxin
▁prox
▁perinatal
ostatin
▁fenoterol
-0.5
▁ketoacidosis
▁LMWH
44
plied
▁placent
▁efficacious
▁cytology
▁56
Ds
▁3'
▁Tests
▁muc
▁glut
▁allogra
▁50%,
▁relieve
▁118
▁microscop
helial
▁13
▁lapa
▁prognosis
▁spectra
▁dendri
▁(100
▁MEDLINE
daily
▁(39
▁crude
mokers
▁intraperitoneal
▁lateral
▁radionuclide
▁VA
▁quoti
osides
▁Capsaicin
▁caloric
▁enlargement
haled
▁contraception
▁abortive
▁sensitiz
▁astrocytes
vant
▁nitrogen
▁12%,
▁baro
▁valpro
▁172
thre
RD
▁RSA
flamm
▁alleviate
▁arrhythmic
30
endri
▁encompassing
▁intravenously
▁DBP
orbol
tidine
▁hydrolys
/90
fate
▁reticular
▁expulsion
▁CHD
cence
)2
▁Vitamin
rague
9).
COP
▁unselected
olitis
WBC
exposed
Cer
▁lactobacilli
▁menses
atosis
▁overt
▁margins
▁suspension
odil
▁(20
formin
▁remission
14)
▁intraven
▁complementary
▁degen
▁pretest
▁symptomatology
▁44
▁elevating
▁prol
osomes
▁pleural
▁neoplasia
▁Therapy
blinded
lactating
ocl
odg
▁-3
▁GER
bodies
mined
▁rash
▁fumarate
▁whey
deple
atesticular
occi
resistant
▁intestinal
▁uncommon
▁0.62
▁astrocy
▁promoters
▁piroxicam
▁extre
▁276
heavy
▁excre
▁3.9
frequency
▁1.13
aturia
tro
▁undetermined
▁injec
▁formulations
▁cotinine
▁prescription
▁denser
▁ethyl
GF
scheduled
▁necrotizing
▁fric
ocyte
▁(90%)
▁sonography
▁tenderness
▁modalities
emide
▁Lyme
▁660
▁phosphate
▁3%.
▁Criteria
ifugation
+,
weekly
▁correspondence
osclerotic
▁Reflex
▁156
▁purified
athiop
▁recurrences
oceptor
▁fractions
/4
▁Bronch
▁inhal
EGF
absorption
,3
▁complexes
▁examination
▁91
9%)
RR
3,
oride
▁Experim
Gs
▁conserved
ophag
▁ANP
▁HSV
tured
▁109
▁Fluc
romatosis
/8
▁incubated
ylline
ulence
65
loid
hydr
-6
▁feeding
▁axons
baseline
aptic
▁nedocromil
120
adone
▁adolescence
▁nec
▁(20%).
▁39,
▁hyperbil
kines
plies
▁galact
▁autoimmune
▁synaptic
▁hig
ocomial
icep
lep
▁exaggerated
ocusing
conc
oderm
▁DCA
umbers
▁mildly
79
acti
ctomy
▁Gyn
▁seiz
early
▁(97
▁8.5
▁inadequately
proven
▁Intra
▁mammalian
ulon
▁empirically
▁pharmacologic
▁digoxin
brile
ognitive
83
astolic
ifferen
carinic
etan
-16
▁1.30
monary
▁cited
otom
100
▁visualization
caro
▁gluten
▁physiotherapy
▁blin
▁2)
▁sensitivities
▁nifedipine
▁Disease
▁0.1,
▁mV
▁plac
opharynx
FN
▁kinetic
▁turnover
bladder
▁lamin
▁(16%),
sensitive
▁insertion
▁PID
▁281
322
osteroids
deoxy
▁traumatic
ipril
▁beliefs
▁orthostatic
unar
▁dete
Gly
▁mug
▁inhibitor
▁(10(
ching
▁thresholds
▁descending
reactivity
▁CU
▁constipation
▁cachexia
▁centr
▁kits
selec
21)
1.
▁pyr
▁protracted
▁2.2
▁drinking
orpor
tomy
▁explored
▁quinolones
▁postoperatively
▁postmortem
▁Glu
obac
▁Phen
▁childhood
26
7-
▁3.6
▁remed
riton
tipation
▁osteoarthritis
▁impair
▁unde
▁hepatocellular
ourinary
▁identi
▁kidneys
▁erythrocy
-0.
▁sensory
▁factorial
rous
acr
iscal
▁ductus
▁genome
▁0.0
▁0.60
▁Findings
▁316
▁accessibility
▁mutants
▁NADPH
isomer
19)
▁0.69
▁euth
▁0.
▁benzo
▁3.2%
EDL
▁locus
▁phenyl
▁sting
▁IgE
▁0.1
pharyngeal
▁antisera
▁ceph
▁Increased
▁dendritic
▁cured
▁corresponded
▁bac
▁topical
88
▁bic
▁insuff
▁avoiding
▁solitary
▁Cutaneous
▁antif
▁pathways
▁retention
▁200
umented
▁discom
▁ligament
saccharide
Daw
▁efficacy
yrox
▁operative
activation
▁pharmac
▁glycosylated
5.
▁ipr
rologic
dose
▁infar
▁6%
▁fluoride
▁103
▁journals
ressing
plicated
▁excitation
lusion
▁adherence
)],
ertion
▁abr
▁thoracic
▁-9
tory
BP
▁7.9
▁wors
▁Replacement
▁caudal
▁heavi
▁dental
illion
4.1
00,
▁phosphatid
▁resour
ioid
keletal
tition
▁aspec
▁Ultras
▁86
▁interstitial
imination
▁0.7%
▁irradiated
▁mechanisms
▁alprazolam
▁198
▁addic
▁TMP
▁granule
▁outpatients
▁18%
ticularly
-17
▁sucrose
▁cytologic
▁orthoped
(2+
95%
opharm
thel
▁restr
0.1
▁infrequent
/6
▁104
positives
▁Severe
▁-7
taken
▁mononucleosis
▁chond
▁strategies
ethyl
28
▁tibial
hetamine
ditional
apeutic
▁352
▁Americ
▁shifted
▁80
▁urea
amphenicol
▁reticul
gus
aterally
▁systematically
2;
▁erythrocytes
▁detrusor
adders
eliac
▁soy
▁concentrate
▁mononuclear
erose
▁hamsters
▁227
▁tablets
▁Inte
exy
2).
mmol
▁Evid
▁ure
sue
vae
▁17.3
▁conclu
aced
▁apparatus
oprotein
▁allergenic
▁thiazide
▁sediment
▁intake
▁0.99
▁308
oA
▁lectin
▁cyst
▁ofloxacin
▁120
▁17.8
▁gonadotroph
▁ambul
assi
▁lymphoid
▁emotions
▁simultaneous
▁births
▁Nit
▁Doppler
▁0.80
amines
▁leukocytes
▁fractional
▁endoplasmic
propanol
▁mediate
alp
anav
▁Antic
oxifen
▁recipients
▁ACh
▁esterase
azone
uestionnaire
▁headache
▁24.3
▁rheum
▁5.7
▁Gynec
▁eluc
▁anemia
▁2000
acement
▁retard
▁tymp
▁biosynthe
▁(5.1
rase
▁embryos
▁questionnaire
▁sucralfate
▁prevalence
▁complaints
▁traum
▁leukotri
▁forskolin
30,
▁coping
▁(70%
▁hepatomegaly
▁dyspnea
urons
1-1
▁venti
▁oxid
2%
▁DP
portant
▁nicotine
▁(8%
16)
▁47,
▁percentile
▁opioid
-8)
▁surgeon
ture
severe
▁sprin
paren
▁OA
▁asymme
significant
ospitals
oradi
▁papillary
▁embryonic
87
▁compressive
existing
ralfate
▁influences
ilol
▁129
▁assessment
▁restenosis
urys
▁220
▁ultrasonography
▁ampicillin
ostatic
▁correlated
aryng
▁299
enal
▁aro
aric
▁healing
toxin
▁cranial
▁clinicians
arrhy
▁8-
His
troduction
ropine
▁transaminases
▁whee
▁polys
▁0.70
▁58
▁fossa
ognition
▁brom
enic
▁indication
TCA
▁Injection
8/
ocom
▁mono
▁triceps
▁Clinical
▁abscess
pharmac
otox
▁0.45
▁0.94
▁dissociation
treated
▁auditory
onography
productive
▁mitochondr
▁glycosyl
▁exerted
▁prevented
▁lipophilic
▁introduc
▁spectro
otide
▁conges
▁10.8
▁exhaustion
▁reac
▁occl
▁tympan
▁buc
utin
▁precipit
▁keto
▁GABA
▁HPLC
ervations
▁cation
▁Acet
oglob
▁practitioners
▁mimic
teroidal
▁anticholinergic
urium
cessively
▁fulminant
▁seb
▁ointment
▁virtually
▁nM
▁confined
tur
Pu
▁blister
▁arousal
▁grip
▁endpoints
releasing
▁capsules
▁interventional
▁36%
drome
▁bronchial
▁crust
▁anhydrase
obic
▁(15%
▁[14
tened
▁sputum
▁supr
▁carotid
▁radicals
▁2.5,
▁sinus
BV
▁enriched
renal
▁spirometric
▁idi
adren
▁0.61
oconstriction
▁raises
▁acceptor
▁241
▁tension
idol
▁5'
▁promp
admill
▁750
▁behavioral
▁pooled
▁constellation
▁cirrhosis
jac
▁postsynaptic
▁messenger
▁protec
imaging
▁transplantation
lox
▁aggregates
▁356
ophyll
▁distal
▁specialty
▁wean
▁1/2
▁septal
ACh
achn
▁equivalents
▁arth
orphine
▁nausea
▁fluorescent
▁0.11
0.8
erant
aminidase
▁practitioner
▁0.86
mL
enyl
fem
▁0.13
▁10(-4)
▁26%
▁Barrett
▁mutation
▁waking
▁bradykinin
90,
onorgestrel
effectiveness
▁73
▁gradients
▁promo
gesia
▁PMN
▁thymus
▁acute
rometry
▁defec
▁derangement
▁72%
▁stripping
irone
educ
▁bivariate
▁neurotrans
▁randomization
▁(1%)
▁recurrent
FGF
▁-10
induc
▁neurons
▁pacemak
▁LDL
▁epic
▁Educ
nthe
▁synapt
leuk
imodipine
etoprotein
▁coeff
▁aspartate
▁insufficient
▁pneum
ilic
▁nig
700
carb
6%)
▁allergens
▁EB
unately
▁nal
▁dox
oclonal
▁erosion
otyp
versal
▁stimuli
▁(9
▁sugges
▁vein
▁controversy
▁evid
olipid
▁normalization
▁presumably
▁endemic
▁gels
SAID
-8
▁preexisting
▁infusion
▁synapses
meth
bearing
▁candidiasis
▁allerg
ophilic
▁hypertrophy
▁154
/2
▁6.9
300
▁kD
▁inotropic
▁volunteers
▁restor
▁DVT
▁encoun
▁Coronary
▁thiol
▁calcium
▁hydrocortisone
▁isomer
▁endoscop
ofil
▁tear
▁oocytes
tig
roscopically
odies
▁attributable
inely
▁metastasis
-13
▁36
▁(5.8
▁47%
▁hepatitis
gthen
unctions
▁amino
eprazole
▁eluted
▁24.7
▁nodule
▁endometrial
▁0,
▁competitive
▁disappearance
▁adenylate
▁Physicians
▁foci
▁45%
cents
▁acetate
▁68,
▁structural
▁237
▁Previous
▁aspir
▁cessation
stin
▁titers
opril
▁albuminuria
▁LVH
▁shorten
▁6.5
amide
▁disorders
tically
▁latex
▁84
▁bilateral
LU
▁cac
▁hemorrhagic
enh
coronary
otomy
▁curriculum
▁intractable
▁hypotension
▁24%,
ipients
▁(1)
▁158
▁drinkers
▁chromosomal
▁efflux
▁thromboxane
▁Failure
▁polyc
▁mesenteric
▁cumulative
disc
12.
▁enzyme
▁poses
▁ana
▁neutroph
orption
▁tumour
▁Cd
▁200,
▁deformities
actin
▁pep
▁kine
▁nutritional
▁permanently
▁urinary
▁compounds
uled
▁investigators
▁surveys
ergency
▁unchanged
▁successive
▁poten
▁gynecological
operatively
▁BP
▁LMW
▁dietary
▁5.5
▁interpretations
▁25-
▁intermittent
▁ulnar
visc
▁macropha
▁expiratory
▁prazosin
▁limb
osage
▁asymp
▁budesonide
▁hypers
▁guinea
▁phage
▁scans
hion
▁deoxy
▁fibronectin
mend
omagnes
-6)
18)
▁68
▁53%
▁MI
ischemic
RH
▁3.3
▁Dop
▁intraepithelial
▁rotavirus
ogenous
▁lysine
iphene
▁reperfusion
iology
apride
▁Transient
▁junctions
obarbital
romised
▁dele
atibility
sives
▁arrhythmia
▁ligation
▁tetracycline
▁malabsorption
▁hypo
▁NH
-40
▁47
93
tif
▁strains
▁serology
hormonal
vitamin
atation
(2
▁sequenced
lactam
▁Prevalence
alazine
▁insulin
▁retic
▁rats
▁heterogeneous
▁4,
▁granulocyte
▁21%
-5
occal
▁seroconverted
▁collagenase
▁excitatory
▁mood
2-
▁48%
▁clamp
▁bolus
▁anticonvulsant
▁wrist
▁sple
8).
▁solids
▁retin
endorphin
degree
igarette
▁exercising
elvic
▁receptors
▁puls
▁nipple
▁acin
▁Adequate
▁abstin
ifed
▁cortical
dyn
lyce
▁hind
dition
▁prescriptions
▁withdrawn
▁proteins
▁weighted
▁parasite
▁immunogenic
▁nonpregnant
quid
▁physiology
▁underestimated
▁1:
▁lasting
glucose
▁retinal
▁51
▁afferents
plasty
▁chloride
ysm
▁skinfold
electric
19
ulous
▁(42
▁17).
▁chewing
reduced
▁traction
▁therapy
monella
glycerin
endazole
▁headaches
minute
▁discontinued
▁resc
64
▁Biol
▁aureus
▁masked
-11
sibly
▁oes
▁Cycl
▁microsomal
▁scanning
▁80%,
▁herb
▁evaluations
▁80%.
ystatin
▁discontinu
▁(5-
▁carvedilol
ulatory
▁epid
reening
▁lax
▁refusal
▁8.2
▁Chronic
▁polymerase
▁arom
▁thal
arachnoid
oglobulin
titudes
▁loci
▁hypertension
▁ACTH
▁Physical
▁hydrop
olip
emic
▁discharge
▁parathyroid
▁Oste
▁Few
▁heteroz
obacter
roxicam
▁terminals
▁consecu
▁inconclusive
asic
▁beneficial
▁mamm
▁weighed
▁LM
▁gum
▁uteri
▁durable
▁pate
requ
▁cats
▁atrial
were
▁graded
7/
▁natri
nucle
▁tremor
▁noradrenaline
▁corne
▁6
▁6.7%
bacco
▁appendicitis
immunoreactive
▁1988
▁Thyroid
▁ELISA
▁herpes
▁bronch
000)
▁virul
▁Changing
▁creatine
eration
asting
▁19,
,000)
stress
▁observational
▁5.5%
▁15,
roup
▁paroxysmal
▁(28%)
▁8.
occus
▁lysis
uretic
▁neonatal
▁vertebral
▁divertic
▁12,
▁inver
placement
▁EEG
▁17.1
ithi
piratory
▁Thir
▁bradycardia
HB
▁atten
imus
athe
▁stratified
arity
injection
▁dermat
▁17-
▁263
reactive
etus
▁tol
▁ultrasound
▁autoantibody
amus
▁Cyt
▁congestive
▁calcification
▁respiratory
▁bonds
▁selen
plications
▁preparations
▁hypon
▁backgrounds
▁subjec
▁Effic
▁195
▁PG
▁HAM
▁HTLV
treatment
▁molec
▁dys
▁chromosomes
ylephrine
▁vulnerable
▁permeability
molec
▁1.2,
▁7.7
▁hypoxia
▁metabolite
tral
ials
▁RI
▁residue
▁50-
▁acetaminophen
▁0.36
▁51%
▁interf
▁titration
▁5,
▁(8
fluoro
+-
amel
▁VP
▁(94
▁symme
cutaneous
▁attenuation
▁paradox
kets
▁coupled
olute
appropriate
ruc
▁questionnai
eptides
▁(24%)
▁Impair
virus
▁cardiomyopathy
AFP
numbered
▁(150
▁nonresponders
sied
glutination
▁exert
onary
▁paired
▁potentiation
▁cesarean
▁4.2%
tigo
4/
▁cows
▁preceded
▁dihydro
97
▁baseline
▁Fifty
▁parox
▁chloro
(7
800
ropha
▁Lactobacillus
▁concep
andard
▁hypoglycemia
▁Absolute
roxen
▁MAb
otypes
ectasis
converting
-8.
quine
▁1.29
▁creatinine
▁infrequently
▁toxic
▁neutrop
▁morphology
▁innerv
▁glycine
▁cytokine
▁(79
diastolic
butamol
▁normalized
▁terfenadine
▁transverse
brom
▁1.2-
▁(1/
▁immunotherapy
▁replic
copic
▁188
▁psychiat
iological
▁fecal
▁malign
31
ucas
finding
▁smo
▁tyrosine
▁VO
overed
▁insom
affinity
▁HC
▁Modified
▁syncope
hered
▁261
▁TRH
▁abor
▁ips
▁Comparing
tussis
▁progen
▁0
▁microns
tetr
uprofen
▁steroid
▁tendons
omical
▁cartilage
▁neoplasm
▁controver
omal
▁antigens
▁ile
4%)
▁50
▁95%.
▁cardioselective
▁flashes
roxyprogesterone
▁prosthe
▁untrained
IH
▁eradication
▁unexpectedly
▁1.44
ustained
▁quantified
▁inadvertent
traction
▁diaz
rofen
▁38
▁Recommend
▁estrogens
cyst
▁perme
glyc
▁placement
-5)
▁hydroxy
sized
▁corneal
▁elicited
▁referrals
▁fluoxetine
▁propensity
▁enalapril
▁residual
repres
▁(4.3
▁123
emin
▁arrhy
▁predominant
effec
▁choles
▁uncontrolled
ective
▁fum
▁7.1
▁nonm
▁thromboses
phosphonates
entia
▁wound
▁Certain
▁abbreviated
(5
uretics
kic
▁titrated
▁transloc
vaccinated
volving
▁nip
avir
Bs
▁4.8
lected
▁(+/-
yzed
▁intraper
▁encodes
▁fulfilled
▁85%
30)
▁penile
▁bladder
▁inflamm
▁Lys
▁PD
▁Impro
▁Thin
▁shortening
▁intranasal
▁compromise
lora
▁speculation
-5-
LN
▁Adh
amine
SDS
▁predictors
▁adhe
responders
▁presentations
▁smear
▁Risk
CAM
▁colony
▁oligos
-66
▁dosages
▁Eighty
▁dodecyl
sian
ocol
▁gloves
▁choline
▁0.04
▁molar
▁morbidity
▁0.59
ogens
▁lipoproteins
▁empiric
▁behaviors
odop
vices
amino
▁ole
▁typh
▁pefloxacin
▁drinks
▁construc
olism
azoline
atrial
-6,
HF
▁participating
▁endogenous
▁intercourse
▁somn
dil
▁endoscopy
▁obese
▁intracerebral
▁nucleus
glucosidase
ozo
coun
6/
▁findings
▁unrestricted
▁0.44
▁sensitizer
▁CAL
loro
00-
▁sedim
▁organs
odular
▁Ia
▁1.6-
othane
▁ubiqu
▁qualit
smokers
trib
▁provid
▁synthesis
▁suppression
▁indi
▁menopausal
▁receptor
▁needle
RF
▁rhabdomy
▁abstinence
▁94
▁Tissue
4)
▁acupuncture
18,
hop
chlorothiazide
▁tumors
effective
▁97%
▁perfused
epsia
amethasone
▁specialized
▁arthroscopy
titis
▁antim
▁infection
▁avoidance
ducible
cB
▁iatrogenic
▁problematic
▁subscapular
▁Radi
▁NADH
glycerol
▁infarctions
▁4.6%
ypass
▁dilated
▁93%
▁muta
▁hippocamp
▁264
vely
▁glial
▁scin
-4)
▁interfer
▁(0.6
nee
roxic
▁sodium
▁73%
▁aortic
▁alopecia
▁advan
▁heterosexual
ADP
average
▁minority
-5.
▁cefixime
usive
▁liposomes
▁determination
▁lesser
0/
▁difficul
coup
veolar
.10
▁9.9
▁blinded
▁8.5,
▁1.17
▁latency
rotal
elic
▁fibrin
▁thrombosis
▁extrac
▁preschool
▁improves
▁0.33
▁Neither
▁2.
hydramine
vals
emak
▁rebound
bral
april
▁postnatally
2),
either
▁diagnostic
▁chemically
▁validity
posure
▁otitis
▁adjusted
▁Epid
▁synergistic
▁calcitonin
▁reveal
▁fluctu
▁90%,
▁9
agonists
ameth
astine
▁antipsych
▁cros
▁demonstrable
▁HIV
tracellular
▁coated
trop
▁Caucas
edding
aerobic
ogenesis
trophin
▁fmol
▁nonf
▁255
▁accidents
▁predictor
▁unsuitable
▁sustained
arly
▁dermatitis
▁Pain
▁autoradi
▁0.46
fraction
availability
▁increments
▁affinity
▁(40%
▁Combination
oxane
ACA
▁clones
▁smoking
▁GA
▁outcomes
blocker
genic
▁conduction
▁ligand
▁microgram
▁inflammation
▁labelled
▁yearly
▁peripheral
▁1.9
▁oxygenation
▁Tric
▁nonrandomized
▁CST
faction
▁EG
▁monthly
idin
▁glomerul
▁initiated
▁infected
▁Interestingly
▁12.5%
▁13.2
▁NT
abdominal
▁chronic
▁7-
▁131
osom
10)
▁Exercise
astases
▁sulphate
omain
▁54
venty
▁attemp
fec
▁0.55
▁eti
▁tonsillar
angiotensin
ylation
entric
traumatic
sectional
▁hematologic
▁1.16
▁immunoprec
▁Parameters
-1.5
hist
▁TG
3-
aind
▁steroids
ectomized
▁relieved
amisole
▁arteri
▁54%
uppression
icient
ylcholine
▁Hep
▁5%,
afloxacin
olesterolemic
gth
peptide
▁genetic
▁hybrid
phor
0.5
tir
▁ECGs
▁3.
▁subtype
▁catab
peri
arge
▁cortisone
▁hematuria
▁Evaluation
derived
▁inactive
▁confirmation
▁(2.5
▁analgesic
▁pancreatic
▁1966
▁junction
pressing
▁donor
▁degradation
▁implantation
arginine
▁247
▁carboxyl
odiazepine
▁Abdominal
▁ovaries
▁anomalies
ranolol
▁DS
itary
▁adduc
tein
▁competence
Bay
entif
whe
▁paradoxical
▁NN
14
bloc
▁heme
▁sore
▁RAS
ungal
▁mL
▁hypogonadism
ughter
▁regar
▁chromat
▁166
▁comparable
▁PMS
▁NaCl
oretic
▁struc
amination
apamil
▁Patients
roxetine
▁fixation
▁isoforms
▁4.5
▁lipid
80)
estrogen
▁Estrogen
▁52%
rk
▁4.2
▁favorable
▁ultra
ivary
▁multim
▁mitral
▁disseminated
erated
▁phospholip
luc
▁protr
▁0.57
▁cerebral
▁haem
reported
98
▁LR
▁reti
acked
coh
osmolar
▁(4%)
▁0.25
▁vitro
1);
▁plastic
▁emerg
▁microM
▁parie
▁60%.
▁pem
inflammatory
gated
3;
▁histological
inemia
▁recurrence
roscopy
▁257
acylglycerol
onuclease
▁wheat
▁smears
▁(5
▁aggressive
rever
thoracic
algia
▁expectancy
▁113
▁dizziness
▁PGA
▁FSH
20.
▁bowel
rowth
▁arrhythm
lamydia
▁illus
▁mitogen
▁(44
▁therapies
70)
▁tracheal
triglycerid
romy
BMD
arynx
▁cytos
▁surfact
▁CHF
valvular
isoxazole
▁1000,
▁1986
siology
tative
▁DMA
▁progressed
▁diminished
▁molecule
uding
▁investigator
▁assay
▁leucine
obarb
▁Engl
▁hypothalamus
▁scre
PGA
spar
otine
▁lasted
▁Beta
ologically
tation
exin
▁neoplas
▁(80%
atropium
▁18,
uestion
▁meaningful
▁myc
ocrine
▁anhydr
othal
▁controlling
▁10(-5)
▁ascending
▁(63%)
▁confirming
▁contamin
▁neutropenia
▁negatively
CoA
▁1.48
TNF
35
itals
phosph
▁2%
▁spanned
▁electrode
▁excised
▁Subsequently
▁resonance
▁esophageal
▁1.15
▁KCl
tene
irub
▁febrile
38
▁healthy
ulant
oblasts
phosphamide
▁Braz
▁grains
▁interfere
itrate
▁modulate
median
▁76%
▁Urine
atches
dip
▁Changes
iparous
▁transfusion
ejection
oratory
▁thrombus
▁fertil
rected
▁positional
phosphate
▁nef
agic
tribution
9;
▁exchan
▁hemo
sA
reasing
letion
103
▁hypog
▁mediated
▁Inhib
tive
▁dihyd
Lac
tations
molecular
▁aerob
▁prostate
▁adipos
▁pregnancy
▁apnea
▁16%
▁prescribed
▁couples
▁177
tron
▁cisplatin
▁antec
▁tetr
azepine
-0.0
-50
▁asthmatic
androgen
ohnson
olon
▁SPL
▁nasopharynx
▁NF
▁neutrophil
particularly
▁artery
▁olive
▁5.2
criptions
vate
▁42
▁incontin
▁160
▁cholest
▁glycogen
▁felodipine
▁0.42
▁1.46
5%.
▁grain
0%
▁lactation
▁contral
▁2.4
▁79
▁32
▁glycoproteins
▁fru
▁32%,
NAc
Gl
imide
▁clus
▁Outcome
▁Testing
idney
▁isoproterenol
patients
▁11%
▁mineral
▁syngeneic
oplasia
tures
▁detrimental
▁spas
inated
▁pyel
▁quantif
titute
▁electroph
▁nitroglycerin
hea
▁ventricular
▁facet
anis
dimethyl
▁6.
▁capillary
▁markedly
▁encomp
▁functionally
▁stenting
mega
▁luteinizing
▁complic
▁challen
needle
.6%
50),
▁nif
▁contractility
▁lifelong
galact
▁inversely
▁dial
▁respir
enol
labelled
▁ranging
omiting
▁0.001
▁asymptomatic
▁papill
ameters
▁(56
▁40%
▁hypertensive
▁590
-1,
▁basement
▁321
aturation
▁90%
▁administer
▁FE
▁eccentric
rection
▁hir
▁tuberculosis
arbox
oung
shaped
▁substantially
▁persisted
▁ocular
▁(0%
▁Caps
▁leukemic
▁sinusitis
▁bronchodilator
▁Rates
phine
▁underst
nons
▁supplement
ochemical
▁25%.
▁(14
operoxidase
actam
▁cephalosporins
▁133
▁granul
▁unfractionated
acquired
▁alveolar
linic
▁phy
▁cardiovascular
▁PGF
▁pretreatment
adjusted
oxyl
▁mobilization
▁Leukotriene
▁RNA
▁uncomplicated
▁580
pig
▁annually
▁Organization
▁nylon
ocycline
▁incub
▁induc
▁collec
▁Mini
ducing
▁viewing
▁neurogenic
▁uncl
▁concentrated
▁endothelium
▁Nineteen
▁structurally
▁admissions
ancies
▁bronchospasm
▁lambs
▁mefloquine
▁adenosine
ureus
▁serogroup
▁tumours
retic
▁NADP
(3
▁6.6%
thmia
▁muscarinic
ocyt
▁attenuating
▁caud
ensitization
▁barrier
▁rhy
▁determines
▁sensi
▁corticosteroids
▁meperidine
▁Thi
▁provoke
▁threefold
▁herp
▁pharm
nRH
-4
▁323
▁assesses
▁hypothalamic
▁overe
tist
tration
▁isoniazid
sively
▁hydrochloride
▁derange
inum
▁2.5
▁norepinephrine
▁BA
▁1.11
uebec
ensitive
▁attenu
▁700
osus
▁anticoag
▁ethnic
▁hemorrhage
▁ect
▁diagnosing
▁commercially
ipar
antial
especially
▁38%
82
erebral
xyl
▁subcellular
▁1-
▁bronchodil
ereb
0%,
▁opioids
oneph
▁hipp
▁ganglia
▁peaks
▁audit
▁85
-90
organic
orbid
▁imaging
anazol
rine
▁congestion
timulation
-10.
▁gonococcal
▁suicide
▁intolerance
ejun
fibrozil
▁excreted
olerance
0.2
▁synov
▁nonfatal
▁vivo
▁enrolled
▁calf
▁crucial
▁Doses
▁110
▁orally
▁benzodiazepine
ths
ustion
▁TCA
▁13.3
▁CRF
9,
▁Subcutaneous
▁influenz
▁unlabeled
▁anesthesia
▁PV
▁8,
ometri
pread
uble
▁laboratory
tering
lycemia
▁chicken
▁chest
▁(1).
electro
▁29
▁testis
▁reinforce
▁incorporation
botic
▁assays
▁Neuro
otamine
▁frac
▁pharmacological
fetoprotein
▁9-
depend
▁11,
▁weigh
▁atr
earing
oplasmic
otype
▁3.4%
umbered
▁clomiphene
-450
▁TD
▁RBC
▁cortisol
▁tow
HbA
▁lymphomas
▁IFN
▁indomethacin
▁aeruginosa
▁diz
phyl
▁optimally
▁7
▁sour
▁150
▁rheumatic
▁celiac
otransferase
▁.05)
▁Complications
inol
▁biased
lamy
▁amput
▁instrumented
▁circulatory
PCR
tices
▁30%
.00
ocial
▁16
▁cigarette
otonic
▁counseling
aryn
▁recruited
ohns
Ly
▁subunit
▁412
▁motif
▁180
▁23%
▁mitochondria
▁baths
isole
embran
▁hepar
verages
▁recommendations
▁Individual
▁poisoning
▁ventral
▁cholinergic
phic
▁invasive
ochrome
▁perit
▁posed
rosy
oyl
▁physician
▁lactate
▁46,
▁electroly
▁lith
▁EMA
▁1.18
plantation
▁aimed
veness
▁Escherichia
▁(0.4
oxygen
▁64
LV
▁surgically
▁162
▁pentoxifylline
▁crossover
▁hydrogen
▁Sensitivity
▁immunogenicity
▁depolar
▁AVP
▁96%
osin
▁98
▁compound
-85%
▁Breast
▁onset
▁emphasized
▁144
▁proliferative
▁63%
▁Surve
onical
▁deem
▁1.02
▁physi
▁0.08
▁retrograde
▁hypoglycemic
/30
▁(10%
seven
▁6.2
▁27%
mental
▁hypothyroid
▁1.2
▁excluded
clin
▁appendic
22
anad
▁concom
mediated
▁slices
▁quinacrine
▁39%
▁Weight
▁incidence
▁aggression
▁cephalexin
▁(76%)
▁describ
▁contralateral
▁66
▁dilat
▁DMP
▁sebaceous
▁Sixteen
tropine
▁irrever
▁saliv
uresis
indings
▁communications
cine
▁myocardi
sial
▁immunocompetent
▁0.50
▁dissemin
produc
▁rickets
▁12
▁mRNAs
▁outlined
▁transcriptional
▁tomography
▁intrav
▁0.64
▁(4-
idis
iteal
▁proving
▁enterocolitis
edocromil
▁duct
▁exhaus
▁acros
▁nerves
ineal
▁retinopathy
▁fibroblast
oil
rosine
▁abundant
▁appra
▁62%
▁8.3%
pregn
▁urethritis
uride
▁distin
▁30.
▁specificities
7%
▁tamoxifen
▁phosphorylated
Cu
loon
▁nosocomial
▁(49%)
▁Ventricular
▁3000
ococci
▁defects
▁clues
▁ison
pirone
▁estimating
ylene
▁(1.25
▁suspicion
▁advised
tency
▁clonidine
aminated
IgA
▁250
▁endobronchial
▁0.5,
▁preterm
▁Surgery
▁Highly
ylated
▁RR
▁reversal
▁95
006
▁stimulated
▁breaths
▁Cumulative
▁fibrinogen
24,
▁phosphorylation
▁PEF
▁spray
▁isop
▁9.5
thmic
▁quadrup
ported
▁1.4-
▁viability
ochondr
onide
▁therapeu
▁polypeptide
▁Milk
▁retina
▁4;
▁RT
tens
▁121
▁274
▁postulated
▁dramatically
▁plasminogen
▁inad
seud
adequate
ulsive
▁hapl
piration
▁hospitals
oagulation
▁cholesterol
▁112
▁Successful
▁reversing
ections
▁Recently
▁bacteriuria
assay
▁sulfon
▁0.5%
▁8.8
▁ovulated
▁500,
▁185
▁enroll
tyl
▁interventions
oxif
14.
rological
▁nicot
▁excit
▁EGF
▁gases
▁intran
▁Regular
▁mAb
lym
▁melanoma
▁metered
▁hypercalcemia
opulmonary
▁embolus
▁HL
chol
porting
▁557
▁somatic
▁140
▁alterations
organism
▁skeletal
▁depress
▁amylase
phot
ispanics
▁statistic
urred
▁resting
▁endotracheal
illaries
hydropyridine
onvul
-3,
aints
▁400
uvant
▁strips
-]
▁Angiotensin
▁1600
greater
▁CAH
▁suspicious
▁coordination
▁(70
▁gon
otor
erican
▁undere
2,
cellular
▁prono
unting
went
▁regulating
▁oxym
alities
▁tibia
lives
▁thrombocyt
▁chol
▁omeprazole
▁consciousness
eryth
taining
▁differentiated
▁infiltration
reased
uminal
▁glands
▁neon
▁HeLa
▁absorbed
anding
▁etretinate
▁lipids
orphin
▁hemat
stolic
forming
▁occupational
▁HS
▁tubule
cinolone
▁WHO
▁agon
▁peptides
-15
planted
▁addressing
14,
hydrox
.4
▁dosing
tib
▁midw
habil
▁proce
partate
▁suspected
▁ECG
▁superv
.2%
▁contex
linked
▁intracranial
▁suppressor
▁obstructive
▁lymphoma
▁gland
lux
xin
▁5.1
▁thyroxine
▁Optimal
rein
▁hippocampal
▁VV
-10
▁spinal
▁secretagog
▁bip
▁139
▁lavage
▁262
illin
▁deletions
rement
▁Prel
▁30%,
▁symptoms
▁isoform
▁emergent
yclo
▁regulations
▁uro
▁ischemia
AO
roximately
▁HBV
▁scars
▁allogeneic
▁swabs
teric
▁agar
isolated
▁MT
azolam
▁hyperthyroid
classified
▁crystal
henyl
▁allyl
▁ecz
▁ery
▁methimazole
▁phenotype
▁breathing
ocomp
▁discharged
Hyp
▁BALB
ittac
-1).
protein
ameter
▁64%
▁consultant
▁antifungal
▁Decreases
molality
oside
▁206
▁toxicity
unced
▁alcoholics
horm
▁Bacter
▁ethnicity
▁triglycer
eptin
▁distress
▁jaund
ographically
▁syndromes
▁.00
oprostol
▁phospho
▁13,
▁socioeconomic
▁manipulation
owever
▁115
▁monitored
▁stimulatory
▁PCOS
▁residues
▁42,
▁concordance
ocellular
ytes
igl
amn
ensi
▁thrombin
xual
▁determinant
▁suppos
adm
olic
▁outpatient
▁PT
▁(45
hexidine
sia
arrh
▁-0.6
▁constr
▁quartile
▁accounting
etirizine
▁parame
▁hypercalciuria
▁0.17
▁glutathione
▁116
uran
▁88%
▁mastoid
7),
▁abruptly
▁carriers
▁respec
▁prospective
▁epitope
▁worsen
3%
timate
oporotic
roids
sy
stimulated
▁homology
tility
▁worsened
▁abduc
heres
antibody
▁preliminary
▁irreversible
▁phosph
onates
▁muscular
▁0.14
ministration
▁14,
opam
illance
▁thems
▁chlor
▁PGE
▁elevate
▁212
kelet
▁clinically
olol
▁3.5,
aid
grees
lood
▁pyruvate
▁linearly
▁pertussis
▁Subjective
▁ICU
▁savings
▁acquisition
▁selec
▁sunlight
▁MIC
acial
▁deterioration
▁amo
calor
▁SEM
uncture
ongest
▁Comparative
topril
▁lyso
tential
▁perip
▁atherosclerotic
onstric
▁thrombotic
▁premise
▁sutures
▁detec
tee
▁dairy
▁metabolism
▁microsomes
▁jeop
▁Biopsies
▁syphilis
Hg
▁plasmids
▁physicians
tilage
▁0.01
-24
▁37%
▁motone
ritic
tence
udin
▁assayed
▁precursors
erop
▁cystic
▁antidepressants
atell
tia
▁anemic
▁GM
▁127
osal
▁excision
▁illnesses
▁peripher
illation
▁depr
▁chlamydial
prandial
ucine
▁Estimates
roxy
▁embol
micro
▁(7%)
▁gonadotropin
AH
▁cep
▁fathers
ophor
▁Geor
▁leuk
ogl
epin
▁deficient
▁projec
enin
▁anteced
▁patches
86
trated
incidence
▁cholesteatoma
-4-
arb
▁ipsilateral
ilateral
▁accid
▁encouraging
Ep
antibodies
▁amplification
▁subdural
▁bioavailability
▁cramp
39
▁renders
ayed
androgenic
▁dilution
▁aerosol
upus
▁irritant
▁70.
opres
▁adjus
▁Ninety
bility
▁chamb
Fs
▁ineffective
▁Identif
▁cellular
otoxic
▁valerate
40)
▁glycemic
▁variously
▁anastom
urnal
23187
42
▁Neurop
▁glycer
prising
130
▁Asi
acil
▁recombinant
tization
▁GMP
itic
▁(1000
▁hep
ditions
▁achie
▁ferritin
▁wheezing
▁urinalysis
▁shortened
sulfamethoxazole
epine
itol
▁Approximately
▁heparin
▁adducts
▁aggre
▁bromocriptine
coated
amilies
▁nystatin
uterine
EI
▁guidelines
▁antithrombotic
▁anxio
▁anoxic
0.00
▁follicular
azole
-2.0
assium
feeding
▁0.10
▁CSF
▁ablation
▁verification
▁Retrospective
▁contiguous
▁doubling
▁440
▁Gonad
▁incompetence
▁deaths
▁expec
▁Carotid
ampicillin
▁0.49
▁CAD
Vi
excluding
▁correlating
▁calor
/7
8,
hyp
itonin
90)
individual
▁distorted
▁105
6).
▁pretreated
▁evoked
rocy
▁AI
▁anaesthe
otypic
▁Whereas
▁10,000
ocyst
till
▁20)
▁cyclosporine
▁benefited
▁(16%)
▁Additional
ovaginal
▁cereal
▁80,
sorption
▁substitutions
▁excl
epithelial
▁schiz
plasia
▁14%
dural
▁PRL
▁70-
▁1.6
▁concer
▁Functional
▁deficiency
▁exhibit
▁wee
▁intest
invasive
▁pren
▁secretory
▁24,
▁Conventional
astom
▁shar
osm
▁saline
▁(27
▁4.6
▁encompass
urea
rates
▁24)
▁Bacterial
▁demonstrates
▁77%
▁hypoventilation
linded
onazole
▁accurately
▁immun
arying
▁lowering
▁vulgaris
ureth
▁perc
mostly
▁8
▁seropositive
▁establishing
▁Medicare
rotic
-1.1
▁Prospective
▁0.77
ectomy
▁diastolic
▁(48
▁hemodynamic
▁1,25
▁obstetric
avage
▁oxidation
semin
bA
▁6.3
▁cardiopulmonary
▁eryth
▁radiol
▁stomach
rophilic
effects
matic
▁relieving
-60
▁derm
▁intense
▁98%
▁Calcium
▁AGA
hemat
affec
anin
▁focal
adian
rals
▁weekly
ococcal
▁copper
▁antecedent
▁Sexual
fts
▁0.03
▁205
▁Fram
140
▁accelerated
▁hygi
▁3/
thromb
▁indicators
▁tendon
▁rostral
▁artic
▁inhaled
▁examinations
40
▁inadequate
plast
▁incompletely
▁cutaneous
▁diame
▁pigs
▁5.7%
▁186
▁1.5-
olerant
ylchol
▁phi
▁identif
tiveness
▁molecules
gressive
atest
▁detergent
▁TDI
▁tachycardia
▁postinjection
cancer
▁40,000
▁4.9
pH
▁occult
fusion
▁cisapride
▁fibros
▁microbi
▁1.12
ifug
oretically
▁predominantly
▁-0.
▁vitamin
▁IgA
▁categorized
idated
ronate
▁acet
4),
▁94%
▁socio
ipitation
eptidase
▁7.
▁cohorts
▁0.05
▁unm
▁(1
▁focuses
-23
imeth
▁angiogram
▁55
24)
athetic
NK
▁parental
▁linkage
onine
▁278
-30
▁gynec
▁11-
▁endoscopically
▁symp
12).
thal
▁0.90
achol
▁aldosterone
vated
▁5.4
opoietic
▁cylinder
amyl
▁ejac
▁cataly
.0)
enoid
▁Pregn
▁Raynaud
▁dehiscence
▁undergone
▁platelet
▁(10.
▁2
▁16.
▁tubules
▁complication
▁reversed
▁NAD
anat
▁depleted
▁Staphylococcus
▁Intr
▁quotient
▁TI
glycer
fib
▁synthe
▁HR
▁deox
▁subc
oste
▁serotoninergic
-2,
▁caries
hort
▁compositions
▁coenzyme
▁necro
▁correspondingly
tin
▁plasm
▁Individuals
▁metr
▁neurop
▁escal
urin
quir
▁bismuth
▁gestation
▁adnex
9),
▁cephal
essation
▁susceptible
▁clind
▁neph
RB
onuclear
▁hams
▁emo
▁Transi
▁putative
▁infusions
▁arous
▁heavier
alanine
▁actin
▁flora
▁lorazepam
olarization
▁systolic
▁hepatocytes
exercise
▁pathogenesis
timum
4-
▁beclomethasone
essive
romal
▁bladders
▁substrates
▁clinical
▁55%
therapeutic
trained
▁7.2%
▁dex
▁transthoracic
▁Abnormalities
ethylene
retest
secondary
-18
dominal
▁pulses
▁unin
▁transmitted
▁thereafter
▁CN
▁Rating
▁pyraz
▁facilitate
▁nevi
▁Improvement
▁21.2
aldehyde
▁stimulation
▁endometrium
tensity
opl
▁1.40
▁implic
▁1.09
▁50,000
▁retinoids
onad
modified
uded
▁28)
HIV
▁assessments
▁consultation
▁cyclo
▁(3),
IU
▁INH
12-
tionally
▁elective
▁exon
ocaine
▁303
▁vacu
▁causal
8%)
▁221
-20%
5)
▁fetus
amphetamine
lactams
▁pregn
▁abdominal
▁corpus
▁precordial
▁aided
53
▁plotting
▁(24
▁ischem
▁TPA
orrhea
▁crosso
▁activated
▁ane
▁enox
orac
pap
▁clot
▁vitamins
▁exploration
▁lithium
▁2.6%
5,000
▁fluoro
antigen
rief
▁psoriatic
1;
▁Examination
▁cromoglycate
Au
tract
▁246
tical
2.1
▁breasts
ipheral
▁cortex
▁inhalation
▁immunized
▁1.31
▁adul
pran
▁LHRH
▁DT
▁sympathetic
adrenoceptors
▁precur
specifically
oproterenol
▁25%
iability
▁profound
▁14-
convul
▁resolving
lysis
67
ocular
▁emergency
ygo
▁augmentation
tabl
▁injuries
▁transplanted
Ls
-1.2
▁histology
▁2.1
6%
▁39
▁extensor
otoxin
▁cyan
▁assis
stem
▁Abnormal
▁mediating
ovarian
ubation
▁glyburide
▁49,
carbohydrate
▁Reas
▁paralle
generation
▁employment
▁crystall
embrane
▁drugs
▁nutrition
tial
▁(45%)
lometh
▁atropine
▁treatable
▁kappa
▁cyto
▁61%
▁multicenter
▁erythema
▁800
▁aberr
▁tic
opram
▁continuation
▁ingu
leural
▁overview
▁dors
acetyl
▁hypothetical
▁recons
▁hetero
▁follicles
▁ejection
▁7,
▁doses
oglyc
roat
usp
tiary
▁motivation
▁235
oric
▁meal
▁targeted
▁48-
▁strand
amate
▁streptococci
phrag
▁serotypes
eroxide
thirds
articular
cale
▁233
tamine
▁aerosolized
▁Tran
▁Increas
▁179
arcin
.1%
0).
ochem
▁lor
59
▁classifying
110
▁characterize
▁conservatively
▁phospholipids
▁RV
▁iso
resis
▁sepsis
trophy
▁acetylcholine
▁consensus
▁chlorpromazine
▁sonographic
▁hamster
▁discus
▁(86%)
iotics
▁EDTA
▁arteries
▁ouabain
▁discrimin
▁biphasic
▁Veterans
thyroid
standardized
▁caution
▁postinjury
elong
▁0.09
▁Levels
▁hypocal
▁defective
-125
▁absorbable
▁urodynamic
icin
▁damaging
onit
tric
▁Chlamyd
▁endoc
▁beats
▁Mn
mortality
▁1980
oxazole
▁clothing
▁18.3
oprote
Hb
▁suscepti
▁spasm
▁lam
▁7.6
▁immunoglobulin
ews
▁sigma
▁recur
▁rhin
▁60.
deficient
atriptan
herence
▁Urea
bronch
▁57
plenic
▁nonsteroidal
▁-0.5
▁sheath
osine
7;
▁unil
vivors
▁interp
▁24-
pled
heat
▁malarial
7)
▁diagnos
▁transc
ormone
ellar
▁leuc
▁NSAID
▁myosin
▁disruption
▁proteinuria
▁rigid
▁arti
trover
▁antiarrhythmic
▁apical
▁triti
80
▁agglutination
fine
▁17
orough
▁circadian
iotensin
ibrate
▁4.8%
▁ciprofloxacin
▁2.8
▁splenectomy
▁aor
aline
TPA
galy
threatening
vaccination
gestrel
▁1991.
▁synovial
▁instrum
▁agonist
gland
tructural
▁etiology
obronchial
▁averaged
rophy
▁tendency
▁pharmacists
▁CVD
restricted
esin
▁peroxidase
▁elong
▁emotional
▁probe
eled
-600
▁marrow
arms
▁punch
▁antib
▁183
▁histologically
▁polymorph
▁physiologic
epam
death
▁morphine
onate
▁analogs
▁analysed
▁analgesics
▁athe
hydration
▁fulmin
olig
▁glucagon
▁2,
oppler
cells
▁histamine
olum
sac
urgery
▁valve
▁(43
-2
7,
▁stren
▁canc
▁capsule
onyl
▁macrophage
▁schizophrenia
▁determining
▁spor
▁0.3
tries
▁implant
mortem
▁0.6
▁irritable
▁10(-8)
▁dressing
▁nitro
▁disorder
rogen
referred
pregnant
▁0.34
umulative
▁HB
▁disposable
▁antidepress
▁urticaria
▁ward
lowering
icillin
63
▁glucocorticoid
▁hexa
▁0%
tox
ograp
zinc
▁exacerbations
▁choleste
sant
▁41%
▁abdomen
▁Overall
ometh
▁3.7%
▁indeterminate
36
▁xyl
▁Dys
▁anaerobic
▁adenomas
▁cultured
▁interc
0)
sulf
▁adhered
▁osteoporotic
▁infec
▁TS
acid
erythro
▁27
plants
modulin
-100
cg
▁developmental
5%),
0.0
▁clu
72
oskeletal
▁BW
▁metabolic
ymp
▁Unlike
▁workplace
▁Nons
▁diabetic
apular
▁washout
▁reticulum
▁alcoholic
▁electrophoresis
▁0.48
▁obesity
iatric
rachial
ASA
▁mRNA
▁inhibition
▁HBsAg
▁lymphadenopathy
▁extracellular
▁34
sies
▁omega
▁menstr
▁glycerol
▁volunteer
▁Pneum
floxacin
▁polyethylene
ffeine
stant
▁peptide
▁PI
▁(2
8%
▁multiv
rotein
▁mM
▁114
▁experi
▁radiolab
▁5.2%
▁overlapped
-6.
▁obstruc
▁hyperg
▁(99
▁dehydration
▁additionally
▁diclofenac
pyr
▁maintaining
▁12.5
itro
▁immunoreactive
▁transpor
asthmatic
azepam
▁potent
▁proges
cein
▁electrolytes
▁epsilon
▁epidermis
▁unwanted
▁inducer
alene
▁85%,
▁preoperative
▁dextrose
▁NSAIDs
▁abscesses
▁survived
▁evaluates
opa
olp
NV
▁pooling
▁consul
apsulated
▁40,
fat
▁methyl
▁stimulates
▁thromboemb
▁assessing
▁cholinesterase
idazole
eptic
medicated
▁gonadotrop
▁biliary
fortable
▁objec
▁Computed
▁caffeine
▁metastases
▁dosage
iper
oping
duce
tioned
▁(22
▁0.88
▁gly
tisol
▁ewes
icides
otri
3+
▁revised
opausal
▁monke
0.6
olones
▁Diets
farin
5]
▁epit
▁0.72
tability
▁12-
gesic
66
▁homocysteine
▁170
sibility
▁87
▁AMP
ller
▁simvastatin
▁Somatic
▁32%
▁depressed
▁bacitracin
kle
myc
▁glycol
atectomy
▁Fib
▁CDC
▁0.74
tosis
▁18%,
▁decreasing
▁Trial
▁monocytes
▁alumin
▁6%,
lamyd
▁mandatory
▁subunits
specificity
▁oste
▁antihistamines
vements
▁injur
▁aging
inositol
▁Increasing
23
▁electr
▁IBS
▁vasopressin
▁surveillance
▁patella
1:
tents
illary
▁PTS
▁modest
5'-
▁yielding
▁stimulate
ropriate
▁polysomn
▁theore
otherap
▁1.33
▁cocaine
-3)
sul
▁tolerated
7.
▁fulfill
▁4.1
▁gangl
gA
ffinities
oplastic
itamin
▁cytotoxic
▁cere
▁awareness
kage
gestation
▁accel
2.
▁regurgitation
▁biop
▁(10%),
95
▁matur
-96
▁bleeding
▁tubes
▁tooth
▁0.19
▁Leu
mur
▁concentrations
▁aden
▁trends
teroids
▁42%
▁tolerance
etence
▁abd
▁0.21
5/
▁Caucasian
ecan
▁(0.
ociation
▁incis
disciplinary
▁Formal
61
▁panels
▁myel
▁catechol
▁10(-7)
▁Alz
▁Individ
▁enzym
▁cultures
▁myopathy
00)
▁antibiotics
▁aneurysms
kephal
+)-
▁polyacrylamide
▁saturation
▁0%,
▁oint
▁Randomized
▁immunos
▁amenorrhea
ixime
ficial
▁radiotherapy
ecal
▁bone
▁regurg
opathological
▁bab
opramide
▁ceftriaxone
▁superficial
osyn
▁0.89
99
orh
-2.5
nals
▁33-
▁adversely
▁argues
FSH
lobulin
▁halves
▁internists
▁17.7
▁hypot
▁cosmetic
▁LT
▁(75
▁seronegative
▁grades
▁carbachol
ventive
▁presenting
resist
▁gastrin
▁Aspirin
▁ecological
▁0.016
▁thirds
▁insurance
igible
ylamide
▁Nutrition
erver
▁imaged
ropo
▁88
oprolol
▁quanti
gative
▁comparative
▁triad
semb
anic
biased
.1
▁Calc
▁0.001)
▁substitu
uscular
▁plaques
▁clearance
▁deliveries
▁nude
▁1.4%
▁CAP
▁hydrolysate
▁11.2
tensin
▁horm
throm
▁1.08
ROS
▁ethanol
▁vasodil
▁antagon
▁participant
▁demonstrating
ffin
▁immature
▁micros
▁attenuated
900
▁wt
▁uterus
▁negatives
uracy
gm
▁0.000
▁minocycline
▁chromatin
▁ultim
ivered
▁genit
globulin
▁serotonin
▁stromal
▁hemochromatosis
ifedipine
▁0.56
▁plas
▁Eye
▁OB
▁Diabetic
▁guan
▁0.001),
▁Framingham
xate
ALT
▁ovary
▁atypical
▁4.
▁reveals
acids
▁adop
▁inflamed
▁2.4%
oplasm
▁67%
mong
ituit
mol
▁qualitative
ercul
rophic
▁tachyc
▁shedding
▁chemot
▁defecation
▁colonies
▁anticoagulation
▁(31%)
▁30-
▁effector
pir
▁anxiety
▁Apgar
▁560
▁252
▁irregularities
▁mediators
▁reviewed
▁persistently
▁qualitatively
bronchial
▁referral
▁conflicting
rents
▁cough
▁Secondary
▁nonspecific
▁psychiatric
ecutive
▁pancreatitis
▁repl
-400
▁immunobl
▁(93
▁knees
ispanic
1.1
▁78
platin
-1.8
▁metformin
▁Epidemi
tection
▁8%
▁efficac
▁[3
▁canine
▁dismut
▁Thirty
▁ventil
▁Authors
cysteine
▁radioimmuno
▁calories
+]
▁antidepressant
▁24
uric
▁39%,
▁incid
Tyr
lys
▁MCV
▁(18%)
anuary
▁recordings
▁elec
▁4).
cephalic
1/2
measured
▁(7.4
▁yiel
-6-
15
▁autosomal
▁anticoagulant
▁questionnaires
▁unaffected
▁newborn
edle
ylase
▁influenza
▁transduction
NIDDM
▁antioxid
NSAID
▁histologic
▁80%
▁dyspepsia
▁discriminate
naud
▁nephropathy
-4.5
phetamine
opolysaccharide
▁pollic
▁VT
▁lessened
▁eosin
▁obstruction
▁(63
mobil
▁poorly
▁82%,
skin
oreceptor
erating
▁intrauterine
56
▁0.001).
%),
ophils
▁trunk
▁regeneration
gement
▁19.
duc
▁intub
▁hydroly
▁enzymatic
ressed
▁Compared
ocin
operative
.4%
▁zinc
methyl
1-
weigh
PEG
ercise
▁sulfoxide
sched
▁itching
▁TC
acer
otrexate
iciently
▁symptom
▁44%
▁apne
▁vasoconstric
▁Systolic
▁sulfate
gesterone
yocardial
▁7.7%
physiological
▁antigenic
▁95%,
odialysis
21
▁drip
▁biosynthesis
▁prognostic
▁142
▁49
▁pancre
▁uter
▁14%,
eces
▁agonists
▁prevention
▁angiography
▁surge
▁cirrh
▁syndrome
truc
▁compartment
▁99%
▁14.5
▁0.82
▁atyp
zoster
depleted
▁rati
▁abortion
▁phe
▁Meas
15).
▁(198
▁awake
titut
ensities
▁kidney
tite
amily
▁answ
▁prostatic
oxygenase
▁dyst
▁14.8
▁cysts
▁subpop
clamp
glutinin
▁colleagues
▁pathological
titial
▁mutations
▁strongest
▁LV
▁induration
▁plantar
ionine
olpidem
▁slowed
▁wake
▁satisfactorily
anavalin
▁retrospective
oronary
▁resec
titution
27
▁aids
0.7
▁mellitus
▁electrical
▁ppm
oxetine
kephalin
otassium
5-0.
▁2.7
▁47%,
▁132
toxic
CDC
▁tertiary
idic
▁antipsychotic
▁manifested
▁MRSA
▁2.3%
examin
▁antagonist
▁strain
▁crom
heximide
▁7.5
▁alkyl
▁EBV
49
orsal
osac
▁mononucle
▁trauma
▁comprised
▁couns
▁shor
▁EST
.3%
60)
▁covariates
/10
▁modulation
▁268
fied
▁depression
▁metatarsal
isal
▁10.4
ulin
▁(78%)
▁74
ferrin
▁brains
25).
vation
irubin
-35
tak
▁STI
olec
ardia
-22
▁participate
▁biopsies
▁Progression
▁subfractions
itriptyline
▁neoplastic
▁uric
0%;
▁nons
▁carcinomas
▁106
▁decreas
echanical
▁biochemical
▁dialysis
itoring
▁RNAs
▁monol
▁inositol
▁33%
▁(7.2
▁pharmacokinetic
▁substanti
▁renovascular
emory
conventional
▁inadequ
▁noncom
▁3,
lovir
▁benzodiaz
▁elevated
8;
ticular
▁3.5%
▁inappropriate
▁prel
verbal
anate
contrast
gely
3-2
▁OD
temperature
▁4.7
orubicin
plo
▁ejaculation
odopa
▁thromboembolism
DNA
▁tube
uality
▁292
▁attitudes
/9
lasses
▁ingestion
▁modif
▁murine
▁perforation
osclerosis
▁chorio
▁Invent
▁schedules
▁lowers
clerotic
▁1.42
reast
▁cefaclor
▁alleles
ophore
iasis
tional
▁specimens
▁59%
▁conditioning
osol
▁tuberc
rhea
▁recr
▁measuring
▁predis
▁(300
▁examined
▁4.9%
rophob
▁deposition
▁1.5%
▁(20%
▁treating
hydrop
(0.
athioprine
trum
▁glutamate
▁preservation
▁fibers
▁variability
▁Available
▁randomized
▁ascertain
▁hemorrh
▁HBs
icated
▁shaft
52
onidine
▁60-
▁(58%)
▁lobe
6;
▁magnesium
▁oxytocin
▁palpable
ortic
2%)
▁illness
▁medications
.1,
uminum
▁interestingly
encephal
osite
ocalization
ostasis
concentration
Hep
▁sulf
▁mite
▁chromatography
geneic
.8
▁porcine
▁plexus
▁89%
▁promin
▁contraceptives
▁Combining
▁neutralizing
▁309
▁ipratropium
▁-2
-78
▁(5%)
▁ACI
"-
▁injections
▁veins
tening
tions
▁0.78
oglobin
▁vegetables
▁TP
▁mature
▁unc
riages
▁1.36
▁nasal
▁lumbar
▁weighing
▁55-
rogesterone
▁succin
▁abbrevi
thrombotic
▁75%
▁Secretory
▁micron
69
▁granular
▁cure
-8,
-[
▁folate
▁acquiring
ields
▁0.26
▁ischemic
▁8.3
▁exhibiting
▁monophosphate
acute
tabol
▁microscopic
1).
▁labeled
▁(33
pain
aryl
▁164
3.
GH
phenyl
▁potenti
osteroid
▁strengthening
▁0.05)
▁10%
immune
▁laser
▁sexually
▁biopsied
▁gp
▁fructose
progestin
▁oss
ophila
▁sensitivity
tually
▁endocervical
entile
difference
▁modestly
-1-
:30
razole
▁transit
0.9
▁influx
tized
▁Systematic
iplinary
▁81
▁therapist
▁euthyroid
▁ionophore
▁optic
▁ventilation
21.
▁58%
▁irrig
osporin
▁fluoroquin
▁initiate
oselective
▁malaise
ronch
▁therapists
9%
▁investigations
chym
nowled
Gy
tice
▁postmenopausal
▁HP
-34
▁tryp
▁duodenal
▁hypos
etine
▁miconazole
▁modulated
▁1.35
▁90.
77
▁androgenic
▁accumulated
▁100%
▁bedtime
promoting
▁171
amicin
▁alginate
▁sha
vastatin
▁daytime
20
▁Dental
▁Incidence
oligo
▁babies
▁medication
▁diabetes
▁Significant
▁examining
▁pant
▁benign
▁pregnant
0),
▁6.5%
▁epiderm
enicillin
▁bipolar
▁pneumococcal
odds
▁(11
being
▁rejection
icients
▁triam
▁chlorhexidine
(+)-
▁wards
▁torsion
▁displacement
▁(36%)
anine
testinal
▁antigen
▁withdrawal
▁familial
▁acne
▁impaired
▁mIU
▁practiced
▁colectomy
▁spontaneously
▁uterine
▁underway
▁1.21
▁iod
▁achievement
▁examin
▁solely
▁cen
▁triglyceride
▁CM
▁EA
▁plasma
yridine
▁Eleven
▁deform
jun
▁(2%
▁pyl
▁myeloid
otre
▁metic
▁Topical
ologists
▁(6
▁clonal
density
iron
▁metoclopramide
anthine
▁metatar
▁0.20
istar
▁transcripts
▁filaments
osity
eclamp
▁anesthe
-9)
glycoprotein
▁lactulose
▁axon
▁standardi
ritis
▁pelvic
oprost
▁sedimentation
▁20
▁pall
▁reliability
labeled
▁endarterectomy
▁phosphodies
▁hypothyroidism
▁HDL
55
▁undertaken
▁subcutaneous
phil
ventricular
▁Tc
▁(30
lipid
▁secretion
▁improving
▁13%
▁predic
amuscular
▁connective
▁122
athy
▁activating
▁psor
olysis
▁transcription
▁evacuation
71
▁SG
assessed
▁urgent
▁reactions
▁2.5-
▁radioactivity
▁thromboembolic
▁atheros
▁evolved
▁prematurity
▁contributing
ecu
▁(15
▁electrolyte
▁RS
enil
▁Combined
▁hypox
choles
▁0.18
▁stimulating
trogen
▁BMI
▁0.6%
▁resemb
▁dimethyl
233
▁recipient
oprol
▁radioactive
▁cDNA
▁Purkinje
infected
▁positives
rocyte
▁10%,
▁1.06
▁fibrosis
NIH
▁afferent
fused
SMR
▁anticonvulsants
within
▁dimer
▁2.1%
enteric
24
▁macros
▁pea
▁TIA
dered
▁epilep
▁homoz
▁interacted
▁testicular
00
▁lens
ealand
RP
▁ureter
turb
distal
▁somat
▁medial
trical
iary
fractions
GI
▁affects
▁progestogen
▁microorganism
incip
itudinal
osynthe
▁1.03
▁reproduc
▁donors
▁superoxide
▁estrogenic
37
▁leukocyte
valent
▁amputation
▁ACE
▁(33%
▁precursor
▁acids
▁100-
tronic
▁placenta
]-
ylic
▁circumference
▁juvenile
specified
▁0.07
▁stepwise
▁embry
▁Hb
▁weakness
▁Mild
▁50,
osome
▁antisecretory
▁Pretreatment
▁81%
6),
▁bacteria
▁5.6%
▁1970
▁oximetry
▁psychopathology
adenoma
▁nonselective
ococcus
51
yroxine
▁microtub
thrombin
▁substrate
▁22
▁curet
▁lungs
▁survivors
▁rifampin
helium
▁thyroid
ulum
▁lethal
▁abrupt
▁6)
tomies
myocardial
▁methodologic
regn
▁Taken
▁habits
▁0.2-
▁exposures
oprec
oscopic
▁androgen
▁enhances
▁inoculated
▁1.9%
▁multic
▁microbiologic
▁Veter
ectable
jected
▁41.5
▁56,
▁proximal
▁relaxants
taz
urther
▁moderate
▁rupture
adrenergic
▁stom
ositi
amid
▁sial
▁indus
▁spine
▁NP
▁Symptom
▁manu
▁mutant
▁Depression
▁(1%
atine
▁(0
▁experimentally
▁discriminant
▁(1.3
▁inactivation
▁clinic
oidal
▁oxygen
▁kidne
2+,
surgical
uris
achid
▁18
▁ultrason
itone
▁stimulus
▁0.01)
▁secreted
▁irrigation
▁exclusively
thase
▁(1.5
BG
▁connec
oxine
▁enteral
▁ADA
3)
ologic
▁blu
clonal
15)
▁retrospectively
▁16,
▁0.7
▁biases
mild
▁throat
▁synthetic
▁155
▁stratification
▁bottle
omyces
tiv
▁mec
▁(50%
bac
150
ignificant
▁(1.2
▁accep
▁pyrid
▁quantitatively
▁monit
▁antimic
▁contraction
ginine
directed
▁unex
albuminuria
▁discontinuing
▁filament
yclic
acies
▁43,
tially
▁analys
irds
▁108
afe
ritical
▁introducing
alic
8]
▁CCK
ergy
polyacrylamide
.0
orectal
▁Efficacy
8+
FU
▁tracts
▁10.5
▁tubular
ontal
ximide
▁chloramphenicol
▁evaluating
▁pediatric
▁saturated
afibrate
▁Epidemiological
▁cutoff
▁critically
68
▁dehydrogenase
▁10.
▁cerv
entral
▁antibodies
▁irradiation
▁fourteen
15.
trol
▁conjunction
parous
associated
▁pressor
casein
aning
7%)
▁neurob
▁psychosocial
▁nerve
▁LPS
▁dips
▁0.43
▁fati
omotor
▁enzymes
▁ester
▁4.0,
▁flexor
▁Leuk
transformed
▁immunore
▁brevis
▁resection
▁43%
▁structured
▁catheter
▁fruits
▁19
intensity
▁contraceptive
apid
biotic
▁termination
▁autoradiography
▁COPD
▁spacer
▁obstructions
▁(95%
eeding
vaginal
obl
▁indoor
▁regimen
essment
▁glucocorticoids
entical
▁organisms
▁exagger
CAH
▁supernatants
▁inhib
▁Subjects
▁micrograms
▁stools
▁sput
ignific
▁mcg
▁envelop
▁312
▁conjunctivitis
▁182
2.2
apse
▁potency
▁fibres
LG
▁conclusive
aicin
orable
▁deviations
▁hemorrhages
▁teratogenic
▁vigorous
(4
▁GH
icit
hydroxylase
osomal
▁35-
ergenic
▁plasmid
43
▁SMR
▁eliminated
▁bumetanide
uppressed
▁suction
▁ventilator
▁ileum
▁lipoprotein
▁0.24
▁IUD
▁cardio
RCA
▁supernat
overall
▁scl
▁5.3
▁0.98
▁Evidence
▁motility
▁microscopy
responsive
▁1%
▁Nine
rolog
▁mann
namic
▁suppressive
▁107
olipoprotein
▁flunarizine
ymmetric
▁tricyclic
▁75%,
tinent
▁supplements
receptor
▁99
plastic
azin
histamine
ycl
▁1.6%
▁dysrhythmias
▁induces
▁cef
▁1.00
titutes
mediately
3.1
▁suppressed
▁(75%
▁manifestations
lod
▁Factors
▁70%.
▁circulation
▁intrac
▁20-
▁0.5).
▁latent
▁(67%)
▁0.63
▁44-
ropath
▁glucose
▁polymer
promazine
Ti
▁thrombo
▁microv
▁Prac
▁constituted
(6
kground
▁Protein
ulcer
▁sarcoma
▁adver
▁monomer
ionate
organisms
tiazem
phragm
insulin
sored
▁belie
▁2.6
▁Grade
-45
▁macrom
alsy
▁prolonged
aemic
▁76
▁grise
▁progest
▁exhibits
▁surf
oxide
▁MRF
▁cyclic
▁solub
▁Enalapril
▁antis
▁envelope
oconazole
▁peroxide
▁0.05%
▁hypotonic
▁genital
dies
-79
▁methadone
2/
▁identifying
▁-0.7
▁monkeys
vus
hypertensive
▁Afric
achnoid
▁(62
▁codon
PV
▁1989
oxic
ortal
unctional
thmatic
▁clarithromycin
▁phon
▁epidemi
▁neurolep
▁TA
▁tox
/18
▁Statistically
tiz
▁confine
▁lob
ycardia
▁pneumon
▁exudative
LTS
yste
▁focusing
▁equilibr
onor
▁morbid
dehyde
▁sampl
▁spleen
oblastic
▁monkey
years
▁1.2%
ixation
,000
▁increas
▁manufacturer
▁0.7,
▁Progesterone
tivity
▁83%,
▁(16
▁reser
▁hypokalemia
▁1.56
▁ultras
-2.2
▁overestimated
▁monocyte
▁wash
▁(3%)
▁chan
▁pituitary
itively
trimester
▁screened
▁analogue
▁invasiveness
HDL
▁proton
respectively
▁Comparison
44,
▁4
▁meniscal
▁immunode
▁dyn
enec
▁underg
aryngeal
sts
▁0.2%
▁stratif
▁atrophy
▁synerg
▁adipose
▁normo
ubicin
astatin
▁pharyng
▁Mg
teine
▁145
▁carp
EA
▁facilit
▁proteolytic
▁excessively
ituitary
▁(69
▁stenosis
adily
▁inversion
ughters
acerb
sess
▁fec
▁norfloxacin
hap
▁bilirubin
chond
▁conduc
lact
atment
▁cytoch
▁(89
▁adiposity
▁distinguishing
▁mucos
omann
▁septum
▁respiration
▁urtic
▁psoriasis
▁percutaneous
xide
leukin
tolerated
▁FEV
▁490
ophen
mum
orrheic
▁Sixty
-3.5
/1
uginosa
▁1.5
▁therap
▁investigated
▁endothelial
cholesterol
▁Reduction
tizing
oscop
EMG
▁0.84
▁7.8
32,
▁allele
▁uniquely
▁61
▁psycho
opic
opulation
arent
▁disadvantage
▁saphenous
tate
▁333
▁83
omatic
eclampsia
luding
anese
▁migraine
omyel
utyr
▁nucleotides
▁0.12
kDa
itness
▁CIN
▁affecting
tensive
▁1.
▁normotensive
▁olfactory
isol
opoly
5);
primarily
sar
phthal
▁pulmonary
ropathy
iaz
▁clinics
▁Streptococcus
.2
▁articular
▁selectively
▁12.
▁lability
▁cathe
▁ingredients
▁60
▁dilatation
▁30%.
-3
▁79%
▁(2.6
▁0.65
neph
▁heterogene
▁enhance
ronectin
▁cigaret
rosis
▁weakly
▁Eff
▁dye
proved
requency
ternational
-1.4
othyroid
▁Cooperative
▁lec
▁(4.0
▁anes
▁visiting
▁parac
▁arginine
ondr
▁exag
aminob
▁considerably
oplasty
▁cartil
▁characterizes
educed
ecretory
▁inhibits
ithm
▁relaxation
meas
▁preven
vein
identified
▁(47
▁cream
ecre
▁cryst
▁aggregation
atisfaction
▁decarboxylase
1.5
▁surgical
▁surrogate
▁experim
▁enlarged
▁targe
5),
ocortic
▁adhesion
ovastatin
▁15%
inating
cros
▁follic
▁6,
osyl
▁adenocarcin
▁insol
▁albumin
▁tRNA
▁percentages
oids
▁Combinations
▁150-
▁0.06
▁fever
▁sten
▁striatal
timulus
▁Pseudomonas
▁saphen
▁voluntary
▁attainment
▁suggestive
metic
▁captopril
▁smokers
sors
▁1960
▁hysterectomy
▁catalytic
▁yr
▁Cells
▁ATPase
▁157
rotid
mitted
▁aneurysm
▁70%
▁(500
▁fatty
▁antiserum
olved
▁PCR
esic
▁monolayers
sorb
▁sti
convulsive
▁anae
yrib
tinu
▁1
▁30
▁(50%)
orbidity
▁homologous
▁13.
echn
hig
▁limbs
▁brisk
tensives
▁malignant
▁disabling
▁tas
▁enamel
▁(1.4
Nase
▁untreated
▁stent
▁500
▁(4)
▁12.0
▁drank
▁amlodipine
tran
▁practition
rospinal
▁exis
opathic
orepinephrine
▁Specificity
▁hydrophilic
▁CMV
▁doxycycline
▁hypothesize
tinguish
▁halothane
▁translocation
▁immune
▁(95
▁5-
tebral
▁susceptibility
▁postin
inoc
▁metastatic
▁tubercul
▁Centers
▁adults
▁progn
▁trache
▁exten
ipid
▁430
blockers
▁[125
▁Experiments
▁paroxys
osacral
independent
▁occlusive
91
▁vascular
▁10(5)
▁neurones
▁phosphatidyl
▁meningitis
BH
iatum
tise
▁10(6)
ometers
▁reversible
▁lymph
▁complications
azep
olus
FEV
▁resis
5%,
▁fertile
acted
▁plex
▁uptake
-3.0
▁preeclampsia
▁92%
▁VIP
▁freeze
▁100,
urate
Ra
ilep
▁naf
▁cytotoxicity
▁pylori
chid
tic
▁mening
▁foods
▁estrogen
▁retur
predic
▁graft
▁encouraged
▁antid
tocin
▁circulating
▁hyperglycemia
▁isot
▁deduced
▁(8%)
▁adrenaline
▁lumb
facturing
▁nonprotein
▁transforming
▁inhaler
▁sclerotherapy
▁1.19
▁nutritive
aminophen
▁certainty
▁subjected
▁varicella
▁subun
▁atopy
Ala
▁painful
VV
▁cyclospor
▁arrhythmias
▁carbohydrates
▁endometri
tural
▁thyroidectomy
▁8-12
▁inhibitors
▁marginal
▁benzyl
▁1.24
fication
▁identifiable
sions
▁progestin
▁accounted
amet
▁glutamine
▁6-
turally
▁17,
▁deterior
alc
▁effusion
▁unvaccinated
▁contradictory
osamine
▁(72
▁thickness
▁(400
▁edema
▁Almost
/20
▁chorionic
▁spontaneous
icardial
atonin
gans
▁0.29
▁3)
▁zoster
oacetic
▁awak
▁Rats
radi
aminergic
▁3).
▁temperatures
▁methodological
▁spikes
▁20%
▁longitudinal
▁standardization
▁cyt
▁sequentially
▁GAD
▁Neph
▁pneumonia
▁apprec
olac
odipine
▁islet
acet
kinje
inhib
▁infants
▁Newly
vascular
▁confounding
2+]
▁(60%
ophil
▁breakthrough
▁stimul
▁(4.8
▁fron
▁quantitative
▁213
▁lys
trypsin
▁126
▁intervention
▁endotoxin
▁200,000
,2
▁BAL
▁NGF
▁endo
acrylamide
▁professionals
▁thi
▁mEq
▁exudation
2]
minal
▁preval
▁Estim
▁LH
tase
cardi
ionized
▁Thirteen
▁individualized
▁catecholamines
▁achieving
10
agonist
▁chemicals
parathyroidism
▁inward
eck
imethyl
4]
aginal
pinal
▁56%
▁ald
▁40
loride
▁rhythm
▁incorporated
▁(23
echan
▁methotrexate
▁(250
reement
adication
▁scarring
ophageal
BT
▁enteric
regulation
▁0.4
erent
iatic
hyde
▁digestion
▁constric
eptide
raconazole
▁Respon
thym
▁immunosorbent
▁128
▁unrel
parative
▁brady
/34
▁Behavioral
▁0.67
ordination
ysts
idne
▁prednisolone
vul
deficiency
▁prostatitis
phadex
▁Consequently
▁101
929
▁gonorrh
psych
▁0.05),
▁Infants
11
▁worsening
▁1969
▁implants
▁quantit
▁levodopa
▁superiority
CHD
▁tubercle
farction
nai
idation
▁chick
▁aspiration
▁superficially
accharide
▁irritation
ectomies
amous
hemical
▁horiz
▁failures
hepatitis
▁-12
oprim
openhagen
▁multivariate
▁mobility
▁genetically
▁congen
▁0.25%
▁Extensive
▁PPV
cortisone
▁satisfactory
▁arthritis
▁thymocytes
/32
pore
▁Wistar
▁sexes
▁encephalopathy
oretical
▁(12.5
ecyl
chymal
▁pig
tense
ichia
▁rated
▁intracellular
▁93
▁152
▁allergy
▁optimizing
▁warts
umerous
▁Staphyloc
yroid
pendent
▁caregi
ochromatosis
▁endocrin
mitter
ufficient
▁colpos
▁nonsmokers
maximal
▁nore
ophren
(2+)-
▁69
ogeneic
▁infections
▁hyperactivity
tle
▁0.4%
▁streptococcus
▁intrinsic
hern
▁responded
▁plasmin
▁citrate
▁0.87
ymal
▁contractile
tructive
▁0.40
▁exogenous
25,
▁topically
▁recurred
ceptive
ocys
▁esophag
uron
▁cytoplasmic
▁acetonide
▁lymphocytosis
▁FT
.6,
▁ech
exc
ygen
▁desatur
▁metronidazole
ordance
▁14.
ographies
▁insignificant
▁SPF
▁Melan
aund
▁infil
ogenetic
thin
▁compares
▁FDA
▁reliably
▁coval
oxone
▁0.5
▁4.3%
lastic
▁thromb
▁supine
▁inh
benefit
esthe
linking
▁5
▁anomal
▁prolongs
olam
rozen
▁usefulness
Dawley
usually
▁intermedi
▁28.
▁hemisp
▁calcified
albumin
▁6.4
▁deter
▁SHR
▁0.93
▁0.1%
▁277
▁cohort
▁fatigue
ritish
▁0.9
▁0.02
ithin
erents
gol
▁75
gene
onucle
▁catecholamine
▁proliferation
cyclic
oracic
ostic
poor
▁innervation
84
▁Routine
▁serotonergic
▁spectroscopy
▁obstetrical
▁blockers
▁Serum
kine
▁clom
▁7.4
▁forsk
▁ulcer
▁ibuprofen
▁salivary
BM
▁14
▁glomerular
▁thym
▁angina
▁endocrine
▁correlations
▁niacin
▁abnormal
▁silic
▁(5.3
isters
strain
▁progres
▁poin
▁regulated
▁definitive
adine
▁-15
▁nmol
▁Subjec
VAS
▁predisposition
▁1991
▁mep
▁Histologic
▁5'-
ovirus
Pen
▁discon
▁28%,
▁drops
▁transplant
▁(97%)
abd
▁74%
▁sati
▁diarrh
▁gyn
itus
▁supervised
▁massage
▁hyperp
▁coag
▁acad
odium
▁spirometry
▁(1.0
▁ESR
▁incubation
atid
▁disability
▁salbutamol
76
▁transcript
▁inspiratory
tagland
ologous
0%),
▁corp
▁newborns
▁1.7%
▁Elevated
▁ribs
▁0.3%
▁249
razolam
▁subtypes
▁293
▁kDa
▁(50
▁pulmon
ocardial
▁involvement
acental
▁Extr
▁117
▁adip
ludes
▁microscope
▁melan
▁chances
▁relap
▁HbA
▁40%.
▁hypothe
▁refractory
RNA
esity
▁swit
▁regained
ffinity
▁tric
▁mice
▁discre
▁juice
▁radiologists
oreal
27.
▁conformation
▁hepat
▁esters
nosis
▁interv
▁miscar
ration
andida
omonas
▁(197
500
▁utilized
▁antibody
Ps
ipramine
ffer
▁anatomic
▁diary
▁enhancement
▁diarr
ondyl
iodine
opre
odic
▁dysplasia
▁PE
10.
tenti
▁corticos
▁calves
▁duoden
▁leukocytosis
▁premenopausal
geal
iated
osidase
▁hydroxylase
7,000
▁undergo
▁puncture
▁eligible
ilization
▁polyp
▁Gluc
diagnosis
neumon
▁295
omycin
roin
▁glomer
▁mmHg
▁hormones
▁interrup
▁strepto
▁NMDA
▁234
cessive
MV
ucl
bic
81
▁posttreatment
▁jaundice
tally
adrenaline
▁GSH
otoxicity
▁endos
arean
▁66%
▁19%
terol
▁regulate
▁selectivity
▁lisinopril
▁286
orotic
▁behavi
rof
▁complaint
▁Salmonella
▁8%,
sus
▁enti
▁Patient
ographs
▁albuterol
acchar
▁elast
10),
limb
tam
onam
▁52%,
otherapy
▁homogeneity
▁11.
▁repetitive
▁Injury
terminal
▁(15%)
▁insoluble
▁offspring
▁amph
▁exhibited
▁1.66
clusive
pectively
cervical
▁pronounced
▁positioning
omat
▁abnormally
▁bathing
▁deletion
▁tablet
siologic
.9%)
affected
ynaptic
▁automated
▁(2%)
derly
▁0.22
0,000
▁immunoblot
▁refr
diabetic
0-
▁suture
▁sarc
tenance
mates
▁laminin
rogenase
▁-0.4
▁paternal
amycin
▁8.0
-1.3
5).
▁Chlamydia
iotic
▁oral
60
▁Notably
otting
▁0.52
tality
▁systemic
▁275
▁10
orec
▁Dip
▁contaminated
▁pigment
▁absorpti
▁peers
▁implicated
compared
▁infectious
▁hypothal
inase
▁probes
▁valproic
emetic
▁0.47
▁gradual
▁microvascular
utaneous
▁uninter
loxacin
▁13-
▁obstetr
▁regimens
lasts
ivation
avail
▁hypop
CSF
▁monolayer
▁(75%)
▁4-
ofen
▁fluids
▁(140
icacy
oxicillin
▁epidural
▁triamcinolone
▁defic
▁curric
avirus
▁enrol
▁surround
▁stres
▁atenolol
kinin
fiber
▁administered
tics
▁3.0
luores
▁blocker
etween
iloride
luded
▁absorptiometry
uplex
4).
▁glycos
▁multiparous
ampl
▁MHC
▁Protection
▁ferrous
welling
2,000
10,
tissue
ogenes
▁subjective
▁dias
feren
▁dysfunction
▁270
▁blacks
23.
IFN
ullary
retin
▁disturbance
▁prophylactic
evoked
:1
tryptamine
▁Fifteen
urement
plemented
▁buspirone
▁presynaptic
▁acqui
▁28
▁allergic
upuncture
▁LN
angl
mg
▁entero
▁Antim
▁underwent
MH
▁refrac
ilized
▁discontinuation
uvate
▁spon
▁symptomatic
-25
▁22%,
▁MH
▁Screening
▁modeled
▁diagnoses
▁10.0
ardized
1]
▁CTL
gluc
LH
stim
ocyan
tively
▁blot
▁phenomenon
▁universally
osocial
▁relie
▁ket
▁drain
1),
▁lact
▁82
▁296
valence
▁7.2,
▁147
centr
activated
▁28%
▁elemental
▁betamethasone
oes
hene
▁adhesive
▁8.6
▁beverages
alb
centered
▁autop
▁unipolar
arrest
inyl
▁hydrophobic
▁unilateral
ogenic
acterial
nitro
▁depressive
▁fibroblasts
▁173
▁isolation
adox
▁antiser
MN
▁synthetase
▁gamma
▁embryo
▁thiaz
olecular
rectomy
terolog
▁antichol
▁scalp
▁strom
chloro
▁penicillin
▁insufficiency
▁pump
wes
-7)
▁arteriosus
onephritis
11.
▁135
▁adoption
3).
▁supplemented
▁differe
nec
▁asymmetric
▁(-0.
▁colitis
▁Mortality
opal
▁noc
▁Mediterranean
▁infertility
▁(2)
▁femoral
oustic
▁differentiation
▁hormonal
▁(0.5
artum
▁perfor
▁multis
tus
enan
.8%
vating
▁cuts
▁GE
▁mesen
▁differen
▁goiter
▁logistic
▁4.4
▁mitochondrial
▁preferentially
▁48
▁cGMP
others
▁CNS
endix
▁intramuscular
trac
▁fluor
▁criterion
omyc
▁semen
▁ulc
▁addiction
▁unusually
▁ANF
▁ammon
40.
elec
ipr
increased
▁315
▁protoc
omized
▁31,
achial
ocor
▁AMA
34
▁lacks
▁osmotic
▁1983
ticle
▁glutamic
▁0.30
plas
▁rele
weighted
ifornia
conduc
▁vegetable
retion
▁PEG
▁beha
▁decisions
urgical
9-
▁tightly
▁80-
▁musculoskeletal
arental
▁(17
▁deple
▁vaccine
▁placebo
▁Fc
▁disrup
▁erythematosus
▁9,
▁dementia
pli
titu
uin
▁41
▁desm
▁plaque
vular
▁elucidate
▁basal
▁immunodef
22,
▁hCG
▁nuclei
olgi
▁TSH
▁ank
merc
corrected
ompan
oresis
▁enl
57
ardias
▁electrom
▁remin
▁cruc
▁abolished
uation
omn
▁stain
▁1000
▁prostatectomy
ocated
▁PH
▁satis
▁malformations
▁decade
000.
▁Maximum
▁menstruation
▁contribut
7]
roma
▁augmented
▁dyslipid
▁needing
reated
dihydroxy
erance
▁1200
▁Recent
▁anxiolytic
igaret
ocrin
▁hypercal
TN
▁itraconazole
cepti
odine
▁lumen
▁Prevention
▁endot
▁spati
▁pyram
▁0.00
chloride
▁coli
▁aerobic
▁ionic
yx
fected
▁comprising
-9
▁statis
116
▁rectal
▁Delayed
▁1.25
▁Myc
▁stringent
ositol
idate
opian
Mu
▁ramipril
▁amitriptyline
▁sut
▁corticosteroid
romes
000
▁favoring
orenal
sis
▁epinephrine
▁revascular
▁recalled
▁300-
hir
▁MAP
▁technologies
▁esophagus
30-
▁(10
▁resuscitated
▁appropriately
▁disturbances
▁cloned
umetanide
▁sequencing
oag
▁managing
▁polymy
▁implications
aturity
▁perception
▁Cardi
▁kinase
oves
▁gains
tives
▁pim
▁lymphocyt
▁stained
silon
asal
ulph
▁Differen
▁TGF
▁Suc
▁hyponatremia
▁theophylline
▁endoscopic
reatine
200
▁carcinoma
▁sulfonylurea
plic
▁deleterious
▁caro
▁heterozygous
▁elderly
crimin
▁brainstem
▁pathophysiology
xone
blood
▁-6
ilical
▁miti
llate
▁surveyed
▁0.2,
lec
herent
▁9%
▁hypogonad
inesterase
▁ruptures
stranded
▁(84%)
▁reinfection
▁mutagenesis
96
▁nervous
▁brush
▁130
dine
▁Diagnostic
-800
▁reactive
▁electrophoretic
▁kinases
6.
▁29,
entified
intestinal
.5.
Rs
▁admission
▁aspirin
17
▁carbohyd
▁glycoprotein
▁3-
▁potentiated
▁weakened
▁decayed
▁gout
▁livers
idium
▁pharmacy
▁preferen
-40%
brain
▁20.
▁tissues
▁basolateral
▁adulthood
▁transluminal
▁disclosed
▁voiding
▁3.5
▁hypoxic
▁adap
▁unbiased
▁oxidative
▁5.8%
▁serum
▁6.6
▁blast
ascular
ystag
▁affinities
lobin
▁splic
uclear
arrhythmic
▁osteopenia
▁PKC
▁52
▁filtration
▁extraction
▁hepatotoxic
ystitis
▁137
▁(3.8
▁longus
▁allevi
▁tac
erable
▁(69%)
ocrit
▁gastro
▁Vmax
▁rabbits
47
▁tryptophan
dle
▁mixtures
▁Localization
ceived
▁cardiac
olone
vasive
hydro
▁1.0
▁deoxyrib
administered
cycl
pite
▁ambulation
-80
▁lupus
rox
▁serological
▁1.75
▁venography
▁routinely
atrop
▁trend
CABG
33
▁Alzheimer
▁psychotherapy
▁hepatic
diabe
▁neuropathic
helin
▁arachid
eal
asses
▁96
avoid
▁UTI
5-
antoin
diagn
50).
▁dysp
▁TM
▁PPD
▁localized
ffec
▁(2),
ventil
▁unresponsive
MDA
▁cervical
versely
uoden
▁decub
atified
▁35
▁BCG
▁calculi
▁(82
▁25
▁fluc
▁drainage
▁genotypes
▁trypsin
▁transferrin
menstrual
1%
▁undiagnosed
▁(62%)
▁fetuses
▁granules
▁isolate
ondon
▁0.01),
9.
▁acyclovir
▁pregnancies
▁exacerb
▁quin
▁continuously
opath
▁radiography
ressive
▁dib
▁SDS
▁0.76
▁uni
▁formulation
▁iden
▁stu
▁preventive
ocytes
▁granulomas
estive
/12
▁nonsurgical
▁adi
ophylline
entan
▁9.7
▁nonsignificant
ronchial
▁dextran
minis
▁EE
▁sham
▁perin
0%)
▁15.
▁(1),
▁0.71
▁depolarization
allium
otides
▁labelling
controlled
▁contracep
▁343
-7.
torchid
▁102
azem
▁Copenhagen
▁3.1
▁hemoglobin
▁(41%)
▁cellul
▁intrapartum
▁influenzae
ocompatibility
trial
▁adenocarcinoma
renaline
▁excessive
otone
▁emissions
transferase
▁wk
▁reactivity
ipro
ocarcinoma
relaxation
idespread
LDL
▁mitogenic
▁fibrillation
published
olution
▁effec
▁BV
tum
▁xen
lymph
▁enlarge
opathy
tisone
▁229
▁Magnetic
pharose
etitive
▁rigorous
▁nondis
▁testosterone
▁tes
▁punct
▁toxin
50/
▁prophylaxis
▁1.10
▁metast
▁somatostatin
▁attendant
▁glucosamine
▁systematic
▁0.95
arous
tub
▁fractures
▁indo
genital
terone
▁leukotriene
▁psychological
▁280
▁0.35
▁differs
▁Preliminary
▁IgM
▁terminus
▁nodules
esium
▁visits
initiated
85
▁fold
▁Rif
▁hypother
▁Included
▁mast
45
▁PSA
orrh
▁outflow
