otox
▁discharge
estis
▁comparisons
ompan
▁glomerular
▁intracellular
▁proteins
gluc
atid
▁4,
19
▁interf
▁regar
▁resul
▁prolonged
tial
7%
▁mM
ulatory
acin
FU
▁hepar
▁GH
▁histological
▁ket
monary
4)
▁antagon
▁deple
▁maturation
▁biop
loid
▁2.0
▁10(
ocyt
▁derivatives
▁serotonin
mentation
▁aerobic
▁6
▁immunore
iary
▁precur
▁fractures
▁subtype
▁follic
menopausal
trop
icine
▁adenomas
▁acet
▁pelvic
▁neurological
CSF
▁abnormality
▁repor
ullary
onary
-1,
▁adenylate
inic
grees
▁homologous
alc
▁HL
▁inflamm
▁opioid
▁chor
▁bip
▁viruses
▁albumin
▁undergo
▁immunological
asic
adiol
▁maternal
prising
(+)-
cious
▁promo
▁disappearance
▁0
idase
▁tyrosine
▁randomized
▁measurable
▁simultaneous
▁induc
▁fibrin
▁manifestations
▁leakage
▁hydrox
▁trache
▁prevalence
oxic
osynthe
▁stimulated
▁assessed
▁depres
▁extrac
reased
ifferen
▁immunos
▁tolerated
▁aden
zyme
▁tas
idate
▁excre
sych
▁muc
-2-
.5
ctive
tance
▁recor
athione
tabol
▁[3
rogenic
cribed
1,
▁kinase
tel
▁stenosis
leukin
▁MV
▁decreas
oradi
illary
▁adop
acrylamide
oA
▁tumor
▁diabe
sible
tiz
▁(7
0%)
tality
▁19
▁chloro
▁44
▁melatonin
▁35
▁monkeys
9)
▁49
▁glyc
▁lipids
▁nig
▁mononuclear
▁shor
▁accumulation
sies
nec
▁predominant
epti
▁LC
glycerol
▁MRI
pyr
▁TA
essel
▁chemotherapy
▁ach
intestinal
glucose
▁underst
▁hemorrh
▁differing
uria
▁expres
ochem
▁organs
yroid
▁CI
tries
helial
.4
▁kinetics
resistant
▁eosin
HB
▁histamine
.8
▁cystic
tact
tent
assay
tis
▁aureus
▁lec
▁adverse
resting
▁quantitative
▁muta
▁ventricle
▁Whereas
▁projec
▁deterior
▁55
▁0.7
obarb
lux
adrenoceptor
▁metastasis
ogens
sorption
▁atheros
▁characteris
▁5%
renol
▁ane
▁198
450
▁pati
▁spinal
▁prophylaxis
▁TC
▁1.3
▁zinc
▁smo
▁adren
▁exer
▁proportional
▁kidney
ymp
▁intra
▁comparative
3.
▁melan
tice
▁traum
independent
▁immunoreactive
▁discus
opausal
2/
labeled
▁epithelium
▁(15
anine
ygen
aemia
▁interv
▁influenz
▁hydrolysis
▁immunoglobulin
Phe
▁preven
oscop
ymptom
▁unde
▁cyst
▁cytotoxicity
ipit
▁anatomical
▁150
2%
▁somatostatin
▁PMN
▁sulfate
adren
▁correlations
illus
▁anesthe
otoxin
▁saline
▁junction
▁tox
ophilic
▁chan
▁dexamethasone
otyp
vation
▁heterogeneous
▁olig
immuno
▁Increased
terase
▁chol
bic
▁limb
▁(1
▁ventil
▁superficial
▁melanoma
▁indications
▁diffic
▁undertaken
48
▁cervical
▁pneumonia
occal
▁perox
▁polym
hydroxy
▁efficacy
▁pathogenesis
▁complication
▁Hz
▁prostatic
▁5'
▁prostagland
▁28
eration
▁sulf
▁affinity
▁IU
uoden
containing
▁mumol
oprote
onography
ectomy
▁isolates
adic
▁IA
6)
lated
▁phenotype
▁compli
-100
sA
atories
mental
uron
2,
▁grafts
turb
▁fibrob
▁hypog
79
ayed
▁decreasing
lastic
▁kerat
okine
olytic
▁benign
▁membranes
▁molecule
▁endoscop
osterone
▁1.4
▁consis
.2%
6,
▁alk
▁rhe
▁transcrip
derly
tingu
olism
▁indicators
piration
trin
anol
ocl
▁underwent
▁stu
.5%
ogra
▁monoclonal
▁edema
lymph
▁macrophage
▁malign
40
otide
▁mAb
▁reversible
atient
▁4
lym
▁obesity
otomy
▁ADP
athyroid
▁incub
▁24
mediated
▁Mg
ylcholine
-5
▁(12
▁1.2
avage
▁infec
▁somat
itin
▁spectro
lycerol
inergic
0.5
▁neuronal
▁elevated
▁metabolism
▁iso
▁remo
▁retin
astric
▁cyclic
▁cortex
▁scre
ensory
▁corne
▁12-
-1-
▁carbox
ocardi
▁quanti
8%
▁depr
▁33
▁blockade
▁proliferation
▁schiz
iotic
▁intrav
▁inoc
▁30%
odil
▁determinants
▁regis
▁fibers
▁enzyme
▁degrad
ocytosis
▁cytotox
tensin
▁sple
▁operative
iotensin
▁obese
▁requi
▁deficits
▁32
scherichia
▁glut
▁impairment
taining
mittent
helium
▁congenital
▁cytosolic
▁pulmonary
illin
▁concentrations
▁arrhy
renal
sively
▁leuk
tensive
activation
rophy
▁12
▁2.5
▁provid
▁vascular
▁agonist
▁antagonists
▁exce
dia
▁longitudinal
▁monitored
▁dopamine
▁hypertrophy
coh
▁conclu
▁interpre
▁elevation
.9
▁nonc
▁peripheral
pine
▁acqui
▁unex
ucle
▁differentiate
nRH
-10
2+
▁insufficiency
▁uncom
▁endothelium
▁gland
▁implicated
▁myocardial
▁dietary
activated
olol
▁molar
▁discon
▁donor
▁ery
▁50
▁receptors
echan
▁0.01)
tension
▁irradiation
▁homogen
BV
▁90
ilateral
▁polypeptides
▁correlated
▁phe
qui
ologic
▁injec
osom
▁embryo
oplasm
▁TGF
▁fas
▁VO
▁glucagon
▁fluores
positive
▁heparin
49
luent
▁compounds
▁Clinical
esic
▁rectal
bility
bac
▁panc
▁estradiol
reas
▁anemia
▁8
opro
-4
▁cyto
▁disapp
▁1.7
▁apo
oplastic
▁etiology
▁methyl
▁dendri
hyd
ncy
▁15
oplasty
otor
▁stimulation
▁Intra
▁CMV
▁substances
tration
▁dex
▁cAMP
ocamp
▁transloc
eptides
helin
▁cerv
rox
▁transfusion
▁infiltration
itus
▁reflec
▁nucleotide
ocaine
▁(20
125
▁pmol
-1)
▁haem
ogenous
▁NK
aemic
▁complications
▁IGF
▁contrib
▁ulcer
usp
▁pyr
rease
▁adenocarcinoma
tic
2.
▁biochemical
▁chromat
▁collec
lysis
▁dissection
apeutic
▁vaginal
rocy
▁ATPase
▁NH
▁27
▁elu
lobulin
▁sepsis
▁exposures
ginine
▁filtration
▁myel
▁hyperg
odal
bly
57
▁5,
▁somatic
oxid
▁0.0
▁artery
▁unstable
▁cen
▁potassium
▁enl
▁amo
▁allo
▁pneumon
osome
▁fati
▁physicians
▁immunofluores
▁pla
mediately
▁pancreatic
▁micrograms
teroid
▁prophyl
▁LT
▁kinetic
odynamic
oglobulin
▁85%
tions
▁affec
ichia
immune
transferase
hep
▁72
ilic
truction
▁Neu
teroids
▁porcine
▁Taken
▁0.05
▁arteri
acchar
▁catechol
phosphate
▁0.
OH
tens
▁depletion
▁hams
▁pyl
▁RA
▁glycoprotein
▁criter
▁venous
clo
▁inactiv
cepti
hyde
thyl
seud
▁pyram
pir
▁hydrogen
oconstric
▁infants
▁47
▁pate
risk
34
greater
▁phospholip
▁replication
▁ventilatory
hemical
omal
▁antibodies
osts
tagland
oclonal
▁1.6
▁epinephrine
atients
▁deficit
▁70
▁localization
▁cyclo
▁BP
▁multic
▁sugges
▁follicle
6.
thma
1),
mia
▁renal
▁allergic
▁Cyt
▁cytochrome
oxygen
▁pathologic
▁(3)
5%
▁39
▁phosphatid
▁progesterone
▁catheters
.3
▁tric
hea
▁definite
omical
▁unilateral
▁PCR
▁attenu
onate
▁bene
▁induction
▁identif
▁pathology
spectively
adily
▁salivary
Hg
ophag
wenty
erent
▁immunode
-6
▁saliv
▁prolactin
▁lamb
ovine
▁inhibition
entan
ochemistry
▁cutaneous
▁poten
▁thym
▁recurrent
▁emerg
cardi
▁intramuscular
went
▁synthesis
▁regimens
▁electrophoresis
tamine
▁cortic
iol
▁lys
ochrome
ffec
▁elec
▁lymph
▁Asp
▁concomitant
spective
▁1.5
odium
▁lateral
▁paralle
▁thresholds
▁11
▁equilibr
▁atherosclerosis
▁soy
▁intrap
oglobin
ranolol
▁supernat
entral
▁amp
▁hypertensive
▁propranolol
ration
viron
veness
▁neurologic
rhy
aneously
tec
▁angiotensin
erence
▁renin
teine
otropic
▁cys
▁plasmid
olated
▁toge
▁drainage
▁perin
▁precursor
▁intraven
▁ald
▁pharmacological
treated
000
oyl
omat
▁membran
ignificant
▁incubation
▁Hb
namic
▁viral
▁overlapping
65
▁biopsies
▁RBC
▁4-
▁cohort
▁wee
treatment
tron
stim
▁IgE
▁pH
▁extre
▁Km
tization
▁ethanol
▁graft
▁clearance
▁resusc
▁limbs
▁retrospective
kinin
,000
▁prel
sess
▁Lys
oplas
▁prostaglandin
kele
bular
▁intest
▁auditory
▁uptake
▁diastolic
▁aortic
robic
▁anticoag
▁(2)
affec
▁mice
▁parame
▁conduc
▁opi
4).
▁lymphoma
▁inhibitory
31
▁ACh
▁sti
▁intrinsic
▁LPS
meth
▁favorable
odon
▁moderately
▁intestinal
gesterone
acet
trogen
oceptor
▁surgical
▁morb
ffin
15
ymme
▁evoked
ologous
ilibr
▁chlor
▁oxidase
pinephrine
duce
▁reagents
▁peri
▁perip
-2
etal
▁atrophy
▁substitu
associated
5.
▁chemotactic
▁collagen
infected
▁connec
▁Escherichia
▁spati
RH
▁synov
feron
roximately
▁recipients
reast
▁43
amate
▁adequ
00
osomal
▁microsomal
▁BAL
▁trypsin
▁occurrence
▁30
▁PCO
▁gastric
▁gamma
▁cortisol
azole
▁vitro
▁interleukin
▁0.05)
▁actu
fec
▁enti
onomic
▁relap
▁regimen
▁suppression
genic
▁resection
▁Tum
▁segmental
ogenic
achid
otypes
▁AIDS
anding
3,
gely
▁cigaret
▁binds
▁GFR
▁Bec
▁rats
erating
▁gestation
▁sten
▁amino
rents
ensitivity
▁recombin
▁hetero
tively
feren
▁nucleotides
▁anat
▁suppor
▁differenti
idation
kines
▁embryonic
▁Hyp
▁2-
▁extracellular
▁metastases
ffinity
▁androgen
ATPase
▁chec
▁(9
▁avail
ociated
▁reflex
minis
▁exchan
▁confir
▁glycos
▁peritoneal
▁undergone
44
ylamide
eak
▁platelet
▁morbidity
tional
▁pancre
keletal
orrh
gene
▁2.
▁mmHg
12
▁gradi
-3-
▁aneurysm
▁dorsal
titial
geal
occi
▁endometr
▁oxide
▁adhe
ecu
mend
▁cumulative
▁0.01).
atase
▁decreased
uvant
▁intestine
▁platelets
ranial
▁surgically
▁mann
▁Compared
▁chemot
osyl
▁phy
utions
1.
▁0.4
▁125
▁metabolite
▁seizures
tisol
▁cardiac
▁psychiatric
tiveness
▁tran
▁hemodynamics
▁tib
▁13
▁23
▁ultim
sive
▁extracts
▁testis
orbol
kely
▁peroxidase
▁ganglion
hydrox
▁1)
▁amyloid
atest
jun
▁peptides
▁ae
▁0.1
▁persis
▁axons
8-
▁ablation
adrenaline
oxin
▁vitamin
▁cate
esthe
ociation
▁Tran
▁alterations
▁medial
-14
▁lumbar
▁15%
ergen
▁kidne
ilical
▁trig
▁induce
▁lobe
lier
ergency
▁nitrogen
▁capillary
▁sph
▁20%
▁practic
▁onset
-15
ocytes
athetic
53
▁coronary
▁transient
▁mucosal
▁epidermal
▁struc
▁macropha
pendent
fusion
▁29
99
▁attenuated
▁kDa
ostic
▁testosterone
ocar
▁differe
▁enhancing
▁occupational
umerous
▁lymphocytes
tion
erb
▁adhesion
▁tach
▁demonstrating
2).
▁ovari
▁Serum
▁PTH
▁7.
▁hemodynamic
dose
▁chond
▁beha
▁lamin
phen
▁quantif
▁intrac
tially
▁insertion
ignific
▁hormones
▁excision
▁synaptic
▁sperm
▁collateral
minal
▁lactate
2%)
▁alveolar
▁genome
gic
vul
▁hazard
▁0.6
▁histologic
▁Doppler
▁antiserum
ometh
▁scin
-3
▁fetus
▁contraction
▁sci
▁1-
piratory
▁gastro
▁injur
amethasone
▁statis
iminary
▁cleavage
▁susceptibility
roxim
▁repres
▁yielded
▁recom
▁alteration
▁regression
lix
Pa
▁300
▁(10(
ohyd
urgical
▁mV
▁usefulness
▁plasm
▁valve
tention
ithi
▁phosphatase
▁oste
▁effic
vely
dition
▁neph
▁hepatocytes
▁cereb
▁reag
produc
▁spontaneous
▁mutation
▁intensive
▁prospectively
dominal
▁cellular
▁systemic
▁plasmin
▁reper
▁astro
▁HC
oride
ivation
6-
irc
▁inhibit
▁infections
▁sensory
lood
▁exis
▁microscop
▁10-
▁symptomatic
entanyl
▁homogeneous
▁posi
▁efflux
gia
▁sacr
sial
ceptive
resist
plas
▁resec
▁Afric
ocarcin
▁cathe
▁screened
ellular
methyl
tence
▁proliferative
▁stimul
75
▁cyt
▁42
▁postoperatively
NB
▁Ig
▁rejection
olip
▁corneal
▁summ
90
▁plaque
ectomized
▁antiser
▁abolished
▁100%
▁inflammatory
▁influenza
▁confined
▁rheumatoid
ypical
▁ischem
ethyl
tum
phosphor
▁epithelial
▁catalytic
▁Thir
▁bowel
▁polymorphism
▁synthe
unctions
▁contractions
▁(4
ophren
▁mRNA
▁endothelial
▁(6
owever
tradiol
▁radiotherapy
▁toxin
▁ischemia
tory
▁neutrophil
luores
▁2
▁cytos
▁carcinomas
]-
▁homogeneity
▁reticul
leu
▁5.
▁herpes
otides
4,
ticular
▁neon
ritis
ionic
brain
osine
▁scanning
vity
tase
▁Chan
▁normo
▁elic
▁45
▁bic
MV
▁suscepti
▁detectable
▁inflammation
▁nutritional
▁indi
▁pretreatment
▁respec
NH
ovirus
▁analyses
▁tubular
erative
inemia
▁suppres
▁examin
▁regulated
▁erythrocy
-7
▁isch
ronch
▁monke
onin
▁pancreatitis
pH
lact
0,
▁respiratory
▁labeling
▁aspec
erox
▁residues
▁yeast
▁coh
ropriate
▁34
▁cocaine
▁amyl
▁selective
siveness
sia
▁reperfusion
-20
▁predicting
ropha
▁studi
▁immunohist
25
/2
ocortic
▁venti
▁examinations
22
omotor
32
cence
▁defic
▁implic
▁sequential
ylated
▁hypoxic
▁gluc
siological
protein
ximum
▁0.000
+)-
▁morphology
▁duct
▁degradation
osomes
▁displacement
▁suppressed
▁prostate
▁diabetic
▁cholesterol
▁lesion
cAMP
5-
▁sodium
▁resistant
ulph
▁subgroup
▁progn
▁acidosis
▁0.8
ituitary
▁phosphate
▁reflux
▁tiss
oic
▁aggregation
▁radiol
▁tissues
▁characterize
▁probes
▁parental
13
▁1.
sensitive
▁ultrasound
ialysis
▁reversed
▁thromb
tein
▁toxicity
▁hepatitis
▁receptor
2),
▁immun
▁0.001)
▁cytoplasm
kinase
▁57
▁correlate
▁quin
▁mucosa
effec
mide
▁inhibitor
▁(198
▁reproduc
▁digestion
xia
▁restor
▁neutrophils
uscular
▁subc
▁potent
▁lipoprotein
▁90%
crip
▁unrelated
▁ventilation
▁biopsy
▁developmental
▁chloride
▁nm
▁cardi
erad
▁thi
▁10.
ycin
▁distal
▁athe
▁pediatric
▁sensi
▁pathways
▁endot
▁tomography
rected
▁thir
▁spleen
▁impair
▁predic
-1
▁challen
▁hypothe
▁FSH
▁dysfunction
▁anesthesia
▁(3
▁stimulate
▁markedly
▁pressures
Ig
▁membrane
clin
▁postnatal
sities
vices
loro
oplasmic
▁occlusion
▁inversely
ipine
▁acetylcholine
tility
▁implantation
▁Treatment
cine
ilized
▁actin
otrop
▁mammary
gland
eptide
esti
ariate
omized
▁monocytes
ergic
▁carbohydrate
din
▁tetr
▁preferen
▁circulating
▁reductions
▁regulate
5).
asone
▁anaesthe
▁TNF
ectom
▁197
▁inver
▁prono
▁36
assi
▁GTP
uted
▁atrial
▁acids
▁HSV
▁Hg
ATP
▁aor
)2
oresis
▁multivariate
▁mitochondria
▁mammalian
▁guinea
▁differentiation
▁stained
▁simult
▁mediated
▁interc
▁urinary
10
LV
▁valu
▁rabbits
▁deli
▁(2
▁steroid
-12
▁glutamate
▁necrosis
▁inten
▁85
▁acco
fos
onuclear
▁umb
▁dissociation
onstric
▁2)
ellar
1).
▁gradients
70
esity
▁51
affinity
▁foc
▁secreted
▁5
▁vein
atine
enic
▁hypertension
▁atropine
phosph
▁stimulus
▁irradiated
vice
▁thoracic
▁1,
▁subjec
▁LH
generation
▁conserved
atif
entif
▁mellitus
uretic
▁75
itro
▁resonance
athe
tiv
▁secretory
.7
▁follicular
▁compartments
occus
▁perme
ronectin
▁reductase
▁modulate
▁prolif
inositol
antial
▁placebo
ulmonary
▁0.05).
eded
pecially
▁cerebral
▁substanti
▁embryos
asal
crimin
35
5)
▁inhibits
▁elicited
▁eluc
▁micron
▁assis
tero
▁proce
acr
▁Acute
▁IgM
tig
▁polymorph
regulation
▁congen
erate
ospor
nthe
▁Pretreatment
▁3)
▁7
▁0.9
▁distin
▁inadequate
phrine
▁deprivation
▁umbilical
18
▁52
▁substituted
▁consecu
▁testicular
gth
▁biosynthe
-1.
▁evaluating
yro
85
▁spre
DNA
▁ventral
▁leukocyte
▁cirrh
▁54
▁exogenous
▁carcinoma
▁25
▁latent
▁doses
idated
yel
veolar
▁hypot
▁asthma
▁antigen
▁6-
▁localized
▁bir
▁utilization
▁statistically
▁sexes
▁chromosome
▁bovine
idne
▁questionnai
jected
▁120
ocrine
titu
bladder
▁centr
▁endothelin
embran
rophob
▁dele
unced
▁38
▁connective
9%
▁HDL
elec
ilization
astolic
▁memb
tro
▁anastomosis
▁erythrocytes
▁RNA
▁60%
tub
▁CK
▁caud
GH
Tc
▁morphologic
aryngeal
benz
3)
▁mL
opo
▁polymer
▁.0
▁potentials
emia
▁retinal
5,
DG
luded
▁interferon
▁adap
▁CSF
▁hemat
▁skeletal
▁inhibited
▁infil
▁thyroid
▁physici
▁50%
ditions
▁neutroph
▁carotid
▁79
uncture
▁cancers
▁60
▁clon
ocardial
imens
▁dosing
▁percutaneous
▁anomal
▁NaCl
itone
▁phosph
lusion
▁specificity
controlled
4+
▁prognostic
▁paren
▁terminals
receptor
bral
orepinephrine
angl
▁adherence
▁complexes
alian
▁diame
versely
▁7%
▁synovial
▁defects
idine
MN
▁arth
▁impaired
▁5'-
▁eryth
.2
ocytic
LDL
▁creatine
▁morphine
▁microgram
▁tracer
ensi
tric
opa
▁(8
▁intake
tivity
▁attrib
▁macrophages
▁onc
▁phosphor
▁natri
▁hybridization
▁systolic
ropine
duced
▁establ
▁urine
▁repro
▁dilated
mol
trol
1)
▁septum
▁malignant
▁neurons
▁endometrial
▁inactivation
nai
▁9
▁bloc
▁subunit
▁arterial
1-
▁implant
ylchol
▁cataly
▁hep
%).
entricular
▁hipp
▁ventricular
▁symptom
▁retention
ographically
odialysis
▁Increas
▁residue
▁selectively
▁contral
▁cardiomy
ynaptic
▁conductance
▁correlates
▁peptide
▁benz
▁soluble
ophageal
ortic
▁promoter
▁bronchial
▁bacterial
▁+/-
▁serum
urine
itoneal
▁unclear
▁granul
▁HM
▁numb
▁unaffected
▁progres
▁contamin
embrane
gans
olec
7.
▁staining
▁Comparison
gment
▁hypoxia
▁80
jug
ergy
amide
▁500
▁bronch
▁NP
▁neonatal
▁nitro
▁ACTH
adequ
▁docum
▁contrac
▁postoperative
0,000
▁46
monstr
▁gonad
▁abnormalities
▁6.
▁microscopy
▁mutants
8,
ture
▁preoperative
▁strep
orac
▁dosage
▁phosphorylation
▁abdominal
orpor
▁cortical
▁metabolites
▁ovarian
▁(1)
▁tachycardia
oglyc
▁lesions
▁contex
▁anastom
athy
▁norepinephrine
▁1.0
▁kine
▁10
%),
▁20
▁fracture
ejun
▁cis
▁contributes
▁adenosine
▁pigs
hydro
tak
▁iod
lob
▁recurrence
▁angi
▁fatty
▁atten
▁dehydrogenase
▁carriers
▁positively
▁Immun
▁5-
▁vesicles
mTc
DH
▁imaging
▁GABA
▁incubated
▁sero
▁nM
▁21
thym
eric
▁organisms
glyc
▁transplantation
▁arter
amines
28
▁mell
▁reproducible
2+]
6%
▁cann
▁injected
▁variants
▁lar
ionine
▁undetectable
chol
▁putative
▁molecules
amino
▁lith
▁substrate
▁advan
3%
▁hypoth
▁perc
▁physiologic
▁previ
▁70%
56
unctional
▁metabol
.0
till
▁duoden
7,
lue
▁PRL
▁Significant
tation
olysis
▁verte
▁mono
1%
▁estrogen
▁combin
▁tumours
▁angiography
echn
▁antagonist
▁graf
▁epit
▁conduction
onyl
▁wk
▁pathological
TG
▁excretion
▁reas
▁hypox
▁ure
heal
▁reacted
▁seroton
entical
▁infused
▁throm
+,
▁cultured
▁22
▁arachid
▁retur
carb
▁99
ept
▁influx
▁mutant
▁neurop
▁ligand
tral
▁periodontal
▁predictive
7)
phyl
▁phospholipid
▁IFN
▁abnormal
▁echocardi
terone
▁transcripts
▁placenta
▁HLA
oracic
▁pituitary
▁glutathione
▁0.00
▁synthesized
▁antibiotic
▁recombinant
▁polymerase
▁disruption
plasia
taken
▁3,
oside
▁reduc
trib
▁electroph
▁myosin
ministration
▁progression
atoid
-9
'-
▁tumour
▁cDNA
▁rabbit
ophil
▁tryp
4%
▁gangl
erated
▁40
▁200
▁cytotoxic
23
50
invasive
▁behavioral
othelial
▁alkaline
▁fractions
▁80%
▁nec
▁ATP
stimulated
▁subun
/100
▁synap
gative
versity
▁markers
tized
▁substrates
▁antigens
▁sampl
▁lumb
iasis
▁exhibited
▁diminished
ints
▁hydroly
▁ultras
▁variability
▁2,
16
ondr
▁cardiovascular
▁elimin
▁prospective
▁metast
▁invasive
▁satur
▁responsiveness
tif
/-
▁myocardi
orption
▁ile
▁unchanged
▁nucleus
▁26
▁triglycer
▁dete
truc
▁experim
▁hepat
▁pneum
▁3'
▁autoimmune
▁bran
▁GV
overed
▁contractile
hern
▁24-
▁mutations
duction
scher
▁rabb
▁uterine
▁ow
▁secretion
ameth
▁LDL
iably
▁shif
▁undergoing
▁glands
▁31
▁fixation
▁noradrenaline
ucine
▁enzymes
9,
▁37
▁vagal
▁LV
▁IgA
▁concurrent
lobin
▁GnRH
trition
operatively
rectomy
▁agon
ositol
▁microscopic
▁newborn
▁homogene
urea
▁distrib
oag
80
▁differed
▁microns
▁permeability
tomy
▁morphological
▁(0.
aline
▁pharmac
ograms
ocyte
▁tris
▁antic
▁electr
▁kb
obl
▁locus
▁prognosis
RNA
tryp
ovascular
opamine
▁objec
▁8-
▁judged
TNF
▁supple
▁assay
▁depolarization
▁irradi
▁indicative
▁swelling
▁fetal
▁infar
mature
▁immature
▁metabolic
urys
▁recons
▁25%
4.
▁65
▁inters
tage
ureus
29
clerosis
tectable
alact
iliac
aptic
▁ambulatory
▁untreated
▁adjuvant
▁prenatal
▁reflecting
▁latency
▁comple
ficial
▁Plas
ighted
▁innerv
iatric
olus
▁vaccin
▁transi
▁retic
▁reactive
enzyme
▁TG
▁symp
stolic
itamin
utaneous
▁basal
▁insulin
bacco
lasts
rological
▁elimination
21
▁intravenous
rates
fts
▁competi
▁3.
▁yiel
▁familial
8)
-2,
EG
▁purified
▁bac
oscopy
▁mitral
▁clones
▁nasal
▁ions
▁potenti
▁neoplas
▁hemodialysis
▁stimuli
rotid
▁embry
▁residual
quine
▁Fc
▁stren
▁arthritis
▁thre
▁facilit
erin
▁adminis
uble
opres
▁saturated
otropin
rehen
▁spon
▁remission
▁transcription
▁bile
▁cloned
▁pall
▁differen
rosis
▁(100
▁fluorescence
▁effec
▁bilateral
▁ischemic
▁Stu
.8%
▁PV
▁IgG
▁endogenous
urther
tical
assium
ochondr
▁16
planted
▁strains
▁evid
▁accel
▁sympathetic
derived
oprotein
▁hormone
▁vivo
omycin
▁techniqu
▁ACE
▁deletion
eared
atonin
testinal
▁pineal
▁defec
acted
0.
▁currents
▁nodules
astom
ynthe
▁femoral
▁tes
▁mortality
▁immuno
▁polypeptide
▁3
regulated
▁esophageal
ofluores
eptid
asive
▁alcoh
chym
▁41
estig
▁lymphocyte
acting
olarization
eces
▁underg
▁subunits
ontal
estion
certain
terol
-6)
amus
▁PB
▁LD
▁deterioration
▁deficiency
▁compartment
▁(5
▁microv
crib
▁56
▁rhy
▁hypertro
▁predominantly
ecyl
▁selec
▁marrow
▁nmol
ardia
▁cyclase
▁activator
▁fibroblasts
3-
▁assays
orectal
▁ester
pecific
▁AMP
▁donors
uting
▁rati
ults
▁fatigue
coun
ineal
▁extraction
▁blot
▁coli
▁mRNAs
▁incorporation
▁differentiated
▁hippocamp
tural
▁tumors
▁dehyd
▁fibres
▁relapse
▁preparations
▁hypo
▁intermittent
▁supplementation
tual
▁initiation
cessive
acetyl
▁nuclei
▁diets
sions
ochemical
▁encoun
▁clinically
▁colorectal
dle
imin
bumin
▁17
radi
phic
.1
▁ana
itant
▁PF
onucle
▁infusion
endri
▁turnover
▁oxid
▁elucidate
▁assessing
▁reagent
arate
acyl
▁granules
urrent
zard
tors
▁uter
▁calcium
otassium
▁tachyc
▁Patients
olesterol
▁95%
0-
▁adi
▁arteries
▁vaccination
▁possi
2-
▁exten
▁synergistic
eroxide
▁apical
henyl
lip
onium
throm
▁14
roph
▁inhibitors
▁hCG
atitis
▁complementary
▁vesic
▁inh
▁prol
itic
▁catheter
rine
▁86
▁adjustment
▁mmol
tinu
▁(19
▁preliminary
dehyde
▁MHC
20
tive
▁leukemia
▁inser
▁reactivity
▁1
▁cytoplasmic
▁plas
▁8.
armac
▁silic
30
▁phag
▁hypothal
opathy
▁agonists
▁overe
▁EGF
▁conjug
▁ranged
-19
▁spontaneously
▁PGE
▁carcin
▁phorbol
atment
▁infarction
▁murine
▁carbohyd
11
tics
ximal
▁amin
▁canc
▁theore
▁physiological
adder
▁ventric
lyce
▁100
-8
▁inadequ
2)
osin
▁substantially
▁metastatic
▁lipid
onc
▁0.2
tically
ubation
▁investigations
▁targe
▁injections
oxide
▁polyp
▁48
▁restric
▁reticulum
▁substitution
▁trac
▁0.3
accharide
▁sinus
▁epiderm
▁therapeutic
actin
▁strom
lycer
▁demonstrates
▁aorta
▁chromatography
▁enzymatic
▁micros
▁proximal
▁cardiomyopathy
atinine
▁produc
▁sarc
vents
icin
▁oxy
▁acetyl
▁mitochondr
▁perfused
venous
▁protoc
iae
▁shorten
▁nal
0%
▁glucose
▁mitochondrial
fected
hyp
▁adrenal
rele
▁reac
vascular
▁subgroups
tabl
▁concom
EGF
toph
ogenesis
▁erg
▁heterogene
mented
▁hormonal
▁glomer
lec
centr
adrenergic
▁monit
4-
trac
▁ech
glutin
▁attemp
toc
▁acetate
lyc
▁satis
▁pathway
▁propor
14
opressin
▁hemoglobin
operative
▁enzym
sion
▁0.001).
▁oxidation
inally
mL
▁administered
ylase
▁gon
▁potency
▁premature
vic
▁quantit
trum
▁heterogeneity
▁antibody
ometr
▁cephal
glut
estions
▁detec
erance
▁4.
▁18
apeu
▁fibr
▁TSH
▁frac
▁intram
ventricular
rotic
ylation
▁obser
virus
tead
▁increas
LISA
immun
▁ECG
▁synerg
oidal
-5)
▁induces
▁decreases
-450
dial
quid
▁radioactivity
opha
▁40%
▁hepatic
▁pyramidal
oproterenol
▁0.5
▁thrombin
▁preservation
odies
▁Plasma
aturation
ctomy
rogenase
terminal
17
▁specimens
kDa
ectin
▁esophag
▁diagnoses
▁pregnancies
▁ratios
tin
ostatin
▁airway
▁3-
▁incidence
▁scans
▁cyclosporine
scop
Ca
▁compart
▁microM
▁RP
▁dors
tured
rosine
8.
ocular
tox
▁guan
▁lact
jec
lasses
phal
plantation
▁vasodil
▁molec
▁10%
induced
▁acute
igaret
ylate
▁drin
tures
▁construc
▁proton
.6
plants
tus
▁Addition
▁bypass
▁antigenic
▁multiv
romes
/1
▁DF
tur
affected
aryn
acil
osal
lys
▁HPV
▁oes
▁discrimin
▁bladder
▁subjected
▁perfusion
rene
▁contralateral
agic
aturated
27
roscop
▁severity
60
▁(10
▁clus
tained
▁hypers
▁thrombo
owel
natal
