trations
mercap
clerosis
62
leucine
▁angiographic
▁cations
▁aberrant
yridamole
erin
arone
▁mannose
▁PP
▁verapamil
▁therapeutic
▁elastic
opi
▁bursts
▁65%
▁1990
otropin
▁encephal
▁metabolites
oreactive
▁ranged
▁regenerating
▁accessory
▁5.9
graphy
4.
▁reductase
▁stret
▁hsp
▁summarized
▁dischar
▁TF
▁infarct
▁Strep
▁dehyd
▁serosal
▁CB
▁cardiomy
▁10(
▁hyperther
uracil
▁arter
▁scientif
5;
zymes
▁ectopic
▁pacing
tituted
PSP
osensory
ervical
omegalovirus
ocamp
▁Ace
▁Reduc
▁Immuno
usal
▁phosphor
amic
oic
cellulose
▁polymerization
▁compliance
▁reflex
iodarone
ELISA
vac
▁cistern
▁rup
▁Eco
▁sca
▁radiological
▁cleft
▁sampled
▁vomiting
oconstric
▁detectable
▁immunofluores
-29
vival
glutamyl
▁vibr
▁goats
▁circumflex
ingle
▁dB
▁1.4
▁lesion
ovascular
▁supplementation
▁athletes
▁unrelated
▁shif
idone
▁rheumatoid
omethacin
PAT
▁pH
▁passive
▁blotting
oxo
phosphon
▁LD
▁.1
ialysis
icine
▁morphological
▁visc
▁cytomegalovirus
▁analgesia
▁maturation
▁cytometry
▁Growth
pressure
▁diagnosed
▁kit
▁amelior
▁amn
▁peroxidation
▁muscul
▁haemodynamic
▁nodal
▁asbest
▁25,
Ts
▁autoanti
▁midline
blind
ygdal
▁vaccinated
enkephalin
▁46%
olet
▁phag
▁myocardium
▁ischaemia
▁37
▁segmental
▁abnormalities
abies
0.
respon
▁Survival
▁cathepsin
urane
pretreated
enzyme
▁PTH
▁proliferate
▁Diagn
▁specificity
aminase
phosphor
▁67
▁86%
motic
▁recruit
toc
iably
▁72
▁keratin
ystic
▁15
▁induce
▁minimally
▁osteoporosis
▁ranitidine
▁Responses
▁genes
leu
▁fluorescence
trate
▁satur
▁decarbox
▁transmembrane
▁recor
▁resul
▁ultrastructure
▁clon
▁Crohn
▁serologic
▁myocytes
▁uninfected
galactosidase
▁phosphatase
imens
▁measurable
DH
▁enlar
3'-
hCG
ocytosis
▁syncy
▁carcin
▁1)
▁responsiveness
▁HM
▁Effects
▁furosemide
▁Plasma
▁mesangial
▁stool
▁schem
▁discrep
▁instruc
arate
▁2.9
▁Seventy
▁degraded
▁31%
▁Stimulation
▁6.1
ranged
▁challenged
▁(26
▁fasting
▁neuros
struc
▁amiloride
▁conservative
▁luminal
▁grafts
▁WK
traum
growth
itin
▁ori
▁Forty
▁analogous
▁exceeded
▁reabsorption
resid
ithine
▁proteoglyc
▁diseases
▁frog
▁severity
▁perfusion
Leu
▁PMA
▁immunod
▁compartments
▁thio
havi
▁antagonized
atab
▁20,
▁chor
▁splen
▁adren
trin
▁PBMC
▁estradiol
▁65
eric
bilities
Phe
▁ORF
▁hybridoma
▁Schwann
▁postural
▁subgroups
13
▁71
▁conclusions
▁staging
secre
tance
imurium
▁frontal
▁procollagen
▁microorganisms
▁stere
indolol
▁pancreas
tages
itr
.5%
▁(37
osts
▁endings
▁Inhibition
▁muscle
idase
▁practic
▁extrap
▁glyc
▁activates
▁demographic
▁polysaccharide
olateral
▁myelin
▁nitric
▁methylene
▁capsaicin
▁(1.6
▁HCC
▁injected
▁enhancing
4,
opropyl
▁glucuron
edema
illar
▁nuclease
ymptomatic
▁cycloheximide
▁(40
phyloc
▁pepsin
▁Measurements
▁amyl
atoxin
▁3%
adap
▁0.02)
▁solubility
▁phospholipase
ospecific
▁anesthetized
▁mU
▁hospitalized
▁terat
oplasma
▁chronically
▁homogenates
▁AIDS
450
▁postpartum
igand
▁cerebrospinal
3),
▁affec
ediatric
▁11
▁apolipoprotein
▁oestradiol
▁elu
yses
-13-
▁pellets
▁63
▁8.1
venous
▁ventricle
▁restric
▁intram
▁Initi
sulfate
▁activate
▁tiss
rophenyl
▁.0
▁streptokinase
▁irradi
▁incremental
TG
▁polypeptides
PMA
glut
▁intrap
▁elas
▁sarcoplasmic
▁catheters
▁201
duced
anded
jec
▁fiber
▁displ
▁outgrowth
▁rIL
▁physiological
▁hyperthyroidism
▁cytosolic
▁pyrimidine
▁adequ
orbent
▁keratinocytes
▁algor
74
▁regis
▁tris
amphen
▁viruses
▁ammonium
▁epithelial
▁nocturnal
▁stenoses
▁Morph
▁Pb
siveness
32
▁solvent
▁CHO
▁squamous
▁3.4
▁diffic
ylate
▁nm
▁docum
▁axonal
ucle
phosphatid
▁treatments
osterone
▁deline
▁yielded
▁7%
/10(6)
BW
▁fertility
iline
▁1987
iol
▁Oral
▁91%
▁exclusion
2+
▁vesic
▁predicting
▁classified
carboxy
▁deprivation
▁aromatase
▁acidification
▁hybrids
▁(3)
tracted
▁Sout
▁bacterio
▁rehabilitation
▁fasted
▁10-
▁95%
operated
▁diuretic
ayers
▁elongation
▁fibr
hydroxyp
▁absorption
▁nurse
ponin
▁oxidized
▁haemorrh
ctive
▁(32
▁rabbit
▁oestrogen
ogra
▁inconsistent
5%
▁spectroscop
idine
▁Inde
▁gluc
▁durations
▁Significantly
▁transient
▁cardi
▁varies
cholate
▁(31
46
▁Arter
▁5.
ochrom
rays
▁IA
▁digestive
▁soluble
▁reduc
▁reper
▁internalized
OA
▁enrich
▁90
▁fluorescein
tumor
▁cortic
.3
▁recombination
PSPs
roglobulin
▁CsA
thi
ensitivity
▁(19
onomic
akary
acting
exis
▁MF
▁(12
▁maternal
entricular
▁antide
▁rostr
▁severely
PAGE
▁inges
▁Diff
ropyl
-75
ometr
▁paras
▁DH
▁progressively
ximal
▁validated
GTP
cephal
41
tRNA
▁coronary
▁bacter
establ
▁fluores
▁3'-
▁activator
apeu
▁(0.1
▁78%
▁34%
▁shunt
▁hydrophob
▁disper
▁microtubules
▁pathophy
▁judged
▁astro
▁21,
iazide
▁tended
▁immobil
▁tumorigen
▁homozygous
atient
▁bloc
HV
5%)
altered
▁hyste
▁5.8
▁airway
▁immuno
▁hematopoietic
▁fourfold
▁scle
▁prospectively
▁reproducible
inamide
▁respon
itance
▁babo
▁centrifugation
▁bile
▁neutrophils
▁seas
▁analogues
▁papilloma
▁Lymph
▁joints
▁15-
ammon
▁atopic
▁Positive
▁Conversely
▁ADP
▁awa
▁alloster
gestin
lytic
feron
▁adenylyl
▁panc
▁glycosaminoglyc
50,
▁serine
omerular
▁lactating
▁pentobarbital
omers
▁carbohydrate
▁extracorporeal
▁Consid
menopausal
MG
5%).
▁vesicles
imbr
▁Tiss
▁inhibited
▁parenchymal
ochemically
▁membranes
50)
▁CFU
▁87%
▁5.0
▁antiv
▁amniotic
▁yeast
▁97
▁lipase
▁fistula
gic
▁streptoc
▁cuff
▁(0.0
▁lymphokine
▁SMC
▁cran
▁elicit
atching
▁likelihood
▁incomp
▁metabol
dibular
▁genomic
▁35%
ospasm
receptors
▁mucin
-2-
▁valves
▁conformational
▁2-
otent
▁IGF
▁reag
2)
▁transaminase
onegative
▁HCO
▁PF
nitros
riched
HRP
▁periodon
opressin
▁requi
▁nurses
▁seasonal
ophysiological
▁currents
responding
astric
▁outs
ritin
1)
▁relapses
2(+)-
▁inhibitory
12
▁transpos
10-
▁pineal
▁osm
xia
erox
▁opi
29
▁9.2
▁relapsed
2+.
▁diet
cys
▁methodology
soluble
▁undergoing
romedial
embr
▁gentamicin
incubation
▁malignancies
IGF
▁reconstituted
lational
▁-5
▁tetra
▁ratios
▁197
▁humoral
▁chains
▁promoter
ymme
▁muscles
▁utilizing
divided
▁ions
▁10(-9)
▁Km
.9
pecific
▁gastr
▁virulence
▁salvage
▁altered
▁striatum
▁pulse
▁secrete
-2)
tomas
▁fetal
▁ventricles
▁treadmill
▁decreases
yto
▁regulatory
▁trials
ses
thma
▁SOD
tropin
▁Concentrations
▁faecal
▁denti
▁Incubation
▁rumen
▁Scale
▁cyclooxygenase
respective
▁functioning
ication
▁pools
6-
▁sacc
-1;
▁rhe
rought
▁Cardiac
▁0.75
sities
▁mA
▁endonuclease
puts
▁diagnosis
takes
▁adenovirus
thood
▁dissection
▁alcohol
▁Insulin
▁83%
▁biopsy
▁mycobacter
▁explants
▁+/-
alian
ploy
▁dibutyryl
oporosis
▁anesthetic
▁upstream
IgG
ocytic
▁vasodilation
▁helix
▁Triton
ignant
▁postnatal
▁angioplasty
▁imipramine
▁300
lamp
▁tau
▁viable
▁supernatant
▁transcrip
adequ
ydig
▁twitch
▁catalysis
▁ascorb
▁immunization
▁seroton
▁vasodilator
blocking
▁commiss
ventilation
▁optimum
▁resorption
▁simplex
▁libr
▁alkaline
▁mmol
▁labeling
▁AH
aneously
muc
ycin
▁erythrocyte
▁gallbladder
inergic
▁inhibit
▁progenitor
▁acutely
▁colorectal
▁arachidonic
▁lis
▁ascorbic
jug
robial
bred
▁morphologic
unsaturated
▁cytokeratin
renol
▁hereditary
Kd
oxy
▁mutagen
▁concomitant
▁119
erate
▁(1989)
aemia
▁NMR
▁100
▁implanted
▁isolates
▁neuronal
asive
▁350
mentation
▁twofold
▁Seventeen
▁seizures
▁amplified
▁disrupted
▁COOH
▁7.2
▁amin
▁LAK
▁tissue
Glu
▁repor
▁deficit
▁protective
▁cerebellum
▁glandular
lycemic
▁cris
▁histopath
othi
/10(
oblast
▁frozen
▁Surgical
▁lowered
▁AII
ochondrial
.6
urations
▁surgeons
ospor
▁unstable
▁9.
estern
▁declined
robic
▁71%
roso
activating
▁adipocytes
-7
▁preoptic
▁1-3
▁sterol
▁prosthesis
▁3',
ograms
▁methanol
▁17%
oplas
wenty
ucleotide
▁prenatal
▁kcal
ifferenti
ochle
▁originating
roscopic
+.
▁0.01).
▁slopes
▁haemoglobin
▁pathogens
▁attain
▁weaker
▁nursing
▁inoc
erge
▁mutagenic
▁neonates
▁CRH
▁myot
▁regulation
▁Removal
▁33
liters
▁1.1
▁differing
▁AFP
▁trich
▁maturity
▁cholec
▁jejun
▁TK
ofl
▁peritoneal
▁meth
▁urine
▁opiate
▁4.3
scherichia
▁dose
▁drin
▁cholera
oinositi
▁subdi
roxim
▁Pharmac
75
hep
▁virtu
▁53
▁43
▁addi
▁fertilization
▁grafted
▁absorb
pation
▁radiolabeled
▁homogen
▁propionate
▁isch
benzo
▁Golgi
▁polyaden
▁homogene
▁multil
▁21
▁confirms
▁infrequ
▁tyros
▁attending
▁Haem
teral
▁hepatocyte
▁(21
▁depolarizing
▁risks
▁acyl
▁vicinity
125
▁uncom
triphosphate
▁reflecting
-14
.7%
aired
vents
opes
▁enal
▁aorta
trition
▁umb
folate
▁HPV
▁GTP
▁initiating
▁premature
▁cerebellar
ifferentiated
▁reflec
kinase
▁electrodes
▁periv
rated
▁suppor
▁codons
▁alteration
▁Bec
▁prolongation
▁dopamine
arbonate
atite
ytoin
▁hospitalization
▁brach
▁pHi
▁repression
▁quiescent
▁Antibodies
toid
▁-4
▁potassium
ergen
acin
▁Exposure
▁xanthine
antigens
▁semin
▁determinations
uity
▁anat
▁GnRH
▁phorbol
▁hyperb
inone
▁aggres
▁ND
▁reflects
▁demands
▁grading
muscle
▁12%
▁carb
▁predominance
▁gelatin
▁cytochrome
▁streptozotocin
eak
oblastoma
lyl
tectable
epti
▁lutein
▁resuscitation
▁immunocomp
▁kerat
abilized
▁occasional
▁concurrently
▁emphasis
cryst
-28
ications
.9%
queous
▁Throm
ocriptine
mia
▁pts
▁ultrastructural
ioma
▁rodents
teroid
▁extracts
▁fulf
▁helical
▁transplants
ycline
▁mortality
▁remo
7).
ellular
▁unaltered
.1%)
▁homolog
rae
▁1.7
▁lining
trient
▁bronchoalveolar
▁establ
▁homogeneous
▁kb
▁adequately
▁fist
thmias
osaminidase
dial
▁cytometric
▁erythromycin
▁sugars
▁germinal
▁unres
▁pharmacokine
▁poorer
adenosine
600
▁employing
▁chromatographic
▁inflammatory
odiaz
▁dipyridamole
▁olig
▁lamb
ophy
▁spermat
▁synthase
ominant
▁constructs
iciency
▁stimulator
▁ammonia
ocon
▁adrenergic
bacter
gradely
▁82%
0,
▁bacteremia
▁plateau
▁MCF
▁tetrac
erule
▁membrane
▁vaginal
ATP
irradi
▁antagonists
▁92
▁moderately
▁cis
otherapeutic
▁paren
▁mitogens
yrene
▁naloxone
▁spike
50
▁degeneration
▁pA
romed
uronic
▁placental
ellum
▁sequential
▁attrib
rele
ocarcin
▁balanced
ults
▁HI
▁ODC
▁Electro
▁nutrients
okine
▁RIA
▁spont
▁gonad
▁cGy
▁cooling
▁breakdown
luent
▁transi
ocar
▁scinti
alact
▁chloroquine
▁substituted
▁translational
esophageal
GlcNAc
atchard
▁visualized
▁UDP
▁elevations
▁meals
ietic
▁outward
▁MRI
▁macrophages
oactive
▁(28
onset
▁cavity
ocortical
▁bronchitis
▁necrosis
▁cholecystokinin
parathyroid
ocardi
illus
tryp
▁chymotrypsin
ept
▁noradrenergic
▁50%
▁preparation
▁throm
▁incision
▁bilayers
▁intensive
78
▁HMG
redoxin
▁cAMP
▁acetyl
▁strep
▁remn
▁screening
▁interviewed
serine
▁decreased
▁implying
▁dopaminergic
▁hyperpolar
tious
EAE
▁hematoma
▁epilepsy
elves
▁densities
ocyanate
▁consumed
▁postoperative
omorphine
positive
-36
▁redox
▁adrenal
▁muM
rostagland
plication
▁swelling
▁carbox
elan
usate
▁ET
▁neurom
▁hormone
▁Sequ
urine
▁chemo
roline
▁PAP
wann
▁analyses
▁luteal
timal
▁LFA
▁(13
▁hydroxyl
▁sph
benz
▁mild
0%).
▁correspon
▁Acad
abain
.7
▁1/
entanyl
immun
trates
▁thyro
▁shifts
▁beads
ubertal
▁neuron
idity
▁diabetics
▁29%
25
iesis
▁dialys
-19
▁electromy
▁cognitive
▁preventing
▁Fourteen
▁challenges
▁consistently
▁diabe
itant
▁synthesize
▁differentially
▁microb
▁recombin
ighted
apatite
▁acetic
▁diazepam
▁heterogeneity
▁trimester
induced
▁continuing
kelihood
▁Twenty
▁amplitudes
▁alanine
▁disulfide
▁adenoma
▁utilization
▁adminis
▁oligonucle
embry
▁prolactin
▁adolescent
ermal
selective
▁responding
flammatory
economic
▁elution
▁msec
▁inters
▁125
2+-
PAF
▁4%
▁3.7
▁tandem
▁30,
kely
▁acuity
ceptions
▁metoprolol
▁hyperlipid
angi
▁malignancy
▁ib
▁111
▁40.
▁respondents
▁hybridization
▁lep
▁trigg
attered
▁hypertro
▁ey
▁beef
macropha
▁inoculation
73
dU
▁vacuoles
▁substances
▁computerized
▁detecting
▁dendrites
▁Peak
vaccin
▁angi
▁tracer
▁antimicrobial
patient
▁benz
▁subcl
ETE
▁sedation
▁centers
▁Lym
olesterolemia
▁glycosylation
▁Statistical
phyrin
▁intravascular
clinical
▁hygiene
ximum
▁electrocardi
▁atri
-(1
▁chickens
▁colliculus
▁initiation
▁ventric
▁HA
▁outbreak
▁PHA
plete
▁vascul
▁84%
/3
▁exons
MSH
▁idiopathic
▁1.8
▁hydrolysis
▁availability
▁TEA
bumin
▁pmol
▁cys
iagn
anserin
▁3
▁commerc
▁reflux
aminop
lue
oflurane
▁overnight
▁nitrate
ipine
▁4.0
▁quantitation
▁IDDM
▁fibrob
▁(46
▁thymidine
▁indications
▁plates
▁conductance
92
▁monotherapy
▁2.3
eptid
▁exud
▁molecular
versity
▁cytokines
toph
▁anion
▁gastric
▁genotype
▁mucosa
▁casein
▁echocardi
sor
▁diversity
▁5%
▁IgG
▁(3
salt
-1
▁carrier
▁pene
▁lymphocyte
▁odds
▁toge
▁5.6
▁Tes
▁rectum
▁excretion
ofluores
▁paralysis
▁autopsy
reed
▁poli
▁9)
▁approx
aryotic
8-
▁conditioned
▁bioassay
▁islets
▁lacking
▁Elec
▁slic
rangement
▁NI
opyr
▁Candida
mittent
▁lysates
▁amygdal
erence
inic
+/
▁interferon
▁intra
oxid
▁fibre
▁lamina
ulose
amol
▁bacterial
▁urokinase
lycerol
▁RII
▁PDGF
▁uremic
erative
▁PaCO
hemoglobin
▁collagen
Sepharose
.3%)
ohyd
▁cancers
uary
90
▁wounds
sensitivity
otroph
▁Eight
▁VLDL
thyl
▁carnitine
▁excluding
inephrine
▁3.8
-70
opeptidase
▁occlusion
▁compli
▁mercury
▁600
▁inorganic
▁subpopulation
▁standardized
tivities
▁knee
▁isometric
ovine
▁hypotheses
▁CEA
▁pneumoniae
8.
▁chel
▁extras
omes
▁nonc
inj
▁immunosuppres
▁31
▁10(-6)
▁Addition
▁axial
tec
orated
mature
ipit
sych
▁substance
▁neuropathy
▁Different
▁substantia
▁previ
iliary
fed
▁60%
adex
▁23
▁rehabil
viral
▁dorsal
▁contrac
iptine
acetate
siological
▁projections
▁NIH
▁lute
▁phospholipid
8)
▁Increases
otin
▁abuse
ilts
oscopy
atinum
▁crystals
▁Phase
▁minimize
▁Twelve
▁overload
000,
▁myocardial
▁glucocortic
▁techniqu
▁ml
▁sclerosis
▁medulla
▁sialic
1/
▁abnormality
▁presumed
lective
rogenic
▁Plas
▁epidermal
4;
▁ulcers
rati
▁renin
▁ionized
▁vaccin
▁SLE
ypical
▁ureth
▁gyr
▁aluminum
ostomy
▁Swed
PAP
oate
bisphosphate
tile
atients
tetra
▁Hig
▁mum
▁dermal
▁myometr
▁replication
azol
▁4)
▁produc
▁amel
▁lesions
▁isotope
▁inbred
▁nutrient
▁binds
phrine
dL
▁(-)-
▁pulsed
olesterole
▁monoclonal
▁hippocampus
▁LTD
terin
▁granulosa
▁neuro
▁prostaglandins
operox
comitant
membrane
8),
▁Thy
▁Hear
▁follicle
hyd
romycin
▁progression
▁spi
▁predomin
▁guanosine
cture
▁anatomical
▁biological
▁ophthal
tophan
openia
▁pati
iodo
▁thalamus
cyclo
▁congenital
tact
▁tobacco
rosemide
▁homeostasis
▁allergen
iant
▁immunological
▁correlates
NMDA
▁guanine
▁gonadotrophin
▁thalamic
▁emulsion
▁incom
phosphorylation
▁8.4
▁anticonvul
ygous
▁iodide
▁recognizes
reflex
iable
▁histidine
▁AK
▁(25
▁arteriovenous
▁Kd
vail
aturated
▁0.8
▁acco
▁1:1
▁ferric
▁dichroism
rosal
ynthe
mented
rease
▁Immun
▁Hyd
esarean
butyrate
producing
odgkin
▁innervated
olated
GnRH
-3-
lyc
atous
▁Sprague
▁aldehyde
▁adequate
▁indirectly
▁athle
▁chec
▁purification
▁mutated
▁asthma
▁ovulation
▁DNAs
▁staining
▁unidentified
▁chromosome
▁similarities
▁hyperplasia
atase
rospor
▁Continu
iflu
▁blots
flurane
VT
▁facilitation
terase
▁depletion
▁arb
▁supple
▁vag
tium
▁50%.
▁reacted
iph
▁alcoh
isely
opha
▁PLP
▁assessed
▁0.2
▁solubilized
formations
▁77
▁immunohist
matched
▁HLA
rowing
▁bp
ectom
▁septic
▁platelets
Cs
-5,
▁diarrhea
▁fracture
▁occurring
ausea
▁aneurys
▁phasic
▁ae
adrenoceptor
▁cate
oluble
▁sulph
▁dexamethasone
tingu
▁venous
containing
▁cleavage
▁roset
▁hap
▁Measure
▁quenching
ulates
▁BM
lycer
▁(80
ugular
2318
hers
▁additive
▁insensitive
▁prostaglandin
▁perfusate
▁neutralization
▁cytochalasin
spectively
▁ganglion
▁confound
bular
5,
moking
▁triglycerides
▁prostagland
phasic
▁inhibiting
▁tetanus
▁cG
ociated
xime
anking
hepatic
▁propranolol
▁sequelae
▁killer
3/
▁myof
▁thir
▁renal
ogenicity
ophilus
dyle
▁epidemiologic
▁cytoplasm
▁cann
▁reconstruction
▁differentiate
crib
▁consis
▁receptive
▁cerebro
vian
▁preoperatively
▁1988,
▁forebrain
▁reass
Fc
▁responsive
▁degrad
▁ambulatory
▁endothelin
▁lymphocytes
▁hydrolase
▁UV
▁Saccharomyces
IgM
uctose
▁Glucose
▁vestibular
▁desensitization
▁instr
▁duplex
▁asymmetry
4+
▁ovarian
▁autologous
lycero
▁HSP
▁Sepharose
▁Intravenous
perme
kers
irradiated
onin
otrophic
ancre
▁Purified
-65
eight
tension
▁proportions
pinephrine
cyt
▁mitosis
▁BK
truction
▁adjustment
roscop
▁59
icardi
rendipine
▁juven
▁analges
ectin
NH
▁199
▁oxy
atoid
▁blockade
▁acces
administration
rocytes
(2)
▁expressing
▁leukemia
subunit
stimulating
Cys
▁stric
▁enanti
▁seques
▁stationary
▁sarcolem
-12
▁carbam
ranial
athyroid
▁competent
▁potentials
crip
▁mell
wk
ervated
▁paral
▁methionine
▁denatured
natal
osylation
tant
▁exce
▁mucosal
▁GDP
▁survival
initi
▁angiotensin
▁irrespective
▁paralleled
▁0.01,
▁Treatment
▁2.0
▁numb
▁centres
▁perikary
PB
cristine
ulmonary
▁coagulation
▁fluo
atched
othre
▁ligands
▁Hz
▁phenotypes
▁DF
▁phenylephrine
▁grafting
sequent
▁menstrual
▁1985
▁Accordingly
▁migrating
▁tricuspid
▁neuroblastoma
▁starch
▁encour
▁pressures
16
gents
▁intraoperative
▁-1
▁prophyl
▁phosphorylase
▁embolism
ygotes
▁infused
▁thorac
quinone
▁colonization
0%.
glutin
glycine
chemical
▁Ringer
▁parotid
acyl
.0%
▁transfected
yro
▁elimination
▁synap
▁splice
▁chlo
▁spind
haem
/24
▁aqueous
▁prolif
ochemistry
divid
▁medullary
▁eicos
▁prednis
atitis
▁hydrox
▁10,
PTH
▁(7
▁adrenoceptor
▁7.0
▁mim
▁intracellularly
▁89
▁vesicle
neu
▁inactiv
tine
▁cyclase
▁isoenzyme
58
▁reticulocyte
-0
▁velocities
▁fragmentation
▁responders
amole
▁harvested
▁proteolysis
▁reductions
6,
▁oxide
▁RF
▁positively
▁suppres
▁tach
(+)
▁3.2
▁localization
▁adenine
▁ventilatory
▁bup
TSH
ariate
arcoma
hest
conver
GD
▁Holter
▁effectiveness
▁carc
▁facial
▁synthesized
cemia
trous
▁dissec
▁stoichiometry
▁TNF
▁irrit
▁depres
▁PB
▁epidemiological
▁precipitation
▁rodent
▁hazard
uccess
▁perceived
▁acidic
ypro
▁Relative
▁reproductive
▁vaccination
▁statistically
▁complementation
▁[1
▁membran
▁onc
▁mating
sistent
▁determinants
▁resistant
ucose
▁RPE
▁relaxant
▁natriuretic
▁heal
▁decline
anol
▁LC
resting
▁splenic
▁Factor
opamine
▁RNase
▁neurite
▁Clin
0.3
zyme
▁diuretics
omegaly
tual
▁presum
▁accumulation
hydroxy
▁predictive
LISA
infection
tead
utyryl
▁subf
▁incontinence
▁hered
ithelial
orin
▁elic
otropic
▁ongoing
▁colonic
▁vagal
▁disulf
limiting
▁spermatozo
-5'-
▁vena
▁5)
▁46
-3.
esides
▁constriction
▁moiety
9)
▁kinetics
▁instability
(-)-
▁gradi
▁distor
razosin
▁subarachnoid
uppres
unts
▁Experiment
4,5-
▁cereb
▁immunity
atical
▁Combin
▁interleukin
▁196
▁conjugates
ncy
▁tryptic
atible
▁relapse
tent
CAP
▁pathway
▁sacrificed
▁posi
▁compete
▁cerebrovascular
odynamic
▁averaging
duction
▁(18
(1
▁pulsatile
-1)
bly
aternal
▁monoamine
▁40-
▁direc
▁TCR
onitis
▁pathologic
▁contras
partic
▁viral
▁radiographic
▁overl
▁ascer
tained
ergic
▁100,000
18
▁9.0
odal
▁hypothermia
6)
▁autonomic
▁Ala
keto
▁locomotor
▁loos
▁ankle
itidine
▁Cancer
▁0.05).
thanol
▁neurologic
opr
▁ribosomes
▁Sodium
▁intrad
▁toxins
▁cyclosporin
▁corticosterone
▁Myocardial
▁neuraminidase
▁amphetamine
▁absorp
athione
erad
Tc
▁Histological
▁parenteral
▁68%
-7,
▁neurological
▁analyzed
▁45
emias
▁slowing
loidy
▁antibiotic
▁bovine
-2.
▁noninvasive
▁stabilization
tradiol
1,
.5
▁promoting
▁retardation
▁limiting
cAMP
▁electrically
olesterol
▁regen
▁(4
▁Higher
ateral
▁sorb
▁diffuse
PGE
armac
▁CRP
▁GST
acetic
▁irr
▁possi
tage
rehen
▁enhancer
▁70
▁surgery
atinine
▁bilaterally
▁gestational
▁migrated
▁22%
▁isoflurane
▁57%
▁mothers
monstr
▁liver
▁immunologic
▁lympho
▁0.9%
1%)
▁pS
▁dramatic
▁neoplasms
▁perox
▁26
tivation
▁adoles
▁widespread
▁Kinetic
▁isozyme
▁stab
▁lacked
▁bicarbonate
atology
ATPase
▁inducing
ensity
▁transporter
▁mitotic
▁infarction
trus
-1.0
▁bypass
▁alternating
rhy
olamine
▁oxidase
zard
▁enhanced
▁62
iminary
▁surviv
▁portions
▁mammary
▁pector
okinetic
▁flexion
▁perioperative
▁tumor
▁verbal
▁antitumor
▁PAF
▁nondiabetic
yel
icide
▁physici
▁hypercap
sive
▁acr
▁Gs
lated
turition
-1.
-20
imolar
▁apoprotein
lude
oxin
▁cava
esthetized
thymidine
▁mg
▁comparisons
etent
▁superf
▁ascites
▁lactose
▁dissociated
▁cysteine
▁leakage
▁GLUT
0.4
risk
▁pathology
adder
▁dextro
▁TT
▁serolog
UV
yrosine
▁impairment
3%)
▁autoantibodies
▁contractions
▁lysosomal
▁(36
omies
adiol
:3
▁jejunal
▁doubled
▁balloon
imetry
54
▁freezing
▁competi
tigmine
▁sperm
▁protease
▁postprandial
▁hyperch
▁nucleotide
▁differed
▁primed
▁targeting
▁calmodulin
▁organism
▁6.7
▁bactere
▁isomers
reness
▁virulent
▁diets
hospital
▁intestine
▁persis
▁dehydro
obenz
▁Haemophilus
▁characteris
▁transduc
▁actuarial
▁wedge
▁comprehensive
nine
tors
▁Likewise
ially
oflav
▁epithelium
acrine
inally
▁Subsequent
▁1-2
▁lymphocytic
estis
transfer
▁PCO
▁1),
94
▁endometr
▁diges
▁characterized
▁organic
▁Hg
partum
▁polyclonal
▁(2-
drug
▁messen
▁contracted
▁compe
▁elastase
▁elevation
▁isotype
triglycer
GABA
▁bacteri
▁spleens
▁titres
4%
▁cytotox
▁cytosol
ilibr
yrid
▁epithel
▁124
olytic
ymptom
spective
▁1.3
Km
zation
ubiqu
apanese
▁antic
epines
▁Differences
▁ovari
▁topo
▁morb
▁1,000
orts
▁1,
amethonium
▁expenditure
▁0.15
tention
▁arterial
▁adverse
sion
itoneal
▁mandibular
acts
▁(38
▁nephro
▁lidocaine
▁modality
48
immuno
▁MAbs
approximately
▁peaked
-10(
▁epitopes
▁intravenous
▁mumol
omere
▁adjuvant
▁chimer
Asp
ophys
▁adolescents
▁reas
▁oocyte
▁cytoskeletal
▁progressive
▁24%
▁inactivated
▁exposure
▁phosphoinositi
▁roentgen
▁cellulose
70
▁intact
▁progesterone
lastoma
▁CK
▁.01)
propyl
▁chemotherapy
/100
accharides
▁1-4
▁supra
asone
▁persists
▁1,25-
▁prednisone
myristate
▁inherent
schemic
abin
▁upright
▁selective
roprus
▁Animals
▁cryp
chlor
▁stroma
▁sero
▁aberrations
▁perinatal
ostatin
▁mediast
uantitative
▁antagonism
44
plied
dT
▁[35
▁efficacious
▁cytology
▁56
Ds
▁3'
▁eukaryotic
▁cotrans
▁muc
▁glut
▁allogra
▁50%,
helial
▁118
▁microscop
▁13
▁lapa
▁prognosis
▁spectra
▁dendri
▁(100
▁(39
▁crude
mokers
▁intraperitoneal
Ki
▁lateral
▁dichro
▁sonic
▁radionuclide
▁VA
▁lipolysis
osides
▁caloric
▁enlargement
▁cataract
▁astrocytes
roitin
▁nitrogen
▁baro
Hu
thre
flamm
▁kallikrein
30
▁.000
endri
▁intravenously
▁DBP
orbol
▁10(7)
tidine
▁MAO
▁reticular
)2
▁CHD
cence
rague
9).
▁cationic
exposed
CBF
atosis
▁overt
▁margins
▁suspension
odil
▁Large
▁(20
14)
▁remission
▁intraven
▁complementary
▁degen
▁analytical
▁44
▁prol
▁RU
osomes
▁pleural
▁neoplasia
ocl
odg
▁-3
bodies
deple
occi
resistant
▁intestinal
▁uncommon
▁astrocy
▁dissoci
▁promoters
▁extre
aterals
▁excre
▁3.9
frequency
▁injec
tro
▁formulations
▁ethyl
GF
arose
ocyte
▁modalities
ifugation
▁phosphate
▁tetrodotoxin
+,
▁purified
▁recurrences
oceptor
▁fractions
/4
▁cocul
▁inhal
EGF
plasma
▁polyunsaturated
absorption
▁complexes
▁examination
▁91
aned
9%)
▁catalase
RR
3,
oride
▁Experim
Gs
▁conserved
ophag
▁ANP
▁globin
▁HSV
termined
tured
diol
▁stressed
▁saliva
▁GS
▁109
/8
▁incubated
ylline
perfused
65
loid
hydr
▁visceral
-6
▁feeding
▁axons
aptic
uspid
120
plies
▁nec
kines
▁galact
sulph
▁autoimmune
▁lumin
▁PLA
▁synaptic
▁cervix
▁hig
icep
lep
▁exaggerated
untary
oderm
▁mildly
▁larvae
79
ctomy
▁seiz
▁Kine
alate
early
▁Aden
▁constitutively
▁8.5
▁Intra
issive
▁mammalian
▁pharmacologic
ulae
▁digoxin
brile
83
astolic
ifferen
carinic
etan
-16
▁covalently
posal
monary
▁Tryp
100
▁visualization
▁2)
▁sensitivities
▁nifedipine
▁Disease
▁allografts
▁mV
▁plac
FN
▁kinetic
▁turnover
bladder
▁lamin
▁microvilli
iliated
sensitive
▁insertion
▁PN
deoxy
▁evidenced
▁gonadal
▁traumatic
▁dete
Gly
▁mug
▁inhibitor
▁(10(
ching
▁thresholds
▁descending
▁exerts
reactivity
▁centr
▁paraffin
selec
1.
▁pyr
▁2.2
▁drinking
orpor
tomy
▁explored
▁postoperatively
▁postmortem
▁Glu
▁rota
▁Phen
▁childhood
26
7-
imid
dC
▁3.6
▁antero
riton
▁impair
▁unde
▁hepatocellular
▁identi
▁kidneys
▁erythrocy
-0.
▁sensory
rous
acr
▁genome
▁0.0
isomer
▁NADPH
▁mutants
▁euth
gp
▁0.
▁benzo
▁catheterization
▁locus
▁phenyl
▁IgE
▁0.1
▁antisera
▁erythemat
▁Increased
▁adsorbed
▁dendritic
▁cured
▁corresponded
▁bac
metabol
▁androstenedione
▁topical
brids
88
▁bic
▁insuff
▁solitary
▁2),
▁pathways
▁retention
▁200
▁nonlinear
▁Urinary
▁trachea
▁ligament
saccharide
Daw
▁contributes
▁efficacy
yrox
▁bilayer
▁parenchyma
▁operative
activation
▁pharmac
▁glycosylated
5.
rologic
dose
▁infar
▁6%
▁fluoride
▁103
▁Natl
ressing
plicated
▁excitation
lusion
▁adherence
▁trigeminal
PKC
▁thoracic
▁trabecular
tory
BP
▁7.9
▁blas
▁wors
▁aryl
▁caudal
grams
▁heavi
▁dental
00,
▁phosphatid
▁tachy
-27
▁resour
perfusion
keletal
tition
▁GI
▁aspec
▁Ultras
▁86
▁interstitial
▁irradiated
▁mechanisms
▁198
GMP
▁granule
▁ration
▁outpatients
▁18%
▁immobilized
-17
▁sucrose
▁cytologic
(2+
▁reversibly
phosphates
thel
▁amiodarone
▁restr
-4,
0.1
/6
▁104
▁Severe
▁-7
taken
▁chond
.4%)
▁heifers
▁strategies
ethyl
28
▁tibial
hetamine
apeutic
▁Americ
▁shifted
▁80
▁urea
amphenicol
▁reticul
gus
aterally
▁systematically
2;
▁erythrocytes
▁mononuclear
eliac
▁soy
▁concentrate
▁hamsters
▁raphe
▁tablets
▁Inte
▁Lp
2).
▁Evid
▁(200
omod
▁ure
sue
vae
▁diuresis
▁conclu
aced
▁apparatus
oprotein
▁sediment
▁intake
oA
▁lectin
▁cyst
▁hemodynamics
▁polymorphic
▁120
▁gonadotroph
assi
▁lymphoid
▁simultaneous
▁births
▁Doppler
amines
▁leukocytes
▁fractional
▁endoplasmic
zot
▁mediate
alp
anav
oxifen
▁collic
▁recipients
▁ACh
▁esterase
▁diurnal
▁HCV
▁headache
▁rheum
▁5.7
▁duplic
▁eluc
▁sequel
SHR
▁abilities
▁anemia
▁2000
acement
▁retard
▁tymp
inducible
▁subcutaneously
▁biosynthe
paired
▁necrotic
▁embryos
▁questionnaire
▁prevalence
▁complaints
▁traum
▁leukotri
▁forskolin
urons
▁histone
▁rhesus
▁venti
▁oxid
2%
▁DP
▁relaxed
▁nicotine
▁remod
▁opioid
-8)
polar
HSV
▁surgeon
ture
▁thyrotropin
▁OA
▁asymme
ospitals
oradi
▁papillary
▁embryonic
existing
▁influences
▁129
▁investigating
▁assessment
▁restenosis
urys
▁220
▁ultrasonography
▁ampicillin
ostatic
▁correlated
aryng
▁vimentin
cytochrome
enal
▁1,25-(
aric
▁healing
toxin
▁cranial
▁FFA
arrhy
▁8-
His
ropine
▁polys
▁extremities
▁EPR
▁58
▁brom
enic
▁indication
▁Injection
▁guanylate
▁mono
▁Clinical
▁abscess
otox
▁dissociation
treated
▁auditory
onography
▁mitochondr
▁formalin
▁salic
▁exerted
▁prevented
▁lipophilic
▁3',5'-
▁spectro
otide
▁conges
▁reac
▁occl
alasin
▁buc
omethyl
▁precipit
▁arterio
▁GABA
▁HPLC
▁cation
▁primate
▁practitioners
▁mimic
teroidal
urium
▁scaven
▁Sephadex
▁Repe
▁nM
▁virtually
parag
▁confined
▁intrathe
tur
▁arousal
releasing
▁capsules
▁diaphragm
adecanoyl
▁36%
▁constitute
▁bronchial
▁[14
tened
▁sputum
▁supr
▁Hodgkin
▁carotid
▁radicals
▁diseased
▁sinus
BV
▁cytochromes
▁enriched
renal
▁idi
adren
▁raises
▁acceptor
▁tension
idol
▁5'
▁Acute
▁promp
admill
▁cirrhosis
▁behavioral
▁pooled
▁methylation
permine
IAA
▁(1,
▁Peripheral
jac
▁postsynaptic
-198
▁messenger
▁protec
olab
▁paradig
▁transplantation
lox
▁fluctuations
▁aggregates
▁Michaelis
▁distal
▁(29
▁transported
▁intercal
▁wean
▁1/2
▁septal
ACh
achn
▁arth
orphine
▁nausea
▁fluorescent
▁0.11
▁competitively
0.8
aminidase
▁1,2-
▁anions
mL
fem
▁0.13
▁10(-4)
▁26%
▁cleaved
▁transitions
▁mutation
▁bradykinin
▁albicans
NM
himbine
hydroxyphenyl
▁73
▁gradients
▁promo
▁glutaraldehyde
▁PMN
▁thymus
▁acute
rometry
▁defec
▁retarded
▁adsorption
▁72%
▁acoustic
▁interference
educ
resistance
▁neurotrans
▁endocarditis
▁recurrent
FGF
▁enkephalin
induc
▁neurons
▁pacemak
▁LDL
nthe
▁washed
▁swim
▁synapt
▁ventricul
leuk
etoprotein
▁coeff
kilobase
apo
▁cofactor
▁aspartate
▁insufficient
▁pneum
ilic
▁nig
carb
6%)
▁EB
oclonal
▁Glc
▁nal
▁dox
endocrine
otyp
▁stimuli
▁(9
▁sugges
▁vein
▁laboratories
▁ventrolateral
▁evid
olipid
carbon
▁normalization
▁presumably
▁PBL
▁endemic
▁gels
SAID
-8
.2%)
▁infusion
▁synapses
meth
bearing
ophilic
▁hypertrophy
/2
▁6.9
300
▁kD
▁whereby
▁inotropic
▁volunteers
▁restor
▁encoun
▁Coronary
▁thiol
▁calcium
▁hydrocortisone
▁isomer
rosophila
enriched
▁IIb
▁endoscop
▁mimicked
▁oocytes
tig
▁metastasis
odies
▁attributable
inely
▁FN
-13
▁36
▁lymphaden
▁47%
▁Statis
▁hepatitis
gthen
unctions
▁amino
▁Glyc
eprazole
CHO
▁eluted
▁endometrial
▁0,
▁competitive
▁disappearance
▁cadmium
▁adenylate
▁foci
▁45%
cents
kinson
▁microelectro
▁acetate
▁structural
▁Previous
▁aspir
▁cessation
▁titers
opril
▁GHRH
▁shorten
▁6.5
▁linole
amide
▁disorders
tically
▁latex
▁84
▁bilateral
▁hrs
▁AMI
utyric
▁hemorrhagic
enh
▁devoid
▁oligosaccharide
otomy
▁sulfhydryl
▁hypotension
▁(1)
obacterium
▁chromosomal
▁efflux
▁thromboxane
▁mesenteric
▁polyc
▁cumulative
dihydro
▁elab
▁enzyme
▁ana
▁neutroph
orption
▁tumour
▁Cd
▁lysosomes
helix
actin
▁pep
▁kine
+/-
▁nutritional
lymphocyte
▁urinary
▁compounds
uled
▁investigators
▁divalent
▁progenitors
▁surveys
ergency
▁lesioned
▁unchanged
▁successive
▁poten
▁intimal
operatively
▁BP
▁dietary
▁5.5
▁25-
▁intermittent
▁aeti
▁downstream
▁macropha
▁oval
▁0.025
▁expiratory
▁prazosin
▁limb
▁histochemical
▁phenobarbital
▁hypers
▁guinea
▁phage
▁transmural
▁scans
▁biotin
hion
▁deoxy
▁fibronectin
mend
▁macromolec
▁shel
-6)
▁68
▁53%
▁MI
ischemic
RH
▁3.3
▁Dop
▁rotavirus
ogenous
▁lysine
ntolamine
▁reperfusion
kD
-8-
▁junctions
obarbital
▁dele
▁potentiate
atibility
sives
▁arrhythmia
▁ligation
▁tetracycline
▁NH
▁hypo
-40
PGF
▁stabilized
▁rearrangements
nithine
▁47
93
tif
▁broth
▁strains
vitamin
phosphorylated
atation
(2
▁sequenced
lactam
▁microtubule
▁exceeding
▁soma
▁insulin
▁retic
▁rats
▁heterogeneous
▁4,
▁promotes
▁granulocyte
▁21%
-5
occal
▁octa
▁epididymal
▁collagenase
▁remarkably
▁excitatory
▁mood
2-
▁48%
▁clamp
▁bolus
▁sple
8).
▁retin
endorphin
▁Parkinson
▁disturbed
▁receptors
▁puls
▁blunted
▁coex
Ins
▁acin
▁cytolytic
ifed
▁cortical
-200
lyce
▁hind
rometric
dition
▁withdrawn
▁proteins
▁DNase
▁parasite
▁cDNAs
▁immunogenic
▁nonpregnant
quid
▁physiology
▁1:
▁lasting
glucose
▁hyperins
▁retinal
▁51
▁afferents
▁preincubated
▁chloride
ysm
electric
19
pontaneous
▁(42
▁(+)-
reduced
▁therapy
monella
glycerin
minute
▁discontinued
▁resc
▁recru
▁isozymes
64
▁Biol
▁aureus
-11
sibly
▁oes
▁8644
▁microsomal
▁scanning
▁erythroid
▁evaluations
▁phagocytosis
viruses
mTc
▁discontinu
▁hybridized
▁(5-
ulatory
▁epid
▁8.2
conjugated
▁Chronic
▁polymerase
▁cornea
▁arom
▁hemolytic
▁thal
arachnoid
▁Groups
▁heterodim
oglobulin
▁loci
phosphatase
▁hypertension
▁ACTH
▁GD
▁constituents
▁conjugate
▁hydrop
olip
emic
▁discharge
▁undergoes
▁parathyroid
▁heteroz
oproteins
▁beds
obacter
▁terminals
▁consecu
▁packed
▁amyloid
lymphocytes
asic
▁beneficial
▁mamm
▁weighed
▁LM
▁pate
requ
▁cats
Barr
▁atrial
▁graded
▁natri
nucle
▁noradrenaline
▁corne
▁6
bacco
immunoreactive
▁1988
▁ELISA
▁herpes
▁bronch
▁pallid
▁virul
▁creatine
eration
▁fibrils
eradish
asting
▁19,
uronal
▁15,
▁microspheres
roup
▁8.
▁acidosis
occus
▁lysis
uretic
▁Infusion
▁neonatal
▁vertebral
▁12,
▁inver
placement
itre
▁EEG
▁arterioles
ithi
piratory
▁Thir
▁bradycardia
▁Maximal
opoiesis
HB
▁atten
athe
▁hemisphere
▁stratified
injection
▁dermat
▁17-
reactive
▁laparotomy
enopus
▁tol
▁ultrasound
amus
▁Cyt
▁lymphatic
▁congestive
▁calcification
▁respiratory
▁bonds
ivariate
▁selen
plications
▁eating
▁preparations
▁subjec
▁195
Mg
▁PG
▁spermatozoa
▁VL
▁HTLV
treatment
▁molec
▁dys
▁chromosomes
ylephrine
▁permeability
molec
▁7.7
▁hypoxia
▁metabolite
▁rhythmic
tral
ials
▁flap
▁RI
▁residue
▁50-
▁attitu
▁adherent
▁interf
▁titration
▁5,
▁(8
fluoro
+-
amel
▁VP
▁symme
▁attenuation
aminobutyric
▁paradox
kets
▁coupled
olute
ruc
▁questionnai
eptides
▁endocytosis
virus
▁cardiomyopathy
▁(150
glutination
▁testes
▁exert
▁weaning
onary
▁paired
▁potentiation
▁cesarean
▁radionucl
tigo
4/
▁blasts
▁cows
▁preceded
▁dihydro
97
▁baseline
▁Fifty
▁parox
▁chloro
▁particulate
ropha
▁concep
▁intracor
andard
▁hypoglycemia
▁ASA
▁MAb
▁positioned
otypes
trodotoxin
TGF
converting
quine
▁creatinine
▁neutrop
▁toxic
▁morphology
▁innerv
▁glycine
▁cytokine
▁biom
▁maxillary
diastolic
butamol
▁normalized
▁transverse
▁microsp
brom
▁immunotherapy
▁replic
▁transitional
RV
yrate
▁fecal
▁malign
31
ucas
▁smo
▁tyrosine
▁transmitter
▁VO
overed
ografts
affinity
▁HC
▁TRH
▁abor
▁ips
tussis
▁progen
▁0
▁microns
tetr
▁resin
uprofen
▁steroid
omical
▁cartilage
▁controver
▁antigens
omal
▁ile
4%)
Trp
▁50
▁peric
▁prosthe
phila
traction
glyc
▁reinfor
ductase
sized
▁quantified
rofen
▁hydroxy
▁diaz
▁38
▁estrogens
▁perme
▁isotonic
▁placement
-5)
▁pectoris
▁corneal
▁elicited
▁enalapril
▁kilobases
▁residual
▁123
▁arrhy
▁predominant
effec
▁choles
▁7.1
uretics
▁transloc
▁7)
entia
▁wound
▁diploid
▁deposits
▁(-)
▁IGFBP
yramine
Bs
▁4.8
▁Gly
▁(+/-
▁zym
yzed
▁intraper
▁encodes
▁85%
▁bladder
▁inflamm
iceptive
▁rhythms
▁thallium
▁Lys
▁PD
▁shortening
▁fluxes
▁introns
-5-
▁increasingly
▁10(8)
amine
SDS
▁predictors
▁elucidated
▁adhe
responders
enzymes
▁smear
CAM
▁colony
▁oligos
▁neuroendocrine
▁dosages
▁Eighty
▁dodecyl
sian
▁choline
▁0.04
▁molar
▁morbidity
nary
ogens
▁lipoproteins
▁behaviors
odop
amino
vices
▁ole
restingly
▁typh
▁construc
olism
atrial
-6,
HF
▁participating
▁endogenous
▁releasing
▁endoscopy
▁obese
▁intracerebral
▁nucleus
ozo
▁estrous
coun
▁findings
loro
▁organs
▁Ia
othane
olipids
▁ubiqu
▁qualit
▁duodenum
trib
▁provid
▁synthesis
olase
▁suppression
▁indi
▁receptor
▁needle
RF
▁94
▁Tissue
4)
18,
▁ovine
▁carcinogens
▁tumors
effective
▁geniculate
▁97%
▁perfused
amethasone
▁specialized
titis
▁infection
▁avoidance
▁Radi
okinase
▁NADH
glycerol
▁myo
▁dilated
▁nigra
thanolamine
▁93%
▁muta
▁hippocamp
▁jejunum
vely
▁glial
▁scin
-4)
▁interfer
▁vaccinia
▁sodium
▁prerequ
▁73%
▁aortic
▁advan
ADP
▁trabec
pA
average
▁minority
usive
▁liposomes
▁determination
▁lesser
▁difficul
chicine
coup
veolar
tillation
▁(10(-5)
▁LDH
▁latency
elic
▁fibrin
▁thrombosis
▁extrac
▁improves
▁Neither
▁2.
emak
bral
april
2),
▁diagnostic
▁chemically
▁validity
posure
inducing
▁adjusted
▁Epid
▁synergistic
▁proteoglycans
▁calcitonin
▁reveal
▁fluctu
acyclin
▁9
ameth
▁cros
▁demonstrable
▁HIV
▁maximally
tracellular
▁coated
trop
▁Caucas
VIP
ogenesis
▁phyto
myrist
▁narrowing
▁fmol
adecan
▁accidents
▁amine
▁predictor
▁PGI
▁sustained
arly
▁dermatitis
▁autoradi
▁doxorubicin
▁segreg
fraction
▁000
availability
▁increments
▁affinity
▁clones
responsiveness
▁helic
oxane
▁Drosophila
▁homogenate
▁smoking
▁GA
▁outcomes
genic
▁conduction
▁ligand
itoneally
aortic
▁microgram
▁inflammation
▁labelled
oxamine
▁peripheral
▁1.9
▁oxygenation
▁reagents
▁arising
▁EG
▁monthly
idin
▁glomerul
▁breeding
▁fascic
▁initiated
▁infected
▁apoB
▁Interestingly
▁taurine
sorbed
▁NT
abdominal
▁chronic
▁7-
▁131
osom
▁flas
▁ADR
10)
▁viscer
▁sulphate
▁feasibility
▁glycolytic
▁54
venty
▁attemp
fec
▁eti
angiotensin
ylation
entric
▁unequ
sectional
▁hematologic
▁immunoprec
hist
▁TG
▁ADH
optic
3-
aind
▁Experimental
▁steroids
ectomized
▁arteri
▁54%
uppression
▁bronchi
icient
ylcholine
▁Hep
gth
peptide
▁genetic
▁hybrid
0.5
▁3.
▁subtype
▁catab
ysto
ischem
phage
incubated
substituted
arge
▁deficiencies
▁secretions
▁Evaluation
derived
▁Tn
-48
▁inactive
▁confirmation
▁(2.5
▁analgesic
▁pancreatic
▁junction
pressing
▁donor
▁degradation
▁implantation
arginine
▁carboxyl
▁ovaries
▁anomalies
ranolol
▁DS
itary
▁adduc
tein
CRF
▁competence
▁virions
entif
14
bloc
▁heme
▁PIP
ughter
▁mL
▁regar
▁chromat
▁comparable
▁NaCl
itum
oretic
▁struc
amination
▁reacting
apamil
▁Patients
▁fixation
▁ciliary
▁transection
▁isoforms
▁4.5
▁lipid
estrogen
▁52%
▁4.2
▁favorable
▁ultra
▁BT
▁multim
▁transfection
▁androgens
▁mitral
▁FMLP
▁disseminated
erated
▁phospholip
▁protr
▁damaged
▁equimolar
▁cerebral
▁haem
▁horseradish
98
▁LR
▁reporter
coh
▁0.25
▁vitro
▁plastic
▁phenotypic
▁emerg
▁microM
▁parie
atidyle
thymic
▁hypertrophic
▁platinum
inflammatory
gated
3;
vix
▁histological
inemia
▁recurrence
roscopy
acylglycerol
onuclease
▁wheat
▁smears
▁(5
▁aggressive
rever
▁113
▁FSH
▁demonstration
▁Sertoli
▁periodontal
▁bowel
rowth
▁megakary
▁illus
▁mitogen
▁(44
▁therapies
▁CDDP
▁tracheal
triglycerid
uculline
romy
arynx
▁cytos
▁conjugated
▁surfact
▁CHF
siology
▁1986
tative
glucuron
▁progressed
▁diminished
▁molecule
▁[32
▁assay
▁leucine
obarb
▁obtaining
▁hypothalamus
▁scre
▁unsaturated
▁lasted
ologically
tation
▁erythropoietin
▁neoplas
▁18,
ocrine
▁myc
odermal
▁anhydr
othal
▁controlling
▁10(-5)
▁ascending
▁0.16
▁confirming
▁contamin
▁neutropenia
▁negatively
CoA
TNF
35
itals
▁promising
phosph
▁2%
▁electrode
▁excised
▁epididym
▁DD
▁Subsequently
▁resonance
▁esophageal
electron
▁KCl
tene
irub
38
▁healthy
ulant
oblasts
phosphamide
▁grains
▁interfere
itrate
▁soybean
▁modulate
median
▁76%
▁proliferating
▁Changes
▁indicative
otid
▁transfusion
oratory
▁thrombus
▁fertil
▁mucous
rected
phosphate
agic
tribution
▁persistence
▁exchan
▁hemo
sA
▁negl
▁CBF
letion
piper
▁hypog
▁mediated
▁Inhib
tive
tations
molecular
▁prostate
▁pregnancy
tris
▁apnea
▁16%
▁prescribed
▁intim
tron
▁cisplatin
oalveolar
▁tetr
▁notic
-50
▁asthmatic
▁2-3
▁NF
▁neutrophil
▁artery
▁motoneurons
▁erythropo
▁olive
▁accumulate
▁5.2
▁periphery
ionyl
▁42
HIAA
▁incontin
▁160
icidal
▁cholest
▁denat
▁glycogen
▁vaccines
▁hypophys
▁EMG
▁phosphates
▁grain
0%
▁lactation
▁contral
Glc
▁2.4
▁Median
▁79
▁32
▁glycoproteins
NAc
Gl
imide
▁clus
▁infarc
idney
▁isoproterenol
▁inverted
patients
▁11%
▁mineral
▁syngeneic
tures
inated
▁haloperidol
▁cardiople
▁leth
▁quantif
titute
hea
▁electroph
▁surviving
▁gingival
▁nitroglycerin
tectomy
▁ventricular
▁yohimbine
▁cytoskeleton
dimethyl
▁6.
▁capillary
▁markedly
▁succinate
osyltransferase
▁encomp
▁functionally
mega
▁luteinizing
▁complic
▁Concentr
▁challen
dependently
▁palli
.6%
▁contractility
galact
▁sclero
▁inversely
▁dial
▁degenerative
enol
labelled
▁ranging
omiting
▁0.001
▁adaptive
▁alters
▁asymptomatic
▁papill
▁(56
▁40%
▁hypertensive
-1,
▁basement
▁ischaemic
aturation
▁90%
IDDM
rection
▁hir
▁tuberculosis
arbox
myr
▁Cul
oung
shaped
▁substantially
▁persisted
▁ocular
▁leukemic
▁ovariectomized
▁cycling
▁underst
▁supplement
ochemical
▁PAI
ylyl
▁(14
operoxidase
▁133
▁granul
▁alveolar
▁phy
▁cardiovascular
▁PGF
▁pretreatment
adjusted
oxyl
▁Tyr
▁mobilization
▁RNA
▁uncomplicated
PMN
▁junctional
pig
ANF
▁incub
▁induc
▁collec
▁adenosine
ducing
▁neurogenic
▁structurally
▁counterparts
▁concentrated
▁endothelium
▁Nineteen
▁Trp
▁sinusoidal
▁admissions
ancies
▁lambs
▁hypothesized
etidine
▁Dise
ureus
▁tumours
retic
▁NADP
▁carbonyl
omotion
thmia
▁muscarinic
surface
ocyt
▁caud
ensitization
▁barrier
▁rhy
▁determines
▁sensi
▁corticosteroids
▁threefold
benzyl
▁pharm
affin
nRH
-4
systolic
▁hypothalamic
▁overe
purified
nutrition
tration
sively
▁hydrochloride
▁2.5
▁norepinephrine
▁BA
ensitive
▁(60
▁attenu
▁700
osus
▁specimen
-[3
▁anticoag
▁ethnic
▁hemorrhage
▁ect
▁etoposide
▁commercially
antial
▁daltons
planchnic
IIIa
▁38%
erebral
▁subcellular
▁pulp
▁1-
▁bronchodil
ereb
0%,
▁opioids
oneph
▁hipp
▁ganglia
▁peaks
-90
▁85
osarcoma
▁precipitated
organic
eminal
▁imaging
rine
timulation
▁palmit
▁suicide
▁intolerance
ejun
▁excreted
▁myeloma
▁abrup
0.2
▁synov
ulline
▁topoisomerase
▁vivo
▁enrolled
▁calf
▁crucial
▁110
▁orally
▁benzodiazepine
▁unlabeled
▁Basal
▁CRF
9,
▁influenz
▁anesthesia
▁PV
▁8,
enoic
pread
uble
▁laboratory
tering
lycemia
▁chicken
araldehyde
▁chest
electro
▁29
maleimide
▁secretin
▁testis
▁reinforce
▁incorporation
▁assays
▁kPa
▁frac
▁pharmacological
▁osteoc
fetoprotein
▁9-
▁11,
▁weigh
oreceptors
▁atr
earing
oplasmic
otype
▁albic
ovol
-450
▁RBC
▁cortisol
▁integrin
▁lymphomas
▁neuromuscular
▁dams
▁IFN
▁indomethacin
.6%)
▁aeruginosa
rangements
phyl
▁7
▁sour
▁mammals
▁150
▁rheumatic
/5
▁genomes
▁.05)
lamy
▁amput
▁circulatory
▁avid
PCR
▁30%
.00
ocial
▁16
▁cigarette
aryn
▁recruited
pyruvate
▁subunit
HPLC
▁motif
▁sensitization
▁180
▁23%
▁mitochondria
▁oriented
▁lobes
▁tubulin
embran
▁hepar
iprofloxacin
▁recommendations
▁Individual
▁poisoning
▁ventral
▁cholinergic
phic
▁invasive
ochrome
othyronine
▁perit
▁MK
rosy
oyl
▁physician
▁lactate
▁regulates
▁electroly
▁normals
▁analyzing
▁lith
plantation
▁aimed
veness
▁Escherichia
▁(0.4
oxygen
▁64
LV
▁surgically
▁HRP
▁serotype
▁crossover
▁hydrogen
▁3-4
▁depolar
▁AVP
▁96%
osin
▁98
▁compound
▁proliferative
▁onset
▁emphasized
▁144
CDD
▁63%
isite
▁0.08
▁retrograde
▁thickening
seven
▁6.2
▁27%
mental
▁hypothyroid
▁1.2
▁excluded
clin
22
anad
▁concom
mediated
▁slices
▁vertebrate
Hodgkin
▁39%
▁incidence
▁folding
▁lenses
562
▁GV
▁describ
▁contralateral
▁66
▁DMP
▁Sixteen
▁irrever
sial
▁saliv
uresis
cine
▁myocardi
▁dissemin
produc
▁12
▁efferent
▁mRNAs
▁transcriptional
ovulatory
▁tomography
▁intrav
▁justif
▁(4-
idis
iteal
▁patency
ymethyl
▁underestim
rostenedione
omeric
▁radioligand
ethanol
▁duct
▁exhaus
▁acros
▁nerves
ineal
▁retinopathy
▁fibroblast
physiologic
▁Perc
▁PTCA
rosine
▁abundant
▁atmosp
▁62%
pregn
oxal
▁dismutase
▁Tx
▁distin
▁30.
▁specificities
7%
▁Entero
▁tamoxifen
▁emphasize
▁phosphorylated
Cu
loon
▁defects
▁piglets
▁estimating
heric
▁MMC
isopropyl
▁puberty
relations
tency
▁clonidine
IgA
▁250
▁0.5,
▁preterm
▁typhimurium
ylated
▁RR
▁reversal
▁95
▁primers
▁digesti
▁stimulated
▁fibrinogen
▁phosphorylation
▁isop
▁Intracellular
▁9.5
thmic
ported
▁bFGF
rocal
▁prosthetic
▁viability
ochondr
▁bradyc
▁retina
▁polypeptide
▁RT
tens
▁121
▁CaM
▁postulated
▁dramatically
▁plasminogen
seud
▁hapl
piration
▁hospitals
▁overex
▁cholesterol
▁112
▁Recently
▁tonic
▁discrimination
▁lineage
assay
▁0.5%
▁8.8
tyl
▁excit
rological
oxif
▁interventions
▁nicot
▁EGF
▁gases
▁intran
▁mAb
▁atherosclerosis
lym
▁melanoma
▁KD
▁Chrom
▁hypercalcemia
opulmonary
▁HL
ighteen
synthe
▁proline
chol
▁somatic
▁140
▁alterations
▁skeletal
▁amylase
violet
phot
▁resting
illaries
hydropyridine
onvul
▁cloning
-3,
▁protocols
aints
▁400
▁hematocrit
uvant
▁strips
alciparum
▁protons
▁nicotinic
▁principally
greater
▁mesenchymal
▁coordination
▁gon
otor
▁somata
▁undere
2,
▁prono
unting
went
▁propagation
▁WGA
▁regulating
imetric
lives
▁thrombocyt
▁chol
▁omeprazole
▁consciousness
eryth
▁monomers
taining
▁differentiated
▁infiltration
▁discharges
reased
uminal
▁glands
▁fentanyl
▁neon
▁HeLa
▁absorbed
anding
orphin
▁lipids
▁NG
▁Carb
▁hemat
stolic
forming
▁occupational
▁HS
▁tubule
▁WHO
▁agon
▁peptides
-15
planted
hydrox
.4
▁dosing
▁vincristine
habil
▁proce
partate
▁suspected
▁spindle
▁ECG
.2%
▁dimers
▁contex
linked
▁intracranial
▁suppressor
▁obstructive
▁lymphoma
▁gland
lux
▁5.1
▁thyroxine
rein
▁hippocampal
-10
▁spinal
oventricular
▁secretagog
▁bip
▁lavage
illin
▁deletions
▁wavelength
▁Prel
▁symptoms
▁isoform
yclo
▁uro
▁LTC
▁ischemia
▁unfav
roximately
▁HBV
▁ventilated
▁allogeneic
▁agar
arum
▁MT
azolam
▁hyperthyroid
▁distinctive
▁crystal
▁reserpine
henyl
▁ery
▁bombesin
▁intraocular
▁spots
▁phenotype
▁breathing
ocomp
▁discharged
-(2-
▁BALB
-1).
protein
ameter
▁64%
▁10)
nucleotide
osum
molality
▁dentate
oside
▁perikarya
▁toxicity
unced
horm
▁Bacter
▁triglycer
▁myofibr
eptin
▁distress
▁jaund
ographically
▁umbilical
▁syndromes
▁.00
▁phospho
▁13,
▁socioeconomic
▁manipulation
owever
▁115
▁subpopulations
▁monitored
▁stimulatory
▁positivity
▁reflexes
▁epicardial
▁residues
ocellular
lysin
amn
▁0.0001)
ensi
▁thrombin
HCV
xual
▁determinant
▁MN
▁interneurons
adm
olic
▁outpatient
▁PT
▁aneup
iruses
▁proteinase
ollagen
▁triggering
▁(45
sia
arrh
guan
▁iodine
▁constr
heal
▁steroidogenesis
▁accounting
▁shear
terologous
▁parame
▁VH
ifers
▁0.17
▁glutathione
▁116
▁resembled
uran
▁88%
7),
▁respec
▁carriers
▁epitope
▁prospective
▁haemorrhage
3%
sy
injected
stimulated
▁homology
tility
heres
antibody
▁preliminary
▁irreversible
▁phosph
▁muscular
ocks
▁0.14
ministration
▁14,
idym
illance
▁thems
gangl
▁bleomycin
helical
▁chlor
▁PGE
kelet
▁clinically
olol
aid
grees
▁interacting
lood
▁internalization
▁pyruvate
▁linearly
▁pertussis
▁acquisition
▁ICU
▁selec
▁MLC
▁hydrocarbon
▁MIC
▁suspensions
crist
▁deterioration
▁amo
mide
▁influencing
▁SEM
uncture
ongest
topril
▁lyso
tential
▁Mice
▁perip
▁atherosclerotic
onstric
▁detec
▁2-4
tee
▁globulin
▁Leydig
▁metabolism
▁microsomes
epi
▁varic
▁plasmids
Hg
▁physicians
▁0.01
-24
▁37%
▁motone
ritic
tence
▁impedance
▁assayed
pended
▁precursors
▁cystic
atell
tia
▁GM
▁127
osal
▁excision
▁peripher
illation
▁depr
prandial
ucine
▁Indi
micro
▁haplotype
▁gonadotropin
prisingly
▁spectrophot
▁leuk
ogl
▁deficient
▁radiographs
▁projec
▁capillaries
▁lectins
▁TATA
▁patches
86
trated
hesus
▁Isolated
-4-
arb
▁ipsilateral
ilateral
▁accid
▁intermediates
▁amplification
▁bioavailability
39
HCO
ayed
▁dilution
▁aerosol
upus
opres
▁adjus
▁Ninety
▁breed
bility
toli
▁chamb
▁hapten
▁rises
Rb
▁ineffective
▁cellular
otoxic
▁personality
▁oligonucleotide
▁anastom
urnal
▁eosinophils
23187
▁immunoblotting
▁pars
proliferative
42
-)-
prising
acil
▁recombinant
tization
▁prostheses
sAg
utaneously
▁GMP
itic
▁hep
ditions
▁achie
▁ingested
▁ferritin
▁shortened
epine
itol
▁Approximately
zotocin
▁heparin
▁adducts
▁bromocriptine
coated
atellite
uterine
▁cobal
SEM
▁uncoup
▁guidelines
▁Pulmonary
▁follicular
azole
▁anaesthetized
ostr
assium
uodenal
feeding
▁0.10
▁COS
▁CSF
▁ablation
▁reconstitution
▁cyanide
▁doubling
▁unstimulated
▁Immunohist
himb
▁deaths
▁cement
▁colchicine
▁CAD
▁calor
istically
8,
hyp
itonin
90)
▁Various
▁105
6).
▁pretreated
▁evoked
rocy
▁AI
othelial
▁anaesthe
otypic
▁Whereas
▁10,000
ocyst
till
▁cyclosporine
▁Additional
sorption
▁substitutions
▁scintigraphy
▁PW
▁flanking
▁excl
▁progeny
epithelial
▁rectif
▁schiz
plasia
▁14%
▁PRL
▁OT
glucosamine
▁1.6
▁survive
▁resultant
▁concer
▁Functional
▁deficiency
▁agglutinin
▁condens
▁exhibit
▁hepatoma
▁wee
▁intest
invasive
▁secretory
▁24,
trig
▁intercellular
astom
▁shar
▁spectrometry
▁saline
osan
▁(27
▁4.6
urea
rates
▁actively
▁phentolamine
▁demonstrates
▁77%
▁apex
onazole
▁accurately
▁inhibin
▁immun
lysine
▁AML
▁extremity
▁lowering
ureth
▁bulb
▁perc
▁8
▁seropositive
▁establishing
rotic
▁prostacyclin
▁carcinogenic
-1.1
ectomy
▁diastolic
▁(48
▁hemodynamic
trip
▁1,25
ANP
avage
▁oxidation
semin
▁6.3
▁cardiopulmonary
▁eryth
▁radiol
▁stomach
effects
matic
-60
▁derm
hydryl
▁intense
▁98%
▁Calcium
hemat
affec
anin
▁focal
adian
▁weekly
dR
ococcal
▁copper
▁Meth
fts
▁0.03
▁accelerated
▁hygi
▁truncated
▁indicators
▁tendon
▁rostral
▁cones
▁artic
▁inhaled
▁examinations
40
▁inadequate
plast
▁diame
▁cutaneous
▁isoelectric
4,5)
▁simian
▁pigs
▁restoration
ylchol
▁aromatic
ieties
borne
▁phi
▁identif
tiveness
▁dioxide
▁molecules
atest
▁detergent
▁thymic
▁hydrolyzed
▁tachycardia
translated
▁4.9
pH
ensory
fusion
▁fibros
▁microbi
▁spp
ifug
▁predominantly
▁-0.
atories
▁vitamin
▁IgA
idated
▁occluded
▁acet
4),
▁94%
▁socio
ipitation
eptidase
▁10(3)
▁7.
▁0.05
▁unm
gran
▁(1
-23
imeth
▁55
athetic
NK
▁parental
▁linkage
onine
-30
▁11-
▁symp
thal
thle
▁mucus
achol
▁aldosterone
vated
▁5.4
opoietic
▁splenocytes
amyl
▁ejac
▁Phosph
▁cataly
▁jugular
▁undergone
▁platelet
▁(10.
▁moieties
▁2
▁tubules
▁complication
▁reversed
▁NAD
▁depleted
▁GRF
iosis
▁Staphylococcus
▁Intr
▁TI
glycer
▁anastomosis
fib
▁synthe
▁HR
▁deox
▁subc
oste
-2,
▁constitutive
▁caries
▁compositions
▁coenzyme
▁surfactant
▁rRNA
tin
▁washing
supplemented
▁plasm
▁neurop
urin
▁peptid
▁gestation
essation
9),
▁cephal
▁susceptible
▁neph
▁viscosity
▁allograft
onuclear
▁hams
▁emo
▁ovid
▁putative
▁reperto
▁infusions
▁hypotensive
▁recruitment
▁arous
alanine
▁genic
▁actin
▁flora
olarization
▁systolic
gmental
▁hepatocytes
▁DBA
▁pathogenesis
PRL
▁unfol
4-
essive
▁substrates
▁clinical
▁55%
trained
▁Scatchard
▁1,25(
▁dex
ethylene
-18
▁.01).
▁prevalent
▁permissive
▁Monoclonal
dominal
▁pulses
▁transmitted
▁thereafter
▁diethyl
▁CN
▁facilitate
oea
▁Cys
aldehyde
▁stimulation
▁endometrium
tensity
opl
▁implic
▁21-
▁possesses
onad
modified
uded
HIV
▁repeats
▁femur
▁assessments
▁intron
velength
▁cyclo
▁intubation
▁phosphatidyle
IU
▁MBP
12-
▁haplotypes
▁elective
▁exon
ocaine
▁vacu
▁causal
8%)
5)
▁fetus
amphetamine
▁pregn
▁abdominal
▁corpus
▁gm
53
▁(24
▁splanchnic
▁ischem
▁TPA
orrhea
▁crosso
▁activated
▁ane
subs
orac
▁Pt
▁vicin
▁proximity
▁clot
▁exploration
▁lithium
5,000
▁fluoro
antigen
rief
▁absorbance
1;
▁Examination
tical
ipheral
▁cortex
▁inhalation
▁immunized
▁superim
▁adul
pran
▁LHRH
▁ether
▁DT
▁sympathetic
adrenoceptors
▁precur
oproterenol
obut
oxan
▁25%
iability
▁profound
▁14-
▁forearm
Thr
lysis
67
odend
ocular
▁emergency
ygo
▁augmentation
tabl
▁injuries
▁transplanted
▁histology
▁2.1
6%
▁39
▁extensor
otoxin
▁cyan
▁LPL
▁assis
▁Abnormal
▁mediating
▁MoAb
ubation
▁paralle
▁crystall
▁nephron
generation
▁employment
embrane
▁drugs
▁nutrition
tial
▁atropine
▁kappa
▁cyto
▁1988.
▁61%
▁multicenter
▁800
▁digested
▁pyramidal
▁aberr
▁emerged
▁dors
acetyl
▁recons
▁hetero
▁follicles
▁ejection
▁7,
▁doses
oglyc
usp
tiary
▁potencies
oric
▁meal
▁targeted
▁48-
▁strand
amate
▁fimbr
▁streptococci
phrag
▁glucone
▁serotypes
eroxide
lasting
▁chemotaxis
thirds
▁233
tamine
AVP
secreting
▁Tran
▁(10(-6)
▁euk
▁Increas
.1%
ochem
facial
59
alkyl
▁characterize
▁BSA
▁phospholipids
▁RV
▁iso
▁sepsis
▁acetylcholine
▁mediator
▁consensus
▁hamster
▁discus
iotics
▁EDTA
▁arteries
tagog
▁ouabain
▁pups
▁feces
▁240
rested
▁discrimin
▁biphasic
thyroid
▁fractionated
▁phyl
▁caution
olization
▁0.09
▁Levels
▁defective
icin
▁hGH
asions
onit
tric
▁destro
▁Mn
▁beats
▁airways
▁1980
oprote
Hb
▁suscepti
▁spasm
▁lam
▁7.6
▁immunoglobulin
insensitive
▁sigma
▁recur
▁rhin
deficient
▁clotting
▁57
colem
▁quinidine
▁sheath
osine
▁unil
▁24-
7)
▁transc
▁retrie
ellar
▁leuc
▁myosin
▁disruption
▁proteinuria
▁rigid
▁arti
trover
▁antiarrhythmic
▁apical
▁triti
80
▁agglutination
▁circadian
▁17
orough
iotensin
▁ciprofloxacin
▁2.8
▁aor
aline
TPA
galy
threatening
▁instrum
▁synovial
tilis
▁activators
▁agonist
gland
tructural
▁etiology
▁8)
▁Phy
rophy
▁averaged
▁tendency
filament
restricted
esin
▁peroxidase
▁elong
▁emotional
inescence
▁probe
eled
▁nucleoside
▁marrow
▁antib
▁tetan
aspartate
▁histologically
▁polymorph
▁physiologic
epam
▁morphine
onate
▁analogs
▁analysed
▁endocardi
▁athe
▁differentiating
olig
▁glucagon
▁2,
cells
▁histamine
urgery
▁valve
▁(43
-2
7,
▁stren
▁canc
▁capsule
onyl
▁macrophage
phenylalanine
▁schizophrenia
▁determining
▁spor
▁0.3
tries
▁implant
mortem
▁0.6
▁10(-8)
▁nitro
▁disorder
rogen
pregnant
▁macromolecules
▁HB
-10)
▁fibrous
▁antidepress
▁ward
icillin
63
▁glucocorticoid
terious
▁0%
tox
▁phagocytic
sant
▁41%
▁abdomen
▁Overall
ometh
▁xyl
36
uanti
▁anaerobic
▁adenomas
▁cultured
▁interc
▁diacylglycerol
0)
sulf
▁infec
▁TS
acid
▁27
plants
modulin
-100
▁developmental
0.0
5%),
▁locomotion
72
▁BW
▁metabolic
▁catabolism
▁polymorphisms
ymp
▁Unlike
mortal
▁diabetic
▁diltiazem
▁washout
tonic
▁apomorphine
▁reticulum
▁alcoholic
▁electrophoresis
▁Activation
▁obesity
▁resemble
iatric
▁resembling
▁mRNA
▁intakes
▁haemat
▁inhibition
▁HBsAg
▁extracellular
▁34
sies
(1,
▁omega
▁menstr
▁glycerol
▁venom
▁evolutionary
floxacin
▁polyethylene
ffeine
▁peptide
▁PI
▁(2
8%
▁multiv
▁mM
▁114
▁biologically
▁experi
▁radiolab
▁hyperg
pyr
▁dehydration
▁additionally
fos
▁patent
▁hyperthermia
▁maintaining
▁12.5
itro
▁immunoreactive
▁antioxidant
▁transpor
▁isoprenaline
tivated
▁chym
azepam
▁potent
cein
▁electrolytes
▁epsilon
▁fused
▁epidermis
▁inducer
▁(0.3
▁malaria
▁preoperative
▁1).
ongue
▁epileptic
▁antiviral
▁survived
opa
▁DHT
apsulated
▁40,
fat
▁methyl
▁depolarized
▁stimulates
▁thromboemb
▁assessing
▁choro
idazole
▁gonadotrop
▁biliary
isomerase
▁objec
▁caffeine
▁metastases
▁dosage
iper
▁glioma
duce
tioned
▁hemodialysis
▁(22
Lys
magglutinin
▁gly
tisol
▁SCC
▁ewes
▁seminal
otri
▁unid
3+
opausal
▁monke
0.6
farin
▁epit
tability
▁extensively
▁12-
moid
66
▁170
sibility
▁87
▁ribosomal
▁AMP
▁descrip
▁32%
▁depressed
myc
▁glycol
atectomy
▁Fib
tosis
▁decreasing
▁neo
▁monocytes
▁alumin
▁subunits
▁oste
▁injur
▁aging
inositol
▁Increasing
peak
▁termed
23
▁electr
▁vasopressin
5'-
▁surveillance
▁PMNs
tents
illary
▁emptying
▁debr
atening
▁modest
▁yielding
▁stimulate
ropriate
▁theore
▁programmed
▁cocaine
-3)
▁tolerated
▁ductal
7.
▁4.1
▁gangl
ffinities
RIF
oplastic
itamin
▁cytotoxic
▁cere
▁awareness
kage
▁accel
2.
▁regurgitation
▁biop
95
▁emin
cholic
▁bleeding
▁tubes
▁tooth
▁chondroitin
▁Leu
▁concentrations
toxicity
▁aden
▁trends
teroids
▁somatosensory
▁42%
▁tolerance
▁abd
▁autocrine
▁chromaffin
▁calibr
ecan
▁(0.
ociation
▁incis
anyl
61
▁myel
planch
▁feasible
▁parturition
catalyzed
▁ketanserin
▁catechol
▁10(-7)
▁Alz
▁enzym
▁cultures
▁saturation
▁polyacrylamide
▁antibiotics
▁aneurysms
kephal
+)-
antagon
▁FGF
▁sphinc
▁immunos
ficial
▁radiotherapy
ystokinin
ecal
▁bone
▁regurg
▁triphosphate
opathological
▁bab
testosterone
▁10(4)
tococcus
▁superficial
99
orh
▁adversely
▁enzymatically
FSH
lobulin
▁hypot
▁LT
▁(75
▁seronegative
▁neuropeptide
bile
▁grades
▁reproducibility
2(
▁carbachol
resist
▁presenting
▁gastrin
▁simulated
entanil
igible
ylamide
ropo
▁88
▁microcirc
▁ars
oprolol
▁quanti
gative
▁comparative
▁heparan
▁EIA
▁CGRP
▁synaptosomes
ollen
semb
anic
ietin
▁(35
.1
▁Calc
▁0.001)
▁substitu
uscular
▁plaques
▁clearance
▁operon
▁nude
tails
▁CAP
tensin
▁horm
throm
▁ethanol
▁parenchym
▁vasodil
DPAT
▁antagon
▁demonstrating
ffin
▁immature
▁exchanger
▁micros
▁attenuated
ilibrium
▁wt
▁uterus
gm
▁0.000
▁chromatin
▁ultim
ivered
globulin
▁staphyloc
▁extrav
▁serotonin
▁stromal
ifedipine
▁preferential
▁plas
▁guan
▁0.001),
xate
▁ovary
▁atypical
▁4.
▁reveals
▁adop
aventricular
▁cerevisiae
oplasm
▁67%
mong
▁puber
ituit
mol
▁lengthen
obutyl
▁intensities
▁qualitative
ercul
rophic
▁accordance
▁tachyc
▁chemot
▁colonies
▁effector
▁30-
pir
▁anxiety
▁mediators
▁reviewed
▁examines
▁qualitatively
▁referral
rents
▁cough
▁nonspecific
▁psychiatric
▁pancreatitis
▁repl
▁GF
▁immunobl
▁78
platin
▁8%
▁efficac
▁[3
▁Tumor
▁canine
▁dismut
▁agarose
▁Thirty
▁ventil
Gal
▁Dose
cysteine
▁radioimmuno
▁calories
+]
▁antidepressant
▁24
uric
▁incid
phorbol
Tyr
▁amygdala
lys
thms
ganglionic
anuary
▁recordings
▁elec
▁4).
1/2
BSA
▁starvation
measured
▁yiel
-6-
15
▁autosomal
▁anticoagulant
▁questionnaires
▁collateral
▁unaffected
▁newborn
ylase
▁influenza
▁transduction
▁antioxid
▁degran
▁histologic
olestero
▁80%
▁discriminate
▁nephropathy
-1),
▁quantitated
opolysaccharide
▁VT
▁eosin
▁obstruction
mobil
▁poorly
oreceptor
erating
▁intrauterine
56
▁0.001).
▁saturable
%),
ophils
▁trunk
▁regeneration
herol
▁impulse
duc
▁intub
▁hydroly
▁enzymatic
ressed
▁Compared
ocin
operative
.4%
DG
▁zinc
methyl
1-
ylcholinesterase
▁salts
ercise
edded
▁TC
otrexate
indole
iciently
▁symptom
▁originate
atized
▁44%
▁vasoconstric
▁sulfate
gesterone
physiological
▁antigenic
odialysis
21
▁cooper
▁biosynthesis
▁gastritis
▁prognostic
▁49
▁pancre
▁uter
eces
terminus
▁agonists
▁prevention
▁angiography
▁surge
▁cirrh
▁syndrome
▁suckling
truc
▁compartment
▁99%
depleted
▁rati
▁abortion
▁phe
▁Meas
▁(198
▁Simult
▁awake
anoid
ensities
▁kidney
▁subpop
amily
▁answ
▁prostatic
oxygenase
▁dyst
▁cysts
clamp
glutinin
▁pathological
▁posttrans
▁VE
titial
▁mutations
▁strongest
▁LV
ionine
▁slowed
anavalin
rolateral
▁retrospective
oposide
▁trophob
▁resec
omegal
phylaxis
titution
27
0.7
▁resected
▁mellitus
▁electrical
osylated
titude
▁ppm
▁vagotomy
kephalin
otassium
▁AChE
▁2.7
omatous
▁132
toxic
▁valvular
oblas
▁tertiary
idic
▁mediates
▁(34
▁manifested
▁antagonist
▁LTB
▁strain
▁crom
▁covalent
heximide
▁7.5
▁alkyl
▁EBV
49
▁trauma
▁polarity
▁comprised
▁couns
▁shor
▁infra
▁collecting
.3%
▁pK
prin
/10
▁modulation
▁depression
-21
ulin
▁74
ferrin
▁brains
▁quantify
vation
irubin
-35
tak
anadate
olec
ardia
-22
▁participate
▁biopsies
▁Renal
▁neoplastic
▁uric
▁nons
▁carcinomas
▁106
▁decreas
echanical
▁castrated
▁GABAergic
▁atm
▁biology
▁transferase
▁biochemical
▁dialysis
▁RNAs
▁hindlimb
▁monol
▁inositol
▁33%
keleton
yronine
▁larval
▁pharmacokinetic
▁Biochemistry
▁substanti
▁benzodiaz
▁inadequ
▁concomitantly
▁3,
▁elevated
▁PRA
ticular
▁inappropriate
▁prel
gely
▁schist
▁4.7
orubicin
DNA
▁tube
▁attitudes
lasses
▁ingestion
▁dithi
▁murine
▁perforation
osclerosis
▁schedules
clerotic
reast
▁alleles
ophore
iasis
tional
▁specimens
▁Dex
▁conditioning
▁CoA
▁recr
▁measuring
▁predis
▁reciprocal
▁(300
▁examined
rophob
▁deposition
▁manifestation
▁treating
▁posti
hydrop
▁owing
trum
▁glutamate
▁preservation
▁fibers
▁chambers
entgen
▁variability
▁randomized
▁ascertain
▁hemorrh
icated
52
▁60-
▁lobe
ogeny
▁magnesium
▁oxytocin
ortic
2%)
▁illness
▁inability
▁medications
▁gallst
▁sphincter
encephal
ostasis
▁sulf
▁chromatography
geneic
▁relating
.8
▁porcine
▁plexus
agittal
▁89%
▁promin
▁neutralizing
▁altering
prol
▁latencies
▁iliac
▁-2
▁parv
▁16-
▁freshly
▁injections
▁veins
tening
tions
▁ulcerative
oglobin
▁amines
▁TP
▁mature
▁harves
▁unc
▁myristate
▁incubations
▁nasal
▁lumbar
▁weighing
▁comprehen
▁succin
▁NM
rinary
▁subtilis
▁laparo
romic
▁75%
▁micron
69
▁granular
▁cure
▁fractionation
-[
▁folate
nitine
ields
▁exhibiting
▁ischemic
▁8.3
▁monophosphate
▁falciparum
acute
▁oncogene
tabol
▁microscopic
1).
▁labeled
▁(33
pain
aryl
3.
GH
phenyl
▁potenti
▁0.05)
▁10%
immune
▁denervation
▁laser
▁sexually
▁advances
▁gp
▁fructose
▁sensitivity
entile
-1-
razole
▁transit
0.9
▁influx
tized
▁hypertensives
▁localize
▁81
▁euthyroid
▁ionophore
▁optic
▁chicks
▁ventilation
▁58%
tetradecanoyl
portun
▁stratum
▁initiate
ronch
▁investigations
9%
chym
tice
▁postmenopausal
▁HP
-34
▁tryp
▁duodenal
▁interacts
▁ascribed
etine
chlo
▁modulated
77
▁0.0001).
▁immunologically
▁Amin
▁alve
▁accumulated
▁100%
promoting
lymer
amicin
▁daytime
20
▁babies
▁medication
▁diabetes
▁Significant
▁examining
▁modulating
▁benign
▁pregnant
▁epiderm
onium
enicillin
glutamate
▁thrombolytic
▁bipolar
conjug
▁(11
▁rejection
icients
(+)-
▁infectivity
▁acinar
▁displacement
▁Phe
strand
anine
testinal
▁antigen
▁undetectable
▁withdrawal
▁familial
▁impaired
▁parietal
▁spontaneously
▁uterine
▁iod
▁examin
▁hypertonic
▁solely
▁cen
▁triglyceride
▁hydroph
▁swine
▁CM
▁EA
▁plasma
yridine
▁Eleven
▁deform
jun
▁pyl
▁myeloid
▁pouch
otre
performance
ologists
▁ornithine
▁(6
▁proteoglycan
▁clonal
▁mathem
density
anthine
▁ultracentr
▁0.20
istar
▁transcripts
▁filaments
osity
▁anesthe
▁axon
-9)
glycoprotein
▁standardi
igenic
ritis
▁pelvic
oprost
tenosis
▁sedimentation
▁20
▁pall
▁reliability
labeled
▁phosphodies
▁capability
▁hypothyroidism
▁HDL
55
▁undertaken
▁subcutaneous
phil
ventricular
▁Tc
▁(30
tructed
lipid
▁secretion
▁sciatic
▁improving
(2-
alcip
▁atrium
irectional
▁13%
▁predic
amuscular
▁connective
▁122
athy
▁activating
▁psor
olysis
▁transcription
71
▁SG
▁adduct
▁archite
▁reactions
▁2.5-
▁radioactivity
▁Recom
▁atheros
▁evolved
▁enrichment
▁contributing
▁centrally
ecu
▁(15
▁electrolyte
▁RS
▁stimulating
▁hypox
▁0.18
trogen
▁parasites
▁1981
▁resemb
▁dimethyl
▁recipient
roprusside
oprol
▁radioactive
▁cDNA
▁Purkinje
infected
rocyte
▁SRIF
▁fibrosis
▁afferent
fused
▁morphometric
▁Epstein
▁1984
▁metals
▁lysozyme
▁dimer
enteric
24
urones
dered
▁epilep
▁homoz
▁testicular
00
▁lens
ealand
RP
▁ureter
▁phenomena
▁(5)
▁pacemaker
turb
▁somat
▁medial
trical
iary
anesthetized
▁alkal
▁theta
▁affects
incip
osynthe
▁superoxide
▁reproduc
▁donors
37
▁leukocyte
▁amputation
▁ACE
HM
▁precursor
▁acids
▁100-
▁recessive
▁placenta
▁immunoassay
]-
▁monomeric
ylic
▁circumference
▁juvenile
▁signaling
▁0.07
▁stepwise
▁embry
▁Hb
▁weakness
▁50,
osome
▁Pretreatment
▁transcribed
▁81%
6),
▁bacteria
▁1970
51
yroxine
▁microtub
thrombin
▁substrate
▁22
▁lungs
▁survivors
▁correc
helium
▁thyroid
ulum
▁lethal
▁abrupt
▁6)
▁diarrhoea
regn
▁Taken
▁habits
oprec
▁exposures
oscopic
▁androgen
▁enhances
▁inoculated
▁sensitized
▁multic
jected
▁proximal
otrypsin
▁sphing
taz
urther
▁moderate
▁rupture
adrenergic
▁stom
ositi
▁autoreg
amid
▁sial
▁indus
▁spine
▁NP
▁manu
▁stiff
▁mutant
▁formaldehyde
atine
▁(0
▁experimentally
▁(1.3
▁inactivation
normally
▁clinic
▁priming
ocap
oidal
▁oxygen
▁kidne
2+,
▁microm
▁vasculature
achid
▁18
itone
▁stimulus
▁0.01)
▁Proc
▁secreted
▁exclusively
thase
▁spreading
▁(1.5
BG
▁connec
▁microbial
3)
threshold
ologic
clonal
fentanil
▁retrospectively
▁16,
tochem
▁0.7
▁synthetic
▁6.8
ocytoma
tiv
▁mec
junctional
▁reacts
▁quies
bac
ignificant
▁(1.2
▁accep
▁pyrid
▁quantitatively
▁monit
▁GABAA
▁antimic
▁contraction
ginine
directed
▁unex
▁TB
▁filament
tolerance
yclic
▁tidal
emius
tially
▁analys
irds
▁108
▁controversial
▁CCK
ergy
▁siblings
polyacrylamide
.0
orectal
8+
▁phenylalanine
FU
▁carcinogenesis
▁tracts
▁10.5
▁tubular
oxia
ontal
ximide
▁zymosan
▁chloramphenicol
▁evaluating
▁pediatric
▁saturated
▁denaturation
▁critically
68
▁dehydrogenase
▁10.
▁collaterals
▁cerv
entral
tochemistry
▁antibodies
▁irradiation
▁abundance
trol
▁conjunction
▁DEAE
associated
▁pressor
▁GFR
▁carboxy
7%)
▁neurob
mitters
▁rods
▁psychosocial
▁nerve
▁LPS
▁fati
dipine
omotor
▁enzymes
▁ester
▁flexor
▁Leuk
transformed
▁immunore
▁resection
▁43%
▁catheter
▁immunocyt
▁19
▁termination
▁contraceptive
apid
▁glucocorticoids
ainide
▁autoradiography
▁kary
obl
▁(95%
▁organisms
▁regimen
entical
▁supernatants
▁exagger
▁inhib
▁Subjects
▁micrograms
ropriately
▁sput
ignific
▁envelop
apse
▁potency
▁fibres
aicin
▁deviations
▁granulocytes
onucl
▁vigorous
▁GH
hydroxylase
osomal
▁plasmid
43
▁oligodend
▁eliminated
▁develops
ovalent
▁10(-3)
▁ileum
▁lipoprotein
stained
▁supernat
▁5.3
▁Evidence
▁motility
▁microscopy
responsive
▁1%
▁Nine
rolog
▁mann
namic
▁suppressive
▁contamination
▁107
▁avian
olipoprotein
▁vasoconstrictor
▁deferen
▁supplements
receptor
▁99
plastic
ycl
▁induces
▁cef
iliac
mediately
othreitol
▁circulation
▁suppressed
▁manifestations
▁kain
▁intox
▁biosynthetic
▁intrac
▁20-
▁latent
▁nucleic
▁glucose
▁polymer
▁consequently
promazine
uridine
▁thrombo
▁microv
▁constituted
kground
▁Protein
▁sarcoma
▁monomer
ionate
organisms
tiazem
phragm
insulin
ophosphate
▁belie
naph
▁concanavalin
▁2.6
▁Antibody
-45
▁macrom
▁Plate
alsy
▁prolonged
aemic
▁76
▁PCA
▁asbestos
▁lactic
▁0.005)
tember
▁exhibits
▁surf
oxide
▁cyclic
▁solub
▁antis
▁envelope
lix
▁yolk
▁depended
▁peroxide
unctiv
methoxy
▁genital
dies
arterial
2/
▁identifying
▁monkeys
ulinemia
hypertensive
▁Afric
achnoid
▁codon
▁PaO
PV
▁1989
oxic
hexyl
ortal
unctional
thmatic
▁glomeruli
▁segregation
▁epidemi
▁neurolep
▁TA
▁bundles
▁tox
tiz
▁ribonucle
▁redistribution
▁lob
▁pneumon
▁DL
▁pyro
-300
yste
▁focusing
▁equilibr
▁pI
onor
KD
dehyde
▁sampl
▁peroxis
▁spleen
oblastic
▁monkey
years
▁malnutrition
,000
▁increas
tivity
▁monos
▁(16
▁Biochem
▁reser
▁immunostaining
▁angl
▁ultras
▁monocyte
tyrosine
▁wash
▁chan
▁pituitary
etition
▁methacholine
▁screened
▁analogue
HDL
▁proton
nitroso
▁Comparison
▁4
▁PDE
▁immunode
▁dyn
▁facilitated
▁BMT
▁underg
aryngeal
sts
opeptide
▁stratif
▁Oc
▁atrophy
▁synerg
▁adipose
▁normo
ubicin
▁osmolality
astatin
▁Mg
▁doctors
teine
▁145
EA
▁facilit
▁proteolytic
▁anis
ituitary
iferative
▁negligible
▁stenosis
butyl
adily
▁inversion
▁60,
acerb
sess
osoma
▁hybridomas
ympathetic
▁bilirubin
▁conduc
lact
atment
▁cytoch
▁distric
▁distinguishing
▁septum
sizing
▁respiration
▁percutaneous
leukin
▁FEV
ophen
▁Sixty
▁bronchoconstric
/1
uginosa
▁1.5
▁therap
▁investigated
▁endothelial
cholesterol
▁Reduction
tizing
oscop
▁MG
restric
tinguishable
▁7.8
suppres
▁transfusions
▁allele
rences
▁adrenocortical
▁61
opic
arent
tate
▁saphenous
fluores
▁eminence
▁83
thio
▁stiffness
ogenously
luding
primed
omyel
▁Together
utyr
▁nucleotides
▁0.12
kDa
▁titer
▁microliters
▁affecting
tensive
▁1.
▁normotensive
▁olfactory
isol
imetidine
ervo
opoly
▁abrog
▁EcoRI
phthal
▁pulmonary
ropathy
iaz
▁clinics
▁Streptococcus
rostened
.2
▁articular
▁10(-10)
▁selectively
▁cathe
▁60
▁dilatation
▁libitum
▁cholesteryl
-3
▁79%
▁heterogene
ronectin
▁cigaret
requency
▁enhance
yron
rosis
▁weakly
▁dye
keratin
▁10(-1
▁anaesthesia
▁lec
ulent
▁parac
▁arginine
ondr
▁exag
aminob
ulses
▁mesang
▁burden
carbox
▁considerably
oplasty
▁cartil
educed
▁AUC
units
▁inhibits
ithm
▁relaxation
meas
▁preven
ecre
tants
▁cryst
▁aggregation
▁decarboxylase
▁surgical
▁experim
▁targe
▁enlarged
▁ultrac
5),
ocortic
▁adhesion
otopic
▁follic
▁15%
▁tritiated
▁6,
uccin
osyl
▁adenocarcin
▁stoichi
▁albumin
▁tRNA
▁accompanying
▁percentages
▁relaxing
oids
admium
▁pM
▁0.06
▁fever
physe
▁sten
▁striatal
1210
▁Pseudomonas
▁posture
▁saphen
▁voluntary
▁acini
MHC
▁suggestive
metic
▁captopril
▁smokers
sors
▁catalytic
aluation
▁yr
▁cerevis
▁Cells
▁ICAM
▁ATPase
▁EGTA
▁estrus
rotid
▁waveform
mitted
▁aneurysm
▁70%
▁(500
▁fatty
▁antiserum
olved
▁PCR
esic
aminoglyc
▁monolayers
sorb
tenolol
▁sti
▁anae
oreg
yrib
▁phosphorus
tinu
▁1
▁30
▁homologous
echn
▁limbs
tensives
▁(0.2
▁malignant
▁tas
▁enamel
▁(1.4
Nase
▁untreated
▁radios
▁500
▁(4)
operidol
tran
▁practition
rospinal
▁exis
▁chemotactic
opathic
orepinephrine
▁hydrophilic
▁CMV
tinguish
▁halothane
▁translocation
▁immune
▁5-
▁susceptibility
▁postin
▁metastatic
▁tubercul
▁trache
▁adults
▁progn
▁exten
▁actinomycin
▁.05).
blockers
▁[125
.5%)
▁Experiments
Ci
independent
▁occlusive
▁appreciable
▁vascular
▁10(5)
▁neurones
▁phosphatidyl
▁meningitis
BH
iatum
▁MCA
▁10(6)
▁reversible
▁lymph
▁complications
olus
5%,
gnetic
LPS
▁pyrophosphate
▁insec
acted
▁plex
▁uptake
▁submaximal
▁92%
▁VIP
▁freeze
▁100,
urate
ilep
▁6.0
▁cytotoxicity
▁pylori
tocin
tic
▁mening
▁foods
▁estrogen
▁retur
▁accumbens
▁graft
▁antid
▁subend
▁circulating
▁hyperglycemia
▁isot
▁deduced
▁adrenaline
▁lumb
▁transforming
rophen
adrenal
ichloro
aminophen
▁subjected
▁subun
Ala
▁cyclospor
▁arrhythmias
ipher
▁carbohydrates
tural
▁symmetrical
ikary
▁inhibitors
▁marginal
▁permits
▁evaluable
sions
▁progestin
▁accounted
▁glutamine
▁6-
turally
▁17,
▁bif
▁deterior
alc
▁effusion
osamine
▁thickness
▁CAT
sepithelial
▁edema
▁anionic
▁chorionic
icardial
▁spontaneous
atonin
gans
▁3)
▁Rats
▁pore
radi
aminergic
▁3).
▁temperatures
kling
▁spikes
▁20%
▁longitudinal
▁cyt
▁sequentially
▁pneumonia
▁apprec
coupled
▁compensatory
odipine
▁islet
acet
kinje
inhib
▁infants
vascular
2+]
ophil
▁oscillations
▁vesti
▁stimul
▁fron
▁quantitative
alues
▁lys
trypsin
▁126
▁intervention
▁endotoxin
▁eosinophil
xanthine
▁BAL
▁NGF
▁endo
▁NIDDM
acrylamide
▁thi
▁mEq
minal
▁LH
tase
▁preval
▁Estim
cardi
▁Thirteen
▁catecholamines
▁achieving
▁hyal
ivacaine
10
agonist
▁chemicals
parathyroidism
▁inward
▁ducts
aginal
pinal
▁1987,
▁56%
▁ald
▁40
▁rhythm
▁incorporated
▁(23
echan
▁methotrexate
iodothyronine
regulation
ophageal
BT
▁enteric
▁digestion
▁0.4
erent
hyde
▁constric
▁Respon
▁ICP
eptide
thym
▁cirrhotic
▁immunosorbent
▁128
▁brady
▁vesicular
ysts
idne
▁prednisolone
vul
▁carcinogen
phadex
▁Consequently
▁101
▁litter
psych
▁0.05),
11
▁implants
▁quantit
farction
nai
idation
▁chick
▁aspiration
▁Bacillus
accharide
amous
hemical
▁horiz
▁failures
▁mobility
▁multivariate
▁genetically
▁congen
cortisone
▁satisfactory
.7%)
▁leukaemia
▁arthritis
▁thymocytes
▁jaw
▁Wistar
▁0.005).
▁sexes
▁encephalopathy
ecyl
chymal
▁chimeric
apeptide
▁pig
ichia
▁rated
▁intracellular
▁93
▁immunoglobulins
▁allergy
umerous
▁Staphyloc
yroid
pendent
mitter
▁lymphoblastic
▁OKT
umbens
▁eryt
maximal
▁dilation
▁traits
ophren
(2+)-
ipital
▁69
ogeneic
▁infections
tle
▁branching
▁intrinsic
▁SCH
hern
▁responded
▁plasmin
▁citrate
▁antinoc
▁lytic
▁contractile
tructive
▁exogenous
▁1989,
▁deficits
bromo
▁borderline
ceptive
ocys
▁esophag
uron
▁Platelet
▁cytoplasmic
▁FT
▁ech
exc
ygen
ordance
▁insignificant
aund
phs
▁infil
ogenetic
▁reliably
▁coval
oxone
▁0.5
lastic
▁attained
▁thromb
▁metall
▁supine
▁penetration
▁inh
esthe
linking
Dawley
▁5
▁anomal
rozen
▁usefulness
▁0.02).
▁intermedi
▁overlapping
▁hemisp
▁deter
albumin
▁6.4
▁morphologically
▁SHR
▁0.1%
▁cohort
▁fatigue
▁0.9
GFR
▁0.02
ithin
erents
▁submuc
▁75
gene
▁oleic
onucle
▁catecholamine
▁proliferation
▁prothrombin
cyclic
oracic
ostic
pyrene
mber
▁innervation
▁sows
▁0.05,
▁serotonergic
▁spectroscopy
▁blockers
▁Serum
kine
▁7.4
orporeal
▁forsk
▁ulcer
▁vege
▁salivary
BM
▁14
▁glomerular
▁thym
▁angina
▁endocrine
▁correlations
▁ICa
▁abnormal
▁silic
▁endocardial
▁progres
▁poin
▁regulated
▁polymorphism
▁definitive
▁nmol
▁Subjec
▁catalyzed
▁5'-
ovirus
▁discon
▁organelles
▁transplant
abd
▁interne
▁74%
▁mAbs
▁diarrh
▁gyn
itus
pendence
▁hyperp
▁coag
ncies
odium
▁(1.0
▁ESR
▁incubation
atid
teryl
▁disability
▁salbutamol
76
▁transcript
▁inspiratory
tagland
▁conformations
ologous
0%),
regulated
▁newborns
▁subtypes
ustif
▁Lyt
▁kDa
▁(50
ocardial
▁involvement
acental
▁117
▁adip
▁microscope
▁melan
▁relap
▁strands
▁HbA
▁hypothe
▁refractory
RNA
esity
▁swit
▁conformation
ffinity
▁tric
▁mice
▁discre
▁juice
▁Drug
oreal
▁dithiothreitol
▁hepat
▁esters
▁interv
ration
andida
omonas
▁(197
▁Rb
▁resusc
500
▁sharply
obases
▁utilized
▁antibody
-32
Ps
▁epithelia
ipramine
ffer
▁anatomic
dividual
▁metabolized
▁enhancement
▁trypan
▁diarr
methionine
▁dysplasia
▁melatonin
▁novo
▁PE
10.
▁corticos
vive
▁calves
▁duoden
geal
osidase
▁hydroxylase
▁worm
▁undergo
▁immunoprecipit
▁puncture
▁inapp
▁eligible
ilization
▁polyp
▁Gluc
ammonium
▁GVHD
omycin
▁mmHg
▁interrup
▁glomer
▁hormones
▁ileal
▁Krebs
▁strepto
▁NMDA
cessive
totic
MV
ucl
bic
▁ascorbate
▁ANG
trone
tally
adrenaline
▁GSH
otoxicity
▁Arterial
arean
▁66%
▁ultrastruc
▁19%
terol
▁regulate
▁selectivity
▁steers
▁behavi
▁Salmonella
▁elast
sus
▁enti
▁Patient
ographs
acchar
limb
encephalon
otherapy
▁homogeneity
▁repetitive
terminal
▁insoluble
▁offspring
▁amph
▁exhibited
alas
▁occupancy
▁cochle
▁pronounced
omat
▁abnormally
▁bathing
▁deletion
▁institu
siologic
▁10(9)
.9%)
affected
ynaptic
▁automated
derly
0,000
▁immunoblot
diabetic
0-
▁suture
▁sarc
tenance
▁18-
▁laminin
rogenase
▁chondrocytes
amycin
▁8.0
▁2).
5).
▁threonine
iotic
▁oral
60
iciencies
otting
tality
▁anatomy
ivac
▁systemic
▁10
orec
tilb
▁contaminated
▁pigment
▁implicated
▁infectious
▁hypothal
inase
▁probes
▁gradual
▁microvascular
utaneous
uccessful
loxacin
▁13-
▁regimens
lasts
ivation
avail
CSF
▁monolayer
▁cascade
▁4-
▁fluids
kinin
▁illumin
▁epidural
ocytochemistry
▁defic
▁Bone
▁enrol
▁surround
▁indis
▁stres
▁atenolol
▁administered
tics
▁3.0
luores
▁soleus
▁blocker
etween
iloride
▁laminae
luded
4).
▁glycos
ampl
▁MHC
2,000
10,
tissue
ogenes
▁subjective
▁dias
feren
▁dysfunction
▁projecting
▁blacks
competitive
IFN
ullary
▁measles
retin
▁disturbance
▁prophylactic
evoked
ACTH
:1
▁fibrinolytic
tryptamine
macrophage
▁Fifteen
plemented
▁presynaptic
▁acqui
▁28
▁allergic
▁LN
ocul
angl
mg
▁entero
alveolar
▁underwent
MH
▁refrac
conversion
ilized
▁discontinuation
uvate
▁spon
▁symptomatic
-25
▁MH
▁diagnoses
▁10.0
▁CTL
gluc
LH
stim
ocyan
tively
▁blot
▁phenomenon
therapy
monophosphate
osocial
▁PCP
▁resembles
▁relie
▁ket
▁drain
1),
encephalic
ensin
▁ICI
▁lact
▁laryngeal
▁catalyzes
▁82
valence
centr
activated
▁28%
▁cooperative
▁cochlear
oes
imidine
▁TCDD
▁adhesive
▁8.6
▁autop
inyl
▁hydrophobic
▁unilateral
lofen
▁transgenic
ogenic
acterial
nitro
▁depressive
▁mannitol
▁fibroblasts
▁isolation
▁Obs
▁antiser
MN
▁synthetase
▁biologic
▁gamma
▁embryo
-26
trients
olecular
rectomy
terolog
▁strom
dotoxin
chloro
turnal
▁penicillin
▁insufficiency
▁pump
wes
-7)
▁midbrain
onephritis
▁135
▁convul
▁HCl
3).
▁supplemented
▁differe
nec
▁asymmetric
▁colitis
▁Mortality
romyces
▁endurance
▁noc
▁infertility
▁(2)
▁femoral
oustic
▁differentiation
▁hormonal
▁(0.5
▁perfor
acholine
trating
tus
.8%
▁mesen
▁differen
▁logistic
▁vWF
▁4.4
▁mitochondrial
▁preferentially
▁48
▁cGMP
▁vasoactive
▁CNS
▁suspended
▁intramuscular
▁gyrus
trac
▁fluor
▁vertebr
▁criterion
▁semen
▁caudate
▁nephrectomy
▁ulc
▁ANF
estradiol
▁ammon
elec
ipr
omized
▁protoc
▁31,
ocor
34
▁lacks
▁osmotic
▁1983
▁RP
▁glutamic
▁repressor
plas
▁confluent
▁rele
weighted
▁PEG
▁beha
▁Eighteen
▁decisions
urgical
imentin
9-
▁tightly
▁(17
▁deple
▁vaccine
▁placebo
▁Fc
odopsin
▁psi
▁HF
▁disrup
▁erythematosus
▁9,
▁dementia
pli
titu
▁41
▁desm
▁catar
▁plaque
vular
▁elucidate
▁1989.
▁aort
▁basal
▁nitroprusside
▁immunodef
▁hCG
▁nuclei
olgi
▁TSH
▁ank
▁expend
merc
corrected
ompan
oresis
▁enl
57
▁galactose
▁abolished
▁cruc
uation
▁stain
▁gangli
▁1000
ocated
▁PH
▁satis
▁malformations
▁decade
000.
▁Maximum
▁Flu
▁atria
filaments
roma
▁augmented
SOD
▁Tum
dihydroxy
erance
tetrahydro
▁Recent
igaret
PAC
▁cimetidine
▁hypercal
cepti
odine
▁lumen
psin
▁endot
▁spati
▁pyram
▁coincided
▁0.00
chloride
▁coli
ervoir
▁utero
▁aerobic
▁splicing
▁ionic
yx
fected
▁oxalate
▁comprising
-9
▁statis
schem
▁rectal
istribution
▁1.25
▁displaced
.8%)
▁Myc
filtration
fron
ositol
idate
Mu
charomyces
▁sut
▁corticosteroid
romes
000
▁epinephrine
sis
▁revascular
▁branched
▁MAP
▁esophagus
▁(10
▁disturbances
▁cloned
▁sequencing
▁MV
▁harb
oag
▁behavioural
▁implications
▁proteases
▁bromide
aturity
▁perception
▁Cardi
▁kinase
▁gains
tives
▁stained
silon
andros
asal
ulph
▁Differen
▁TGF
▁theophylline
▁endoscopic
200
uronium
▁carcinoma
plic
▁discrepancy
incub
▁deleterious
▁sterile
▁heterozygous
fibr
rostaglandin
▁elderly
crimin
▁cil
▁brainstem
ensitized
▁pathogenic
▁pathophysiology
▁bull
xone
▁crest
blood
▁-6
▁7.3
ilical
▁2,3-
▁myrist
▁REM
llate
▁Effec
▁surveyed
lec
▁triacylglycerol
herent
▁9%
inesterase
tempor
stranded
orax
▁mutagenesis
▁amide
96
▁nervous
encl
mRNA
▁brush
▁130
dine
▁aeros
▁reactive
▁Prol
▁electrophoretic
▁kinases
6.
entified
intestinal
▁ultraviolet
▁heterologous
▁bones
Rs
▁admission
▁aspirin
17
▁carbohyd
▁glycoprotein
▁3-
▁potentiated
▁physiologically
abec
▁livers
▁Bmax
idium
▁hypere
▁preferen
▁nodular
brain
▁20.
▁tissues
▁basolateral
▁adulthood
▁transluminal
▁disclosed
▁3.5
▁hypoxic
▁adap
▁retinol
▁oxidative
▁myelinated
▁serum
▁6.6
▁blast
ascular
ostigmine
▁seizure
▁bupivacaine
BAL
▁affinities
lobin
▁splic
uclear
arrhythmic
▁PKC
▁52
▁filtration
▁extraction
▁preincubation
▁137
ocrit
enching
▁gastro
▁Vmax
obase
oxidation
▁rabbits
allikrein
47
▁tryptophan
hemagglutinin
dle
▁mixtures
ceived
▁reservoir
▁elongated
▁cardiac
olone
hydro
▁1.0
▁deoxyrib
cycl
pite
-80
▁lupus
rox
▁serological
▁heating
▁routinely
▁trend
33
▁Alzheimer
▁hepatic
diabe
helin
▁arachid
eal
▁96
▁adenocarcinomas
5-
diagn
▁diameters
▁dysp
▁TM
▁localized
ffec
ventil
▁unresponsive
MDA
▁cervical
versely
uoden
▁Lung
▁Graves
fluo
globin
▁reagent
▁35
▁intral
▁BCG
ulators
▁rearrangement
▁schizophren
▁25
▁fluc
▁drainage
▁genotypes
▁trypsin
▁transferrin
1%
▁fetuses
▁(1988)
▁inducible
▁granules
▁bactericidal
▁APC
▁isolate
▁0.01),
9.
▁pregnancies
▁BL
▁linoleic
▁exacerb
▁quin
▁antral
ometrically
▁continuously
opath
▁dib
hentic
assays
▁SDS
▁denervated
▁cytogenetic
▁epidemic
▁formulation
▁glauc
▁stu
▁preventive
ocytes
/12
▁adi
▁dispersed
ophylline
odeoxy
entan
ronchial
▁dextran
minis
▁EE
▁sham
▁perin
▁transiently
0%)
▁depolarization
allium
▁retinoic
▁PLC
otides
▁labelling
controlled
▁contracep
▁regulator
▁102
▁excitability
azem
▁antin
▁3.1
▁hemoglobin
▁influenzae
ocompatibility
trial
rolase
▁adenocarcinoma
renaline
▁excessive
otone
riamycin
transferase
▁relevance
▁wk
▁reactivity
ipro
ocarcinoma
idespread
LDL
▁mitogenic
rometer
▁fibrillation
olution
▁effec
tum
▁xen
lymph
▁enlarge
opathy
tisone
etitive
pharose
▁testosterone
▁tes
▁toxin
▁prophylaxis
▁metast
▁somatostatin
▁systematic
tub
▁fractures
terone
▁hens
▁dissected
▁leukotriene
▁psychological
▁0.35
▁differs
▁Preliminary
▁purine
▁IgM
▁terminus
▁nodules
esium
▁visits
▁fold
85
▁hypother
allik
▁exocrine
▁intoxication
▁mast
45
▁PSA
orrh
▁outflow
▁inflation
