▁subtype
▁solutes
▁veterans
-0.5
▁Km
▁paralysis
▁exudation
▁encompass
retic
uretics
▁afl
keletal
▁substrates
ocrit
oxon
▁(33%
▁suckling
▁(16%)
▁testosterone
alp
▁circumferential
▁predictable
▁(0.3
resistance
▁diets
5);
▁nonoperative
▁antipsychotic
▁adminis
▁sarcoplasmic
plasts
oprec
aemia
▁recombinants
▁prevalences
▁practically
ocytochemistry
nee
▁declining
▁(41
▁practiced
▁intensities
▁cyt
orenal
▁contractile
▁embryo
▁cultivation
▁physi
enzyme
▁spots
▁resolving
traumatic
▁lungs
▁subunit
▁(77%)
uran
▁NT
▁muscular
plants
▁Immuno
▁restric
▁gelatin
▁Thirteen
▁demyel
EBV
▁positively
ancerous
(-)
ongest
▁ane
▁underwent
▁allele
brain
▁Cumulative
▁DN
jury
▁vasodilatation
afloxacin
▁guanine
▁septal
▁visualization
▁ecz
resist
▁LPS
▁RIA
▁pound
▁localized
▁keto
▁7).
▁grading
▁arrhythmic
mber
▁subendocardial
▁carbonyl
▁whey
▁devised
urones
imus
▁STI
vating
enzymatic
▁specimen
▁Different
▁tremor
-60
▁apprec
creatinine
▁mechanisms
▁unvaccinated
80)
gents
▁Methyl
▁halved
▁hydrocarbon
odopsin
▁morphologic
▁lympho
▁isometric
▁competence
▁contraind
▁apolipoprotein
▁centrally
▁sickness
▁consultation
▁56
▁(140
▁inadvertent
▁biosynthesis
▁corticotropin
▁barium
▁segmental
▁perikarya
ration
▁(17
▁sustain
▁Smoking
▁275
havi
▁gon
▁probe
▁(1989)
▁adrenaline
▁soma
▁retina
andard
▁0.97
▁15.
▁pulsed
▁atherosclerotic
▁ribonucle
▁larval
quid
▁personality
▁fossa
▁Dopamine
▁sedimentation
tein
46
▁10(-2)
ilin
▁antiserum
▁paw
▁1-4
9-
NM
sy
▁propionate
7).
▁multin
imens
xime
▁(2.6
▁ET
▁Plasm
amylase
▁stably
▁142
▁coincident
▁bifurc
▁carbonic
▁gly
▁89%
ophila
idic
oleucine
osporin
▁Peripheral
▁staphylococcal
▁TSH
▁AChE
▁morbid
▁decub
compart
▁correspon
▁unstimulated
posing
▁corresponded
▁micrograms
▁occlusive
▁Depression
10).
etition
▁thermos
▁LN
▁5.2
▁suspensions
▁cooperative
▁reduc
atine
▁latex
▁remin
▁substituents
▁(5)
▁oedema
▁sodium
▁Experim
acylglycerol
▁myofibr
▁ultracentr
oxygenation
▁slowing
▁glucose
▁demonstrating
▁0.54
▁arrhythmia
▁regulating
▁blas
▁demographic
▁nucleic
▁.2
▁subtraction
reed
▁conjunctiv
▁14%
▁technologies
▁39
▁experiencing
-6-
eled
▁anatomy
▁persisted
PRL
▁hepatomegaly
ibenclamide
fusion
▁incom
▁170
-110
▁microns
loidy
▁clu
▁6.
SDS
▁paced
▁Clin
itus
▁familial
▁deple
▁bottle
▁selec
▁Removal
▁8.3
-2,
ymp
▁precursor
▁heterodim
Cys
-10)
otre
▁hyperactivity
tep
▁chlorthalidone
▁myof
▁hydrophilic
▁depressant
▁births
▁IK
▁sleeping
MG
ective
▁Comparisons
8,000
▁knees
aemic
▁Cultured
▁129
▁hig
▁identif
▁Likewise
▁unrestricted
edding
▁abundant
▁leprosy
▁immunophen
tility
▁surveillance
▁polyamines
ologically
▁fura
▁evaluates
▁0.74
cens
▁ventilated
▁BAL
▁modulator
▁erythemat
▁Corresponding
carotene
moidal
▁ranitidine
▁bup
▁genetic
▁3-
▁angl
tivation
▁fused
▁30-
▁chond
▁brachial
antile
▁outward
▁antero
COP
79
▁regulate
▁pontine
EGF
▁unchanged
▁spectra
▁incision
▁(43
▁Structural
atil
▁drin
▁(65
tribution
▁Prevalence
▁injected
▁qualitatively
irubinemia
▁observers
▁attributable
▁idazoxan
coh
-1;
▁HCO
14.
ecia
imeth
▁acros
siology
▁Organization
▁homogeneous
▁inpatient
▁fulf
▁vasodilation
▁0.79
faction
pigs
acryl
▁defects
▁alveolar
bA
▁Almost
▁disrup
▁cephalospor
▁expectancy
▁evolved
▁0.23
ureas
9%
▁HBV
enil
onitrile
oinositi
rants
adrenoceptors
▁GBM
NOVA
▁splenic
▁extensively
▁1.6%
▁chemoattrac
▁hypoglycemic
deple
LAK
oic
5%),
▁recycling
insulin
▁ions
macroglobulin
▁DOPAC
▁metallothionein
▁hydralazine
▁phosphate
▁regeneration
▁bonds
▁prono
▁agar
▁stenoses
oxo
▁histograms
7-
+/-
▁Regular
turally
eric
itidine
LTS
thle
▁hemagglutinin
ocytopenia
roxyprogesterone
▁peroxidase
▁1969
▁malign
▁enal
ocyte
▁RV
acquired
▁dichro
▁0.6
▁immunode
▁indicative
oides
▁transaminases
ropion
▁abd
roscopy
▁resc
carnitine
tensity
▁320
▁scalp
▁respec
▁(10(
▁lysis
▁carbox
▁intraoperative
▁penetration
▁mandible
▁3.6%
▁curative
▁geriatric
▁endoscopic
roximately
amphenicol
▁(3.8
▁drain
▁11.4
▁Cellular
▁Evaluation
▁metronidazole
▁pea
▁repressor
▁2,000
▁transduc
▁Lyt
▁thresholds
▁pili
2(
▁parenteral
▁developmental
Ga
phorbol
▁nurses
▁stripping
▁regen
▁augmentation
▁investigator
▁DP
cellular
rected
▁thirds
▁spi
▁phosphorylation
▁titres
EDTA
keratins
translated
▁surgical
73
▁ofloxacin
fused
▁venules
▁chlorpromazine
ynaptic
ietic
▁excluding
▁0.05%
ischem
▁Repe
▁cooperativity
▁VF
Tn
olyl
▁decrement
urons
▁fibers
-0.0
▁intracor
▁likelihood
▁clinician
▁Nineteen
▁cows
▁reciprocal
▁10(-10)
went
serum
kephalin
▁satisfactorily
lun
attached
▁ascribed
▁0.05;
▁streptoc
yron
▁chloride
▁imposed
▁blu
▁phyl
utyric
ofuran
▁inhibited
▁salivary
assemia
▁18%,
▁10
▁scrotal
partic
ections
▁pall
▁keratinocytes
▁methacholine
▁anis
▁Ia
dithi
dA
-1,2-
▁deduced
▁mg
▁adhering
▁synergism
▁HBe
DCK
▁prednisolone
optimal
▁antin
tilled
oderm
▁anhydr
▁UV
▁10.8
-2
▁isch
▁healed
▁Renal
▁synaptosomes
▁transc
▁slopes
tite
ithiasis
▁neon
▁kDa
▁salvage
▁dP
▁grains
imetic
▁bromocriptine
▁pellets
▁79%
▁Improved
icide
utin
▁electroph
▁allosteric
▁rats
▁pregnenolone
rophenyl
▁3)
▁inadequately
▁Correlation
1210
▁LHRH
▁unrecognized
▁leuk
▁(67%)
▁intake
▁0.8%
▁regain
oreg
▁kary
▁Histamine
▁enteroc
otide
AO
▁IMP
▁chel
▁mutations
▁postinfection
▁extre
▁dehiscence
▁schedules
sided
eryth
-1),
▁PCR
▁bacterial
affec
otropin
yocardial
lasses
▁122
▁killer
▁fasci
▁phenotypically
ochrome
-1.0
▁arteri
▁symp
▁(1),
dihydroxyvitamin
blot
▁basophils
▁adenocarcinomas
▁accompanying
▁InsP
▁Pt
▁64%
▁metabolism
iphene
-40
▁decayed
▁hazards
▁scientif
▁histone
▁.000
▁histochemistry
▁bioactive
▁umb
effective
▁sten
140
lycemia
▁outbreak
▁gynecological
ogens
▁excitation
-48
▁ureteral
▁gastric
▁contractility
▁opiate
▁sati
▁(28
▁Calc
Barr
inemic
rometh
▁trophic
▁pons
▁.01).
▁tuberculosis
ospasm
▁reporter
▁Ery
▁gingivalis
violet
▁excision
Thr
▁Vero
▁hyperthyroid
RF
▁dehydrogenase
▁450
▁infertility
▁exacerb
▁emissions
▁Lp
▁penetrate
80
▁phenotypes
GTP
dione
▁aids
▁superficially
▁inoculation
▁unreliable
▁genesis
itic
▁papilla
bruary
oil
▁rGH
▁TL
▁Hemodynamic
▁relevance
▁1985.
▁Electro
ophilus
▁2.1%
omagnes
▁imbal
▁preoptic
▁poorly
icit
tide
▁nicardipine
▁1.09
ivation
▁spindle
▁senes
▁shaped
▁transitional
▁EPA
coding
phyloc
▁subclasses
▁monovalent
itone
aints
▁adoption
▁neoplastic
▁GPIIb
▁Vascular
frequency
tocopherol
ethylmaleimide
▁concer
▁3'
▁1.1
opramide
▁adolescent
▁ips
▁0.16
▁rostral
▁adenocarcin
dense
82
▁appraisal
▁352
▁Taken
ensitivity
surface
▁206
▁antral
▁Urine
▁spirometry
uretic
titu
▁polysaccharides
enedi
posi
▁premature
▁MLC
▁enzymatically
▁lactoferrin
▁nec
▁prostaglandins
▁semiqu
▁terminus
▁cann
▁predictor
▁BM
▁resections
atids
PTH
▁Thromb
▁polys
▁333
▁enzymes
gnetic
▁fibrous
thms
hydropyridine
IDDM
▁depolarizing
▁endos
ifferentiated
▁supr
▁muc
urys
inyl
▁anions
-21
racene
▁hospitalized
rozen
opulation
▁depr
roup
oxide
feeding
▁220
▁exhaustion
▁Inde
▁hybridoma
▁KB
-500
▁DAG
▁thiols
nisone
▁cardi
rotic
▁chl
thmias
▁146
urc
▁Holstein
▁15%.
fate
▁stimulate
▁HS
▁thorac
▁21.
hene
▁Adult
EDL
▁polypeptide
▁penile
▁successive
▁disturbance
▁Responses
grown
▁cDNAs
tingu
▁24,
ogenetic
Ly
▁heated
umarin
▁strep
▁surgery
mined
▁intermediates
▁diminution
▁.001).
30)
ylase
▁focuses
▁cytosol
▁relieved
▁relaxants
onally
▁cyclooxygenase
limb
▁67%
▁hydrolyzed
▁rho
▁titr
▁3;
▁algor
motic
▁employe
cholesterol
▁Measurement
▁(+/-
▁3.2
mig
▁isolates
▁maneu
benz
▁98%
▁0.005).
▁1000
▁inducing
▁tumors
EI
▁isos
▁CHF
14-
▁compositions
▁periv
▁infarctions
▁3.5,
ischemic
▁shedding
otypes
▁reperfusion
40-
.2
▁immunosorbent
olone
exc
wes
oporosis
obacter
▁seizure
▁feasibility
▁alcoholics
▁diastolic
▁investigations
▁PBL
idov
▁dispersed
▁carinii
▁determinant
▁estrus
▁plasminogen
▁dispro
▁dilated
▁acidic
kDa
hydroxydopamine
retest
renzepine
helial
▁antinociceptive
▁DU
▁22)
▁asthmatics
roprusside
▁neuroendocrine
stimulation
▁addi
▁antidepressants
▁90.
vaccination
▁postre
▁Resting
ranial
▁ACTH
▁PD
▁4.5
▁formaldehyde
wenty
▁occurring
ophils
▁(5.8
▁midbrain
▁ovine
▁eryt
▁hypercal
reduced
BG
▁0.08
▁cholangi
ococcus
cortisone
molar
▁surround
▁vincristine
▁choleste
brom
▁stres
▁9.8
therapy
▁preovulatory
osclerosis
targe
▁tensi
▁albuterol
▁pump
romy
▁eug
terin
▁silic
HPV
phalan
▁35,
▁arom
▁(5-
▁shrinkage
▁0.26
▁0
ixime
▁radiologic
-3)
▁proteoglycan
▁clus
▁acrome
▁bronchi
▁0.50
natally
▁0.002).
ylline
▁transients
▁ganglion
▁12.
▁guanosine
ascin
ducible
▁(1%
▁parox
▁78%
apeu
▁depression
▁2000
▁coated
cytes
▁AU
▁AFB
▁1972
galactose
rone
▁crush
▁atheros
▁vulgaris
renal
▁OB
▁polymorphic
▁quenching
▁Systolic
▁65%,
▁lymphokine
▁ultrasound
▁0.86
▁unid
▁jejunal
tural
fted
▁intima
▁cep
▁oscillatory
▁demonstration
▁pumping
activation
▁Sixty
omegal
▁cachexia
▁biochemically
▁Pseudomonas
▁valves
▁atherosclerosis
▁intranasal
▁6.7
▁PET
connec
▁Breast
▁(22
▁chromosomes
▁Skin
ticle
▁SB
▁hydroxyl
▁undere
▁45%
▁leukotriene
▁inguinal
▁atm
▁problematic
▁scars
▁ascer
▁vaccin
omyel
▁protons
▁influences
itoring
aminobutyric
▁promotes
▁0.65
▁(30%)
▁scans
▁masse
▁Simultaneous
▁84%
ustion
iceptive
▁fist
otting
ectable
▁oocyte
▁regenerated
▁infusions
dial
▁PGD
▁conflu
(0.
▁mannitol
openhagen
▁disper
lobulin
CRF
PIA
▁openings
▁swelling
▁MDA
▁renal
▁arth
arental
selective
1(
▁vagin
▁12.5%
ropine
▁infancy
▁conjugation
▁potentials
(-)-
▁deletions
▁FDA
▁(1.4
▁21,
▁displ
▁polymer
▁nm
▁expec
▁tracers
▁(2)
▁cerevisiae
▁inspiratory
ceptible
▁characterize
propanol
▁tetanus
▁expressing
▁clearance
▁Elec
▁argin
▁(80
▁immunomod
▁0.33
sis
emetic
▁plasm
▁progn
sectional
imentary
▁lor
filament
▁standardized
aired
▁adhe
BSA
▁Ventricular
▁TIA
▁aberrations
▁Recombin
▁0.69
▁implantation
▁EcoRI
▁perturbation
▁myocarditis
▁regulated
angi
anthine
▁digitonin
▁resis
tak
▁overlying
▁67
amine
▁originating
▁Sero
▁0.45
▁163
▁2%
▁angioplasty
-1.4
▁prognosis
adders
▁blot
▁hypop
▁conduction
▁10(-6)
▁CB
subunit
▁dividing
ovol
▁RI
▁subdi
▁magnesium
▁fibrob
eces
▁TA
▁allogeneic
isolated
▁acetylcholine
▁IGF
▁fores
▁suppresses
▁spermatog
▁graded
ichia
▁antic
▁seated
▁spectro
▁intracerebral
▁endopeptidase
capillary
IgA
▁pefloxacin
▁savings
velength
ffeine
55
▁tubular
+]
▁symptomatology
▁33%,
▁phosphorylated
▁anesthetics
tococcus
▁trajec
▁estrogen
▁antacids
▁ceph
-7,
alcoh
▁myometrium
▁1.7%
▁hygi
▁resul
OA
▁metr
4.1
▁pharmacologic
▁Recurrent
azin
Leu
▁euth
▁athletes
▁73%
associated
▁Modified
melan
▁haemat
▁dissociated
▁Epid
adequate
renaline
glucosaminidase
abdominal
Mu
▁0.41
▁24
▁brom
cutaneous
▁HP
echanical
▁diabetic
▁gonadotrop
opathological
▁pumps
▁traumatic
-34)
-80%
▁-40
▁standardization
loride
oplastic
▁10(8)
umic
assay
▁fetal
▁oximetry
/3
▁influx
▁nitroprusside
▁polarized
▁veratridine
▁amel
▁sleepiness
▁74
LG
▁streptokinase
▁specially
▁appropriately
▁(36
▁(11
tigu
▁mV
▁researchers
takes
abin
▁migrating
▁plasmin
▁bouts
▁Eff
▁bundles
▁(7.2
gmental
▁neurofilament
▁chewing
▁beads
▁forearm
▁squamous
▁96
▁infarct
▁biopsied
▁dye
thirds
sants
1-4
▁belie
▁1,25-(
▁polymerization
▁oxidant
▁focal
▁183
riceps
▁dl
▁aryl
▁0.31
▁isoniazid
bromo
▁RBC
▁emphyse
▁Pulse
48
▁0.025).
▁microf
▁11)
ilization
▁conspic
▁treatments
▁untrained
▁urodynamic
▁(75%)
▁57
▁1.5%
▁strongest
▁agglutination
▁transfect
▁antigenically
▁rehabilitation
▁580
▁scintigraphy
nitrosourea
▁transmural
atent
oleoyl
▁(3-
▁adoles
idym
▁Basal
LH
51
▁sucralfate
▁arteries
▁carrier
▁trapped
cultured
▁.1
inamide
hydroxybutyrate
▁receptive
▁displaced
myocardial
▁circumflex
alytic
skin
▁NaCl
▁hemodynamics
▁digestive
-13
40.
▁diagnosed
▁narrowing
platinum
ocysteine
8-
▁oocytes
▁pyram
▁abrup
rinone
omimetic
▁fibrin
▁49
▁alkaline
▁attained
▁hematocrit
▁phosphorylase
iferous
trition
▁blockade
(2+)-
▁stiff
Ti
ughter
▁soleus
▁recr
▁CPA
▁0.93
▁Surve
▁inhibition
▁fluoro
▁Addition
▁multiparous
▁(32
▁cytomegalovirus
▁promptly
▁0.05)
▁arteriolar
entesis
▁Mn
-42
▁refrac
▁ischem
▁phyto
▁chondrocytes
regulated
63
5;
oclonal
4'-
orene
▁cerebro
▁endocervical
▁stoichi
lasts
▁conformations
▁osteocalcin
▁posth
deficiency
fem
plied
ituitaries
racycl
▁restenosis
▁rabbit
ucine
▁analgesia
tised
▁schizophren
azepine
▁manganese
▁psychosocial
▁hyperglycemia
▁Parameters
▁synthesized
oblasts
▁cylind
▁retraction
▁socio
▁ADA
▁(25%)
▁hapten
▁CFC
1.0
▁lymphoma
▁autoimmune
sac
▁hepatocytes
▁calcium
▁polymorphism
▁hemisp
.3%)
60
imbr
▁55
▁prel
▁exaggerated
25,
▁(10%)
orax
▁permits
▁hyperthyroidism
amic
▁intramuscularly
▁4.4
▁opposing
▁rIFN
▁hyperglycemic
▁23,
ogl
adrenaline
sian
▁11.2
specified
ilep
▁swine
intestinal
▁antioxidants
ofluorescence
300
▁hypotension
▁recognizes
▁Treatment
▁pars
▁UVB
dys
tages
▁lactate
▁syring
▁ipr
aturated
nec
▁outgrowth
tained
▁pigment
lue
▁depleted
▁ascending
▁IVF
otrypsin
▁telephone
oconazole
▁pups
▁chromatin
▁ABR
▁purine
▁abstin
enic
▁protective
▁standardi
nucle
▁intim
otrophic
rospor
▁anaplastic
▁precedes
aterally
▁89
▁condens
ostigmine
GSH
▁derange
▁psoriasis
erations
▁sheath
▁scl
▁46
▁effectors
atases
▁IIa
▁hexose
tropine
▁implying
▁jaw
▁surgically
▁exploration
▁cellul
▁diarrhoea
iably
physiologic
▁abrog
▁validity
▁(99
▁airways
trial
ditions
ulant
-]
▁hydroph
▁programmed
▁chow
▁paradig
▁tamoxifen
▁atrophy
▁CRP
▁micromolar
▁BL
▁neuropathy
▁transplant
▁exocytosis
tig
▁PLP
▁273
▁Significantly
orphic
▁cere
enoid
▁psittac
▁correlating
▁birthweight
onazole
▁5.4%
▁(16
▁substance
▁Tn
▁Determination
▁lyse
▁confirms
▁6-
▁1.5-
▁perfor
▁ciliary
▁mucin
▁abnormalities
▁2.0
▁babies
▁PG
▁arising
▁emin
▁SPECT
▁blastoc
▁popliteal
▁4.7%
▁hydrolysis
▁monosynaptic
▁conformation
▁Prospective
▁diges
▁naive
▁BrdU
▁collic
tabol
▁immunohist
CAM
ulses
oping
▁80.
iteal
▁10(6)
Ala
▁rigorously
▁crude
▁genital
inase
▁renin
▁electrical
▁(72%)
obic
▁adjusted
elic
▁unbound
▁infertile
▁124
amination
▁stimulatory
▁substantia
▁HCC
2+]
▁([3
▁herni
▁Mast
yster
porting
respon
▁interdig
alc
1-1
▁mesoderm
▁pokeweed
oxazole
▁permanently
▁chori
▁spermatozoa
smokers
▁lamb
ronchial
▁dermal
▁glands
▁(7
▁Neph
▁promoters
ergide
lysis
▁phy
▁5.
▁remed
▁seroton
▁kits
tence
▁convul
▁Gluc
8;
▁metabolites
▁somata
▁myeloid
IgE
▁PMNL
▁12,
▁MDI
tration
▁proximity
▁capability
frontal
acement
ositive
lycero
▁suppression
▁Willebrand
▁Acet
▁euthyroid
2)
▁residues
untary
▁ventricul
▁livers
facturing
thin
isole
▁yohimbine
▁PMNs
▁suppressing
▁sunlight
▁curric
31,
▁participate
▁caffeine
▁proteolytic
PAP
▁thigh
▁0.72
▁gout
▁mep
▁projected
▁irradiated
tensin
▁facet
lyb
▁degrad
administered
▁[32
▁promising
ponin
neu
osarcoma
▁influenzae
rangement
▁junctions
▁Stimulation
▁phantom
▁microorganisms
itoneally
▁0.94
esophageal
▁neuropil
▁0.01),
▁postin
')2
▁Eighty
oprolol
sistent
▁Metabolic
consuming
▁30.
▁neurotoxicity
▁stimulation
▁Meth
▁tomographic
▁falciparum
▁flies
31
▁stimulating
▁1.06
▁parallels
▁titration
▁microbiologic
idase
▁stratum
Tx
▁deliveries
gestation
▁faecal
▁(12
openia
▁mammals
rometry
thmia
▁(25
▁epid
▁overview
▁articular
oradi
▁caudate
▁pelvic
▁hybridomas
▁PtdIns
▁kilobases
▁expenditure
▁hormonal
tional
▁0.9%
▁hospitals
▁experi
akary
-)-
▁NAD
HCl
▁complained
anadate
▁78
phyl
▁sham
infused
▁consensus
occi
▁BMD
enal
▁acclim
▁mongrel
▁oviduct
amel
▁7.8
▁61
▁hormones
95
▁mansoni
itriol
▁immature
▁diet
erant
pyrine
▁65%
▁palmitoyl
▁bowel
▁62%
4.
published
▁Rele
ecal
▁inactivating
▁pancre
▁calcification
/8
▁ricin
▁biotinylated
▁judged
▁diagnose
tub
▁mucos
▁PH
sion
▁therapeutic
▁CVD
▁tendons
▁varies
▁0.46
tist
▁paradox
2+-
▁immunoprec
▁GMP
▁transfected
▁10%
otin
▁retrogradely
▁polymy
▁cardiomy
exercise
omedial
▁microscopically
▁cancers
fibrozil
timulated
openic
▁transporters
▁pathogenetic
▁Formal
▁mmHg
▁mercury
▁regurg
tate
▁hyperlipidemia
▁lign
▁insomnia
▁levonorgestrel
▁neutralizing
protein
▁spleen
▁intensive
▁IAP
sively
▁cationic
▁sequelae
▁strengthen
menstrual
▁Kine
tructed
valence
▁strepto
▁lamin
zotocin
▁5).
ipril
▁undetectable
▁Fib
▁18%
abies
▁ovulation
diagnosis
odine
▁orific
▁sial
olich
chlo
▁2)
▁constitute
▁phenotypic
▁diurnal
▁immunocyt
▁methylation
▁1970
▁ECM
▁immune
▁actin
disciplinary
▁originated
▁incid
bly
▁metformin
apid
sparing
hicle
ventricular
▁(10(-6)
▁replacements
▁morb
▁likewise
▁meal
7.
▁bip
diameter
▁superoxide
▁emergence
rays
▁DRG
tics
MTV
ogluc
oplasmic
▁arous
retin
▁neuromuscular
▁32%
▁iris
▁ODC
▁lactic
▁paraventricular
plast
▁ophthalm
▁Extracellular
▁anes
▁unresponsive
acterial
▁5.1
yrene
▁arginine
▁hepatoma
amethyl
diagnosed
▁heifers
▁chloroplast
spin
▁18
mentation
▁kinetic
.6,
suppres
Hyp
▁bronchitis
tigo
▁DEAE
▁centrom
▁MoAb
▁immunogenic
▁IgG
▁covari
irradiated
▁subcutaneously
pired
opoly
▁polymorph
▁inflow
▁synaptosomal
▁rT
irubin
:3
▁gentamicin
▁lamina
▁0.28
▁compe
▁translocation
▁primiparous
embrane
arcomas
propranolol
olization
ofruc
▁(16%),
▁MAbs
▁PFC
▁surprisingly
▁experts
olstein
▁bioactivity
▁hypertonic
uitable
▁microliters
▁panc
▁impulse
▁melting
▁Inventory
▁Bovine
trum
osity
▁calibr
▁zym
amphetamine
9.
FSH
▁bronchial
▁82
▁OT
▁primates
▁PID
ffin
ardiac
ysto
▁amplified
itum
imid
▁pylori
▁pores
▁unrel
lamyd
▁detrimental
23
▁cerebellum
▁LR
▁phosphoryl
▁283
▁epidemiology
▁supras
17,
▁retention
▁succes
xide
-100%
▁aggregates
▁ward
itherto
▁clonal
▁erythematosus
▁repolarization
▁dextro
▁immunoglobulin
▁Simult
▁RAR
▁2.6
ohns
▁triflu
▁calibration
▁tentatively
▁brevis
+),
▁blast
▁ank
▁acetaldehyde
▁analgesic
▁occl
▁malnutrition
0%)
▁Dys
fective
▁nutrient
▁0.20
▁Progesterone
▁therapist
▁docum
▁altering
▁cycling
▁vesicular
pI
▁enzym
▁(84
▁7)
▁(80%
2+,
▁eccentric
-81
▁hemoglobin
casein
▁awa
ocaine
▁rigorous
▁prednisone
▁lysosomal
▁adap
▁encompassing
▁Leuk
▁spermidine
erence
▁fractures
50
renin
dotoxin
▁subtypes
▁kidney
▁harmful
15).
luores
▁Prol
▁motivation
aturity
RP
thood
▁diffuse
▁recordings
▁incontinence
▁mRNAs
▁accumulates
▁11%
▁149
27.
till
▁3
▁alp
▁pHi
▁oxidoreductase
▁toxins
▁triacylglycerol
▁autoantibody
▁metabolically
omatic
▁106
▁maximally
▁cations
▁Biochem
elec
▁visualized
▁cyan
▁Epidemiological
▁virions
▁dith
▁7.2
▁somatostatin
oreductase
▁arteriography
arb
PRA
▁bilaterally
▁assis
tations
aldosterone
▁acini
▁nonsurgical
sorb
▁15-
.2%
tec
▁moieties
▁compartments
▁infective
▁ARF
▁litterm
assays
▁4.0%
-17
(6
▁22%,
)2
▁weighed
▁protects
▁undes
▁(78
Rs
otypic
tability
▁linoleic
▁ammon
▁glial
BH
▁NSAIDs
▁reticul
▁excitatory
▁obstruction
▁mitochondr
▁reag
▁5.6
trast
▁sequential
100
▁Gpp
bran
▁trough
gA
▁maturity
▁epitopes
▁neutroph
Tc
▁lesioned
▁contractions
▁hindlimb
▁skull
▁0.21
▁ruminal
▁purification
▁valproate
▁denaturation
▁succe
▁VP
▁ghosts
▁92
▁exis
▁parie
0.1
▁glycos
maximal
reflex
sulfamethoxazole
▁lep
▁gaps
paren
▁concom
▁neurob
▁Percoll
▁exclusion
▁ib
daily
▁proteinuria
lox
▁inducers
mong
▁sour
▁codeine
▁8.3%
▁opi
accharide
▁hens
yloid
▁Enterobacter
▁Stroke
ectom
▁femoral
▁parac
obarb
▁Kupffer
▁structural
▁infrequently
achol
rein
▁cotransport
▁photoreceptor
▁-30
▁0.77
▁sero
▁immuno
LV
erally
roscop
▁appendic
▁Antibodies
▁HBsAg
together
▁lesser
▁crystalline
oneutral
▁-20
▁contraceptives
▁nephropathy
▁encour
▁gonadotropin
▁Factor
immune
▁sarcoma
PGF
12
▁pore
azem
▁dynorphin
▁peroxisomes
▁efficacious
▁ablation
converting
▁trabecular
▁HUV
▁frozen
▁intraepithelial
▁carotid
▁pneumococcal
▁thiazide
▁38%
▁rectum
▁RSV
entric
▁8.9
▁500
yelinated
obases
▁93%
fortable
▁Adherence
▁puber
▁musculoskeletal
▁discom
▁anoxia
▁modest
organic
▁anomalies
▁unidentified
atography
▁shifts
▁weakened
▁traum
▁psycho
▁Levels
▁48%
WBC
▁felodipine
▁certainty
▁experimentally
▁5.0
ASA
▁transfusions
▁metoclopramide
▁topoisomerase
▁gilts
▁catabolic
alanine
orectal
▁meaningful
▁Efficacy
▁alternating
▁assesses
otropy
▁gm
▁awareness
opulmonary
▁exploratory
apine
.1
▁manifestations
▁concurrently
irradi
▁attain
▁600
▁exponentially
trophic
▁1
erates
▁buds
farction
▁xylitol
▁refusal
tiguous
xia
▁exchan
ameth
▁classifications
▁stationary
▁186
ailure
▁chlo
▁herp
▁preventive
acial
▁parame
▁incubations
▁predictive
ifedipine
▁disadvantage
oblas
▁attitu
▁equilibration
▁kine
▁spike
11,
▁Successful
▁interstitium
▁surgeons
gm
▁1973
▁cytokine
▁horiz
▁34
▁potentiated
▁rhythms
blockers
▁145
ionine
2(+)-
▁stimulants
nals
▁enthal
▁expired
plemented
▁protocols
rase
▁16-
▁flexibility
mL
initi
tene
renic
▁diph
.1%)
▁glycolysis
mineral
▁prostatectomy
▁HCT
▁antidepress
5]
▁plasma
▁contras
▁Subjec
▁Hib
pirin
▁sampled
▁absorp
▁glycosylated
▁dosages
-90
▁pancreatitis
▁hydroxylase
▁polymerase
FGF
fibrate
HPLC
▁homogene
▁contraction
▁181
▁leukotrienes
▁hysterectomy
▁mmol
▁discs
odontic
▁laminar
▁syngeneic
▁neonates
flammatory
▁0.47
hydration
▁ICU
▁194
▁anatomic
▁seiz
iliar
-55
▁5.9
▁LS
▁ovaries
▁fibrinolytic
▁evidenced
versity
▁thrombin
▁6.4
otype
▁49%
▁5,
▁susceptibility
▁3.8%
▁parietal
▁indirectly
▁1:1
april
▁evaluating
▁CK
▁apoA
▁hypogonadism
▁0.40
▁RS
▁aort
trophy
▁intraven
▁enlarged
▁downward
inergic
▁morphology
▁angiotensin
▁densities
▁advances
▁remission
▁0.57
▁tubulin
ardia
aptic
ecum
▁ubiqu
▁(+)-
▁palli
▁(5
▁endocarditis
▁serosal
▁laryngeal
differentiated
▁eczema
gyl
estradiol
▁nicot
▁eluted
▁adenylyl
ribosylation
▁TT
osaminidase
▁1-5
▁aerob
phthal
▁ethidium
▁microvessel
▁123
▁habitu
mide
▁58
▁(19
▁myocytes
▁16
neumon
▁cardiopulmonary
▁parasit
▁cytotoxicity
▁feasible
▁tegmental
0)
▁attainment
iol
valine
phic
▁brainstem
onuclear
▁orifice
▁meiosis
arboxylic
▁Iso
tebral
subs
▁responding
dip
▁IIA
tally
▁scin
▁regulators
6).
▁subjective
obac
84
2.2
▁modif
phylaxis
clin
▁tropomyosin
▁progestin
▁cytoskeleton
lix
▁hippocampal
▁nasal
▁1.9%
▁concentrate
▁EST
tomas
chid
exposed
▁fourfold
▁findings
▁Wound
▁aneurysms
▁lysine
omonas
▁.05).
▁Sertoli
▁obstructive
▁modeled
▁embryonic
▁contribut
▁Cardi
▁potentiation
▁develops
.0%
▁cooper
▁ozone
isely
idation
ulent
▁tetracycline
▁synthe
▁(66
PGA
▁MCA
ologists
criptional
nour
osynthe
▁anticoag
hemolytic
▁LV
▁FSH
urane
▁complexes
helin
▁60%
▁Deletion
Bay
astrectomy
▁(58%)
▁Ade
▁accurately
▁dissec
▁beef
▁hydrocarbons
▁(0.4
▁vulnerable
▁Tran
insensitive
rowth
▁elongated
▁beliefs
▁doses
▁27%,
ogenic
▁expend
threshold
▁repertoire
▁mixtures
OV
epiandrosterone
▁immun
▁overlapped
▁hemo
aceu
▁38
▁dosage
opic
ensi
97
▁leukemia
▁homose
▁steep
▁auditory
▁staining
▁pharyngeal
▁LM
tagog
▁artifac
▁0.36
▁269
puts
▁Capsaicin
▁seminal
▁223
requ
▁epidemi
▁Eye
▁percentages
▁constric
psych
▁preexisting
▁physiotherapy
▁RU
▁minimized
▁exceeds
▁pathologic
▁appra
designated
8%
▁292
42
mono
fron
▁45-
▁perim
▁differe
▁NN
▁avoidance
▁cytos
ulline
▁Parkinson
ubation
▁ame
amagnetic
Ev
▁calf
▁neurolep
▁eliminated
▁stabilizing
▁Bacillus
▁Haemophilus
▁chemilum
opsy
ondr
thase
▁12%
NAc
lowering
▁(30
▁grades
▁sustained
▁uterus
12),
▁1.10
▁mobility
▁spectroscopy
▁Chronic
▁manifested
▁colonies
rous
concentration
idespread
▁isoenzyme
▁PAI
▁contracted
6),
▁uptake
ionized
▁pigs
▁prerequisite
arrest
▁enflurane
▁mosquit
hGH
phine
▁sumatriptan
lingual
▁280
whe
▁1.07
▁repl
erver
▁ingestion
▁viability
ceptual
DDP
▁59
▁lactation
▁coronary
▁presumed
▁collagen
lyc
odopa
▁GE
▁terat
▁departments
▁490
▁filaments
▁(39
opathies
tropic
▁Prac
presenting
▁Behavioral
iable
▁neutralization
▁malabsorption
mannose
▁Phase
▁hemopoietic
irub
athioprine
▁mening
.0
▁amo
▁seroconversion
▁concanavalin
▁inhibiting
▁Hypertension
olism
▁captopril
▁1,2-
examin
▁isoenzymes
oplasm
▁KA
igible
eration
3-4
▁10,000
▁parotid
▁possessing
pH
▁cranial
ronate
ervice
▁palate
injected
▁thio
▁3.0
▁prepro
▁immunoblotting
▁GSH
ses
▁proceeds
▁barriers
10.
▁gonorrh
▁hypothalamus
▁alteration
anavalin
▁efferent
IIb
▁-8
ipient
▁acuity
▁10,
▁Fluc
▁antimic
▁insemination
▁(4.3
otent
POA
▁peritonitis
▁phleb
TCR
alyzed
referred
▁aliqu
okinase
▁corpora
▁lytic
▁HA
▁collecting
ACTH
▁113
▁chromatographic
exposure
▁motoneurones
hemo
oyl
opecia
▁undergoes
▁oesophag
▁aureus
itro
▁syncy
ussion
▁eradication
▁Neuro
tronic
greater
parag
ordial
▁hydration
▁readings
ipine
▁heterogene
▁transporter
onephritis
albumin
▁PMA
▁roset
panze
▁0.11
tioned
▁physiologic
▁fiber
▁presenting
▁uncomplicated
thal
▁hemag
▁lifelong
▁18.
orrh
▁definitive
▁CN
pendence
▁oxytocin
edded
ensory
▁aneuploid
▁tightly
▁-0.4
orphine
▁potent
▁alginate
▁1.32
▁(1.3
▁cocul
▁ovulated
▁glycoconjug
ishman
200
68
▁surrogate
▁glycoproteins
othiocyanate
▁canc
▁5),
gus
▁35
▁crystall
▁reductase
plen
▁retinol
ystitis
▁189
osyltransferase
gulatory
entanil
▁transepithelial
hormone
▁dietary
▁71%
▁congestion
iodine
▁activators
romes
▁Intra
▁diseased
otyp
▁fluorescence
idating
▁dehydrated
▁paraffin
▁21%
▁controversial
▁folding
▁2:
11
▁citrate
▁lifestyle
▁consciousness
astases
▁hypothermia
▁tube
▁thromboxane
yly
ohyd
▁targeted
▁logar
▁thromboplastin
▁54%
athyroid
▁intermedi
idol
▁cardiomyopathy
▁myeloma
▁0.0001).
▁responsiveness
ughters
▁presum
▁OD
racheal
▁enhance
▁accent
▁Impair
▁FE
rogen
▁2.5,
hrl
▁adhered
▁exacerbations
sorption
anyl
▁pollution
▁SG
inducing
▁5%
▁DHT
sepithelial
▁summarized
00
ovir
▁hypercalc
▁6.9
restric
▁Rather
▁reductions
▁traction
▁panic
▁(1.9
▁prosthetic
▁adenoma
▁Increasing
18,
incubation
▁Except
▁myocyte
ulic
HBs
tant
glutamate
▁Immunobl
himb
▁exons
▁apoprotein
-80
-39
▁dysfunction
▁nebulizer
▁blister
▁0.24
▁hir
▁inoc
olesterole
▁0.05),
IH
▁marginal
▁linole
▁homosexual
gestion
ophosphate
ivocal
2:
▁undertaken
immuno
▁modality
▁0.7,
GH
▁(18
idine
▁thrombus
▁deform
▁oligosaccharide
trover
▁nominal
▁hydroxylation
liquid
▁nude
▁negatives
prol
gene
▁conjunctivitis
▁eradic
▁hypogonad
▁microsp
▁141
▁sulph
ELISA
-52
▁10(-11)
▁influencing
circuit
▁crust
▁Diabetic
▁activate
glucuron
▁apex
▁antib
▁fluc
▁calculi
▁postpartum
▁priming
▁vWF
tituting
anking
▁FAD
growth
▁objec
plic
▁monophasic
▁acceptor
▁21
ethyl
acetic
4/
▁antagonists
driven
blet
▁awake
▁mycoplasma
▁glu
▁substances
▁posti
▁261
thrombotic
▁116
▁accordance
planchnic
▁39%
▁genomic
▁Triton
▁amput
▁Retin
inhib
kinetic
testinal
▁RB
reotide
aline
rocal
▁alloster
rectomized
pressure
▁monensin
▁microvessels
▁(10
chicine
▁28%
▁0.83
oea
opi
▁washed
▁crosso
▁agglutinin
▁exposures
.7
▁Newly
▁antiser
tetra
▁allelic
Asn
▁dishes
▁1,
▁ole
perme
▁medications
▁regurgitation
NK
▁hCG
▁dismut
▁4,
▁reperfused
WK
53
▁6.5%
▁7,
oprost
▁vacu
▁tetanic
ynthe
▁applicability
▁azide
▁attenu
elvic
▁Criteria
▁microscopy
▁Phy
▁latent
aise
PBMC
▁requi
▁measles
cytotoxic
toxicity
uebec
ventilation
fasting
▁quantitative
▁toxic
ymethyl
fibrin
ichlo
▁transit
▁dipyridamole
▁DNP
▁sphingomyelin
▁Gastric
tency
▁acinar
▁560
atients
▁ionized
▁RNA
▁18-
▁pituitary
▁ventricles
▁nitrogen
Ia
▁(73
ugular
▁Intr
DTPA
▁resonances
▁caution
▁anae
threatening
▁perioperative
upus
▁declined
▁donors
opathologic
150
operox
directed
▁stere
▁facilitated
toriness
venous
eptide
ypass
▁PLA
▁rotavirus
butamol
inely
▁palp
▁endoscop
ferrin
▁attenuated
▁aggressive
▁nicotine
Rb
▁platelet
ealand
otrip
▁Chrom
avir
▁TF
-20%
▁Krebs
▁mucous
2]
schem
▁brach
▁nonc
10),
▁anore
▁decel
▁anomalous
▁proliferated
▁obliter
▁Gynec
▁meiotic
▁hemorrh
▁mature
▁infrequent
▁transplants
pendicular
tilbene
▁progressive
▁laser
▁lesions
ologous
▁endometr
78
▁enrich
▁amide
▁microgra
▁24.7
▁phosphor
meg
▁43,
▁Pregn
▁alloantigen
antibodies
▁confirmatory
▁dispersion
▁slides
▁Magnetic
▁recommendations
▁surf
▁pneumonitis
▁contradictory
CRP
0%),
▁Inhib
▁pyridoxal
ophore
▁levodopa
isoxazole
▁exag
▁salbutamol
▁pyloric
oalveolar
▁cervix
▁rodent
▁sedentary
▁84
ocated
▁nitrendipine
Gly
yto
cein
conduc
▁12.0
semin
▁microfilaments
▁(89
graphy
▁polyacrylamide
▁ethn
▁309
▁endothelium
▁pyr
ALT
▁228
▁Computed
▁expiratory
detection
▁LTR
teroids
amidine
▁papain
▁lability
▁82%,
▁114
▁superv
▁precipitation
▁autoreg
▁acin
onstric
▁25
MHC
eight
ollen
▁preserving
▁cyclase
▁osteoclasts
criptions
trip
▁lysozyme
▁unsuccessful
▁tes
▁Included
keleton
▁excluded
▁bismuth
atchard
▁diz
▁determines
olus
+)-
ceramide
▁evaluable
▁seeded
▁insufficiency
▁83
▁cros
▁99
osage
▁4.8
▁1%.
Ni
piration
▁40.
▁pneumoniae
diss
▁conges
IFN
▁(6-
▁Prolonged
▁lacking
tyl
▁artic
▁0.04
▁steers
RNP
opes
▁4.2
▁4%
▁DHA
▁anaemia
▁Afric
▁10(7)
angerhans
▁sensitivities
allium
titial
▁52
▁(79
▁steroidogenic
▁depressor
LISA
▁benzoyl
▁1975
▁Indomethacin
netium
▁endpoints
▁AI
evoked
▁stain
▁cobal
▁302
tyline
▁epilepsy
▁angiograms
▁kainate
▁escalating
▁stimulated
terminal
▁109
▁malaise
atid
▁conductances
▁nondiabetic
▁Maternal
▁utilized
viruses
▁programmes
▁disulfide
30-
▁collagenase
DNP
▁presentations
otone
▁embolism
▁valerate
▁myristate
▁0.02).
entanyl
▁codons
▁absorb
74
▁preliminary
▁sedim
isopropyl
▁debr
▁EAE
deriv
▁overt
▁weakness
▁40-
▁20
▁CCK
▁phe
▁chronic
▁favors
▁induces
▁AML
20
▁Tox
generating
tries
▁abruptly
▁297
▁1.45
▁10).
oagulation
lational
▁spindles
risk
otopic
▁(1987)
▁absorptiometry
▁(75
▁0.43
.5,
▁41.5
▁0.05);
ulates
kling
▁submuc
▁destro
▁hemodialysis
▁NB
▁exceeding
▁pulse
▁cytokines
enyl
-31
itching
▁substrate
▁sensitization
▁emphasized
phadex
▁(198
-22
▁phenol
▁precipit
9%)
rief
ispanics
.5.
▁consultant
▁sensory
▁physiologically
▁resection
▁unwanted
▁bradycardia
▁amino
▁pector
▁chambers
▁augmented
tenosis
▁perikary
▁isozyme
nutrition
▁mong
.3,
▁degenerating
▁acco
lobin
▁tubes
▁microscop
▁bending
▁60.
▁incubation
rection
▁eosinophil
perg
robenz
▁disloc
▁tear
▁vitro
▁11.5
▁hyperbil
NH
edle
horm
orated
▁21-
▁Interleukin
▁osteoblast
▁buffering
onine
stranded
CSF
ganglionic
▁nonsur
ubicin
infection
▁pati
▁hypercapnia
▁bic
▁nervous
▁Subsequent
▁ammonia
▁artery
▁66%
▁plasmal
▁1.25
iasis
oride
▁compensated
ircular
▁assays
▁hypo
▁escal
▁isoform
▁disulf
▁disposable
ulum
▁discharged
▁perception
▁lesion
▁autonomic
▁toge
tectable
▁axon
▁heterogeneous
▁abolish
osin
PAF
HIAA
▁tryp
▁squirrel
▁predominated
▁olig
geneic
▁VO
755
▁diame
▁cirrhotic
acids
fluores
▁phi
aspartate
▁nausea
▁suppos
pharyngeal
▁psoriatic
rolog
▁enzymatic
▁autocrine
adminis
▁characteris
lli
antigen
▁sterile
▁abscesses
iotensin
▁enteric
▁microtubules
▁homolog
▁53
lycemic
▁cohort
orough
enan
ophylline
▁cloning
▁formulation
opha
▁replication
inducer
▁Topical
induc
ocytotic
▁Tests
▁superimposed
Hu
▁Macropha
▁shar
▁fibro
▁disabling
▁macromolecules
▁Decreases
olipids
omyces
IgM
onium
orbid
▁embry
▁penetrating
▁intest
▁pituitaries
▁ket
▁resin
▁physicians
▁immunoblots
rosomal
weigh
▁fluorescent
guanosine
▁biod
▁retinas
yridine
▁augmenting
▁posttreatment
▁voluntary
▁32%,
▁appetite
uvate
yrate
dihydropyridine
▁ketanserin
cessively
▁predominance
▁pericardial
▁cysteine
▁saline
▁cholinesterase
▁urtic
▁varic
▁1),
▁synerg
▁(125
▁disturbed
osoma
oglobulin
▁immunoreactive
▁Vmax
monitoring
hop
▁nights
▁localization
▁mtDNA
▁spas
▁consequently
diabetic
▁preincubation
▁FL
▁resonance
▁lymphadenopathy
▁resour
monary
inj
▁intractable
▁quail
odium
cetin
ophag
▁tric
▁139
lamp
▁Cycl
ocortex
9).
ortic
▁(10%
▁0.34
stin
▁cryptorchidism
▁muM
▁Tumor
tors
▁placent
▁comparative
amn
▁cadmium
tolerance
▁flavin
lomethasone
aortic
▁cervical
arbonate
▁(24
▁transcriptional
▁regar
▁vertebral
ROS
▁venti
5),
▁Respon
ocrine
▁68
yrib
▁collagens
DNA
ithelial
▁flaps
▁dox
atell
▁junction
▁0.001).
herent
▁11.6
-8)
glomerular
troduction
▁substitu
ept
uestionnaire
▁Caucas
▁atelectasis
chol
▁TP
▁erythrocyte
immunized
ximum
iffusion
oxal
▁(10%),
umbers
tality
▁bronchodilator
orphyrin
▁lactating
▁internalization
▁leukocyte
▁1987
opathic
econd
▁condensed
▁ACI
▁isop
▁respiratory
▁catheterization
▁paracrine
esicular
diagn
methyl
inemia
reated
ithromycin
▁ERP
▁determinations
▁2.8
▁hematuria
▁LTC
▁1990.
▁diarr
▁epitope
▁quisqu
biotin
▁laminae
89
▁calorimetry
othelial
mokers
osylation
▁milder
tillation
▁Patient
▁perpendicular
▁31%
▁bactere
▁trauma
▁ventrolateral
buride
▁rhinovirus
▁duplic
▁hydrocephalus
osan
maleimide
obenz
▁gains
▁177
▁disorder
▁DD
▁ionophore
▁arachid
▁cytotoxic
▁Purkinje
▁microp
▁intrathecal
▁serogroup
▁ocular
▁randomised
▁adhere
50)
▁Measurements
▁microM
▁accumulate
udine
stem
▁irrig
▁ADR
▁arabin
▁serum
tokinase
▁luminal
▁resuscitation
apeptide
▁33
▁discon
▁cine
▁pregnancy
▁ALP
▁remo
▁deem
▁concep
▁sonic
uscular
anis
obarbital
-3,
▁sterol
▁bradykinin
▁fractionated
▁weakly
▁AH
▁bypass
▁ovariectomized
▁BLM
aerobic
ylcholinesterase
▁Oc
▁occlusal
▁exposing
▁toxicity
▁7.2,
▁immunobl
-2+
ocaps
▁subpopulation
othiaz
▁hypox
▁69
▁splenectomy
▁emptying
amphen
▁chromophore
▁RNase
▁alters
▁fecal
▁2,
▁Available
▁purified
▁TCDD
▁VT
leural
▁estimating
trically
▁transforming
▁genotoxic
▁postprandial
▁suppressor
▁Concomitant
▁epoxide
▁dismutase
▁dementia
▁Individuals
▁adenoid
conver
othyronine
▁physostigmine
▁arsen
▁fuc
▁punct
glutin
▁inflamed
▁genotype
▁carcinogenicity
ropo
arbox
▁aluminum
Ins
DPAT
▁distension
▁synthetase
-99
▁Klebsiella
▁oxygenated
▁0.9
erine
aryl
▁radiolab
▁afterload
▁2.8%
▁seasonal
▁surviving
23187,
▁optimizing
ylchol
obal
▁obstructions
ximide
▁WR
▁infiltrates
▁apolipoproteins
▁neuropeptides
irone
▁0.4%
▁herpes
▁polyaden
▁aspart
TSH
ginine
▁cimetidine
uride
▁tomography
▁PGI
▁cycloheximide
iterranean
▁enalapril
echan
▁remarkably
▁atropine
ratic
▁catechol
▁proviral
▁Pros
GRF
▁cues
▁Notably
1/
▁0.5-
▁naproxen
alues
▁draining
▁minimize
▁reticulum
▁(46
unately
▁relied
LAD
.4%
anazol
▁exceptionally
ithm
▁Sephadex
olab
SMR
▁cytochemical
▁elec
hydramine
▁70-
olarization
▁doubling
keweed
▁deficient
▁inward
▁supernatants
tivity
▁Cases
▁vitronectin
▁bicuculline
zot
▁dissected
▁molecular
▁MCF
▁[125
▁hematological
▁adhesions
ormone
▁echocardi
gated
▁spherical
▁lipolysis
approximately
ecretory
▁RF
toma
▁exchanges
▁undergone
▁hypertensive
▁adjusting
rolateral
▁350
▁kd
▁extrinsic
patients
tested
ocarcinoma
71
▁xanthine
NMR
▁theophylline
otomy
dihydroxy
▁axial
▁Torr
flic
▁analyse
▁disintegr
▁emphasize
▁1.26
3-
,3
1/2
inhibition
cele
tile
▁modulation
▁pregn
▁bacitracin
unting
▁1988,
olymer
▁pem
▁microcirc
▁micrometer
▁7
▁1%
▁nonrandomized
▁tetrac
▁neutrop
▁aeruginosa
▁tibia
ystectomy
bile
attern
▁myrist
▁9
▁0.84
▁discontinued
▁eighth
▁(150
IgG
minal
enolone
▁endotracheal
▁poten
▁dimeric
▁fixation
▁SMR
▁carries
floxacin
ressive
▁Pharmac
▁homod
▁phosphoc
▁endocytosis
▁bone
aminophen
plo
ACh
/+
olipin
▁effec
▁haemolytic
▁radioiod
▁leukopenia
tential
dibular
▁Cai
ralazine
▁propensity
cinolone
▁gonorrhea
▁Replacement
▁psittaci
Mg
▁Dental
NV
▁donor
▁(0.9
▁septum
eck
▁1.15
▁14.
▁0.48
▁calorie
nosis
▁signaling
methylene
▁bladder
▁sinusitis
▁vasodil
▁inters
▁carcass
chest
▁GAD
ophys
UA
▁41%
aminergic
cryst
▁superfused
▁amygdala
▁inert
▁injec
▁300-
▁haplotype
6;
▁Dop
▁24%,
▁ison
8)
induced
esin
▁vaccination
▁urticaria
▁retarded
OHDA
▁unconjugated
▁glycine
▁acetylated
▁neurones
▁ischemia
▁stimulus
unar
▁organisms
▁fold
▁suscepti
▁recur
▁guan
thym
ulence
urations
-4.
▁mildly
rati
ercul
-60%
▁wors
▁exudate
▁(56
▁mIU
imentin
▁recruited
▁16.
▁hypocal
33
▁(8%)
7,000
uated
trative
▁rehabil
▁histology
▁WHO
rophenol
WL
▁addressing
▁choline
▁Effec
eclamp
tria
▁118
▁efficacy
▁Ech
helical
▁chorionic
▁ulcers
▁directional
pirone
chlorothiazide
▁dna
trical
▁326
ropriately
▁suprac
▁100%
▁morphological
BMD
▁68,
AUC
lysin
▁90%.
ustif
▁Diabe
▁rost
▁Antic
apamil
▁systematic
odialysis
ygen
trous
▁AO
▁schistosom
▁TK
▁substratum
kage
▁thromboses
▁perinatal
▁bivariate
ymptomatic
▁colonoscopy
regn
▁tumor
▁polymorphisms
turb
▁ramipril
65
▁Combining
rehen
▁interfer
1;
▁SAP
4;
divid
▁impregn
▁radiolabelled
trodotoxin
▁wee
iatric
sorbed
ustained
lasting
▁valvuloplasty
▁focusing
▁cholest
▁backgrounds
▁Pain
▁radiographs
oprosthe
▁termination
▁siblings
▁ionization
▁Isc
▁quartile
▁aneurys
▁persists
▁genes
▁relaxed
▁incontin
▁rods
▁palm
▁cats
▁197
producing
▁protr
▁workload
▁110
▁54
▁Ethanol
▁indus
heric
ibenz
loro
oxif
▁lasted
36
▁pyel
▁187
brile
▁3000
▁unbiased
▁glycosylation
▁Surprisingly
▁2',
ygosity
▁rifampin
athered
ayers
▁meth
bility
ufficient
▁thereafter
▁nitroglycerin
▁excre
olecular
▁quantif
zation
▁40
▁degraded
▁dissimilar
uodenal
▁amiodarone
▁scanning
tial
▁amylase
idovudine
▁viruses
itance
trained
5-
▁immunocompetent
ziness
▁Pneum
▁regimens
▁progest
tomycin
partum
▁assessment
▁0.001;
85
nitros
▁1990,
▁effector
▁tolerance
▁benzyl
▁debris
▁(28%)
▁workplace
▁ATPase
▁pA
istar
▁virulent
▁chloroquine
ymme
▁esophageal
▁Biophys
phied
phosphon
▁Specificity
▁epithelia
▁TGF
arean
▁293
▁VL
▁0.001
▁AFP
▁ingested
▁interphase
▁1.19
▁reorganization
▁192
ogenin
▁HPV
▁paired
mortem
▁Pretreatment
2%
▁6.0
▁UDP
nitroso
▁0.02),
▁hyperp
▁eating
achloro
roscopic
▁titrated
▁stenting
▁hemodynamic
▁schem
▁Sexual
rogenic
▁Tryp
mitted
▁Weight
▁aggregation
▁analyzed
▁pharyngitis
▁-3
odalton
opropyl
ruc
▁testes
▁analgesics
▁NEM
▁comparisons
essment
▁confounding
▁RNAs
PMA
▁responders
▁flexion
-12
▁rt
▁trisomy
▁cytolysis
ammon
aginal
▁conjugates
saccharide
▁107
moking
▁impaired
▁curvature
▁bronchoscopy
overed
▁endonuclease
▁tubercle
25).
▁labeled
▁cyclospor
▁anesthetic
calorie
▁metall
▁Gd
▁microgram
▁peroxisomal
▁tow
tigmine
▁smoked
▁questionnai
▁diabetes
ochemically
ocysts
deficient
pretation
▁synthesis
▁bloc
▁rhod
▁femur
CEA
▁adren
▁decisions
▁Physicians
okine
▁spectroscopic
▁hepatocyte
oproliferative
acetyl
▁transplantation
ocar
-1.8
▁experim
▁Caucasian
3)
▁noradrenaline
▁reiter
▁Tc
▁immunologic
▁nephron
▁fractions
▁proteinase
▁Entero
MuLV
▁cascade
rometric
enediamine
▁nodules
▁anesthesia
24)
▁126
▁injections
▁midw
▁PSA
▁pant
tium
▁MG
anad
▁enzymic
ometrial
siological
ardized
▁0.06
▁nonresponders
▁capsaicin
▁quantitate
▁penicillin
▁fibres
pyr
▁deletion
▁neurotrans
▁ferric
▁229
oviruses
▁sulfonyl
▁sonography
ardias
4)
▁silicone
hap
▁collab
▁0.27
▁medial
▁1.0,
▁parental
nine
angiotensin
"-
thiazide
oAbs
▁17.
▁Fourteen
PHA
otoxicity
▁transcript
▁pyridine
▁novo
▁2.3%
▁osteopenia
▁hepatic
-26
▁cleaved
▁Clinical
CABG
▁133
indolol
▁BMI
4+
▁chromaffin
oximone
itin
▁enthalpy
▁Registry
▁quaternary
▁casein
galactosidase
▁antich
▁buccal
▁(1
▁oss
▁mum
iatum
▁dinucleotide
▁(7.4
tetraacetic
▁reas
▁mosaic
temporal
▁fungus
legia
apse
▁6.1
carbohydrate
▁malignant
-18
▁chec
▁orientations
▁26.5
,000)
ervations
-1).
▁heme
▁specimens
parathyroidism
romethyl
osterol
▁wt
incubated
▁explants
▁remod
▁Asn
▁100-
▁hypertrophied
▁absorbed
▁BF
sulfur
▁Enh
▁(5.3
ovastatin
▁hypers
bic
▁similarities
pir
▁carcinoma
▁competing
▁60%.
phoresis
posal
atellite
roxen
gued
50).
▁acqui
▁hyal
▁unc
osamine
lated
TN
▁cataly
▁histi
ocyst
heres
▁direc
▁weaning
SSG
▁activator
▁Biol
▁239
▁coar
0.7
ocul
▁elic
▁nef
▁marginally
omies
etan
oronary
yroid
▁gp
-29
▁2,4-
cardi
ervated
▁miscar
▁208
amate
▁adjus
▁tris
▁PAH
inatal
butyrate
▁0.7%
kground
▁pyruvate
▁messenger
▁peroxis
▁Rif
▁immunostaining
▁PI
▁reproduc
▁intercostal
▁unfractionated
▁DS
tissue
▁3.6
▁renovascular
rological
lysine
▁resultant
▁LT
dii
▁Together
▁endarte
▁1.24
uminal
graftment
▁8.
illin
nRH
calor
rophob
▁inconsistent
cale
kers
coal
▁200,
rectomy
▁myel
▁diameters
▁relaxing
ditional
▁cornea
▁plex
/24
▁diagnosing
▁imipramine
▁(5%
restricted
▁intrapartum
▁NG
-88
▁contrasted
trates
▁amoxicillin
▁bronch
dipine
parous
9]
operative
▁Selective
▁transmitted
▁asthmatic
▁900
▁derangement
▁baroreflex
▁chylomic
inomycin
tism
▁557
Nor
▁gliomas
ilibrium
▁ald
▁possi
▁transitions
▁cisplatin
▁protecting
-2/
▁Pn
▁calories
▁implic
▁punch
▁105
▁(0.2
▁compound
▁Obs
▁idiopathic
translational
▁colloidal
earing
▁theore
▁fluxes
▁parasitic
-67
▁twin
▁throm
▁constr
▁pep
▁lapa
▁feather
▁Injections
quir
▁Hear
amol
▁dosing
-3.5
alciparum
▁neurotoxin
▁8,
▁neurologic
▁phentolamine
▁classified
agonists
organism
▁trophob
/10(6)
▁stellate
▁28)
▁serous
▁crossover
▁lymphoblastoid
▁emerg
▁cortical
mol
-3.0
established
▁DBA
▁vulg
▁cerevis
▁hypothermic
ocorticoid
oconstric
afe
vix
00)
▁paral
availability
▁obese
cemic
▁cessation
▁adducts
▁quantal
▁trache
rals
▁HF
▁SPF
▁200
volving
▁13.
▁electromy
▁perfusion
▁positives
yltransferase
▁reapp
oxyn
olute
▁dams
▁glutaraldehyde
▁retard
▁dysplasia
gain
▁TG
3).
▁23%
iline
▁condensation
▁fulmin
▁micron
insoluble
▁altered
▁nifedipine
onical
-37
permissive
relaxation
▁6%)
▁confounders
▁perceived
lastic
▁activating
▁MLR
▁22-
▁Subst
▁flattened
▁incorporate
reasts
▁vestibular
philis
▁Cys
xate
▁transpos
▁SDS
romal
▁HepG
▁1.05
▁227
▁streptococcus
▁phage
▁overestimated
▁microenviron
▁Glyc
▁CPB
▁175
▁denat
▁computerized
▁0.1%
▁oint
vivors
adren
93
ortical
▁pheochrom
▁repeats
▁recanal
hepatitis
▁affects
▁catalyzed
avirus
▁abdomen
▁11.
▁ranging
▁painful
▁sialic
▁intercellular
pyrene
iprofloxacin
▁hypos
▁adenosine
▁AK
hemoglobin
acts
3/
▁bile
ochondrial
-49
▁MPTP
▁arcuate
▁investigated
magglutinin
ostatic
▁micros
▁1.2-
phosph
3),
ocor
containing
▁1986.
▁continuing
otri
▁CoA
▁260
▁thalamic
▁relaxations
incub
atechol
▁cystic
▁etretin
▁swim
▁urchin
▁pentoxifylline
▁0.71
-24
▁genotypes
▁alkali
sych
▁dialysis
▁biliary
▁Staphyloc
▁paralleled
▁hospitalization
weighted
▁epidemiological
▁outs
struc
▁(200
▁Isolated
▁gastrocnemius
peritoneal
▁splen
▁clind
▁antid
oventricular
keratin
▁ependym
loidal
▁maxima
indol
-5-
▁proliferate
atized
▁cofactor
▁HSV
▁grain
bumin
oprim
▁tendency
▁dib
Ci
▁ICa
▁16,
▁pyro
▁deficiencies
▁Antibody
▁cotinine
▁reveals
omized
ipital
▁Contr
alas
:4
▁Streptococcus
▁Consid
needle
▁localize
ipolar
▁torque
▁6,
▁lithotrip
▁bronchoconstric
▁manipulation
▁allevi
▁facial
▁divalent
▁stained
▁behaviors
▁(1)
▁nurse
▁swabs
fluorouracil
▁notic
flamm
▁residue
▁injur
average
▁414
▁perfused
▁outpatient
▁oval
-10
▁melatonin
vate
▁kinin
PSPs
▁Effic
fraction
▁3',5'-
▁vaccinated
vian
▁0.78
▁257
▁benzodiaz
▁25%
▁wedge
▁enti
▁276
▁incorporated
2318
▁putamen
rostened
individual
▁nmol
perfusion
▁targeting
tably
ocortical
▁225
▁elevations
▁CU
▁(400
astatic
▁spastic
ritical
▁immunore
▁pancreas
idazole
competitive
atite
▁trunk
sensitivity
otomized
▁255
▁fluorescein
▁restr
cellent
▁mutation
▁trimeth
▁ARDS
ejection
▁platinum
metic
iloride
▁irrigation
▁Fifty
▁phenomenon
osteroid
▁survivors
▁negligible
▁digesti
▁characterised
▁stenotic
▁monthly
▁orthoped
▁epsilon
▁1.2,
-(1
▁effusion
xin
ocks
-201
thema
ectomies
70)
▁5.3
▁cholesterol
▁dilation
▁mutagenic
▁consequent
▁lipolytic
▁chorion
▁benz
▁(23
▁unstable
▁steroid
▁newborns
itively
.9
▁ANF
▁PaO
lived
ophasic
razepam
esthetic
olesterolemic
▁4.3
toc
▁subfractions
▁obstruc
operidol
▁antiv
BMI
▁Immediately
▁discontinu
▁melanocytes
▁carboxy
▁antiestrogen
alazine
.0)
▁26
▁drank
▁151
▁strom
CCK
▁holoenzyme
strand
▁hernias
dP
▁endot
antitative
heavy
▁(3%)
:30
posable
GlcNAc
opressin
▁10(9)
▁myotubes
▁LF
▁obstetric
opathology
anded
▁pollen
▁spikes
positives
01
-14
▁topo
▁vecuronium
▁neuropathic
▁lactobacilli
▁11,
▁sinusoidal
▁muscarinic
▁tones
▁GFR
▁284
▁biologic
uris
▁(1000
▁levamisole
oling
▁routinely
▁prescriptions
▁desmin
▁leukemic
antoin
tized
▁tracheal
▁arachidonate
omically
-38
Ba
▁Numerous
▁concomitantly
vein
▁asial
fected
▁appendix
acet
▁causation
Ep
▁natriuretic
olet
▁exerts
PMN
secondary
neph
▁activated
▁harves
endazole
▁diuretic
0).
▁randomization
▁NI
▁differentiating
▁fitness
carb
▁Whole
▁recessive
bino
▁exudative
▁teratogenicity
yanodine
▁5.7%
isteria
▁185
▁identifying
▁identifies
oplas
▁Alpha
▁seizures
38
▁pharmacological
▁topography
ORF
▁(8-
▁sarcoid
▁desipramine
▁Rating
▁stretching
ausea
▁fermentation
▁rectal
▁elong
▁contradic
initiated
plastic
▁colleagues
▁maintaining
opharynx
tic
1,
▁hypoventilation
▁ischemic
uresis
▁fluoroquin
genital
▁cellular
▁abolished
cemia
▁mellitus
▁nM
▁Lys
▁iodide
reduction
▁durable
gth
(1)
▁blots
▁infants
mental
gut
▁amyl
▁urethane
▁lutea
▁autoradi
▁contaminated
▁abbreviated
▁HBs
70
pli
▁distress
▁premise
▁systematically
▁geographic
▁critically
rosy
▁chances
▁Purified
▁lacto
esthe
▁chronotropic
▁BamHI
▁Trypan
▁buspirone
▁Whereas
▁1987.
▁8.8
▁longitudinal
phosphor
▁Statistical
▁abundance
▁potentiate
thma
▁decade
▁regulation
-10(
▁kinase
▁centrifug
▁qualitative
▁contrac
(2
uronic
orrheic
▁diazepam
▁diverged
▁repetitive
▁intramolecular
illation
▁quantitatively
▁lipase
▁lipid
ANF
ygote
▁eicos
▁hypog
▁supplemented
▁36%
▁FN
▁allergenic
▁constructs
▁6.3
ovine
▁insertion
▁poin
tually
▁(41%)
▁carvedilol
▁suppres
uccess
▁1.6
▁52%
▁ADCC
▁intrauterine
▁Viral
▁antisense
imidazole
2),
▁Hispanic
▁phosphatidyl
relations
GMP
▁274
▁selective
▁electrolyte
1.
ucrose
▁LFA
▁baseline
▁Tg
iplinary
▁sutures
▁Serum
▁Prevention
▁lateral
▁resorption
▁skeletal
▁fibrillary
▁volunteers
iliated
▁decreasing
▁trend
▁methotrexate
aminobenz
▁PAS
▁plas
▁Lymph
expressed
▁chord
▁islets
▁etiologies
inating
opia
▁237
occal
obarbitone
▁utilizing
▁hydrophob
▁diphosphate
NSAID
▁1-
▁1990
▁inotropic
sA
▁rhodopsin
▁GI
renolol
▁aetiology
▁parathyroid
chlorophenyl
▁blocker
▁reflects
▁epic
algia
▁ultraviolet
▁damaging
▁kallikrein
eliac
▁binocular
TG
▁caloric
▁candidiasis
▁(2%)
ipit
▁beverages
▁thymocyte
▁probing
▁risks
▁peptidase
▁eIF
▁asymmetric
▁depended
tiveness
unsaturated
▁biopsies
glycoprotein
▁isomers
▁ligated
▁tritiated
▁0.04).
blood
▁presumably
▁rabbits
amycin
azole
▁avoiding
▁consis
▁vesic
▁polyamine
▁ADP
▁EBNA
[3
-8-
▁DSM
▁phosphorib
▁clotting
▁contour
MN
ogranin
▁4.6
▁polarity
▁PDGF
▁aeti
52
105
▁pregnancies
crib
▁adenomas
▁referrals
rosal
▁clones
nish
genic
:1
▁survival
▁epidermis
▁164
▁0.32
uncture
▁deemed
▁shortening
▁Concentr
0%).
▁swimming
▁bac
▁descending
▁dermis
▁Mini
▁76
▁(8%
uracil
▁intercourse
pig
aryotic
▁balloon
▁(1990)
▁cage
▁tonic
accep
▁urethral
▁GAL
▁1964
60)
▁hydrox
▁8),
+/
▁Measure
▁microU
▁hairs
3%)
HV
-10.
▁nore
▁molars
admium
agarose
▁1.08
▁fibroblast
▁retinopathy
▁premenstrual
▁10(5)
▁Alz
▁lymphocytes
▁transmitter
▁refined
▁56%
▁colliculus
linked
▁83%
▁aberrant
▁duodenal
opyr
umented
▁scattering
lyte
▁urethritis
▁800
▁27%
▁Extensive
▁friction
▁0.5).
▁Female
▁blinded
arone
ogenesis
-198
▁REM
lactam
▁carbohydrate
atrial
▁utilization
▁cistern
▁psychomotor
▁HSP
▁AChR
keto
▁Sleep
▁saphen
▁peripheral
▁bp
▁obtaining
sulph
▁manu
DOPA
▁amyloid
oresis
glutinin
Pen
▁Histologically
▁mesothel
yses
▁entorhinal
▁transposon
disc
▁minority
▁188
▁17,
▁endobronchial
erebro
▁superficial
jac
▁chamb
▁prazosin
▁cereb
▁transcription
▁CABG
▁excit
▁PF
▁adenine
▁hypoch
▁(-0.
▁43
uginosa
▁23390
▁endoc
▁epiderm
▁enlargement
odiaz
cB
osensory
▁derm
▁wean
▁coping
VL
culture
iability
odermal
▁catalyze
▁bicarbonate
▁oligodend
▁nitric
▁dystrophic
oplastin
osylated
▁Hep
▁hepatotoxicity
▁PRL
▁Rats
▁PRP
▁eti
▁4.9%
▁8.6
epti
▁sarcomere
▁GPI
toxic
1%
osterone
▁Randomized
▁assessments
phs
▁purity
▁1,000
▁PCA
▁75%
▁Compared
tructions
0.4
ocomial
gesterone
▁methoxamine
HbA
▁neuroleptic
▁permeation
lodipine
fetoprotein
methylxanthine
promazine
anesthetized
ulsive
▁42,
▁gland
▁isozymes
▁reentr
olerance
000.
▁.5
▁umbilical
▁nasopharynx
▁flas
▁9)
▁diversity
▁2
iperone
▁balanced
▁resemb
▁(37
flanking
▁cerebral
▁providers
▁attitudes
▁catheter
▁PU
▁phospholipase
roline
▁degradation
death
▁amphetamine
▁1985,
▁ovary
▁athle
▁condyl
▁upstream
▁coordination
tual
▁intragastric
▁Invent
roxim
▁analogous
▁hyperthermia
/6
▁structurally
▁onc
▁neoplasia
▁prolapse
▁antithrombin
▁neomycin
▁unaltered
▁oestradiol
iliary
tants
▁quinidine
▁bony
▁Increases
▁(1.1
▁otitis
etent
nthe
▁11.8
osacral
▁crani
▁neurite
lining
odiazepine
▁cGMP
▁Continuous
opathy
▁minimally
12-
20.
50,
omorphine
quinone
arterial
▁tach
▁microbial
▁MHC
▁doubled
▁subpopulations
osum
▁(10(-8)
.8
ypro
▁noxious
maximum
▁moiety
subunits
versus
▁12
▁widespread
▁immunoassay
-35
paired
▁diagnosis
▁1985
▁subcl
uthenium
▁Recent
▁Trich
▁covalently
vated
▁disappearance
▁resides
ivac
▁sulfonylurea
venth
▁intervention
▁Evid
ternational
▁particulate
▁(52
-6.
reast
▁aspirin
▁glomerular
▁overnight
▁sebaceous
▁11
atab
ocompatibility
tilis
▁2-4
0.2
▁clon
lamy
silon
▁amiloride
▁allergen
▁BT
sies
▁metatarsal
avoid
▁ethanol
▁wavelength
▁rhythmic
▁comprise
▁Determin
▁pollu
▁tonsillar
methoxy
▁pentagastrin
▁adrenocortical
▁leucocyte
▁hydrocortisone
idinium
dehyd
▁77%,
▁electrostatic
▁dihydrofolate
▁therapists
▁hydroxyproline
▁25%.
▁Rapid
▁renders
▁benzodiazepines
grams
▁caudal
▁11-
7%)
▁DG
▁metered
▁4.3%
▁39,
110
▁discus
colem
▁infections
▁cutoff
▁lith
▁tape
urin
tum
▁eosin
trimental
▁Mutations
▁Hg
▁9.6
mercaptoethanol
aneth
-450
▁BSA
▁plantar
▁surrog
▁0.2-
▁itraconazole
botic
mobil
▁mug
▁14,
▁-2
haem
hemat
▁myotub
tetric
▁BRL
▁linearly
/32
▁desaturation
▁DBP
▁responsive
▁AVP
atching
▁anastomoses
acer
oblastoid
▁transfused
plantation
▁disadvan
▁exud
(5
▁natriuresis
ostic
aceous
DV
▁Testing
▁EBV
▁impairs
▁leu
aryn
▁neutrophils
attered
▁neo
triglycerid
▁CSA
▁intracellularly
troph
▁clonidine
amino
▁fetuses
▁laboratory
fatal
▁0.18
▁granules
aem
▁7.7%
▁adrenals
▁instillation
▁uridine
▁Dise
ethoxy
▁neocortex
etidine
▁NTS
▁respondents
▁attenuating
▁semen
▁resembles
▁anteced
▁simultaneous
▁oriented
▁enriched
romyces
▁phagocytes
▁chemicals
▁syphilis
contraction
▁acr
▁aortic
▁degran
▁GABAA
tral
▁ongoing
5%,
VV
▁retrie
▁acutely
▁ae
mia
▁hypothyroidism
▁breakdown
ubilized
ateral
epithelial
▁hyponatremia
▁Subjective
▁primate
neutral
▁evoked
apride
▁defecation
-65
▁Morph
▁biom
▁Rabbit
▁lidocaine
▁0.01).
▁teratogenic
▁28.
benzo
oxim
umbens
piride
timate
igaret
▁uniquely
▁RSA
▁hyperther
▁juven
▁implicated
ithine
▁synergistically
▁Baseline
▁17.3
▁affinities
▁cited
versal
1:
▁MAb
▁ultrastruc
▁62
ographs
▁sensitized
▁hydrolase
▁retains
▁pulses
▁PP
▁frac
contrast
semb
▁1.44
▁neutron
▁ultrafiltration
2%)
▁sut
▁warr
▁opac
▁Apgar
within
▁induration
▁DMA
enching
▁lining
atment
PV
▁preterm
othal
▁phag
entan
▁29,
▁limb
▁Adriamycin
reducing
▁5.5,
▁3.
▁achie
supplemented
▁emphysema
ultural
▁lacked
ollagen
▁infectious
▁conditioned
hormonal
▁(10.
opr
▁0%
▁GAP
▁presumptive
▁(15
▁Partial
hypophy
isol
▁Sixteen
▁myofibrillar
▁(3.0
▁deterioration
usate
▁GLUT
▁70
▁44
▁ipratropium
ifug
admill
▁cataract
▁keratins
▁tuber
arous
▁GRF
▁NMR
▁GFAP
▁warfarin
▁carbachol
▁ensuring
▁HL
▁replic
invasive
▁oes
azosin
▁Protein
76
▁anticoagulation
▁Acid
▁ruling
▁sagittal
▁hydrolys
▁234
▁emergency
▁PEFR
▁incis
treated
▁ouabain
▁deficits
▁multiplicity
tisone
▁implants
▁metastasis
▁0.03)
▁Incorporation
▁7%
▁thrombocyt
▁HDL
oneph
▁organism
▁ultr
▁polysomn
▁dobut
▁GRP
enopus
▁moderate
▁calmodulin
▁discrimin
▁HeLa
▁promp
resis
▁emphasis
▁SCN
▁kHz
▁supplemental
▁KS
orbent
▁anastomotic
▁glycemic
▁outlet
gely
▁homeostasis
▁PKC
adapted
▁NP
▁48
oblastic
oflav
▁Scatchard
terone
fluoro
▁ineffective
▁eosinophilia
▁exten
▁1.11
umping
mentioned
▁4;
▁cephalosporins
▁1.42
▁rup
▁glycolytic
▁antim
▁recipients
▁physici
tetradecanoyl
▁Cri
ocrin
▁biosynthe
▁PWM
▁valve
▁salmon
vices
▁97
62
deoxy
▁PHA
▁10(-1
▁15%
oprecipitation
rostagland
▁rearrangement
phil
isite
▁nutritive
orin
▁introduc
▁plasmid
tetr
terious
▁Phosphor
feren
ofil
▁spores
▁agarose
triglycer
▁microm
▁individualized
▁scinti
▁presynaptic
▁melan
▁(50
▁microbi
iodo
asthen
▁electrodes
▁metabol
▁miti
▁MBP
▁trichloro
▁EDRF
▁gluc
▁grossly
inhibited
ophysiological
tine
ropathy
synaptic
chase
▁intercalated
▁Elevated
▁anastom
divided
HDL
polymer
obacterium
ritish
glycer
▁agen
▁parity
▁215
▁analytical
▁intestinal
uality
imotor
▁competitively
mg
▁quoti
olpidem
▁cortisol
▁grafted
oncogene
▁33-
▁freezing
▁inflamm
00,
▁kidne
▁abrupt
exin
▁mesenchym
▁42%
▁3.2%
▁acyclovir
oproterenol
▁periplas
▁400
▁8-12
ratio
onate
azoline
▁(62%)
otidine
enclamide
▁Failure
eptic
▁94
▁damaged
▁limbic
▁rHu
▁azithromycin
imetidine
▁Respiratory
▁opson
▁100
▁antidepressant
Kd
azep
Hodgkin
▁estrous
▁hamster
▁Strep
roin
osac
tocin
riamycin
▁trachea
▁diuresis
▁modulates
atation
▁wounds
▁Acad
▁monkey
%);
▁xenografts
erebral
233
▁thoracic
ifferenti
HN
icylic
▁inactiv
▁antinoc
▁65
▁assayed
▁poliovirus
zinc
dG
toph
▁3%
electro
▁specificity
▁excessive
▁HIV
secre
▁naf
▁strand
▁butyrate
▁electrogenic
▁enlar
yoto
idases
▁electrolytes
▁bipolar
▁troponin
tinction
▁INH
adine
pendent
tam
pliance
▁90-
-59
acerb
▁torsion
3-2
▁SOD
▁Compound
▁cystine
▁Nutrition
▁7%,
▁striatum
▁libitum
thyl
▁cefaclor
deoxyglucose
▁glucuronide
oembryonic
▁amphib
▁gt
▁4.
▁PMS
▁stratified
▁MPO
guing
▁3.5
turnal
▁exhaus
▁menopause
▁electr
onuclease
▁monoclonal
▁doctors
▁gangliosides
▁dissemination
▁Resid
▁solely
▁goat
▁phos
▁capsule
▁terbutaline
▁erythroid
▁interfere
▁Plasmodium
▁cardiac
▁paradoxical
▁dissection
▁abr
▁Histological
▁50-
▁HI
olesterolemia
esity
▁biotin
▁phosphates
pG
▁fluctuations
▁susceptible
▁cochlear
▁paren
▁retested
igenic
phenyl
ulators
tric
▁11.0
▁(8
▁hemolytic
depr
▁perone
ystagmus
▁cocaine
▁quantitation
▁financ
▁stools
▁carin
▁paroxys
Vi
allikrein
▁gingiv
▁guidelines
anine
▁Hybrid
▁beats
▁chlamydial
▁considerations
▁drastically
glutination
oblast
ichloro
▁wheezing
▁adenocarcinoma
▁61%
-6
▁relieve
▁Cooperative
▁antagon
▁HRP
▁gradi
tubulin
▁nedocromil
▁kcat
▁paternal
urkitt
▁138
▁Reduc
▁550
▁Effects
▁ery
ampicillin
-1.2
▁mM
injection
▁enrichment
▁isoproterenol
▁inadequ
ipar
urine
▁loos
ifed
▁3,4-
▁stiffness
▁dihydropyridine
▁colocal
▁stimulant
▁acquisition
tified
▁swab
oreceptors
▁revealing
▁lectins
umptive
13-
▁7-
▁(44
▁dialysate
▁gonad
▁ACh
▁microscopic
▁UT
▁blin
lux
rophen
▁Sensitivity
▁mitogenic
tyrosine
mend
▁nitrite
▁intolerance
ilum
▁cytosine
▁100%,
▁barbit
▁karyotype
ubertal
▁paraf
▁serially
▁forelimb
▁DNase
▁deprived
▁subtle
▁indicators
▁fruits
▁syndromes
▁dithi
▁0.13
bular
▁ribosome
atridine
kerat
ulfonate
sched
▁denatured
▁Vitamin
expressing
▁(77
.1)
▁confound
▁facilitate
.5
ituitary
achid
▁radioimmuno
▁airflow
5%).
▁tuberc
otoxin
uthen
▁responds
▁corneal
▁spanned
peri
▁atmosp
▁clearances
▁sulfon
EMG
▁phenylephrine
▁indomethacin
▁119
▁Veterans
▁osteoarth
▁clonogenic
▁autoregulation
▁Apo
▁4)
opharm
▁constituent
atization
ilts
▁1,4-
▁dental
▁EMG
▁pharmacokinetic
▁amlodipine
HIV
▁4.0,
henyl
tryptamine
▁ruptures
▁13)
azo
▁Syrian
▁suited
▁alleles
▁dehydrogen
▁neurotensin
▁Bone
▁examiners
▁therapies
-150
▁sporo
▁surfact
.2%)
▁remnants
sisted
rength
▁cyclo
-16
▁ingu
▁breeding
▁induce
▁exudates
▁17).
acr
▁myeloperoxidase
phthalene
16)
▁oxym
▁DHEA
prone
▁molecules
facial
▁onset
▁aspiration
▁alumin
ietin
oglyc
ydig
etanide
▁remodeling
ellar
▁recA
▁fragmentation
▁Meas
120
▁(49%)
▁aflatoxin
▁participating
ofructokinase
▁(38
▁(4-
▁digests
▁Cerebral
▁resistant
▁medically
▁exhibits
vus
tures
-9)
▁Throm
atories
-2-
▁Combinations
uded
mediated
▁surveys
ixation
adenomas
etirizine
▁hypertensives
▁compensate
▁COPD
▁AMP
▁minocycline
injured
▁catabolism
▁2/
▁Wistar
▁Uptake
▁LTP
▁provid
▁erythrocy
tur
▁comparable
▁accumulation
▁staging
▁monolayer
▁indoor
▁ecological
▁challenged
▁anionic
thio
▁rIL
omycin
▁0.05,
▁suicides
▁pathway
denat
▁pharmac
mature
▁Interestingly
▁CFU
-2.2
▁127
▁79
▁sequentially
graphic
▁31
▁excretory
▁preganglionic
▁suspic
tening
assium
▁orthostatic
▁illnesses
entile
identified
▁Comparing
▁retrospectively
▁CMV
obese
polyacrylamide
ylon
▁allyl
▁prolongs
▁sequencing
▁monos
▁23
▁tetrap
▁anchorage
ulon
▁energe
▁caro
AIDS
/1
▁oxy
▁AII
opeptide
▁chemistry
illion
▁(32%)
▁stomach
spectrum
▁erythro
choles
▁2.5-
▁endocrin
▁meningococcal
▁displacement
epsia
▁diffraction
▁implications
▁determinants
▁recipient
▁accumbens
▁PDE
▁Estimates
▁OC
▁oligomer
▁potentiates
▁1.31
▁prostatic
▁lifest
▁recurrent
▁HC
receptors
CBF
▁freed
▁nicotinamide
▁-12
▁(13
reported
oustic
chlor
lycer
▁fmol
▁ontogeny
gesic
▁sple
▁regulatory
tosis
▁Ultras
▁Candida
arate
▁4),
▁46%
▁putative
helix
▁NADPH
▁acces
▁hairy
▁micrographs
lug
CRH
▁28,
mRNA
ifornia
▁Cmax
▁anticipated
▁44-
heal
agic
▁hepatotoxic
▁alkyl
proteins
▁corneas
▁pallidum
▁BFU
▁50,000
▁detectable
moderate
utyr
▁oxymetazoline
▁cytoplasm
ytoin
▁phasic
▁normotensive
▁defic
▁compares
▁lis
▁reconstituted
▁vasodilators
▁forsk
▁hypoglyc
ducts
uterine
Cu
▁predominant
▁convol
difference
▁ribs
ithium
96
▁35-
orec
▁pim
assemb
▁splenomegaly
ropriate
▁aorta
▁hydr
▁sigma
itrophenyl
aicin
▁biased
jun
opausal
▁electrom
ylamide
▁thymocytes
▁deoxy
▁101
▁thiol
▁owing
▁0.63
tronidazole
▁ESR
urgical
amyl
▁ero
▁6%,
anat
iminary
onvul
116
27
▁glut
▁irr
▁managers
▁156
glut
rogesterone
▁mucosa
ntolamine
Lys
▁sampl
▁8.1
yzed
romycin
bronchial
▁500,
12).
▁graft
buterol
▁Adequate
oxazol
udin
phosphatid
20,
residue
▁Intrac
▁Subs
▁deposits
1),
▁bilirubin
▁cyclosporine
ocarpine
ignificant
osyl
▁anaesthetic
▁prescription
titutes
rophy
▁Various
bacco
▁deterior
▁thrombo
49
▁DH
▁normalization
Ox
agittal
▁reared
ozo
▁glycolipid
vac
▁medullary
otalol
▁73
▁pregnant
pap
9),
ocellular
▁filamentous
▁relieving
▁brady
TNF
tizing
▁tet
BM
▁lowered
▁imbalance
▁mandatory
▁mating
endritic
▁secretion
▁adenovirus
antigens
▁1,25(
▁lob
▁serologically
▁columnar
attrac
10,
yro
▁lymphocyt
resting
▁protozo
▁29
▁polyrib
▁interacted
▁prostheses
▁pathogenesis
▁piglets
▁evoke
▁134
▁incorporating
▁19.
▁endometrium
▁reliability
▁proliferative
▁1966
▁parenchymal
▁longus
▁digestion
lactate
ocon
▁nonselective
chloro
ordant
▁accelerate
▁Sera
▁crystal
▁exhibit
retro
anoids
▁etoposide
▁depressive
▁immunosuppres
▁intracoronary
▁undetected
ophil
▁MH
▁aggression
oprol
▁sensitivity
▁postulated
▁trypsin
▁ammonium
tenance
▁glucocorticoid
▁viscosity
▁profoundly
▁hypother
▁inoculated
gestational
▁1,3-
▁periventricular
▁precursors
▁deviations
▁endotoxin
▁reticular
▁interrelations
odipine
ochem
igram
▁(49
▁ethyl
▁fibrillar
romic
ocycline
▁revised
caro
hir
▁nong
▁Benz
▁Protection
▁agonist
▁subscapular
▁saphenous
▁BV
▁triglycer
15)
glycero
▁supportive
▁equine
▁preincubated
spective
▁treating
▁statistic
▁unexplained
▁thrombi
▁1,0
▁DT
▁rRNA
liteal
▁availability
▁tended
omical
▁weighing
▁108
emin
▁toluene
▁motifs
▁2.1
▁eosinophils
tose
enhanced
itron
arum
uronal
▁empirical
▁replicative
▁joints
▁prostagland
937
firmed
ittac
▁dete
▁Cyt
ocom
▁challen
▁132
▁latency
▁supple
▁Assessment
▁Injection
trin
▁Carotid
▁colectomy
▁mAb
▁HCG
▁adrenal
-78
osom
▁calbindin
▁Phe
edocromil
▁prothrombin
▁pancreatic
▁Excluding
fec
oglycerate
ioma
▁infantile
▁nonsteroidal
ulph
▁twitch
▁separating
romedial
nourished
▁enroll
▁nucleus
▁atria
▁suspected
▁0.29
▁140
▁measurable
-36
HCO
▁soy
▁nonm
uating
▁0.000
ystatin
EPO
▁unselected
▁antigenicity
▁complaint
▁4.5%
sions
▁endogenous
onegative
▁PaCO
▁organelle
▁abuse
▁luteinizing
-125
▁calor
▁propyl
fractions
▁blunt
▁tympan
▁80%,
▁ulceration
▁preparation
▁weigh
▁orally
embr
itoneum
blind
sar
▁cDNA
▁Pertussis
▁neonatal
torial
▁Secretory
▁interf
▁Animals
feron
▁dopaminergic
▁Natl
pretreated
being
▁75-
MLP
▁9.2
obronchial
▁reinfor
▁disturbing
teric
▁pyrimidine
intensity
▁0.89
razole
▁MuLV
▁coli
-5'-
opath
atoma
▁comprises
▁filament
▁cardioplegia
▁analogs
▁Drosophila
▁infil
itating
orubicin
▁atopy
▁stent
▁turnover
▁inability
▁endogenously
Pu
▁abortive
▁triad
-1)
▁plating
operfusion
inescence
▁cardioselective
▁folate
▁eradicated
▁arthritis
25
ostasis
▁vasculature
▁echocardiogram
functional
flurane
▁motoneurons
▁puberty
acti
▁urokinase
▁aqueous
▁malignancy
▁stepwise
▁antibacterial
▁underway
▁embol
▁glyc
▁137
rospinal
▁subpop
imolar
▁mite
itant
▁supplying
tRNA
▁pulmon
▁budesonide
▁Lact
ticularly
▁9.4
cytidine
▁256
▁diltiazem
▁pentobarbital
ograft
breath
pregnant
▁leakage
▁expense
gol
▁valine
▁adoptive
elan
matic
▁cardiomegaly
chemical
▁defibrillation
▁ventricle
▁iodine
licular
ventral
▁(24%)
▁Carb
reaction
▁20)
coronary
enec
▁necrotic
methylated
▁37%
▁bilateral
rof
orpor
▁embolization
▁genit
▁RL
▁1.48
▁haem
▁patella
umetanide
▁stimulates
quine
▁myofibrils
▁0%,
ialysis
▁Tum
brids
▁spectrin
▁malformation
▁enterotoxin
▁sulfoxide
▁antitumor
▁Crohn
▁serotype
uptake
▁Thin
▁antihistamines
▁teen
▁ureter
▁protoc
BK
▁behavi
▁migrate
pite
torchid
▁ROS
▁Nons
▁platelets
▁staphyloc
▁opioid
▁reactive
15.
▁visc
▁Feeding
-50
ylene
▁waking
Bs
blocker
▁cisapride
emak
arginine
chond
▁Bilateral
naud
▁retrospective
▁colpos
▁microtub
▁triglycerides
omolar
▁1,4,5-
astatin
-7.
▁titers
▁palmit
▁262
labeled
tember
▁predicts
▁sensation
▁stimul
▁surgeries
ECs
▁81%
ludes
▁suspicious
▁apne
▁Sodium
▁rhy
erox
▁negl
▁asymmetry
▁pseudop
▁adipocytes
▁stabilized
▁acidification
▁revascular
▁subacute
agastrin
▁breasts
▁myo
▁logistic
▁10%,
lamin
noon
vertebral
▁electrophoresis
iptine
Bmax
tured
▁eliminating
▁theoretically
▁bioavailability
orbidity
mercap
onad
oglobin
▁amputation
▁cholesteatoma
▁Experiment
▁GHRH
0.5
▁Muscle
▁(250
▁ventromedial
▁Cholesterol
femoral
▁intermittent
umbered
▁Framingham
▁ceftriaxone
▁mitochondrial
▁perceptual
▁polysaccharide
▁mediated
▁0.12
oagulant
tumor
▁(18%)
▁heavi
▁circulatory
▁depressed
▁Raynaud
▁Bacter
▁1.46
▁Recently
▁osmolality
▁gating
▁delaying
▁organelles
monstr
piper
▁adop
sives
▁worm
▁412
▁theta
▁Impro
▁encephalopathy
asalazine
▁detrusor
FN
otrexate
▁peripher
plasmin
▁6.7%
▁80
▁histidine
▁breakthrough
▁mutagenicity
▁PPD
▁innervation
▁240
▁Patients
▁colic
▁interference
61
▁inherent
▁hybridized
▁unfavorable
tices
▁180
▁constriction
▁tol
▁supplements
▁heteroz
▁Aspirin
▁196
▁modulatory
▁Eleven
1-
loxacin
▁screened
▁CST
▁smears
mandibular
ypeptidase
▁allergic
ermal
▁mucus
▁adequ
▁polymerases
▁rebound
reening
▁osteoporotic
▁correspondence
▁trabec
Vmax
ifers
▁methyldopa
▁confluent
2+
▁tRNA
▁GTPase
▁(10(-4)
▁1200
ococcal
olated
▁mutants
▁(4
▁differentiated
▁mediast
▁precipitated
▁Multivariate
excluding
omatis
▁vegetable
▁occlusion
trac
▁prepubertal
▁bacilli
oglob
▁235
▁pairing
▁Listeria
roth
6)
▁examinations
▁dilat
▁encephal
▁necrop
essation
▁initiated
ercur
▁primed
▁CPK
labile
occus
▁cyst
▁transcribed
traum
igl
▁hypocalcemia
ropath
▁75
▁endocrine
▁3.1
▁contrasts
▁+/-
lipoxygenase
▁0.0001),
▁prevalent
▁intron
▁clom
amide
▁0.22
tially
▁instability
androsterone
▁reconstitution
▁insuff
▁aggre
▁feeding
ometh
▁synov
▁adhesive
▁VLA
▁responded
▁suppressed
▁adduc
▁drinks
tious
▁adrenocortic
ucleated
▁superiority
▁norfloxacin
▁striatal
▁Calcium
arby
▁SPL
▁0.75,
▁HCV
-3
cros
ipitation
BP
▁lute
anthrene
▁spermatids
PW
acute
LDL
phosphorylation
derma
▁Graves
▁interventions
▁stroma
▁0.001,
▁untreated
▁therapy
RCA
▁cloned
chronic
▁calcitonin
▁colony
▁40%,
MK
▁monomeric
▁predicting
▁28
▁metastases
oung
▁complication
▁pI
▁vibr
▁mL
▁albeit
▁Golgi
▁reacted
▁granulomas
.9%)
▁EGTA
▁nodule
igand
▁epithel
▁HAM
ococci
▁methodological
▁reper
▁mA
▁Gonad
▁bisoprolol
▁Dose
▁cremaster
▁heavier
olved
127
olip
▁NADP
▁cholesteryl
▁alkalin
▁gonadotrophin
zoster
vae
▁182
ensitization
▁burden
▁vanadate
titudes
▁amniotic
▁parenchym
▁horm
▁Mediterranean
▁immunod
▁laparo
11.
▁caud
▁virulence
▁176
▁medicines
heat
athetic
mitter
▁(70%
▁abbrevi
▁oxidative
▁tryptic
urosporine
/30
▁clinicians
▁lipoxygenase
▁prefrontal
cyst
▁glucagon
▁retroviruses
.1%
▁cobalt
▁cream
▁2.6%
▁immunoblot
▁empiric
▁58%
▁fibre
icated
ositi
▁Twelve
▁Attempts
▁heterologous
▁30%
▁37
oporotic
antial
entary
CGRP
▁chloroplasts
odal
alim
peroxidase
adication
▁cyto
▁Platelet
▁admissions
embry
▁arterio
▁hexamethonium
ications
▁trimester
▁extrav
▁elemental
▁pathogens
ogeneic
▁(69
ancomycin
▁EA
ritin
14)
centered
▁315
dihydrop
▁lymphoblastic
uding
▁ACE
▁intensely
▁vite
▁chemotactic
▁stabilize
gative
.3.
▁acute
▁symptomatic
5%.
▁proving
▁aging
ignific
-64
▁TPN
▁279
▁micelles
oreceptor
▁needing
▁twins
▁FS
▁catar
leucyl
emic
▁convulsions
corrected
ociated
▁glomerul
▁3).
▁PV
▁noncom
habil
lpr
.8%)
▁hepat
▁immunos
006
phasic
▁correlations
▁cava
▁subf
oprotein
amid
HB
▁lithium
▁(71
teral
▁indo
▁endemic
▁spacer
▁vicin
echnetium
▁mim
▁spp
▁Unlike
▁probed
ught
▁biosynthetic
▁originate
tilage
▁mAbs
umaz
▁Trial
▁ascertain
▁devoid
immunoreactive
▁Glc
▁postmortem
▁inges
▁epidemic
▁viscer
▁progen
ystic
ethanol
tise
▁diacylglycerol
▁aro
3,000
▁Estim
▁PE
▁parat
▁warts
▁bull
▁cromoglycate
▁anion
olec
▁Experimental
ministration
▁piper
illary
▁nociceptive
▁distortion
▁fibrinolysis
▁Glut
utaneous
odynamically
yramine
▁postinjury
ograp
▁recurrence
▁powder
▁cholec
adequ
▁bridges
▁ventric
▁infrared
orandil
▁EPO
▁99%
▁elicits
▁9-
rosine
▁deficiency
roma
othione
▁Insulin
▁Conventional
▁kappa
▁herd
amuscular
▁DNAs
▁bleeding
▁(40%
600
apparent
iosis
utyrate
▁tox
▁0.7
▁atyp
▁cephalosporin
▁laparotomy
▁Steady
▁persistence
▁histological
oxyl
rhy
▁0.67
alact
▁Synthe
▁HindIII
▁cement
▁8).
▁1)
19
▁subtilis
▁zidovudine
atology
▁underestim
▁dehyd
▁exhibited
▁reabsorption
▁uncoup
▁steroids
▁10(-5)
eroxidase
▁Changing
▁(14
Ta
lebsiella
+.
▁10-
▁autoantibodies
▁amin
▁cerv
▁stromal
▁CHD
etus
arose
▁ECG
▁thalamus
androgen
▁infec
▁adenylate
▁illumin
▁antagonistic
▁planar
▁tritium
▁coordinated
▁systolic
▁0.60
severe
▁40%.
arachnoid
itrate
▁Lipid
tropin
21)
▁bronchospasm
▁absorpti
▁cytochrome
▁scre
▁carcinogenesis
▁25.3
▁7.9
▁radiography
tinent
▁ND
▁phosph
-[
▁accelerated
▁Nuclear
▁leukocytosis
▁2).
BW
▁cruzi
shaped
▁Intracellular
▁chlamy
nucleotidase
operiod
fluorescein
▁1.17
▁examination
▁athlete
vaccin
▁247
▁vasospasm
▁APD
▁13.5
▁inositol
▁gallst
▁tetr
▁mechanically
▁biop
tact
▁endometrial
olysis
▁(95
finding
▁psychiatric
▁infra
▁extracts
nowled
ximal
▁catheters
▁athymic
▁vitamin
▁introducing
▁infarcted
▁rheum
▁flap
oglut
amers
▁subnormal
▁abnormally
▁rhinitis
enol
ATPase
lytic
▁artificially
)].
▁unlabelled
▁thyroidectomy
▁interacts
▁Rates
▁lutein
-1.6
▁allerg
▁0.56
ported
PAGE
birth
ceptive
▁Induction
▁litter
▁clinically
▁adrenoceptor
▁(58
▁nitrocellulose
▁1.3
▁lymphatic
▁inhaler
▁subgroups
hydr
▁intestine
▁Trials
▁PBMC
▁nitros
buffered
actam
▁stains
▁creatinine
illus
enteritis
acid
lamydia
▁ech
▁pBR
▁0.30
ognitive
▁recons
diastolic
▁5-10
cancer
economic
▁neutrophil
▁nonf
Kyoto
AChR
▁foam
▁clinics
ocriptine
biased
parathyroid
]-
▁tas
▁.01)
▁competitive
▁cytoplasmic
▁examines
dominal
▁recurred
▁jejunum
▁goats
tases
tened
23.
▁disposal
educ
▁shrin
lateral
pontaneous
▁Findings
▁duplication
▁specialized
ivariate
▁deficit
ralfate
anut
▁serotonergic
▁2.9%
oselective
▁detergent
▁aerosolized
▁calcified
▁Nit
tent
▁suppor
hyd
▁uro
DG
roxic
▁16.1
tagland
▁hepatitis
▁720
▁86
▁Adh
▁1.29
▁SCC
▁herds
▁eicosanoids
▁segregation
▁immortal
▁dehydration
▁sacc
▁hydrop
▁propranolol
▁Receptor
luc
▁(90%)
▁normals
▁uninfected
▁attenuate
▁endothelin
▁perme
entgen
▁Sequ
density
▁gastrin
4-
▁chicks
thel
▁enterocolitis
▁suspended
ctation
▁occult
arent
▁collec
▁astrocy
▁detox
▁inadequate
planted
▁curettage
pran
teine
▁interferon
▁extremities
▁transthoracic
▁phenylalanine
▁vacuoles
▁glia
ropyl
▁PPV
forming
▁neuropath
▁0.016
unctional
antitrypsin
▁capsid
omatosis
▁endoscopically
itudinal
▁Fewer
▁unipolar
▁heal
▁neuraminidase
▁(1.2
gement
▁peroxidation
odone
▁paroxysmal
alate
▁thaw
olig
▁hygiene
▁SRBC
stained
▁(0.00
BAL
▁(0%
▁0.10
.2)
▁angina
ocl
▁epidural
ching
▁posi
▁halothane
▁terminals
▁invariably
▁immunodiffusion
SOD
▁fetus
▁degen
▁leucine
▁nocturnal
▁interv
irrel
▁influenz
▁mood
▁(72
lude
▁mortality
▁observational
▁alprazolam
enin
▁globular
▁EPSP
4,5)
deoxyuridine
▁capacities
ribose
▁explored
▁secretions
▁glauc
▁occluded
conditioned
▁1.12
▁fourteen
▁pneumon
▁1988
▁endoplasmic
▁bonding
▁haloperidol
inesterase
▁Abnormal
-79
▁tubercul
▁distinguishing
romised
▁reconstructed
ohnson
▁IBS
imethyl
glucuronidase
▁contex
▁conservative
▁modestly
esic
ogeny
▁MgCl
4,000
eroxide
▁regimen
▁tissue
▁cytoskeletal
▁discontinuing
assisted
▁PNA
▁microb
▁resemble
▁instruc
▁(9
0.00
▁recognizing
▁metals
▁acceptance
▁attenuation
▁Eryth
▁tiss
▁sporadic
▁uncontrolled
athione
▁blockers
▁NPC
xyl
atidyle
▁(5.1
▁Caucasians
▁(35
▁ligands
▁tymp
those
▁contamin
▁antecedent
▁chronically
▁Intravenous
▁accid
▁varicella
mTc
▁50%,
▁digested
-25
▁tricyclic
GI
▁Activation
kelihood
roblasts
▁antibiotics
▁serological
motor
stim
ariate
▁bovine
▁benign
▁lipoproteins
0),
▁SCLC
▁discontinuous
ocial
▁TLC
tonin
gesia
▁gangl
▁Virus
thanolamine
▁0.05
▁ligament
▁drugs
▁neurons
▁variously
▁glutathione
erative
ipr
▁positioning
▁resear
▁digestibility
▁periodon
▁intact
▁plated
▁staphylococci
ropha
tussis
numbered
▁74%
▁retinal
asive
▁enhancer
▁efflux
▁warrant
phila
▁epidemiologic
▁compounds
▁LMWH
▁ethical
▁1,25
▁counterparts
1,000
▁accounting
▁dentures
▁commercially
aid
altered
▁13.9
▁mandibular
▁immunization
▁polyc
RM
▁diversion
▁ageing
▁mesenteric
erents
▁(15%
guanine
▁angiographic
radiation
▁CLL
▁8.5
▁(88%)
nitro
▁1.56
▁splenocytes
▁crom
▁strengths
▁leaflet
plasty
▁unsaturated
▁immersion
▁bronchodilators
ayed
parative
ostal
Ra
▁demonstrates
▁behavioural
▁irritable
gold
▁synergistic
letion
valent
▁typh
predominant
▁charcoal
▁hyperos
ofl
xual
alkyl
▁propagated
▁cannula
▁molec
Ile
▁alcoholism
soluble
▁basement
ulata
▁.05)
tophan
itary
▁gait
▁Increas
▁ascites
▁pharmacodynamic
▁involvement
▁0.15
▁100,
0.8
taining
▁wound
▁favorably
phor
▁Tes
▁Biochemical
cholate
PBL
olesterol
11-
▁-15
▁propagation
▁oestrogen
epam
sess
▁larvae
▁primers
▁urinary
▁infusion
▁8.2
▁alve
▁fluor
▁1.75
▁eminence
▁trin
idis
aminopyridine
▁colchicine
osite
▁asbest
▁complexed
▁anastomosis
▁mild
▁decreases
flur
▁glycol
▁placental
▁coenzyme
▁bolus
▁musc
ucose
tation
▁fasting
▁concentrations
iology
▁exhibiting
loon
▁ejaculation
▁antioxid
▁passages
▁nt
ulose
▁cardioplegic
▁simvastatin
rought
▁ADH
▁nylon
▁needle
urnal
▁cortisone
▁7.6
-5)
▁fever
▁furthermore
▁elastic
▁cigarettes
▁initiates
Ki
urred
reactivity
fat
▁DMP
▁physiological
▁voiding
▁EGF
▁lymphomas
▁divergent
▁extravasation
▁ataxia
▁catabol
▁fibrosis
▁Significant
▁secretagogues
▁lactose
abec
▁macrom
▁leth
neuronal
conversion
▁mec
▁IRI
owever
▁heparin
orption
urate
20-
▁elu
▁5.6%
overall
otom
aluation
▁monitored
▁elicit
▁(6)
benefit
47
ipher
vul
otonic
▁Trypanosoma
▁pretest
renol
▁cardiovascular
▁beating
▁atrium
▁ergometer
▁64
▁colitis
▁recalled
▁PEG
500
▁postural
▁offspring
▁advised
▁phenotyp
▁10(-3)
anthracene
▁specialist
lod
▁neuron
▁mitogens
▁5.7
▁30,
▁tac
▁awak
▁shel
▁oncogene
▁massage
▁splanchnic
▁kPa
otericin
dU
▁Recombinant
▁TIL
▁48,
osuppression
▁Mg
▁alkylating
35
assessed
▁unco
▁clarified
proton
▁dorsolateral
▁mU
▁zoster
▁incompetence
oxan
▁NM
ifluo
▁cavity
▁NIH
MBP
▁megakary
▁volatile
▁modulated
▁barely
▁165
ensitive
▁autop
▁myopathy
cture
▁dose
▁motif
leu
▁degeneration
▁fractional
▁helix
▁8)
(2)
▁termed
gp
ohydrolase
▁Neurons
electron
▁vacuolar
▁mimic
▁erythema
▁denervation
▁migrated
▁deleterious
▁Subjects
▁inversion
▁expectations
4]
llate
▁pacing
▁gluconeogenesis
▁drainage
▁quantification
▁larynx
ipheral
▁enhanced
▁oestrus
▁PCP
▁pharm
▁controlling
▁Disease
oglycan
▁glucocorticoids
▁Indi
▁BMT
▁repressed
▁erup
19)
▁envelop
ocytes
▁flora
▁13.2
▁persistently
RNA
▁necrosis
pA
▁sarcolem
▁behaved
▁hydroxyp
olum
▁8.5,
SBP
▁herein
▁nigro
gestin
▁adolescents
rendipine
▁chicken
usually
▁laparoscopy
▁quadriceps
▁zinc
▁elevate
poor
(+)-
ervative
Ace
▁pmol
▁ile
▁perfusate
itol
▁criterion
productive
▁discre
▁differs
▁haemodynamic
▁insufficient
aldehyde
▁(26
▁349
▁nephrectomy
omated
▁myosin
mAb
omerular
Gln
▁osm
Mn
▁GA
Km
ysed
▁FMLP
Glc
▁leukaemia
▁metabolic
▁CDC
▁acetyl
▁adip
▁hypertension
▁peptic
▁hierarch
▁ileal
▁hemispheres
▁stimulator
ergic
▁cochlea
trisphosphate
adenosine
blocking
▁pigmented
gluc
▁chick
▁gyr
▁throat
▁anxiety
▁sequel
▁iatrogenic
NGF
conjugated
▁constitutive
opolysaccharide
avail
▁Consequently
▁histopathology
▁cavities
32,
▁polyadenylation
6%
▁solvent
dR
ffec
FU
▁aggres
▁Muc
▁clinic
▁picrotoxin
▁(2.5
▁aldehyde
▁nasopharyngeal
RB
endix
ophilic
▁reflex
▁enrol
▁fibronectin
schemic
▁maneuvers
▁encephalitis
▁MIC
:00
▁excretion
▁0.0
▁lowers
▁plotting
▁27,
▁Bronch
▁preferen
▁asymme
2+.
▁semin
▁degenerative
hepar
40
▁Statis
▁anisotropy
▁4.7
nithine
▁haemorrh
▁enox
▁exacerbate
▁chyl
▁pallid
▁Stro
▁GGT
▁albumin
▁neurokinin
▁diaz
▁cholecystectomy
▁epilep
itability
▁0.49
venty
progestin
pressing
▁hydrolysate
▁phenotype
▁polyunsaturated
▁unfav
▁silica
▁lymphocyte
▁analges
▁fentanyl
▁microorganism
▁oste
▁ethnic
▁Recommend
▁AMI
22,
▁snail
▁sting
.9%
potential
▁nonpregnant
▁accompany
▁percentile
▁acidosis
▁lact
adenosyl
▁171
rP
▁-9
istal
dehyde
▁CHO
smoking
thymic
▁phosphoinositi
phosphonates
▁mesenchymal
▁ration
▁identi
▁granulosa
▁ABP
▁9.3
▁speculation
ysergide
▁Eco
phage
▁VA
▁aberr
ureus
▁recombin
▁430
VAS
-96
▁addic
▁nif
▁cGy
▁TNP
SCLC
LN
▁aspec
▁Recep
idin
▁uncom
▁flanking
HSV
▁depolar
▁Thr
▁avid
taldehyde
▁irradiation
▁cryopres
tition
▁interleukin
▁formulations
▁mediating
isobutyl
▁hemochromatosis
PEG
▁intrag
▁rupture
araldehyde
▁reactivation
▁incubating
antagon
▁pediatric
specificity
azepam
-7)
▁effluent
▁categorized
▁histo
▁atten
▁Brain
Pt
▁reversible
HRP
▁DMSO
▁trach
archite
.6%,
▁passively
▁rigor
▁diaphragm
▁cmH
acted
▁insoluble
entical
ivacaine
▁vege
▁physicochemical
▁(4.0
-15
▁carbonate
compartment
▁bromide
▁Evidence
▁estrone
inactivated
mostly
▁tachyarrhy
▁0.00
ophysical
▁159
▁reconstruction
▁indefinite
▁duoden
1).
icides
▁HVA
▁splic
▁baro
▁deline
epi
▁1-3
inephrine
▁reperto
▁descriptive
▁IVC
▁corrob
▁counseling
▁intrarenal
▁cognitive
▁immunoglobulins
▁asymp
▁termini
abilized
▁2.4%
▁hematologic
aryng
▁tracts
▁hetero
▁untranslated
imazole
butyl
▁(45
angl
▁90
▁9.
▁insec
▁inactivation
▁fatigue
▁histopath
▁OV
TRH
▁sweat
azolium
▁rotational
lym
▁Clinic
2,000
▁steadily
▁dysrhythmias
▁effusions
▁Older
adiol
▁phorbol
sibility
▁96%
hep
▁transfectants
▁hyperplasia
▁lecithin
▁1989,
endri
▁homogenates
▁reversal
▁unaffected
verages
▁intravenous
▁deter
▁0.05).
▁viable
▁evacuation
haled
ognition
▁Samples
▁planes
▁allografts
roxetine
▁inoculum
▁intraocular
▁-0.
▁differing
▁Cells
▁10(-8)
▁81
▁Aden
56
oxyp
glyc
▁thickness
▁Arterial
▁MU
▁(71%)
▁survived
▁ANP
/9
▁HV
▁Mycobacterium
actone
▁Mild
7;
twitch
▁hypotheses
▁1980
▁neuroblastoma
▁chan
▁ejac
▁puncture
▁resistances
▁dehydro
-8.
opause
▁BA
▁systole
2-
▁Thoracic
▁CAPD
▁tension
▁hyperpolar
▁headache
▁yr
(+)
▁47
▁arbor
FV
▁octa
aventricular
▁pravastatin
59
iological
tracellular
▁Differences
kilobase
▁carcinogens
▁hypercap
▁chromium
trus
▁cholera
▁tuning
▁quinone
uracy
▁ey
▁peptides
phenylalanine
▁streptococci
▁45
▁pts
▁microelectrodes
▁Multiv
77
▁wheat
akalim
▁transi
▁carcinomas
ibrio
▁regulations
▁hyperins
▁phosphatidyle
▁homology
▁Glu
dL
▁electrically
▁cotton
▁depletion
▁evac
ceived
▁77%
▁0.59
▁0.64
▁-10
▁adrenergic
▁Phosph
▁continuation
▁Loss
lives
▁Leydig
▁ulnar
▁4-5
clamp
▁oversh
esterified
▁(67
▁motone
odular
▁projecting
▁ethylene
▁nons
▁GER
opar
▁0.17
tia
▁proteoglycans
pecific
ometri
▁pulp
▁tachycardia
▁chelator
▁iontoph
▁schist
atheter
mitters
▁midline
▁hitherto
olones
▁duplex
cyt
▁elevation
etween
▁corpus
▁erythroleuk
▁olive
rinary
▁inhibit
▁bathing
▁regulator
▁detergents
tructive
▁extracorporeal
▁Physical
lep
hydroxylation
thoracic
▁nonex
▁surveyed
▁eluc
▁conflicting
▁(70
▁56%,
▁18,
▁chains
▁anatomical
orphin
▁versa
oretical
dyle
▁(4)
▁(300
▁ascorbic
▁myelinated
▁translational
▁1.03
▁consol
illaries
▁hydrolytic
▁agon
▁enhances
▁blastocysts
▁bombesin
-300
▁glycoprotein
rolase
9;
▁relaxation
yrid
pread
▁recombination
▁retinoic
PGE
▁Medicare
indings
▁(94
▁soybean
tempor
▁prolactin
▁raphe
▁ovalbumin
▁vimentin
▁positioned
HETE
▁Inhibition
izine
▁esophagitis
othre
hexa
itre
▁intrap
▁initiating
▁verapamil
▁geniculate
tle
▁extinction
▁Epstein
uronium
▁discontinuation
▁bumetanide
▁coeff
ellae
400
-3.
obutyl
▁chromat
▁conjugated
▁IA
▁oxid
▁litters
ameters
▁victims
ocytoma
▁nemat
afenone
▁strokes
▁dodecyl
riol
▁recruitment
▁counterpart
▁haploid
▁overe
otox
▁anomal
tron
ilibr
▁10(3)
▁delays
▁metoprolol
▁sclerosis
encephal
▁lysosomes
alene
▁transfection
sant
▁norepinephrine
▁selectivity
trating
▁thrombolysis
▁Diagn
▁paradigm
▁enl
▁VV
normally
▁Progression
▁contracture
alcip
▁excreted
▁myot
▁Suc
▁reactions
oice
▁lowering
▁86%
ctive
idiotypic
▁3.7%
▁endocardial
▁clustered
▁triam
▁baclofen
americ
▁foetal
▁bacter
▁elas
▁1991.
ACA
sequent
atesticular
▁optimum
rowing
▁hybrids
heximide
▁Changes
/1000
▁preparative
▁cough
▁bacteria
▁Fram
kelet
▁crucial
prandial
trib
entral
▁radios
▁TCR
▁selen
titis
tensive
▁PT
▁anterograde
▁neuropsych
▁(5.0
▁encouraging
▁ranged
▁1989
omes
▁Plate
▁absorbance
▁phrenic
opal
▁strategies
ometr
▁4).
▁stom
▁stret
-1.5
▁guinea
estrol
▁(9%)
▁quiescent
▁moderately
▁Biopsy
oligo
▁monit
▁yolk
umazenil
▁prophylaxis
▁cooling
baseline
sAg
SAID
junctional
▁discharge
▁0.98
▁oxidation
▁CGS
▁filtration
osyn
▁germinal
▁maxillary
▁covariates
▁sinus
▁GS
▁occupational
cyte
▁ventil
▁emotional
ipro
▁ectopic
BMT
toid
osomal
identical
▁1.40
▁Diff
osteal
▁acyl
▁causative
▁250
erating
antibody
▁trigeminal
▁Milk
▁(92
▁phospholip
▁reagent
▁employing
ardipine
-(3-
▁vaccine
▁35%
.0,
molality
▁repor
▁preven
▁Bmax
▁lysed
▁tilt
▁virion
onide
rosemide
▁PTCA
▁favored
▁radionucl
odilution
allik
▁traits
▁aminoglyc
▁discrepancy
▁kit
▁ribosomes
▁infected
ociation
▁fati
ographically
dies
cyclo
▁NPH
▁questionnaires
▁14.5
▁codon
Ds
▁extrap
methionine
▁Initially
▁flagellar
estrogen
▁0.14
vements
▁boutons
▁Tyr
99
26
▁hydrophobic
oprostol
▁reversed
▁10.
▁Ace
▁sucrose
ullary
▁colostrum
▁cords
▁seventh
ocytosis
▁liver
▁Proc
▁burns
farin
plete
▁uve
▁irrit
IGF
▁0.58
▁defective
tailed
▁coex
▁hatching
▁epididymis
▁131
cretion
limiting
▁deposited
▁iodinated
▁msec
reductase
▁senile
▁cryp
,000
hydroxy
ocyt
83
▁magnocellular
ubiqu
▁psychiat
▁autoradiography
▁pathways
▁subcortical
▁stabilization
▁intraperitoneal
▁Salmonella
▁fimbr
▁sphing
▁desm
25.
▁(89%)
▁nipple
vicular
pore
▁shunts
serine
tracts
▁340
tracted
▁predic
▁phosphodies
▁restor
▁pronounced
▁Molecular
▁emo
▁diphen
Cs
▁277
▁Actin
▁photoaffinity
▁explant
▁0.51
dural
▁supernatant
▁chemo
▁follicle
▁8%,
oarth
▁interestingly
▁salicylate
ighteen
▁anticholinergic
▁accessory
fos
timulus
xanthine
▁85%
oes
▁inflammatory
▁cG
▁encouraged
pended
zard
▁preformed
vitamin
stant
veolar
▁manufac
▁tetramer
▁systemically
▁FEV
▁atresia
purified
▁80-
▁locus
hospital
▁polycystic
oxin
pinal
diabe
▁activates
▁2.
enzym
trations
inducible
ocyanin
▁anthrop
▁chlorophyll
tif
lymphocyte
▁muscul
▁adul
▁ultrasonography
▁transgenic
▁PAP
▁adolescence
▁palmitate
▁Urea
▁fluctu
notic
8]
▁radiol
▁inbred
▁profound
▁healing
▁MF
usive
▁EMA
▁advancing
ervical
▁poorer
▁pell
▁Examination
scopy
avian
▁professionals
▁postulate
▁globus
transplantation
▁atenolol
▁rickets
▁centres
taz
romed
ycin
▁maturation
▁competent
▁corne
▁symmetrical
kade
▁seb
7/
▁postmenopausal
erin
▁potenti
▁tendon
ANP
ranular
ycardia
▁0.52
▁19,
▁inver
▁castration
▁45,
▁mechanics
▁hydrochloride
anuary
▁(86%)
▁neurom
▁hypophys
▁spon
▁12-
▁rash
▁Kup
▁CTP
▁valinomycin
traction
ffer
▁androgens
▁209
hydrated
▁dramatically
ammonium
▁0.61
▁-7
▁Hind
▁epit
labelled
ourinary
▁suspicion
▁irradi
▁(0.
▁ointment
▁worsening
▁embolus
▁apparatus
▁mononucleosis
neoplastic
trimester
▁prosthe
▁membranous
▁guanylate
otyrosine
▁endothelial
▁cured
▁inh
kinson
▁triglyceride
dependence
▁(20%)
▁pO
▁analyses
▁sugars
▁hypotonic
▁transcriptase
▁Lyme
▁0.55
▁reser
.5%
▁symptom
▁fracture
▁33%
▁5)
▁cholinergic
▁regis
▁supers
▁1.33
▁ml
▁pouch
microns
▁functioning
▁triazolam
▁xenob
▁automated
opam
▁arteriovenous
hered
ulting
vival
▁fertilization
▁anorexia
▁monol
▁0.38
dC
oterol
▁thrombosis
▁persis
▁halves
0%.
taken
▁Amin
▁cortex
▁indication
yrosine
▁1979
opl
90,
▁conformational
ventional
▁Sprague
▁metastatic
▁spreading
▁GDP
▁cue
▁Growth
reacted
▁fulfilled
▁ingredients
sulf
▁unil
▁innervated
ucleotide
▁rhin
▁elongation
▁tauro
hydroxys
▁phages
▁5.2%
▁TcR
▁trachomatis
▁GV
▁physically
▁prevail
amellar
propyl
▁Alzheimer
▁anap
interferon
▁prolongation
▁(1,
▁synap
▁isot
▁trials
▁substanti
teroides
▁instantaneous
▁unex
▁cereal
▁intral
▁vesicles
▁osteoporosis
▁plotted
quat
kilodalton
-3-
▁equi
▁6%
41
surgery
▁coincided
▁EI
▁atres
ensin
▁hemorrhages
▁restoration
▁ferritin
5.
▁kb
apatite
bisphosphate
▁photoperiod
rague
CMV
imental
pecial
▁quies
▁Scale
▁energies
▁laevis
▁reoxygenation
ulatory
▁prolonged
▁intakes
▁cerebellar
thysm
▁uric
▁physician
▁conduc
▁alcoh
.8%
onorgestrel
▁illumination
▁amphotericin
fulness
fied
▁cytostatic
▁participant
dopa
▁albuminuria
▁34%
40)
▁2,6-
▁infar
▁pene
▁lipophilic
ecretion
ordance
▁catecholamines
130
▁mathem
adap
▁stresses
▁antidromic
▁acquiring
▁reasonably
nary
▁MHz
pharmac
therapeutic
osine
iotic
▁nystatin
▁Factors
ycl
▁97%
▁advan
▁construc
fts
-4
▁salic
▁ganglionic
▁231
convul
▁factorial
▁discrep
ostomy
▁convoluted
potassium
kets
▁24%
▁dyst
▁Exposure
▁2.9
rosophila
▁inactive
▁currents
▁slows
▁carcinogenic
▁Adenosine
▁dimers
▁iat
acrine
▁principally
▁isolate
odend
▁liters
lipid
▁pharmacology
▁homogen
▁distor
▁unm
▁.0
▁16%
ofol
▁rated
▁DTH
▁26%
▁examin
▁preferentially
▁questionnaire
75
▁ventilator
18)
▁immunofluores
-23
▁proline
▁patent
▁AE
eeding
▁substituted
▁serolog
enem
▁frog
▁erythrocytes
▁thromboembolism
Hep
▁cytogenetic
uation
▁coded
▁Bec
▁psor
▁conclusive
▁sha
ilical
▁congruent
▁grafting
▁durations
▁enrolled
cAMP
▁normalized
▁labile
otoxic
▁antagonized
▁9%
▁classifying
▁disrupted
▁reproductive
3%
▁fractionation
▁relapses
▁electrophoretic
▁aceto
▁10.7
ials
▁1978
▁AMA
▁Cancer
▁clustering
3;
▁supra
▁0.95
phospho
▁masking
▁guanidine
▁diclofenac
▁postnatal
▁alfalfa
lactamase
omegaly
carinic
tively
welling
▁1989.
▁1.38
▁Angi
ilol
▁20%.
▁messen
▁Swed
▁coronal
▁2-
▁neurogenic
▁spasm
oxyrib
▁melanomas
▁unmyelinated
peak
aminated
▁whee
▁thromboembolic
ofib
▁insult
lebrand
duced
▁18.3
▁colos
onit
ochemistry
HM
blastine
▁cooperation
▁dimer
▁parv
▁microvilli
otriene
▁tolerate
phyrin
▁fric
▁refine
.5%,
▁thermodynamic
▁10(
▁anaerobic
▁genomes
apular
▁000
▁topical
▁endoscopy
30,
▁answ
▁parturition
liters
▁88%
dry
osid
▁0.2
glycerol
▁embryogenesis
▁mastectomy
olol
▁cleavage
▁preload
▁EG
▁Heparin
▁Doppler
▁elevating
▁calves
▁fimbriae
idity
median
1.1
amily
RIF
▁MPA
▁(6),
▁angi
oproteins
▁trich
▁fertil
anide
-20
▁keratin
▁phospholipid
▁myoglobin
tris
▁32
▁instr
▁100%.
noea
odop
▁HTLV
▁satis
▁lacks
▁disseminated
▁reflec
▁athe
operoxidase
▁6.8
othyroid
▁knife
-9,
▁increments
▁airway
▁(51
▁constipation
-1.1
▁complementation
▁impair
Hb
▁denervated
▁Tx
▁contracting
▁167
opril
▁delineate
▁periodontal
▁tertiary
▁methanol
▁conserved
▁Asc
othi
▁descriptions
placement
▁threefold
acyl
▁kidneys
▁56,
▁impulses
▁androgenic
▁cytometric
▁baboon
ylobacter
6/
▁esterase
▁(93
PaO
▁(63%)
▁mutant
ponential
lectomy
▁dosed
▁slic
▁(0.8
▁baths
iron
▁(+)
-0.
vail
▁orthodontic
acin
▁95%.
oretic
▁Veter
▁outbreaks
▁organic
▁synthetic
osts
▁progressively
ensities
oxic
▁GTP
oplasts
▁promoting
▁ambul
▁BU
▁concentrates
▁symme
▁MICs
▁yrs
▁pathogen
▁oligomers
isal
▁baboons
▁acrosome
▁catalysis
nitrophenyl
▁Clostr
▁thoracotomy
urinol
▁waveforms
lycosylated
-2)
anav
▁antec
▁employment
▁degranulation
▁atrophic
▁pulsatile
▁solubilized
▁monke
▁infectivity
▁withdrawal
FEV
▁cultured
▁obligatory
▁pressures
▁5.5
▁doublet
terol
▁spondyl
▁63%
▁spermat
trig
▁superf
▁axonal
▁anticancer
▁dB
▁distinguishable
▁aided
▁synthesize
▁Thir
illance
▁20.5
▁alcoholic
▁neoplas
terminus
▁deferens
irectional
▁Ure
usal
▁cirrhosis
▁encodes
▁antibody
ETE
-1000
67
thyroid
▁overestimate
▁Autoradi
▁pren
▁hyperoxia
▁cytology
▁autosomal
lactating
/2
mitoyl
/4
▁(0.5
▁treatable
▁comprising
▁molar
▁cruz
▁epithelial
▁illness
▁househ
▁hypoglycemia
▁66
▁preferential
lys
ivary
-70%
▁muta
▁sclerotherapy
conventional
▁retroviral
▁dendritic
urement
▁innervating
ritic
1.5
▁brains
▁universally
▁perif
▁BN
▁superco
▁alkalinization
▁solubility
omatostatin
▁0.66
▁spanning
▁7.
▁hematoma
▁Electrical
▁tensions
onatal
▁(76%)
▁0.88
▁metabolite
▁sigmoid
▁adsorbed
vinyl
▁(68
▁-4
3'-
▁1---
▁implanted
▁0.19
▁sacrificed
▁immunologically
▁secretin
ympathetic
▁noradrenergic
▁enlarge
▁granule
▁heparan
tib
ochondr
▁sphero
▁thromb
▁(45%)
epid
▁sorb
▁examined
39
17
▁controversy
▁competi
▁harvested
)-1
▁exchanger
itoneal
▁ultimate
alic
▁anemia
▁transaminase
▁Hig
▁ambulation
▁(-)
▁monocytic
▁necropsy
▁virgin
▁NADH
ograms
▁kcal
compared
▁usefulness
(4
▁CEA
▁hypoplasia
▁perc
▁aggregated
istically
ynure
▁sexually
▁pertussis
10-
▁seroconverted
▁labelled
▁chickens
▁acoustic
olamide
anada
▁preeclampsia
▁0.90
▁glucuron
▁detecting
▁1.02
crist
.1,
▁institutional
▁propofol
▁polarization
▁polymeric
▁2,3,
/90
▁cyclic
▁RP
▁Glucose
▁tuberculin
yronine
▁transluminal
ogaster
▁urography
▁aspir
▁synaptic
▁3.9
▁80%.
inated
posure
▁ureth
▁Oral
▁(1%)
▁collateral
topril
▁ribosomal
▁dobutamine
-5.
▁EE
olestero
▁nucleolar
▁243
▁vinblastine
▁diminished
oves
▁multil
herol
herence
▁hippocampus
onidine
▁0.03).
uates
▁unfol
catalyzed
▁adipose
/5
▁Ninety
▁newborn
▁positional
partate
estive
▁simulated
cholanthrene
▁0.6%
uppressed
▁intrath
▁deformities
▁LTB
▁monospecific
PB
molecular
tory
▁compartment
12,
▁antichol
rotein
▁haplotypes
otropic
▁digoxin
▁sphinc
▁clothing
cessive
▁LD
organization
▁neonate
▁spatially
apsulated
▁macropha
calcium
▁retrovirus
▁prosthesis
▁amn
▁vomiting
▁demonstrable
▁weighted
▁noc
▁resec
▁radiological
5'-
▁glutamate
TCA
▁(1991)
▁dips
▁jugular
itonin
entif
formin
▁initiation
▁wearing
▁coexis
▁dextrose
▁numb
▁1.2
▁NH
▁intraluminal
▁gonadotropins
▁sepsis
▁10)
membrane
ganese
llig
▁(3)
kinins
▁154
5,
▁Neither
▁1500
anese
▁palsy
rachial
▁replicated
▁hydroxyapatite
verbal
arying
solubilized
orrhea
▁TM
ignant
▁deoxyribonucle
-41
mitochondrial
▁precordial
▁hypothalamic
▁Identif
glucosidase
▁ketoacidosis
aned
▁TD
umptions
▁Reduction
deprived
▁neoplasm
-50%
-30
imetry
▁constellation
titut
▁spinal
5,000
incip
▁autopsy
folate
▁supplementation
▁membrane
▁doxorubicin
▁3.8
ergenic
Thy
▁interventional
▁diuretics
uspid
iception
vasive
-2.0
oscop
▁37.5
plenic
PLC
▁contral
repres
▁copper
▁transferase
▁0.2,
▁Retrospective
▁conclu
▁conto
trol
ysts
▁manufacture
▁immobilization
▁67%,
▁institu
▁pM
▁vena
▁vap
▁hypoxia
▁hyperemia
▁circulating
ofen
▁distorted
▁(3),
cephalic
oxone
▁synapse
azone
▁myc
▁pige
truction
▁labelling
▁(2,
▁1.9
etaz
▁0.001)
graft
▁abortions
NIDDM
▁nox
ibrate
▁Haem
sive
lymphocytes
▁Restric
▁limbs
▁reliably
88
▁nitrate
orporeal
▁fibr
matched
▁eliciting
▁roentgen
▁elbow
▁hippocamp
▁accounted
hemical
▁8-
iesis
▁histones
fiber
▁skeleton
▁ribonuclease
ylyl
either
IIIa
▁transp
▁FU
▁130
ystolic
Hg
primed
▁MW
▁melanoma
▁spine
atified
ercise
▁allergens
▁fumarate
obase
▁Ringer
▁kain
▁Tf
▁thickening
isomer
▁mesangial
asthmatic
▁Membrane
andros
▁implant
▁lengthening
▁hemip
oxifen
-4,
▁Engl
▁establishing
▁4.1
▁opportunistic
cephalus
▁hormone
▁fascic
▁lateralis
▁naltrexone
▁40,000
▁complications
▁megakaryocytes
terologous
▁propria
▁caregivers
▁verteb
ereb
▁fungi
▁0.01
▁excised
gulation
▁quantitated
000,
tectomy
icardi
▁constituted
▁manifestation
▁interruption
▁brush
▁antagonism
▁clindamycin
encephalic
▁valpro
VT
▁cyclosporin
▁Physiol
▁leuc
examination
▁Large
othionein
echn
calmodulin
▁ionomycin
▁stratif
▁mefloquine
▁drip
▁(1/
▁0.3%
ucl
aminidase
atonin
andida
derived
▁interferes
▁revertants
▁amenorrhea
▁gradual
▁overweight
▁postnatally
adox
▁albicans
▁muscimol
achy
irds
▁cytolytic
▁isothiocyanate
▁baroreceptor
▁sexes
microglobulin
▁culturing
yx
emius
▁overexpression
▁urot
▁Generally
thromb
▁splice
▁efficiencies
▁colonic
▁22%
ocyan
roat
▁triamcinolone
▁globulin
▁vitreous
▁procollagen
▁pathology
▁progesterone
incidence
▁alkal
▁agonists
▁emergent
▁skinfold
▁capillary
:1)
▁astrocytes
▁irrever
▁synapt
▁51%
▁NSAID
▁occasional
SHR
▁carbohydrates
▁sperm
▁(21
▁stringent
▁infiltrating
▁buffered
releasing
▁strain
▁10(-9)
▁inad
esthesia
lesioned
exper
-2.5
▁hazard
▁antiarrhythmic
▁112
ritis
▁diastole
▁pelvis
onset
▁Holter
▁HCl
▁(60%)
▁pineal
▁IOP
▁intras
omann
▁LH
▁limiting
▁intoxication
▁cathepsin
▁mann
▁underg
.7.
▁identifiable
▁hyperplastic
▁Seventeen
AVP
▁quotient
15
▁Inte
▁aims
▁analysed
astric
pyruvate
▁5.4
5).
▁acne
▁conservatively
hers
trexone
endocrine
iaz
▁acyltransferase
▁headaches
phrine
iatal
▁inosine
▁148
▁30%,
▁acetone
▁DOCA
▁survive
▁Incubation
assively
▁contributing
ilateral
▁1.16
razolam
▁gestational
cnemius
▁dyne
otides
▁Sepharose
▁vulnerability
▁GlcNAc
leukin
▁favorable
▁anomaly
▁264
▁cirrh
jec
▁endocytic
▁apnea
esides
cycl
▁(500
▁banding
▁utilize
▁PCB
▁axillary
▁uteri
▁outflow
▁macros
▁neuropeptide
lethal
450
▁85
▁mineral
▁29%
Daw
sizing
▁adduct
▁80,
olipid
▁Physi
4%
▁compromise
▁360
basal
unced
▁CAH
▁vagotomy
ionate
bred
▁erythropoietin
▁decompression
lymer
aminoglyc
▁1.6-
▁attending
▁instrumented
▁dilution
▁90%,
restingly
▁contraception
uin
ochle
▁isoelectric
Trp
iciencies
▁comprised
▁24-
oreactive
▁crosslinking
▁278
titution
portant
▁anticonvul
Ns
tituted
▁sparing
▁reti
▁sti
▁starvation
idylate
nucleotide
▁disruption
▁(20%).
▁CaCl
ohydrate
▁calving
▁(75%
▁provoked
▁drops
hepatic
▁compromised
▁relaxant
idium
▁potency
yroxine
▁quinine
▁vasoconstric
assi
▁helical
▁CBA
▁resuscitated
▁snoring
inositol
▁characterized
▁(0.6
▁DVT
▁Centers
▁benzodiazepine
▁5.8
▁acetonide
elves
plies
junction
▁pellet
ulmonary
▁antrum
▁(2-
ivoc
ectomy
erculosis
▁synthesizing
13.
▁binds
PTCA
▁NGF
1)
▁indis
▁1/3
▁Prel
50.
▁albic
2).
stress
onyl
thre
▁angiogram
▁DL
▁duodenum
▁packed
▁sufentanil
hCG
▁precipitate
lymph
▁villus
▁1982
atched
▁440
▁Accordingly
adecan
▁hypoxanthine
siella
▁recirculation
▁fluores
4%)
▁symptoms
▁sulcus
ocrom
astolic
▁feline
86
▁doxazosin
omiting
▁85%,
▁adherent
▁Optimal
dividual
▁GVHD
▁continuity
▁(0.01
▁6).
6.
▁tectum
▁serotoninergic
▁flour
imurium
▁Thyroid
advan
oacetic
nitine
▁methodologic
▁ovid
▁ether
▁prevention
▁globin
▁trigg
▁abnormality
olon
mercapto
▁1984
▁fertility
▁curriculum
▁myometrial
▁phenomena
oxybenz
▁hirsutism
ticular
▁malignancies
50),
▁sphe
othel
▁750
▁shif
▁curet
▁proportions
▁resusc
▁posttrans
▁schiz
▁lysate
noradrenaline
▁alanine
▁12)
▁interpretations
▁Absolute
▁parap
▁tablet
3.1
▁galact
▁perin
▁incisors
▁splicing
▁mammography
enoic
▁Hodgkin
▁densit
▁assessed
44,
▁gemfibrozil
monella
▁LDH
▁prostatitis
eradish
▁BD
▁alcohol
rocyte
▁saturation
▁disability
▁fasted
▁diabe
duc
▁344
0-
▁extras
▁IgA
5/
▁depres
▁benzo
▁nephrotic
▁urinalysis
▁EH
▁hereditary
HCV
▁thems
▁0.
-4.5
▁Sulf
▁(27
waves
▁seronegative
▁interne
▁empirically
ylate
▁tetrodotoxin
▁Maximal
essive
▁nonsmoking
substrate
naph
▁etretinate
ogran
▁IGFBP
▁unsuitable
▁phospho
▁MN
▁5%,
▁200,000
▁disorders
▁phosphatidic
estis
▁affective
▁respon
▁omega
▁HLA
▁concomitant
olem
vular
▁serotonin
▁270
(3
▁(1).
▁1.47
ocardi
▁intubation
▁methionine
icine
▁entrop
▁cac
cepti
▁LC
▁plac
microliters
weed
atible
responding
mum
▁monoxide
▁bronchus
▁shortened
hans
▁blunted
▁congestive
▁CaM
▁connec
▁dissociation
erum
▁unim
iferation
vascular
asic
-34
▁immunocomp
ews
ploy
▁VH
.5)
▁5.8%
synthe
▁drinking
▁205
▁vitamins
ifferen
orepinephrine
tails
▁methylene
omotion
HTLV
cg
otamine
▁interviews
▁PGs
▁SRIF
▁MRI
▁tolerated
CDD
▁euk
oprotective
▁inapp
▁exceeded
▁heterozygous
▁gastro
▁quisqualate
▁inactivate
orh
ytes
olution
▁spermatozo
▁radiographic
▁insignificant
▁dichroism
▁aneup
▁clinical
▁statistically
hydroxyp
▁vein
afibrate
nate
▁ect
▁303
▁Gs
▁ryanodine
idne
lood
▁0,
▁gum
▁antihist
▁sedative
▁uncovered
▁exercising
arity
72
▁psychosis
▁beds
▁adjustment
▁bicycle
▁jejun
MV
.3)
▁statis
▁0.02
▁1600
▁suggestive
▁hypnotic
depleted
aethylammonium
▁synchronized
▁cortices
▁monocyte
ascular
▁chym
▁102
▁Extr
embryonic
dihydro
101
▁oxidase
inhibitor
▁59%
▁Thirty
▁addiction
▁Kinetic
pergillus
-5,
▁gynec
rans
ocortic
▁lambs
▁olfactory
▁dissoci
▁housed
▁sensitizer
▁thymidine
▁Adverse
▁chemotaxis
okinetic
ospitals
otoxins
▁conjugate
▁detachment
▁antibodies
▁MEDLINE
▁intracellular
entricular
▁chlamydia
▁schizophrenia
▁photon
▁vitre
▁RAS
▁normo
▁diagnoses
Gal
substituted
▁pyrid
▁polyoma
MIC
ecu
▁Coronary
▁biologically
iph
▁amitriptyline
▁Barrett
▁(40
lycerol
▁hepatectomy
▁cytometry
▁(2),
▁(10(-5)
▁lymphokines
▁improving
▁thyrotropin
▁suppressive
▁isovol
iphenyl
▁cytologic
lact
0%,
bodies
▁tetra
▁collaterals
▁assay
tomized
▁differentially
▁Educ
▁abilities
▁1983
teroidal
▁twofold
▁128
▁progres
▁oxime
contracted
▁correspondingly
▁raises
icacy
▁progression
▁Melan
iters
▁ratios
▁identically
sized
▁ionic
▁cris
▁50%
▁decline
▁quinolones
isters
▁(15%)
▁homogeneity
▁predisposition
▁evid
▁mares
ields
▁vasopressin
Phe
ture
arge
▁hydroxy
▁antagonist
▁depolarized
▁neutralized
▁1.3-
▁attendant
coup
▁ascorbate
trop
▁cen
▁CSF
▁leprae
iciently
alian
▁fibrillation
omatous
▁ketone
▁enantiomers
▁stump
oxidation
modulin
▁Cardiovascular
44
▁shifted
hydryl
▁constituents
▁Seventy
▁PN
▁hyaluron
▁Sequence
▁mans
▁Schwann
portun
▁ibuprofen
etine
odil
▁diary
opamine
valvular
dine
▁distin
▁genitourinary
accharides
▁commiss
▁rodents
acental
▁dyes
▁-60
chymal
▁(2.2
tox
▁corticos
▁estrogenic
▁triphosphate
▁IgE
cardiac
▁medulla
5%)
ygdal
RBC
▁(1985)
▁granuloma
ophen
vastatin
▁sore
ureth
seven
meth
fine
iclovir
▁ances
▁canine
▁prolif
▁bacteremia
▁spermine
▁contamination
▁dissolution
▁Oxygen
kinje
▁cytological
▁phle
phosphatase
▁establ
▁tandem
▁uncoupling
▁spirometric
▁120
orbol
▁Angiotensin
▁abor
hydroxyphenyl
-/
orable
▁subdivided
acting
tering
▁(54
▁bilayer
olac
21.
▁peroxide
imination
sities
▁myelin
apillary
ancreatic
▁1981
▁Previous
effec
▁multim
anin
▁follic
▁exert
▁ICAM
▁0.4
▁hypot
▁sublines
▁beneficial
▁progenitor
▁drinkers
▁ketoconazole
▁tibial
▁sput
proliferative
▁centr
▁diethyl
▁initiate
thmatic
▁prostacyclin
exis
roitin
▁pretreated
▁isolation
lective
cycline
▁10(4)
▁rosette
▁Hyd
▁overl
▁15)
▁hypercalcemia
▁deposition
osclerotic
othalamic
ronch
▁hapl
▁oxygen
Tl
▁nevertheless
▁ewes
stole
▁asthma
▁anticonvulsants
▁retardation
enters
▁-0.3
▁endometri
▁surfactant
occlusion
▁20,
▁chromatography
▁prelabeled
▁pallidus
▁insertions
sodium
affected
▁conditioning
▁amygdal
kD
▁WBC
▁3.4%
erule
▁carpal
fibr
▁anaesthetized
▁pubertal
▁antimicrobial
▁concentrated
▁10(-7)
resid
▁Mortality
icardium
alsy
▁cathe
▁strikingly
▁micronucle
▁enkephalin
▁immunodef
inhibitory
rocy
ilution
▁incidences
ocin
KD
▁(0.25
2+/
▁struc
-28
▁prol
▁cystitis
▁lens
aturia
bronch
▁Somatic
▁dissemin
▁quantit
GnRH
optic
tinu
uprofen
ophor
▁elucidate
cervical
lases
otassium
vedilol
▁antis
▁basal
▁histories
residues
▁seques
▁cran
gans
▁plates
rostaglandin
▁liposomes
▁CRF
▁metic
0%;
▁rhe
▁prednis
▁PGE
odgkin
oactive
6,
▁prodrug
▁aspartic
▁(53
scc
▁nuclease
▁3',
▁49,
peptide
ifugation
▁corpuscular
inone
ATP
thrombin
▁withdrawn
▁157
(2+
virus
▁electrocardi
▁mell
omethyl
▁complementary
▁spray
▁neuro
oxy
▁cutaneous
charomyces
▁241
Tyr
▁cuts
enone
▁latencies
▁Cushing
erge
uantitative
erebellar
ocalcin
▁basilar
▁permeable
14
iodarone
▁cellulose
▁dys
▁encomp
▁dextran
▁ellip
-7-
▁chrys
▁radioligand
▁COS
▁nickel
▁crystals
:5
leucine
▁1:
▁resembled
▁potencies
cyclic
etence
treatment
uoden
▁overestim
yclo
▁juxta
▁thymus
▁ovarian
rofen
▁neurites
▁Enzyme
▁0.03
▁streptozotocin
ductase
esarean
▁polymyxin
▁adjustments
aund
▁reproduced
▁7.1
91
+,
comitant
▁SIDS
osocial
▁confirming
▁embryonal
olerant
▁puls
▁hydrogen
zine
▁favourable
▁motility
▁reveal
▁upward
▁recruit
▁mesencephalic
MAb
osystem
▁trout
tensives
▁mumol
▁hep
▁nonfatal
▁intraper
reacting
genesis
0.6
▁solute
▁anoxic
▁60-
▁antiviral
▁helic
▁perox
▁daytime
infusion
▁1-2
▁reinforce
▁melanogaster
auge
▁locomotor
▁ubiquitous
▁pollic
▁peptid
-2),
▁motile
cortical
▁hepar
▁asymptomatic
▁transiently
timum
▁Longer
▁1.4
estim
uble
systolic
▁archite
borne
rease
chool
▁yielding
%),
omal
▁transferrin
▁Systemic
NIH
▁lectin
▁injecting
nisolone
▁Ala
▁bim
rophilic
▁(20%
▁therap
▁316
-1-
erad
▁hematopoietic
▁venom
▁pipette
bral
▁HB
▁pH
▁upright
▁assessing
▁poses
phosphate
▁hyste
olam
immun
▁transloc
-(2-
▁permeabilized
▁restrictive
Gs
▁failures
▁fatty
▁intravenously
▁Indo
atical
57
▁1986,
▁adhesion
PSP
▁practic
existing
▁fistula
▁dialys
ighting
oside
carbon
▁postoperatively
▁proes
▁SMS
▁sedation
▁91%
▁saliva
globulin
omere
▁erythromycin
▁lam
▁phosphorus
▁receptors
▁microelectrode
activated
eptid
ygo
utaneously
▁mutated
▁MK
adherent
▁classify
▁vegetative
▁Ultrastructural
▁(1:
▁bilayers
▁lae
factors
▁progeny
▁-6
▁malarial
▁menopausal
▁cyclical
dT
atoid
rophic
▁ana
▁KC
atase
▁blacks
benzyl
alities
▁foci
▁lactulose
▁hyperb
lastoma
▁trophoblast
▁improves
▁isomer
▁cephalexin
▁5
ressed
▁irreversible
▁1.66
▁veins
▁confirmation
acycl
▁EPR
▁anat
▁Sout
▁Individ
▁reflux
ocap
2'-
▁resum
▁facilitating
epit
▁nosocomial
▁chloramphenicol
azoxan
▁carcin
19.
▁Examin
▁asbestos
▁outlined
▁wrist
▁irregularities
▁212
promoting
sied
alb
)-2-
▁participates
▁coupled
1%)
▁cerebrovascular
▁soluble
▁freshly
monophosphate
▁alkylation
▁76%
▁dyspepsia
yel
albuminuria
▁CNS
▁cystein
▁HBeAg
▁insensitive
▁ethnicity
▁lipoprotein
▁Incidence
▁7.5
itness
mented
▁merit
▁noncompetitive
▁postex
▁UTI
▁PMN
▁incubated
-2'-
▁validated
▁lymphocytic
▁histochemical
▁practitioner
bloc
▁abstinence
genous
WB
▁immobil
macropha
macrophage
▁sulf
apsular
16-
▁pacemaker
▁increasingly
glutamyl
orporation
▁examining
dyn
▁COOH
▁zymosan
▁osmotic
activating
umerous
▁myometr
▁granul
▁prescribed
▁EDTA
▁staurosporine
▁transported
▁transducer
▁vesicle
epines
▁AGA
fractionated
icep
▁dried
▁actively
▁photoreceptors
▁reactivity
170
8+
▁progenitors
▁fibrill
vents
▁apoB
▁bacterium
operated
▁BH
rogra
▁regenerating
▁EPSPs
▁granulocytes
700
CNS
▁congr
▁colposcopy
▁preoperative
▁70%
▁arthroscopy
▁hrs
▁1.4%
ifferentiation
-100
radi
adjusted
▁92%
diol
▁obstetr
▁yielded
▁perforation
omplete
phrag
▁densely
▁68%
RV
fication
4,5-
9,
23187
onitis
▁succinate
▁messengers
▁dihydro
▁nadir
▁47,
visc
▁spati
▁SMC
▁releasing
ochrom
▁ELISA
▁Tm
▁extrac
ulants
▁1977
▁Parents
▁transcrip
▁(97
atibility
▁uter
cystic
▁consecu
▁13.3
▁babo
hentic
▁MCV
ogenes
▁albino
gradely
▁87%
vation
shock
▁suicidal
▁extremity
▁lymphoid
sue
2.1
▁mono
▁2-5
rk
BT
significant
▁sph
▁yearly
34
▁circumference
esium
▁100,000
▁explanations
▁elderly
rostenedione
▁gag
▁gradients
sensitive
ocarcin
64
rangements
▁GABAergic
plas
ceptions
▁WGA
▁strains
▁hams
tidine
▁(199
▁ASA
▁sympathe
orate
▁affec
▁spliced
mediately
othermic
▁gases
myc
▁electromagnetic
▁APC
▁defibr
▁percutaneous
▁70.
atosis
▁surge
▁3-4
▁Combined
▁preceded
EAE
hemagglutinin
▁objectives
turing
-1/
▁produc
PCR
cence
▁2%.
▁increas
vant
▁IDDM
entified
/100
▁intran
45
▁comprehensive
66
-6,
▁discharges
hetamine
▁oscillation
omyce
▁kerat
performance
▁proteins
▁AKR
▁amines
▁coeruleus
-90%
CAH
▁distal
▁thym
▁thyroxine
▁sclero
▁hybrid
▁72%
▁103
▁dihyd
osomes
▁reversibly
6,000
▁indwelling
effectiveness
▁alopecia
osus
▁urea
▁chemot
▁substantially
ortal
italopram
▁1.
confirmed
▁monomers
▁quinacrine
▁carbohyd
tization
▁retur
▁hyperg
▁Epidemi
▁epididymal
amus
▁antisera
▁triggering
▁preschool
carbonyl
plications
riend
▁atopic
▁granulocyte
▁fluids
▁pathogenic
▁inverted
▁viewing
pinephrine
▁pulmonary
▁knee
▁shorten
▁TS
▁alterations
tabl
▁gastr
▁evolutionary
▁incompletely
▁thi
▁25-
▁loci
ellular
▁20%,
bindin
▁prognostic
▁redistribution
ece
▁progressed
▁0.001),
▁fulminant
eraldehyde
▁borderline
▁210
▁TEA
▁osmolar
▁2.5
▁Ile
▁1.0
▁vertigo
▁operon
▁thrombolytic
▁uninter
ubular
▁sensi
▁0.1
▁subun
▁paralle
▁follicular
▁vertebr
▁nontoxic
icillin
▁intrad
rogenesis
▁kainic
▁topically
tamine
ctomy
▁strips
▁83%,
▁origins
▁Attemp
▁fusions
▁solvents
▁ORF
uric
▁diarrh
▁midazolam
▁admission
▁glioma
▁detec
MAbs
▁vaccines
infected
resc
▁portions
▁trypan
ilized
ncy
▁continuously
▁lipids
▁6
oskeletal
▁OA
▁pK
▁FGF
▁reinner
enicill
esthetized
▁niacin
▁oncogenes
▁relap
VIP
▁hypothetical
epin
havioral
▁nulliparous
▁nuclei
odds
▁lyso
phosphates
▁millili
▁LAD
▁hypothal
▁menstr
iatr
▁Epidemiologic
.4%)
trogen
lyce
blinded
▁RBCs
ogonad
osal
yrin
▁carriers
▁wash
quam
▁margins
▁Fifteen
▁coag
▁0.5,
▁Radi
▁smo
▁desirable
▁serotypes
kinin
▁9.7
▁circulation
▁dystrophy
oxybenzamine
▁accidents
plying
▁capsules
▁reserpine
▁fallopian
Glu
bladder
ectomized
▁0.5%
▁cis
▁rationale
heum
asal
olp
osteroids
▁exercises
plicity
▁monoc
92
▁compli
scheduled
▁60
▁nonp
adily
VH
early
▁secreted
▁hypercalciuria
cephal
▁coval
ploid
7,8-
adykinin
▁Leu
rotoxin
▁photosynthe
atinum
▁MMC
▁intrinsic
▁sca
▁synchronous
elong
▁stu
▁poisoning
▁bupivacaine
oste
▁conducting
retion
▁nebul
▁oligonucle
SEM
▁genetically
▁plasmids
▁volunteer
▁gels
orhinal
▁5'
▁haemorrhage
▁7.4
▁TATA
ication
▁Infusion
69
▁shocks
▁cyc
▁effectiveness
ysin
▁inhib
ocalization
▁peptide
▁paras
▁barrier
16
▁abscess
Sepharose
▁Langerhans
actin
▁chimer
▁pig
portion
▁reviewed
▁galactose
▁pooled
-75
abain
Fc
▁6),
▁rosettes
arrhythmic
▁Approximately
▁proges
▁(95%
▁gonadal
▁agglutin
▁14.8
▁14%,
▁decarboxylase
▁diluted
▁parasite
ecan
omain
103
▁antigens
▁triti
uridine
▁Lung
▁insemin
hydrox
▁KD
▁10.5
▁simian
dalton
▁10%.
▁multicenter
▁polyps
▁-5
▁hydrophobicity
emory
▁secreting
▁contracep
▁paramagnetic
aternal
rae
▁attrib
▁supervised
▁handic
▁menstruation
idime
▁glucosamine
▁subend
-43
9/
▁typhimurium
▁grip
▁granular
▁inhibits
▁pools
usp
selec
oblastoma
▁necro
▁scarring
▁zeta
isomerase
▁intox
▁meq
▁fungal
hist
acholine
orrha
natal
▁withdrew
mortal
ographies
trypsin
oprote
formyl
▁maize
gthen
▁inulin
▁variability
▁suction
▁multic
ervoir
▁macrophage
hypertensive
otor
stimulated
hion
▁horseradish
adm
▁Continu
▁shortest
▁oesophageal
erts
▁biochemical
ejun
oxins
▁syndrome
▁solids
▁0.76
▁arrhythm
▁anab
timal
ectin
▁goiter
▁infused
▁TRH
prostaglandin
iary
acyclin
sulfate
▁coagul
▁tubules
▁HN
erbB
▁defec
lactams
87
▁broader
▁16%,
butamide
▁inclusions
unctiv
▁terfenadine
rography
0.9
▁mononuclear
▁flashes
.4
ulin
.00
▁Dip
onin
▁regularity
▁electrode
ishmania
▁buc
13
▁repaired
▁proteases
▁aden
▁sectioned
▁aimed
tin
▁modalities
▁anaesthe
▁sows
▁leukemias
▁interstitial
▁Combin
▁CRH
▁homogenate
stimulating
▁interfering
▁gyn
▁feces
▁Previously
▁Alterations
▁receptor
▁triplet
enkephalin
▁monocytogenes
▁labeling
▁kinetics
▁asparag
worm
▁Rb
embedded
ivered
degree
permine
itr
▁Cd
▁centers
▁posture
▁hypothesized
▁1,25-
▁Balb
leuk
bacter
▁prophylactic
▁singly
▁fathers
hyp
▁LMW
43
▁regulates
kic
7),
▁199
▁undetermined
▁dendri
▁prenatal
▁monocyt
▁uni
▁Average
tenolol
▁contributes
▁(78%)
▁1.21
▁cate
omers
▁fivefold
▁footprin
▁gluten
ometers
▁Nucle
▁harb
▁chest
aric
tative
▁invasive
▁waveform
▁prophyl
▁contralateral
▁sarcolemmal
▁Analyses
lora
reactive
▁promoter
▁decades
▁1988).
distal
grees
▁secretory
▁7),
▁rises
21
▁vivo
odynamic
▁endosomes
▁metast
▁differentiation
▁10-20
30
▁exposure
▁ipsilateral
▁luteal
▁pits
GTT
tiary
▁leukotri
-2.
ionyl
endorphin
▁oleate
uity
idate
▁smoking
▁esophag
▁2,3-
aterals
▁phosphoprotein
▁prox
usively
▁irritant
ographed
dimethyl
▁adiposity
▁mothers
▁ori
▁membranes
▁4-
▁fibros
▁TB
▁qualit
roprus
▁pyridoxine
ituit
▁murmurs
▁trimethoprim
▁analyzing
▁deaminase
▁ocul
▁submandibular
olgi
▁atri
▁predomin
▁0.87
▁intracerebro
heresis
▁impedance
requency
-600
▁MgATP
▁spiral
▁lineage
▁DMBA
▁supine
▁hypoxic
▁underlie
atoxin
▁illus
UV
▁bradyc
▁toxicities
▁recirc
▁21.2
▁insom
▁174
▁seas
▁extrahepatic
phragm
▁adriamycin
lec
▁abrogated
▁MRL
▁pathophysiology
▁fibrinogen
▁(40%)
ologic
▁investigators
▁macromolecular
▁aerobic
ensitized
▁1(
ulae
▁equipotent
ighted
▁discriminant
▁13%
▁sequenced
▁exogenously
primarily
▁95%,
▁suspension
tolerated
▁1.4-
hydro
▁sphincter
▁tumorigen
▁microelectro
myrist
▁submucosal
▁286
▁RPE
ogel
▁estradiol
responsiveness
▁wk
rophyll
▁adipos
ucle
reased
opharyngeal
acetamide
▁haemodialysis
-13-
▁catab
molec
▁vasoconstrictor
▁papillary
▁menstrual
▁visually
▁socioeconomic
▁absorbable
▁stool
▁neuros
▁shunting
▁carbam
AH
omagn
▁0.07
▁ventilatory
rences
▁8.4
▁3/
▁utero
phosphatidyl
erican
▁undergo
pharose
ervo
orsk
imaging
▁ata
yclic
▁125
lline
▁TI
▁valvul
arynx
929
robial
▁FH
.7%
▁1974
▁fec
▁(3
▁shear
▁cephal
▁cryst
▁ascorb
▁(2.4
▁microscope
▁vertebrates
▁lymphocytosis
▁GF
▁mammalian
ovalent
▁tyros
▁oligonucleotide
ainide
derly
meas
▁Asi
▁respiration
▁isoprenaline
▁stereospecific
iatic
▁cardio
amilies
▁MMS
▁(1.25
▁nephrotoxicity
atient
▁stab
ilic
▁sciatic
(3)
▁dendrites
▁dithiothreitol
years
▁monkeys
standardized
umbar
scherichia
▁titer
fib
▁heterogeneity
obium
prac
▁Immun
▁hypokal
▁Symptom
himbine
gestrel
▁152
▁promin
inum
▁congen
▁homoz
prin
-1+
▁3),
electrophoresis
▁smear
▁optic
▁detects
athy
▁AUC
▁additionally
▁pharyng
▁enhancement
ompan
▁unmodified
▁1.04
▁resembling
▁attemp
▁87
▁stric
were
▁arrhy
▁MCP
▁inflation
▁0.25%
▁1.18
eminal
▁pyl
▁analogue
plantable
ongue
othreitol
▁47%
/10(
mM
clinical
▁plaques
▁Surgical
▁uv
▁glutamine
▁(12.5
▁(69%)
▁itching
▁(7%)
▁avian
▁physic
establ
ophores
▁epicardial
temperature
▁55%
▁Preliminary
▁retrograde
▁oral
▁practitioners
▁160
▁pathological
▁quadrup
NMDA
pHi
▁Detailed
osidase
tryptophan
▁clamp
▁HPLC
▁218
▁immunogenicity
▁iliac
oxygenase
▁chemically
▁remn
▁swallow
▁590
▁chase
ller
coupled
Fs
rox
generation
▁prostaglandin
▁prompted
▁scavengers
gran
▁[2
▁uterine
▁underst
coun
▁bif
▁preoperatively
/20
▁stereose
ductive
▁glomerulosa
▁bism
▁thiop
oxamine
▁somat
▁tic
thymidine
▁ternary
merc
-44
oric
phospholipid
▁tendencies
▁0.005
▁IgM
odeoxy
▁chloro
▁fluo
▁CDDP
striatal
6-
lofen
versely
▁outcomes
rele
▁compensation
▁ganglia
▁serologic
▁granulomatous
▁thiaz
BPs
oidal
▁persisting
rested
▁denser
▁ppm
▁slowed
▁myogenic
▁meticulous
-4-
▁285
ocyanate
▁solubilization
ergen
sul
isqu
▁reacts
▁tetan
▁1.2%
▁sputum
ancies
centr
stro
▁argues
▁affecting
▁dexamethasone
▁speculate
▁enrollment
▁acad
▁117
ogenous
ulitis
ffinities
▁thymic
opoiesis
uestion
athe
Au
onates
▁isotonic
rotal
hiscence
erable
▁marrow
▁tolerant
obacillus
▁dermatitis
▁NHL
▁quantified
armac
▁membran
▁submaximal
▁antisecretory
cortic
imol
▁GABA
ylated
▁Experiments
ikary
▁vibration
▁4.0
▁-0.6
conjug
▁SLE
▁antifungal
▁valproic
tch
ocamp
atening
EA
,000,
▁MNC
▁framesh
copic
trophin
piratory
▁immunological
▁naloxone
ths
▁LTD
hyde
0,000
▁ICI
onance
osol
uled
▁backbone
▁Positive
▁Thy
▁mucosal
▁Histologic
▁reticulocytes
tiz
▁1).
oracic
galy
ioid
▁fibrils
▁nucleoside
▁virtually
▁xen
▁mediate
▁polypeptides
▁lupus
▁interneurons
▁(1988)
▁hap
opioid
▁psychotherapy
▁opioids
▁Preincubation
▁androstenedione
▁pacemak
4).
▁anaesthesia
▁germin
kinesis
platelet
▁Eighteen
▁dominated
ameter
▁complaints
razosin
pituitary
opped
▁hamsters
imodipine
opyran
▁biology
▁arter
tense
ethylene
appropriate
▁Reas
orrhages
▁nonspecific
▁ploidy
▁malaria
▁Neurop
▁cyanide
▁lengthen
▁FV
▁(68%)
▁rearrangements
▁(1986)
▁optimally
▁Additional
▁parab
teria
▁0.3
▁(25%
▁aerosol
▁discomfort
▁BW
glucosamine
▁healthy
▁CPR
▁39%,
▁connective
▁permeability
▁streptomycin
ventive
PCP
udation
Nase
▁injuries
▁IUD
▁dairy
▁aeros
▁cones
▁matur
▁blotting
mortality
enon
AFP
▁suture
▁neighboring
▁sugges
125
▁hemolysis
▁heating
▁superim
▁pooling
▁Groups
▁sulfated
▁occipital
▁nigra
▁stereot
▁adsorption
▁buffers
▁diagnostic
otid
ocardial
.6%)
TGF
▁childhood
achlo
▁spro
▁LVH
atriptan
▁intrac
▁compensatory
▁tricuspid
▁unrelated
ogold
▁permitting
omod
7)
uanti
▁Prec
▁eventual
ogenicity
uary
nexin
▁elective
epine
▁fluoride
rents
3]
▁ultra
▁sickle
▁murine
olamine
atinine
iomas
▁xyl
-66
inol
erated
toxin
EPs
▁psychological
tivities
oplasia
▁intersti
▁dele
▁rumen
HSD
▁lamellar
▁Copenhagen
▁methylated
▁describ
▁metaphase
▁sonographic
tryp
▁inorganic
▁Retro
▁daltons
▁intub
linic
-40%
▁hipp
▁interrup
▁exacerbation
astigo
▁randomized
▁instrum
▁irrespective
iotics
plasma
iodothyronine
▁stomatitis
▁356
▁(0.05
▁proce
.5%)
▁mesang
▁breed
▁8
CFU
▁rumin
▁proinsulin
▁previ
▁300
ondyl
▁reservoir
ingle
▁haemoglobin
▁Comparison
predic
iper
▁psychophysical
filtration
Gl
▁2.4
ovulatory
▁deaths
▁perip
ochromatosis
▁nadi
▁apop
▁tooth
▁predis
▁nicotinic
▁rhabd
▁3%.
▁hypothe
▁antibiotic
ipramine
▁antenatal
▁monolayers
▁stereotyp
▁lethality
▁surviv
▁Secondary
atectomy
▁nutrients
gian
methylation
▁phosphatases
choline
▁circumferen
trient
▁Atrial
gland
tinguishable
acetate
classified
▁varices
▁nevi
▁pate
▁systemic
▁oxide
cellulose
siologic
inflammatory
3.
▁0.42
▁1/
ectasis
▁RT
▁Differen
▁Nine
amido
▁150-
▁Metabol
iparous
▁desatur
▁mamm
GD
▁appendicitis
▁nutrition
▁Apparent
▁allogra
▁comparatively
atisfaction
▁30
▁(85%)
▁nephro
onam
idney
▁(100
▁panels
▁nucleoli
▁27
▁somn
▁occupancy
▁ubiquitin
▁interc
▁conjunction
▁uncommon
▁confine
omat
▁biopsy
glucose
heparin
▁topographic
▁phylogenetic
▁administer
tically
▁affinity
odynam
opindolol
▁extravas
▁dressing
▁interp
▁reproducibility
▁19-
▁1.36
▁7.3
physiological
▁0.005)
▁etiology
▁nonsmokers
receptor
▁prevalence
▁5000
▁LDL
▁Tiss
:2
AII
▁urethra
▁mobilization
▁cadaver
blockade
ocycl
▁MV
▁facilitation
▁keratinocyte
▁relie
othane
▁hydroly
▁concentric
▁44%
▁indications
▁Improvement
kinesia
▁poli
▁caregi
▁Localization
▁fluconazole
▁213
▁annually
ispanic
▁Diabetes
▁0.91
▁168
▁dilatation
▁polyclonal
▁transformants
▁201
▁determining
rates
▁PLC
▁rearranged
▁probes
▁343
▁beclomethasone
encl
+-
▁depolarizations
positive
▁recycl
▁villi
▁sulfhydryl
reness
ncies
▁Transient
▁necrotizing
enolpyruvate
▁perine
entia
▁KCl
▁unexpl
▁pneumonia
▁freeze
▁22.
▁mutagen
mega
ositol
geons
▁phon
▁Geor
▁Trp
▁inferred
Ms
▁glycosyl
▁traced
hybrid
CAP
▁complic
atches
▁arises
▁PEEP
▁compressive
▁febrile
▁androgen
▁stoichiometry
▁sarcoidosis
ffinity
▁0.99
rologic
ovascular
viral
▁jeop
▁Relative
▁unexpectedly
▁prospective
▁296
opoietic
oxid
▁enamel
▁20.
▁intravascular
▁crest
▁Outcome
olic
hesus
▁fluoxetine
▁isoflurane
▁ducts
agonist
▁desensitization
sial
▁Cul
▁exagger
▁endocardi
kinase
irradiation
▁congenital
mmol
▁sarcolemma
▁WT
▁kilogram
▁medication
Asp
inoc
▁endonucle
▁10.2
▁biphasic
▁esters
▁Dietary
▁cumulative
▁unin
▁nucleotides
▁solub
icardial
▁(61
▁Chemical
▁Thi
amet
▁cation
▁1000,
▁cytoch
▁MAO
sibly
▁DV
▁intrat
wann
▁elucidated
▁oxalate
▁consumed
itriptyline
▁Lactobacillus
▁DCA
▁cramp
oneu
▁remissions
0.
▁elevated
▁visits
▁adequate
▁measuring
▁hypertro
▁Mice
regulatory
▁Hepat
▁obstetrical
▁monophosphate
▁interviewed
kine
plicated
▁endurance
enteric
arachid
osmolar
▁positivity
cad
▁WK
thanol
exponential
▁pectin
ulinemia
▁cisternae
▁DF
▁hypokalemia
▁anticonvulsant
abd
▁VIP
▁unde
▁MT
▁afferents
totic
▁hype
oate
▁pressor
▁adi
▁Fc
▁bladders
antagonist
metry
▁mammary
▁glomer
▁histologic
▁(82
(7
▁odor
▁venous
etitive
phosphorylated
▁PW
uctal
ffee
▁satur
crystall
▁inducer
▁elastase
▁sequestration
▁asparagine
tice
VLDL
▁hind
trate
▁peers
roscopically
omia
▁journals
▁cigarette
▁ischaemic
▁salts
▁Few
▁anxiolytic
▁radiotherapy
▁ultrason
hydroxylase
▁idi
dihyd
stolic
▁esophagus
▁junctional
▁Overall
▁inhaled
▁166
imentation
▁pathophy
▁papaverine
▁Cultures
eptides
▁650
▁cosmetic
▁acupuncture
▁preparations
.6%
Cer
▁MCT
odip
tinguish
▁(31
▁jaund
▁OKT
MSH
▁microc
▁warranted
tus
▁150
▁adnex
physe
▁excl
-1,
uron
▁gonadotroph
▁methodologies
anic
atest
▁distinctive
▁nascent
▁thyroglobulin
gangl
ECG
▁luteum
▁circadian
▁emerged
▁dissim
▁cef
▁questioned
ystokinin
ografts
▁IFN
ycline
ometrically
▁diffic
concentr
charged
▁(84%)
▁VAS
odeoxycholic
Menten
▁obli
▁reviewing
estern
rology
icients
▁refractoriness
▁arthro
linded
▁consul
▁polymers
▁FT
▁(0.1
fentanil
95%
▁82%
▁ovariectomy
namic
▁fulfill
▁managing
▁anesthetized
ranged
tenti
▁Intensive
mur
▁hGH
▁lovastatin
gressive
endothelial
factorial
▁Chlamydia
▁Highly
adone
ocusing
▁additive
▁radioactive
▁demands
arms
▁Enalapril
▁phosphatase
▁inhibitory
▁plexus
▁steroidogenesis
▁Postoperative
▁Diets
▁0.5
▁exce
▁RR
-45
▁exogenous
▁kD
Dawley
▁BK
oconstriction
▁268
ylation
▁hypothesize
imidine
ecyl
▁ductal
ospecific
▁permissive
▁thermo
ertion
▁hemorrhagic
153
oretically
▁amplification
▁ack
▁metatar
▁centrifugation
▁ciprofloxacin
▁chimeric
ancre
▁elastin
▁SHBG
▁gavage
0.3
▁schizophrenic
▁verbal
▁chondroitin
glia
▁tracing
▁predominantly
▁arti
▁introns
▁functionally
▁diarrhea
▁vicinity
344
myr
kely
uppression
▁RII
▁NaF
▁nodular
▁diploid
▁Fat
duction
▁48-
▁endo
▁neurotoxic
▁ketamine
▁-0.8
▁neutropenia
▁microspheres
chers
▁iodo
▁3.3
▁cromakalim
▁isomerase
▁glutamic
▁amplitudes
:0
▁aromatase
ranolol
10)
Lac
▁visiting
▁HER
▁recor
xone
▁acet
▁trichloroacetic
tention
▁295
▁emulsion
▁synapses
▁phagocytosis
▁coating
▁projections
omyc
▁serine
▁nodal
▁frontal
▁irreversibly
▁Marked
▁inducibility
▁UTP
▁cytotox
▁characterizes
vely
hydroxyd
tionally
▁sediment
▁17.8
-7
▁Monoclonal
iscal
aminases
▁arb
▁porcine
▁Exercise
▁4.9
ieties
▁genome
cytochrome
▁differen
oceptor
▁nerves
1);
collagen
▁153
olscine
ocholine
▁CM
▁colloid
▁transesophageal
▁peritubular
▁mutagenesis
▁toxin
▁viral
▁evaluations
▁azathioprine
▁660
▁conferred
responsive
▁cotrans
▁obesity
▁slices
▁aspartate
▁lumbar
tochemistry
▁spont
▁practition
aturation
▁acetate
▁pectoris
obut
25-
▁Steroid
anol
▁solitary
▁branching
▁intrahepatic
challen
weeks
ylcholine
▁SCH
▁tau
▁mosa
▁galanin
▁gallbladder
▁allograft
uwolscine
▁GST
onucl
▁prospectively
-32
otine
mittent
▁5.5%
▁disturbances
▁overload
8%)
adrenal
▁colorectal
▁263
▁controver
lamb
ystag
▁hypoglycaemia
▁Lym
transplant
ondon
▁crosses
perfused
tracheal
▁consuming
ecutive
.3
▁reflexes
▁jux
▁climb
▁emotions
▁arrhythmias
produc
▁virul
amicidin
▁electroencephal
▁depress
▁91
▁17.7
▁saturable
teryl
▁sharply
▁ambulatory
▁invasiveness
▁astro
▁(36%)
▁thyroid
hig
azol
responders
▁inhibin
(1,4,5)
▁anticoagulant
98
falfa
acillin
▁7.5%
▁dex
▁sulphate
ficially
▁Tolerance
▁(2
TPA
▁Individual
▁Tissue
inally
minis
▁antioxidant
pled
▁transection
▁incap
▁Phen
▁Routine
olsc
iazide
usions
eptin
▁Hb
▁IIB
▁predictors
▁-0.7
▁cock
▁carb
▁172
▁carp
▁fundus
▁exocrine
▁foet
7]
asions
▁sulfur
▁immunostained
ainamide
▁correlated
pyrid
▁couples
▁Assess
His
▁antipsych
▁inspiration
▁doxycycline
▁(50%
▁ovari
▁enanti
▁reflecting
▁infrequ
▁nitrous
enterolog
▁ulcer
▁glycogen
▁14)
▁glomeruli
▁threonine
8.
carbons
▁morphologically
▁tidal
▁77
▁coagulation
▁rhythm
▁extensor
▁protracted
▁Americ
ults
▁dyn
▁lymphaden
azido
▁divertic
clusive
ctomized
▁193
▁chol
▁28%,
▁carc
▁inducible
ressing
fluent
▁streptococcal
▁differed
PPP
▁encoun
▁mitig
▁sensitiz
ymic
▁ankle
oscopy
▁analogues
carboxy
▁ultrastructural
▁hourly
▁mitogen
▁0.82
aceutical
▁ultrasonic
▁53%
▁spleens
▁PIP
-33
▁methadone
▁truncated
▁Strong
onary
▁0.8
▁(4.6
▁biological
▁ANG
cells
imetric
aryngeal
-801
uculline
achial
▁22,
▁chromosomal
ducing
▁cleft
oflavin
dose
▁lumin
▁Immunohist
▁4.2%
LTB
▁laterally
▁glycerol
▁inactivated
oplatin
erop
▁IIb
▁subnucle
.10
▁expulsion
▁diagnos
▁clamping
utyryl
erythro
idone
▁developmentally
▁0.62
▁saturated
▁13-
reases
▁HR
▁hypertrophic
▁cytochalasin
urther
▁jaundice
▁233
▁shunt
▁pestic
▁proteolysis
▁rigidity
HF
lecainide
xiety
pregn
▁atr
▁dissolved
▁lingual
28
▁unfolding
▁protec
▁Rever
▁150,
25)
▁abortion
ophageal
icin
▁Antis
▁undergoing
arrhy
hydrop
▁periphery
▁fron
▁Bam
0/
▁-1
▁disten
▁juice
▁mimicked
▁adversely
tilb
▁periodontitis
▁evenly
luding
▁OM
▁(31%)
▁taurine
▁Doses
▁pharmacists
▁proteoglyc
phosphamide
▁relating
upuncture
eak
▁carcinogen
▁trapping
vable
▁lax
▁Bacteroides
/7
2.
▁lobe
▁exerted
▁covalent
oA
▁pS
eprazole
ymal
metabol
▁castrated
▁nonsignificant
▁inhibitors
▁Abnormalities
arthritis
voltage
ostat
emide
reement
▁nig
▁epidermal
▁Subsequently
orand
▁GH
▁infection
▁respir
2,
ofluores
▁reagents
▁3.5%
▁rectif
DHT
▁Stress
▁135
(1
▁monoamine
▁indeterminate
▁Disorders
▁169
▁libr
▁(0
▁abdominal
helium
▁inconclusive
▁88
edema
▁intra
▁reass
respective
chym
astine
tiv
▁Peak
▁peritoneal
▁fum
▁PAF
▁patches
▁(90
CLL
▁dizziness
▁folded
▁0.37
▁tenderness
▁diseases
▁nondis
▁antigenic
atments
atally
▁PB
▁gastroenteritis
▁tablets
ipid
exy
▁40%
▁retin
ovirus
chloride
thmic
olitis
▁VSV
geal
▁bulls
▁1.13
▁depolarization
▁72-
apenta
▁20%
orskolin
▁intracranial
▁ester
▁peaked
orotic
▁hsp
▁monomer
▁prevented
▁conductance
uvant
▁alternatively
▁(2.0
ially
▁transpor
▁heterosexual
.2,
moid
lute
▁(20
▁antine
▁17-
▁glaucoma
▁redox
dependently
independent
▁8%
.3%
▁intramuscular
▁mediates
▁Forty
▁nonprotein
388
▁carbamazepine
▁modulate
▁radicals
elast
abbit
▁severely
▁deoxyrib
▁50,
▁5%.
▁rota
▁vascul
▁phenytoin
▁Prolong
rotin
▁inappropriate
▁geographical
▁(6
▁bFGF
▁embryos
CDC
▁4.8%
▁spontaneous
▁71
▁overlapping
▁tumorigenic
riton
▁chemotherapy
-85%
▁acids
▁Kd
▁acetaminophen
emias
▁harmon
quinoline
▁pleural
▁osteosarcoma
▁lisinopril
▁vaccinia
▁insulin
▁myx
yridamole
:6
▁subjected
▁relapse
Ps
▁acquire
▁epididym
linking
▁4
▁hyperpolarizing
▁etiologic
raconazole
▁sarc
▁Laboratory
testosterone
PDGF
▁discriminate
▁ulc
PKC
▁catalyzes
▁mineralization
▁hemat
▁incremental
iuria
▁degrade
resistant
▁starch
▁cortic
ilding
▁52%,
▁pretreatment
▁3.4
▁reproducible
thickness
▁deox
▁eryth
clerotic
▁308
▁HbA
-27
▁Infants
coag
▁reacting
▁subclinical
▁meniscal
reasing
▁TCA
iliac
▁3'-
eal
▁placement
▁lavage
▁capillaries
amethasone
▁TC
▁MAP
▁hered
ulcer
▁BP
zable
etoprotein
uclear
▁decidual
▁tobacco
▁cigaret
▁cochle
▁washout
quamous
▁Risk
000
8),
▁antigen
▁triceps
▁equivocal
proved
▁dors
▁arachidonic
▁Acute
▁adulthood
urospor
▁ubiquit
▁capsular
activities
▁potentiating
-5
▁achievement
▁efficac
▁refr
orts
clerosis
▁1.7
▁multidrug
▁adipocyte
idinyl
odg
6%)
▁microv
fed
▁satisfactory
▁7.0
▁quin
▁monotherapy
▁synthase
▁dias
▁neoplasms
▁epi
▁microvascular
▁menses
oconjug
▁immunotherapy
▁Conversely
▁hypertrophy
leuc
▁pharmacy
▁221
unts
▁plaque
tonic
▁Therapy
▁transduction
romagnetic
dUrd
▁-0.5
▁0.0001)
▁2),
▁transient
▁(1.6
eptidase
adenine
▁mesenchyme
odies
▁8644
▁7.2%
▁Epo
▁Grade
▁40,
NAD
▁neph
erance
▁altitude
▁attractive
ontal
oxygen
▁couns
▁phenobarbital
▁43%
tens
▁choles
▁denti
▁EIA
▁4-6
iagn
▁molecule
tipation
BV
▁elimination
▁relapsed
muscle
▁negatively
gonal
▁ligation
▁Maximum
▁3.7
▁chimeras
▁unre
increased
oclopramide
▁1.30
▁prerequ
▁ischaemia
PAT
oposide
▁0.35
▁plastic
vitro
▁sprin
▁envelope
-11
opram
▁caries
▁multiv
embran
ventil
▁antagonize
▁unidirectional
rhea
▁declines
▁bioassay
▁Biopsies
▁plaster
▁severity
▁Tric
istribution
hydroxysteroid
▁maternal
▁placenta
▁isotope
ocine
▁importantly
vertent
▁cesarean
ulfonic
▁hexa
mole
▁lobes
tee
▁sulfate
oluble
idated
▁hybridization
▁melanin
▁virtu
▁rheumatic
▁intercal
562
oratory
bilities
▁specialty
medicated
tomy
▁adults
▁anesthe
▁techniqu
▁200-
▁0.80
▁Consistent
▁GnRH
▁CAP
▁hyperox
▁Leukotriene
imide
▁exercised
▁90%
▁potently
▁1.00
pation
▁dial
▁forebrain
▁13,
▁thromboemb
minute
▁emboli
▁anemic
▁mRNA
▁Estrogen
strual
▁breathing
ergy
planch
▁premenopausal
▁143
-1.
others
▁AIDS
▁-0.0
aminob
▁spaced
▁oligo
0%
tructural
▁217
▁glucone
▁281
▁Initi
▁endarterectomy
▁glyburide
▁mitotic
▁atypical
▁specificities
▁(59
ADA
affinity
MDA
▁shor
▁vegetables
▁75%,
▁promo
rogenase
▁lethal
94
ovole
▁glucocortic
▁nerve
oxine
▁sarcomas
▁dischar
▁coil
▁afforded
iant
galact
322
Wo
3+
▁equilibr
▁adjuvant
▁(55
recognized
▁formalin
▁15,
▁cartil
▁internists
▁antidi
▁succin
affin
▁weanling
▁intrav
aminase
▁(5%)
5-0.
▁operative
redoxin
▁morphine
omotor
rosis
▁attrac
▁cardiople
▁rifamp
▁Fluores
▁(50%)
ogra
jug
▁bursts
▁MDR
gic
cys
▁perit
▁methodology
ficial
▁tryptophan
▁ultrastructure
▁thallium
characterized
▁preventing
pectively
▁compliance
▁Bacterial
orating
▁Preoperative
▁162
▁accel
▁VLDL
ithi
omn
▁parasympathetic
▁clues
▁(%
opian
▁opsonized
▁Twenty
▁TMP
▁Delayed
▁anaerob
▁cilia
▁metalloprotein
tead
▁duct
▁ventral
▁manipulations
termined
▁ultrac
▁laminin
▁cytochromes
▁2.7%
▁Drug
▁insol
▁mice
▁GD
▁transposition
▁misoprostol
▁saturating
nuclear
▁irritation
ediatric
▁adrenalectomy
ypical
▁aggra
iferative
▁Severe
▁SHR
adrenergic
▁postinjection
mation
▁linkage
▁(34
▁creatine
nitrosamine
▁valvular
▁labial
▁subcellular
▁ECGs
▁averaged
enriched
▁synovial
▁accumulated
▁morphogenesis
▁glandular
▁60,
▁stenosis
▁stressed
orrect
▁somatosensory
▁6.6%
▁20-
1+
ierarch
RR
articular
▁spor
ylephrine
▁hypotensive
▁bleomycin
▁mitosis
▁protamine
phagia
▁vaginal
amous
osm
otransferase
achnoid
ygous
▁PRA
resolution
▁celiac
umulative
ithin
▁gangli
▁mandi
▁broil
▁grating
▁13
▁inflammation
▁rigid
▁angiography
▁gamma
ophren
▁12.5
▁dioxide
▁occurrences
▁lumen
▁elution
▁0.2%
▁myocardi
myristate
▁1991
-19
▁groove
▁BALB
▁warran
transformed
▁responder
▁tPA
▁155
▁PEF
▁taurocholate
▁anaphyl
▁radiologists
▁Raman
▁papillomavirus
▁stimuli
▁thyro
guan
▁incomp
▁osteoblasts
tract
2/
sip
▁Cyclic
▁hepatocellular
▁unusually
▁oils
▁dyspnea
▁proximal
▁nucleosides
otherapeutic
▁nystagmus
▁ulcerative
utroph
▁FcR
▁fragilis
▁favoring
▁metaplasia
arly
operatively
roids
14,
transferase
▁elicited
▁CTL
encephalon
▁ophthal
▁displace
measured
prednisolone
▁averaging
0.0
▁hemisphere
▁chlor
odic
▁Comparative
achn
▁microsomes
acchar
▁0.025
▁extrusion
▁Statistically
▁prostate
▁placebo
hort
cysteine
iciency
ymptom
▁worms
25-(
GF
▁infarc
▁2.2
▁203
▁macrophages
olateral
▁radiolabeled
▁lineages
▁temporally
tage
▁cruc
▁321
▁innerv
▁macroscopic
▁deaff
opeptidase
athic
▁spind
▁93
▁NMDA
opterin
▁refractory
▁2.3
sus
▁cysts
amethoxazole
▁incorporation
▁1.35
▁immunity
▁Antim
erose
tions
▁nonlinear
▁LAK
ABP
▁coma
▁suboptimal
rescine
▁reinfection
▁reside
▁helices
onor
▁(60
▁proton
trients
indole
▁subarachnoid
▁.00
▁bronchodil
▁chor
▁corp
rine
atous
▁extravascular
▁kinases
▁inspec
titude
▁liposome
dered
▁Complications
▁rhesus
gag
▁conclusions
▁clarithromycin
▁cytosolic
▁peric
roximal
▁dysp
12.
▁vascular
▁147
apeutic
ospinal
▁passive
50/
ospor
▁sphingomyel
00-
▁herb
onomic
▁4000
▁decreased
GFR
terolog
uccessful
secreting
▁thrombotic
▁generations
artum
otidase
▁serology
veness
▁subunits
▁cys
cents
▁edema
8,
thalidone
▁hyperch
LU
▁190
▁tumour
▁gloves
5%
▁worsened
▁investigating
▁intrathe
retinal
▁10(-4)
anding
otrophs
philic
oxetine
▁behavioral
▁interim
CoA
▁Recom
▁acetic
olipoprotein
54
▁deferen
▁1988.
▁analys
▁indole
▁vagal
cotic
vaginal
▁ganglioside
▁univariate
▁avidin
▁benzoate
▁46,
IU
▁Dex
erus
rotid
tase
▁equimolar
10
RH
▁axons
oriented
amole
▁correlates
▁epithelium
▁proteinases
▁Bloc
▁PCOS
▁digitalis
micro
▁unequ
susceptible
▁cing
▁integrin
▁gestation
muc
▁papilloma
▁oligos
▁postsynaptic
onucle
▁autologous
▁somatic
000)
▁prone
▁0.005),
▁iso
▁Contrac
▁facilit
wake
▁stimulations
▁(1.5
▁malformations
▁2.5%
vessel
▁(57
CTL
▁referral
▁ejection
▁spectrometry
▁papill
▁trp
surgical
▁corticosteroid
▁4.6%
▁inpatients
▁strengthening
Ls
▁CsA
▁ars
PDE
modified
▁quantify
aternary
mates
▁0.25
astom
kephal
kidney
▁runners
uplex
rocytes
-1.3
▁enzyme
▁9.0
icidal
▁thiopental
-9
▁tolu
▁juvenile
▁parenchyma
▁transmembrane
▁destab
▁stren
Gy
▁isotype
▁microtubule
▁CBF
▁Injury
▁Increased
▁lumbosacral
▁considerably
▁imaging
orrhage
oppler
▁thyroiditis
▁dopamine
▁Plasma
▁intense
zyme
▁323
▁(90%
GABA
ogenously
▁subjec
acking
▁nal
▁catecholamine
-70
glycerin
▁inhibitor
▁3-5
▁lasting
lectively
▁pKa
▁surgeon
▁prescribing
▁prescrib
▁iod
▁oscillations
tection
apo
atropium
▁imaged
▁elab
anish
▁19
histamine
athiop
▁pyrophosphate
▁1960
▁Ae
▁104
jected
▁299
glial
otherap
▁(33
▁noninvasive
aneously
▁(197
▁metabolized
▁scle
sts
omeric
amisole
ocys
▁notably
ophyll
▁myenteric
▁beha
▁42
▁19%
▁betamethasone
vive
▁grise
igarette
▁clomiphene
▁antithrombotic
▁peaks
aethyl
oglutarate
oflu
▁myoblasts
vember
▁SEM
▁washing
dyl
▁vag
osome
▁Prob
▁cultures
▁expresses
▁correc
▁strands
▁folds
-4)
▁tubal
▁173
▁ketoacid
▁ultras
▁95
ylic
▁suicide
crimin
luded
▁0.75
▁justified
▁(1.7
▁EB
▁amounted
▁polyp
dil
▁enhancing
▁adaptive
ensity
enh
▁psychopathology
▁inhalation
▁locomotion
▁intervening
▁mitochondria
▁contraceptive
enzymes
,2
▁isoleucine
▁Surgery
ositis
ordination
▁PCI
▁patency
▁SBP
perature
▁microliter
▁posed
phot
▁eligible
RD
airy
ampl
▁breaths
▁insurance
▁progestogen
5)
adol
omethacin
renz
▁CIN
▁Thereafter
▁myocardium
▁1.5
▁Eight
prising
▁leucocytes
▁selectively
▁intimal
▁heterodimer
▁monooxygenase
conc
▁regurgitant
▁ampicillin
▁appreciable
▁hypoxemia
suppressor
▁70%.
▁perivascular
▁wells
▁30%.
sored
▁physiology
inopril
▁CGRP
orded
▁aminopeptidase
SMC
▁discrimination
aning
▁158
▁assembled
▁residual
cristine
iruses
placental
terase
▁mesen
lesion
▁apoE
sia
formerly
-72
▁blasts
▁cytokeratin
▁ileum
▁cohorts
▁meperidine
CHD
▁incub
uppres
▁ovulatory
▁GAG
Ts
roglobulin
▁ethanolamine
▁10.4
chains
biotic
▁abl
▁Authors
▁1.8
▁broth
▁(4.8
▁14
roso
▁superfusion
▁nail
▁isoforms
▁coughing
ipients
▁NIDDM
▁mediators
hexidine
▁Screening
81
▁seal
▁furosemide
▁[3
▁allergy
▁0.44
▁palpable
▁Clinically
▁cartilage
▁mcg
▁mitral
▁mast
timulation
physeal
ochemical
kle
▁psi
anase
▁orbital
onography
▁spontaneously
▁(0.0
▁stripe
▁reproduction
▁absorption
-1.7
▁polyethylene
▁Concentrations
4,
adder
ellum
-200
tivated
37
▁erosion
▁causal
lometh
▁deprivation
▁VE
ygotes
▁resting
▁targe
alveolar
▁endings
▁saliv
omyelitis
▁postischemic
▁3,
▁neurochemical
ithmic
▁estrogens
▁dentin
ungarotoxin
▁iden
erate
▁undiagnosed
corticosterone
▁milligram
▁osteoarthritis
rever
▁mediastinal
▁remnant
ocomp
▁follicles
▁Subcutaneous
polar
▁visceral
▁guided
menopausal
▁neurop
▁corticosterone
▁imid
▁Considering
opharmac
▁multivariate
cholinergic
▁41
▁wards
▁foods
ocytic
0,
▁descrip
pendym
▁Clostridium
▁abduc
▁exon
▁thir
▁extracellular
▁branched
urkat
▁gonococcal
controlled
▁cylinder
▁multis
amethonium
transferases
▁sixty
anum
▁structured
▁starved
▁induc
▁fructose
▁pT
▁fertile
▁lec
▁PVN
▁Competition
eruleus
▁superc
ovarian
▁pneum
▁communications
anserin
/34
acements
▁inversely
▁intram
▁5-
androgenic
▁Fetal
▁malate
units
▁50%.
▁PEP
opre
roxicam
iplin
▁5'-
dopamine
osmotic
▁circuits
▁sulbactam
dition
titute
▁chorio
▁pyramidal
▁divergence
▁Urinary
▁manufacturer
▁pollicis
▁Escherichia
7%
▁macromolec
22
ergency
▁2-3
▁bacterio
ymmetric
▁dominance
tance
(2-
urium
▁histopathologic
▁insectic
tocop
▁1/2
▁9.9
▁effected
oflurane
▁Nal
romatosis
▁aor
▁tachyc
▁arterioles
urea
▁plateau
lected
▁formulated
teroid
▁approx
▁25,
roxy
▁homozygous
▁weaned
▁(42
32
▁regained
▁cerebrospinal
▁productive
▁corticosteroids
▁(62
▁FD
▁pyraz
tro
acil
8).
▁actinomycin
dle
▁extraction
▁pirenzepine
▁ruptured
hern
▁disclosed
▁(1.8
▁verification
▁gastritis
▁incidence
▁Repeated
▁chloroform
ucas
▁droplets
▁adrenoceptors
▁precur
▁testicular
▁odds
▁rele
vaccinated
▁10.0
▁tyrosine
ideoxy
▁OH
▁Higher
▁cetirizine
▁osteoc
▁rhabdomy
▁195
ophy
▁substitutions
neonatal
▁ventilation
▁BS
▁abnormal
▁methyl
transformation
▁spectrophot
▁24)
rement
▁1986
▁eukaryotic
▁Oste
ocol
▁subdural
▁9,
▁autoanti
▁angio
▁PTH
▁mt
▁(29
▁(1-
▁difficul
▁audit
▁312
▁entero
erebr
▁appreciably
▁choro
▁benzene
▁uncl
▁methimazole
drome
▁Enal
▁bulb
▁198
▁Beta
▁Gly
▁accessibility
uronate
▁PGA
▁tolerability
▁Infection
tran
▁scro
▁amacrine
▁95%
HLA
▁uremic
▁Chlamyd
▁torr
▁Cox
▁(10(-7)
ocular
▁deuter
▁rejection
▁26,
▁concordance
▁meals
MH
▁tachy
▁striated
▁acceptors
▁0.02)
▁15.8
▁Pb
.7%,
▁flecainide
vals
▁24.3
▁vasoactive
▁mediator
▁barb
▁therapeu
▁Cyclo
▁Reflex
▁diminish
▁amelior
▁muscle
bearing
aind
▁Michaelis
particularly
▁94%
sor
osides
sors
persed
▁reversibility
▁ventricular
tives
adrenoceptor
▁repression
▁8.7
▁6-8
▁proliferation
▁vesti
▁mannose
ominant
determined
▁mycobacter
▁deformation
pulse
asting
ocortin
▁Dacron
▁quanti
▁venography
▁subc
-2).
▁Gyn
▁unlabeled
▁humoral
▁0.70
iated
▁pepsin
-8,
uminum
▁hypothyroid
▁consistency
▁immobilized
naphth
▁decarbox
▁segreg
▁bones
▁Systematic
-400
▁diabetics
▁potassium
otherapy
▁246
▁aromatic
▁bacteriuria
▁CAT
▁reversing
transfected
58
▁oxygenation
▁tumours
2+)
iang
EDP
▁ligand
▁downstream
▁whereby
▁ate
▁Biochemistry
malignant
▁hyperlipid
▁decreas
▁nucleotide
uctose
▁simplex
▁secretagog
▁myelogenous
ocur
ostatin
109
opres
▁provoke
▁Staphylococcus
▁115
▁PTS
oxane
▁Laser
▁MRSA
ashing
amicin
▁Perc
tive
IAA
▁bactericidal
▁BCG
▁[14
▁compete
▁(64
atisfactory
▁stratification
tole
-800
▁resected
odeoxyuridine
DH
uccin
PAC
▁136
adenoma
oids
▁homocysteine
ranean
▁(1.0
▁syncope
tents
▁urine
▁swit
▁antif
▁MRF
900
▁lys
▁apical
anoid
fluo
specifically
▁252
▁afferent
▁histologically
▁230
pleen
(1,
carbox
▁detector
▁(76
800
turition
▁Pulmonary
▁arterial
▁islet
throm
/18
▁secrete
▁restraint
enicillin
▁catalase
▁electrochemical
▁reoperation
riages
▁carboxylase
▁aminoglycoside
aced
▁comprehen
hest
▁vertebrate
▁Median
▁plethysm
▁HSA
ocystis
visions
▁neurosecretory
▁hexokinase
arcoma
▁digiti
▁brisk
opa
eicos
▁achieves
implantation
▁Myocardial
▁bacteri
▁pter
▁gingival
▁Arter
drug
▁amine
▁Shig
▁transfusion
90
siveness
▁colonization
▁spectroscop
▁carboplatin
▁HM
▁16)
acron
▁(48
▁Cardiac
▁hypon
▁arousal
▁transplanted
▁markedly
▁Saccharomyces
duce
▁CAD
roleuk
erent
▁benefited
▁lenses
bac
▁GM
▁aldosterone
9)
▁[1
▁Tris
apanese
▁1976
▁plasticity
▁lymph
tir
▁phospholipids
▁TDI
kines
▁inhal
▁plexiform
seud
spectively
tetrahydro
▁POMC
▁holo
asone
▁adver
▁catalytic
tical
▁0.09
▁yiel
cholic
▁Survival
▁diaphragmatic
▁wake
▁prematurity
)],
-0
▁flexor
dialysis
/10
▁nitrofur
▁fibroblasts
▁mitomycin
▁mediation
▁isovolumic
▁carboxyl
▁imidazole
▁Caps
▁vasodilator
▁flunarizine
ineal
▁FFA
▁overex
▁9.5
▁preservation
▁characterizing
▁[35
luent
hydraz
otope
▁spermatocytes
▁ductus
▁sorbitol
▁oxidized
micrograms
▁infarcts
▁infarction
▁smokers
ulous
weekly
▁reac
▁immunized
trone
24
▁sympathetic
▁idiotype
▁lysates
▁recurrences
▁hypere
▁faeces
-120
itamin
▁succinyl
▁epinephrine
▁discern
▁fru
▁Hz
lusion
▁scaven
▁bacteriophage
▁spines
▁dermat
▁differentiate
LPS
▁11.1
dIns
ocarb
tectal
effects
4-2
▁constitutes
posterior
placebo
▁anxio
cGMP
labeling
▁discrepancies
▁shaft
ecre
▁supernat
▁singlet
▁6)
prisingly
▁Functional
riched
MPA
▁chymotrypsin
▁confined
▁microsomal
sufficient
/12
▁.001)
cine
▁mutans
▁omeprazole
▁Myc
▁signalling
seous
▁2'-
▁mastoid
strain
psin
▁insights
▁HMG
▁immunochemical
arrh
urgery
▁consistently
▁pharmacokine
▁700
▁8.0
▁phosphatid
▁innervate
▁fluidity
▁adverse
▁121
eclampsia
proline
triol
-30%
▁SKF
▁indi
▁mEq
▁murmur
1-2
▁influenza
trated
orac
▁protease
olase
globin
▁oblique
▁myocardial
▁6.2
▁10(9)/
▁oncogenic
▁distric
idem
thi
▁treadmill
▁modulating
▁ornithine
▁144
▁0.1,
▁masked
oag
▁constitutively
90)
▁cAMP
icient
▁bacteriological
▁velocities
▁Spontaneous
▁forskolin
▁cil
hea
▁MI
▁lorazepam
▁Flu
▁80%
▁47%,
▁epileptic
clonal
▁CDP
▁fistulas
tidal
▁immunogold
administration
▁elast
▁subcutaneous
queous
▁TNF
alose
▁1987,
▁0.81
acked
▁0.01)
▁(60%
▁dilutions
▁amph
▁monocytes
▁Cutaneous
▁biases
▁emesis
▁urgent
▁occlusions
▁rati
▁CAL
▁excitability
▁varicos
▁Genetic
▁(97%)
▁internalized
▁tracer
olytic
esting
▁cholecystokinin
▁alleviate
▁Diagnostic
-1
▁testis
▁laboratories
rated
olates
▁natri
▁electroly
▁immunoprecipit
-8
▁homologous
▁adjunct
KA
▁lessened
triphosphate
▁9.1
plasia
oxia
yrox
▁nonin
▁cavern
electric
tradiol
▁0.01,
▁dorsomedial
▁Amino
▁neuronal
▁hemorrhage
tension
▁migraine
▁anhydrase
.6
▁CCl
▁adequately
▁cure
▁bab
adex
atrop
▁ferrous
▁worsen
▁1.01
▁chromosome
▁infiltration
▁genic
▁gallstones
butaline
▁recru
▁seminiferous
benzene
oscopic
ADP
coated
▁6.6
averine
especially
hydroxyl
.7%)
▁dentate
wk
▁chlorhexidine
oreal
▁31,
1]
▁98
▁ure
unctions
▁dimethyl
-6)
▁supplement
omegalovirus
▁distinctly
convulsive
▁glycosaminoglyc
▁antide
▁organs
patient
▁heterozygotes
▁replicate
mild
▁challenges
pain
▁septic
▁weaker
▁Values
▁(-)-
▁aluminium
.5%).
ostr
▁compartmental
ysm
▁nitro
▁arteriosus
▁51
▁bronchoalveolar
amines
▁impairment
▁50
▁reinforcement
▁dramatic
▁Braz
issive
▁enteral
▁infiltrate
▁nephritis
.3%,
▁Recovery
▁atrial
▁histamine
1.2
▁dibutyryl
▁yeast
▁179
▁(4%)
toli
▁morbidity
acrylamide
▁danazol
▁choroid
▁12%,
▁isotypes
▁7.7
▁lumb
▁morphometric
▁vagus
▁PGF
▁6.5
▁packing
▁Finnish
▁dyslipid
▁aneurysm
▁determination
▁unres
▁apomorphine
triatal
arcin
▁projec
organisms
anate
▁retinoids
olinergic
▁preval
▁TPA
-[3
▁gyrus
▁ascertained
▁microinjection
▁vancomycin
▁phenyl
atitis
respectively
▁disproportion
loid
▁LPL
opeptides
ovaginal
astically
▁screening
glycine
▁heel
▁111
▁(47
RIA
▁Plas
▁Gln
▁Fraction
▁facilitates
▁respects
itals
▁varicosities
▁equivalents
24,
▁retic
▁postoperative
▁radionuclide
▁outpatients
lyl
reatine
▁parasites
▁vigorous
▁bedtime
▁RFLP
▁EEG
ronectin
▁recombinant
7,
iflu
▁erythropo
▁reticulocyte
▁Abdominal
illar
▁dorsal
CHO
inic
▁(63
▁clot
▁commerc
▁FITC
▁glycer
▁thal
▁vasculitis
4),
▁meningitis
omyosin
▁17
▁interacting
▁radiograph
▁excessively
▁2.7
nons
▁oleic
arine
▁accep
▁temperatures
▁underestimated
stu
tisol
▁28-
▁achieving
▁20,000
▁habits
hexyl
▁palliative
▁exclusively
▁nutritional
▁55-
2;
▁nip
tomies
▁perturbations
aminop
▁57%
18
lovir
formations
platin
▁muscles
filaments
▁piroxicam
▁contiguous
acies
29
asses
▁ChAT
▁carnitine
▁adherence
crip
▁actuarial
▁Transi
▁administering
proven
▁ICP
▁CML
8/
▁weekly
▁rostr
▁(2%
plication
▁spermatogenesis
adian
▁36
▁grafts
adecanoyl
absorption
▁neurological
▁15
▁72
oplasty
spar
oreactivity
▁22
obl
alasin
▁69%
▁249
▁possesses
▁tissues
oplasma
▁ultim
▁metac
▁trends
▁17.1
▁PCO
▁putrescine
methionyl
▁10),
phetamine
salt
▁cefixime
▁transverse
▁Exc
robic
▁unilateral
▁cuff
▁unpredictable
▁transcripts
ungaro
▁basolateral
▁leukocytes
regulation
▁proliferating
educed
▁Antigen
yste
otroph
depend
▁scavenger
transfer
25(
▁17%
injury
▁seropositive
▁Certain
▁NF
truc
tiazem
▁Hepatic
▁63
dermal
oxicillin
▁miconazole
▁phagocytic
▁specialists
▁administered
nai
pressive
avage
▁radioactivity
▁RBF
▁justif
ytic
▁confers
▁Chang
rometer
ungal
azolam
▁bite
▁Combination
3,
▁nursing
▁fenoterol
▁rheumatoid
orsal
▁tubule
▁modeling
▁mononucle
▁deformity
zymes
tochem
▁14-
