olysis
vated
▁mellitus
▁serologic
▁Pneum
▁Specifically
▁absorp
▁Thirteen
erebral
▁nodule
▁tec
phal
azepine
▁objec
▁lisinopril
▁arti
▁symptomatic
micro
inum
▁nonsmokers
▁exacerb
▁hered
▁SPF
idate
▁horiz
romycin
▁discontinu
▁deficit
▁doubling
tivation
ominant
▁headache
▁parathyroid
▁reas
▁methotrexate
▁fetus
zymes
ensitivity
feeding
▁biop
▁immunos
▁osmotic
trast
▁assessed
tene
▁acetic
itin
▁stool
▁wee
▁antis
▁concordance
rowth
okinetic
roscopic
fec
▁sulfoxide
amycin
▁progest
▁thromb
▁exploratory
unar
▁enalapril
▁ane
▁persisted
ectin
ucose
rosemide
tivities
oten
▁ech
▁vascular
▁cortisol
tens
▁statis
▁bladder
▁Screening
▁maturity
▁oxygenation
▁pressures
▁newborns
cus
tussis
▁ejection
▁apnea
mature
▁OA
▁traum
▁unrecognized
▁instrumented
▁adren
isol
ergic
▁sci
molality
▁diuretic
▁nitroglycerin
▁Optimal
▁dermatitis
▁premenopausal
▁masked
▁reflecting
tensity
▁fibrosis
vents
▁ultras
▁wards
▁tox
▁anhydrase
▁ciprofloxacin
▁Calc
athy
▁psoriatic
azepam
▁genotype
▁atopic
ulose
▁granul
ceptive
▁provid
nec
amuscular
▁oxytocin
atally
▁streptococcal
▁vitamin
▁venous
▁Factors
▁neurop
▁glucocortic
▁endotracheal
▁reversible
▁Seventeen
▁diagnose
▁ultr
avail
▁perforation
▁aqueous
lact
hypertensive
▁membranes
chloride
natal
opres
▁endoc
▁Approximately
tus
▁relaxant
imodipine
▁hydrolys
OA
▁Nine
posure
▁untrained
uran
▁thems
▁mammography
▁ingestion
▁CHF
▁Hg
hap
▁incidence
tual
fal
▁Systolic
hion
▁pH
▁devi
▁chl
azep
▁recipients
▁cla
ogens
ycin
▁sickness
Bs
▁nicot
esin
▁confound
▁quantif
▁stent
tiz
▁secretagog
atation
▁modestly
▁analgesia
▁demonstrating
acute
▁pate
emide
availability
idis
▁Addition
▁rehabilitation
moderate
achn
▁deliveries
igaret
▁restric
tionally
gative
eptide
▁blot
▁spontaneous
itamin
ylated
▁outpatient
▁pharmacokine
▁mIU
▁hypocal
▁valve
▁HbA
corrected
sion
▁serological
temperature
▁mononucle
▁Assess
▁predic
▁econ
aminase
▁intracerebral
sistent
roscop
▁nonin
obl
▁splenomegaly
atell
erican
▁positives
tro
▁Measure
▁socio
clin
▁physi
▁exposures
▁undergone
merc
gents
▁interpretations
▁immunocomp
aminated
▁edema
▁nonex
▁thyroidectomy
▁discontinuation
ostatic
inyl
ffec
jac
▁colonic
▁reproducible
▁leuk
lamy
▁genotypes
▁polyethylene
teroids
▁rhabdomy
▁VV
roma
gm
▁satisfactorily
▁Highly
dural
oderm
▁alcoh
▁stimulation
andard
▁insulin
▁pathophysiology
▁citrate
▁compounds
▁osteoporosis
▁stu
▁uniquely
▁cortisone
▁aspec
▁augmentation
▁poorer
tif
osocial
▁LM
▁stimul
operatively
psych
▁arrhythm
▁conges
▁expec
esia
▁clot
▁ketoconazole
▁aluminum
▁RA
▁sorb
entia
▁grading
cysteine
▁arrhythmias
▁inflammation
▁Angiotensin
▁neurotrans
hips
▁carbonic
▁herni
rine
▁abl
▁percutaneous
lyl
yrox
▁perin
▁manu
▁questionnaire
rogesterone
▁hydrophilic
reening
heum
▁superf
▁resection
orption
▁fixation
▁glycos
▁angina
edding
▁Abnormal
phosph
plasty
obac
▁prophylaxis
otyp
▁Estrogen
▁bronchial
tified
▁differen
▁melanomas
▁sodium
▁computerized
ameter
▁isolates
▁estimating
cad
▁empir
▁occupational
▁retard
▁diabetic
▁Feeding
▁duoden
▁pharmacy
▁diarrhea
cyte
▁benz
▁antenatal
iasis
▁examinations
lobulin
▁meningitis
▁hypercal
▁comparative
▁hir
obenz
disciplinary
▁rotavirus
▁serotypes
▁filtration
▁sugars
armac
otroph
▁unstable
irds
▁myopathy
▁duodenal
▁epidemiological
▁acidic
▁hep
renal
▁ultim
▁CG
▁elas
lysis
ustained
▁AO
isolated
▁perip
▁Caucasian
▁thyroid
▁triglyceride
tative
▁elevations
▁caro
▁deficiency
erence
▁lact
estions
orrh
▁Intr
▁ingu
ophil
▁thereafter
▁PPD
adm
▁efficac
▁simultaneous
▁somatic
sibly
▁mice
▁Benz
▁preven
odipine
ranial
▁modalities
▁peripheral
▁quotient
▁CN
tant
acin
▁numb
▁controver
▁qualitatively
▁sucralfate
▁jaund
▁responsive
▁ori
▁lidocaine
▁morbidity
orphine
▁glycemic
▁pts
▁synthesized
▁ascorb
roat
tipation
▁ineffective
▁counseling
▁daytime
▁specialty
dihyd
▁ICU
produc
▁descriptive
▁ECG
▁predominantly
otre
▁Whereas
opamine
▁thre
▁bactere
oreal
▁bicarbonate
▁pancreatitis
ervical
▁uterus
erated
▁obstetr
Ts
Cs
bic
▁carbam
ints
▁cate
▁prescribed
▁supra
oscopic
▁abscess
osin
▁summarized
omial
cence
▁endpoints
ographies
Cy
▁persistently
▁malignancy
▁initiate
▁neonates
▁esters
echanical
▁unclear
▁therapeu
pregnant
▁dex
uresis
oxif
atif
indings
▁BMI
▁simplex
potassium
sively
▁fla
thirds
▁subjective
uretic
▁secretagogues
horm
tin
histamine
▁predicting
ucle
▁DVT
▁hydrochloride
▁antimicrobial
bility
▁PCO
xone
▁Diagn
▁alb
▁equivalents
▁memb
stress
▁preterm
luc
▁expressing
▁propionate
▁expres
▁repro
▁Hb
▁abnormality
otropin
▁differed
▁vaccinated
▁pati
▁modality
▁nonpregnant
▁semen
▁donors
ilization
arynx
reactivity
▁quin
orpor
▁seropositive
athered
▁insertion
▁spor
▁FEV
▁LR
▁singlet
▁perioperative
▁antithrombotic
ffer
▁valu
▁gonad
▁cartil
ocusing
rocyte
▁physici
▁systemic
topril
▁stren
Hyp
▁incid
▁lis
▁dexamethasone
ropathy
▁variability
acids
▁familial
atoid
▁onset
▁extracorporeal
▁tracts
reasing
gia
▁histopath
BV
▁eccentric
traumatic
▁nocturnal
▁chlamydial
leb
▁matur
gic
thma
▁colos
▁mEq
▁Viral
▁Phen
inflammatory
▁saturated
▁consis
▁pulses
aind
▁genital
etent
▁emphasized
hemo
▁anticoag
▁multic
agonists
oxine
▁hyperglycemia
▁hepat
▁Haem
uncture
▁assays
▁angi
gthen
▁ablation
▁enlarge
anol
▁nausea
▁tolerated
▁bup
reased
▁strokes
plasia
assium
▁electrolyte
▁resonance
▁testis
NB
▁poten
oxazole
tigo
▁amplification
▁capsules
ovascular
abdominal
pran
entile
opro
▁cardiovascular
mented
▁glutamic
▁methionine
▁assis
▁fum
▁reproductive
▁dilatation
coun
▁differe
▁Elevated
▁infrequently
▁cuff
▁TS
▁ligation
▁blocker
▁Alz
osacral
▁angioplasty
adily
infection
▁occurrence
▁repor
▁durations
▁accounted
▁cran
▁exud
traum
▁reticulocyte
tituted
ilateral
troduction
▁emboli
▁abstin
▁uteri
▁capillary
▁saphenous
▁margins
▁multis
▁nadir
▁resistant
▁metoclopramide
▁imipramine
rele
▁chol
inamide
▁cerebro
notic
▁dosage
▁gon
▁isch
▁implants
rosis
odal
ociation
▁cephalosporins
▁emerg
▁EG
▁infarction
▁spasm
eak
▁Respiratory
▁rheumatoid
illi
▁uncomplicated
▁endogenous
▁antagonists
▁calor
▁ultrasonography
actin
▁biochemical
▁caloric
▁estradiol
▁produc
▁routinely
▁promp
idazole
timulation
inj
▁amputation
▁CHD
ortal
▁expectancy
induced
acet
▁glyc
▁Transi
▁regulating
brom
Ra
administration
▁dehydration
▁progn
inally
▁unexplained
▁diets
eces
▁Myocardial
ergen
▁sexually
▁metabolism
▁salbutamol
atectomy
▁cef
▁felodipine
ovirus
▁infrared
▁weakly
▁induce
▁restenosis
ailure
▁coordination
▁affinities
mol
▁contamin
▁warr
▁arter
▁cytologic
▁Infection
▁BV
trover
tious
adrenergic
phosphon
▁lavage
tron
ophen
▁adip
iol
pregn
tyl
toc
admill
▁Combin
▁acids
▁enhances
▁implicated
ioid
trated
▁dermal
▁nicotine
▁potent
opulation
▁immunosorbent
din
▁excre
▁confir
tise
agic
▁supr
▁glycosylated
▁mitral
tig
orrhea
atology
▁untreated
▁compartments
▁HBsAg
▁polys
inemia
▁suppressive
ticular
▁acutely
▁Complications
▁flexor
▁attributable
ureus
▁carriers
welling
ported
oxicillin
▁mmol
▁potassium
essation
▁psor
▁congestion
lactam
▁renin
pecific
SAID
▁exhibited
ziness
tide
omegaly
▁identi
▁ery
erating
actam
▁clom
effectiveness
▁sensitiz
centr
▁outpatients
▁casein
▁Relative
▁teratogenic
rofen
promazine
ressing
sequent
▁infusion
ditions
▁prenatal
▁chorionic
▁immunization
▁modifying
▁tetrac
▁cardiac
acchar
otonic
anking
▁immunoblot
▁micros
▁depres
▁graded
▁Nineteen
epithelial
▁confirms
azol
▁anxiolytic
▁tes
▁combin
▁residual
buterol
porting
ytoin
▁congestive
▁Failure
qui
▁alcoholics
▁bioavailability
inesterase
▁postmortem
▁cruc
quid
▁hypertensive
greater
titis
osition
rhy
▁washout
ylase
ranolol
▁enrolled
▁uro
thmia
▁discharged
lude
▁threefold
tions
ichia
▁HPV
intestinal
cemia
▁cyst
▁parac
eal
ypical
▁adequately
▁ket
amel
ximum
▁desaturation
▁skeletal
cancer
▁stratified
urin
ostic
ronch
▁reversing
rox
acrine
▁TCA
▁quadrup
▁inhibitory
hydropyridine
▁uncommon
▁neutrophil
▁hydrocortisone
opi
parathyroidism
▁increas
▁cesarean
▁retur
terin
amide
▁anticoagulant
ferrin
onset
iotensin
▁fluor
eryth
▁lor
▁Tissue
▁fecal
vular
▁discriminant
▁Positive
odon
▁enteric
▁sheath
▁markedly
▁vaccination
acterial
▁dimethyl
▁angio
▁thrombocyt
ereb
onomic
▁disturbances
▁parox
measured
imin
▁progesterone
▁lowers
▁assessments
▁nonselective
▁heavier
plast
▁elemental
otor
sies
▁Epidemi
▁hypokal
▁synovial
▁neoplasia
esting
▁intake
▁hypotonic
ariate
▁muscul
▁favored
▁antic
▁malformations
ventricular
eration
embry
▁Escherichia
▁amoxicillin
ecretory
▁carbohydrates
▁canc
uted
▁lumbosacral
▁lumbar
▁sequelae
▁monotherapy
▁summ
▁Higher
▁encompassing
▁ison
amole
lamp
▁methadone
anide
▁ND
▁aids
BMI
oxygen
▁toge
▁MM
▁prolonged
antibody
eclampsia
▁estrogens
▁concom
tures
osol
▁inflamed
oxifen
idic
▁chemotherapy
▁classify
▁celiac
ifedipine
▁correlates
▁protracted
▁undergo
ecu
▁dissection
estis
▁hypothalamic
▁palsy
▁reliably
▁deviations
▁vein
▁manifestations
▁gastro
▁categorized
▁sedim
▁gradi
▁Staphylococcus
astric
lipid
▁dermat
▁dye
▁pyel
▁adhesive
carotene
▁obser
▁methyl
idney
lep
▁uncom
tical
▁distal
tics
▁carbamazepine
▁hypot
▁Holter
ignant
▁tric
▁blin
▁salivary
▁decarbox
alp
▁reflec
▁schizophrenia
onography
tric
eded
▁targeting
weighted
▁Swed
▁normo
▁polysaccharide
▁arous
▁retention
ordin
emia
▁nebul
▁Urine
ected
▁Alzheimer
▁newborn
ithromycin
▁serotonergic
arbox
retin
▁studi
▁fracture
ovis
thick
amet
bral
▁neuroleptic
▁antibody
ymptom
▁bacteremia
▁aerobic
▁adul
SDS
▁deterior
▁transaminase
▁EB
tations
▁atyp
average
▁glands
entified
tioned
xyl
▁triglycer
ogenous
▁NSAIDs
▁clonidine
▁hemoglobin
▁elec
exercise
▁Chronic
▁antioxid
▁encompass
▁systematically
onatal
olol
amicin
ofl
versity
exposed
▁paternal
▁titration
▁initiation
▁triglycerides
feron
▁offspring
▁exaggerated
▁bowel
etence
yzed
▁fatigue
▁latent
▁OC
trates
▁antidepressants
▁Serum
▁intermittent
▁biphasic
▁nosocomial
▁radiologic
▁instruc
▁inhibitors
▁aberrant
vity
▁CDC
▁beats
oxid
icillin
▁anomal
▁prospectively
▁satis
aldosterone
▁cytoch
tissue
aminop
epine
ocor
ococci
▁SG
▁TSH
▁pharmacologic
▁reproduc
acid
enteric
▁Sixty
▁poisoning
▁inconsistent
tance
odia
▁surgical
▁serum
angl
▁obstructive
▁phleb
▁opioids
asone
▁birthweight
▁progestin
▁indicators
▁weighted
mentation
▁perit
▁tremor
▁plasm
ritish
▁ocular
▁mucosa
opsy
▁jaundice
erant
tinu
thyl
▁urea
ignific
▁Ps
timal
▁longitudinal
▁cured
strain
▁avail
▁Doppler
▁quinine
thrombotic
▁cumulative
▁limbs
pressing
▁endocrine
▁varicella
iparous
▁dementia
▁validity
ifed
mend
▁warfarin
▁osm
▁correlate
▁Lact
odium
▁seronegative
▁screened
▁randomized
uled
▁embry
eprazole
▁autosomal
loid
▁prol
▁Therapy
▁DBP
atients
▁enrol
astolic
esophageal
▁auditory
▁Retrospective
▁successive
echan
releasing
▁anticoagulation
thoracic
▁struc
▁concurrent
▁anesthetic
vail
botic
significant
uting
▁hyperthyroidism
▁tomography
▁detrimental
ervations
ophilus
▁indomethacin
oglobulin
▁TI
▁ultrasound
otine
▁allergic
▁transverse
osid
▁Ninety
opathological
terase
uplex
tral
idespread
▁obstruction
oplasia
▁Eighty
▁spon
▁laparoscopy
▁noc
▁glomerular
vely
▁plateau
lym
jected
tisone
ropath
▁pituitary
▁Significantly
▁Progesterone
quit
▁cyc
▁anemia
▁angiography
BH
▁renal
erate
ulant
uterine
▁bony
▁obstetric
▁Sodium
▁gonorrh
acycl
▁decreas
ortic
▁surgeons
▁retrospective
tents
zation
invasive
istar
sych
▁quanti
▁rhin
▁subarachnoid
▁cystic
▁regained
adication
▁pneumococcal
▁mildly
IU
▁recom
▁Subsequently
▁TMP
▁anaerobic
▁traumatic
▁parental
ulla
lac
▁cyclooxygenase
▁uric
lycer
aternal
irub
▁fluoro
tained
▁differenti
teroidal
▁extrac
▁tol
ithelial
expressed
scher
▁detecting
▁airway
disc
▁interf
▁discharge
lox
▁thyroiditis
▁NSAID
▁rati
glycer
▁hazards
LISA
▁aggression
▁injec
▁Increas
▁clu
elan
▁murmur
▁buc
▁defic
▁inversely
▁ferrous
odil
▁qualit
▁chloride
▁menopausal
rowing
phic
▁Conventional
▁intraepithelial
accharide
▁intravenous
lies
▁echocardi
adian
▁circulatory
roin
limb
zyme
▁detec
▁thromboembolic
OH
itoring
▁Lipid
ionic
pain
lax
▁postnatal
▁refractory
▁hypog
▁etiology
▁outbreaks
GH
elic
▁omega
▁histological
▁ventilation
▁polymyxin
▁choline
▁referral
▁subc
▁coag
▁arth
▁previ
▁diffic
articular
essive
▁tolerability
odds
▁coli
▁cros
▁femoral
gA
odic
▁dias
▁gum
▁propor
ystic
▁omeprazole
atosis
▁glut
▁intercourse
▁analges
erin
▁pathologic
▁loos
▁sampled
▁cylinder
▁fibrillation
▁multicenter
▁amenorrhea
▁immunity
▁biopsy
▁Doses
osamine
▁levodopa
▁withdrawn
alian
▁paired
▁emo
▁fibr
rance
▁pleural
▁whee
▁Adverse
erge
▁dextro
▁Haemophilus
certain
▁Exercise
▁streptococci
▁postprandial
▁ibuprofen
▁criterion
fir
▁LVH
▁cysts
gulation
▁allergen
enec
athiop
▁adop
▁arose
▁fetuses
▁severity
▁impairment
glucosidase
▁practitioners
gesia
▁divertic
▁retic
tiguous
plemented
ostomy
entral
▁prevalence
▁Treatment
▁ventilator
▁Evaluation
▁smear
▁capsule
nai
arbonate
urate
▁metronidazole
▁titr
▁influenza
▁secrete
▁interc
▁abduc
▁gonadotrophin
oprotein
olitis
▁cohorts
▁bathing
Cu
▁Vitamin
▁contracep
▁Diagnostic
▁hypothe
▁intermedi
▁correlated
▁antim
ilep
aturia
duction
chid
▁bronch
▁lesion
operative
▁exis
▁sti
▁overt
ecal
▁scientif
sectional
ospor
▁cohort
emin
hexidine
▁antipsych
ygen
ulsive
plas
eliac
▁plas
oplasm
▁syndromes
▁preparations
▁LT
▁psychomotor
▁thresholds
lycemia
▁tertiary
▁hospitalization
▁abor
ruc
enol
▁oste
turb
▁hospitalized
umably
▁neph
▁estrogen
siveness
▁adrenal
▁SPL
▁unresponsive
▁splenectomy
sors
▁acqui
▁fluoride
▁selec
kets
▁MRI
▁disturbance
▁cranial
rography
fractions
teria
▁favorably
iatic
▁Subjects
▁trac
traction
▁colitis
ipheral
crib
vian
stro
▁Physicians
ults
DNA
oxic
ovastatin
▁direc
▁pneum
tential
▁propensity
achial
epam
▁thromboemb
▁derange
tory
▁glomerul
agin
▁hypo
amethoxazole
▁inducer
▁antagonist
▁Calcium
▁yeast
▁hemat
▁arthritis
▁pertussis
▁yearly
▁examining
▁carc
ameth
▁Increasing
triglycerid
uestion
▁Prospective
▁gonadotropin
▁fractures
▁perox
▁lapa
scherichia
iphene
▁selective
ithin
▁Oste
▁enteral
▁pneumon
▁proce
▁undere
▁serologically
▁hysterectomy
▁cerv
amines
▁rash
▁hyperplasia
▁ascertain
▁PV
▁Comparison
osyl
▁sati
▁uterine
▁overweight
▁Multiple
▁unexpectedly
hetamine
▁keto
orectal
▁inflamm
▁regimen
▁synthesize
▁erythema
timate
erver
utions
treatment
▁Hyd
▁intrac
▁sampl
▁establ
▁encomp
▁abscesses
uscular
▁hereditary
▁monitored
immun
▁circumference
ritis
lytic
▁Bacterial
▁psoriasis
▁attain
▁indo
▁reflux
vice
ocellular
▁placebo
yridine
daily
▁Depression
orbent
▁urinary
▁menstrual
uretics
▁requi
▁competence
▁membran
▁hyperch
oil
▁possi
▁ascer
▁suture
motic
▁fluoxetine
▁stimulus
▁plasmin
▁gradual
▁ranged
▁exhaus
▁acetaminophen
esity
▁basal
▁glucocorticoids
▁epidural
▁Functional
pH
▁unil
obronchial
floxacin
▁augmenting
▁identifiable
cents
▁exhibiting
converting
▁doubled
hyp
▁increments
abd
▁hydrogen
▁carotid
▁statistically
orated
otoxic
▁benzyl
▁scans
▁hypoth
▁underg
▁hypox
glycerin
▁gentamicin
▁Leuk
▁relapses
lec
olones
arrhythmic
enteritis
aund
tiary
eptin
isole
▁medically
▁doses
uminal
▁cholesterol
▁heparin
▁xyl
▁shorten
hydroxyp
restricted
▁hypers
▁pediatric
enic
▁concurrently
oglobin
opar
▁underst
▁responsiveness
thromb
sess
▁nitro
▁Lymph
oxetine
ococcus
▁occlusive
tero
▁creatine
omatic
chlor
ilol
▁carcinoma
cious
mL
▁anhydr
▁Trial
▁agonists
▁transmitted
▁Interestingly
▁pharmac
▁infertile
▁vigorous
tively
yclic
▁accessibility
associated
tured
▁Compared
▁substanti
erving
eared
▁syncope
tering
▁detrusor
▁distorted
▁absorpti
▁diazepam
iotics
▁rehabil
androgen
▁dosing
surgical
tention
▁rhinitis
itant
tir
▁Registry
salt
plenic
▁compares
responders
▁squamous
▁derm
▁IgG
▁psychosocial
eric
▁serogroup
▁abnormal
gesterone
opausal
▁ovaries
▁efficacy
▁bic
▁manifested
▁calf
ordial
▁examin
▁damaging
▁incub
iloride
▁tubercle
queous
▁antiarrhythmic
▁osteoarthritis
opathic
▁correlating
retion
▁antimic
tice
▁ovulation
▁ferritin
pir
▁hepatic
▁subfractions
olesterolemic
administered
▁leukotri
yro
▁microb
gression
omycin
▁inver
▁brom
▁androgen
▁conduc
▁receptive
▁hypoglycemic
▁infants
▁nephropathy
ergency
▁atrophy
tine
dic
menopausal
▁Identif
▁aerosol
comitant
oscopy
▁adenomas
imeth
▁IgM
▁calcification
oretic
lamydia
ressive
quisition
▁intrav
odular
oratory
▁juven
sA
▁metoprolol
tial
▁abd
▁symptomatology
▁acet
▁Regarding
ocin
lier
olytic
▁supplements
▁contiguous
▁autoantibody
tropine
HDL
▁proteinuria
tomy
▁hepatitis
▁unnecess
▁deox
▁rats
▁prognosis
tingu
acil
ungal
partic
▁Hyper
▁Estimates
▁pathology
oxyl
roxen
▁stratif
dL
▁investigations
acerb
albumin
iazide
▁blinded
fib
▁analgesic
tivity
▁transi
▁splen
▁stringent
dia
▁infarct
▁throm
tein
▁absorptiometry
vant
▁evaluating
omal
blockers
uric
▁cessation
▁discon
▁stratification
▁ank
▁neuropsych
▁lifest
protein
▁initiating
iability
▁mann
▁usefulness
vaccinated
ocys
▁retinopathy
olamine
ardia
▁births
▁endoscopy
▁tach
▁herpes
trum
quired
▁amph
▁endoscop
▁reactivity
▁Acet
▁abdominal
▁hematologic
▁Surgical
▁preventive
▁supplemented
dered
IgA
▁dipyridamole
inase
▁naf
▁kinases
odine
imination
ocl
▁ulcers
imentation
ystolic
▁Dental
▁lithium
trin
▁eradic
oste
▁regurg
gth
▁cutoff
leukin
nish
▁melan
▁disseminated
▁buspirone
▁scl
▁validated
▁mite
▁Hep
Gs
▁digoxin
▁postural
▁hypotension
▁Acad
▁cholinesterase
▁intramuscular
omotor
▁spikes
▁atypical
▁pellets
▁condensed
▁immun
timulus
▁maneu
ffinities
▁affec
▁ELISA
▁progression
▁diabe
oskeletal
▁zinc
▁nasopharyngeal
▁dorsal
ectomy
controlled
opam
▁Ventricular
icine
hea
▁cerebral
▁conditioning
▁contraception
▁lipophilic
▁elic
onin
TSH
▁anatomic
alsy
umetanide
▁recr
▁questionnaires
lyb
fat
vaccin
▁epidemiologic
▁EI
▁lacks
urnal
▁lovastatin
▁encephalopathy
▁pneumonia
▁radiography
asal
▁rifampin
▁mobilization
▁grouped
ymp
yclo
▁intracranial
▁sequenced
onyl
▁decarboxylase
anad
amphenicol
thre
omat
▁vesicles
▁granuloma
NH
▁pharmacists
affec
dial
effects
▁Clinical
luded
▁hydrox
▁microscop
robial
esic
ecre
▁gynec
▁anticonvulsant
sul
▁hormone
▁neurologic
▁Candida
ventilation
▁leukotriene
▁assessing
▁injur
▁proceeded
iotic
idated
poor
sensitivity
Ca
▁steroids
▁illnesses
ilic
onas
determined
▁regression
cyt
athic
▁gluten
▁dysfunction
▁idiopathic
ysts
▁carbohydrate
▁schedules
▁logistic
arous
▁satur
▁vaccin
▁crosso
sian
▁hyperb
▁swabs
MW
▁Thy
▁fric
▁peroxide
▁Extensive
hers
resis
econd
▁transferrin
patients
▁pem
▁acros
▁postoperative
▁incision
▁fungus
▁hypothesize
▁paren
reactive
▁latency
formin
▁microscopic
iae
▁adequ
▁Increased
ositi
▁pigment
▁hematoma
▁induction
▁restraint
▁pharmacokinetic
▁occl
organic
▁intrap
olig
▁improves
sives
kine
osomal
otox
parathyroid
▁ae
▁Statistical
thmic
athioprine
▁GAD
▁Prel
▁necrotizing
▁coagulation
▁symp
oprol
▁RAS
ophilic
▁impairs
▁swit
▁molecule
▁drainage
▁atten
sant
▁hypothetical
▁luteinizing
luding
coh
upus
bearing
letion
▁Secondary
hydr
▁sham
▁ach
absorption
arial
▁slowing
▁fung
▁Surgery
lated
▁immunotherapy
▁prostatectomy
▁thirds
▁intram
onidine
▁frac
▁appendic
▁mec
erance
casein
▁drinkers
▁thromboembolism
▁exten
tation
▁ionized
▁fibros
potential
utable
tiv
▁aden
lyce
irc
▁detectable
▁grains
tensives
mental
▁interleukin
razole
ocyst
▁amp
▁measurable
yx
olone
▁hypothal
oconstric
▁adenocarcinoma
perature
gestin
tially
▁proton
▁inguinal
▁sple
▁antagon
▁WHO
▁polyc
▁retinal
▁elevated
▁subsets
onide
▁insufficiency
▁antich
▁prodrug
▁neutroph
▁dopamine
prandial
EG
▁quantitative
oagulation
iline
flammatory
▁relapse
▁microorganisms
tec
▁prednis
othiaz
▁malign
eclamp
enters
▁MRSA
▁fertile
allium
elec
ochrome
▁Twelve
▁interacted
ighted
regn
▁Nutrition
▁amniotic
▁elevation
▁Estim
▁atrial
ucl
entricular
▁preserving
▁Beta
▁benzo
estion
▁bradycardia
▁infar
vival
▁rhe
▁distinguishing
arean
▁percentile
▁morphine
▁sedation
ervative
▁suggestive
▁sensitivities
▁creatinine
titutes
▁averaged
▁anomaly
▁ventricular
ulatory
▁evaluations
▁Nit
▁verapamil
▁scanning
▁CAP
▁transient
▁neurogenic
dine
▁effic
acted
atab
▁deterioration
bladder
▁tib
▁autoantibodies
▁compartment
▁adolescents
▁junction
▁ovarian
duce
▁characteris
▁cerebrovascular
▁euthyroid
▁attenuation
adine
▁Comparing
went
▁assay
▁elevate
▁irrig
ectom
▁extrap
▁resol
▁outlet
▁intub
▁trich
athyroid
▁LDL
▁retardation
▁amo
▁rheumatic
▁definite
unctional
▁gestation
▁prostaglandin
▁Magnetic
adjusted
▁unchanged
▁aneurysms
▁protr
itriptyline
TG
dominal
aryng
▁Sixteen
tage
roscopy
▁eradication
▁confers
viral
▁diarrh
genic
▁ester
MH
▁monit
▁ankle
▁reversed
▁injections
▁Consequently
olism
▁myocardial
▁nonspecific
▁rectal
▁resul
▁angiotensin
▁anxio
stim
▁strains
vac
▁sulfate
▁extensor
▁esophagitis
▁Combined
▁ulc
anic
onc
AFP
▁PEG
▁Ultras
omiting
contrast
▁choles
▁compart
▁challen
induc
aemic
▁nasal
▁Evidence
idating
yel
ituit
▁acces
▁datab
intensity
▁reductions
diabetic
▁plasminogen
amn
reported
veness
CRP
▁nec
molec
▁postmenopausal
ochrom
▁antibiotic
pig
▁lactation
▁lymphocytes
▁respec
▁adjustments
caro
▁generalized
▁adjusting
lyc
▁hetero
▁differing
▁uter
iminary
▁predisposition
▁respir
ficial
ermal
▁inhibit
▁gly
lobin
▁HSV
tency
▁modif
▁Atrial
▁lymphadenopathy
mittent
▁lumen
▁carp
▁contraceptive
▁ascorbic
▁polyp
thmias
▁defec
▁vomiting
▁saphen
▁eryth
▁skinfold
▁anticholinergic
▁posi
concentration
▁metast
ancomycin
▁HDL
muscle
adic
▁diffus
enin
opathology
aturated
terol
▁voluntary
▁paroxysmal
▁ect
oracic
spective
sied
▁identif
itively
icin
▁glycosyl
▁tablets
▁Neu
▁hepatocellular
▁biopsies
▁pancre
▁premature
▁coenzyme
▁phenotype
▁chemically
heat
selec
▁Preliminary
meth
▁Thirty
▁viral
hospital
Tu
▁linearly
ymptomatic
▁construc
▁visualization
jec
methyl
▁saturation
tic
deficient
meas
▁guinea
ureth
ocrine
otassium
▁clamping
▁antigen
▁syphilis
entif
▁conjunction
severe
▁Bac
▁muc
▁reser
dil
ethylene
▁decreased
urther
▁venti
HF
▁gonadotroph
tum
▁cytology
▁consecu
▁uncontrolled
▁TM
▁gland
itidine
▁electrodes
▁lesions
▁renovascular
umerous
atches
enyl
▁CABG
▁heterogene
tinguish
hydrop
epti
urine
▁pretreatment
chol
▁inherent
▁HB
▁ductus
otypes
▁palpable
clic
icep
itro
enil
▁inducing
▁elastic
▁LV
▁intrauterine
▁cyt
▁averaging
▁discontinued
▁diaz
▁Survival
▁amn
lob
▁bolus
regulation
▁glucocorticoid
▁theore
individual
tally
▁irregular
erent
april
▁inh
▁urine
▁glycer
▁deoxy
xual
▁mono
▁abdomen
▁scalp
▁peritoneal
▁secreted
▁titers
▁hypothyroidism
▁Oral
▁calcium
▁nonc
▁adjustment
▁fulfilled
▁bromocriptine
ionate
▁physicians
▁positioning
yrid
brile
▁triceps
▁sput
ucas
▁pim
▁hypercalcemia
▁verbal
ctomy
▁stepwise
▁valpro
assi
ologic
▁surgeon
▁reticul
ticle
▁inadequ
▁tubercul
▁subcutaneous
▁calcified
orin
▁malignant
tis
reast
▁constituted
▁precursors
otting
▁pyrid
▁Mild
▁dysp
▁Transient
teric
▁supplementation
▁corticosteroid
▁Caucas
▁latex
▁congen
▁sedimentation
▁esophagus
▁placental
utaneous
▁techniqu
▁gestational
▁duct
gment
othal
ipramine
▁neon
▁coh
ipro
ogenicity
▁indus
▁Sulf
▁orthostatic
▁palp
▁hypoglycemia
ipolar
▁Infants
▁deleterious
▁adhered
ffeine
▁carcinomas
valence
▁Epid
median
▁homogeneity
uprofen
▁superficial
▁lipids
▁comprising
▁neurolep
▁inten
▁vitamins
▁stimulant
tural
▁perfusion
▁worsened
ventil
▁alp
▁adjus
onazole
arate
lives
▁psycho
feren
▁brainstem
▁inflammatory
olesterol
▁EE
▁spacer
▁terat
anat
fusion
esti
▁bir
▁retrospectively
▁optimally
▁hypertension
▁manipulation
▁clinics
▁Exc
ometri
▁precur
▁immunocompetent
radi
▁lumb
olerance
ctive
▁airflow
▁ESR
▁febrile
urgical
▁RS
▁necro
▁intranasal
onine
▁mL
▁inges
▁enzyme
cholesterol
▁perc
▁Ace
▁solitary
▁transplant
rein
▁interventions
▁psychiatric
▁saliv
idone
▁insoluble
ilus
▁twofold
▁Gluc
▁underestimated
▁Examination
ochem
▁cortic
esium
sible
▁nonf
itus
roscopically
▁arrhythmia
▁normalization
ller
▁nonsignificant
respective
phil
enicillin
fraction
ocardial
▁rup
molar
▁perfor
▁nif
▁experimentally
▁erythromycin
▁reliability
osus
▁propranolol
achol
andida
teral
▁irrigation
▁trimethoprim
urrent
▁endocrin
▁anoxic
▁questionnai
ophys
▁esophag
ipr
▁hyperactivity
▁goiter
▁attenu
vation
▁staging
▁physiology
apid
jury
elves
enia
▁regulate
▁contaminated
▁Factor
▁ejac
lux
gluc
▁colonization
▁respiratory
▁BCG
▁conductance
▁adherence
PCR
FEV
plants
trial
▁pyr
▁peaked
tinent
llate
▁vasoconstric
▁smo
thmatic
▁hygiene
▁conservatively
▁postin
▁graf
odop
taining
▁intran
▁worsening
▁luteal
▁nonp
▁detects
▁penile
▁abnormally
▁postnatally
▁histology
▁surgically
▁hypon
kelihood
▁fulf
titution
▁prognostic
duced
▁rigorous
▁Disease
▁excretion
▁dextrose
▁formulations
▁hypocalcemia
▁mucos
▁recor
▁regurgitation
▁tymp
▁deviation
ylic
loride
▁converting
▁articular
▁Levels
acetic
arrhy
▁gyn
tent
▁mU
albuminuria
▁continuation
oconazole
erad
▁protec
directed
▁PSA
▁attemp
▁LN
resist
▁audi
▁incompletely
▁metabolic
▁antipsychotic
resistant
▁migraine
trop
ept
ignificant
▁mening
▁discom
sants
ithm
kage
▁glucose
▁artifact
IgM
iplin
▁hematuria
dose
▁unex
atible
antial
olated
▁prophyl
LDL
ongest
illin
▁obese
▁inhal
opus
▁Reduc
otoxicity
▁epilepsy
conver
amol
angiotensin
▁DF
▁progressed
▁cen
uccess
quine
▁dissemin
▁iso
▁acetyl
▁intractable
▁infancy
▁presumed
▁cereb
▁glycoprotein
phine
hydro
▁underwent
▁deposition
▁tas
onucle
ometh
▁stres
▁irritation
▁suction
▁intest
trib
▁metastases
▁Replacement
▁pec
▁hypoxic
▁TC
▁IB
▁uv
acr
▁erythrocyte
▁unilateral
▁erythematosus
▁vertebral
enzyme
▁concentrations
diagn
▁Streptococcus
▁infectious
▁Tiss
▁prematurity
▁elicits
inergic
▁glomer
injection
pecially
ophysical
▁tamoxifen
▁tran
trogen
▁aspirin
▁Meas
dens
trac
tiveness
trol
▁contex
▁fluc
inol
▁vitro
▁radiographic
ritic
▁standardized
▁hypertrophy
▁bilirubin
ipril
▁inhibitor
aryn
▁conception
itrate
▁antibodies
raine
▁hazard
ventional
▁schiz
▁supple
▁PMS
▁CI
omerular
▁Bec
▁sputum
alc
▁limb
▁stimulants
▁conflicting
▁chronically
▁contrib
troph
▁benzodiazepines
ectable
▁specificity
▁agglutination
▁albumin
etoprotein
opause
▁dairy
▁anesthesia
▁Myc
itone
ethyl
▁pep
udin
thood
bran
▁bac
wes
onary
asses
onad
tration
otrop
hyd
▁recurrences
▁eighth
▁promptly
ths
▁quantified
▁renders
iteal
opr
ofil
▁Investig
▁maternal
▁subjec
▁polym
opharynx
▁effec
▁antec
▁inspiratory
▁otitis
▁Chlamydia
▁analogue
▁extracts
▁tendon
sue
▁seroton
▁NP
▁cephal
▁discus
▁lith
tives
▁erg
▁Arter
▁tricyclic
▁esterase
▁hyperg
▁tolerate
▁cyclosporine
nisolone
▁bacteri
▁bip
loro
▁eliminating
blind
▁weighed
viron
omized
vedilol
▁sulfonyl
▁enlarged
owever
stimulating
▁endemic
▁Assessment
gely
▁anat
▁ruptured
▁ofloxacin
▁captopril
onit
▁activator
▁alanine
▁opioid
ducts
▁antidepressant
reases
▁ana
▁unselected
▁lipid
▁remission
aryngeal
osac
ycline
▁substantially
▁Comparative
▁waking
ocaine
ocomp
scop
venty
antibodies
years
▁IU
vertebral
▁influenz
venous
oscop
DH
tually
dition
▁hairy
imens
▁suscepti
ods
▁plantar
▁comparisons
▁indications
nee
▁crom
ections
pirone
acental
positive
▁algor
▁impair
ternational
echn
fiber
▁focal
HB
▁exer
▁regimens
omethacin
▁gastric
▁SIDS
▁Pregn
▁disclosed
atural
▁resec
monary
▁subf
▁infertility
atitis
▁RR
▁obesity
▁predictors
Hb
anin
▁practic
▁euth
amphen
ischemic
▁treadmill
portant
▁Patient
▁melanoma
lusion
▁atenolol
▁neonatal
▁acad
▁ligament
usate
▁adolescence
▁agonist
▁appropriately
▁lateral
▁localized
cellular
▁Severe
rected
▁gels
▁scars
rachial
ysm
▁mell
▁Forty
ipit
asic
▁calorie
▁spi
▁methodological
responding
throm
▁incomplete
cepti
▁wors
dent
▁therapeutic
▁antidepress
▁Hypertension
▁Dip
▁sediment
reatine
▁anomalies
rotal
ffin
illary
tested
▁prednisolone
▁fetal
ivary
▁simult
▁Cardiovascular
oung
generation
▁Histologic
ordance
zard
▁testicular
formations
▁BMD
▁transluminal
▁kits
ture
▁neoplasm
▁hemo
iagn
▁vesicle
▁perinatal
▁cys
▁implying
▁pneumoniae
▁oxy
▁clinician
▁veins
flamm
▁torsion
▁positional
▁gluc
▁injected
istal
teroid
▁predominant
▁electroly
▁subclinical
▁commercially
gus
▁subgroup
▁chan
bacco
▁tendons
romes
urgery
ocarcinoma
ococcal
tection
▁ischemia
▁minimally
atrial
▁foc
▁normotensive
▁multivariate
etine
oluble
▁sclerotherapy
▁excision
▁breaths
▁shedding
▁subgroups
▁adverse
ticularly
▁LMW
▁amput
▁deform
vul
▁discriminate
▁cryp
▁fatty
▁granulomas
▁magnesium
▁termination
▁promin
▁graft
earance
▁uptake
▁nontoxic
▁penicillin
cemic
tition
astatic
fetoprotein
izine
Cer
▁parity
ophy
▁bronchitis
reas
glycoprotein
▁thrombus
partum
▁duplex
ocomial
adone
onate
▁serotoninergic
▁bypass
▁investigators
▁Neuro
▁Sensitivity
yroxine
▁unipolar
lip
tism
▁suppression
ulitis
▁rhy
▁thrombo
▁ramipril
▁clon
osom
▁minus
yroid
butamol
▁recurrence
▁arterial
▁amphetamine
erb
dle
▁ppm
▁cyclospor
ypro
tebral
piratory
▁yielding
▁smears
▁Subsequent
▁revised
▁competent
rease
▁hemorrhage
ocated
▁incontinence
▁prednisone
▁chewing
azolam
uble
▁polycystic
▁flashes
▁dox
▁enal
▁evid
opo
cessive
▁eti
wk
▁contraceptives
aminophen
▁dosages
▁remo
▁allergy
▁tibia
▁effusion
mmol
▁morb
▁tetracycline
Rs
Hg
▁transthoracic
▁allevi
▁receptor
▁hypothyroid
yses
mega
▁carbohyd
▁carbonate
▁scarring
LV
ocysteine
ayed
▁dizziness
▁dyspnea
agonist
▁incontin
tel
▁posttreatment
▁influenzae
ealand
▁thrombosis
inic
erative
initi
▁stools
roxy
sions
▁ampicillin
▁comprised
bac
▁suppressed
erable
▁Insulin
eeding
rologic
responsive
▁lar
▁subdural
iplinary
embran
▁unusually
▁HLA
ocortic
ogenic
amus
▁asymptomatic
otri
▁lute
vascular
▁pulsed
▁Thir
▁sonography
organisms
▁sten
▁correspondingly
▁calculi
achnoid
dip
▁protoc
▁coated
▁dor
inoc
ration
▁halves
▁retinoids
▁Injection
▁fas
▁acute
owel
mia
▁avoidance
ithi
oxide
▁lymph
acting
▁hypogonad
▁Afric
adin
▁immunobl
▁placenta
▁coping
▁tibial
▁lipoprotein
▁tended
▁DMP
▁balloon
chlorothiazide
▁complications
▁immunized
▁sequentially
▁hyperlipid
▁diuretics
amphetamine
pine
adequ
▁relap
▁potenti
PV
tically
ospasm
▁caffeine
Ba
▁vaginal
oprim
▁ratios
▁Americ
osts
orac
▁nutritional
▁benign
▁addic
▁drin
▁admissions
▁kidne
okine
▁outflow
▁sepsis
▁allergens
▁kidneys
▁sorbitol
▁autoimmune
▁quoti
▁recurrent
▁undergoing
▁incis
astatin
▁Successful
▁ureter
▁thir
▁duc
▁socioeconomic
▁prolactin
onor
onstric
▁sero
▁hyperlipidemia
▁islet
geal
oneph
▁Fifteen
▁concep
▁comple
ductive
▁transcription
ardized
arachnoid
▁Depending
partate
onephritis
▁noninvasive
▁pylori
tension
▁transfusion
▁preoperative
▁tubes
atient
uria
▁reduc
▁amitriptyline
▁progres
▁recordings
▁functionally
idne
▁antifungal
▁leukocyte
oporosis
▁benzodiazepine
▁multim
▁Scale
▁attrib
▁HS
abies
yste
amethasone
▁lacked
▁infec
▁incomp
upuncture
▁intolerance
▁isoniazid
▁enamel
onegative
▁endo
▁proximal
osterone
▁excretory
▁intensive
diagnosed
▁spre
etal
rates
▁fulmin
▁criter
▁endometrial
▁dihyd
▁vulgaris
▁incom
cyst
blood
cortisone
▁Fourteen
tox
▁operative
▁juvenile
▁cultured
ophila
atical
terone
ocar
▁oils
attern
▁hypertro
▁placent
▁interfer
▁ow
▁unfractionated
▁helical
▁randomization
▁neutrop
promoting
▁atropine
▁deli
▁succin
▁sonographic
gated
▁arteriosus
clinical
▁sugges
▁predictive
▁caries
aceous
sodium
▁Apgar
▁Rates
blocker
orec
tronic
EMG
▁HI
▁menstr
▁HL
▁azathioprine
urrence
▁microvascular
▁immunogenicity
vastatin
oyl
▁preexisting
▁superiority
molecular
▁resear
▁exceeded
ediatric
▁scre
▁MIC
▁excluding
▁dietary
orh
▁communic
▁inhaled
▁AFP
indolol
uin
omatosis
retic
LR
▁postpartum
▁myc
odies
▁chlor
▁endometrium
mur
▁Increases
rays
pation
▁glycol
ographically
romy
iatric
▁perone
▁readings
▁nig
▁infrequent
erally
▁expiratory
hep
▁diagnoses
▁LD
▁lutein
aline
▁simplified
▁ranitidine
ayers
xia
sive
versely
bumin
▁cavity
▁exhaustion
▁hemorrhages
ampl
▁clus
aturity
▁pulmon
▁asthma
▁hemorrhagic
▁artery
▁hygi
▁resis
peptide
▁intraven
oxin
▁deoxyrib
umulative
▁Significant
▁unaffected
▁inappropriate
▁hepatotoxicity
▁longus
▁ulcer
ocardi
pecies
▁cic
▁intra
within
itonin
▁sulf
▁modeled
ociated
▁spinal
▁exce
▁suppres
▁prophylactic
▁Bacter
▁repres
cis
ximal
▁resour
▁arousal
▁insufficient
▁nylon
▁inser
▁therapies
oic
▁succes
▁immunoglobulin
idase
▁optimum
▁administered
tensive
idation
otent
adders
▁corticosteroids
▁Patients
seud
ispanic
▁panc
oprost
atum
lora
▁clinicians
▁enlargement
ingers
▁ischemic
aicin
▁differentiated
▁overlapped
▁ambulatory
▁enti
▁phenyl
▁postinjection
▁nodules
▁differentiate
nine
▁DSM
▁dors
▁aureus
▁Clinic
▁IgA
ritin
▁FD
▁heterozygous
▁experim
▁accep
hydrox
▁microbi
▁fluids
▁arteri
olam
charged
cture
▁proportions
idine
▁Symptom
▁CRP
ophageal
fate
prising
▁oss
Pa
▁malabsorption
ionine
▁acetate
▁indi
pli
odopa
▁pancreatic
▁aspartate
ausea
examin
tosis
▁sutures
▁depressive
▁heterogeneity
▁favorable
▁MH
tening
xate
▁probes
jun
▁analgesics
▁phosphate
mum
▁titrated
▁decreasing
encephal
▁Risk
▁ure
▁tac
▁neuropathy
▁colorectal
▁chlorhexidine
▁tic
till
opa
tran
effec
▁revascular
▁immunogenic
sus
cyclic
othi
▁formulation
thyroid
▁bilateral
phen
▁antid
▁contraction
Ls
chers
▁fertility
ASA
▁poin
▁COPD
▁endoscopic
omies
▁neutralizing
▁cartilage
cutaneous
▁behavioral
▁adap
uppression
▁CIN
▁Engl
usp
entical
▁evol
▁confirming
▁cyclo
ubs
▁couns
▁pooled
herence
orsal
▁phon
▁excised
oride
▁asymmetric
▁neomycin
▁moderately
early
▁ultrason
olus
▁Seventy
▁tuber
▁alcoholic
tia
plementation
▁peri
Ig
▁rheum
▁cutaneous
▁emulsion
apanese
▁reac
▁cholest
apamil
▁stric
▁PEF
rents
stin
▁paradoxical
▁complication
▁Maximum
▁qualitative
NIDDM
▁soluble
▁acyclovir
FSH
titute
▁cann
▁actin
olesterolemia
estrogen
▁enl
▁retin
▁flora
▁Ib
ergy
▁musc
taz
aric
▁Fib
▁decreases
▁dehyd
▁ulnar
▁trimester
▁calcitonin
▁cardi
▁Hyp
vices
▁defects
▁insignificant
▁TP
▁orally
▁hemorrh
▁Coronary
▁bipolar
▁specificities
coated
▁ventil
▁nitrogen
▁endometri
▁smokers
romised
▁heterosexual
▁cis
▁rupture
▁definitive
▁tuberculosis
mediately
▁systolic
▁viruses
▁compositions
▁mcg
toxic
▁persis
oppler
ughter
illus
▁deformities
▁thi
thi
tropin
avage
▁reflex
▁surveyed
▁glucosamine
▁suppor
galy
▁interferon
▁gonadotrop
lood
odiaz
▁serolog
tensin
tte
▁capsaicin
▁clamp
amid
struc
ocytopenia
osclerosis
▁developmental
ophag
epines
threatening
▁bronchoscopy
▁substances
▁encephal
SBP
▁infarctions
placebo
▁PGA
▁shortened
▁multin
leu
ritten
farction
▁lupus
idin
either
vic
▁bronchodilator
▁recruited
azone
▁wk
oag
▁kidney
▁bronchodil
▁phosph
▁Reduction
lamin
▁antibiotics
▁diastolic
Ds
drug
▁crossover
eptic
▁CAD
LH
anding
thickness
tracted
▁trig
ocyt
tur
ipid
predic
▁electr
oprolol
▁persists
ophren
insulin
▁prescribing
▁inpatients
▁electrolytes
▁intestinal
▁antioxidants
▁antif
▁histamine
ilin
▁preceding
▁gases
immune
▁instrum
inopril
mortem
▁judged
lys
ocytes
yrib
▁thrombotic
reduced
ocyte
▁mortality
▁asthmatic
▁adi
antoin
▁sedative
▁malignancies
▁bumetanide
triglycer
ocytosis
ochemical
▁splenic
fine
tate
▁sensi
▁induc
osal
ontal
▁positively
illar
▁Findings
farin
▁pelvic
▁bran
sia
▁metastatic
creatinine
▁dysplasia
loxacin
▁pretreated
▁fasting
tors
▁cytochrome
moking
tenti
▁susceptibility
▁inadequate
▁Hear
▁Fifty
▁predictor
vitamin
▁bladders
▁aerob
▁equivocal
▁electromy
▁Diabetes
▁adipocytes
▁thyroxine
rogenic
▁extre
▁tiss
▁amin
coronary
▁predis
treated
▁embolism
▁alternating
conduc
ronchial
occal
enem
▁toxicity
▁steroid
▁quantit
▁internally
▁enzymes
tisol
azoline
▁recurred
containing
▁menopause
▁marginally
apine
sulf
▁candidiasis
▁nifedipine
▁multiv
oplasty
▁vancomycin
▁paroxys
tility
▁adolescent
bacter
▁theoretically
▁Ig
▁bacterial
▁agon
▁heavi
▁lowering
hene
▁fractions
tam
▁prostatic
▁physiological
phor
ensi
onvul
▁substitution
▁chor
▁unrelated
▁dihydro
▁symptom
▁adulthood
▁contractions
▁Concentrations
▁rebound
▁methodology
adren
▁beha
etan
▁plaques
▁critically
▁causal
▁impaired
▁endarterectomy
olec
tigu
▁esophageal
irubin
▁puncture
▁imaging
▁soy
▁fossa
▁neutropenia
ograms
▁demonstrable
tact
▁adversely
▁topically
▁topical
▁allele
▁presentations
▁histologic
plen
▁exclusion
▁confounding
ducing
▁abstinence
mokers
▁amiloride
spectively
▁chloramphenicol
trical
▁unres
vivors
▁hydrop
▁cervical
DV
crip
urys
▁prescrib
▁accid
▁radiological
rocy
▁Tran
▁receptors
tive
▁pregnancies
▁pyl
▁bloc
rati
anine
▁ADA
▁pell
reness
▁congenital
▁chlorpromazine
▁tumor
ffe
▁uniformly
▁Ear
▁clinically
aginal
▁lep
dor
hydration
▁persisting
▁Initi
▁cancers
cys
leuk
▁diminished
▁inversion
▁radionuclide
▁persist
▁stenosis
ralfate
keletal
ystag
▁furosemide
opril
▁weighing
▁spleens
▁tuberc
ogl
sibility
▁percentages
▁aspiration
▁discomfort
▁paradox
▁Thyroid
oretically
▁seb
▁covari
tizing
▁compli
piration
rosy
▁infusions
▁practitioner
melan
▁leakage
rometry
ardias
▁tumors
▁verte
azole
▁sut
▁shor
▁desm
ipine
▁hyperthyroid
▁blockers
havi
ospitals
bodies
ifferen
▁paral
arrh
▁invasive
aryl
▁yielded
opathy
▁hydroly
▁efficacious
▁elective
adder
▁epidemi
risk
▁prospective
▁fati
▁PLP
▁reinforcement
▁Eleven
roph
▁infections
gressive
apsulated
tional
▁diagnosing
▁Mortality
▁pulmonary
▁exag
▁concomitant
opramide
openia
▁elimin
▁Subjec
▁atherosclerotic
utin
▁advan
▁chec
kely
isal
tion
▁kinase
▁elimination
▁fulminant
▁Leu
aturation
▁nonsteroidal
▁nondiabetic
oidal
▁nonresponders
enal
otrexate
▁demonstrates
xime
ulants
▁markers
establ
▁pla
lowering
edema
▁testosterone
▁abnormalities
▁hyperp
▁analyses
▁commerc
economic
▁curric
▁occult
urea
▁postoperatively
bly
▁carcin
▁coronary
▁reactive
▁Few
▁decayed
▁PCR
cribed
▁radiograph
▁Likewise
▁folate
cine
smokers
