▁urgent
▁strokes
stress
▁80,
▁exce
▁urea
erum
tyl
ortic
31
▁tiss
itively
1-2
umbers
▁nonselective
▁30%,
cyst
▁encomp
▁Laser
▁concep
▁laser
▁(3.8
▁144
rotal
▁0.20
▁MCV
▁emissions
▁1.6%
adequate
oscop
xyl
▁10%,
▁suppressed
erent
▁glut
ashing
otriene
▁attenuation
(5
▁Recurrent
emide
LU
gesterone
responsive
▁15,
11.
onatal
deriv
urred
▁adenomas
▁injections
▁TIA
-800
▁benzo
▁HIV
regulation
odone
▁injur
▁pregnancy
▁compound
▁onset
▁215
imus
mum
RP
▁Acet
▁disturbance
▁adhering
▁fracture
▁vertebral
esting
▁construc
▁-0.6
VH
opic
▁confounding
▁breaths
▁108
invasive
ifed
▁275
▁influenzae
▁tension
myocardial
▁Adequate
▁nonsur
inic
▁312
urgery
▁insurance
tilage
ardized
▁Hypertension
▁immunogenicity
▁calor
▁incid
▁nonresponders
ocrine
▁pulmon
▁bup
▁85%
▁0.77
ensi
▁muscul
▁Fifteen
▁doses
▁(3)
▁PEG
bran
▁reticul
▁25%.
▁titers
▁prolonged
▁Rates
tussis
▁HB
▁suppor
▁elic
▁VV
▁Parameters
▁behavi
▁exercises
▁15.
▁CN
acr
▁0.75
tiz
▁pulses
▁increments
▁39%
osus
2%)
tenance
-60
▁hemo
faction
▁argues
▁85%,
▁genetic
▁decline
tested
▁Intensive
▁ventil
▁malformations
menopausal
▁weighted
▁1%
significant
▁0.4%
▁25
▁tuberc
rowth
▁asthmatic
tro
▁transfusion
▁spleens
▁ventilation
▁Abnormalities
NV
flammatory
ograp
▁dips
Pu
▁Prevalence
sul
▁reasonably
lamy
▁questionnaires
▁PEF
▁underestimated
▁69%
▁retention
▁expressing
odies
▁demonstrates
▁placent
ateral
▁positional
▁aro
▁differentiate
itonin
enicillin
▁serotypes
▁expiratory
reast
▁57%
oplasia
▁114
▁sorbitol
▁histological
▁ejection
▁ampicillin
:1
▁acute
▁practition
-34
▁213
▁(10
▁decarboxylase
▁Localization
▁suicidal
ziness
ffec
00-
▁arous
▁4;
yroxine
▁(21
▁myopathy
▁0.93
▁mucosa
▁anemia
▁nonsmoking
▁235
matched
▁motivation
▁regulation
emory
▁(17
▁Sleep
▁evolved
▁Protection
▁2%
▁carp
▁itraconazole
▁7.2
illary
▁2)
▁hypoglycemic
DV
▁60
▁plac
obac
▁damaging
▁biphasic
▁retrospectively
▁1.26
▁injuries
aryng
▁hypothal
▁isch
▁attainment
▁crom
tigo
▁1.6
▁risks
▁gonadotrophin
atation
▁3).
▁triam
odine
/9
▁assays
▁electromy
▁estradiol
▁autoantibody
urine
▁179
uccess
▁daytime
▁(93
▁metastatic
▁diminished
ocyte
▁anxio
▁alcoh
▁Thy
▁Surgery
▁micros
▁Nutrition
amide
▁(1/
iatic
respective
▁uncontrolled
oselective
oustic
▁315
▁gonadotrop
▁endpoints
▁malignancy
CAP
mur
urin
▁223
gus
▁carvedilol
▁coordination
▁bleeding
▁67
lec
charged
osal
piratory
otherap
▁covariates
uded
▁0.05
▁enamel
illar
▁Hg
▁failures
▁antecedent
examin
▁Forty
▁0.95
▁strongest
▁persisted
▁56
ionate
fied
▁amniotic
umbar
tents
▁Phen
hers
▁bacteria
Gs
▁stripe
ethyl
5/
▁epid
▁vaccine
▁thyroxine
▁synovial
▁permanently
▁fluc
▁36
▁accep
▁fetal
ixation
erebral
▁81%
▁ambulation
▁managing
orable
▁perc
▁prospective
▁Cumulative
cents
orrh
12
▁achie
5.
erican
▁tolerance
▁reass
18
▁approx
3),
▁GER
inesterase
letion
▁vitamins
urations
dle
▁5.6%
▁9.7
▁conflicting
▁detecting
▁labeled
▁eligible
▁retinopathy
▁singlet
▁protoc
▁clinician
▁24%,
allium
▁ipratropium
▁artery
▁dias
▁heparin
▁0
▁inges
▁predictor
▁0.28
immun
▁116
onin
▁amo
olates
imazole
▁neuropathy
▁650
▁histamine
entified
▁Levels
▁77
▁Comparing
idity
▁22
sulfamethoxazole
▁gynecological
aired
▁Addition
angl
abies
▁grades
tinu
ergy
▁spray
▁Tissue
▁69
▁punct
▁nominal
▁infertile
▁bronchitis
otre
uating
▁90-
▁(4%)
86
▁nadir
predominant
▁menstrual
tical
▁glands
▁137
▁28%,
▁musc
ocyst
olute
assessed
▁drinkers
▁previ
hist
pite
▁presumed
▁bottle
thin
▁ovarian
▁steroid
▁gonadotroph
ucl
ariate
anding
idase
▁biopsies
▁clamping
▁inducer
▁gastro
oxyrib
ectom
▁disadvantage
▁(72
▁3/
▁intra
▁confound
▁(92
▁0.66
95%
diabetic
aund
▁stain
positive
ipr
venous
▁twofold
oxazole
apamil
BP
endix
▁poin
▁hemat
▁indoor
▁ablation
edding
▁reversing
▁5.1
ologists
▁crucial
▁dietary
▁escal
▁SG
233
▁ECGs
▁infec
▁diazepam
oids
▁thrombosis
0.
▁Sixty
▁(28
bacter
tices
▁Highly
atally
ulitis
▁subjec
▁choles
▁8%,
▁shortened
▁dihyd
▁cultured
icin
elvic
▁sorb
▁autoantibodies
▁chorio
▁1991
tection
economic
esium
▁subcutaneous
▁backgrounds
▁therapies
▁normo
cture
▁sha
▁1.19
▁cromoglycate
▁Surve
▁(2),
hydropyridine
▁hyperthyroid
▁2.3%
ocysteine
▁hemorrhagic
00)
▁resour
disc
▁dysplasia
▁oxy
▁antagonists
▁manifested
▁hydrolysate
vular
▁abortive
▁2.7%
sor
triglycer
▁elimination
▁lipid
▁reactions
▁Older
▁maturity
▁sputum
▁irritable
▁differe
▁Antic
entric
▁700
exposed
▁quantit
▁170
thmias
▁stab
▁contamin
8),
15
▁irritation
▁examinations
▁205
▁tobacco
inemia
▁investigator
yro
▁TI
▁cann
▁deterior
tigu
olerance
▁Positive
▁staging
tide
▁OA
▁Unlike
▁2.9%
▁atelectasis
loid
▁illnesses
▁0.59
▁postinjury
▁(5.0
▁supr
tle
ondon
▁favoring
oneph
▁nutritional
▁endometrium
▁penicillin
▁83
▁Nine
▁pyl
oscopy
▁cephal
▁(3.0
▁9%
▁tow
▁90.
▁neonatal
▁44
▁4.0
otrexate
▁430
▁(2
adian
Ba
▁upright
▁diagnostic
▁chorion
▁antibiotics
▁islet
▁relieve
omain
erate
▁challenges
▁Neurop
3/
floxacin
gated
▁100,000
▁77%
▁Chlamyd
▁encompass
erver
▁transc
▁heavier
▁0.1
onucle
ostic
astatin
rhy
alp
eight
▁presentations
▁incub
▁157
▁neuroleptic
▁92
ctive
▁clinical
▁melanomas
.8%
▁arrhythmic
▁preval
olism
iline
ustained
▁discus
renal
▁buspirone
FSH
▁conjunctivitis
▁suicide
▁22%,
▁fluids
▁kinases
kle
▁oxygenation
▁splen
▁verapamil
▁rotavirus
▁24
▁pulse
▁progestin
▁shor
LISA
▁hydrop
osm
respectively
either
▁nondis
▁perioperative
▁pneumon
▁sten
▁contex
▁239
▁inflamed
▁simvastatin
▁ib
▁serolog
▁164
▁necro
▁HBs
▁Incidence
▁juven
convul
▁hematoma
▁HER
▁30%.
▁thyroiditis
▁adenocarcinoma
▁(62%)
▁undergone
▁800
ophil
indolol
▁Urine
▁occult
▁1
▁Insulin
▁incontin
▁empirically
▁28
▁medically
65
▁aerosolized
terol
▁fecal
▁empiric
▁26
▁selec
▁261
▁ulcer
isole
-1.0
▁neutroph
▁nasopharynx
▁gestation
-70%
▁46,
itol
,000)
tations
cemia
▁0.01
Gl
menstrual
▁randomized
▁EE
▁(2.5
▁concentrations
▁focuses
nons
oxine
▁31
alazine
▁outlined
▁biased
▁slowing
▁HI
▁manipulation
-0
▁4.8%
▁horm
ingle
▁lactulose
▁1%.
▁18%,
▁Likewise
15)
▁malignant
▁complic
▁MI
thood
▁lithium
600
fed
74
▁14%,
▁persists
.7%
▁efficac
▁pharm
▁plasminogen
▁Fewer
▁10%
were
▁theore
▁subdural
▁qualitative
rement
▁(69
amine
▁antacids
▁39
▁Concentrations
▁deox
ongest
ported
▁pituitary
1-1
▁Stro
-35
romatosis
5%)
▁0.00
embran
▁recurred
▁herb
▁lax
▁alternating
mend
▁titr
ses
▁albuminuria
ogenous
neph
-10.
imethyl
▁allergens
▁(54
▁ESR
▁tes
incidence
▁encompassing
ilin
▁32
▁54%
zard
▁300-
▁surrogate
▁immunosorbent
▁HBsAg
▁practiced
▁rectal
ophor
▁95%
▁hypokal
▁persisting
cellent
▁moderate
43
▁CRP
atitis
▁diagnos
▁0.21
▁succes
▁caution
▁nons
▁HSV
▁3,
▁Coronary
▁PGA
▁manifestations
▁puncture
▁(70
▁deter
▁lidocaine
.3
▁Extensive
roup
▁heterozygous
▁metoclopramide
▁adults
idespread
▁45
▁interfer
70
▁0.42
ilic
▁fulfilled
▁41
▁enroll
ostomy
▁superiority
oric
▁xylitol
hyp
▁80%
▁pelvic
▁vasoconstric
rachial
caro
▁enrolled
▁arterial
▁233
ophysical
▁produc
▁correspondence
eptide
tors
▁weakly
▁pharmacokinetic
ameth
repres
arean
orectal
fetoprotein
▁sustain
▁fiber
▁hyperglycemia
anad
▁(32
lude
itidine
dominal
▁characterized
▁0.10
)],
onine
▁(7
reening
otamine
▁0.18
▁-6
oprim
▁conducting
▁sple
▁retard
▁rhinitis
▁glucosamine
enteritis
dose
▁47
▁therapists
▁receptors
▁sulfoxide
ectin
▁knees
▁0.70
▁256
▁spasm
▁suggestive
thre
▁occl
▁cholesterol
ceptions
000)
ylon
▁ulcers
▁compliance
horm
▁171
RD
▁prednisone
▁exten
▁persis
▁Prel
terin
gulation
▁Holter
▁acqui
pregn
69
▁chemotherapy
▁ascer
▁genit
▁nonf
▁withdrawn
FEV
phine
▁5.5
▁(1.2
▁exploration
▁allergic
controlled
▁smear
70)
▁clinic
uated
4,
oscopic
existing
▁221
ocellular
▁suspected
coag
sively
▁NSAIDs
▁(22
anin
▁lep
▁LT
▁aerobic
▁ACI
▁BMI
▁prospectively
▁reversed
▁sleeping
arynx
▁134
▁Functional
▁Invent
▁endoscopy
▁35-
▁specialists
▁glycosyl
▁alopecia
▁presumably
▁problematic
icide
▁preterm
▁conduc
▁98
▁pefloxacin
▁Antim
onazole
▁determining
epines
▁3.2
▁progressive
▁duplex
▁nontoxic
usive
erose
▁preoperative
▁neonates
▁trichloroacetic
iated
▁radiological
bac
erally
▁20,000
odic
▁Combination
ameters
fec
uretics
acted
▁laboratory
ytes
▁1.00
▁provoke
▁conjunction
▁Preliminary
▁500
▁comparisons
27
▁227
▁descriptions
▁BM
▁228
proved
oxif
▁departments
▁preexisting
▁Injection
.3%
elves
tified
unar
rometry
1;
▁orthostatic
CRP
tam
▁halves
▁0.87
ritis
ittac
▁(6
tiv
▁dehyd
▁uncom
orrheic
▁hypoglycemia
▁reveals
▁1.03
▁13.2
▁calcitonin
terase
▁initiated
▁inhib
▁Mortality
omann
blinded
tured
▁migraine
amet
▁0.57
itant
otype
▁abnormalities
▁weakened
▁anxiety
▁ultras
sus
minute
cholesterol
▁7-
▁laparoscopy
▁0.40
▁isoniazid
▁unexplained
▁MH
▁124
▁musculoskeletal
antoin
feron
▁quin
▁prednis
▁favorable
▁30%
▁39,
▁relapses
▁methimazole
iscal
▁ejac
4%)
▁abortion
ocial
100
achn
▁ramipril
▁precur
dural
▁pharmacokine
▁cardio
▁64%
▁diseases
otherapy
fication
▁fumarate
weighted
odop
plies
▁socioeconomic
▁fluor
▁distorted
▁examined
acting
▁electrodes
1)
▁neutralizing
▁secreted
▁overestimated
▁262
▁stent
41
▁89%
▁classifications
gth
▁206
oreal
▁nebul
▁biopsied
▁seb
▁quantif
▁3.0
amuscular
oxicillin
▁0.2
▁rhy
▁Epidemi
▁Aspirin
▁soluble
clinical
raconazole
▁amput
▁185
troph
▁12.0
▁dizziness
▁elevate
ovarian
▁acupuncture
▁Seventeen
▁implants
▁audit
▁98%
▁PCO
▁diz
▁factorial
▁immunoblot
▁LN
lactating
tox
LV
▁arteriosus
imens
▁cured
/20
▁restr
▁CB
▁11
▁LVH
arbox
▁lor
pretation
▁adhesive
potassium
▁aspartate
fine
uncture
▁morphine
▁65
▁15.8
▁Caucas
▁peritoneal
▁validated
▁etiology
▁(20
▁gonococcal
▁231
▁experts
▁Seventy
▁inflammatory
▁protec
▁Gluc
▁hemoglobin
estern
▁Eleven
medicated
▁keto
▁zinc
osyl
▁determines
azole
▁18%
▁refractory
▁grise
▁prevention
ophen
specified
▁ketoacid
quine
▁tear
▁Rating
indings
ropath
▁carbonate
99
▁Neph
▁semen
▁hypotonic
▁painful
struc
▁4%
▁differentiated
nosis
▁6-
▁supplemented
▁disabling
20.
GI
▁enlarged
▁underst
▁epilepsy
▁ech
iodine
oluble
hypertensive
▁CAP
▁antenatal
▁21.
▁mEq
▁lovastatin
▁270
▁perfusion
▁0.60
▁1.21
▁ovulated
▁1.01
▁alumin
onad
▁lability
vices
iotics
▁(27
linded
▁compounds
▁carpal
▁bronchodilator
▁tetracycline
▁0.12
▁resonance
▁arthritis
▁echocardi
amisole
0.6
▁antipsychotic
reactive
▁(19
▁substanti
tec
2.
▁crossover
ixime
▁captopril
▁admission
▁tol
▁clu
▁cyst
▁bolus
amily
▁basal
▁endocrine
▁methotrexate
▁outcomes
▁(58%)
▁197
▁7%,
▁62%
atient
▁nore
idating
▁42
▁105
▁estrogen
▁acces
▁278
▁regulating
▁herni
▁routinely
▁anesthesia
endazole
▁levamisole
▁condensed
▁salivary
▁241
▁32%
▁1960
▁reflecting
▁caloric
▁ppm
▁DSM
erop
▁disturbances
ilol
85
opecia
ranolol
▁diarrhea
▁transaminases
▁hematologic
pran
8%
▁-0.4
18)
▁molecule
oes
ureth
▁sonography
▁indeterminate
▁thiaz
7-
▁17.
▁mildly
butamol
imeth
▁polycystic
▁dose
▁valpro
ecu
▁HAM
▁instrumented
▁8.0
▁WHO
▁prematurity
▁intense
▁thyroidectomy
▁consul
▁0.13
▁(36%)
▁averaging
60
▁nonfatal
▁lipophilic
.2%
▁critically
openia
overall
2/
▁supportive
farction
▁couples
ayers
▁irregularities
31,
▁postpartum
meg
kine
apid
▁ester
▁esophagitis
thma
▁descriptive
1).
▁researchers
▁measuring
▁circumference
alb
▁adjustment
▁1.2%
ocom
▁34
▁100,
▁splenic
phosphon
admill
▁cessation
ochem
iplinary
▁HA
▁inversely
▁MRSA
▁chloramphenicol
▁192
▁structural
▁erythromycin
tract
▁psoriatic
▁excretion
cephalic
mented
▁gly
nine
▁antim
ipine
▁glucocortic
clin
loxacin
oidal
▁EG
.3.
▁antigen
▁balanced
▁conclusions
▁endemic
▁0.58
▁outlet
▁attain
omatic
examination
40)
▁Epid
amel
▁-0.
▁commercially
▁fetus
oyl
▁seroton
▁nicot
▁confers
etine
▁extre
▁endometrial
▁histologic
▁(1.9
pressing
▁9.2
mined
▁102
ithium
▁diagnosing
▁neomycin
▁uro
▁(4.0
onyl
▁1000
▁142
▁investigations
▁implicated
▁measurable
▁Combining
-90%
▁75%
adequ
leukin
ordance
▁immunoglobulin
ranean
▁blinded
orin
restricted
blind
▁competence
▁budesonide
▁ratios
▁amn
AFP
▁trunk
conver
▁resec
98
▁lis
▁cyclical
▁1.10
predic
▁antic
▁Evidence
▁activator
▁invasiveness
▁restric
ographies
▁progn
▁Symptom
▁Statistically
▁Patients
▁fruits
ocalization
methyl
▁genotypes
▁14-
▁supra
▁150,
▁mothers
iterranean
emetic
/4
▁tolerated
▁Angiotensin
▁Caps
▁stools
estive
itr
yste
/8
▁favors
▁20
erated
ocycline
▁reproductive
vitamin
▁serological
topril
▁coronary
ocytopenia
▁osteoarthritis
▁600
▁enhances
7%
6)
elec
▁polymyxin
▁surround
achol
▁1964
▁spine
▁Pertussis
▁identif
▁100%.
▁immunocomp
▁spirometry
hort
▁0.79
▁presum
▁ultrasound
▁276
▁menopausal
▁hazard
▁abscess
▁GE
▁intest
▁(500
lowering
12.
▁0.03
▁proximal
productive
▁152
needle
▁ligament
▁postprandial
▁clus
haled
-600
▁bedtime
▁fric
adjusted
▁lymphadenopathy
▁17.8
▁(9
▁76
gthen
▁(0.9
umping
▁ingredients
▁lowers
▁possi
▁abd
▁cysts
apanese
EMG
▁bac
▁hazards
▁muc
-5)
▁doubled
▁clindamycin
170
▁poorly
amole
39
▁95
▁200,000
▁analges
▁questionnaire
▁subjective
▁4-5
avail
▁Epidemiological
▁6.7%
propanol
BG
ithelial
gely
oretical
▁amplification
▁perox
▁0.34
▁neoplasia
▁unusually
▁phosphate
▁modeling
▁couns
seud
reported
fatal
▁Individ
▁Oral
trial
▁worsened
-3
▁enox
tact
edocromil
▁epidemiologic
uates
▁2
echan
inyl
▁analogue
▁responsive
iable
▁dosage
▁(1).
▁resolving
ulcer
ealand
infection
xual
▁prednisolone
▁articular
▁Dip
▁underg
▁linearly
▁135
▁dorsal
viral
▁operative
▁conditioning
▁colos
13.
LG
▁tumors
▁cuff
asses
vents
▁1.3
ophag
▁Extr
▁blockers
ergenic
▁136
▁reliably
▁(25%
▁progression
agic
▁Assessment
▁chest
▁seated
gian
uprofen
▁antidepressant
▁brainstem
▁specialist
otoxic
▁TCA
▁sebaceous
.0%
▁corticosteroid
astolic
▁9
▁RR
52
iability
▁Retrospective
▁adequate
▁outbreaks
▁expec
yrib
tionally
▁augmentation
▁12,
▁(32%)
▁gonorrh
▁intracranial
▁desaturation
ylated
▁79
▁293
▁(89
erating
▁analyses
▁antioxidants
zation
▁adolescence
▁bronchial
▁Estrogen
▁tolerate
▁plasmin
▁hyponatremia
emic
▁20%,
▁benign
▁impair
tinent
-24
▁CAL
▁31%
▁308
▁luteinizing
▁6.1
▁Elevated
tics
▁(31
ylic
▁162
▁INH
farin
▁odds
▁pregnant
▁6.9
▁interpretations
▁0.62
vian
▁1.15
▁Impro
▁160
▁mono
▁androgenic
igarette
▁colleagues
▁outbreak
▁295
carotene
baseline
▁contraception
olated
▁vesicles
▁angiotensin
▁177
hea
▁nephropathy
3,
▁20-
▁digoxin
▁Overall
gestin
▁smoking
▁sensitivity
▁urticaria
▁(100
-16
▁3.1
havioral
molec
gol
▁triglycerides
49
▁2.4%
▁radiologists
-17
▁cytoch
▁(97
ystag
18,
▁nitro
ressed
plicated
▁hydrochloride
▁(0.0
▁Pregn
▁11.8
cycline
▁(1%)
▁hairs
-13
▁angina
consuming
rox
▁pH
153
▁infectious
▁carbam
ymp
romal
929
▁53%
▁sore
tingu
▁Effic
▁ribs
▁FEV
▁nonex
▁anatomic
▁categorized
▁recurrences
▁derm
▁grain
▁17
▁unwanted
▁CVD
perature
▁(44
▁nylon
▁saturation
▁regulations
▁inh
▁atropine
esic
▁PSA
▁Authors
▁posi
73
▁reviewing
▁interviewed
▁viral
tituted
▁12.5
▁paroxys
▁agglutination
echn
▁(0.
▁resuscitated
Ly
resist
▁fibros
▁individualized
▁151
▁118
▁colonoscopy
▁adjus
▁(140
6),
▁145
atoma
olum
yridine
▁cefaclor
▁accessibility
▁Significantly
▁attributable
adenomas
▁establishing
▁excluding
▁spacer
rogesterone
armac
▁virtually
▁carbohyd
▁revised
▁unrelated
▁employment
imental
▁264
▁5.7
▁pharmacists
▁warrant
9),
5),
thmic
cutaneous
oporosis
▁dox
▁causal
▁milder
4)
▁ultrason
▁Ace
▁yeast
▁phos
▁questionnai
organic
▁attitudes
▁doxycycline
▁cytochrome
▁0.69
▁Enal
obl
cellular
10
▁resc
▁averaged
inum
▁Secondary
atoid
▁bism
▁myocardial
▁achieving
reasts
▁0.65
containing
▁bloc
▁subgroups
▁puls
▁2.8
▁BV
▁13,
▁100-
▁mammography
HF
azol
protein
▁10%.
ognitive
▁inguinal
odiazepine
▁specificities
▁antioxid
▁100%
▁(69%)
tance
▁amlodipine
▁exhibiting
▁sput
▁emo
8).
▁deem
▁reliability
▁61%
▁lymphocytosis
▁abor
nowled
▁antifungal
▁prenatal
▁Dental
▁1.4-
▁scrotal
-8
.00
osclerosis
▁brom
jected
▁ICU
ffeine
▁159
▁2/
▁ciprofloxacin
▁nonpregnant
▁initiating
thmatic
▁controversy
tissue
▁eradic
▁doubling
▁nerve
▁transmitted
chloride
▁intensive
%),
▁208
cancer
▁sti
3;
▁syndromes
-2.
enal
▁anticholinergic
▁Changing
▁4000
▁abbrevi
4),
▁Fib
otropin
▁compli
▁perip
disciplinary
sibility
▁aureus
▁Comparative
torchid
▁radiographic
▁carriers
▁Combined
mortem
ographically
▁retardation
▁needle
▁PH
▁oint
/2
▁comparable
trover
asthmatic
aicin
▁excised
▁plas
▁dermat
▁FDA
▁heterosexual
▁Hear
▁fractures
▁Dys
▁155
apride
▁Decreases
oxid
iatric
umulative
tron
choles
000
▁accounting
5-
rals
▁(90%
roxicam
▁90%,
▁commerc
▁Recently
▁cartil
▁117
▁7,
▁pati
habil
tisol
▁unfractionated
ration
tur
-2.0
▁fertility
▁Finnish
▁knee
▁infarct
▁(75%)
▁hygiene
▁clom
▁PD
▁correlating
4;
▁endos
▁tube
▁diphen
▁emergency
orenal
▁observational
▁146
tively
▁iden
▁appendicitis
xia
omegaly
▁ensuring
▁parat
8;
▁panic
erus
▁reproduc
▁erythema
AH
Hg
▁adipos
▁Hib
▁codeine
▁tooth
▁recordings
▁2.6
▁relaxation
ystolic
▁mobilization
▁antibodies
▁clues
▁lymph
▁hypothe
▁Lactobacillus
▁unin
▁hyperb
inating
opre
▁exacerbate
▁9.0
▁rats
rolog
▁(14
▁experiencing
▁anteced
▁3.2%
48
lamp
▁repor
▁0%
▁compressive
april
TG
▁journals
▁consensus
▁PMS
asone
▁Gyn
.6,
▁123
▁intrap
ulence
umetanide
▁prol
▁desm
▁PPD
▁Eight
-18
▁hyperch
▁4.3
▁bacter
▁multivariate
▁effusion
amphenicol
(4
icep
▁coated
▁oils
oracic
▁Scale
titutes
entical
▁venography
heavy
ceptive
▁microorganisms
▁niacin
trop
▁pretreatment
▁Enalapril
ysts
formin
▁ineffective
erative
oxic
▁46%
▁psycho
58
▁40
▁thickness
▁summarized
ochromatosis
▁cryp
tile
▁transit
▁perit
▁(20%
▁esters
▁neoplasm
▁5
83
acil
▁imipramine
▁196
versal
geons
▁leukotriene
▁cep
▁0.6
-14
▁intub
veness
ept
▁aggressive
▁cef
▁accidents
▁adop
▁transient
▁overweight
▁adoption
▁retic
▁deformities
reased
▁undere
ygen
▁cyclosporine
▁gels
▁LD
▁48
19
6.
▁SPF
▁transi
estis
▁bip
▁antithrombotic
▁57
▁compares
▁nitroglycerin
▁40%.
▁discontinu
▁clinics
▁Centers
osage
▁252
idone
athiop
▁retrospective
87
alian
▁prescription
▁mamm
▁quotient
▁severely
uretic
SBP
iological
peptide
▁transverse
▁vitamin
matic
▁negatives
bodies
▁adversely
▁peripheral
▁Indo
▁hypotension
▁titrated
▁cardiovascular
▁tendon
▁neutrop
rected
▁intranasal
wes
compared
rele
▁consciousness
▁weakness
▁Modified
▁symp
▁53
▁shorten
▁Clin
▁cortic
90,
idation
▁yearly
▁irrig
▁topical
▁thems
▁Steroid
aldosterone
risk
icient
▁offspring
▁concom
▁sinusitis
BMD
▁(1.5
▁ferritin
▁0.8%
rates
▁feeding
▁wk
-1).
olesterol
▁4.6
▁344
▁Depression
▁nif
▁nondiabetic
-6
ophila
▁irrigation
omes
▁postinjection
Mu
▁acros
leural
▁reactivity
▁soy
enteric
▁(7%)
-81
▁attenu
25,
▁interferon
▁angiogram
ungal
▁Neither
▁66
orated
▁FE
▁0.36
▁coenzyme
▁inhal
zinc
tained
▁neon
▁supplements
▁symptoms
avage
ceived
▁adip
54
▁algor
▁4
▁67%
▁likelihood
bumin
▁continuation
-400
▁scars
▁erythrocyte
vedilol
▁fatty
zoster
▁9.5
▁1969
▁postmenopausal
▁professionals
▁560
olution
inated
▁consecu
▁deficit
odds
▁pronounced
ocortic
thickness
0%.
.0,
▁renal
tran
vation
▁fulf
▁43
bic
limb
onset
▁Sulf
buterol
▁MIC
otox
▁parity
22,
plications
ucose
/30
▁multis
itness
▁insomnia
▁nitrogen
▁tet
▁mmol
▁pertussis
▁dextro
▁3)
odiaz
▁untreated
13
otonic
▁agonist
-5.
otom
▁avoidance
▁AFP
drome
▁streptococci
azin
▁vaccinated
▁Prospective
▁piroxicam
glycoprotein
▁encouraged
▁wheezing
▁38
ternational
▁pediatric
▁156
▁unpredictable
istal
roma
ogenic
▁nicotine
▁Cycl
▁drain
▁gonadotropin
▁bacterial
▁130
▁morb
▁creatinine
▁pea
radi
▁gradi
▁0.97
▁Calcium
.6
▁sprin
▁reflux
eliac
▁endogenous
▁gradual
▁pig
▁encour
▁survived
▁clamp
▁intrac
▁23,
▁unreliable
sian
▁weighing
osity
▁adjusting
▁Examination
▁identi
▁norfloxacin
▁(33
▁277
-1
mental
▁1980
▁hypothetical
▁placebo
▁plotting
▁5.
▁2.2
▁ward
ordination
▁prostatitis
gm
▁Interestingly
▁ethical
▁58
imentation
aturity
▁subfractions
19.
▁0.41
ergency
▁TP
▁70
▁cutaneous
▁tricyclic
▁mening
▁ascertain
ensitive
▁cited
▁0.08
cad
▁panc
-4
▁hyperthyroidism
▁indomethacin
▁Registry
▁excre
▁3.4
iaz
▁renovascular
xone
centered
▁inappropriate
othiaz
ecutive
▁emerg
specificity
regn
▁HS
gluc
▁(31%)
orption
▁thrombotic
▁172
.5%
▁Lyme
▁leukocyte
PCR
▁103
▁concordance
tially
▁bic
▁minority
classified
RCA
▁fetuses
▁4.5
aminophen
▁Fourteen
▁incompetence
▁decade
chlorothiazide
▁asymmetric
▁randomization
▁cran
▁quinolones
▁solids
▁99%
▁inflammation
▁continuing
▁HLA
▁capsaicin
▁0.49
▁shedding
▁ulc
tise
▁pyr
▁unsuitable
▁75-
▁beneficial
▁Injury
▁arteri
icated
▁(95
▁(3
▁skinfold
tural
edle
▁preparations
▁hep
▁6.
▁therapist
dial
▁neuropathic
▁1.12
▁optimally
acycl
▁consumed
0%
▁Diets
▁(50%)
▁tonsillar
▁enal
▁neutropenia
ymptomatic
▁hepat
▁11%
0%)
ostatic
pectively
severe
▁psychological
▁cohort
▁harmful
322
tional
▁aluminum
-1.2
partum
degree
lline
feren
▁medications
▁0.91
9,
▁1500
▁adipocytes
blockers
▁discriminant
irds
▁discontinued
▁anaerobic
▁94%
5;
▁1.2-
▁spi
▁Estim
▁infected
▁Topical
▁shaft
ipheral
▁buc
ystic
▁cis
.0
ducts
-2.5
▁(77%)
estrogen
Ev
▁elec
usually
▁implying
▁Peak
-22
▁arrhythm
obenz
strual
▁matur
ositive
▁rated
▁cytology
uation
▁113
urgical
▁metronidazole
sectional
▁bronchoscopy
▁Recent
▁latency
▁0.71
▁71
ocytes
▁abnormality
61
rein
▁Subsequently
tage
▁experimentally
▁thereafter
aminases
▁(50
▁10.0
▁crosso
▁mild
▁suspicious
▁(4.8
opathology
▁nursing
▁0.3%
hospital
▁Chlamydia
▁5.8
1.0
icides
▁murmur
▁(15
▁fulminant
▁pyel
400
▁bacteremia
▁propranolol
Pen
▁cardi
molality
▁microscopic
epam
▁HDL
▁glyburide
▁tumor
ximal
▁Biopsies
▁defic
arity
▁polyc
▁0.1,
▁assessment
▁Adverse
▁benzyl
▁weekly
▁90
▁identifying
▁8%
▁increas
▁tablet
sors
▁unm
▁3.
▁78
formations
epti
aced
▁14
▁83%
▁succinyl
zyme
▁adequ
▁Leu
▁decarbox
▁births
▁placement
▁osteoporotic
▁exudates
▁intrav
-52
▁abnormal
▁Neuro
-20%
inely
▁8.2
retic
▁Prevention
trical
promoting
▁vagin
▁hypop
▁favored
▁acad
▁trimester
▁colic
▁8
▁50
yzed
▁sut
▁calculi
10,
▁CIN
tense
▁Absolute
▁ey
vus
▁20)
teric
▁cranial
oping
venty
▁treatments
natal
▁expectancy
▁40.
▁wake
-10
▁0.23
▁lorazepam
▁theoretically
▁0.55
▁195
▁Hyd
▁transferrin
icine
sess
▁ure
62
orpor
▁10,000
▁omega
▁osm
▁discharged
▁109
cine
▁fathers
.7
▁findings
▁2.3
▁11.
▁HR
amn
▁uncovered
tir
▁188
:3
▁benzodiazepines
hap
▁neurop
▁(38
▁noc
▁antihist
▁glutamic
▁Sodium
ocytosis
▁BCG
▁-0.8
tib
▁dipyridamole
▁Organization
▁gynec
▁distal
cycl
▁methodology
▁relieved
▁dissemin
▁positives
enin
▁reser
VT
▁14,
▁0.44
▁appropriately
▁pump
▁femoral
▁microscop
▁cyclo
quir
▁dissection
eration
▁187
▁4.7
▁canc
▁scl
▁decreas
▁17.7
▁psychiat
▁deterioration
esity
▁dosing
▁metabolism
tally
▁enzymes
▁promp
exercise
▁sutures
aturia
▁56,
othyroid
▁chances
▁breasts
▁modality
actam
▁juvenile
▁markedly
traum
▁-4
▁subarachnoid
taz
▁OC
conduc
thirds
▁functioning
▁disclosed
▁(18
▁advised
▁nights
▁contiguous
ysm
▁specialized
copic
▁pant
▁87
▁4.8
biased
▁(5.3
▁27,
▁-12
crip
▁indicators
iloride
plic
9).
▁LMWH
▁5.2
visc
▁Thir
agonists
▁homocysteine
▁propionate
▁calcified
▁exclusion
▁therap
ignant
lipid
▁ethnic
▁positioning
90)
▁disability
organisms
ogl
▁hypnotic
▁tympan
▁interventions
▁voiding
▁hepatic
pharyngeal
absorption
▁melanoma
▁saturated
▁relap
heat
isters
micro
30)
uminal
umented
▁cortisol
▁validity
▁chronic
vac
▁phenomenon
▁alcoholic
▁Computed
▁(1
erence
▁breakthrough
▁urine
illance
▁Melan
▁dehydration
▁thrombocyt
▁72%
▁elevating
ficial
aminop
▁gluten
▁abnormally
▁40,000
▁antich
algia
▁Bec
excluding
▁insignificant
▁Lact
▁78%
tite
▁undetermined
▁meals
▁(11
▁fulmin
▁overlapped
iron
▁95%,
▁indus
▁stimul
▁Adh
opathy
ocardial
▁sediment
▁complaint
▁0.83
▁furosemide
▁glucose
▁distress
▁neutrophil
cyclic
▁aerob
▁posth
▁26.5
▁intraepithelial
▁capsule
▁17.1
▁lacked
opres
▁tendons
▁ABR
▁hypers
▁irritant
mittent
▁nifedipine
illus
1]
ophilic
▁rGH
NH
▁recurrent
▁electrical
▁cys
tory
/100
▁recurrence
▁affec
▁discharge
▁129
thi
verages
▁enlarge
inally
▁cylinder
▁(47
azepam
spectively
▁6.3
▁dramatic
ymal
▁symptomatic
▁18.3
▁-3
▁16,
▁solitary
tisone
▁indefinite
TSH
operatively
▁ELISA
sequent
intestinal
ochrome
▁carbonic
38
tinguish
▁6%,
▁(1.4
atches
nals
osacral
▁ruptured
▁radiologic
▁excl
▁ingu
▁hypercal
▁Patient
▁qualitatively
▁thrombo
plenic
▁physician
▁estrogens
▁durable
▁absorption
▁Atrial
tition
onate
assium
ypass
▁preeclampsia
▁stric
arrhy
enem
130
▁AGA
▁Higher
ducing
▁0.25
▁predictive
▁auditory
▁limiting
▁perceived
▁Nineteen
ourinary
▁complication
▁unresponsive
▁elbow
76
▁asymptomatic
▁prognosis
▁17,
▁tamoxifen
▁70%
▁sequentially
▁243
▁allyl
▁229
rase
▁miti
▁psychosocial
▁allele
gestation
sy
▁pressures
▁84%
uitable
▁IgA
hicle
▁detrusor
▁Inventory
ycl
initi
ibrate
▁pyrid
ximum
▁angiography
▁lasting
▁glucocorticoids
▁inhibitors
▁examin
▁cyclooxygenase
▁Caucasian
▁iso
▁CHF
heum
7]
▁alcoholics
iant
▁71%
▁ae
▁CHD
▁atopic
▁electrolyte
▁recipients
▁11.0
▁evid
▁clonidine
▁awake
ventive
edema
▁lateral
oxyl
▁duoden
RF
elan
RB
▁hypertro
▁24%
-12
sac
▁focal
dered
▁reflects
▁203
▁aspir
ithi
wk
▁longitudinal
▁dexamethasone
▁radiography
▁excretory
▁attrib
▁8.6
▁alcohol
▁bacteri
▁Pain
▁emphasized
itin
valence
▁inherent
▁97
aline
5%).
▁0.9
▁88%
▁reactive
vated
▁40%,
▁Sixteen
-90
lym
adm
▁27%
arms
▁tertiary
▁glyc
ectable
2;
▁exis
▁2.8%
itary
▁29
irubinemia
▁torsion
▁vomiting
800
rhea
▁hyperplasia
adine
▁21,
4).
tif
▁hypertension
▁Serum
IH
eled
osteroids
▁(1.3
pirin
▁Dop
acchar
▁reviewed
▁perinatal
▁serotonergic
5)
fate
▁hydrogen
tensin
corrected
▁epidemi
aminated
▁cerebrovascular
▁imaged
▁deleterious
▁trend
▁tissue
▁Beta
▁temperatures
▁prophyl
eptin
▁Clinical
▁RS
▁emesis
▁750
▁imaging
ticularly
▁obese
▁CAD
timal
4%
▁accurately
CABG
▁25-
▁placenta
▁insom
▁bumetanide
itals
▁198
▁(88%)
Gy
▁adequately
▁200,
▁endo
▁1985
irub
▁depress
1/
-20
▁Eighty
▁Viral
▁Bronch
▁potenti
▁plaques
otting
▁tic
▁enhanced
inflammatory
ronate
▁Physical
▁fenoterol
▁(4
▁sensitivities
lodipine
andida
▁referrals
▁gonad
▁0.98
avir
▁doxazosin
▁ultrasonography
▁Calc
▁1.5%
-0.
▁hepatocellular
▁ori
odium
anking
▁postmortem
▁pollic
▁cephalosporins
ylene
hetamine
2.2
meth
▁4.3%
iazide
ervative
earing
50)
nai
▁51%
amethasone
▁plasma
▁continuously
▁4.5%
sych
iol
▁(3%)
▁visits
▁eliminating
▁dementia
▁3.5,
▁exceptionally
▁normalization
▁(400
7),
▁(70%
▁63%
tation
▁derange
ycin
▁antipsych
▁differing
mega
▁dye
▁strains
▁sulfon
▁sickness
5%),
benefit
atosis
▁1.18
▁resection
essment
▁(40
▁spinal
▁TMP
uric
▁unaffected
ococcus
genic
▁Twelve
▁triglycer
▁aging
▁alanine
▁suscepti
▁59%
roin
ociation
alc
▁adjusted
▁morbidity
▁sulfate
chool
▁FD
▁progesterone
smokers
▁tightly
▁infar
▁lipids
sions
(1
ralfate
▁(25
▁anoxic
idated
ronchial
pregnant
ithm
-80
▁teratogenic
lected
▁facet
clusive
▁glycos
▁0.78
▁60%.
▁attending
▁17-
urea
ailure
▁overl
tention
▁ultim
▁infrequently
coronary
▁HPV
▁evaluates
▁8.1
reement
79
▁modif
eptic
pread
▁calcium
valent
▁GAD
epine
▁Intr
▁residual
▁Individuals
hion
50.
atients
-1.6
▁exagger
▁4.
fibrozil
oves
1.
▁emotional
6/
▁hemorrh
astric
osin
63
▁amoxicillin
▁chloride
▁intervention
▁2,
▁6,
▁Behavioral
▁350
▁309
isol
▁malign
▁249
▁(60%)
ycardia
effects
▁trends
▁hyperbil
▁0.56
00
▁methionine
▁decreases
▁ambulatory
▁(45
▁(49
▁sequenced
▁7.7
▁0.5%
cence
▁answ
▁predictors
▁tac
▁reproducible
▁evaluating
▁ischemia
▁relie
9.
uin
▁insufficiency
ococcal
▁11.2
▁257
▁disorder
0.00
treatment
▁gloves
ventil
itone
inopril
▁rhabdomy
▁96%
trained
2%
8]
▁ranitidine
▁5%,
measured
▁triceps
adders
▁nonsmokers
yster
kely
▁60.
▁(5
gag
▁warts
▁abstin
▁Cooperative
▁pulmonary
▁DF
▁Reduc
▁74%
titute
▁93%
2,000
▁psychomotor
▁4.2%
▁cerebro
▁163
▁amenorrhea
▁emboli
▁lactation
▁membran
21.
▁6.5%
▁levodopa
▁incompletely
34
ocaine
muscle
▁relaxant
▁1.04
▁Increased
▁chlorpromazine
▁ventilator
4.1
▁equivalents
▁Milk
▁abduc
▁sulf
▁glycoprotein
ophren
▁immunization
▁coping
otine
▁contracep
▁ferrous
1%
being
molecular
▁0.63
▁183
▁cure
▁urinary
66
▁perception
▁hepatotoxic
▁normalized
▁usefulness
▁1.75
onstric
lamydia
istar
quamous
▁72
▁lifest
▁resear
tant
/18
▁appendix
adone
▁1200
elong
-72
▁peaked
▁equivocal
vaccination
▁LMW
▁allergen
▁20.
▁0.5-
olitis
mediately
▁hemorrhages
▁awareness
▁absorp
nee
inj
rents
▁7.1
obronchial
▁Hep
▁0.04
amination
ventricular
▁psor
ially
▁pollicis
▁pem
▁pathology
▁4-
▁55%
▁intake
▁fever
▁3.4%
▁suppres
albuminuria
10)
▁describ
▁40%
▁probe
omn
parous
▁encephalopathy
▁oxym
▁angi
▁caries
▁wee
▁cardiac
Bs
triglycerid
▁constipation
▁ranging
traction
▁66%
itro
lyce
▁lacking
▁prostatic
imodipine
▁hypocalcemia
Au
Cer
sufficient
▁bromocriptine
▁slowed
▁clind
▁nulliparous
▁syncope
ominant
▁1.56
▁promin
▁TDI
▁0.11
converting
▁Complications
▁Doses
rength
hydroxyp
▁DCA
cyt
▁elas
▁rup
▁erythro
▁TS
fraction
▁symptom
▁Diabetes
acking
▁naf
ancomycin
▁perfor
▁mU
▁10
lobin
▁(89%)
▁mep
▁hyperlipid
adder
lamyd
▁220
-70
▁skeletal
Ps
▁pound
LH
▁juice
▁61
▁Systolic
tial
olol
▁obstetr
▁asymp
▁12.5%
▁vaginal
▁0.7%
▁bronchospasm
9%)
▁Criteria
▁acquiring
▁PLP
ypro
▁NP
opam
ogenicity
▁monitored
tipation
▁(0
▁neph
ethylene
individual
oprolol
▁165
▁sodium
nisolone
roxen
▁grading
▁Phase
▁0.
▁1.2,
injury
▁glomer
pirone
▁aerosol
:1)
▁occupational
▁expulsion
▁prevented
▁desatur
▁capillary
PaO
▁1.02
▁delaying
▁76%
olam
▁sheath
▁sampl
onidine
-96
▁12%
▁excision
ofil
▁benz
ocrom
▁tibia
▁3;
GD
▁VA
dL
▁enalapril
▁(4.6
▁estrogenic
▁assis
▁adi
rous
sia
TCA
▁cruc
▁systematically
▁thirds
▁immunized
▁adren
▁systematic
tency
irubin
igaret
roscopic
7)
ilization
▁mell
▁anomalies
ughter
▁disposable
▁0.0
▁euthyroid
81
▁(68%)
▁Tran
azepine
▁Bacter
57
▁appendic
▁75
▁gastroenteritis
▁histopath
▁280
▁2.9
▁(24%)
▁terfenadine
-15
▁ceftriaxone
▁renin
oste
▁curric
▁leakage
▁tendencies
▁endoscopically
roxic
▁succin
Rs
▁38%
▁susceptibility
▁Abdominal
▁surge
▁hydrophilic
▁rash
▁73%
brile
lactam
▁37.5
/24
tine
▁(62
▁hypokalemia
oskeletal
▁structured
.1%
▁cervical
onvul
▁pooled
▁acutely
▁quantitative
▁5.3
▁correlated
▁surgeon
▁polysomn
▁uter
▁gland
merc
rogenic
uplex
▁alprazolam
affec
▁duct
▁eighth
▁46
93
cessive
▁exceeded
ylase
olones
olved
▁proton
▁diabetes
▁stripping
▁acyclovir
▁vitro
ocated
▁cros
▁capsules
▁mineral
ocor
▁1-
stim
▁rhythm
yses
▁47,
▁cooling
▁respon
▁endocrin
▁olive
▁smokers
▁carotid
ometri
▁inconclusive
▁Lipid
▁loos
▁(18%)
▁allergenic
▁Stroke
▁improving
▁anesthetic
▁beliefs
▁Combinations
"-
opathological
▁0.99
▁contribut
▁wounds
▁33%,
▁hir
▁baseline
▁favorably
▁splenomegaly
▁cumulative
romycin
EI
3)
ctomy
▁(46
opharm
oriented
▁5.4
▁pigment
▁166
▁creatine
▁minimally
▁14.
surgical
120
▁gastric
▁postural
hydramine
retro
▁ascorb
▁volunteers
uscular
atible
▁calcification
▁Increases
prandial
▁OD
▁intraven
▁15%
▁perone
▁exposures
▁lutein
▁syndrome
9;
anine
plo
▁(15%
eak
▁1.35
7/
ositi
▁classify
cys
▁labial
▁seropositive
isal
▁discomfort
▁(24
▁sequelae
▁requi
tracted
▁100
kelihood
▁6.2
yclo
▁0.89
roscop
1-
▁acetaminophen
hydrop
▁(5.8
▁sugars
▁criterion
osamine
▁cartilage
▁predisposition
▁acquisition
▁physicians
▁recr
▁1970
▁hypoxic
▁waking
▁12.
daily
▁2.7
administered
▁certainty
acerb
▁standardization
00,
▁bacteriuria
▁neuropsych
▁antibody
ASA
▁Additional
▁56%
▁establ
▁6.4
68
▁21
▁Staphylococcus
25).
▁antisecretory
▁normotensive
▁Cardiovascular
determined
▁systemic
30,
▁swabs
▁Findings
▁193
6).
induc
▁AO
▁elevation
▁scientif
iuria
▁PG
iminary
▁contributing
coh
▁glomerul
▁rehabil
antibody
▁beha
▁MRI
▁Infection
apular
blocker
▁lifestyle
▁suspicion
othi
▁severity
illion
▁elevated
parative
▁-0.5
▁developmental
glucosidase
.5
-1.5
etence
echanical
gative
▁splenectomy
sulf
acental
▁sedimentation
▁drip
▁Consequently
▁impairment
tral
▁polysaccharide
▁4)
▁Hispanic
omiting
respon
▁orthoped
▁dyspepsia
▁traction
▁(75
▁268
diagnosis
▁heavi
tivities
▁elevations
▁postoperatively
▁0.35
▁19.
▁regained
▁beats
▁28)
ocon
▁paternal
ipramine
ocrin
▁bowel
▁evac
▁Gonad
▁multic
-1.
opi
plasia
cretion
▁accid
▁11,
▁discontinuation
▁fixation
▁yielded
hydrox
tensive
▁acetic
900
motic
Ds
▁30
mong
▁0.1%
▁technologies
44,
16
▁19
▁37%
▁75%,
enic
▁citrate
▁albumin
▁3.7%
50).
-6.
adication
ophys
otoxicity
▁Whereas
glycerin
▁administer
▁14%
▁aqueous
▁unres
▁3.3
▁concentrated
▁51
alic
bility
▁glycol
▁hypertensive
DNA
140
▁pancreatic
▁Haem
▁hypot
▁orally
▁quoti
▁esophag
▁Myc
olig
▁neuro
▁respiratory
▁ureter
▁elastic
▁traumatic
osyn
▁119
▁meaningful
▁cosmetic
▁manufacturer
▁UTI
▁hetero
▁58%
▁19%
▁untrained
▁spor
▁hysterectomy
▁assessments
▁ketoconazole
phil
BT
oxin
▁sustained
.8
▁Alzheimer
otyp
uality
▁exag
▁reinforcement
utin
▁2.
▁valproate
▁cultures
ffin
arly
firmed
reness
thyroid
omyces
5%
exy
omotor
titis
arthritis
▁2%.
▁prescribing
▁posed
▁8-12
ognition
150
44
amous
▁venti
▁screening
ectomy
▁suspension
▁regulate
naud
apse
usal
ocys
▁flora
▁clot
valine
trum
ipril
▁complaints
7,000
▁aspec
▁abruptly
▁0.54
▁interc
▁elicits
▁inhibitory
motor
▁DMP
▁satis
hig
inamide
tus
▁pate
ulsive
77
hemat
3]
▁Breast
▁ejaculation
▁granulomas
▁diverged
▁interleukin
▁Optimal
▁monotherapy
▁tubercul
vail
BMI
▁200-
▁abscesses
▁inhibit
oice
antibodies
▁80%,
vaccinated
▁thromboembolism
▁intestinal
▁unrel
imination
▁limb
amycin
orac
▁gentamicin
▁3%.
▁guinea
▁caffeine
▁1990
▁enrol
tee
▁0.016
▁vulgaris
▁allergy
▁uncommon
▁revascular
110
opr
▁lowering
amines
▁bilateral
alsy
▁induc
▁8.4
bly
▁eradicated
▁multiparous
▁naproxen
▁identifiable
Ox
tronic
▁erythematosus
erable
hormonal
ophageal
▁2.5
uris
▁Doppler
▁trimethoprim
▁longus
▁postnatally
▁differed
timum
rography
▁12-
▁Arter
▁reticulocyte
▁colorectal
▁participating
▁4.7%
▁embolism
▁hypogonadism
▁infrequent
▁0.15
▁20,
▁congestion
others
olone
▁Thirty
tism
tig
▁fluoride
▁throat
▁pneumoniae
▁obesity
roxyprogesterone
-40%
ymptom
▁annually
▁diagnosis
▁acetyl
amphen
▁ventricular
athered
▁psoriasis
▁antimicrobial
arous
▁nonin
▁0.80
ergen
opian
▁testosterone
▁contraction
ereb
▁fibrill
▁affecting
hydr
28
▁Lymph
ecal
67
arrhythmic
ausea
▁7.
erin
BH
▁50%
/10
unately
▁saliv
▁remo
▁0.5,
▁5.0
▁occlusive
▁Surgical
▁Respiratory
▁Factors
▁hyperactivity
▁primiparous
vul
▁dyspnea
▁propensity
▁plasm
▁EMA
▁285
▁diversity
▁0%,
▁abdomen
▁valproic
aning
▁spon
▁1.0
▁chlamydial
▁acidic
trates
plas
▁calories
▁(79
hexidine
oxifen
uding
oxygen
▁3%
piration
▁22%
enec
▁0.8
plication
▁throm
▁Fifty
▁malabsorption
bladder
▁186
roscopically
▁hypog
▁aggression
▁metr
▁5%
▁azathioprine
▁Relative
▁TM
▁newborns
▁circulatory
▁immun
▁Sensitivity
acute
▁1.1
▁SPL
▁readings
vant
intensity
▁dermatitis
acids
▁obstructions
▁48%
sensitivity
▁stepwise
tein
▁simultaneous
▁81
xiety
▁scans
urement
▁percentages
tential
skin
▁29,
▁impairs
▁(72%)
▁compartments
trogen
▁49%
1,
▁elemental
▁enlargement
▁carc
omat
tive
acin
▁irr
essive
▁menstr
▁Tes
ication
gA
oderm
92
▁drin
▁pancre
-50%
▁biochemical
orts
lobulin
azoline
▁pregn
osomal
▁antidepressants
▁(9%)
ertion
▁(8%)
9%
▁mellitus
▁nonsurgical
aturation
▁MMS
tens
notic
▁(30
enil
▁morbid
aceous
▁relapse
econd
enan
▁adhered
tate
▁physiological
▁indication
▁mite
▁predominantly
erts
acti
romes
▁LM
tolerated
▁adap
forming
▁conductance
▁158
▁300
▁hydrolys
adox
oretically
▁263
▁0.84
▁unrecognized
▁68%
▁blacks
▁reduc
orrhea
especially
▁percentile
▁ADA
oppler
ulum
▁substantially
omycin
▁jaundice
▁flashes
▁regimen
enyl
▁detects
▁postnatal
▁16.
▁suture
▁extrac
▁retinoids
ecre
▁(0.4
▁membranes
▁41%
▁retur
-45
▁8.5
Ls
▁24,
ials
ococci
72
▁mitral
asic
▁contraceptives
ROS
▁aspirin
▁hereditary
▁intracerebral
▁tach
pore
ayed
▁enti
▁enteric
▁42%
▁pathologic
ercise
fib
▁treadmill
▁chlor
loride
▁gestational
▁3.8
▁Mast
duction
▁alp
▁medication
▁equi
▁adul
▁Tests
▁undergoing
▁misoprostol
▁74
▁glycosylated
ologic
▁eliminated
▁Evaluation
educ
▁localized
▁headache
▁institutional
▁epidemiological
atropium
▁Risk
▁benzodiazepine
oic
▁900
▁addiction
▁achievement
ograms
osts
hep
▁10.7
0.2
▁carbohydrate
▁fluconazole
3.
▁GA
loro
▁quadrup
yclic
conventional
▁0.17
ocarcinoma
opa
Cs
▁6%
ypical
entif
▁relaxants
-5
▁referral
galy
▁psychotherapy
insulin
▁FT
▁liver
▁(42
▁potent
idine
▁59
amol
▁tended
▁multin
▁arrhythmia
onide
seven
▁unchanged
lycemia
ventilation
trophin
▁superf
▁esophagus
▁withdrawal
lact
▁Routine
▁oxygen
organism
▁prescrib
▁awak
▁nodules
moderate
▁(15%)
▁syphilis
▁colonization
2)
▁antagonist
▁transluminal
▁Smoking
▁worsening
▁triazolam
ionine
▁meal
ospasm
▁substances
▁(39
tures
▁3.7
▁70%.
omethacin
Hyp
tin
▁attenuating
▁topically
▁leu
inergic
▁prolongs
leu
sA
▁scarring
▁stool
▁immunocompetent
hemo
▁airway
▁HL
▁ischemic
▁gyn
chol
▁-5
▁RAS
ochemical
▁Geor
8,
onephritis
iplin
oride
5).
▁Physicians
▁1/
▁amputation
▁quinacrine
▁pectin
effec
▁discriminate
LN
▁(84%)
posable
uran
▁Oste
▁unexpectedly
▁genitourinary
▁arth
▁secrete
idazole
▁Raynaud
acial
▁sugges
▁tenderness
▁peroxide
.4
▁renders
▁140
▁statis
▁1.25
▁analgesic
▁endotracheal
▁surveyed
▁contradictory
olytic
ifferen
78
astases
increased
▁1.4
Cu
▁neurolep
▁abl
▁Ade
▁decisions
▁vegetable
prising
▁analys
iciency
ontal
opamine
▁muscle
▁conclusive
▁hypothalamic
▁regurg
▁interacted
▁anhydr
▁2.5%
▁metastases
▁8.
tions
tioned
amphetamine
▁0.5
▁acetate
▁physi
▁detectable
udation
0/
▁synthetic
▁Acad
▁consistently
▁enrollment
ergic
▁35%
▁dors
▁thiazide
ilep
▁lesser
▁PI
▁82%
▁sampled
▁marginally
▁aids
▁0.02
-1000
ocusing
17
cessively
▁filtration
▁gout
arge
robial
▁ana
onography
▁sonographic
orotic
▁intact
▁providers
▁0.45
▁saphenous
▁vulnerable
otent
▁Randomized
▁uterine
▁insertion
▁phenotype
odip
90
▁moderately
selec
ventional
▁oste
33
initiated
buride
▁suspic
.2
oxetine
difference
6;
▁estimating
trin
▁nasal
plants
upus
▁erosion
▁incomp
odil
▁0.75,
▁29%
▁augmenting
melan
ocin
siveness
lovir
▁2.0
▁tibial
▁246
stem
▁maternal
trimester
▁91
tensives
▁fractions
▁ductus
meas
▁1986
▁0.46
▁necrotizing
▁lacks
▁outpatients
▁incis
thrombotic
ths
/1000
7).
▁mortality
▁lumbosacral
▁addic
▁extensor
▁poisoning
▁0.22
10.
▁87%
▁uterus
▁(1.6
rof
GH
tiguous
▁antibiotic
▁wearing
▁132
▁13.3
▁bismuth
▁genotype
▁recalled
uled
ometh
-]
pharmac
amethoxazole
▁warfarin
▁rigid
acquired
▁Myocardial
▁lipoprotein
▁proteinuria
▁overnight
▁fibr
▁mononucle
achial
▁(4-
▁bypass
▁60%
orbent
▁(8
▁precordial
▁confirms
96
▁Certain
exin
estim
ovascular
▁carbohydrates
sibly
▁blot
▁decreasing
tension
athioprine
ditions
omies
▁birthweight
oretic
7.
▁VT
▁2.1%
bral
▁Suc
26
oconstric
atology
▁endocervical
▁statistic
▁43%
▁17%
opped
▁stimulants
brom
45
those
▁swab
▁168
▁toge
▁52
▁overt
▁44-
▁pim
teral
▁behaviors
▁40,
ologically
lytic
▁neurogenic
/7
▁washout
▁1:
▁-0.0
▁26%
▁obstruction
tent
itrate
jec
▁33%
▁fum
▁clinicians
▁diffic
uracy
▁15
▁lapa
▁infusions
coated
▁intercourse
▁plateau
opsy
PPP
▁prescriptions
amicin
▁sclerotherapy
▁paral
84
queous
▁hepatomegaly
▁scanning
▁reac
▁ocular
▁parox
plemented
▁opioids
▁3-
▁pretreated
▁36%
▁aspiration
▁nonsignificant
temperature
▁Treatment
▁drugs
azolam
17,
amus
SDS
oprostol
▁scre
▁rebound
placebo
▁ane
▁grip
ticular
▁dysfunction
▁noncom
▁49
▁dairy
▁polyp
▁direc
▁frac
▁incidence
ermal
orphine
▁gains
ufficient
▁viruses
▁89
olec
▁gases
22
▁hormone
quid
▁practitioner
▁cognitive
▁depres
▁enl
▁(28%)
▁sensitiz
▁20%
▁hospitals
ophy
6,
▁1986.
▁iatrogenic
▁cholinesterase
▁1.13
▁Successful
▁appra
resis
▁Afric
zymes
2]
anat
▁hydrox
,000
▁Diagn
ifedipine
▁affects
▁chec
fiber
▁zoster
sodium
▁posttreatment
▁manu
tiveness
▁cerv
oratory
ocomp
▁predis
junction
▁amphetamine
▁congestive
▁hepatitis
80)
roth
▁20%.
▁fulfill
▁paired
▁16%,
▁consistency
pig
▁benzoyl
▁1.7%
▁sedim
▁verbal
▁transcription
▁formulations
▁headaches
▁divertic
▁complications
▁felodipine
▁EI
occal
▁Initi
tene
▁nurses
ioid
▁refr
▁testicular
▁3.9
▁1,
▁graded
ystitis
▁angioplasty
▁fungus
RR
/12
▁400
▁NN
▁therapeutic
▁hypogonad
▁8.3
reasing
▁chlorhexidine
dyn
▁prognostic
ivary
vival
orsal
▁analyzed
▁DT
▁nasopharyngeal
▁unrestricted
▁vaccin
▁surveys
▁Eff
▁targeting
▁5)
▁examining
blood
▁traum
troduction
▁restenosis
ocomial
▁constr
▁physiology
▁antib
▁persistently
▁colectomy
hepatitis
responders
8)
▁gum
▁sedative
lep
▁Conventional
▁underwent
▁Reduction
▁kidney
▁intractable
▁specialty
pli
0.3
▁Infants
▁BMD
hydration
abdominal
▁273
apine
▁18.
▁(76%)
median
▁0.82
▁deemed
etent
▁deficiency
▁adolescent
bronchial
▁multim
▁stren
35
trol
▁targeted
idney
▁decreased
▁antif
▁fossa
▁Mild
▁adjustments
▁subf
▁adrenal
▁granul
▁nedocromil
▁unc
▁nevi
rati
ensity
▁106
▁placental
▁112
▁121
▁glycemic
21
▁tolerability
welling
olus
▁TD
tually
▁efficacy
1.2
Ga
▁ultr
▁experi
▁actin
▁154
vaginal
▁(12
▁confirming
▁inpatients
.9
▁suppos
▁Statistical
▁metic
▁attemp
▁55
▁prophylaxis
ervical
▁choline
reases
partate
▁monthly
HN
osac
phosph
▁metast
gents
▁bioavailability
▁nonp
▁modestly
▁ecological
▁Veterans
6%)
▁wrist
ritish
eryth
idis
iph
▁nonsteroidal
▁dermal
(6
▁interim
herence
▁(90%)
glycer
▁0.51
▁8.8
uestion
sion
▁bony
tebral
luded
▁0.72
▁oximetry
ycline
▁probes
▁opioid
vaccin
3-
▁(0.5
/90
opausal
▁LDL
▁1.05
▁tremor
▁danazol
dine
atectomy
umerous
elic
RM
▁rigorous
iteal
cemic
astine
rocy
▁cen
.9%
▁Copenhagen
▁spas
/1
terone
▁multiv
▁ibuprofen
▁cholest
▁150
▁infrared
▁-10
ritin
▁scalp
▁teen
▁respir
immune
sistent
14)
97
lycer
▁electrom
▁modest
entral
OA
▁elective
▁regurgitation
▁metatar
ludes
▁5.6
▁Estimates
71
tensity
▁(250
▁diuretic
▁(26
reduced
▁eryth
▁hyperlipidemia
▁Stress
▁transthoracic
oag
▁phon
ochrom
▁5,
deficient
▁concentrate
▁declined
▁systolic
▁anticoagulant
▁remin
▁cystitis
specifically
▁suppression
▁(78%)
achnoid
▁NSAID
romy
▁spontaneous
▁bactere
mmol
onical
ometers
▁wound
▁coli
▁alginate
▁angio
▁rigor
▁96
▁0.64
crib
▁62
▁choleste
▁13%
▁microorganism
▁13-
luding
▁(4.3
POA
AO
▁intramuscular
▁1.
▁biop
▁Twenty
▁demonstrating
▁prolactin
9-
▁fati
29
▁adoles
molar
kage
▁unre
utaneous
▁intolerance
▁rele
chers
▁induce
▁0.30
obal
tum
▁mcg
▁eti
▁resistant
▁ipr
▁serologically
▁(150
ameter
▁surrog
▁Medicare
▁Tolerance
emin
▁33
300
-1.1
▁30-
▁osmotic
▁psychiatric
olem
illin
▁poorer
tative
histamine
▁Candida
▁rati
▁exhaus
▁35
mature
▁consultation
▁nig
▁folate
▁universally
lives
▁218
▁uteri
-88
plied
metic
Ta
▁13
CDC
ovastatin
▁receptor
▁217
throm
▁clomiphene
lyte
▁wash
onam
oterol
inoc
▁prevalences
gressive
iotic
▁1.8
tration
▁95%.
▁surveillance
0,000
▁promptly
▁supplementation
▁leukotri
▁vigorous
▁sulbactam
▁defec
▁fluoroquin
bacco
▁bab
angiotensin
▁jaund
▁(1000
▁pell
.7.
lamin
yrox
▁predominant
0.7
osol
tia
▁oral
cortisone
▁supplement
4/
91
▁6.6
▁protr
▁mucos
arying
▁hypocal
▁tubercle
arbonate
▁concurrently
▁hematuria
▁limbs
opramide
▁2000
▁pulsed
sies
▁lupus
shaped
▁automated
omerular
salt
▁neurologic
▁methadone
▁palp
orough
erant
/3
▁donors
oporotic
alene
▁metformin
arcin
▁analgesia
ferrin
▁bladder
threatening
articular
▁diet
40
chond
▁appetite
thal
▁vertigo
▁impaired
neumon
othal
▁48-
contrast
ignificant
▁expectations
anide
▁breathing
▁compartment
roids
▁Ultras
oagulation
9)
▁numb
ispanic
Ra
urys
omatosis
▁occurring
▁compositions
rotein
▁immunogenic
▁climb
0.8
▁flunarizine
ospitals
▁cavity
BV
▁1600
▁methyl
▁0.3
▁myc
▁plantar
▁Abnormal
▁dressing
▁methodological
idic
▁lith
▁psychopathology
▁psychosis
oxide
romised
criptions
▁hospitalization
▁organic
▁diaz
▁focusing
▁hexa
▁concer
reated
dip
▁dilatation
▁melan
oligo
▁modalities
eces
ociated
MH
linked
uble
▁electroly
▁surf
▁isolates
▁paroxysmal
▁173
▁7.8
▁chor
▁flour
▁differen
▁1.9
patients
▁28.
flamm
MG
▁1.11
▁amiloride
cg
plete
asal
▁diagnosed
▁PT
▁depression
▁dehydrated
onance
▁-1
▁introduc
▁infusion
▁0.43
▁tuber
exc
ecia
▁269
▁Increasing
▁(60%
▁vancomycin
▁stu
▁80
▁unstable
▁glomerular
▁1987
▁perforation
vating
▁0.6%
▁(25%)
eeding
▁1.17
▁volunteer
▁DBP
▁simplex
timate
▁11.5
▁palpable
erad
▁iat
▁LV
embry
phor
▁brush
usions
▁metabolic
▁212
Ni
udin
▁eradication
▁endoc
▁heterogene
▁237
▁steroids
▁(48
▁transaminase
94
▁durations
owever
yocardial
▁speculation
▁thromboembolic
▁consis
▁visualization
▁indications
▁sexually
adrenergic
▁derangement
▁fertile
▁unilateral
▁Specificity
TN
▁dys
▁fasting
▁computerized
▁anticoagulation
▁Exc
drug
▁pleural
▁subc
▁dex
▁dopamine
bA
ejection
athic
▁absorpti
1%)
▁drainage
▁IVC
▁92%
▁varies
▁absorptiometry
▁hypertrophy
uestionnaire
▁sensi
50,
▁copper
▁adulthood
▁detrimental
▁resis
▁Assess
tropin
▁21%
▁nonc
responding
roscopy
plast
ressive
rogen
▁12%,
▁glucocorticoid
lux
▁1.7
▁respec
▁0.61
omized
urate
▁embry
▁Thi
▁controver
tives
▁prophylactic
▁postoperative
▁bathing
arental
▁initiate
▁11.6
▁luteal
▁DS
▁rhin
▁8-
▁80-
▁objec
▁pharmacologic
▁diets
▁horiz
▁(16%)
Fs
▁techniqu
▁carb
acts
arrh
▁diabetic
▁3.6
▁exacerb
▁0.76
Ti
1),
▁exaggerated
▁electr
tivation
▁idiopathic
▁45%
eprazole
▁3.5%
▁preventing
esophageal
▁HbA
▁IgM
▁intram
▁Survival
▁tape
▁ect
tomy
enzyme
▁workplace
▁Braz
▁progressed
▁inhaled
orh
urther
▁drank
▁deoxyrib
▁abuse
▁evacuation
82
▁termination
▁cere
▁stratified
▁tuberculosis
▁vein
▁exhaustion
-36
▁fibrosis
▁corpuscular
▁flexor
▁quantified
▁microb
▁exudation
▁cotinine
▁sulfonyl
▁grains
tic
▁artic
aid
▁predic
700
establ
posure
ordial
jury
monary
▁pregnancies
▁trauma
iparous
46
vate
▁Educ
opl
▁amph
etan
sched
▁(67%)
▁survival
secondary
▁abstinence
accharide
-23
▁seroconverted
▁strategies
odular
▁(2%)
▁examination
▁Severe
▁phleb
injection
1);
▁meningitis
upuncture
▁SMR
acet
▁reversible
▁Subcutaneous
▁intran
▁infarction
sives
▁Maximum
▁139
▁128
idne
-8.
▁unex
▁7.5
stimulating
▁infection
▁satur
ignific
▁7.5%
▁247
200
olysis
▁antiarrhythmic
▁excessive
anazol
▁menses
▁2.6%
▁(4)
▁0.01).
▁preventive
▁cough
▁efficacious
albumin
chid
▁37
▁wors
▁1.2
idate
▁varicella
-78
▁chl
21)
acked
▁recur
aemic
▁genital
till
▁hospitalized
▁immunos
▁ranged
▁nutrition
tep
5%,
▁preschool
aminase
▁COPD
▁atenolol
▁85
▁infarctions
.1,
▁PE
▁0.94
▁presenting
osclerotic
▁deliveries
8%)
▁anomal
scherichia
▁sham
▁ovaries
▁cyclospor
DH
▁dosages
parathyroidism
▁ank
▁vaccination
▁brevis
▁standardized
▁7.6
timulus
▁malignancies
lox
▁pathophysiology
▁Few
450
ensitivity
▁competent
-9
▁characteris
▁hypothesize
▁Identif
▁vegetables
ectomies
▁PV
▁25%
▁0.7,
▁hairy
▁2-
HB
mostly
vascular
▁osteoporosis
▁carcinoma
▁dentures
distal
fem
▁logistic
▁Bacterial
ischemic
teroids
roxy
pir
▁amitriptyline
47
▁3000
▁bronchodil
▁fibrillation
▁variability
opause
▁Progesterone
▁obstetrical
▁atrophy
▁Veter
▁1.06
88
▁ack
▁Haemophilus
openhagen
▁disseminated
▁yielding
▁meningococcal
odal
expressed
▁(80
▁55-
psych
concentration
▁oxytocin
▁ligation
▁extracts
itus
iasis
▁lumen
▁surgery
▁psychophysical
▁superv
lyl
▁kinase
▁Swed
▁lymphocytes
onomic
▁nipple
▁preven
▁mast
otor
▁valve
▁hypercalciuria
▁1983
5%.
▁0.26
▁admissions
▁clinically
thyl
▁diastolic
▁antagon
▁inadequ
▁0.74
▁(94
▁lact
usate
hyd
-7.
▁44%
▁-7
▁HP
▁1.08
▁intrauterine
ighted
▁terat
▁(56
ytoin
0.1
SMR
(2
otri
▁palsy
16)
▁colpos
▁idi
aturated
▁Outcome
▁exposure
▁curet
▁cyt
mg
23
waves
ecretory
▁tox
0).
essation
▁9.9
▁preserving
dition
▁eczema
▁14.8
entricular
0)
ituit
athy
▁dihydro
▁solely
onit
30
▁(2)
▁1989
▁Subsequent
casein
LTS
▁0.14
depend
aryngeal
▁131
effective
▁86%
▁magnesium
▁remission
▁70-
▁Therapy
▁(0.6
hene
apsulated
rease
▁uv
80
NSAID
-6,
▁vascular
▁acne
▁modeled
tosis
tering
▁hydroly
▁4.2
▁11-
produc
frequency
▁Vitamin
▁surgeons
12-
▁mIU
▁contaminated
▁reas
tice
▁endoscop
▁recor
▁immunobl
▁9.
oglobulin
cinolone
toxic
▁centers
iotensin
▁cate
eric
▁dextrose
requ
▁titration
▁133
▁9-
▁(1.25
▁seronegative
convulsive
▁confirmatory
▁progest
▁sulfonylurea
▁balloon
▁intravenous
▁fourteen
▁proce
▁deform
▁challen
▁(82
sis
▁swit
▁comprised
fusion
hop
▁Replacement
unctional
xime
▁thromb
▁Compared
▁atopy
95
▁(2.6
▁metoprolol
▁unil
▁coagulation
▁adiposity
▁antimic
24
▁leukocytosis
▁tas
▁fec
▁inducing
▁premature
isolated
feeding
▁(71%)
▁synthesize
▁hypo
▁selective
8.
▁(10%
▁fluoro
associated
isoxazole
▁involvement
▁discom
lyc
▁regimens
▁65%,
▁cuts
▁incom
LDL
▁comprehensive
▁deposition
▁practitioners
▁40-
▁whey
▁TC
rocyte
▁otitis
▁Grade
▁childhood
ovirus
igible
▁encouraging
▁nonm
▁15%.
▁toxicity
▁formulation
▁(67
tropine
geal
plasty
NIDDM
▁43,
enters
etus
▁specificity
▁Factor
▁hypon
▁Transient
▁Significant
erge
▁schizophrenia
fortable
4.
▁triamcinolone
6-
▁serologic
-1.4
▁suppressive
55
▁airflow
▁squamous
▁0.06
opar
▁Hb
▁0.33
▁threefold
operative
▁detec
▁4.1
-65
▁tric
reatine
valvular
moking
▁anticonvulsants
▁atten
Lac
sants
▁colitis
opulation
aind
arate
erance
acterial
▁characterizes
▁84
▁abdominal
thoracic
▁healing
anate
▁decayed
▁0.4
rosemide
tenti
▁diary
comitant
▁3
▁progres
2.1
▁194
▁bladders
▁uniquely
▁correlates
▁bone
rowing
▁cellul
▁surgical
▁experim
▁polyethylene
▁assay
▁(1),
▁(23
▁rickets
▁meperidine
diagnosed
ophyll
▁18
3%)
olamine
▁Trial
▁ointment
▁defects
▁0.24
usively
▁eccentric
▁toxic
trast
ropathy
trac
53
▁34%
okine
▁instruc
▁judged
▁heterogeneity
▁Feeding
ections
▁hyperp
▁questioned
azone
opril
ocyt
▁25,
▁emulsion
25)
irone
▁exud
okinetic
▁90%
resistant
▁compromise
▁vag
▁hig
▁cohorts
▁acids
mia
▁6.5
▁concomitant
▁1.9%
▁newborn
▁Diabetic
▁phosph
iclovir
tizing
▁pharmacy
▁affinities
▁autosomal
biotic
▁(1)
▁whee
PV
▁167
fractions
▁inconsistent
opharynx
▁16
.9%)
spectrum
▁depressive
phic
pain
▁undergo
4-
▁graft
▁indi
inol
▁cancers
-125
▁VAS
▁definitive
4]
▁drinks
▁120
▁babies
azep
▁IgG
▁1.09
105
ortal
▁Tiss
▁cephalosporin
▁symptomatology
▁0.9%
▁poten
▁irrit
ffer
ulin
▁spont
▁80.
▁assessed
▁182
▁diuretics
▁cytologic
▁regain
▁abrupt
▁stimulant
▁oss
▁androgen
▁neurotrans
▁4.4
▁distinguishing
▁sedation
.5.
omal
esin
▁echocardiogram
itamin
diagn
ulant
▁LR
ture
ipar
▁10.
etoprotein
▁blocker
▁Ventricular
▁inver
▁exploratory
▁kit
▁predicting
▁uric
▁receptive
▁prostatectomy
oil
▁patches
32
▁nocturnal
ocar
▁mL
▁herpes
▁ofloxacin
▁50%,
▁radionuclide
36
▁carcinomas
▁hygi
▁radiograph
sue
▁stimulation
▁freeze
▁arti
▁1.24
▁(12.5
-3.0
onor
mol
▁weighed
▁aberrant
▁5-
▁urodynamic
lysis
▁0.52
▁triglyceride
▁24-
2),
1.1
tility
▁bronchodilators
enol
aternal
▁atrial
▁thir
▁(43
▁Epidemiologic
chlor
▁17.3
▁anat
▁64
▁colonic
▁arrhythmias
▁fatigue
▁10-
▁apnea
▁insoluble
▁antid
▁smo
▁tomography
10-
▁54
▁aided
ritic
▁UT
▁enteral
▁18,
▁sour
▁exercising
odipine
▁0.50
▁-15
-1)
▁repl
▁thi
plen
▁bipolar
▁nosocomial
ditional
▁disorders
▁anhydrase
yrid
sied
▁casein
▁Engl
▁ery
▁0.47
▁chan
▁CU
▁234
▁nervous
▁demands
▁(50%
▁hypox
gestational
▁0.90
placement
▁30.
7%)
▁serogroup
rays
▁mann
cepti
37
sant
14.
▁parathyroid
▁Pneum
HDL
▁Ninety
▁86
▁3.6%
▁quinine
iagn
▁nodule
sparing
▁addressing
▁counseling
0.5
▁Screening
▁constituted
▁Approximately
lyb
Ace
▁1)
nate
▁trich
▁telephone
▁abr
obacillus
▁introducing
▁hypercalcemia
▁contraceptive
▁(5%)
▁biopsy
▁250
razolam
▁500,
turb
▁duodenal
ffinities
His
▁(16
▁resting
▁dental
▁tracts
▁pts
izine
▁triad
▁0.09
▁bronch
▁SIDS
ranial
▁reductions
▁rheumatoid
6%
ressing
.6%
▁testis
▁ascorbic
lated
▁margins
▁0.29
▁(80%
▁uninter
tically
▁evaluations
▁pylori
▁xyl
ervations
vertebral
▁heal
▁Clinic
gesia
▁10,
orbidity
▁91%
ller
rosy
▁(40%
enoid
▁aimed
genital
oxy
osid
cysteine
▁inhibitor
▁proportions
▁verification
artum
opathic
▁junction
density
▁interf
▁blister
▁13.9
▁Efficacy
whe
▁1.5
abd
▁1.3-
arent
▁hypothyroidism
▁93
oplasty
▁PP
▁rheum
▁kidne
▁viewing
-50
▁deoxy
eclamp
▁explored
0%),
▁lisinopril
▁4).
▁cerebral
rief
▁glycer
▁contractions
oglobin
▁0.27
89
▁CAH
mL
▁optimum
2,
▁Weight
▁potassium
▁Histologic
▁tymp
avirus
▁epidural
▁correspondingly
▁90%.
ductive
▁adverse
▁preparation
encephal
▁restraint
3).
SAID
0),
▁therapeu
▁-9
▁diagnose
▁esophageal
ulatory
▁premenopausal
jac
▁Escherichia
▁arter
▁apne
▁mec
▁blu
▁Magnetic
▁349
▁influenza
▁68
11
▁9,
▁0.67
smoking
teroidal
▁lumb
astatic
▁utilizing
▁qualit
▁ison
otypes
▁calorie
▁ankle
▁Americ
timulation
▁depressed
▁warr
▁intermittent
▁outpatient
ogens
▁discon
rine
▁veins
▁positively
▁ambul
ucas
▁cigarette
▁Comparison
▁ruptures
ureus
pecific
nec
▁0.07
igl
▁etretin
▁cortisone
▁maintaining
▁10.4
▁bradycardia
▁blin
56
BM
ifornia
ichia
parathyroid
▁covari
▁pellets
▁secretagogues
▁albuterol
▁bilirubin
▁voluntary
IU
▁trials
ocl
▁endometri
uresis
▁Cancer
ching
▁conges
ospor
▁23%
▁infants
fat
▁(85%)
7,
tening
000.
▁0.88
24,
▁rehabilitation
carbohydrate
olesterolemia
▁Biopsy
▁1.4%
▁unselected
rofen
orbid
epithelial
releasing
▁instrum
ometrial
▁(86%)
▁conservative
▁3.8%
mitted
▁33-
ipro
▁147
▁anticonvulsant
▁incision
▁stom
▁cardiomegaly
▁pentoxifylline
▁hyperg
▁127
stro
▁inspiratory
▁reflec
duced
▁chewing
-79
▁OB
▁27%,
ocardi
▁demonstrable
-2).
▁Asi
▁accounted
▁94
▁20.5
itudinal
▁unco
ampl
uterine
20
▁edema
▁serotoninergic
toc
▁10.5
hered
yroid
jun
▁ongoing
atab
▁lasted
▁sucralfate
▁investigators
▁wards
▁(45%)
▁familial
▁bouts
▁0.19
▁Meas
▁helical
▁behavioral
▁heel
▁aneurysms
strain
▁instr
8-
▁injec
7;
▁(10.
▁CABG
ofl
traumatic
▁pep
▁widespread
▁ethn
▁prevalence
▁Apgar
athyroid
keletal
WB
1:
▁influenz
▁181
▁histology
▁2.4
▁Diagnostic
▁paradoxical
0.4
lora
▁aden
taining
▁Caucasians
▁encephal
kets
ulous
▁0.2,
otroph
▁Barrett
▁confirmation
▁therapy
▁meth
▁1.6-
▁reinforce
▁sepsis
▁209
▁pneumonia
spar
▁latex
▁ECG
yx
▁additionally
anese
▁atypical
greater
▁provid
▁52%
-2
▁guidelines
▁Disease
duce
ritical
▁0.81
▁recruited
▁initiation
▁lowered
▁parac
CHD
▁advan
▁unipolar
oconazole
-100
▁3.5
▁4.9
▁socio
▁analgesics
▁atyp
tivity
▁Failure
▁screened
42
▁thyroid
epsia
years
▁chemically
▁(41%)
▁stres
osocial
-66
▁mood
ophilus
▁80%.
spective
▁mandatory
59
osterone
ascular
▁microbi
▁reflex
-100%
▁polys
75
▁obstetric
▁hydrocortisone
particularly
▁27
0%).
actin
▁Recommend
▁autoimmune
▁Nons
▁merit
centr
hydro
14
▁serum
rated
▁diclofenac
▁vesicle
▁comprising
▁athletes
promazine
▁Transi
▁goiter
▁49,
▁indo
ohnson
ithromycin
▁Improved
▁(3),
▁adherence
▁recommendations
▁retinal
▁Delayed
▁0.48
atical
▁thresholds
▁outflow
▁implications
▁prodrug
▁incorporated
▁1991.
▁rheumatic
▁esterase
▁1.5-
▁stenosis
▁cystic
51
▁quanti
▁functionally
▁13.
▁resul
ohns
▁enzyme
▁considerably
▁0.2-
▁schiz
ipid
▁schedules
ipit
▁practic
agonist
▁50,000
aryn
0-
▁(99
.10
▁raises
etaz
-2)
dil
stant
▁hypothyroid
▁determination
atrial
▁0.86
50
▁transplant
▁absorb
entia
▁(5.1
rosis
osom
antial
▁lavage
▁perin
▁2.5,
▁hirsutism
▁corticosteroids
▁lesions
0%,
▁Nit
Hb
enterolog
▁physici
oung
▁intermedi
▁habits
▁thrombus
▁bicarbonate
▁thromboemb
▁antec
gesic
▁gemfibrozil
▁incontinence
-7
▁0.38
ulants
llate
▁acet
▁salbutamol
▁caro
▁pyridoxine
▁venous
▁Almost
▁retin
dihyd
▁Thyroid
▁classified
▁cream
ancies
▁2.1
generation
▁etiologies
▁73
▁foods
▁carbamazepine
▁(5%
▁chol
early
▁cereal
▁stratification
▁Improvement
▁chronically
▁-0.7
aryl
oprol
aric
aerobic
▁maneu
▁reiter
▁protective
▁47%
▁5.5,
-4.
▁115
▁kidneys
▁Leuk
▁investigated
▁supple
▁nausea
▁serology
ications
▁azithromycin
cyte
▁tablets
▁euth
urnal
▁Alz
oplasm
▁strain
WBC
▁elderly
▁urtic
idin
acrine
▁2.5-
▁fluoxetine
tric
▁12
▁calf
▁protracted
opath
▁streptococcal
▁1966
kers
acer
.0)
porting
andard
▁cutoff
odopa
▁440
atched
▁carcin
luc
ults
▁189
icillin
▁suction
lys
127
▁stratif
▁550
▁Streptococcus
▁antidepress
zine
19)
▁uncomplicated
▁stomach
▁cereb
leuk
androgen
yel
▁immunity
60)
arb
▁illness
▁amin
stin
deficiency
▁agonists
▁Measure
64
▁16%
▁(95%
▁infections
usp
▁congenital
▁immune
▁24)
▁110
-25
ithin
▁insufficient
▁stimulus
▁slows
▁immunotherapy
thmia
.4%
▁clon
eal
/6
▁allevi
▁epic
▁responded
▁prostaglandin
weekly
▁infancy
▁dimethyl
▁monit
mokers
▁200
▁82
assi
▁drops
gold
▁Chronic
▁EB
▁chorionic
▁ovulation
ureas
gic
▁10.8
▁Subjec
administration
▁multicenter
ardia
ipolar
▁lute
pation
▁somatic
▁prescribed
▁avoiding
▁satisfactorily
▁reinfection
▁79%
▁hemorrhage
▁16.1
▁cesarean
acies
3.1
▁granuloma
tious
▁adolescents
Ts
▁smears
2-
▁weigh
ardias
onegative
▁marginal
▁-2
▁controlling
▁Subjects
relaxation
anic
▁overview
olesterolemic
vastatin
amid
itriptyline
▁diabe
▁ulnar
▁107
▁ND
▁97%
▁invasive
vivors
retion
▁anticoag
enh
▁struc
retin
roat
▁5%.
▁identically
▁anomaly
iphene
gain
▁menopause
▁exhibited
-3.
aginal
IgM
▁chemicals
Hep
▁deaths
500
▁healthy
▁7%
trated
amilies
titution
▁199
▁Increas
olic
▁15-
▁255
▁10.2
razole
treated
▁savings
pH
▁kits
▁insulin
▁dysp
oprost
▁nip
▁pneumococcal
▁subclinical
▁122
▁conservatively
effectiveness
▁126
▁PCR
103
▁rhe
▁7.9
▁Thirteen
ucle
ticle
0.9
modified
▁responsiveness
acetic
ulose
▁104
▁agon
0.0
lood
guing
▁Newly
onary
gestrel
▁spikes
▁inflamm
▁secretagog
▁99
▁embol
coun
▁60-
potential
▁microvascular
▁6
quam
▁nec
sive
▁50,
▁42,
▁celiac
idem
▁asthma
▁50-
▁cyc
▁88
▁administered
lusion
▁parental
thromb
▁7
uppression
▁mg
versity
▁340
▁extracorporeal
▁noninvasive
ilateral
▁tetrac
0,
orec
▁ate
▁candidiasis
▁TSH
▁(84
Ep
▁ecz
▁1.16
rologic
partic
▁caregi
ALT
▁excluded
▁superficial
ruc
▁cac
calor
▁biological
▁pancreatitis
ronch
havi
therapeutic
▁effec
alities
▁0.2%
▁hered
▁arousal
▁Individual
ratic
▁saphen
itoring
adily
▁0.25%
▁successive
otassium
anol
▁rupture
.1
▁14.5
▁(300
facturing
▁assessing
▁altered
▁anxiolytic
▁postin
▁phenyl
2).
▁penile
▁methodologies
5,
▁coag
eclampsia
▁hepatotoxicity
▁allerg
CAM
▁mice
atrop
▁28%
▁maneuvers
5]
oprotein
▁statistically
▁infertility
▁176
▁anemic
▁improves
tiary
▁synthesized
▁(63%)
▁uptake
▁63
amic
▁interventional
botic
▁ionized
trib
nish
proven
▁stringent
teria
▁31,
▁rifampin
▁extrap
▁reveal
▁interp
14,
▁omeprazole
poor
▁undetected
directed
▁sero
15.
adren
asting
▁pyraz
▁precursors
arachnoid
tual
▁obstructive
25
vely
otransferase
▁DVT
▁19,
▁victims
▁Thin
▁treating
reactivity
teroid
▁anes
▁CDC
▁injected
PEG
went
osteroid
▁Ure
portant
3%
▁atherosclerotic
▁65%
▁paren
▁pharyng
ediatric
▁comparative
▁expense
▁facial
▁111
▁5.5%
-8,
atified
▁125
▁electrolytes
▁leuk
acid
induced
▁inadequate
▁pneum
▁Testing
availability
▁masked
▁5000
▁101
▁exacerbations
▁curriculum
xate
▁sati
duc
entile
(3
▁suprac
▁0.7
▁Prac
attern
▁adenoid
▁gluc
▁effectiveness
▁antis
-1.3
▁Combin
atell
▁diarrh
ofib
▁nonspecific
▁percutaneous
▁70.
▁paradox
mentation
9]
▁ket
▁1.07
▁wheat
inase
▁exclusively
▁0.05%
-19
▁(76
▁reti
versely
▁(1:
▁ingestion
creatinine
average
IgA
indol
standardized
▁150-
▁tubes
▁Exercise
▁homogeneity
▁beverages
▁congen
▁23
▁endarterectomy
▁diagnoses
▁endoscopic
▁progestogen
▁latent
▁22)
▁(1.0
within
▁lesion
lli
▁gon
▁lumbar
▁deviations
▁inversion
▁surgically
▁Benz
▁febrile
▁pharmac
bearing
▁(63
