roscopy
aminob
95
▁Tyr
▁depolar
▁antid
ypical
▁hamster
greater
▁preservation
hion
▁Inhib
▁benz
▁hered
▁calories
▁prognostic
▁tric
ealand
▁87
▁bip
aind
glycoprotein
▁adhesion
ycline
esic
▁proximal
▁Mortality
ials
▁enhancer
hydrop
▁supine
sorption
rosy
▁assessments
▁smoking
▁commercially
▁persisted
▁vertebral
ications
unting
▁5.2
FSH
▁abortion
▁aureus
pressing
▁selectivity
antigen
▁immunotherapy
generation
▁synthesized
olved
-90
▁-6
▁schizophrenia
▁prednisone
▁transmitted
▁prel
▁quin
▁5.0
▁inducible
arbonate
▁specialized
▁tendency
▁mammals
▁offspring
▁synapses
CoA
▁poten
atical
hydroxy
▁cGMP
▁rheumatic
▁Fifteen
▁genomic
erin
▁hapl
otroph
▁CFU
▁(48
clonal
▁islets
-30
▁aggregates
zation
lobulin
chicine
▁SHR
▁39%
idis
▁expiratory
▁manipulation
metic
chlor
sively
▁somat
rologic
▁titration
immunoreactive
atible
▁analgesia
▁myocardium
▁transpor
▁fractional
▁tendon
62
tracellular
▁65
▁adherence
▁proteins
▁consistently
▁juven
▁concentrated
▁axons
Bs
acyl
▁carrier
▁anat
8-
▁corresponded
+.
▁intracerebral
▁neoplastic
▁121
tering
▁depletion
gluc
orin
▁comprising
idate
▁EGF
▁loci
▁stomach
zard
▁participating
▁benign
▁sulphate
▁antibiotic
atment
otypes
pran
▁medial
▁corneal
▁malign
▁restr
▁aimed
▁32
▁24-
▁instrum
▁Immun
▁Incubation
▁infections
▁Increased
oplasmic
▁28
▁accurately
vitamin
orts
▁tube
▁opi
▁122
ranged
▁350
aric
▁Fc
anking
▁degradation
▁pressor
restric
▁spi
▁construc
▁zinc
otoxicity
▁lob
▁lam
ifferenti
▁susceptibility
▁poorer
▁6.3
▁recurrence
▁sedimentation
▁ib
queous
▁adenosine
osity
icep
ceptions
▁0.001).
urium
▁7.9
▁promoter
▁suppor
▁1.9
pyr
▁Tc
▁TRH
azole
▁dextro
tinu
inositol
▁suture
ositi
▁thiol
reness
▁electrode
▁omega
▁inoculation
▁ACh
▁substances
▁thymidine
▁postoperative
▁mammalian
mature
▁euth
▁tol
▁efflux
▁evolved
▁biliary
adenosine
▁74%
▁CHF
tisol
▁2%
▁enl
▁serotypes
threatening
▁transcrip
▁104
abd
▁laser
istar
▁conclusions
8+
▁gonadotroph
▁frozen
▁NH
▁Relative
alact
▁tyrosine
▁coordination
roma
▁cruc
▁anatomic
▁81%
▁microb
▁intram
▁glutamic
tening
ochondr
teral
▁0.0001).
▁attitudes
▁hypercal
▁substanti
▁cyclo
vaccin
unts
▁6.1
sive
▁pulses
▁coval
▁emo
▁13%
absorption
trous
ygo
erative
▁spermatozo
▁medulla
acts
▁ml
mber
▁polypeptide
▁unrelated
taz
▁shunt
-65
▁lambs
▁measurable
▁attenuation
▁seropositive
▁outs
▁intra
cellulose
▁nervous
▁TGF
iable
▁questionnaires
▁recipient
tiveness
reed
oracic
▁transmitter
gland
▁potency
▁0.01),
▁longitudinal
▁achieving
▁determinations
▁wounds
▁adequate
▁(5-
▁inward
▁lobe
▁(8
▁10(6)
▁0.001
▁muscles
▁parathyroid
▁radiographic
rowth
▁overe
▁reticulocyte
▁retin
▁doubled
isol
▁aor
▁24%
2-
▁mesenteric
▁impairment
▁scre
▁lyso
▁enriched
▁epithelial
▁vesti
▁allergy
▁atheros
alas
-0
acetyl
opha
▁porcine
▁CNS
▁intramuscular
▁potentials
mol
▁grades
▁hyperglycemia
▁employment
rosine
▁mutagenesis
▁Differen
onad
▁prednis
hemat
(1
atonin
icidal
▁48
▁unchanged
▁cessation
▁scinti
iminary
rophy
TSH
rophob
▁utilization
▁synergistic
abies
coh
▁solub
▁surfact
▁glucocortic
▁therapy
▁sulfate
ulmonary
▁pressures
▁effusion
▁CCK
▁sut
▁regulated
▁polymerase
tle
itre
5;
hyp
▁proteinase
itol
▁rectal
▁cigarette
▁89%
▁facilit
▁eluc
▁compound
▁7.
▁31
▁cortic
converting
▁3
▁demonstration
▁hydrolysis
molec
▁abnormality
mong
.3
▁rupture
▁suppres
yroid
▁synaptic
▁malignancy
▁urinary
▁prenatal
retin
▁occlusion
100
▁sphinc
▁seronegative
▁circadian
▁diffic
▁0.01
▁43
▁eti
orec
amic
▁tiss
▁ovaries
▁effectiveness
▁spati
▁metabolite
▁brush
▁DS
▁manu
▁disulfide
▁enzymes
▁rejection
atrial
derived
▁HLA
▁EMG
86
▁approx
▁amyloid
ograms
derly
▁77
▁gon
ipramine
density
ticular
▁follicle
▁pK
plast
glycerol
-4-
▁cardiopulmonary
▁demands
▁leukemia
▁trials
▁preoperative
▁fetuses
▁determinants
▁affecting
-3-
0)
kinje
▁arterial
▁functionally
phasic
▁incubated
▁symptomatic
glutin
idium
erated
▁9.
▁examining
▁urine
entia
▁PB
▁phy
▁antiarrhythmic
▁nonc
▁visc
endorphin
▁atopic
▁neurones
▁fluor
▁aging
heximide
▁correlates
▁tended
adrenoceptor
▁cyclosporine
▁pylori
▁cohort
ortic
▁aorta
lep
▁Kd
ughter
▁resemb
5.
orrhea
▁junction
ochrom
▁similarities
▁enrolled
▁schiz
▁3).
▁ejection
immun
atitis
aemic
▁17-
▁exert
▁fertil
.6
▁100
cholesterol
▁cyto
flammatory
ffer
▁predominant
sia
2)
▁2.2
▁arachidonic
▁comprised
quine
▁moderate
▁8.3
▁qualitatively
▁tracts
▁adjusted
-7)
ivered
chol
▁ischemia
▁fluorescent
olone
▁lymphocytes
andard
▁HTLV
horm
▁30.
▁transloc
▁transverse
▁vaccin
▁Tes
▁94
activation
insulin
oids
thym
▁gestation
▁secretagog
▁outpatient
▁automated
4),
▁ions
45
▁hemodynamic
▁modest
▁benzodiazepine
rague
▁meningitis
▁ppm
rocytes
▁fibrinogen
▁immunode
▁chromosome
eprazole
▁LTB
▁innerv
treatment
liters
▁antagon
dehyde
▁tes
asal
cortisone
fat
▁2.9
▁granulocyte
▁caffeine
▁molar
▁hazard
▁nal
▁(28
▁myocardial
▁fibrillation
▁7,
▁respec
▁HeLa
▁amin
▁asthmatic
trol
3-
▁ganglia
▁complic
admium
▁cocaine
▁sputum
sorb
▁kDa
▁gangli
▁discon
lusion
plete
▁28%
▁HA
▁Estim
▁fluc
▁forskolin
8)
▁shortened
opulmonary
transferase
▁hormones
ffec
▁nmol
▁weakly
▁abuse
66
ensitivity
▁differentiate
▁degeneration
▁inactiv
titial
▁(3
▁micrograms
▁115
ferrin
▁cytokine
▁exhibits
▁PT
▁determines
▁metastasis
▁homogene
▁comparisons
▁BM
▁selectively
▁anion
▁24
▁breathing
▁concom
▁0.1
▁fluorescence
kground
▁tetracycline
▁differed
atab
idym
▁EG
▁intense
bodies
▁acetylcholine
▁microsomes
▁cigaret
▁Significant
essation
ameth
azol
1%
iotensin
▁synapt
▁promin
▁leakage
▁antiserum
▁recombin
▁cyan
iph
adm
▁obstruction
▁contracep
▁diastolic
1;
atell
▁isoforms
▁50%
▁(2.5
icine
1-
▁blast
▁inversely
▁1.4
▁SG
ulatory
▁chond
▁mitral
▁Insulin
▁emergency
operated
-17
▁synthesis
▁dimethyl
▁apprec
▁potassium
▁7.6
EGF
▁inoc
▁leuc
▁synthetic
▁CGRP
▁sero
▁5.7
▁dete
▁pleural
▁menstr
▁psychiatric
0.7
▁mutants
obacter
▁sarcoplasmic
▁prostatic
▁transferrin
▁oligonucle
▁depr
▁elimination
▁15-
▁occurring
▁ovari
incubation
▁antibodies
▁Salmonella
▁inver
▁afferents
otting
▁divalent
glycerin
▁latency
▁alkyl
▁ascorbic
FGF
▁citrate
▁vacu
▁lysine
▁30%
▁polymer
▁WK
▁shifts
▁1-2
▁shor
▁glomer
▁surveys
ceptive
ichia
ectomized
▁hap
▁elective
yzed
▁53%
▁optimum
▁PH
▁1.
orated
carinic
oprol
▁practitioners
phosphor
▁undertaken
▁colonic
▁surgically
▁hospitalization
▁cG
imide
▁Increases
▁basolateral
opathy
5%,
▁MV
▁evidenced
▁contex
▁conjunction
ynthe
▁DF
▁pyruvate
mental
▁disturbances
▁ewes
olytic
rangement
▁hydrogen
accharide
oradi
▁compliance
▁malignancies
ygen
Kd
▁peaks
▁infectious
▁docum
rogen
▁chloramphenicol
.9%)
▁ultrasound
▁cyst
▁sigma
▁continuing
▁7.7
▁pineal
-6
▁prolif
▁12.5
.9%
▁70%
▁oligonucleotide
▁19,
▁116
▁irr
▁cytotox
▁defic
astom
▁bile
8).
▁epid
-10
▁Myocardial
▁outpatients
▁cavity
▁satur
▁surge
▁axonal
▁Thy
▁hypoxia
mediated
▁confirms
minal
▁Additional
oderm
▁transiently
▁Leu
▁capsaicin
iazide
▁90%
tively
▁7.8
▁amph
blockers
IgG
▁contributes
orectal
▁perioperative
▁31%
ectom
umerous
7.
dered
▁96%
2%)
▁fasting
▁tetrac
▁vesicles
▁novo
▁filtration
▁epithel
▁regis
▁15%
▁preliminary
▁diabe
restricted
▁0.0
▁PRL
▁ips
▁fatty
▁pene
▁homologous
stim
terase
+-
ylchol
▁25-
▁polysaccharide
olution
▁acces
▁exploration
trical
▁cytosolic
5,000
▁yielded
▁airway
▁bronchodil
▁pulsed
erate
▁0.14
▁gp
Leu
▁hypertension
ureus
sectional
tocin
▁unex
uble
38
▁WHO
▁repeats
▁dialysis
motic
▁suicide
▁evaluating
exis
▁microns
▁PSA
▁33
29
▁0.5
▁glucocorticoids
▁HPLC
▁hospitalized
nRH
▁parasite
▁irreversible
▁perip
▁ET
aryng
tory
adrenoceptors
▁stimulated
▁(1.3
▁5%
▁adjustment
▁testosterone
▁ESR
▁washout
plic
▁disper
▁(0.4
▁7.0
oric
▁transplant
-9
seud
▁3-
▁hypothalamic
otox
▁homogeneity
▁ole
Hg
▁findings
-2
Gl
▁doses
Ts
lymph
▁aberr
▁deter
opressin
osomes
▁hematopoietic
▁multic
▁uptake
ochemistry
otone
oic
ucine
▁tachyc
▁monol
▁selective
lives
▁10(
atology
ocellular
venous
▁termed
▁metoprolol
rosophila
▁proce
000.
▁dilated
▁strep
▁chloride
▁vag
▁ligation
gthen
▁77%
▁adrenergic
▁classified
ituitary
▁62
▁endogenous
▁clearance
▁splic
▁endoscop
▁uterine
▁pyro
▁severity
odialysis
▁progressively
▁intolerance
▁1-
▁eligible
▁basal
▁AVP
itary
▁pharmacological
▁monkeys
▁unilateral
▁(21
Gly
fused
▁inspiratory
▁0.
▁symptom
▁tymp
▁structural
▁enzymatic
▁excretion
▁malformations
roscopic
yclo
ulates
▁proliferation
amphetamine
▁agonist
(+)-
itamin
▁juvenile
▁withdrawn
▁Experim
▁dissociation
titu
ocytic
▁commerc
▁apical
▁hygiene
ignific
▁mammary
▁circumference
existing
4/
oscop
▁foods
▁serum
▁diminished
▁isomer
▁msec
enicillin
eration
▁stimulus
▁SEM
ANP
fec
phosphatase
▁auditory
▁Oral
▁dietary
-6-
tia
opoietic
▁instr
▁carcinomas
▁unde
▁absorp
▁biopsy
anuary
92
▁lipids
erad
63
▁mucosa
▁extracorporeal
▁(26
▁afferent
▁repor
rever
arrhy
amino
▁plex
orubicin
▁4.1
sensitive
▁immunoreactive
embrane
▁68
▁hams
▁questionnaire
▁onc
▁(5
oes
renaline
▁glycosylated
vascular
▁19%
brile
▁epidermis
▁restric
▁opioids
▁propionate
▁0.15
▁specimen
ordance
▁catheter
▁biologically
otomy
ocated
ellular
▁superf
▁evaluations
▁endothelin
▁hormone
▁histone
uprofen
▁contamination
0%)
▁1970
indolol
galy
▁weighing
▁measuring
▁stric
▁homogen
▁prolactin
▁72
▁spon
▁intraper
▁isch
▁lamb
ropyl
▁93%
▁spinal
eliac
▁hippocamp
▁serolog
bular
▁leukotriene
lact
▁athe
yroxine
ophilic
▁belie
▁subtype
▁structurally
bumin
allium
▁mug
NAc
▁fist
▁LM
minis
▁freeze
rease
▁rele
▁immunocomp
▁arrhy
arb
▁OA
▁surround
▁wee
▁(500
phil
olipid
duce
osyl
▁treatments
clerosis
▁surgeon
▁reveals
ylamide
▁endotoxin
75
▁91
▁participate
tro
▁(10(
odium
ameter
▁ampicillin
physiological
▁infec
otor
▁melanoma
▁fixation
▁peptides
▁kidney
▁PD
▁neoplasia
▁RI
▁ventilation
▁outcomes
▁depolarizing
tiazem
aneously
▁mimic
▁supple
inflammatory
▁hematologic
▁excitation
▁allergic
▁hematoma
▁fever
▁1/
▁seizure
tead
▁confirmation
▁suppressive
▁Subsequent
athetic
▁26%
▁Tissue
▁87%
▁glycoproteins
tensives
-18
▁esophag
▁identifying
▁quantitative
odal
▁availability
▁trend
▁CSF
tive
▁pep
▁intracellular
▁dys
inyl
▁enhances
▁Bec
▁250
avail
99
lasts
ositol
▁600
▁concep
geneic
ochem
▁Hg
▁facial
7%)
▁IFN
Ps
▁antagonist
opes
ching
▁(30
odynamic
▁mucosal
▁6.
amine
▁neutropenia
▁dox
apse
thmic
atosis
2+-
viral
(2+
▁reviewed
itonin
acterial
▁ori
▁disulf
0%.
kinin
▁heavi
▁efficacious
opamine
▁peroxidase
▁projections
keto
▁diagnostic
▁99%
▁attained
▁elongation
▁PAF
▁extensor
▁surveyed
50
▁poin
▁visualization
orepinephrine
▁Stimulation
▁bronch
0.8
▁schem
▁morbidity
▁abundant
ithelial
electro
▁Glu
oride
▁scans
▁cerebrospinal
▁surgery
4)
18
▁protec
▁improves
▁anesthetic
▁cyt
othi
▁sympathetic
▁necrosis
▁consensus
ecal
▁cephal
▁isoelectric
osides
▁vascul
▁humoral
▁stratified
▁buc
thmias
▁MIC
▁9%
▁(3)
▁spor
▁AI
▁fmol
rangements
▁diame
ropine
▁criterion
tact
DH
trating
▁absorb
▁gonadotrop
hydrox
lastic
renol
glucose
rological
▁phenotypic
mega
▁DT
-1
▁Biol
▁anaerobic
▁chamb
▁immune
▁Seventy
▁alleles
▁synthe
-40
▁stimulates
▁differe
▁3.0
▁Abnormal
▁developmental
▁transc
mediately
▁alterations
▁antitumor
asone
shaped
truc
TPA
▁collagenase
▁benzodiaz
idation
▁calcitonin
aryotic
▁negatively
▁indis
▁cartil
loon
▁nig
diabetic
▁hydroxyl
▁therapies
ologically
▁luteal
terol
cys
▁insoluble
▁.05)
evoked
educ
▁osmotic
otype
▁VT
osom
arly
ritin
▁epithelium
▁reabsorption
▁discharged
▁replication
▁swelling
▁conges
▁deficiency
truction
ophy
▁0.09
▁irrever
▁portions
▁virtually
▁aggres
▁deple
▁regulatory
▁antigenic
▁Prel
odiaz
▁vitamin
25
▁congen
▁pharmacologic
▁(25
▁cyclooxygenase
▁muc
▁multim
▁deleterious
▁thyroid
▁concentrations
▁pharmacokinetic
arate
transfer
odil
▁enlargement
agic
▁0.04
▁acquisition
▁cholec
▁oxytocin
tives
▁heteroz
▁lens
renal
10.
▁synthase
▁nuclei
olig
▁VLDL
▁sugars
▁adoles
▁145
▁trauma
methyl
▁selen
sor
▁spike
▁sham
▁demonstrating
▁esters
▁livers
▁examined
▁nodules
▁(38
▁microtubules
-34
▁insertion
12
85
▁platelets
Phe
▁suppression
trypsin
-80
▁diseases
▁quantified
▁diarr
▁enlarged
▁antidepress
▁systolic
ocyst
▁4.2
4%)
▁prostaglandins
▁exceeded
itin
▁amplified
▁Bacter
HF
ocamp
▁-0.
yses
chymal
▁3'-
▁cholesterol
▁cardiomyopathy
▁MT
▁diarrhea
▁Twelve
▁phospholipid
▁nursing
olecular
sts
▁laboratory
▁amygdal
IDDM
▁efficacy
▁ribosomal
▁stimulating
trogen
ietic
ompan
angiotensin
ethylene
atectomy
otre
▁exposure
▁195
▁peripher
▁85
▁erythrocyte
achid
average
▁deposits
myc
▁genotype
injection
▁verapamil
▁reductions
▁sple
450
▁aromatic
isomer
▁anesthetized
cture
▁incontin
apanese
▁stenosis
▁adenomas
tition
▁ey
virus
▁encephal
▁Fifty
▁aortic
▁conductance
regulated
▁incision
▁exce
▁targeting
▁stimulatory
plications
osome
mobil
▁GV
▁7
▁dial
▁antigens
meth
CAM
▁regurgitation
weighted
lactam
aspartate
▁ald
▁discriminate
▁disability
▁ultrastructural
▁proportions
monstr
tosis
▁diuretic
▁30
tine
▁Intra
▁cytology
▁astro
▁97
1%)
▁inducing
▁luteinizing
▁cerebro
▁transcripts
▁visits
kers
▁neutrop
▁blockade
▁ect
▁lumb
▁fluores
▁vaccine
▁paras
esity
▁utilizing
▁ionophore
onvul
▁remo
22
▁grading
omonas
▁imaging
▁antimicrobial
▁incid
▁residues
▁98%
▁Cardi
terin
▁glut
ometh
▁Lys
▁reveal
▁retur
erebral
▁infarct
achnoid
ofl
onephritis
▁digoxin
▁duoden
invasive
▁retrospectively
▁mononuclear
▁7.1
▁ank
▁muscul
acement
▁dendritic
▁27
▁HDL
oxif
7),
heal
thma
epithelial
▁Approximately
▁constric
▁balloon
▁capsule
▁0,
▁ionized
▁autoradi
▁increas
▁233
▁consumed
ported
▁killer
▁postin
rometry
▁formulation
▁synap
▁ipsilateral
▁1000
▁1/2
▁dopaminergic
▁(300
▁phenomenon
▁cros
tral
-19
61
▁exogenous
▁analgesic
urther
▁transient
▁objec
▁incis
keleton
▁(150
▁peritoneal
▁densities
lym
▁RNAs
10-
throm
7-
▁follicles
sian
▁immobilized
▁serological
▁11-
▁inherent
▁successive
▁pmol
operatively
1,
ivation
▁sarcoma
▁contractility
▁elec
▁acidosis
ergic
▁embryonic
duced
tents
▁chromat
▁inconsistent
▁overl
▁elic
▁sput
▁1989
▁fetus
▁20
tee
oscopy
osus
maximal
MV
▁leuk
▁excl
▁bioavailability
9%)
15
ergency
▁neuromuscular
operative
▁fibers
median
▁tracheal
▁Staphylococcus
vian
▁sulf
▁physiology
▁ELISA
▁32%
▁198
▁0.02).
adrenaline
▁7.4
▁electrophoresis
▁mildly
▁exagger
▁antigen
▁likelihood
300
▁salivary
00,
▁glucagon
▁prevented
▁contraceptive
▁tension
▁negl
usp
exposed
▁98
▁exchan
▁respiratory
▁augmentation
lated
▁BCG
▁ranitidine
▁currents
▁surf
toph
uppression
conjug
▁obesity
▁Pseudomonas
▁incomp
▁advan
▁64%
▁echocardi
▁excitatory
▁mitotic
▁labeling
3/
tetr
▁creatine
▁atropine
▁pneumoniae
▁risks
▁undergone
▁47
▁lipid
▁mechanisms
▁cortex
▁reproduc
▁nasal
14
▁hypothal
trum
othane
lyc
▁Cys
▁exposures
▁lith
▁lectin
roscop
ygous
▁steroid
▁22%
▁constituted
2%
▁mild
inephrine
▁percentages
BT
▁evoked
dition
▁allogeneic
▁tolerance
▁psor
ipr
▁neurological
▁breakdown
)2
itant
fluoro
-9)
▁glomerul
▁influenzae
▁deform
ophore
ropha
▁inducer
▁additionally
▁aneurys
▁endothelium
▁dehydration
▁chan
phic
HDL
▁methionine
▁difficul
arent
▁Alzheimer
▁viability
▁mmol
lyce
▁aluminum
▁umb
▁exhaus
▁mobilization
ifed
▁chemically
▁phosphorylated
▁1%
▁predominantly
73
▁unres
tum
igible
astolic
▁44
▁autonomic
▁pneum
▁TSH
▁artery
▁analogs
Nase
▁3%
▁oes
▁hydrox
▁PHA
▁nocturnal
▁myelin
▁800
illance
▁distal
▁chromosomes
jun
▁IgA
luding
0-
parathyroidism
▁CN
▁114
cessive
alanine
▁eluted
tens
pharose
▁elong
ermal
razole
▁lasted
platin
itals
▁metastatic
▁Staphyloc
▁Serum
▁stimul
▁LV
▁epilepsy
▁secretory
▁prescribed
▁TM
▁obstructive
▁attending
went
▁wash
▁malignant
58
uran
▁alumin
thmatic
▁polys
▁antagonized
▁89
entral
▁disorder
oxin
▁125
▁cultured
▁competent
ymme
tein
▁albumin
rosemide
▁immunobl
▁hippocampal
▁BAL
enol
▁60
eptides
▁affects
▁judged
▁tau
▁8-
▁heterogeneous
ressed
uminal
▁illness
▁modulate
.2
ranial
▁0.05)
▁subunit
spective
etitive
▁arrhythmia
▁feeding
apeutic
▁plas
57
ofluores
▁5.3
oblastic
▁immunodef
▁oxidative
▁1.6
centr
▁allergen
▁43%
▁probe
▁deterioration
▁71%
▁fibrob
10,
▁LPS
▁cesarean
▁alcohol
▁PP
▁glyc
▁repetitive
phosphon
▁(7
▁5.1
▁outbreak
▁medications
▁testis
▁(1.6
▁endoscopy
▁interviewed
▁diagnosed
produc
77
.0%
othal
macropha
▁deoxyrib
▁seas
▁metastases
▁enteric
▁cleavage
▁plac
acrine
esin
adex
▁nons
▁helix
▁induc
▁cytologic
▁prednisolone
▁0.20
▁stu
▁decarbox
ropo
ercul
▁motone
▁smears
▁Comparison
azem
acetate
inic
▁superoxide
spectively
▁1.25
▁diagnosis
ostic
▁sepsis
▁scientif
▁epsilon
▁cation
▁chor
▁regulation
▁76
▁antagonists
ellar
▁Measure
iatric
▁dodecyl
31
▁autoradiography
uretics
eptide
ATPase
▁microscop
▁7.5
▁CsA
▁responded
▁routinely
▁79%
resting
phot
hist
aemia
▁1.5
▁algor
▁10,
▁clinically
▁quantit
+,
fos
▁discrimination
occal
terologous
ialysis
sives
MG
ximide
▁correspon
▁atherosclerosis
idone
▁VO
toc
▁55
▁slices
▁isolate
▁PDGF
onucle
▁epinephrine
▁catecholamine
▁identi
partate
tructive
▁Tum
alc
▁Intr
trib
helium
▁intrauterine
▁GABA
▁dopamine
42
▁TA
▁40,
▁neoplas
▁enhancement
▁Arter
/100
▁veins
cents
uclear
▁adolescent
▁aqueous
▁aggregation
▁perfusion
ication
valence
chloride
▁30,
▁basement
▁heterogeneity
▁RV
▁degrad
▁intervention
farin
▁AH
▁rostr
▁10(-8)
▁neonatal
▁predomin
thrombin
▁thymus
▁Inhibition
▁initiate
alsy
▁admissions
▁aberrant
▁neurob
▁Purkinje
jec
▁radioimmuno
▁iodine
▁complementary
▁coupled
▁132
idine
ithi
▁creatinine
▁weighed
▁amylase
2(+)-
0%,
▁3.7
aced
▁extraction
▁decade
▁estimating
▁erythropo
▁galactose
oproterenol
rents
▁suppressor
▁laminin
▁nausea
Ala
▁mec
▁gradients
ylcholine
enic
▁titers
▁Thirteen
ithin
▁characteris
ifferentiated
atine
onuclease
▁(4-
corrected
▁ranging
▁cardiac
oxone
▁predictors
▁kit
▁myel
▁beneficial
▁hyperch
-1-
ygdal
ocar
-5)
▁cations
▁filament
▁staging
▁1
-24
46
thi
▁mitogenic
dimethyl
▁2.0
▁100-
oside
▁optic
titis
▁vomiting
▁blacks
▁recurrences
▁45%
+/-
▁pig
▁symp
micro
responsive
▁synov
▁(95%
▁deficient
drug
opolysaccharide
anded
▁disrup
▁ingestion
▁androgen
▁premature
▁cholinergic
▁contributing
▁twofold
erance
▁intensive
reast
▁endemic
plasia
ilical
-3)
Mg
▁proteolysis
▁14,
iliary
▁8.2
acetic
▁slowing
▁endometrium
▁reac
olamine
▁lymphoid
▁sial
▁carotid
▁mothers
Dawley
▁hypertrophy
-14
▁1980
ffinities
ogens
▁sperm
▁6,
▁capillary
tization
▁nonspecific
eradish
▁aerobic
upus
▁cytos
feron
aid
▁Examination
▁erythromycin
sy
▁leukotri
▁posi
3+
Glc
▁40.
▁Exposure
▁techniqu
▁admission
▁HL
▁gains
▁placebo
IgA
▁epitope
▁Reduction
bac
▁lapa
osomal
▁Leuk
ovascular
▁mediators
urations
▁prol
arachnoid
▁cultures
▁inhibits
ereb
▁nicotine
▁immunoprec
▁ligament
▁rhin
▁13,
labelled
ubiqu
▁recombinant
▁63%
▁injec
alian
ortal
▁plasminogen
▁analogues
▁Interestingly
▁yeast
▁41%
▁exclusion
▁allogra
▁chicken
▁neurom
▁2.4
robial
glycer
▁48-
tious
▁deaths
oretic
▁morb
▁predictor
▁catab
▁osm
▁Increas
enh
helial
rection
duction
▁umbilical
▁kinetics
▁asymptomatic
ochle
▁KCl
▁exaggerated
posure
▁VP
▁cervical
ureth
entif
rogenic
▁NADPH
▁aden
▁coronary
▁PI
▁bradycardia
glutinin
ylic
0.2
▁junctions
▁calor
▁ech
responding
▁95%
▁dramatic
▁alcoholic
▁dex
▁HC
60
▁hypothyroid
epam
▁congenital
uctose
trin
5%),
▁phenomena
▁HbA
▁dib
▁motif
chym
▁phenylephrine
▁128
▁Hyd
▁acros
▁proliferative
anine
▁micron
▁5
▁colonies
▁adenylate
▁influx
ydig
▁26
▁pancreatitis
▁myof
▁hypers
▁potenti
▁myocytes
▁2000
ovine
▁chest
▁3.1
acr
▁follicular
▁+/-
pread
oconstric
tin
aline
▁biopsies
▁pancreas
▁sour
ophen
▁duct
▁radioactivity
▁transplants
,000
▁peptide
oactive
▁pathology
▁progestin
▁hydrophilic
icients
iaz
▁deduced
▁(9
▁40
▁preven
▁4
▁0.11
90)
▁discharge
▁precursor
▁pigs
ypro
▁corpus
incip
▁TT
▁emotional
▁pregnant
▁tobacco
▁rhy
ulin
▁CAP
▁cirrhosis
▁triti
▁13-
▁.00
▁habits
▁hemorrh
▁carcin
pite
▁percutaneous
(2+)-
▁cytokines
apsulated
▁accounted
▁resting
rofen
▁saline
▁gonad
▁hemo
▁supernat
IgM
▁stain
▁venti
▁progn
otide
▁pertussis
▁libr
▁subjective
▁8.4
meas
anad
▁68%
▁cryst
arean
cAMP
tyl
▁0.9%
ighted
▁dors
tabol
20
▁intrap
TNF
▁defects
51
▁catechol
▁0.7
.0
riton
▁responsiveness
LH
▁lamina
▁cirrh
ergy
▁CRF
▁fibroblasts
▁synthetase
▁cholest
▁tachycardia
▁dihydro
▁marrow
urine
hydr
▁lumbar
▁organic
▁24,
Ds
unctional
▁reticulum
▁subcutaneous
▁attributable
47
▁Survival
▁400
GF
moking
prising
▁frontal
opic
icide
▁protocols
onor
▁0.06
▁entero
▁119
▁radioactive
▁EEG
▁135
ogl
▁PTH
▁turnover
okine
▁tox
▁homoz
▁cathe
kely
53
▁erythrocy
▁radicals
▁thrombo
▁concurrently
▁asymmetric
▁loos
9.
▁ile
▁mEq
]-
▁uterus
amethasone
▁0.2
▁LH
▁controlling
asive
tryptamine
▁AII
▁inoculated
illin
▁Recently
2+]
▁1.2
▁76%
▁depolarization
oinositi
rolase
▁transcription
ucose
▁conjugates
▁viral
▁atenolol
onegative
▁37%
▁verbal
phadex
▁membrane
arrhythmic
bral
ranolol
▁elu
▁Changes
▁critically
ystic
▁esterase
▁aldosterone
▁naloxone
▁ane
▁diets
educed
2).
▁oxygen
▁fluctu
rox
▁sensitivities
▁persis
2+.
▁gels
▁dose
▁1987
▁metabolites
▁hospitals
▁reproducible
▁choles
▁Subjects
▁bic
▁Disease
▁14
feren
▁50%,
▁methyl
usal
thase
▁Streptococcus
▁120
lue
▁inhib
▁HB
▁(0.0
affec
omical
▁thymocytes
▁chronic
▁Mn
ysm
osine
eptidase
▁triglycer
reactivity
▁Ace
▁onset
▁actin
▁neoplasms
▁susceptible
▁recurrent
▁21
orh
▁alteration
▁bone
teroid
lycemic
NK
▁preterm
peptide
▁skeletal
▁atherosclerotic
▁arrhythmias
▁rheumatoid
▁describ
bloc
▁dilatation
▁prevention
erox
0%).
achol
ximal
▁nurses
▁chromosomal
80
▁pyramidal
hepatic
▁2.5-
▁42%
▁predictive
carb
▁tomography
▁initiation
tonic
gated
habil
lux
aminophen
▁liposomes
▁folate
▁chec
muscle
.7
opa
▁4).
▁ionic
▁diges
▁(6
inhib
▁probes
ropriate
▁transcript
3).
▁distress
▁capsules
requ
▁illus
▁saturation
▁dilution
▁124
selective
▁histological
▁inges
▁(19
▁intrac
▁neurogenic
-1.1
▁drinking
▁cytometry
▁solubilized
rays
▁rIL
tries
▁predic
ogenous
▁melatonin
olarization
onary
▁gangl
obarbital
▁terminus
▁67%
kets
▁varies
trition
▁intake
-8
▁(100
▁cardiovascular
▁polyc
▁preval
▁phosph
▁-2
▁eosin
ocaine
▁answ
hydropyridine
▁fibroblast
▁pediatric
▁ileum
▁monos
▁histamine
taining
▁cytoplasmic
▁attenuated
▁prosthe
▁180
▁investigators
▁3.3
▁strom
OA
rati
▁38
▁0.12
▁4.3
▁histology
▁melan
▁arter
▁hydroly
10)
▁panc
▁biosynthe
tox
▁tumour
tissue
pregnant
oplastic
▁infiltration
▁ester
▁artic
▁cured
▁methotrexate
▁bolus
▁Nineteen
+]
▁Statistical
▁36
▁bromocriptine
ensity
▁GA
immuno
oste
▁Nine
deple
forming
▁compli
▁encephalopathy
▁HS
▁82
▁puls
▁transplantation
promazine
▁substantia
SAID
▁enal
▁78
modified
▁gly
▁graded
ylase
-3
▁magnesium
plants
▁ery
osin
▁astrocytes
unctions
▁theore
▁LN
▁Plas
0.5
onography
▁disorders
ylate
▁cortical
respective
aired
ogra
▁paren
▁lidocaine
▁staining
▁38%
▁supplemented
▁hypo
▁interf
ept
avage
-1,
▁equilibr
▁stained
tics
▁venous
▁94%
▁moiety
▁microscope
49
▁detec
▁pharmacokine
▁protective
ovirus
▁isot
▁cys
▁lesions
▁toge
openia
▁practition
▁kinases
▁cancers
urin
▁lysosomes
▁insensitive
▁cycloheximide
▁normalization
▁specificities
43
▁Forty
▁amputation
▁agglutination
onium
▁2.5
icin
▁colorectal
wes
▁experim
▁crosso
amicin
tidine
reduced
6%
selec
▁immunore
comitant
▁dias
cardi
sized
▁conformation
orac
▁sten
mg
▁4.4
▁64
▁adverse
▁responding
120
▁influences
vac
esium
▁220
adequ
ucle
▁therap
semin
▁acetic
6-
▁Respon
▁norepinephrine
▁lungs
▁epidemiologic
▁rup
▁phosphatid
altered
▁epididym
▁fractures
▁herpes
leukin
resist
ffinity
▁bovine
▁Sprague
▁46%
eled
▁perme
▁clinical
ocomp
▁retrograde
kelet
▁monocytes
▁induces
oratory
▁underwent
39
▁Pretreatment
▁Phen
tetra
▁substituted
kage
▁pH
▁tooth
istribution
erence
▁grain
terolog
59
ture
▁anemia
ymp
2;
▁50-
BH
▁42
▁Wistar
▁glutamate
idespread
matched
otrexate
▁multiv
▁(13
▁16%
▁colitis
▁assessing
glyc
clamp
▁anesthe
oA
oplas
▁sinus
▁embryos
▁transforming
yro
▁sampled
plantation
▁protr
▁pHi
▁neutrophils
▁cann
▁(1
▁hypotension
▁glycerol
▁messenger
ceived
▁exerted
▁parox
▁oxygenation
ongest
▁secretion
▁validated
▁ICU
ochrome
tors
▁0%
▁mast
▁33%
▁mediating
▁adjus
▁dysfunction
▁(24
pain
eroxide
▁monocyte
▁isolates
▁topical
72
▁focusing
▁uter
gnetic
▁accidents
▁reversed
▁88%
sess
0.3
infected
eryth
opr
▁regulate
▁PMA
▁precursors
▁(43
▁retic
▁41
ubicin
uation
adjusted
▁(33
▁summarized
▁weigh
itidine
▁immunosuppres
olgi
▁pathogenesis
▁soy
▁chel
▁hig
▁99
▁17,
echanical
affected
arynx
vices
embran
▁anxiety
▁virtu
turally
▁forearm
kephalin
▁mmHg
inergic
▁105
gm
▁thym
▁absorption
embry
▁conformational
ensory
▁(14
early
emic
▁dramatically
ophilus
/4
▁estrogen
phosphatid
▁antibiotics
▁unil
▁accounting
▁0.03
▁(16
trus
▁Rats
▁Conversely
▁polypeptides
▁lateral
▁tryptophan
opathological
94
effects
▁(46
▁NaCl
▁PCR
▁gonadotrophin
▁investigations
▁cerv
▁RS
▁6)
ocytes
▁incorporated
▁alkaline
▁mim
intestinal
illation
▁-1
regn
▁53
▁10-
▁synerg
▁nitro
▁triglyceride
▁arti
0%),
icated
2318
tophan
▁scanning
▁multicenter
reactive
▁preparations
▁perfor
otri
▁oocytes
▁athletes
▁dementia
ensi
ctive
▁replic
▁ethnic
otoxin
▁1.1
▁analyzed
▁46
▁heterologous
▁sucrose
▁syndrome
▁elevation
▁latent
ults
▁alternating
ducing
▁clon
▁attain
▁exhibit
▁guinea
henyl
▁profound
acted
▁healing
osamine
epti
▁excre
inj
▁serine
▁shifted
▁preferential
▁Thir
▁schedules
▁distin
▁plexus
▁lesion
▁bronchitis
▁promoters
▁Acute
▁parac
▁accumulated
ycin
▁lavage
▁spectroscopy
+/
▁enzyme
▁hypot
▁lymph
▁(50
zyme
▁144
▁iso
VT
▁2)
rhy
ymptomatic
▁awareness
anol
▁impair
▁subun
▁Severe
osterone
▁Eleven
▁bowel
floxacin
yx
apamil
▁70
▁decreasing
▁8.8
▁inhibiting
▁synovial
▁prostate
pinal
ellum
▁ATPase
▁amo
▁neurons
▁heterogene
crimin
▁indus
▁elderly
▁embry
vail
opi
roup
▁subjec
▁electrocardi
effective
:1
▁paralle
inase
▁dental
▁serologic
tryp
ipit
▁lacked
4%
venty
arge
▁DH
▁endot
leuk
▁morphology
▁elicit
tase
▁hCG
▁Significantly
▁operative
▁FEV
uridine
▁postsynaptic
vul
▁thrombocyt
▁170
▁margins
DNA
▁aeruginosa
▁2.8
▁Higher
▁20.
▁assis
▁spind
uretic
▁depres
▁horm
entified
▁plaques
tig
▁8.5
9,
▁limbs
▁ACE
formations
hetamine
FU
▁sequentially
▁hypercalcemia
▁49
lobin
▁luminal
▁arteri
▁asymme
▁intub
LDL
dibular
▁150
fraction
▁adenocarcin
nine
▁lysosomal
▁ure
▁diazepam
▁CMV
▁depressed
▁ulcers
xone
▁olive
▁effec
▁challen
▁6.9
▁adhesive
▁mono
▁lactation
▁(20
tradiol
▁kidne
secre
▁challenges
▁Sout
albumin
feeding
▁amniotic
▁chlor
omerular
▁headache
▁bacteria
▁ket
ocial
astatin
▁seiz
/12
thel
lycerol
▁perinatal
ginine
▁terat
▁surfactant
▁modalities
▁phospholipase
▁ischem
eal
▁muscular
angi
ogeneic
▁cytoch
▁Compared
▁interference
kelihood
▁metast
▁determination
69
▁acids
▁phospholip
uoden
requency
▁hepatic
▁shar
gestin
▁phag
▁hepar
0,
▁mitogen
▁Evidence
respon
rected
tic
stranded
opoly
▁91%
rine
▁triglycerides
▁comparable
▁NADH
▁affec
atinine
ifug
owever
▁substrates
Cs
▁extrac
elec
▁behaviors
ilateral
aturation
▁compartment
struc
▁[125
/8
ytoin
▁receptive
▁cortisol
▁statis
geal
uvate
▁receptor
ostatic
▁insulin
▁bp
aginal
▁preparation
▁detergent
▁complications
iably
▁compounds
▁maturity
▁kidneys
otent
saccharide
▁relapses
▁23%
ographically
▁vein
tation
▁10.
matic
▁questionnai
inally
▁diabetic
▁glomerular
-2.
▁nerves
▁locus
▁54%
inamide
alp
▁alkal
▁postulated
▁focal
rief
▁0.5,
▁shif
▁interrup
▁Chronic
▁severely
affinity
▁subarachnoid
▁glycine
▁Sixteen
▁polyethylene
molality
▁fibrosis
▁concomitant
lood
▁qualitative
▁ammonium
▁polymorph
▁arteries
▁encodes
▁struc
sulf
▁terminals
▁ulc
▁recombination
oyl
6)
▁transi
bly
▁nucleus
▁6.2
▁renin
plas
▁biphasic
▁bronchial
▁strips
odgkin
▁anastom
iability
▁galact
▁monolayers
▁gonadotropin
sensitivity
▁spasm
▁superficial
▁intracranial
▁Cells
▁hydrophobic
▁aspiration
▁morphological
urane
▁pharmac
april
tized
arbox
▁inactive
▁dendri
▁maturation
▁dimer
▁0.000
▁TCR
▁diffuse
▁(75
ographs
▁phenotype
▁mediated
▁circulating
loid
▁trends
idase
▁modulated
edema
▁standardi
▁excessive
▁socioeconomic
ignant
opl
-4
omal
▁1,
▁8.
▁Combin
▁trich
▁reticular
antibody
▁gentamicin
▁incub
▁BP
▁childhood
▁TS
Mu
▁HBsAg
▁infertility
-13
oxifen
▁sensory
▁preferentially
-[
itrate
▁RT
▁testes
▁undetectable
▁threefold
▁microv
▁PGF
▁desensitization
▁5.6
▁occl
Cu
▁12,
▁proton
oxane
▁Addition
▁carbox
37
▁dermatitis
▁neurolep
▁HPV
▁unlabeled
▁streptococci
▁myosin
His
itro
▁duplic
phragm
urys
athe
acting
▁tetr
▁poisoning
▁Sodium
▁edema
RR
▁atrophy
▁11,
▁Previous
▁thereafter
▁infection
▁LD
▁adversely
▁ae
▁0.001),
▁decreases
linked
▁urea
▁linearly
▁disappearance
▁10(-7)
fed
otropin
▁puncture
▁limb
▁estradiol
▁rehabilitation
▁undergo
▁irradiated
▁LDL
tile
elic
oresis
siologic
tenance
▁lymphomas
▁canc
rocyte
▁analges
▁smokers
hydroxyp
▁cochle
▁genes
ullary
▁screening
/6
otropic
▁stepwise
retic
▁agar
▁TP
▁paired
▁responsive
pir
▁51
▁lipophilic
▁0.18
▁2.3
▁modality
ventricular
▁PF
▁suggestive
▁reactions
▁BW
▁surviving
▁presumed
▁decisions
▁0.05).
▁esophagus
▁126
▁anesthesia
▁excit
▁monitored
lec
▁mell
▁solvent
▁dermal
▁clonal
35
▁decreased
▁glycol
▁antibody
amination
▁targeted
tence
▁fron
▁abor
▁tumours
▁hemoglobin
▁inhibited
▁chemicals
▁aspirin
▁RNA
▁rabbits
patient
▁quanti
aryn
▁hamsters
▁15
▁nephropathy
illary
▁sequelae
-6)
flamm
▁pancre
▁wean
5'-
ominant
▁survival
▁heme
▁129
▁cerebellar
▁uncom
deoxy
▁quantitatively
▁vege
▁averaging
-20
▁resistant
▁thrombin
▁phage
yste
itone
▁raises
▁10(-4)
Glu
▁(4
nthe
tric
▁PG
▁plasmin
regulation
exc
sion
tative
▁adrenaline
▁rigid
▁(10
▁biosynthesis
▁acute
cephal
▁immunoblotting
▁implantation
▁chloro
▁accessory
urgery
odies
▁vertebr
tioned
ffin
▁copper
▁histidine
▁hyperthyroid
fusion
ogenesis
▁inositol
▁(1)
ymptom
▁18
▁molecules
▁centr
▁130
▁parietal
▁69
▁axon
▁uncommon
ocytosis
▁affinity
▁weekly
-36
▁anaesthe
robic
▁(23
▁1988
▁adequ
entric
▁macrom
▁6.4
▁failures
vely
▁complaints
▁20,
▁intran
rates
▁spontaneously
▁hepatocellular
▁transfected
hyd
siveness
▁attemp
▁multivariate
▁biological
▁enalapril
▁proteoglycan
sis
▁-3
▁frog
▁IgG
▁postprandial
▁continuously
siological
▁cerebellum
▁1985
▁133
0.4
▁restor
9),
▁carbohydrates
-2-
▁refrac
▁crossover
▁immobil
armac
▁interc
sial
▁placenta
▁establishing
PCR
▁seizures
▁degraded
romy
omethacin
tituted
titution
▁granul
▁atypical
olipoprotein
▁investigated
tensity
▁homology
ycl
hest
▁Concentrations
▁subcellular
oneph
▁statistically
▁(198
ubation
nai
▁saturable
oprec
trained
ionine
▁cytosol
crib
▁physiologic
bility
idol
9%
-1.
▁PGE
▁exis
measured
▁NF
▁morphologic
fetoprotein
▁differentiated
▁subunits
▁disseminated
▁reconstituted
▁anatomical
associated
▁unm
mL
etine
7).
tene
▁hind
▁1986
▁diabetics
▁traumatic
▁nonpregnant
radi
▁atr
acerb
otides
thyl
sies
ses
▁immunoprecipit
▁alcoh
▁embryo
▁contamin
▁fecal
▁glycoprotein
▁binds
▁bac
illar
▁survivors
sors
▁juice
▁addi
loro
▁cere
▁retinal
timulation
▁iod
ensitive
▁uro
parathyroid
▁allograft
5%).
ithm
▁macrophages
opril
▁detecting
▁deterior
▁diarrh
▁rated
▁contractile
▁myeloid
sA
abdominal
oprotein
5%
▁epidemiological
▁ovulation
▁adjuvant
▁scin
▁25,
nec
▁wheat
▁gradi
▁interfer
▁limiting
▁(0
otypic
▁pharm
▁mening
▁amput
▁viruses
▁adducts
coated
▁adduc
96
▁bladder
ilep
▁dosage
ologic
▁strain
asting
▁intravenously
▁placement
▁relie
versely
▁toxic
plied
▁VA
▁pellets
▁vigorous
orption
▁vivo
▁hypertro
▁sarc
▁tibial
▁autoantibodies
▁electrodes
▁olfactory
eric
▁catheters
▁stres
▁LHRH
▁strepto
▁outward
▁mutations
aryngeal
aminergic
3)
echan
▁Likewise
▁surviv
50)
romes
▁intestinal
▁leukemic
▁logistic
▁reliably
tial
receptors
▁reliability
▁agon
▁atten
▁helical
▁neph
▁stromal
iatum
▁nifedipine
▁92%
▁myocardi
▁comparative
5)
▁maintaining
olute
-3.
▁Treatment
▁perfusate
▁inflammation
▁electrolytes
▁mU
onset
olism
▁intact
▁choline
▁10.0
ometr
▁pronounced
▁confirming
▁drin
▁concanavalin
oxic
tality
▁weakness
encephal
ventil
▁reduc
▁coag
acchar
aptic
▁cranial
▁GM
▁hydrop
enal
▁CHD
▁sph
▁crystall
▁cleaved
▁reflecting
▁interfere
1).
▁localized
▁amplification
▁saturated
athy
▁vibr
▁defec
▁moderately
ecu
▁augmented
▁pneumonia
▁viable
inely
▁latex
▁20%
▁cuff
▁Caucas
▁tumors
▁incom
ophylline
▁kb
/24
pation
▁vasoconstric
▁resour
▁voluntary
▁alanine
30
▁oxidase
▁(31
▁toxicity
▁implying
▁medication
agonist
odop
promoting
▁cysteine
▁valve
▁spectroscop
▁surgical
hospital
▁PKC
adder
▁inflammatory
▁coenzyme
▁lumen
oluble
▁Surgical
tron
itic
▁preventing
▁strand
▁acqui
amid
thal
▁mutagen
▁biochemical
▁5.4
scherichia
▁simultaneous
▁depleted
▁Individual
iper
lysis
tracted
▁brainstem
▁calf
amuscular
▁assay
▁40%
onate
mentation
▁colonization
igaret
hea
▁reticul
▁infants
▁monthly
▁1983
▁127
farction
tally
nucle
▁7-
▁carboxy
▁examination
▁lact
angl
▁Experiments
▁137
▁5)
▁increments
MH
▁pretreatment
▁trunk
▁physici
▁adipose
▁sheath
tiz
eptid
ostomy
▁pooled
zymes
ontal
▁amphetamine
▁muscarinic
CSF
▁parie
▁autopsy
▁enti
▁118
ysts
▁.0
▁Candida
xime
▁ultrasonography
▁Holter
▁dischar
tivation
dihydroxy
▁particulate
▁ascorb
tages
▁HIV
▁membranes
▁aneurysms
.9
aund
▁specimens
ostatin
▁resonance
tially
ipine
▁ligand
▁subjected
▁131
ially
▁requi
▁prophylactic
▁57
▁lacks
▁(10.
▁postoperatively
accharides
▁syngeneic
▁recur
entan
▁interstitial
-35
▁anticoagulant
loxacin
▁cysts
▁manifestations
▁sensitivity
-100
▁cutaneous
▁inflamm
▁Ultras
▁corticos
▁rhe
▁perceived
▁endometrial
▁muscle
▁500
▁gases
▁Mg
tamine
endri
▁kinetic
monary
1),
▁permeability
19
.2%
0.9
amily
▁jejun
▁endocrine
/2
ocortic
8%)
-3,
▁ascending
tically
oporosis
▁lasting
▁hemat
idazole
▁angiotensin
xia
▁2.6
▁reass
▁cDNA
▁mitochondria
▁TPA
ayers
ocyt
▁RR
▁inhibitors
▁neuropathy
omes
200
toid
gic
oreactive
▁LAK
ociated
▁lymphoma
▁4.0
▁fibr
ilized
▁conditioned
luores
▁psychological
▁Subsequently
▁constr
▁biop
▁immunological
▁Radi
▁controver
▁connec
orrh
azepam
tub
.00
astric
▁metabolism
▁spikes
▁overt
irradi
▁granule
▁fiber
▁proteinuria
▁septal
▁perit
SDS
▁paral
▁endothelial
chloro
atoid
▁emphasized
ncy
▁0.75
▁opioid
▁isolation
▁Strep
.7%
▁endoscopic
▁saliv
▁chorionic
▁uncomplicated
ancies
▁examinations
▁hybrid
▁3)
▁resec
RF
▁sustained
▁arom
▁23
▁hygi
▁lys
lamp
ozo
%),
sue
receptor
uron
▁proteoglyc
▁plasmids
▁TC
dL
▁kcal
▁90
gely
▁streptoc
▁discrimin
▁subgroups
6),
▁discontinu
▁hereditary
ischemic
uterine
▁furosemide
▁maternal
ipitation
ocular
▁anae
▁adenine
ensities
7%
▁substitu
▁implants
▁neutroph
▁Preliminary
▁diaz
▁2.7
▁slic
ylated
▁autologous
▁definitive
▁conclu
▁irradiation
▁haem
esthetized
▁injected
▁involvement
trate
▁dye
▁39
versity
▁normo
▁62%
▁Calcium
plastic
RNA
▁FSH
▁occlusive
▁causal
ignificant
▁0.8
▁cartilage
▁61
tivity
▁suspensions
▁differen
ediatric
▁hyperthyroidism
▁prospective
▁casein
▁epitopes
▁arth
▁thickness
▁decarboxylase
▁Patients
triglycerid
▁carbam
▁immunosorbent
600
▁86
▁elicited
▁ankle
▁(0.1
▁bathing
▁transluminal
▁noninvasive
▁ambulatory
▁knee
▁acco
▁meals
elves
▁newborns
tensin
▁8.0
▁cisplatin
▁Injection
▁8
▁Clin
▁indi
▁parame
▁guan
cyclic
▁10.5
▁stab
5),
▁presynaptic
merc
▁mood
▁vitro
▁predicting
asic
oprolol
▁carboxyl
▁muta
▁hetero
ocin
▁presum
▁insuff
▁physician
onuclear
▁randomized
uric
pregn
▁clot
uresis
bladder
tant
▁HP
▁somatostatin
okinetic
▁aggressive
▁pathological
itus
trates
portun
▁arachid
▁angioplasty
▁declined
▁abnormally
▁complexes
odine
operox
▁peaked
▁saphenous
▁atrial
▁erythematosus
illaries
ionate
▁mediate
mented
▁3.8
▁GnRH
▁carbohydrate
▁Seventeen
▁antic
▁wk
▁50,
▁spont
▁titer
▁phosphate
▁synthesize
▁2
▁phosphodies
▁Reduc
phyl
uded
thre
▁thresholds
▁wound
▁spine
▁captopril
▁infar
▁1:
releasing
▁(18
-450
▁mamm
stimulated
▁relaxant
64
▁transplanted
▁dyst
▁rats
▁5,
▁(39
acet
▁adminis
▁intraven
tential
▁hemorrhage
▁80
▁pathophysiology
tations
▁glial
▁examin
CDD
▁17
▁dexamethasone
overed
▁pM
oceptor
adiol
▁supplements
▁natri
▁organs
▁mitochondrial
▁accid
▁circulatory
coup
methionine
riched
▁undergoing
admill
▁murine
44
esthe
▁poorly
timal
▁TI
.5%)
▁stret
▁autoanti
▁recruited
▁cran
▁spleen
tration
▁outflow
▁4,
▁dehyd
PAGE
aminop
-1),
▁rotavirus
▁Triton
oprost
▁(17
▁diabetes
▁postural
▁inhaled
▁NP
▁acetyl
▁orally
▁(44
▁Cyt
Gs
▁abdominal
▁(40
positive
▁0.05),
▁accel
▁accep
ressing
▁schizophren
▁123
hemical
rotic
▁molec
▁infusion
oglobulin
.5%
▁BALB
epine
▁cen
▁4.5
▁abolished
▁normotensive
.3%
hern
▁NAD
▁defective
▁(4)
▁swit
▁widespread
BG
▁arthritis
irub
8),
iant
▁membran
▁micros
▁Peak
▁pacing
▁supplement
▁determinant
▁plasmid
▁capillaries
▁lesser
kDa
▁Meas
▁conservative
▁phenyl
▁upright
125
urgical
▁monit
▁arousal
▁hypox
▁meth
ffeine
▁sexes
▁chronically
▁adrenal
leu
ospitals
▁vasodil
▁estrogens
▁underst
▁adipocytes
BV
▁reagents
▁neuron
▁assessed
▁pyr
uginosa
▁unresponsive
▁197
▁glands
▁resorption
oreceptor
▁monoclonal
-1.0
puts
▁3.9
▁organism
▁pump
▁drainage
iary
▁genetic
▁duplex
-45
▁lymphocyte
▁sedation
emak
▁pregnancy
▁ocular
▁lethal
natal
terminal
uvant
▁preceded
▁heparin
tual
▁(22
▁pall
▁postmortem
▁glucocorticoid
▁dextran
aturated
54
iotics
▁tablets
▁72%
rein
▁phospho
▁sodium
▁predis
imeth
amyl
▁validity
▁pituitary
▁bilateral
ocompatibility
▁11%
▁insignificant
atient
▁ventral
▁grains
crip
▁phagocytosis
arterial
transformed
vents
▁(0.
▁potentiation
▁PEG
▁4-
▁RP
entile
oglyc
-4)
000
500
tran
▁respon
olated
▁forsk
▁cardiomy
▁acceptor
▁trache
▁prolongation
▁colony
▁pyram
6).
aterally
▁homogenates
7,
ingle
anavalin
▁embolism
atest
▁oxid
▁apolipoprotein
▁hydroxy
.1
▁overnight
▁anhydr
echn
▁tubercul
▁cure
gesterone
▁HBV
▁pathways
▁islet
▁pretreated
▁inh
▁(1.4
▁cystic
▁occupational
▁degen
▁Evaluation
3;
▁metabol
▁57%
mia
athyroid
▁prospectively
▁linkage
▁(56
▁ureth
▁referral
amphenicol
oxygen
anthine
▁implant
▁Recent
oxy
▁systematically
▁81
▁9.0
▁disruption
trover
▁thrombosis
lastoma
ogenes
▁descending
omiting
gth
▁supplementation
▁corticosteroids
▁3.6
▁bypass
▁16
yclic
▁concentrate
▁stom
▁intravenous
apid
▁noradrenaline
▁18%
diastolic
▁0
▁13
lytic
00
▁sti
jected
otin
▁Inte
tomy
plication
▁calcium
▁dismutase
iflu
uncture
▁ongoing
ineal
enkephalin
usate
tent
▁satis
6.
▁supernatant
anserin
▁prostaglandin
▁virul
▁neurop
▁Haem
▁cyclospor
yrox
hers
▁anomalies
oxide
▁NT
▁66
▁hir
olesterolemia
gus
4;
▁electr
amn
erge
▁tas
▁positively
PV
▁abnormalities
▁(+/-
▁Plasma
3),
▁tuberculosis
▁precur
achn
economic
52
▁relap
omers
obl
▁frac
▁contaminated
▁forebrain
yrib
arcoma
treated
▁MAP
79
▁0.6
▁centrifugation
ploy
▁EBV
▁injur
▁psychosocial
▁mesen
organisms
▁107
rocy
▁discus
▁Subjec
prandial
▁cereb
▁79
▁surveillance
-50
earing
90
utaneous
▁glucose
▁tonic
roxim
▁recordings
▁fatigue
▁3.5
▁protoc
▁oxidation
▁0.35
▁100,
▁survived
PTH
phyloc
▁300
▁spectro
▁quantif
▁(80
▁75%
assi
▁peroxidation
0,000
omies
ecre
▁56%
▁16,
▁monke
▁grafts
▁methodology
▁Golgi
▁pacemak
▁penicillin
planted
EA
▁presumably
mortem
amide
▁hyperplasia
eak
▁sequencing
▁tubular
▁regar
▁caud
▁stere
mend
▁markedly
yrid
▁40-
▁lep
5-
sistent
▁discre
▁Km
sibly
▁barrier
sions
▁tamoxifen
▁dendrites
▁possi
glutination
▁babies
▁concer
bic
▁antisera
osynthe
▁prolonged
/1
▁92
▁daytime
oidal
hyde
mittent
▁shorten
(2
▁AMP
mitter
▁excised
xate
ventilation
▁squamous
▁0.17
orough
▁testicular
▁renal
.4%
▁substance
▁monomer
tened
▁xyl
▁(1.5
▁dele
▁untreated
ifferen
▁Eighty
▁messen
▁endo
▁3.4
havi
▁82%
▁Tn
thymidine
rowing
pig
▁syndromes
plemented
▁exclusively
▁surgeons
▁extensively
▁NADP
turb
labeled
▁medullary
▁penetration
▁genetically
2),
▁purification
▁follic
▁mL
▁ineffective
▁patches
▁amino
iagn
▁chemotactic
▁pancreatic
▁relaxation
phosphate
▁emerg
▁minimally
▁macrophage
partum
▁65%
▁CAD
▁reflex
▁collateral
▁4.6
ficial
BM
▁protease
unced
▁microgram
▁10(5)
cine
0.1
▁GTP
containing
rophenyl
▁Overall
▁compartments
▁substrate
▁hepatitis
▁intestine
▁14-
▁nucleotides
▁cumulative
▁inhibitor
ocys
-1).
▁symme
▁mum
tured
▁motility
▁cef
▁stratif
▁noc
piratory
▁Coronary
▁antiser
▁considerably
▁reversible
▁immunohist
▁(2
▁reperfusion
▁lineage
▁slowed
amate
▁immunity
▁neuronal
omatous
ausea
▁alveolar
olysis
anav
aminidase
▁2,
ocarcin
▁hormonal
taken
▁radiological
▁inotropic
▁ejac
▁PE
▁hypoxic
0.
▁treadmill
tage
▁lactate
ration
▁Diagn
▁purified
▁oste
lyl
limb
▁adequately
▁chick
▁0.02
▁cellular
▁indications
rolog
▁numb
▁emulsion
▁preferen
▁excreted
erating
sAg
▁exten
▁IgE
adrenergic
▁establ
▁5.
sequent
▁averaged
▁unstable
▁Epid
▁typh
ologous
▁sorb
▁bacteri
▁clinic
omyel
▁shortening
dle
▁inactivation
▁dermat
▁enhanced
olic
▁pati
▁hydroxylase
▁102
▁catalytic
▁depressive
▁subpop
▁conditioning
ardia
▁corne
▁precipit
▁yielding
▁lipoprotein
▁LR
▁putative
ampl
▁fibrin
▁(27
TG
18,
usive
▁unaffected
▁implications
▁disclosed
estis
▁blot
▁postpartum
atase
▁dosing
▁cats
▁incorporation
▁vasopressin
▁confound
▁55%
▁microorganisms
▁contralateral
▁gyn
▁10(-6)
▁Ia
▁transit
epines
traction
dial
phenyl
ocon
▁corticosteroid
▁30-
27
▁subf
▁transcriptional
▁9,
lamy
olateral
assium
▁confined
▁microsomal
optic
▁subc
▁hyperlipid
osts
hep
▁18,
tropin
▁chromatography
▁leucine
▁parental
▁0.3
▁mobility
edded
▁100,000
rosis
▁conduc
erent
▁HR
▁immunocyt
injected
▁lowering
▁deviations
▁induce
anic
▁elas
▁discontinuation
▁monolayer
▁diversity
▁Doppler
▁35
protein
▁adenocarcinoma
tingu
1.
▁60-
ocyte
subs
▁infil
rocal
▁2.
9)
▁EE
ucl
▁clones
56
▁Fib
▁socio
ecan
▁3.
rele
▁ultra
▁fructose
thirds
kinase
aldehyde
▁evid
ministration
▁8.6
▁striatal
98
▁6%
▁recor
▁nude
▁suppressed
pli
▁93
▁83
tus
▁strongest
▁trigg
ulph
▁microscopy
▁9
▁DMP
▁aneurysm
▁histologically
▁keratinocytes
▁sexually
▁demonstrable
acil
▁thoracic
▁interventions
odipine
▁Evid
ateral
▁reas
▁intermedi
▁competi
oprote
tice
▁mellitus
▁cough
▁selec
▁73%
▁osteoporosis
ologists
▁spermat
▁epiderm
vular
effec
▁reactivity
▁antis
onit
▁34
▁PLP
▁comprehensive
▁inhibition
ocrine
▁110
ulant
▁adul
▁gradual
ilic
▁3'
▁reconstruction
reased
▁formulations
▁reflux
wk
▁activating
▁tubes
tif
growth
▁soluble
▁spermatozoa
duc
▁conjugate
▁imipramine
▁bactere
▁hippocampus
▁Tran
llate
icardial
▁methylation
▁promp
▁hyperg
▁immunogenic
▁Haemophilus
▁adults
▁idi
onstric
tisone
▁differs
▁localization
▁indication
▁baro
jac
▁catheterization
.8
▁persists
▁Ninety
jug
dotoxin
erents
▁cerebrovascular
▁undere
▁metabolic
essive
▁pelvic
▁Hear
▁lysis
HIV
titute
▁olig
independent
▁regurg
▁epidermal
▁ventil
▁accumulation
▁nerve
▁peripheral
▁tolerated
▁infected
romycin
26
▁regeneration
▁carbachol
▁mutation
kephal
▁hydrocortisone
▁characterized
▁inactivated
▁excluding
oreal
▁abdomen
▁chains
tional
▁blocker
▁temperatures
BP
triglycer
▁enrol
administration
ocardi
▁theophylline
trial
▁4%
iloride
▁physicians
▁8,
▁RBC
▁inadequ
▁ischemic
▁encomp
▁exhibited
▁Myc
▁molecular
▁collec
9).
▁stimulation
▁acin
.6%
▁subpopulations
atients
▁suspected
▁dissemin
olip
▁sca
4-
▁Maximum
▁rati
▁influenza
ronectin
▁transaminase
▁strains
23
cycl
▁derm
▁tertiary
▁37
▁familial
dine
▁healthy
polyacrylamide
▁doubling
▁depression
▁progression
ophil
▁passive
▁withdrawal
▁neuro
▁ward
directed
▁oligos
▁intraperitoneal
▁practic
▁117
▁ureter
▁acyl
▁splen
83
blood
atories
▁thems
▁allele
▁34%
97
tention
▁simplex
▁contral
▁fluoro
uary
▁78%
▁behavioral
▁UV
electric
▁pregnancies
tate
▁recons
▁nicot
▁preventive
23187
silon
▁cataly
▁digestion
▁centers
▁regen
▁apparatus
▁IGF
▁transduction
▁termination
▁VIP
▁direc
▁underg
-22
5).
▁potent
tak
▁activated
▁insufficient
▁dysp
▁correlations
-0.
▁reser
▁catalase
▁dissection
▁relapse
48
▁isometric
▁angiography
▁hepatocytes
▁pneumon
▁reacted
▁horiz
▁immuno
thanol
urnal
▁sugges
▁striatum
▁splenic
lycemia
clinical
▁irrit
NH
▁52
▁caudal
▁irradi
▁leukocytes
▁10
▁administered
▁tracer
controlled
▁keratin
▁(15
▁sulph
▁bacteremia
▁inters
▁reinforce
cence
uanti
ulum
▁113
▁epit
▁monkey
▁femoral
▁exons
inated
subunit
▁elast
▁connective
▁desm
irubin
▁carb
▁segreg
ococcal
▁uric
▁diltiazem
8,
▁compositions
▁vesicle
▁exud
amol
▁ana
▁pyrid
▁pigment
▁stren
▁deox
ocarcinoma
-8)
▁arginine
▁labeled
tectable
oate
CAP
IFN
▁reversal
▁molecule
▁bonds
-11
pendent
▁54
anin
4.
▁rabbit
lude
▁spleens
▁52%
▁inversion
▁intrinsic
▁esophageal
▁glycos
▁differing
▁ablation
▁(-)-
▁chemotherapy
4,
fib
▁thromb
▁Patient
▁5-
▁preincubation
iteal
ophageal
-12
▁rehabil
osocial
▁Scale
▁neurotrans
▁PV
▁[14
▁menstrual
▁leukocyte
olesterol
▁caries
dose
GH
▁apnea
▁BA
▁(42
▁hepat
etween
▁fracture
70
▁screened
siology
▁12
osidase
idne
▁pathologic
▁carbohyd
occus
▁translocation
▁eliminated
▁(12
▁idiopathic
▁articular
▁nondiabetic
9-
▁chemot
acental
▁AIDS
organic
ylation
▁plasm
trop
0.6
▁atrium
▁4.
▁needle
rospinal
inemia
▁implanted
▁isop
adren
▁meal
▁ascertain
▁physiological
▁fold
▁flora
▁perox
▁hypoglycemia
RP
▁vesic
imens
▁ratios
▁arous
oplasty
sych
pinephrine
occi
▁5'-
▁ventric
▁enhance
▁1)
▁incontinence
▁hep
itr
olus
▁cyclase
tures
3.
▁jaund
placement
▁neurologic
▁maximally
tability
▁Eight
tained
▁Hb
▁encoun
▁autosomal
▁pulse
ritis
▁4.8
etan
gene
Tc
vival
▁hyperb
rotid
atched
▁(45
▁exon
infection
▁cyclic
▁propranolol
▁brains
▁HCO
partic
idated
stimulating
ituit
▁inhalation
▁lupus
▁Thirty
▁3.2
ylephrine
▁progesterone
▁immunofluores
▁lipoproteins
▁immun
▁nitroglycerin
▁radionuclide
iotic
▁exacerb
oag
▁nucleotide
ocardial
▁vagal
▁fluoride
▁restenosis
▁wt
orphine
acylglycerol
terone
▁Leydig
▁repl
arginine
▁upstream
ATP
amycin
▁donors
cysteine
▁histologic
▁6.5
▁phosphor
diabe
▁supernatants
▁75
onyl
▁lute
▁isoproterenol
▁phosphatase
▁85%
▁Vmax
▁utilized
azolam
▁mice
▁Dop
▁cytoplasm
▁excision
▁ethyl
▁adap
irds
6,
▁adi
grees
plicated
ogenic
▁neutrophil
▁myc
aturity
oplasm
ascular
▁mumol
▁diaphragm
▁extracts
abin
▁amiloride
78
▁fetal
▁hypother
▁refractory
▁hemisp
4+
ophag
▁DP
▁45
linking
omat
▁112
▁congestive
▁ciprofloxacin
▁nutritional
1/2
▁12-
▁mM
▁elevated
▁inhal
phosph
▁systematic
▁cardi
induc
▁SDS
seven
▁CB
▁amn
ectin
▁pate
▁56
▁distinguishing
▁radiol
▁2-
▁antimic
elan
tical
▁kine
▁genome
▁(32
▁rhythm
▁interferon
▁proteolytic
▁insufficiency
assay
▁gastro
▁reflec
▁smo
▁epilep
▁31,
▁tissues
▁improving
ensitization
▁perception
▁decline
▁84
▁polyp
RH
▁86%
▁vascular
▁autoimmune
▁10,000
▁wors
▁aspec
iciently
▁electroph
▁accelerated
▁receptors
eight
▁0.13
▁saphen
▁8%
▁acetate
▁acutely
▁MRI
ruc
28
▁beats
▁bab
GD
▁7%
▁Hep
apeu
ifedipine
ochemically
▁cAMP
▁diet
▁ethanol
psych
MDA
0.0
▁ultras
menopausal
▁suspension
▁bacter
▁trypsin
▁9.5
▁infusions
▁acidic
initi
athione
▁sensi
▁avoidance
▁11
▁anaesthesia
2+,
oung
▁neutralizing
▁25%
7)
ocortical
▁cloned
88
▁MI
▁phenotypes
▁liver
omotor
wenty
ximum
cein
▁granulosa
▁bup
▁tumor
▁108
gative
▁thi
▁RF
▁papill
▁displacement
41
onomic
▁prazosin
icient
▁progen
▁gamma
▁Neither
▁Increasing
▁supra
▁epidemi
▁satisfactory
▁80%
▁(1.2
▁0.5%
▁kD
▁durations
▁NMR
▁carriers
acid
ACh
40
▁prostagland
othelial
▁symptoms
▁hypothalamus
▁gestational
▁anomal
▁oxy
▁mixtures
tium
semb
phila
▁electromy
▁Consequently
▁analys
andida
▁conjugated
▁corticosterone
▁immunized
▁cytotoxic
modulin
▁LT
-1)
3%)
▁Initi
▁agonists
▁extre
▁deletions
5%)
▁2.1
▁adop
▁196
omycin
▁explored
▁collagen
▁immunization
▁47%
▁inadequate
▁29%
utyr
▁brady
/3
▁identif
▁(1.0
▁EB
▁aspir
▁deposition
▁donor
13
▁conserved
▁Cancer
inesterase
▁hydrochloride
▁NGF
▁newborn
▁101
urea
▁bipolar
▁199
▁recr
luent
▁ganglion
▁codon
▁mV
▁enlarge
▁dismut
▁CM
▁efficac
1/
MN
▁immunoblot
▁FT
acute
orbent
ociation
▁abscess
▁adren
▁(0.5
otherapy
▁inhibitory
▁systemic
IGF
▁therapeutic
▁foci
▁achie
razosin
amous
▁serotonin
▁exhibiting
▁sampl
▁tightly
fected
▁fibres
▁50
▁cate
hydroxylase
▁immunos
veness
▁nitrogen
▁hybridization
▁silic
frequency
idic
▁serotonergic
▁kappa
▁intermittent
▁ulcer
onine
▁larvae
▁hypothe
oxyl
▁histopath
▁109
▁spontaneous
odg
▁5'
otoxic
▁reproductive
▁hyperp
▁chol
▁[3
omegaly
▁140
▁altered
▁EDTA
▁GMP
▁labelled
estern
▁polyclonal
65
▁xen
▁radiolab
olol
▁0.4
▁5.5
▁(2)
ylline
▁glycogen
17
▁traum
▁NMDA
▁fractions
▁unc
▁inappropriate
keletal
▁dorsal
▁Gluc
approximately
5,
▁births
▁granules
▁favorable
▁transported
utaneously
oxid
:3
▁consecu
trac
ondr
▁couns
2/
itoneal
ditions
▁postmenopausal
▁implicated
ields
▁88
cells
pecific
▁seroton
dominal
▁hepatoma
▁microscopic
omized
▁granular
▁drugs
▁calmodulin
induced
▁progressed
adily
▁10%
▁caloric
▁15,
▁vasoactive
▁gluc
▁etiology
dies
▁fibre
galact
▁smear
aminase
▁indicators
sus
▁retention
▁spectra
▁abnormal
tabl
▁epidural
etent
▁previ
lox
▁fibros
▁attrib
entricular
▁PMN
▁incidence
▁fluids
tiv
▁stimulate
10
▁0.00
tinguish
atid
enzyme
▁vaccination
-6,
▁carc
11
▁hipp
▁97%
▁microM
cyt
ayed
▁postnatal
▁200
-15
▁analogue
icillin
brom
roximately
▁correlated
till
▁phi
▁antero
▁(11
▁0.1%
▁sequential
▁strategies
eces
▁ascer
▁competitive
▁morphine
olec
▁subtypes
▁radiotherapy
▁plastic
▁contractions
▁invasive
▁perforation
▁-7
▁Tiss
▁respiration
ostasis
orphin
14)
▁kinase
▁odds
enteric
▁0.9
▁dehydrogenase
▁tubule
ropathy
tensive
▁caution
▁envelop
globulin
adian
▁elucidate
▁Lym
tur
▁instruc
▁filaments
▁yr
bearing
establ
▁graft
▁isoform
PSP
▁analyses
▁eryth
▁electrolyte
▁phospholipids
▁CEA
anding
▁disturbance
resistant
tructural
▁inhibit
▁71
.1%
RIF
▁mRNA
kine
▁reag
▁deoxy
▁polyacrylamide
▁complication
bacco
▁160
▁ovarian
idity
34
aicin
▁injuries
-60
▁retard
vated
▁periodontal
▁duodenal
▁residual
▁resul
▁111
hydro
-5
▁sequenced
FN
▁pyl
▁electrical
▁thal
▁1.3
helin
uccess
iol
▁paralleled
▁genotypes
etoprotein
▁papillary
▁IgM
teroidal
32
▁perc
depleted
▁27%
plies
▁phosphatidyl
▁somatic
▁prophylaxis
estrogen
▁66%
iasis
▁antioxid
uscular
▁cooling
rophic
21
▁throm
trated
4).
▁interv
▁mann
oxygenase
▁MHC
▁homogeneous
▁volunteers
▁natriuretic
bacter
▁gastrin
▁calcification
ochemical
actin
immune
▁Effec
12-
orbol
▁specificity
▁100%
iciency
lix
▁transfusion
▁antib
▁LC
rogenase
tiary
▁semen
▁4.7
amphen
▁endometr
▁DBP
▁mineral
producing
▁displ
▁revascular
otassium
▁prophyl
.8%
▁genital
cepti
▁demonstrates
icardi
▁vaccinated
bred
▁HSV
tussis
▁6
▁obese
▁baseline
▁21,
1)
16
hypertensive
▁retina
ogenetic
▁Positive
▁ND
LISA
▁9-
▁thyro
topril
▁guanine
brain
▁remission
▁thrombus
▁AFP
arrh
ynaptic
▁experimentally
▁autop
▁tubules
fts
▁deprivation
▁marginal
mitted
▁substantially
▁ultim
rectomy
esophageal
▁vaginal
▁determining
▁crom
▁adolescents
▁Americ
▁dissec
ocor
▁25
▁thir
▁48%
conver
▁61%
▁flexor
nitro
vae
amus
▁activate
▁qualit
ergen
55
▁provid
osclerosis
▁CRP
▁0.07
▁puber
▁succin
tension
▁plasma
▁behavi
-70
▁1.8
▁elevations
▁44%
▁7.2
▁nM
▁83%
▁phorbol
▁hypertensive
▁Whereas
▁incubation
▁innervation
▁microvascular
3,
▁tubulin
▁macropha
▁gland
▁reper
▁compe
▁58
-16
▁progressive
▁experi
▁injections
LV
▁electroly
ophys
▁astrocy
▁Fourteen
▁carcinoma
▁radiolabeled
opres
▁modulation
▁effector
▁MH
▁cytotoxicity
▁solitary
▁bacterial
▁normalized
▁abd
▁73
6%)
▁detectable
uled
ecyl
▁diagnoses
▁plateau
2+
▁mg
▁neonates
monella
▁organisms
▁ascites
▁sediment
▁Levels
+)-
▁nm
▁0.001)
Tyr
▁fulf
▁antidepressant
▁yiel
▁crude
▁clus
▁recommendations
amines
tance
toxin
▁bradykinin
▁19
▁resc
▁(197
ohyd
▁canine
ogenicity
ronch
▁Elec
oustic
▁lacking
▁ECG
▁halothane
▁ammon
sibility
▁pools
▁mAb
▁fati
▁influenz
▁TG
▁intrav
tagland
years
▁brom
▁infarction
▁excluded
▁promo
▁competence
luded
letion
▁cerebral
herent
ADP
▁glutamine
▁assayed
▁phe
availability
▁thromboxane
mokers
▁59
▁retinopathy
▁asthma
▁clinics
▁adulthood
▁heterozygous
▁-5
8.
▁analysed
▁recipients
clin
▁indomethacin
gans
rous
patients
▁crucial
▁phosphorylation
▁substitutions
▁oxide
▁bloc
▁106
▁hyperther
▁12%
▁paradox
opausal
antial
▁700
▁solely
0%
roso
piration
▁tRNA
▁intest
▁manifested
▁dissociated
▁reactive
▁Factor
▁HI
▁fertility
▁95
ocl
▁reductase
▁aerosol
▁TNF
▁0.01).
▁29
▁initiated
opath
▁suscepti
▁22
▁5.8
arose
▁initiating
▁regimens
▁63
▁Alz
▁deficits
▁intermediates
▁transmembrane
▁angina
ipheral
▁tryp
▁0.05
▁ligands
▁Unlike
ariate
▁EA
ethyl
▁monotherapy
IU
▁contraction
▁6.0
thmia
▁thromboemb
▁Lymph
▁erythrocytes
molecular
▁36%
amel
▁calves
ifugation
▁0.01)
▁ventricular
▁74
otyp
opathic
tumor
▁pregn
▁96
testinal
▁dyn
veolar
▁plaque
▁oxidized
2.
▁Taken
▁steroids
▁dysplasia
▁hypothyroidism
▁hypog
▁bicarbonate
▁secreted
▁cryp
▁tissue
thyroid
33
▁Phosph
ospor
tions
▁9.2
▁implic
aryl
ophils
ocyan
▁impaired
▁Escherichia
▁angi
▁bleeding
▁Afric
-25
▁consis
▁regulating
▁immunoglobulin
▁projec
▁1990
▁chromatin
▁usefulness
ocrit
▁Acad
▁coated
▁encour
▁pts
rated
ophren
▁fibronectin
.5
▁CTL
genic
67
▁heal
▁affinities
▁platelet
▁Clinical
▁balanced
teine
▁GH
▁prono
responders
ervical
2,000
▁attenu
76
▁residue
tribution
▁clonidine
illus
cemia
▁perin
36
obenz
▁euthyroid
oclonal
▁expressing
93
fem
▁reflects
▁lis
-7
acrylamide
▁Functional
ospasm
▁assays
▁enamel
▁deletion
eptin
▁ACTH
lycer
▁enzym
▁discontinued
clerotic
benz
▁septum
▁rheum
▁treating
▁1.0
▁Twenty
▁variability
▁Cd
coun
▁GSH
tec
obarb
HB
salt
▁trimester
▁potentiated
▁coeff
▁Protein
lipid
Daw
Hb
ritic
▁adip
▁functioning
▁placental
urons
71
▁minority
ejun
▁8.1
50,
▁pulmonary
ctomy
ercise
traum
▁20-
▁anticoag
▁benzo
▁mortality
▁microtub
▁gastric
ulose
▁ADP
toxic
▁nutrition
▁lec
glut
▁unaltered
▁decreas
▁ferritin
oea
-23
yel
▁peroxide
▁Sixty
▁ranged
▁presenting
▁17%
▁ischaemia
▁crystal
▁PCO
thood
▁facilitate
▁characterize
atibility
▁-4
deficient
▁regimen
▁mutant
▁guidelines
abain
▁endoplasmic
▁58%
▁coagulation
ilibr
▁stool
▁0.08
▁infused
68
▁coli
kines
▁toxin
risk
phosphamide
▁cis
▁airways
▁elastic
▁conduction
▁cows
phrag
▁oral
ipro
▁Calc
▁monophosphate
▁ubiqu
phosphorylation
▁ANF
▁circulation
.4
▁exag
▁catecholamines
minute
atation
▁CK
▁lamin
▁standardized
▁67
▁1.7
▁perfused
8%
▁14%
▁mature
▁cognitive
oblasts
▁6-
iline
lys
▁beha
phthal
amole
▁ventricle
quid
▁mitochondr
▁pathway
▁35%
thio
▁3,
▁extrap
▁ouabain
▁interleukin
divid
▁thyroxine
▁1,25
2,
butamol
▁deficit
▁drain
phrine
▁mRNAs
▁103
▁stimuli
heres
aints
acin
/10
▁labelling
▁retardation
▁ovary
▁nec
namic
teroids
tivities
ilization
tural
▁tach
▁consciousness
idney
▁0.10
onazole
▁0.25
Rs
▁lipase
urate
▁immature
iferative
entical
▁glutathione
blind
▁21%
▁contrac
stolic
idin
▁microbi
osal
sant
▁computerized
-2)
▁envelope
▁prognosis
ucas
pH
▁salbutamol
▁4.9
tizing
▁produc
24
▁absorbed
▁amyl
▁acet
▁60%
▁diuretics
tigo
ronchial
▁atri
▁blockers
▁prevalence
▁dosages
uppres
xual
▁Swed
▁84%
▁supr
▁hemorrhagic
▁resection
▁neon
▁RIA
▁lowered
▁cholera
▁MAb
▁additive
▁extracellular
▁clamp
▁hydrophob
rozen
▁lithium
tility
gents
▁abrupt
▁electrophoretic
-5-
▁assessment
▁NI
orpor
▁omeprazole
tency
▁Phase
▁6.6
lasses
▁rostral
▁bilirubin
74
▁retrospective
ectomy
▁differentiation
▁dipyridamole
▁cytochrome
▁lutein
operoxidase
▁10(-5)
▁awake
▁secrete
onin
yridine
activated
chemical
▁abundance
aternal
diagn
-2,
3%
oscopic
▁activator
tinguishable
▁ANP
▁targe
▁aspartate
oglobin
▁progres
▁4)
oventricular
vation
▁adhe
▁Hz
