mented
mental
atment
sies
▁spon
▁shor
▁obese
ineal
▁uptake
ocytes
▁quantit
▁inflamm
erated
▁sampl
namic
ocaine
ocl
▁atropine
▁mucosa
▁catheters
itro
▁systemic
▁thir
▁morphologic
ronch
▁irradi
▁CI
▁suppression
▁amyl
ept
bac
▁disruption
▁intake
piration
erad
orectal
▁hormone
▁chor
leu
▁phenotype
asive
▁insertion
ergy
ilic
▁renal
▁cystic
erate
▁prophylaxis
ectomy
▁saline
armac
tial
stolic
▁fracture
▁contral
▁undetectable
HB
taken
▁hepar
▁summ
▁selectively
▁physici
ocardial
nec
lymph
▁correlated
▁anticoag
▁Serum
▁fetal
ureus
▁hypox
▁valve
▁infil
immun
▁urine
ults
rele
▁prolonged
▁LDL
lux
▁predic
▁pancre
▁remo
▁hep
▁nal
▁saliv
▁NH
▁swelling
▁transient
omal
▁depr
▁postnatal
▁neurological
mia
▁antibiotic
▁injections
▁embry
▁aerobic
▁bip
acr
▁discus
onin
▁venous
▁subgroups
▁multiv
▁cephal
ogra
▁hepat
▁synov
▁recor
▁eosin
omical
ximal
ergency
veolar
alian
tries
▁tox
▁saturated
ilateral
ituitary
▁sph
▁perfusion
▁transplantation
▁glycoprotein
▁regimens
▁inhibitors
iasis
▁heterogeneity
▁cutaneous
utaneous
▁hypertensive
▁superficial
▁fixation
▁athe
loid
ariate
▁abnormality
▁pressures
EG
tectable
▁excre
▁effic
▁statistically
TNF
▁inhibitory
▁benign
rox
adily
lym
▁excision
sia
▁mellitus
▁contex
ration
▁synergistic
aturated
▁retention
rectomy
▁clus
renal
vic
ycin
▁modulate
ulatory
▁tumors
▁hepatocytes
▁predictive
asal
▁bronch
▁schiz
▁pancreatitis
▁homogeneous
bral
▁diffic
gely
▁Bec
tual
▁VO
▁ECG
▁labeling
▁Hyp
ayed
athy
▁intrav
▁acqui
dominal
▁glomerular
▁ischemia
▁predominantly
▁connective
ficial
▁smo
odialysis
▁preliminary
▁metabolism
▁amyloid
rene
▁Patients
▁atrial
risk
▁chlor
lood
▁preoperative
▁memb
ethyl
▁rati
▁adherence
▁preferen
uscular
olated
▁coh
▁IgM
icin
▁localized
▁artery
oradi
osal
MV
itin
uted
▁follic
▁vitro
▁congenital
▁nodules
oprote
▁Intra
atonin
▁vagal
▁infections
▁substitution
▁morphology
enic
▁prognostic
yel
tomy
▁bilateral
▁compli
urrent
adder
▁microv
▁evid
jun
▁stenosis
aryngeal
▁sacr
▁lesions
aemic
▁canc
▁ket
bacco
▁impairment
▁rectal
idne
▁ane
▁exis
▁substituted
versity
▁reduc
▁elimination
mittent
tum
ints
▁onset
eric
▁deficit
▁histological
▁Chan
tic
▁neph
lusion
▁diabetic
▁inten
genic
▁correlates
▁heterogeneous
▁lar
▁stimuli
vascular
▁sexes
▁markers
▁carotid
▁proliferation
inemia
▁physiological
▁Tran
▁injur
▁elic
geal
mend
ographically
etal
lysis
▁arter
tical
▁chloro
crib
▁nig
▁proportional
▁olig
unctional
ostic
activation
tation
▁thi
TG
▁Comparison
▁reproduc
▁establ
alc
urys
oplasty
LV
▁airway
ocar
igaret
▁impair
▁metabol
▁contamin
▁incidence
▁retrospective
invasive
▁endoscop
din
eded
▁experim
▁pneumon
▁graf
itus
▁mortality
▁favorable
▁leuk
uting
entan
▁aneurysm
cessive
▁tric
DH
odal
▁glyc
▁embryo
▁cereb
▁catheter
▁vascular
▁concom
▁somatic
tage
▁supplementation
▁inversely
olism
atient
▁cumulative
▁oxy
▁chemotactic
ximum
▁carriers
▁BP
odynamic
aryn
▁reductions
rents
▁nutritional
ochem
ministration
▁acute
cious
▁turnover
▁elucidate
▁lumb
ocytic
▁elu
othelial
▁limb
▁carcin
▁ethanol
trib
gia
taining
gth
▁HC
hern
operative
▁unex
▁susceptibility
otropic
aneously
▁intrap
▁lipids
▁chemotherapy
▁hypot
▁esophageal
▁pediatric
▁autoimmune
▁disapp
acting
vely
▁bloc
▁prostatic
▁dexamethasone
▁unstable
ophil
ctive
▁potency
▁abdominal
▁corne
▁detectable
▁exogenous
▁infarction
▁prospectively
▁polym
aline
Ca
▁normo
tus
▁concentrations
omotor
▁reac
▁secretion
▁transfusion
▁dosing
▁ultras
tro
▁vein
▁somatostatin
▁testicular
tensive
▁scre
▁influenza
▁provid
▁melatonin
▁bac
ovascular
lyc
▁alveolar
glyc
▁anatomical
esity
▁radiotherapy
▁acidosis
▁infiltration
▁pineal
▁TGF
atitis
▁Neu
▁ventil
ometr
▁aureus
▁NP
▁comparisons
▁arthritis
▁fas
lact
▁chloride
▁diminished
ygen
▁aden
▁longitudinal
▁adjuvant
▁techniqu
▁endothelin
▁dissection
▁neurop
▁encoun
tors
▁phy
▁glomer
entical
oplas
▁reag
▁decreas
pir
▁receptor
centr
▁IgG
aemia
▁prevalence
lastic
versely
▁pancreatic
▁excretion
ceptive
tent
tin
atest
▁hCG
▁follicle
ditions
▁Taken
▁molecule
tero
▁deterioration
▁cardi
▁lith
▁elimin
▁tomography
▁mell
urine
▁carbohyd
▁severity
▁sten
▁neutrophil
astric
pH
▁fati
asone
▁deli
▁adverse
stim
lys
DNA
▁soy
▁abnormalities
▁regulate
▁remission
▁alteration
ophag
▁PF
oscopy
▁demonstrates
sess
▁alterations
▁opi
▁neon
▁assis
▁pelvic
▁determinants
bility
estig
▁regis
ontal
▁periodontal
▁RBC
▁psychiatric
atients
▁compart
▁prel
▁prophyl
▁dietary
tead
lec
▁ischemic
▁tolerated
▁tes
idate
▁cathe
▁anastom
▁impaired
adequ
estis
▁aortic
▁irradiated
▁vaccination
▁sensory
▁drainage
ergic
▁specificity
ialysis
▁preparations
▁membrane
▁exer
▁unclear
▁adhe
monary
▁Doppler
sive
kely
▁infants
▁acids
▁salivary
associated
▁intrinsic
▁parame
▁inflammatory
▁locus
oic
anding
▁poten
▁deficits
adic
▁RP
▁uncom
▁amin
tained
▁symptomatic
atine
▁mL
▁hormonal
ullary
occal
▁aorta
orac
▁transi
▁estrogen
duce
▁numb
▁confir
▁glucose
▁recurrent
▁ow
oplasm
▁resonance
▁ganglion
▁biop
vice
▁bladder
▁deficiency
tak
▁rheumatoid
dition
▁previ
certain
▁necrosis
▁oxide
owever
▁ventilation
▁cardiac
▁quantitative
vation
▁pati
▁MHC
▁prol
urther
▁echocardi
▁screened
▁pulmonary
▁comple
astom
▁tib
▁proteins
▁ach
ocular
erin
▁pituitary
▁variability
osin
▁mutations
▁latency
▁creatine
ucle
▁polymorph
▁atherosclerosis
▁Pretreatment
acil
▁complications
loro
▁angiography
dial
▁restric
▁Compared
▁undergoing
▁complementary
ostatin
ensory
cine
▁traum
onyl
▁sci
▁hypertension
sensitive
▁unde
ociation
▁platelet
▁simultaneous
ologic
idated
ogens
▁moderately
▁tissues
keletal
▁immunode
▁bronchial
▁TA
▁immunological
▁spati
▁ACE
▁Cyt
▁pH
▁pall
▁therapeutic
▁questionnai
▁enl
▁ovari
ypical
▁correlate
athyroid
operatively
▁satis
anol
▁endometrial
hemical
▁histologic
▁allo
urgical
tein
▁reagents
coun
▁extre
▁umbilical
induced
▁pla
▁assay
otomy
ture
▁MV
▁scans
idation
lated
yroid
zard
chol
spectively
▁bir
▁gastric
▁arteries
▁specimens
▁pregnancies
duced
▁advan
▁CMV
▁increas
trol
▁oste
duction
lix
heal
▁ventricular
qui
▁hypog
▁sulf
▁CK
natal
▁isch
▁gradi
tion
▁repres
▁thre
oglyc
▁TC
▁ratios
▁porcine
quid
erb
▁morb
helial
agic
▁hemodynamic
rophy
erative
▁anomal
opro
▁gluc
▁skeletal
▁Acute
seud
▁randomized
▁Hb
iol
▁synthesis
clerosis
mature
▁parental
toc
▁Increased
▁Ig
▁pneum
▁hepatic
▁PCR
ejun
▁maternal
opathy
▁pate
▁pathological
▁valu
eak
vents
▁comparative
▁perin
rophob
▁erg
▁studi
otyp
hyd
▁rhe
otor
kele
mL
atid
olysis
helin
▁angi
▁Increas
sions
▁ana
▁malign
▁herpes
▁criter
▁pharmacological
▁cyst
derly
▁cancers
gative
oracic
osts
▁behavioral
▁nasal
▁overe
ventricular
iatric
itant
oplasmic
ogenous
▁subgroup
▁proce
vity
▁bene
▁metastases
acet
▁corneal
▁pyram
inic
oscop
▁GV
▁concomitant
▁hepatitis
▁pyl
▁reperfusion
ochemical
▁HL
▁glut
rates
clo
oidal
trop
▁biopsy
crimin
▁scanning
▁lobe
▁ure
▁bowel
▁heparin
icine
▁nucleus
▁cardiomyopathy
▁obesity
▁monit
▁cen
▁operative
▁regar
roph
angl
▁intraven
ropriate
▁decreased
asic
▁lesion
osomal
ociated
▁accumulation
▁clinically
▁invasive
ograms
sion
▁cann
▁imaging
▁serum
Tc
bladder
tinu
tec
▁metast
plantation
athe
▁injected
▁cortisol
▁septum
▁HSV
cardi
pendent
▁rhy
▁utilization
▁physicians
▁recurrence
▁pyramidal
tact
▁decreasing
▁vaginal
onography
▁examinations
▁intra
▁peripheral
odies
reas
▁relapse
▁Addition
ochemistry
mentation
▁lymph
▁glands
▁receptors
gland
▁chond
▁implic
▁hypothe
▁unilateral
▁unrelated
utions
▁immature
▁investigations
▁Lys
monstr
▁organisms
▁hyperg
▁abnormal
▁supple
▁colorectal
▁fatigue
▁foc
RH
▁zinc
▁metastasis
▁shif
▁congen
▁collateral
▁prospective
▁stren
▁doses
▁theore
▁phe
▁fatty
▁pharmac
echan
ocyte
▁dex
▁resection
▁asthma
▁induction
lob
▁cohort
▁ulcer
ameth
▁intravenous
▁antibodies
▁differing
▁toxicity
bly
ignific
▁molar
▁differenti
▁PB
onate
▁restor
▁inflammation
▁undergo
oag
▁gradients
scop
▁LV
▁plaque
viron
▁attrib
▁contributes
opa
▁follicular
▁carcinoma
entif
ocyt
intestinal
immune
▁phag
▁aor
xia
▁vaccin
▁edema
▁cocaine
tration
rogenic
▁kidney
▁distin
▁distrib
▁reas
iably
▁HLA
▁underst
▁intermittent
▁implantation
dia
▁throm
▁Clinical
▁strom
▁combin
▁atheros
▁gangl
▁confined
▁cardiovascular
▁immun
▁mucosal
opamine
▁melan
▁putative
▁adequ
▁challen
▁perc
lip
▁satur
nai
▁sequential
echn
▁inadequ
▁discon
▁compartment
▁judged
oplastic
▁neonatal
▁elevated
▁perip
▁MRI
regulation
phrine
▁pneumonia
▁arth
▁substantially
▁positively
▁tran
▁adenocarcinoma
antial
▁substances
bic
▁infusion
osom
▁defic
▁interv
▁deterior
onomic
▁thyroid
▁inh
▁selective
▁graft
▁enti
▁haem
▁shorten
▁synerg
ilized
tive
▁nec
▁tiss
▁intram
▁intensive
▁ovarian
ropine
rine
▁dilated
atoid
▁thromb
phen
▁distal
▁umb
▁ischem
▁stimul
▁macrophage
▁multic
▁homogene
▁molec
▁tracer
▁monitored
▁inhibit
▁benz
occi
▁Tum
▁percutaneous
radi
hep
▁responsiveness
cribed
▁AMP
▁surgical
▁tumor
oxid
▁latent
▁seizures
▁atten
vul
tif
▁reflux
▁fetus
▁underg
▁cervical
▁uter
▁regimen
▁auditory
▁gland
▁endometr
▁facilit
▁inhibition
▁chan
jug
cence
▁iso
▁cardiomy
iary
▁complication
luent
imens
▁arterial
▁assessing
▁melanoma
▁thoracic
▁etiology
▁sti
reast
spective
▁limbs
▁contralateral
orrh
▁chemot
▁wee
oprotein
▁allergic
▁differentiated
▁subtype
▁ultrasound
uvant
▁progn
tions
odon
eared
thma
▁metabolic
▁avail
regulated
▁occurrence
dose
▁pathology
▁TG
▁vitamin
▁verte
▁elevation
▁stimulation
▁hypoxic
tel
▁subjected
otrop
▁cate
▁emerg
ivation
▁amp
entral
▁disappearance
▁efficacy
▁influenz
▁concurrent
onary
▁spontaneous
▁malignant
▁urinary
▁Whereas
▁contrib
erating
omat
▁LC
▁hypo
EGF
▁differen
itamin
sych
▁reper
▁RA
estions
yro
▁ambulatory
▁hypoxia
sible
acted
feren
▁symptom
ritis
▁sepsis
▁implant
▁ultim
oxic
romes
▁myocardial
▁prostate
itone
onium
omized
▁HPV
▁dysfunction
▁demonstrating
▁Significant
iminary
▁cyt
▁physiologic
▁fibers
▁epinephrine
▁relap
▁indications
▁spinal
▁deprivation
▁Afric
▁mitral
▁infar
▁hemorrh
irc
▁IU
▁tumour
▁stu
estion
usp
▁Treatment
iotic
opausal
▁analyses
▁morbidity
ctomy
clin
resting
▁correlations
NH
▁leukocyte
Ig
▁insulin
▁lipoprotein
▁eluc
▁testis
▁systolic
▁lumbar
eration
▁beha
▁insufficiency
▁pathologic
NB
▁lipid
▁endothelial
ymp
▁bypass
▁interc
ophren
▁opioid
ectom
▁exce
fusion
dle
▁atrophy
▁compartments
positive
▁LD
atories
▁ile
owel
▁discharge
tis
emia
pine
▁anat
▁prognosis
MN
▁silic
▁peri
▁pathogenesis
▁evaluating
ortic
oride
▁identif
▁muc
▁recom
▁agon
▁premature
▁scin
▁heterogene
▁mann
▁differentiation
▁manifestations
▁stimulate
venous
phic
▁requi
imin
▁trac
▁nonc
▁neutroph
▁postoperative
▁hypers
ophilic
▁cerv
ilical
▁PV
▁metastatic
▁usefulness
jected
▁esophag
▁characterize
▁undertaken
▁micron
▁ventric
▁progression
itic
illary
occus
▁agonist
▁examin
▁femoral
▁placenta
▁evoked
eces
▁cerebral
sial
▁drin
▁assays
▁variants
▁implicated
▁onc
▁coronary
rosis
▁postoperatively
▁ae
menopausal
▁displacement
hea
▁biopsies
▁tas
▁antic
▁somat
▁mediated
▁cigaret
phal
gic
▁exposures
▁medial
▁chol
BV
▁differentiate
▁anemia
▁tumours
controlled
▁practic
Phe
treatment
ospor
▁definite
▁oes
tur
illus
▁discrimin
▁fractures
▁simult
▁synthe
▁pathway
urea
▁mono
▁preservation
▁adop
