<unk>	0
<s>	0
</s>	0
<0x00>	0
<0x01>	0
<0x02>	0
<0x03>	0
<0x04>	0
<0x05>	0
<0x06>	0
<0x07>	0
<0x08>	0
<0x09>	0
<0x0A>	0
<0x0B>	0
<0x0C>	0
<0x0D>	0
<0x0E>	0
<0x0F>	0
<0x10>	0
<0x11>	0
<0x12>	0
<0x13>	0
<0x14>	0
<0x15>	0
<0x16>	0
<0x17>	0
<0x18>	0
<0x19>	0
<0x1A>	0
<0x1B>	0
<0x1C>	0
<0x1D>	0
<0x1E>	0
<0x1F>	0
<0x20>	0
<0x21>	0
<0x22>	0
<0x23>	0
<0x24>	0
<0x25>	0
<0x26>	0
<0x27>	0
<0x28>	0
<0x29>	0
<0x2A>	0
<0x2B>	0
<0x2C>	0
<0x2D>	0
<0x2E>	0
<0x2F>	0
<0x30>	0
<0x31>	0
<0x32>	0
<0x33>	0
<0x34>	0
<0x35>	0
<0x36>	0
<0x37>	0
<0x38>	0
<0x39>	0
<0x3A>	0
<0x3B>	0
<0x3C>	0
<0x3D>	0
<0x3E>	0
<0x3F>	0
<0x40>	0
<0x41>	0
<0x42>	0
<0x43>	0
<0x44>	0
<0x45>	0
<0x46>	0
<0x47>	0
<0x48>	0
<0x49>	0
<0x4A>	0
<0x4B>	0
<0x4C>	0
<0x4D>	0
<0x4E>	0
<0x4F>	0
<0x50>	0
<0x51>	0
<0x52>	0
<0x53>	0
<0x54>	0
<0x55>	0
<0x56>	0
<0x57>	0
<0x58>	0
<0x59>	0
<0x5A>	0
<0x5B>	0
<0x5C>	0
<0x5D>	0
<0x5E>	0
<0x5F>	0
<0x60>	0
<0x61>	0
<0x62>	0
<0x63>	0
<0x64>	0
<0x65>	0
<0x66>	0
<0x67>	0
<0x68>	0
<0x69>	0
<0x6A>	0
<0x6B>	0
<0x6C>	0
<0x6D>	0
<0x6E>	0
<0x6F>	0
<0x70>	0
<0x71>	0
<0x72>	0
<0x73>	0
<0x74>	0
<0x75>	0
<0x76>	0
<0x77>	0
<0x78>	0
<0x79>	0
<0x7A>	0
<0x7B>	0
<0x7C>	0
<0x7D>	0
<0x7E>	0
<0x7F>	0
<0x80>	0
<0x81>	0
<0x82>	0
<0x83>	0
<0x84>	0
<0x85>	0
<0x86>	0
<0x87>	0
<0x88>	0
<0x89>	0
<0x8A>	0
<0x8B>	0
<0x8C>	0
<0x8D>	0
<0x8E>	0
<0x8F>	0
<0x90>	0
<0x91>	0
<0x92>	0
<0x93>	0
<0x94>	0
<0x95>	0
<0x96>	0
<0x97>	0
<0x98>	0
<0x99>	0
<0x9A>	0
<0x9B>	0
<0x9C>	0
<0x9D>	0
<0x9E>	0
<0x9F>	0
<0xA0>	0
<0xA1>	0
<0xA2>	0
<0xA3>	0
<0xA4>	0
<0xA5>	0
<0xA6>	0
<0xA7>	0
<0xA8>	0
<0xA9>	0
<0xAA>	0
<0xAB>	0
<0xAC>	0
<0xAD>	0
<0xAE>	0
<0xAF>	0
<0xB0>	0
<0xB1>	0
<0xB2>	0
<0xB3>	0
<0xB4>	0
<0xB5>	0
<0xB6>	0
<0xB7>	0
<0xB8>	0
<0xB9>	0
<0xBA>	0
<0xBB>	0
<0xBC>	0
<0xBD>	0
<0xBE>	0
<0xBF>	0
<0xC0>	0
<0xC1>	0
<0xC2>	0
<0xC3>	0
<0xC4>	0
<0xC5>	0
<0xC6>	0
<0xC7>	0
<0xC8>	0
<0xC9>	0
<0xCA>	0
<0xCB>	0
<0xCC>	0
<0xCD>	0
<0xCE>	0
<0xCF>	0
<0xD0>	0
<0xD1>	0
<0xD2>	0
<0xD3>	0
<0xD4>	0
<0xD5>	0
<0xD6>	0
<0xD7>	0
<0xD8>	0
<0xD9>	0
<0xDA>	0
<0xDB>	0
<0xDC>	0
<0xDD>	0
<0xDE>	0
<0xDF>	0
<0xE0>	0
<0xE1>	0
<0xE2>	0
<0xE3>	0
<0xE4>	0
<0xE5>	0
<0xE6>	0
<0xE7>	0
<0xE8>	0
<0xE9>	0
<0xEA>	0
<0xEB>	0
<0xEC>	0
<0xED>	0
<0xEE>	0
<0xEF>	0
<0xF0>	0
<0xF1>	0
<0xF2>	0
<0xF3>	0
<0xF4>	0
<0xF5>	0
<0xF6>	0
<0xF7>	0
<0xF8>	0
<0xF9>	0
<0xFA>	0
<0xFB>	0
<0xFC>	0
<0xFD>	0
<0xFE>	0
<0xFF>	0
in	-0
▁t	-1
▁a	-2
re	-3
he	-4
on	-5
ti	-6
▁o	-7
te	-8
▁the	-9
▁c	-10
en	-11
▁s	-12
▁in	-13
▁p	-14
▁of	-15
▁w	-16
al	-17
▁an	-18
ro	-19
as	-20
es	-21
er	-22
▁m	-23
ed	-24
or	-25
an	-26
▁d	-27
▁b	-28
tion	-29
it	-30
▁f	-31
is	-32
▁and	-33
ic	-34
ar	-35
▁re	-36
at	-37
le	-38
ate	-39
ent	-40
ing	-41
▁e	-42
▁to	-43
el	-44
ation	-45
▁th	-46
ul	-47
▁(	-48
ec	-49
ly	-50
▁n	-51
▁T	-52
▁h	-53
os	-54
us	-55
ol	-56
ac	-57
▁l	-58
id	-59
om	-60
ter	-61
ur	-62
ere	-63
ith	-64
▁with	-65
▁g	-66
im	-67
tr	-68
ve	-69
▁con	-70
▁was	-71
un	-72
▁1	-73
▁The	-74
ce	-75
uc	-76
▁pro	-77
ig	-78
um	-79
ot	-80
ati	-81
ated	-82
▁v	-83
am	-84
if	-85
▁were	-86
▁be	-87
res	-88
ell	-89
▁for	-90
il	-91
ph	-92
▁by	-93
▁I	-94
▁r	-95
od	-96
ow	-97
oc	-98
ts	-99
ine	-100
ta	-101
▁de	-102
▁A	-103
▁ex	-104
▁ac	-105
▁is	-106
ted	-107
▁res	-108
▁that	-109
ut	-110
rom	-111
▁on	-112
ity	-113
di	-114
ase	-115
▁as	-116
▁al	-117
se	-118
th	-119
si	-120
ents	-121
▁C	-122
▁cell	-123
▁or	-124
▁2	-125
tic	-126
ir	-127
up	-128
op	-129
og	-130
her	-131
tu	-132
ay	-133
ver	-134
ff	-135
▁com	-136
▁ch	-137
ad	-138
ge	-139
tiv	-140
ib	-141
qu	-142
▁me	-143
▁from	-144
▁at	-145
ant	-146
duc	-147
red	-148
▁inc	-149
ess	-150
▁P	-151
▁S	-152
▁su	-153
ab	-154
0.	-155
ment	-156
ran	-157
▁pati	-158
▁comp	-159
▁se	-160
▁3	-161
▁than	-162
ten	-163
▁wh	-164
ain	-165
ific	-166
▁per	-167
▁cells	-168
reas	-169
ap	-170
yp	-171
ical	-172
▁patients	-173
▁le	-174
▁ad	-175
vel	-176
▁en	-177
orm	-178
▁In	-179
pec	-180
ion	-181
ous	-182
▁dis	-183
ffec	-184
und	-185
▁M	-186
igh	-187
yl	-188
▁not	-189
▁H	-190
st	-191
▁0.	-192
tive	-193
ore	-194
tor	-195
iz	-196
ular	-197
▁are	-198
▁D	-199
ip	-200
ges	-201
ign	-202
▁ne	-203
).	-204
▁im	-205
min	-206
ations	-207
ence	-208
ure	-209
▁he	-210
▁sh	-211
▁gro	-212
ys	-213
▁5	-214
pl	-215
ding	-216
tro	-217
ose	-218
ia	-219
de	-220
▁B	-221
▁4	-222
ary	-223
▁N	-224
▁pres	-225
▁effec	-226
▁pre	-227
iv	-228
▁stu	-229
nt	-230
ial	-231
▁activ	-232
bs	-233
pon	-234
las	-235
entr	-236
ich	-237
fter	-238
),	-239
iff	-240
lu	-241
tein	-242
▁+	-243
▁us	-244
ch	-245
▁E	-246
one	-247
▁sign	-248
lec	-249
ther	-250
▁diff	-251
tain	-252
▁anti	-253
per	-254
▁inf	-255
00	-256
▁F	-257
▁ap	-258
/-	-259
▁conc	-260
ug	-261
por	-262
ra	-263
▁which	-264
gen	-265
▁after	-266
▁+/-	-267
sion	-268
oth	-269
▁ph	-270
▁mic	-271
duced	-272
▁tran	-273
low	-274
lo	-275
▁this	-276
-1	-277
▁signific	-278
tions	-279
▁sub	-280
ally	-281
▁L	-282
▁group	-283
▁W	-284
▁po	-285
em	-286
tim	-287
▁we	-288
ies	-289
▁R	-290
hib	-291
reased	-292
▁k	-293
▁but	-294
▁significant	-295
▁differe	-296
▁resul	-297
▁pos	-298
ater	-299
ved	-300
▁G	-301
tes	-302
▁ha	-303
▁cor	-304
▁protein	-305
NA	-306
hen	-307
▁6	-308
ym	-309
cep	-310
pres	-311
▁co	-312
▁trans	-313
▁level	-314
mon	-315
▁di	-316
▁respon	-317
sis	-318
ide	-319
ance	-320
▁these	-321
▁tre	-322
▁less	-323
▁gen	-324
▁par	-325
we	-326
ound	-327
to	-328
▁un	-329
wo	-330
▁show	-331
ting	-332
▁rat	-333
olog	-334
ium	-335
ree	-336
▁ass	-337
▁Th	-338
uring	-339
tal	-340
▁bet	-341
ers	-342
▁it	-343
ight	-344
ble	-345
ative	-346
▁rec	-347
▁app	-348
end	-349
▁inter	-350
ear	-351
▁inhib	-352
ue	-353
▁activity	-354
ma	-355
▁have	-356
and	-357
▁st	-358
ween	-359
▁O	-360
jec	-361
▁reg	-362
▁dec	-363
▁had	-364
inding	-365
so	-366
iti	-367
▁between	-368
▁str	-369
▁ab	-370
▁spec	-371
ely	-372
▁rel	-373
▁both	-374
ulation	-375
▁cy	-376
▁concentr	-377
▁10	-378
ren	-379
▁cl	-380
▁two	-381
▁car	-382
▁ev	-383
pha	-384
rease	-385
▁no	-386
trol	-387
ist	-388
▁micro	-389
ied	-390
ome	-391
▁chan	-392
ep	-393
▁hyp	-394
ction	-395
anc	-396
mun	-397
ast	-398
our	-399
▁7	-400
all	-401
ox	-402
ates	-403
ke	-404
ormal	-405
▁during	-406
▁sur	-407
▁also	-408
▁ag	-409
▁mon	-410
▁low	-411
ceptor	-412
▁studi	-413
▁control	-414
▁ar	-415
▁=	-416
▁ind	-417
▁obs	-418
▁(1	-419
amin	-420
▁increased	-421
mo	-422
mb	-423
atment	-424
▁sug	-425
▁pl	-426
▁sy	-427
▁y	-428
ared	-429
ari	-430
ory	-431
ach	-432
▁sugges	-433
▁all	-434
▁results	-435
age	-436
▁8	-437
dy	-438
ost	-439
ocy	-440
osph	-441
▁may	-442
▁tr	-443
ath	-444
▁acid	-445
tin	-446
out	-447
ogen	-448
▁inv	-449
▁been	-450
trac	-451
▁obser	-452
▁levels	-453
▁ser	-454
▁day	-455
able	-456
enc	-457
ugh	-458
▁sec	-459
▁high	-460
▁ma	-461
▁effect	-462
ating	-463
et	-464
▁anal	-465
ame	-466
▁study	-467
ized	-468
yd	-469
ub	-470
als	-471
ases	-472
▁other	-473
▁more	-474
▁fol	-475
▁form	-476
ill	-477
pend	-478
▁tim	-479
▁ca	-480
pos	-481
ons	-482
tem	-483
cc	-484
ong	-485
▁sim	-486
▁stim	-487
est	-488
▁min	-489
▁med	-490
▁mod	-491
▁si	-492
▁gl	-493
▁These	-494
vi	-495
▁fac	-496
▁found	-497
▁immun	-498
tained	-499
▁sup	-500
▁receptor	-501
oci	-502
rox	-503
▁treatment	-504
form	-505
lood	-506
▁has	-507
▁col	-508
▁indic	-509
▁normal	-510
alu	-511
▁0.0	-512
▁This	-513
▁differen	-514
▁deter	-515
uld	-516
▁only	-517
duction	-518
ech	-519
ucle	-520
▁occ	-521
ility	-522
▁significantly	-523
usion	-524
▁mo	-525
ition	-526
ri	-527
▁9	-528
▁meas	-529
▁comple	-530
hem	-531
▁increase	-532
port	-533
▁blood	-534
gn	-535
▁one	-536
ism	-537
ors	-538
unction	-539
tent	-540
▁ro	-541
▁end	-542
▁plas	-543
▁observed	-544
ever	-545
▁effects	-546
-2	-547
▁can	-548
ven	-549
▁rate	-550
▁acc	-551
uman	-552
▁follow	-553
str	-554
ded	-555
ct	-556
▁und	-557
▁whe	-558
ace	-559
zym	-560
▁sp	-561
▁their	-562
tab	-563
gr	-564
ype	-565
▁rats	-566
atic	-567
enti	-568
▁li	-569
▁response	-570
dition	-571
ilar	-572
▁es	-573
velop	-574
▁gre	-575
▁We	-576
▁binding	-577
▁memb	-578
▁1.	-579
tively	-580
0%	-581
▁human	-582
lym	-583
▁non	-584
ile	-585
pendent	-586
ody	-587
▁vari	-588
▁up	-589
ak	-590
▁alpha	-591
act	-592
▁mg	-593
par	-594
der	-595
▁expres	-596
acter	-597
cl	-598
ystem	-599
ag	-600
iss	-601
▁into	-602
▁V	-603
ked	-604
▁develop	-605
▁12	-606
▁showed	-607
▁under	-608
ne	-609
▁when	-610
ond	-611
ited	-612
▁[	-613
▁tum	-614
▁antib	-615
rel	-616
▁dise	-617
▁membran	-618
owever	-619
hed	-620
▁factor	-621
ological	-622
adi	-623
▁system	-624
▁did	-625
▁compared	-626
▁respec	-627
ros	-628
▁used	-629
▁19	-630
ments	-631
▁pr	-632
▁ins	-633
ears	-634
▁bas	-635
ans	-636
ization	-637
iod	-638
▁beta	-639
ens	-640
▁cons	-641
▁ob	-642
▁K	-643
action	-644
▁time	-645
nal	-646
▁different	-647
rop	-648
▁U	-649
▁phosph	-650
▁hig	-651
bin	-652
▁similar	-653
sed	-654
▁cal	-655
▁those	-656
cle	-657
ulated	-658
tero	-659
▁function	-660
▁enzym	-661
atory	-662
▁meth	-663
ple	-664
▁dr	-665
▁mus	-666
ses	-667
▁specific	-668
▁three	-669
▁ep	-670
ture	-671
cr	-672
▁present	-673
ensi	-674
▁days	-675
umb	-676
nthe	-677
me	-678
▁plasma	-679
▁tiss	-680
ysis	-681
▁its	-682
▁occur	-683
rent	-684
cin	-685
▁des	-686
ata	-687
▁inhibit	-688
amine	-689
uch	-690
ron	-691
▁fib	-692
▁associ	-693
▁there	-694
osis	-695
▁using	-696
ither	-697
▁changes	-698
▁over	-699
▁groups	-700
▁greater	-701
▁gene	-702
▁nucle	-703
▁exper	-704
inal	-705
▁disease	-706
ery	-707
▁DNA	-708
▁proc	-709
ulin	-710
ution	-711
▁contr	-712
▁grow	-713
▁concentration	-714
epti	-715
▁presence	-716
▁qu	-717
▁mar	-718
▁cases	-719
dependent	-720
▁concentrations	-721
▁hyper	-722
▁bl	-723
▁press	-724
tial	-725
ogra	-726
ici	-727
▁my	-728
▁II	-729
fore	-730
ard	-731
▁cyt	-732
old	-733
.5	-734
esti	-735
sive	-736
▁cul	-737
▁elec	-738
▁region	-739
▁man	-740
▁studies	-741
▁id	-742
▁dete	-743
▁dose	-744
2+	-745
▁higher	-746
▁sequ	-747
▁determin	-748
arge	-749
▁respectively	-750
▁fe	-751
▁synthe	-752
hel	-753
med	-754
▁(2	-755
ute	-756
▁caus	-757
▁Al	-758
▁rele	-759
lymph	-760
▁numb	-761
▁arter	-762
gre	-763
▁age	-764
▁data	-765
▁serum	-766
tre	-767
▁loc	-768
lyc	-769
▁addition	-770
▁def	-771
pro	-772
▁studied	-773
kg	-774
phy	-775
tern	-776
ual	-777
ardi	-778
til	-779
▁period	-780
ane	-781
xim	-782
minis	-783
monstr	-784
▁demonstr	-785
▁sc	-786
▁bi	-787
▁vir	-788
▁poten	-789
ants	-790
ities	-791
▁well	-792
erg	-793
ces	-794
ks	-795
▁infec	-796
tric	-797
▁fir	-798
▁15	-799
▁examin	-800
tivity	-801
▁out	-802
▁subjec	-803
▁clin	-804
itro	-805
ail	-806
oma	-807
▁intr	-808
ild	-809
ise	-810
▁who	-811
▁lymph	-812
ocytes	-813
▁most	-814
▁membrane	-815
estig	-816
ured	-817
▁pressure	-818
hyd	-819
TP	-820
▁ther	-821
gl	-822
▁neur	-823
▁either	-824
vid	-825
▁anim	-826
ough	-827
▁do	-828
ately	-829
▁investig	-830
ature	-831
▁mal	-832
ive	-833
▁decreased	-834
lic	-835
▁adminis	-836
▁could	-837
taining	-838
▁experim	-839
ty	-840
echan	-841
▁fr	-842
▁calc	-843
apy	-844
tration	-845
▁char	-846
▁first	-847
▁Ca	-848
ived	-849
-3	-850
▁growth	-851
les	-852
ob	-853
ite	-854
▁each	-855
ters	-856
▁isol	-857
▁years	-858
ency	-859
art	-860
%)	-861
itive	-862
▁mechan	-863
ung	-864
ass	-865
▁tes	-866
▁analysis	-867
▁associated	-868
ft	-869
▁total	-870
idence	-871
gram	-872
its	-873
ously	-874
▁ox	-875
▁suggest	-876
ov	-877
av	-878
▁within	-879
ified	-880
fer	-881
▁clinical	-882
▁mean	-883
itu	-884
kin	-885
▁br	-886
▁rem	-887
▁enzyme	-888
ains	-889
▁abs	-890
▁same	-891
▁antigen	-892
▁reduced	-893
tical	-894
▁drug	-895
▁correl	-896
▁number	-897
▁am	-898
requ	-899
br	-900
arly	-901
sible	-902
▁use	-903
▁It	-904
▁gener	-905
▁molec	-906
▁sm	-907
oid	-908
▁equ	-909
urther	-910
cular	-911
▁character	-912
▁sta	-913
▁method	-914
▁gluc	-915
▁obtained	-916
▁radi	-917
MP	-918
cy	-919
tabol	-920
GF	-921
▁wee	-922
▁However	-923
▁20	-924
ade	-925
tom	-926
▁tissue	-927
▁2.	-928
rect	-929
ellular	-930
▁expression	-931
entric	-932
▁valu	-933
ures	-934
▁secre	-935
▁induced	-936
50	-937
▁op	-938
cted	-939
▁lower	-940
rough	-941
▁measured	-942
odies	-943
▁cur	-944
▁struc	-945
▁post	-946
onal	-947
▁exc	-948
▁perform	-949
li	-950
▁small	-951
▁vol	-952
zed	-953
ues	-954
▁mor	-955
▁metabol	-956
▁11	-957
▁liver	-958
▁type	-959
▁prim	-960
▁injec	-961
▁inclu	-962
▁sol	-963
▁some	-964
▁flu	-965
▁ter	-966
▁cap	-967
▁evalu	-968
▁values	-969
RNA	-970
anti	-971
▁month	-972
ie	-973
▁14	-974
000	-975
▁syn	-976
▁invol	-977
▁lip	-978
▁neu	-979
▁frequ	-980
-4	-981
▁mice	-982
qui	-983
▁lab	-984
▁hyd	-985
▁complex	-986
ingle	-987
▁pat	-988
ered	-989
▁animals	-990
▁24	-991
induced	-992
▁poly	-993
▁pe	-994
ult	-995
▁There	-996
▁mechanism	-997
entif	-998
▁subjects	-999
▁release	-1000
▁increas	-1001
▁proteins	-1002
tered	-1003
ves	-1004
▁initi	-1005
iqu	-1006
▁without	-1007
▁expos	-1008
▁tumor	-1009
▁(3	-1010
cent	-1011
▁second	-1012
▁long	-1013
trib	-1014
▁cardi	-1015
▁prol	-1016
▁mut	-1017
▁such	-1018
▁through	-1019
▁single	-1020
▁while	-1021
▁ran	-1022
opro	-1023
des	-1024
val	-1025
vely	-1026
▁stimulation	-1027
▁path	-1028
ize	-1029
king	-1030
thyl	-1031
▁ele	-1032
▁vitro	-1033
ores	-1034
▁val	-1035
medi	-1036
▁muscle	-1037
▁model	-1038
▁main	-1039
▁following	-1040
▁treated	-1041
▁reac	-1042
jor	-1043
ind	-1044
ix	-1045
▁vas	-1046
.0	-1047
▁whereas	-1048
▁pred	-1049
▁30	-1050
▁dia	-1051
olar	-1052
▁test	-1053
ould	-1054
▁surf	-1055
▁determined	-1056
own	-1057
▁mm	-1058
▁sensi	-1059
▁identif	-1060
▁cat	-1061
▁major	-1062
▁aut	-1063
though	-1064
▁affec	-1065
▁decrease	-1066
plic	-1067
other	-1068
ior	-1069
▁produced	-1070
tur	-1071
▁partic	-1072
▁flow	-1073
▁pur	-1074
▁previ	-1075
tures	-1076
▁del	-1077
▁about	-1078
▁requi	-1079
och	-1080
▁four	-1081
▁isolated	-1082
▁13	-1083
eptide	-1084
▁responses	-1085
▁examined	-1086
ival	-1087
grees	-1088
▁bec	-1089
▁inhibition	-1090
yr	-1091
gan	-1092
▁degrees	-1093
▁sites	-1094
▁cle	-1095
▁amin	-1096
▁hep	-1097
▁months	-1098
▁bloc	-1099
▁pattern	-1100
take	-1101
oplas	-1102
▁process	-1103
▁extrac	-1104
use	-1105
erc	-1106
tics	-1107
▁synthesis	-1108
▁development	-1109
▁import	-1110
mic	-1111
sc	-1112
▁ventric	-1113
▁pul	-1114
5%	-1115
▁virus	-1116
▁before	-1117
over	-1118
▁stimul	-1119
roxim	-1120
▁due	-1121
.1	-1122
)-	-1123
▁consis	-1124
▁receptors	-1125
▁chrom	-1126
▁role	-1127
ymp	-1128
▁j	-1129
ently	-1130
▁eff	-1131
▁patient	-1132
ines	-1133
▁reve	-1134
ays	-1135
.2	-1136
▁finding	-1137
▁site	-1138
phosph	-1139
ins	-1140
ions	-1141
spec	-1142
▁differences	-1143
ml	-1144
▁weight	-1145
ateral	-1146
▁selec	-1147
▁contrast	-1148
▁0.05	-1149
ditions	-1150
ged	-1151
▁16	-1152
II	-1153
▁rece	-1154
ished	-1155
lass	-1156
omen	-1157
▁maxim	-1158
▁Ig	-1159
▁heart	-1160
▁dos	-1161
▁prob	-1162
▁ref	-1163
▁hem	-1164
▁insulin	-1165
▁ner	-1166
▁inhibited	-1167
ocardi	-1168
▁conditions	-1169
echn	-1170
▁An	-1171
hemical	-1172
olic	-1173
▁microgram	-1174
▁10(	-1175
▁To	-1176
▁diagn	-1177
▁again	-1178
con	-1179
▁techn	-1180
unt	-1181
▁antibody	-1182
oper	-1183
▁subs	-1184
▁0.00	-1185
▁assess	-1186
aled	-1187
▁sam	-1188
▁therapy	-1189
ry	-1190
ital	-1191
▁18	-1192
▁amino	-1193
▁"	-1194
-6	-1195
▁influ	-1196
▁administration	-1197
▁mRNA	-1198
▁combin	-1199
▁produc	-1200
ai	-1201
▁antibodies	-1202
▁conf	-1203
▁enh	-1204
▁rati	-1205
ful	-1206
fold	-1207
▁they	-1208
ography	-1209
ability	-1210
▁weeks	-1211
▁surface	-1212
▁medi	-1213
.3	-1214
▁CD	-1215
atur	-1216
▁glucose	-1217
ental	-1218
ented	-1219
omy	-1220
▁change	-1221
mong	-1222
▁child	-1223
rome	-1224
roximately	-1225
▁demonstrated	-1226
oles	-1227
ume	-1228
ypes	-1229
▁ris	-1230
▁new	-1231
1)	-1232
▁indicate	-1233
treated	-1234
▁pH	-1235
ules	-1236
▁performed	-1237
▁indi	-1238
▁hist	-1239
▁giv	-1240
▁sever	-1241
▁early	-1242
▁pop	-1243
io	-1244
.4	-1245
▁shown	-1246
uce	-1247
▁repor	-1248
led	-1249
▁tem	-1250
ancer	-1251
▁positive	-1252
respon	-1253
▁brain	-1254
.,	-1255
▁production	-1256
ology	-1257
▁glyc	-1258
▁der	-1259
▁activation	-1260
▁mul	-1261
▁factors	-1262
▁cir	-1263
titu	-1264
▁remain	-1265
▁horm	-1266
▁distrib	-1267
▁Na	-1268
ffin	-1269
▁compar	-1270
▁inte	-1271
ene	-1272
▁100	-1273
▁les	-1274
ones	-1275
▁detected	-1276
co	-1277
ties	-1278
▁related	-1279
▁electro	-1280
▁sequence	-1281
▁cycl	-1282
▁surg	-1283
▁amo	-1284
▁surv	-1285
▁IL	-1286
▁calcium	-1287
▁formation	-1288
▁left	-1289
▁percent	-1290
▁mM	-1291
▁any	-1292
.6	-1293
arent	-1294
▁ur	-1295
sin	-1296
▁resid	-1297
▁ir	-1298
▁large	-1299
▁ol	-1300
▁line	-1301
ably	-1302
trans	-1303
rol	-1304
amma	-1305
▁techniqu	-1306
▁renal	-1307
ause	-1308
▁hour	-1309
▁gra	-1310
▁revealed	-1311
▁against	-1312
▁prote	-1313
▁lung	-1314
▁resist	-1315
▁phen	-1316
▁mit	-1317
▁caused	-1318
▁fail	-1319
▁epit	-1320
.8	-1321
▁17	-1322
.7	-1323
▁compon	-1324
air	-1325
▁198	-1326
▁rap	-1327
▁microM	-1328
▁controls	-1329
pir	-1330
▁ste	-1331
la	-1332
▁heal	-1333
roup	-1334
▁complete	-1335
mine	-1336
▁reduction	-1337
iel	-1338
ud	-1339
oprotein	-1340
atin	-1341
▁potential	-1342
▁symp	-1343
sy	-1344
▁acute	-1345
▁conclu	-1346
ex	-1347
oly	-1348
atively	-1349
rag	-1350
▁investigated	-1351
▁measure	-1352
▁fem	-1353
▁lim	-1354
tag	-1355
▁micrograms	-1356
▁neurons	-1357
▁findings	-1358
ms	-1359
▁ventricular	-1360
▁direct	-1361
crib	-1362
yro	-1363
amic	-1364
tis	-1365
ulf	-1366
▁important	-1367
▁aden	-1368
-5	-1369
▁occurred	-1370
sequ	-1371
ically	-1372
amm	-1373
app	-1374
2,	-1375
▁approximately	-1376
az	-1377
ivo	-1378
▁(4	-1379
▁given	-1380
▁class	-1381
crip	-1382
onary	-1383
▁consid	-1384
▁x	-1385
▁(5	-1386
▁infection	-1387
ood	-1388
PA	-1389
ort	-1390
ross	-1391
▁rates	-1392
▁em	-1393
▁hom	-1394
▁secretion	-1395
▁further	-1396
▁rapid	-1397
▁At	-1398
▁vivo	-1399
▁marked	-1400
onic	-1401
▁risk	-1402
roph	-1403
▁body	-1404
▁difference	-1405
▁carcin	-1406
▁i	-1407
▁local	-1408
▁chron	-1409
ule	-1410
▁el	-1411
▁cancer	-1412
uk	-1413
helial	-1414
▁seen	-1415
eren	-1416
▁prec	-1417
nown	-1418
▁intrac	-1419
▁primary	-1420
▁phase	-1421
▁disc	-1422
oph	-1423
aline	-1424
ner	-1425
ergic	-1426
▁determine	-1427
▁various	-1428
imin	-1429
▁active	-1430
▁5-	-1431
1,	-1432
▁however	-1433
ole	-1434
▁When	-1435
▁diet	-1436
▁children	-1437
tagon	-1438
▁On	-1439
terol	-1440
▁u	-1441
rob	-1442
ocyte	-1443
eration	-1444
▁plate	-1445
▁ang	-1446
odium	-1447
osom	-1448
▁organ	-1449
▁gas	-1450
ffinity	-1451
▁containing	-1452
▁fat	-1453
gth	-1454
▁fraction	-1455
▁elev	-1456
eled	-1457
terone	-1458
▁medium	-1459
▁tox	-1460
▁action	-1461
lin	-1462
▁among	-1463
▁rep	-1464
tory	-1465
▁impro	-1466
▁intra	-1467
ish	-1468
▁women	-1469
▁health	-1470
▁ratio	-1471
▁contrac	-1472
gative	-1473
aneous	-1474
ption	-1475
%,	-1476
▁25	-1477
ences	-1478
▁wor	-1479
▁individ	-1480
ha	-1481
idine	-1482
▁peak	-1483
inc	-1484
▁bone	-1485
▁doses	-1486
▁carb	-1487
▁sampl	-1488
2-	-1489
▁coronary	-1490
hip	-1491
monary	-1492
ologic	-1493
▁nec	-1494
itis	-1495
ygen	-1496
▁sus	-1497
▁content	-1498
1).	-1499
ds	-1500
▁area	-1501
▁evidence	-1502
▁[3	-1503
▁exposure	-1504
▁antagon	-1505
abe	-1506
anced	-1507
0,	-1508
tinu	-1509
ids	-1510
▁1,	-1511
table	-1512
▁imp	-1513
▁free	-1514
▁vs	-1515
25	-1516
▁RNA	-1517
are	-1518
rine	-1519
▁part	-1520
fusion	-1521
ning	-1522
▁reported	-1523
▁cardiac	-1524
▁very	-1525
tact	-1526
ator	-1527
normal	-1528
otox	-1529
oti	-1530
omp	-1531
icity	-1532
mit	-1533
▁several	-1534
▁experiments	-1535
▁infusion	-1536
▁recor	-1537
▁culture	-1538
ince	-1539
row	-1540
▁times	-1541
ick	-1542
ack	-1543
tensive	-1544
.9	-1545
▁resulted	-1546
▁volume	-1547
minal	-1548
▁possible	-1549
ale	-1550
▁uptake	-1551
▁previously	-1552
▁(0.	-1553
let	-1554
uble	-1555
active	-1556
▁After	-1557
ouse	-1558
▁gr	-1559
▁followed	-1560
▁0.1	-1561
unc	-1562
▁developed	-1563
▁cere	-1564
icient	-1565
ving	-1566
nel	-1567
▁identified	-1568
cell	-1569
osp	-1570
▁incub	-1571
▁Thus	-1572
▁relations	-1573
oss	-1574
▁injection	-1575
▁hours	-1576
▁assay	-1577
▁oper	-1578
arb	-1579
entral	-1580
▁molecular	-1581
▁distribution	-1582
chan	-1583
CA	-1584
▁whether	-1585
SH	-1586
▁suppres	-1587
▁proper	-1588
mol	-1589
▁least	-1590
▁electr	-1591
▁sodium	-1592
ylation	-1593
▁sl	-1594
▁All	-1595
▁increases	-1596
▁artery	-1597
▁myocardi	-1598
rh	-1599
▁should	-1600
▁survival	-1601
▁species	-1602
▁hal	-1603
vere	-1604
▁range	-1605
▁chronic	-1606
▁ATP	-1607
▁describ	-1608
--	-1609
gres	-1610
▁rever	-1611
▁multi	-1612
▁tested	-1613
rogen	-1614
▁result	-1615
sor	-1616
▁value	-1617
▁circ	-1618
▁kin	-1619
ists	-1620
▁differenti	-1621
▁const	-1622
▁order	-1623
▁suc	-1624
▁appear	-1625
▁five	-1626
▁transcrip	-1627
▁morph	-1628
▁2-	-1629
activ	-1630
▁predic	-1631
try	-1632
▁size	-1633
rin	-1634
▁No	-1635
▁reaction	-1636
▁frequency	-1637
vement	-1638
▁types	-1639
▁common	-1640
▁repres	-1641
ogn	-1642
▁tub	-1643
▁perip	-1644
be	-1645
ograph	-1646
tional	-1647
▁leuk	-1648
▁characteris	-1649
abb	-1650
▁relationship	-1651
▁genes	-1652
▁men	-1653
▁absence	-1654
ensity	-1655
DP	-1656
▁aver	-1657
tension	-1658
ice	-1659
ness	-1660
ax	-1661
specific	-1662
▁50	-1663
ward	-1664
emia	-1665
▁proced	-1666
adren	-1667
eu	-1668
sing	-1669
terior	-1670
▁involved	-1671
▁current	-1672
DL	-1673
chol	-1674
ational	-1675
▁initial	-1676
▁effective	-1677
Da	-1678
▁vis	-1679
actions	-1680
▁apparent	-1681
tically	-1682
bility	-1683
▁alter	-1684
▁ul	-1685
▁late	-1686
ae	-1687
▁prepar	-1688
▁frag	-1689
▁alone	-1690
▁case	-1691
yroid	-1692
amp	-1693
▁so	-1694
▁diabe	-1695
▁required	-1696
▁temper	-1697
▁population	-1698
atis	-1699
▁21	-1700
▁quanti	-1701
▁mac	-1702
▁lesions	-1703
atal	-1704
▁ax	-1705
▁lead	-1706
▁subst	-1707
▁ly	-1708
yn	-1709
▁exhib	-1710
▁ace	-1711
▁then	-1712
▁hormone	-1713
▁loss	-1714
▁prolif	-1715
▁peripher	-1716
▁abnormal	-1717
▁relative	-1718
▁substr	-1719
▁dom	-1720
▁expl	-1721
like	-1722
▁if	-1723
▁peptide	-1724
▁As	-1725
ew	-1726
▁For	-1727
▁nerve	-1728
▁six	-1729
▁tumors	-1730
▁rabb	-1731
▁including	-1732
▁acids	-1733
▁samples	-1734
▁our	-1735
omer	-1736
ification	-1737
day	-1738
▁indicated	-1739
▁received	-1740
▁adult	-1741
▁gu	-1742
uration	-1743
▁resistance	-1744
ercise	-1745
arm	-1746
▁affinity	-1747
▁symptom	-1748
▁estim	-1749
▁oxid	-1750
▁z	-1751
▁continu	-1752
▁cer	-1753
2)	-1754
▁pulmonary	-1755
▁purified	-1756
▁known	-1757
▁ability	-1758
lusion	-1759
Cl	-1760
esis	-1761
▁super	-1762
▁cellular	-1763
scop	-1764
▁equal	-1765
▁accum	-1766
▁correspon	-1767
olesterol	-1768
10	-1769
AMP	-1770
▁strains	-1771
▁analy	-1772
▁lar	-1773
▁emb	-1774
▁suggesting	-1775
▁expressed	-1776
▁being	-1777
ger	-1778
▁av	-1779
olip	-1780
SA	-1781
duce	-1782
▁structure	-1783
ension	-1784
▁because	-1785
▁beha	-1786
▁mouse	-1787
▁does	-1788
▁severe	-1789
▁smo	-1790
▁made	-1791
▁separ	-1792
▁transport	-1793
ochemical	-1794
ission	-1795
▁fil	-1796
▁channel	-1797
way	-1798
▁activities	-1799
▁contain	-1800
▁te	-1801
▁AC	-1802
ased	-1803
▁tissues	-1804
▁inj	-1805
▁transi	-1806
▁hy	-1807
▁intracellular	-1808
truc	-1809
tra	-1810
omas	-1811
▁gran	-1812
▁throm	-1813
vir	-1814
▁slow	-1815
▁bacter	-1816
▁kinase	-1817
enz	-1818
of	-1819
▁mat	-1820
▁potenti	-1821
▁parame	-1822
▁block	-1823
-7	-1824
line	-1825
▁nor	-1826
▁state	-1827
▁stimulated	-1828
▁ml	-1829
plant	-1830
▁arterial	-1831
▁Further	-1832
iciency	-1833
▁Although	-1834
▁consistent	-1835
idne	-1836
▁regions	-1837
ides	-1838
ength	-1839
4,	-1840
ortic	-1841
▁correlation	-1842
▁properties	-1843
▁Ex	-1844
unts	-1845
lex	-1846
▁(6	-1847
▁40	-1848
▁remo	-1849
▁gamma	-1850
▁density	-1851
▁exercise	-1852
▁male	-1853
▁dog	-1854
IV	-1855
stim	-1856
set	-1857
hydrox	-1858
amide	-1859
tabl	-1860
TH	-1861
▁strong	-1862
3,	-1863
▁deg	-1864
▁seg	-1865
▁dep	-1866
type	-1867
ances	-1868
▁evaluated	-1869
▁peripheral	-1870
▁membranes	-1871
▁lines	-1872
▁subun	-1873
▁fl	-1874
▁Con	-1875
chem	-1876
▁pig	-1877
ogenous	-1878
AP	-1879
fec	-1880
▁behavi	-1881
eptides	-1882
ric	-1883
▁progres	-1884
eding	-1885
▁Ch	-1886
ling	-1887
-8	-1888
▁22	-1889
operative	-1890
▁basal	-1891
▁mater	-1892
▁phosphor	-1893
▁por	-1894
▁60	-1895
▁suggested	-1896
lob	-1897
▁negative	-1898
▁although	-1899
▁oxygen	-1900
'-	-1901
▁cross	-1902
▁even	-1903
▁incidence	-1904
ord	-1905
▁vascular	-1906
▁water	-1907
▁sensitivity	-1908
▁recogn	-1909
▁confir	-1910
esthe	-1911
▁kidne	-1912
▁functional	-1913
ands	-1914
osine	-1915
▁myocardial	-1916
ised	-1917
▁correlated	-1918
eared	-1919
▁cultures	-1920
▁acet	-1921
▁affected	-1922
▁drugs	-1923
▁place	-1924
▁Ad	-1925
ode	-1926
▁recom	-1927
ogenic	-1928
used	-1929
NF	-1930
▁increasing	-1931
▁establ	-1932
▁polym	-1933
acy	-1934
DNA	-1935
▁light	-1936
▁observ	-1937
▁appears	-1938
▁injur	-1939
▁provid	-1940
tle	-1941
▁inhibitor	-1942
▁ion	-1943
▁technique	-1944
▁stage	-1945
HT	-1946
plication	-1947
▁compound	-1948
tex	-1949
ton	-1950
ually	-1951
ison	-1952
▁contrib	-1953
RH	-1954
▁orig	-1955
▁defin	-1956
lor	-1957
▁half	-1958
went	-1959
▁constant	-1960
ife	-1961
▁gel	-1962
ibr	-1963
▁pregn	-1964
▁death	-1965
▁diagnosis	-1966
▁met	-1967
▁duration	-1968
▁surgery	-1969
▁mechanisms	-1970
ady	-1971
▁endot	-1972
orb	-1973
▁suggests	-1974
▁adren	-1975
▁particular	-1976
▁cholesterol	-1977
▁agon	-1978
itude	-1979
▁reduc	-1980
▁skin	-1981
▁prov	-1982
erm	-1983
term	-1984
▁right	-1985
▁temperature	-1986
▁(10	-1987
▁lo	-1988
mia	-1989
BA	-1990
▁enhanced	-1991
ocl	-1992
ospital	-1993
▁sequences	-1994
▁average	-1995
umin	-1996
tured	-1997
▁ov	-1998
lab	-1999
tage	-2000
3-	-2001
▁0.5	-2002
▁degree	-2003
lagen	-2004
izing	-2005
▁clear	-2006
phosphate	-2007
utes	-2008
piratory	-2009
▁ischem	-2010
alpha	-2011
Ca	-2012
▁inde	-2013
ropha	-2014
▁cent	-2015
rosis	-2016
▁promo	-2017
▁sulf	-2018
▁phy	-2019
orph	-2020
int	-2021
ove	-2022
▁short	-2023
▁muc	-2024
▁metabolism	-2025
kers	-2026
ethyl	-2027
▁cri	-2028
ield	-2029
▁atr	-2030
▁elevated	-2031
▁stand	-2032
▁his	-2033
▁experimental	-2034
▁hydro	-2035
ential	-2036
▁ng	-2037
ety	-2038
▁amount	-2039
▁microscop	-2040
▁general	-2041
▁lymphocytes	-2042
oxy	-2043
▁fam	-2044
▁administered	-2045
▁sal	-2046
BP	-2047
▁described	-2048
▁need	-2049
eti	-2050
hest	-2051
▁induction	-2052
▁28	-2053
iving	-2054
beta	-2055
▁intact	-2056
▁III	-2057
ancy	-2058
▁agents	-2059
▁transfer	-2060
▁inhibitory	-2061
bral	-2062
ulatory	-2063
▁parameters	-2064
▁Both	-2065
▁subsequ	-2066
▁highly	-2067
▁bound	-2068
related	-2069
▁indicating	-2070
▁cour	-2071
▁remained	-2072
toc	-2073
ress	-2074
▁fluid	-2075
▁much	-2076
▁combination	-2077
ulations	-2078
▁influence	-2079
▁Two	-2080
▁sex	-2081
▁os	-2082
▁magn	-2083
▁capac	-2084
activity	-2085
osed	-2086
CD	-2087
ian	-2088
▁hypot	-2089
▁failure	-2090
▁maximum	-2091
LA	-2092
▁ampl	-2093
▁dependent	-2094
5,	-2095
hes	-2096
bo	-2097
brid	-2098
▁length	-2099
andom	-2100
aily	-2101
uted	-2102
▁nucleus	-2103
▁23	-2104
▁bel	-2105
▁where	-2106
oclonal	-2107
cence	-2108
▁independent	-2109
▁26	-2110
put	-2111
anol	-2112
▁central	-2113
▁embry	-2114
ave	-2115
▁excre	-2116
▁slight	-2117
▁side	-2118
▁mix	-2119
ascular	-2120
DS	-2121
▁neuro	-2122
ographic	-2123
▁solution	-2124
▁ve	-2125
▁propor	-2126
▁LH	-2127
itation	-2128
▁ery	-2129
▁Un	-2130
▁lay	-2131
▁extent	-2132
▁many	-2133
ulating	-2134
onucle	-2135
▁prof	-2136
▁chain	-2137
▁strain	-2138
round	-2139
▁(7	-2140
▁areas	-2141
▁recover	-2142
▁random	-2143
cal	-2144
gin	-2145
osterone	-2146
otherapy	-2147
▁will	-2148
tral	-2149
▁contained	-2150
ull	-2151
▁chem	-2152
▁methods	-2153
ondr	-2154
more	-2155
ergy	-2156
▁dig	-2157
sec	-2158
▁With	-2159
▁distin	-2160
▁allow	-2161
▁48	-2162
▁upon	-2163
orpor	-2164
▁lig	-2165
▁would	-2166
▁depend	-2167
tality	-2168
rior	-2169
tural	-2170
pre	-2171
esic	-2172
▁characterized	-2173
ogenesis	-2174
▁hypothe	-2175
▁maximal	-2176
▁(8	-2177
▁panc	-2178
▁appeared	-2179
▁depres	-2180
▁colon	-2181
▁seem	-2182
▁interaction	-2183
▁enc	-2184
▁phys	-2185
ily	-2186
▁based	-2187
▁conclude	-2188
ochondr	-2189
▁epid	-2190
▁yo	-2191
▁glut	-2192
siological	-2193
cept	-2194
▁-	-2195
▁targe	-2196
idase	-2197
▁analog	-2198
opath	-2199
resh	-2200
▁dogs	-2201
▁displ	-2202
atus	-2203
▁radio	-2204
▁retin	-2205
▁collagen	-2206
▁dam	-2207
go	-2208
CG	-2209
▁sensitive	-2210
▁basis	-2211
▁hr	-2212
▁derived	-2213
methyl	-2214
osin	-2215
uter	-2216
▁above	-2217
▁Se	-2218
▁conduc	-2219
▁index	-2220
▁spon	-2221
▁IgG	-2222
ites	-2223
▁bre	-2224
▁37	-2225
ayed	-2226
▁monoclonal	-2227
radi	-2228
▁residues	-2229
last	-2230
▁component	-2231
▁daily	-2232
▁discus	-2233
▁1-	-2234
▁individual	-2235
▁fas	-2236
ulate	-2237
▁ver	-2238
posed	-2239
▁inten	-2240
▁useful	-2241
▁During	-2242
▁tak	-2243
▁One	-2244
▁lit	-2245
▁care	-2246
cess	-2247
▁lipid	-2248
▁oral	-2249
▁carcinoma	-2250
▁assessed	-2251
immun	-2252
▁prop	-2253
▁symptoms	-2254
▁possi	-2255
▁complic	-2256
jection	-2257
lets	-2258
vers	-2259
OH	-2260
kely	-2261
▁2,	-2262
▁macropha	-2263
▁synd	-2264
vent	-2265
SF	-2266
▁ach	-2267
▁capacity	-2268
atures	-2269
uff	-2270
▁0.2	-2271
▁kine	-2272
mediate	-2273
ope	-2274
NP	-2275
▁mortality	-2276
very	-2277
▁analyzed	-2278
ially	-2279
▁kidney	-2280
itary	-2281
5)	-2282
ximal	-2283
▁eryth	-2284
free	-2285
▁termin	-2286
▁incorpor	-2287
▁hepatic	-2288
▁demonstrate	-2289
▁components	-2290
▁fetal	-2291
▁chromat	-2292
▁antigens	-2293
▁accumulation	-2294
inary	-2295
▁vesic	-2296
▁prior	-2297
▁design	-2298
PS	-2299
▁intest	-2300
▁injury	-2301
binding	-2302
▁50%	-2303
▁corresponding	-2304
▁inform	-2305
▁adj	-2306
otide	-2307
MA	-2308
▁vers	-2309
▁achie	-2310
rence	-2311
helium	-2312
▁cause	-2313
▁avail	-2314
▁coli	-2315
ording	-2316
▁adv	-2317
▁hybrid	-2318
otrop	-2319
ication	-2320
FN	-2321
hy	-2322
▁defec	-2323
view	-2324
▁intraven	-2325
▁pap	-2326
▁mass	-2327
ogene	-2328
CR	-2329
▁provide	-2330
▁multiple	-2331
▁electron	-2332
▁(9	-2333
ensitive	-2334
▁cAMP	-2335
omin	-2336
▁standard	-2337
emb	-2338
▁infar	-2339
▁bil	-2340
▁forms	-2341
▁transform	-2342
14	-2343
phal	-2344
otor	-2345
▁recovery	-2346
▁tests	-2347
▁lin	-2348
▁support	-2349
▁extracellular	-2350
▁might	-2351
ening	-2352
lyce	-2353
entical	-2354
ways	-2355
▁PA	-2356
▁patterns	-2357
▁hepat	-2358
▁hand	-2359
ils	-2360
▁mid	-2361
mean	-2362
▁whole	-2363
greg	-2364
▁ess	-2365
▁statis	-2366
▁course	-2367
▁considered	-2368
▁thus	-2369
▁Me	-2370
▁additional	-2371
▁Furthermore	-2372
osa	-2373
phrine	-2374
▁measurements	-2375
▁fluores	-2376
▁minim	-2377
1-	-2378
atter	-2379
▁cortex	-2380
12	-2381
acet	-2382
▁since	-2383
▁regulation	-2384
▁previous	-2385
oplasmic	-2386
▁included	-2387
▁cycle	-2388
▁cultured	-2389
▁probably	-2390
rec	-2391
▁mitochondr	-2392
▁enzymes	-2393
▁air	-2394
essel	-2395
group	-2396
▁week	-2397
▁hetero	-2398
▁position	-2399
ird	-2400
▁relatively	-2401
▁27	-2402
till	-2403
▁sero	-2404
▁nM	-2405
▁molecules	-2406
ker	-2407
▁hypertension	-2408
erate	-2409
▁spont	-2410
▁Our	-2411
enced	-2412
ram	-2413
▁distinct	-2414
▁substrate	-2415
▁characteristics	-2416
▁32	-2417
▁thromb	-2418
▁exposed	-2419
▁repe	-2420
lasts	-2421
▁polyp	-2422
▁Of	-2423
odes	-2424
▁mamm	-2425
▁vac	-2426
▁versus	-2427
▁wall	-2428
▁Res	-2429
▁trial	-2430
char	-2431
▁monit	-2432
▁PG	-2433
▁adhe	-2434
▁NA	-2435
▁few	-2436
▁young	-2437
▁(19	-2438
);	-2439
▁0.3	-2440
▁healthy	-2441
▁minutes	-2442
5-	-2443
%.	-2444
▁concluded	-2445
▁ven	-2446
armac	-2447
▁proliferation	-2448
osomes	-2449
▁incubation	-2450
▁procedure	-2451
▁detec	-2452
orn	-2453
fac	-2454
▁nuclear	-2455
▁differentiation	-2456
▁platelet	-2457
▁immune	-2458
plied	-2459
▁acco	-2460
▁reflec	-2461
▁restric	-2462
▁hospital	-2463
▁thym	-2464
▁year	-2465
tially	-2466
CO	-2467
aptic	-2468
treatment	-2469
▁3-	-2470
▁series	-2471
▁female	-2472
▁dil	-2473
rate	-2474
▁identical	-2475
▁chol	-2476
▁recorded	-2477
▁quantit	-2478
▁origin	-2479
▁0	-2480
▁affect	-2481
elf	-2482
▁infl	-2483
▁appro	-2484
▁atten	-2485
ring	-2486
▁necess	-2487
▁via	-2488
▁cr	-2489
grad	-2490
▁syndrome	-2491
▁bind	-2492
▁CA	-2493
▁therefore	-2494
rous	-2495
aly	-2496
rocy	-2497
▁information	-2498
▁fibers	-2499
otype	-2500
▁rise	-2501
▁systems	-2502
omic	-2503
▁Re	-2504
▁eth	-2505
pected	-2506
18	-2507
ural	-2508
ging	-2509
imens	-2510
▁cerebral	-2511
▁By	-2512
▁norm	-2513
DA	-2514
▁activated	-2515
▁GH	-2516
ler	-2517
▁markedly	-2518
▁behavior	-2519
▁bir	-2520
ults	-2521
4-	-2522
ible	-2523
▁later	-2524
▁rabbit	-2525
▁Pre	-2526
▁mutant	-2527
▁Group	-2528
▁collec	-2529
▁work	-2530
▁excretion	-2531
▁phospholip	-2532
ages	-2533
▁energy	-2534
stimulated	-2535
ried	-2536
%).	-2537
▁base	-2538
▁plus	-2539
▁anterior	-2540
▁comparison	-2541
LC	-2542
perm	-2543
▁signal	-2544
mission	-2545
▁decreas	-2546
ok	-2547
ostic	-2548
tid	-2549
pine	-2550
TA	-2551
▁lact	-2552
ocyt	-2553
▁cyclic	-2554
▁likely	-2555
▁them	-2556
▁conver	-2557
▁completely	-2558
▁prep	-2559
RP	-2560
ales	-2561
▁exhibited	-2562
▁discussed	-2563
▁little	-2564
erv	-2565
▁urinary	-2566
estion	-2567
▁analys	-2568
plantation	-2569
ylase	-2570
▁prolong	-2571
▁dys	-2572
positive	-2573
af	-2574
▁onset	-2575
ectom	-2576
▁preven	-2577
mediated	-2578
urn	-2579
3)	-2580
ained	-2581
▁malign	-2582
most	-2583
▁fatty	-2584
▁plac	-2585
ral	-2586
▁eight	-2587
-10	-2588
▁amounts	-2589
▁myel	-2590
▁pain	-2591
lobulin	-2592
itol	-2593
▁seven	-2594
▁represent	-2595
▁association	-2596
▁combined	-2597
ronch	-2598
▁0.05).	-2599
▁recombin	-2600
6,	-2601
ylated	-2602
▁mu	-2603
▁stress	-2604
▁double	-2605
ision	-2606
arc	-2607
unctions	-2608
bumin	-2609
▁produce	-2610
▁fed	-2611
▁situ	-2612
III	-2613
▁induc	-2614
▁products	-2615
▁suff	-2616
▁respiratory	-2617
▁infected	-2618
ovine	-2619
▁specificity	-2620
▁located	-2621
▁red	-2622
▁exten	-2623
▁35	-2624
▁cytotox	-2625
▁var	-2626
less	-2627
▁immunore	-2628
▁prost	-2629
ochrome	-2630
▁metast	-2631
▁established	-2632
▁dop	-2633
aneously	-2634
▁consider	-2635
▁proble	-2636
oked	-2637
▁step	-2638
▁hel	-2639
glut	-2640
▁delta	-2641
▁directly	-2642
▁IV	-2643
▁mediated	-2644
orption	-2645
terminal	-2646
sych	-2647
▁cm	-2648
▁subsequent	-2649
▁coun	-2650
▁recur	-2651
▁techniques	-2652
▁CT	-2653
▁div	-2654
▁potent	-2655
▁peptides	-2656
▁pa	-2657
▁phot	-2658
▁condition	-2659
▁don	-2660
ient	-2661
▁cDNA	-2662
▁rather	-2663
ser	-2664
yc	-2665
▁Pro	-2666
▁occurs	-2667
▁mes	-2668
angl	-2669
▁HIV	-2670
▁epithelial	-2671
illary	-2672
▁formed	-2673
▁still	-2674
▁ear	-2675
tase	-2676
ATP	-2677
▁preparations	-2678
▁presented	-2679
▁45	-2680
▁tra	-2681
▁trac	-2682
▁29	-2683
RF	-2684
▁marrow	-2685
▁material	-2686
▁antagonist	-2687
▁shif	-2688
▁hypothesis	-2689
ators	-2690
aturation	-2691
rose	-2692
-1,	-2693
▁placebo	-2694
▁36	-2695
▁clos	-2696
eline	-2697
▁util	-2698
▁injected	-2699
▁predomin	-2700
▁labeled	-2701
cop	-2702
osome	-2703
▁pathway	-2704
ylchol	-2705
▁CO	-2706
▁atrial	-2707
▁diss	-2708
sp	-2709
▁pharmac	-2710
▁0.4	-2711
▁units	-2712
▁0.05)	-2713
▁chromatography	-2714
▁life	-2715
▁vessel	-2716
-(	-2717
▁metabolic	-2718
%),	-2719
▁added	-2720
man	-2721
▁Hg	-2722
▁carried	-2723
oy	-2724
▁chemical	-2725
7,	-2726
▁repl	-2727
tras	-2728
▁examination	-2729
▁3.	-2730
▁secondary	-2731
▁fibrob	-2732
▁often	-2733
omes	-2734
osomal	-2735
▁responsible	-2736
loc	-2737
▁rapidly	-2738
namic	-2739
▁confirmed	-2740
▁den	-2741
▁damage	-2742
▁som	-2743
▁tumour	-2744
▁compounds	-2745
▁altered	-2746
DH	-2747
▁chlor	-2748
▁structures	-2749
ituitary	-2750
▁program	-2751
▁iso	-2752
▁tend	-2753
▁defined	-2754
MC	-2755
▁overall	-2756
▁GA	-2757
6)	-2758
feren	-2759
▁subunit	-2760
▁transcription	-2761
▁tw	-2762
▁available	-2763
amb	-2764
hydroxy	-2765
▁percentage	-2766
▁cytos	-2767
▁dim	-2768
▁selective	-2769
▁anesthe	-2770
▁require	-2771
enter	-2772
1),	-2773
▁clon	-2774
Ab	-2775
verse	-2776
▁hypoth	-2777
cer	-2778
▁infants	-2779
range	-2780
▁dire	-2781
▁surgical	-2782
ending	-2783
▁thyroid	-2784
apeu	-2785
▁blocked	-2786
▁diame	-2787
▁calculated	-2788
alle	-2789
▁electroph	-2790
atitis	-2791
8,	-2792
athe	-2793
-9	-2794
▁product	-2795
▁tryp	-2796
oding	-2797
▁bovine	-2798
▁polymer	-2799
▁differ	-2800
▁angi	-2801
▁lateral	-2802
▁latter	-2803
▁applied	-2804
▁Com	-2805
▁internal	-2806
atients	-2807
▁staining	-2808
max	-2809
▁visual	-2810
coh	-2811
lation	-2812
▁inactiv	-2813
▁inflamm	-2814
▁PR	-2815
▁intake	-2816
▁third	-2817
ading	-2818
▁exchan	-2819
4)	-2820
EC	-2821
po	-2822
▁persis	-2823
urine	-2824
▁constr	-2825
▁inhibitors	-2826
▁manner	-2827
pose	-2828
▁spinal	-2829
teroid	-2830
plas	-2831
▁physiological	-2832
▁slightly	-2833
▁mel	-2834
▁'	-2835
ylate	-2836
▁structural	-2837
transfer	-2838
▁proportion	-2839
sized	-2840
IL	-2841
▁cate	-2842
▁induce	-2843
▁relax	-2844
iat	-2845
▁she	-2846
arily	-2847
EM	-2848
/2	-2849
reast	-2850
ious	-2851
▁target	-2852
▁0.9	-2853
anine	-2854
▁labor	-2855
▁almost	-2856
▁bronch	-2857
▁alk	-2858
▁highest	-2859
▁ed	-2860
olol	-2861
▁play	-2862
▁neut	-2863
▁sperm	-2864
▁Ac	-2865
▁toward	-2866
viron	-2867
tance	-2868
▁stable	-2869
▁fractions	-2870
▁More	-2871
▁33	-2872
ias	-2873
▁gangl	-2874
▁lys	-2875
▁pancre	-2876
▁label	-2877
▁olig	-2878
ided	-2879
▁gradi	-2880
▁Ser	-2881
▁125	-2882
▁ey	-2883
▁prac	-2884
▁sour	-2885
▁att	-2886
▁success	-2887
▁cathe	-2888
▁Mg	-2889
▁biop	-2890
ang	-2891
▁poor	-2892
labeled	-2893
▁macrophages	-2894
▁perf	-2895
▁IGF	-2896
emic	-2897
mental	-2898
▁means	-2899
/1	-2900
▁stab	-2901
▁cre	-2902
PC	-2903
▁according	-2904
▁urine	-2905
▁compos	-2906
▁toler	-2907
▁fragment	-2908
▁review	-2909
▁Sim	-2910
▁197	-2911
order	-2912
▁larger	-2913
ust	-2914
▁perox	-2915
ologically	-2916
▁partial	-2917
▁degrad	-2918
▁complexes	-2919
▁trig	-2920
▁certain	-2921
iting	-2922
▁vesicles	-2923
ternal	-2924
▁aortic	-2925
▁birth	-2926
CC	-2927
fic	-2928
▁resulting	-2929
▁Since	-2930
▁Im	-2931
odynamic	-2932
▁estimated	-2933
▁retro	-2934
▁ischemia	-2935
nec	-2936
▁must	-2937
▁better	-2938
aired	-2939
▁noted	-2940
▁effic	-2941
▁4-	-2942
▁subc	-2943
▁ra	-2944
▁vel	-2945
▁males	-2946
▁intravenous	-2947
que	-2948
thm	-2949
apeutic	-2950
reg	-2951
itamin	-2952
▁plasm	-2953
▁0.6	-2954
▁observations	-2955
ump	-2956
▁gastric	-2957
ality	-2958
▁agonist	-2959
▁experi	-2960
▁taken	-2961
▁diabetic	-2962
fected	-2963
▁breast	-2964
▁systemic	-2965
lobin	-2966
▁throughout	-2967
part	-2968
▁status	-2969
▁aggreg	-2970
▁family	-2971
atase	-2972
▁endogenous	-2973
▁report	-2974
▁prepared	-2975
▁features	-2976
pite	-2977
year	-2978
▁kDa	-2979
▁scre	-2980
utions	-2981
▁viral	-2982
ociated	-2983
gluc	-2984
▁good	-2985
cles	-2986
▁ren	-2987
▁veloc	-2988
▁open	-2989
▁deriv	-2990
▁ure	-2991
▁molecule	-2992
▁necessary	-2993
mg	-2994
▁Using	-2995
avage	-2996
otic	-2997
▁phosphorylation	-2998
▁0.7	-2999
▁longer	-3000
▁sple	-3001
▁selected	-3002
▁interval	-3003
ylcholine	-3004
dim	-3005
▁0.8	-3006
gamma	-3007
▁processes	-3008
▁AMP	-3009
tized	-3010
atid	-3011
▁toge	-3012
▁together	-3013
aged	-3014
▁elimin	-3015
▁dehyd	-3016
▁phosphate	-3017
AC	-3018
▁fer	-3019
olution	-3020
▁pituitary	-3021
▁perfusion	-3022
▁endothelial	-3023
▁inner	-3024
▁pair	-3025
▁transient	-3026
▁consum	-3027
▁maintained	-3028
ned	-3029
▁31	-3030
▁females	-3031
stolic	-3032
gene	-3033
ompan	-3034
▁alcoh	-3035
▁fix	-3036
▁pregnancy	-3037
ats	-3038
▁integr	-3039
ocal	-3040
uals	-3041
▁enhance	-3042
▁Cl	-3043
▁layer	-3044
▁experiment	-3045
▁Rec	-3046
▁dors	-3047
▁.0	-3048
▁evaluate	-3049
itone	-3050
▁evaluation	-3051
20	-3052
henyl	-3053
▁achieved	-3054
▁reactions	-3055
▁irradi	-3056
▁animal	-3057
inea	-3058
▁detection	-3059
occ	-3060
▁preval	-3061
▁hydrox	-3062
mented	-3063
ored	-3064
▁4.	-3065
▁cyto	-3066
ze	-3067
▁clearance	-3068
▁head	-3069
▁sep	-3070
▁partially	-3071
▁psych	-3072
9,	-3073
rolog	-3074
▁though	-3075
▁complement	-3076
▁nuclei	-3077
▁limited	-3078
▁cytochrome	-3079
▁conclusion	-3080
EA	-3081
▁strongly	-3082
▁intens	-3083
▁comparable	-3084
▁clones	-3085
▁accompan	-3086
sensitive	-3087
▁lac	-3088
▁smooth	-3089
▁stages	-3090
tensin	-3091
▁kg	-3092
HC	-3093
▁domain	-3094
▁et	-3095
▁infarction	-3096
▁nu	-3097
cepti	-3098
▁complications	-3099
▁neutroph	-3100
▁optim	-3101
▁hydroly	-3102
▁output	-3103
▁elic	-3104
▁essential	-3105
▁paralle	-3106
▁baseline	-3107
▁interactions	-3108
uct	-3109
ogram	-3110
ched	-3111
▁mainly	-3112
▁fragments	-3113
enic	-3114
▁microscopy	-3115
▁34	-3116
ef	-3117
▁relation	-3118
acchar	-3119
ock	-3120
oring	-3121
▁set	-3122
▁diseases	-3123
2.	-3124
▁improved	-3125
aps	-3126
▁pers	-3127
astolic	-3128
▁having	-3129
SV	-3130
▁haem	-3131
▁environ	-3132
▁events	-3133
▁shor	-3134
▁precur	-3135
▁diabetes	-3136
.)	-3137
pecially	-3138
▁sera	-3139
▁1)	-3140
▁sw	-3141
▁performance	-3142
trogen	-3143
assi	-3144
▁failed	-3145
rit	-3146
▁another	-3147
▁lipoprotein	-3148
▁specimens	-3149
▁IFN	-3150
utaneous	-3151
reshold	-3152
mal	-3153
▁ty	-3154
▁simult	-3155
▁glomer	-3156
▁diameter	-3157
▁adenosine	-3158
▁oste	-3159
iol	-3160
▁prolonged	-3161
▁detectable	-3162
▁38	-3163
RI	-3164
▁investigate	-3165
▁able	-3166
ression	-3167
▁criter	-3168
▁receiving	-3169
▁proximal	-3170
ometric	-3171
▁agent	-3172
ify	-3173
▁infections	-3174
▁6-	-3175
▁perme	-3176
▁saline	-3177
▁medical	-3178
▁Three	-3179
▁200	-3180
▁mum	-3181
▁promoter	-3182
▁conj	-3183
▁coup	-3184
▁muscles	-3185
▁efficacy	-3186
ologous	-3187
▁posi	-3188
ipp	-3189
IP	-3190
▁(1)	-3191
▁incorporation	-3192
olytic	-3193
▁ill	-3194
ploy	-3195
allen	-3196
test	-3197
▁individuals	-3198
▁lesion	-3199
▁They	-3200
▁motor	-3201
▁great	-3202
▁pyr	-3203
▁interv	-3204
gland	-3205
▁substitu	-3206
▁En	-3207
▁undergo	-3208
▁sulfate	-3209
▁numbers	-3210
▁smaller	-3211
▁mutants	-3212
▁dopamine	-3213
▁amplitude	-3214
▁(2)	-3215
▁continuous	-3216
▁kill	-3217
CP	-3218
▁progn	-3219
,000	-3220
▁spontaneous	-3221
dom	-3222
▁spleen	-3223
teen	-3224
▁guinea	-3225
▁HP	-3226
▁predominant	-3227
▁underwent	-3228
▁field	-3229
▁2)	-3230
▁cataly	-3231
▁absorption	-3232
omal	-3233
▁functions	-3234
▁respect	-3235
▁Patients	-3236
▁micros	-3237
▁glycoprotein	-3238
uses	-3239
oresis	-3240
▁star	-3241
▁intermediate	-3242
adiol	-3243
▁intestinal	-3244
▁natur	-3245
▁toxicity	-3246
▁hypox	-3247
▁conform	-3248
-1.	-3249
▁alterations	-3250
▁populations	-3251
▁causes	-3252
▁contains	-3253
bil	-3254
▁especially	-3255
transferase	-3256
acr	-3257
ark	-3258
▁1.0	-3259
▁immuno	-3260
SP	-3261
▁application	-3262
▁linear	-3263
▁cord	-3264
tox	-3265
oglyc	-3266
▁0.01).	-3267
▁distal	-3268
acement	-3269
▁approach	-3270
▁genetic	-3271
+)-	-3272
40	-3273
Hg	-3274
elled	-3275
cine	-3276
rest	-3277
▁stre	-3278
▁recip	-3279
▁From	-3280
▁follic	-3281
▁neon	-3282
▁old	-3283
▁ethanol	-3284
neum	-3285
▁wild	-3286
come	-3287
▁iron	-3288
phyl	-3289
▁frequently	-3290
MN	-3291
▁point	-3292
▁identify	-3293
▁abol	-3294
▁accur	-3295
▁altern	-3296
▁operation	-3297
▁cann	-3298
▁simple	-3299
▁retic	-3300
▁remaining	-3301
6-	-3302
▁cys	-3303
▁until	-3304
▁turn	-3305
▁grad	-3306
gesterone	-3307
▁rib	-3308
▁statistically	-3309
▁enti	-3310
produc	-3311
▁particularly	-3312
LI	-3313
▁weak	-3314
ropri	-3315
ables	-3316
▁channels	-3317
▁2.5	-3318
▁modified	-3319
kele	-3320
▁segment	-3321
▁erythrocy	-3322
▁tract	-3323
▁indicates	-3324
BC	-3325
▁hypothal	-3326
▁contraction	-3327
ivalent	-3328
plan	-3329
▁dele	-3330
ime	-3331
▁exchange	-3332
NS	-3333
▁preparation	-3334
▁removal	-3335
kDa	-3336
▁median	-3337
▁suscepti	-3338
▁ultras	-3339
▁Ph	-3340
▁intervals	-3341
▁rad	-3342
▁cereb	-3343
keletal	-3344
▁periods	-3345
▁DA	-3346
▁food	-3347
iotensin	-3348
rup	-3349
tation	-3350
zyme	-3351
assium	-3352
▁inser	-3353
otassium	-3354
▁therapeutic	-3355
▁albumin	-3356
▁potentials	-3357
AL	-3358
▁arteries	-3359
▁employ	-3360
truction	-3361
rix	-3362
▁released	-3363
▁venous	-3364
tri	-3365
▁off	-3366
ficial	-3367
▁incubated	-3368
▁shows	-3369
actin	-3370
▁prevent	-3371
▁cortical	-3372
tile	-3373
EP	-3374
pr	-3375
▁nucleotide	-3376
▁Therefore	-3377
▁abnormalities	-3378
▁0.01)	-3379
▁gest	-3380
aining	-3381
eric	-3382
ols	-3383
▁moderate	-3384
tagland	-3385
ams	-3386
▁near	-3387
fts	-3388
ST	-3389
▁procedures	-3390
▁host	-3391
sia	-3392
mod	-3393
iable	-3394
▁except	-3395
wenty	-3396
amino	-3397
▁blot	-3398
oceptor	-3399
▁bal	-3400
▁gon	-3401
rosine	-3402
▁chemotherapy	-3403
▁nitro	-3404
▁42	-3405
▁recombinant	-3406
▁connec	-3407
▁Le	-3408
11	-3409
▁generated	-3410
▁decreases	-3411
▁conven	-3412
▁granul	-3413
lying	-3414
aging	-3415
▁malignant	-3416
▁Ne	-3417
▁3,	-3418
▁retur	-3419
▁segments	-3420
olarization	-3421
▁90	-3422
▁TNF	-3423
tradiol	-3424
bly	-3425
▁sections	-3426
LV	-3427
IC	-3428
tence	-3429
▁mil	-3430
receptor	-3431
acin	-3432
▁kinetics	-3433
▁fluorescence	-3434
▁constitu	-3435
oro	-3436
▁majority	-3437
▁thick	-3438
▁nine	-3439
▁intensity	-3440
▁He	-3441
▁bile	-3442
▁velocity	-3443
▁net	-3444
▁0.001).	-3445
▁external	-3446
▁mV	-3447
▁below	-3448
▁rabbits	-3449
ising	-3450
▁composition	-3451
▁challen	-3452
▁assays	-3453
▁prevalence	-3454
▁terminal	-3455
aine	-3456
▁SP	-3457
▁deple	-3458
▁gland	-3459
▁biological	-3460
▁provided	-3461
▁variation	-3462
▁sten	-3463
ositol	-3464
mitted	-3465
▁regard	-3466
▁nmol	-3467
tub	-3468
rhy	-3469
changed	-3470
adrenergic	-3471
▁Similar	-3472
▁auto	-3473
ration	-3474
omycin	-3475
▁mild	-3476
▁mig	-3477
▁biochemical	-3478
▁died	-3479
▁hear	-3480
▁pub	-3481
▁postoperative	-3482
▁underst	-3483
FA	-3484
equ	-3485
▁stimulus	-3486
tors	-3487
▁bene	-3488
▁aged	-3489
▁proposed	-3490
HA	-3491
▁hepar	-3492
▁Inc	-3493
▁occlusion	-3494
▁antiser	-3495
▁pancreatic	-3496
15	-3497
au	-3498
▁mmol	-3499
▁heat	-3500
oglobin	-3501
atives	-3502
containing	-3503
erative	-3504
icin	-3505
onate	-3506
▁rest	-3507
▁extracts	-3508
▁unchanged	-3509
overed	-3510
▁variety	-3511
▁cry	-3512
ycin	-3513
▁lamin	-3514
▁matrix	-3515
rents	-3516
▁1.5	-3517
▁Wh	-3518
▁appearance	-3519
clo	-3520
▁dietary	-3521
▁threshold	-3522
▁St	-3523
▁treat	-3524
▁typ	-3525
▁suppor	-3526
▁history	-3527
veness	-3528
ili	-3529
▁vitamin	-3530
▁sample	-3531
▁PC	-3532
▁aff	-3533
▁pros	-3534
▁whose	-3535
▁electrophoresis	-3536
eff	-3537
anth	-3538
▁mmHg	-3539
ociation	-3540
amate	-3541
▁murine	-3542
▁potassium	-3543
▁radiation	-3544
▁generation	-3545
siveness	-3546
▁chick	-3547
lux	-3548
▁dorsal	-3549
▁fall	-3550
▁neph	-3551
▁mumol	-3552
▁expected	-3553
rogenase	-3554
phas	-3555
▁resistant	-3556
▁mutations	-3557
loro	-3558
▁epithelium	-3559
▁cop	-3560
▁adrenal	-3561
position	-3562
▁gradient	-3563
▁steady	-3564
▁histamine	-3565
▁sin	-3566
aemia	-3567
▁particles	-3568
▁supple	-3569
tingu	-3570
but	-3571
IA	-3572
90	-3573
▁every	-3574
▁lack	-3575
ropriate	-3576
adder	-3577
▁5.	-3578
erved	-3579
▁collected	-3580
ident	-3581
▁sens	-3582
▁criteria	-3583
▁exis	-3584
▁cyclase	-3585
▁pretreatment	-3586
▁auth	-3587
3%	-3588
opha	-3589
▁pac	-3590
DR	-3591
▁Moreover	-3592
idal	-3593
linked	-3594
▁evoked	-3595
2+]	-3596
▁magnitude	-3597
-1)	-3598
▁synthesized	-3599
▁importance	-3600
▁platelets	-3601
▁untreated	-3602
▁graft	-3603
▁chromosome	-3604
▁neutral	-3605
▁GABA	-3606
tum	-3607
▁characteristic	-3608
▁concer	-3609
▁seems	-3610
eral	-3611
▁native	-3612
▁nm	-3613
▁subunits	-3614
▁cytoplasmic	-3615
associated	-3616
istic	-3617
▁reper	-3618
▁improvement	-3619
oral	-3620
▁along	-3621
anding	-3622
urg	-3623
▁parallel	-3624
▁systolic	-3625
▁fibroblasts	-3626
▁venti	-3627
vic	-3628
▁particip	-3629
▁bacterial	-3630
umn	-3631
▁injections	-3632
amus	-3633
▁Plas	-3634
▁vessels	-3635
▁competi	-3636
function	-3637
▁exp	-3638
▁cortic	-3639
ilibr	-3640
▁measurement	-3641
raw	-3642
derived	-3643
▁voltage	-3644
▁fibrin	-3645
▁polypeptide	-3646
▁laboratory	-3647
▁Four	-3648
▁her	-3649
▁repeated	-3650
athetic	-3651
MT	-3652
▁ovari	-3653
▁reached	-3654
▁degradation	-3655
▁80	-3656
▁models	-3657
▁analyses	-3658
▁unit	-3659
▁actin	-3660
▁70	-3661
▁consequ	-3662
▁recognized	-3663
▁possibility	-3664
pecific	-3665
▁10.	-3666
6%	-3667
com	-3668
▁physical	-3669
▁steroid	-3670
▁yiel	-3671
▁close	-3672
▁diagnostic	-3673
mediately	-3674
▁mature	-3675
▁probe	-3676
▁curve	-3677
uv	-3678
geal	-3679
ione	-3680
lycer	-3681
▁metabolites	-3682
▁accompanied	-3683
▁ACTH	-3684
▁diffic	-3685
olysis	-3686
23	-3687
iment	-3688
iew	-3689
0%)	-3690
entricular	-3691
ips	-3692
pression	-3693
▁closely	-3694
ril	-3695
▁examine	-3696
▁immunos	-3697
eth	-3698
▁toxin	-3699
temp	-3700
▁suppression	-3701
▁stimuli	-3702
ynthe	-3703
▁regulatory	-3704
▁deficiency	-3705
▁prevented	-3706
▁minor	-3707
otides	-3708
▁purpose	-3709
▁HLA	-3710
▁now	-3711
aden	-3712
▁mas	-3713
▁synthetic	-3714
ese	-3715
▁varied	-3716
▁generally	-3717
▁consumption	-3718
▁elements	-3719
▁resting	-3720
▁transplantation	-3721
▁posterior	-3722
▁pneum	-3723
▁soluble	-3724
the	-3725
otropic	-3726
▁successful	-3727
▁nature	-3728
7%	-3729
▁entire	-3730
▁variables	-3731
▁dy	-3732
▁view	-3733
▁primarily	-3734
▁neuronal	-3735
itoneal	-3736
▁39	-3737
▁down	-3738
oside	-3739
▁usually	-3740
orders	-3741
lier	-3742
▁mixed	-3743
▁methyl	-3744
▁predicted	-3745
ilic	-3746
▁doc	-3747
thal	-3748
▁alcohol	-3749
▁natural	-3750
▁involvement	-3751
orrh	-3752
▁nerv	-3753
tility	-3754
▁facil	-3755
ilateral	-3756
▁became	-3757
▁attenu	-3758
4%	-3759
▁er	-3760
asal	-3761
ovascular	-3762
ints	-3763
▁question	-3764
▁EC	-3765
erox	-3766
▁nons	-3767
▁prostagland	-3768
▁sto	-3769
▁dex	-3770
▁tempor	-3771
▁progesterone	-3772
▁media	-3773
▁dehydrogenase	-3774
▁band	-3775
▁bur	-3776
▁terms	-3777
▁vary	-3778
ets	-3779
7)	-3780
spective	-3781
▁regression	-3782
ii	-3783
▁epis	-3784
elling	-3785
▁Bec	-3786
earch	-3787
elec	-3788
▁leukemia	-3789
▁abolished	-3790
▁lymphocyte	-3791
▁projec	-3792
▁depression	-3793
LP	-3794
▁controlled	-3795
ectomy	-3796
▁testing	-3797
SO	-3798
turb	-3799
carb	-3800
ocamp	-3801
lycerol	-3802
▁quantitative	-3803
▁stren	-3804
▁conducted	-3805
▁deli	-3806
inally	-3807
▁catheter	-3808
ohyd	-3809
ometry	-3810
▁ratios	-3811
30	-3812
▁wid	-3813
▁investigation	-3814
▁delayed	-3815
HR	-3816
▁Only	-3817
▁72	-3818
▁outcome	-3819
▁localized	-3820
▁radical	-3821
mature	-3822
▁cis	-3823
▁cont	-3824
▁mutation	-3825
▁last	-3826
▁recording	-3827
▁antagonists	-3828
▁melan	-3829
rac	-3830
▁Tre	-3831
VP	-3832
▁hemat	-3833
CSF	-3834
otoxin	-3835
▁estrogen	-3836
▁recons	-3837
idity	-3838
-2-	-3839
▁las	-3840
▁divided	-3841
▁dimin	-3842
▁reduce	-3843
▁bac	-3844
1.	-3845
▁monke	-3846
▁Anal	-3847
by	-3848
▁mitochondrial	-3849
▁Addition	-3850
▁respond	-3851
▁variable	-3852
olin	-3853
MR	-3854
leu	-3855
bl	-3856
▁remains	-3857
▁buff	-3858
▁20%	-3859
iform	-3860
▁hypertensive	-3861
▁nit	-3862
▁column	-3863
▁resec	-3864
pinephrine	-3865
▁severity	-3866
▁specifically	-3867
aw	-3868
▁vag	-3869
▁upper	-3870
odil	-3871
▁removed	-3872
▁led	-3873
ecu	-3874
▁Because	-3875
▁contribute	-3876
▁dyn	-3877
rog	-3878
▁0.001)	-3879
▁spl	-3880
den	-3881
▁suppressed	-3882
assay	-3883
▁vein	-3884
encies	-3885
MI	-3886
▁markers	-3887
60	-3888
raz	-3889
erent	-3890
▁De	-3891
▁significance	-3892
▁conventional	-3893
▁polymerase	-3894
rier	-3895
▁ester	-3896
glutin	-3897
▁attrib	-3898
▁hepatitis	-3899
▁bran	-3900
fl	-3901
PD	-3902
▁Co	-3903
phase	-3904
▁apo	-3905
▁attemp	-3906
▁marker	-3907
▁paper	-3908
▁nervous	-3909
▁hipp	-3910
1%	-3911
ings	-3912
▁account	-3913
PR	-3914
▁mol	-3915
▁chains	-3916
▁immediately	-3917
▁toxic	-3918
▁earlier	-3919
▁angiotensin	-3920
▁pigs	-3921
olec	-3922
▁valve	-3923
▁observation	-3924
▁contact	-3925
▁bro	-3926
istry	-3927
▁renin	-3928
▁10%	-3929
▁benz	-3930
▁ech	-3931
▁full	-3932
▁curves	-3933
▁phosphatid	-3934
quid	-3935
AT	-3936
▁preferen	-3937
▁epiderm	-3938
▁heparin	-3939
▁agonists	-3940
▁bacteria	-3941
▁ST	-3942
unted	-3943
opathy	-3944
▁recently	-3945
▁gastro	-3946
▁surve	-3947
gg	-3948
iotic	-3949
▁Immun	-3950
ocytic	-3951
hist	-3952
▁portion	-3953
▁reactivity	-3954
CT	-3955
▁uter	-3956
izes	-3957
+,	-3958
▁Ar	-3959
9)	-3960
▁LV	-3961
▁lum	-3962
▁inflammatory	-3963
▁fore	-3964
-,	-3965
leep	-3966
▁ranged	-3967
▁Six	-3968
▁ischemic	-3969
▁extre	-3970
gi	-3971
▁PD	-3972
▁rh	-3973
▁ble	-3974
orepinephrine	-3975
▁appropriate	-3976
agon	-3977
▁EGF	-3978
▁gonad	-3979
▁(+	-3980
▁hippocamp	-3981
veolar	-3982
▁problems	-3983
ocrine	-3984
▁mono	-3985
▁reticul	-3986
▁signs	-3987
Na	-3988
▁Among	-3989
▁secretory	-3990
ATPase	-3991
endri	-3992
▁skeletal	-3993
▁cyclo	-3994
oglobulin	-3995
luores	-3996
▁aim	-3997
8%	-3998
▁AI	-3999
▁consecu	-4000
▁Twenty	-4001
FU	-4002
osal	-4003
▁source	-4004
▁cleavage	-4005
alact	-4006
▁diastolic	-4007
▁around	-4008
▁inactivation	-4009
trum	-4010
agement	-4011
ower	-4012
▁disorders	-4013
▁coeff	-4014
▁disapp	-4015
▁ou	-4016
sess	-4017
▁fusion	-4018
▁sum	-4019
▁intro	-4020
seud	-4021
▁force	-4022
▁SC	-4023
▁LDL	-4024
▁ten	-4025
▁phenotype	-4026
ichia	-4027
▁gave	-4028
BV	-4029
▁Sc	-4030
imen	-4031
rotid	-4032
▁whom	-4033
▁equilibr	-4034
▁hypertro	-4035
oplasm	-4036
▁here	-4037
▁sarc	-4038
ights	-4039
MV	-4040
▁caps	-4041
▁phenomen	-4042
oic	-4043
ape	-4044
▁adap	-4045
scher	-4046
▁clinically	-4047
(+)-	-4048
control	-4049
17	-4050
orbol	-4051
▁initiation	-4052
▁objec	-4053
8)	-4054
▁tach	-4055
▁interpre	-4056
▁pathways	-4057
▁(3)	-4058
▁hydrolysis	-4059
▁consisted	-4060
▁LT	-4061
▁implic	-4062
asis	-4063
▁sch	-4064
▁capable	-4065
▁labeling	-4066
scherichia	-4067
▁parent	-4068
▁superior	-4069
▁uniqu	-4070
okine	-4071
▁hybridization	-4072
hyp	-4073
▁replication	-4074
pass	-4075
hydro	-4076
▁include	-4077
▁ligand	-4078
▁paras	-4079
▁3)	-4080
▁repair	-4081
DM	-4082
▁adults	-4083
▁minimal	-4084
planted	-4085
▁elicited	-4086
▁best	-4087
▁alle	-4088
▁pulse	-4089
▁IC	-4090
▁clearly	-4091
▁tyrosine	-4092
leukin	-4093
▁frequent	-4094
▁jo	-4095
ek	-4096
▁PGE	-4097
▁oxidation	-4098
▁sinus	-4099
▁ms	-4100
▁CH	-4101
▁put	-4102
▁fast	-4103
▁extr	-4104
▁inoc	-4105
bound	-4106
itant	-4107
▁Escherichia	-4108
▁separate	-4109
▁cytotoxic	-4110
▁uns	-4111
▁axons	-4112
▁basic	-4113
▁tension	-4114
▁conjug	-4115
▁screening	-4116
▁designed	-4117
▁separated	-4118
▁somat	-4119
car	-4120
tice	-4121
▁reas	-4122
▁treatments	-4123
▁strength	-4124
resist	-4125
▁occurring	-4126
ots	-4127
▁testosterone	-4128
sively	-4129
▁tolerance	-4130
▁Plasma	-4131
▁across	-4132
▁sustained	-4133
▁go	-4134
ritis	-4135
▁sympathetic	-4136
onuclear	-4137
ula	-4138
ono	-4139
▁stri	-4140
▁load	-4141
▁irradiation	-4142
stre	-4143
▁substrates	-4144
ella	-4145
▁maternal	-4146
▁assessment	-4147
▁electrical	-4148
rons	-4149
adrenoceptor	-4150
2).	-4151
▁SD	-4152
▁recent	-4153
infected	-4154
▁regional	-4155
isms	-4156
ollow	-4157
▁FSH	-4158
▁commun	-4159
19	-4160
generation	-4161
Ig	-4162
▁exogenous	-4163
ticular	-4164
▁hemodynamic	-4165
▁10-	-4166
16	-4167
▁NK	-4168
▁break	-4169
▁Tr	-4170
▁provides	-4171
▁recovered	-4172
▁cannot	-4173
▁phosphatase	-4174
▁Sub	-4175
ynaptic	-4176
BL	-4177
SD	-4178
▁saf	-4179
▁impair	-4180
otyp	-4181
▁impaired	-4182
▁self	-4183
▁leads	-4184
▁Cell	-4185
wor	-4186
▁neither	-4187
▁white	-4188
ina	-4189
tiz	-4190
ncy	-4191
▁cerv	-4192
▁5'-	-4193
▁0.000	-4194
▁training	-4195
▁fav	-4196
▁biopsy	-4197
▁chloride	-4198
GA	-4199
▁consecutive	-4200
known	-4201
now	-4202
oprote	-4203
13	-4204
▁cervical	-4205
hal	-4206
▁filtration	-4207
▁clus	-4208
▁asc	-4209
▁Ins	-4210
▁seroton	-4211
activated	-4212
▁relaxation	-4213
▁Stu	-4214
tail	-4215
▁fet	-4216
asion	-4217
▁circulating	-4218
mend	-4219
▁necrosis	-4220
oids	-4221
▁metal	-4222
def	-4223
▁sleep	-4224
▁.	-4225
natal	-4226
▁authors	-4227
EG	-4228
time	-4229
dominal	-4230
▁raised	-4231
▁stimulate	-4232
▁shift	-4233
▁medial	-4234
incip	-4235
▁developing	-4236
osynthe	-4237
▁elevation	-4238
▁defect	-4239
▁despite	-4240
▁extensive	-4241
▁hormones	-4242
loid	-4243
▁feeding	-4244
▁Ag	-4245
▁management	-4246
▁hypo	-4247
▁mitochondria	-4248
ching	-4249
▁RA	-4250
▁research	-4251
ches	-4252
ialysis	-4253
▁older	-4254
▁lactate	-4255
ameth	-4256
▁indirect	-4257
▁twice	-4258
▁Sp	-4259
trition	-4260
▁exer	-4261
▁Most	-4262
▁Treatment	-4263
▁eye	-4264
▁milk	-4265
▁reflex	-4266
acetyl	-4267
genic	-4268
▁excess	-4269
▁bar	-4270
protein	-4271
▁liquid	-4272
eded	-4273
▁hams	-4274
▁prom	-4275
▁adhesion	-4276
▁critical	-4277
ardia	-4278
▁donor	-4279
▁feed	-4280
▁dendri	-4281
2%	-4282
▁precursor	-4283
▁stenosis	-4284
yg	-4285
▁fact	-4286
▁protoc	-4287
-100	-4288
▁ker	-4289
▁progressive	-4290
▁reperfusion	-4291
▁possibly	-4292
mentation	-4293
ik	-4294
▁distingu	-4295
affec	-4296
anning	-4297
▁ful	-4298
▁pla	-4299
▁8-	-4300
▁fibres	-4301
▁sufficient	-4302
9%	-4303
▁interven	-4304
tif	-4305
▁43	-4306
▁trials	-4307
▁heterogene	-4308
▁special	-4309
▁CP	-4310
▁confirm	-4311
▁TGF	-4312
apping	-4313
-1-	-4314
opo	-4315
▁tri	-4316
-14	-4317
▁dissociation	-4318
▁become	-4319
state	-4320
▁unique	-4321
iaz	-4322
aces	-4323
ray	-4324
ET	-4325
▁Am	-4326
▁possess	-4327
▁dip	-4328
▁(198	-4329
-20	-4330
▁none	-4331
tisol	-4332
▁neurop	-4333
▁monitoring	-4334
ylamide	-4335
▁movement	-4336
▁princip	-4337
▁norepinephrine	-4338
▁reversed	-4339
▁restriction	-4340
▁substance	-4341
cul	-4342
sh	-4343
▁far	-4344
▁75	-4345
▁aug	-4346
▁mother	-4347
▁BP	-4348
▁plasmid	-4349
oden	-4350
▁responsiveness	-4351
▁outer	-4352
▁egg	-4353
▁pool	-4354
▁neonatal	-4355
4+	-4356
▁ED	-4357
ctive	-4358
nat	-4359
▁4,	-4360
stream	-4361
aries	-4362
▁antic	-4363
▁nic	-4364
ginine	-4365
affected	-4366
ometr	-4367
otal	-4368
ionic	-4369
▁Follow	-4370
▁bladder	-4371
mat	-4372
▁event	-4373
▁yet	-4374
▁fiber	-4375
▁pg	-4376
vious	-4377
orac	-4378
ectin	-4379
▁substanti	-4380
▁processing	-4381
▁differential	-4382
▁mucosa	-4383
dle	-4384
▁neural	-4385
born	-4386
alian	-4387
▁TSH	-4388
lastic	-4389
▁salt	-4390
ply	-4391
ellar	-4392
▁isolates	-4393
▁involving	-4394
ocaine	-4395
▁AP	-4396
ipit	-4397
▁improve	-4398
▁synaptic	-4399
▁reactive	-4400
ined	-4401
▁compart	-4402
accharide	-4403
ception	-4404
▁transmission	-4405
irus	-4406
▁equivalent	-4407
▁occup	-4408
BF	-4409
▁challenge	-4410
erated	-4411
▁delivery	-4412
▁recommend	-4413
oxygen	-4414
▁cardiovascular	-4415
▁catechol	-4416
▁others	-4417
▁measures	-4418
idation	-4419
▁(10(	-4420
▁diets	-4421
▁IgM	-4422
▁manif	-4423
oses	-4424
▁help	-4425
▁construc	-4426
dose	-4427
▁randomized	-4428
▁Fe	-4429
acent	-4430
▁hearts	-4431
▁neoplas	-4432
vity	-4433
▁establish	-4434
▁determination	-4435
5).	-4436
▁lob	-4437
▁pp	-4438
▁decline	-4439
▁like	-4440
ocortic	-4441
▁dependence	-4442
iae	-4443
inated	-4444
tak	-4445
rophob	-4446
▁dem	-4447
▁30%	-4448
lim	-4449
▁excl	-4450
▁humans	-4451
ns	-4452
▁44	-4453
▁PK	-4454
▁bio	-4455
gans	-4456
▁carbohyd	-4457
▁permeability	-4458
▁shock	-4459
▁interleukin	-4460
uoden	-4461
ilized	-4462
entially	-4463
▁embryos	-4464
▁actions	-4465
▁potency	-4466
benz	-4467
▁vaccin	-4468
unte	-4469
▁immunoglobulin	-4470
▁changed	-4471
ocar	-4472
effec	-4473
▁opi	-4474
grade	-4475
aced	-4476
▁squ	-4477
▁continued	-4478
▁hepatocytes	-4479
▁pmol	-4480
57	-4481
▁adenylate	-4482
▁directed	-4483
oz	-4484
uretic	-4485
▁If	-4486
ulph	-4487
ensional	-4488
▁residue	-4489
▁Mr	-4490
▁term	-4491
▁nerves	-4492
inic	-4493
iles	-4494
SC	-4495
osyl	-4496
ament	-4497
▁wave	-4498
▁morphology	-4499
▁unaffected	-4500
▁Analysis	-4501
▁ana	-4502
iatric	-4503
▁grafts	-4504
▁aggregation	-4505
opres	-4506
opes	-4507
▁Tran	-4508
▁perfused	-4509
▁apparently	-4510
▁ions	-4511
▁excit	-4512
-6)	-4513
▁infer	-4514
▁bodies	-4515
oscop	-4516
▁cloned	-4517
-450	-4518
tenance	-4519
ocial	-4520
adrenaline	-4521
▁GTP	-4522
▁showing	-4523
▁enhancement	-4524
tention	-4525
flow	-4526
▁volunte	-4527
▁reproduc	-4528
▁tas	-4529
▁rare	-4530
▁gestation	-4531
▁Hz	-4532
▁predominantly	-4533
ranolol	-4534
▁zone	-4535
▁sheep	-4536
ignific	-4537
▁nearly	-4538
▁CC	-4539
▁influenced	-4540
▁occurrence	-4541
oyl	-4542
)2	-4543
MG	-4544
illin	-4545
ake	-4546
▁caud	-4547
▁CR	-4548
▁nur	-4549
▁protection	-4550
resistant	-4551
▁express	-4552
lasses	-4553
ocytosis	-4554
▁prostaglandin	-4555
tryp	-4556
wh	-4557
negative	-4558
▁PT	-4559
▁Nor	-4560
▁sed	-4561
▁MA	-4562
ignificant	-4563
apse	-4564
nRH	-4565
▁mAb	-4566
▁adequ	-4567
▁node	-4568
▁aspec	-4569
▁stained	-4570
▁(100	-4571
sub	-4572
▁pal	-4573
asive	-4574
▁Comp	-4575
▁space	-4576
uron	-4577
▁3'	-4578
ients	-4579
▁fully	-4580
rich	-4581
▁replacement	-4582
inergic	-4583
▁mammalian	-4584
wise	-4585
▁Mean	-4586
▁LPS	-4587
▁6.	-4588
▁nod	-4589
▁cryst	-4590
plasia	-4591
onstric	-4592
▁dysfunction	-4593
▁90%	-4594
▁1.2	-4595
erence	-4596
oli	-4597
▁120	-4598
charge	-4599
▁mechanical	-4600
chym	-4601
▁experience	-4602
▁locus	-4603
ush	-4604
▁power	-4605
▁fo	-4606
▁bypass	-4607
▁glomerular	-4608
dl	-4609
amil	-4610
▁famil	-4611
▁neutrophils	-4612
▁physici	-4613
▁unknown	-4614
▁quality	-4615
▁recognition	-4616
▁fixed	-4617
▁rhy	-4618
▁measuring	-4619
▁Results	-4620
▁dev	-4621
▁blockade	-4622
▁employed	-4623
▁nucleotides	-4624
▁assign	-4625
.5%	-4626
gest	-4627
acrylamide	-4628
ows	-4629
otypes	-4630
ES	-4631
▁oxidase	-4632
oxin	-4633
▁efficiency	-4634
▁initially	-4635
▁aor	-4636
pler	-4637
▁top	-4638
factory	-4639
▁pairs	-4640
▁homologous	-4641
etic	-4642
▁inhibits	-4643
▁restricted	-4644
80	-4645
▁location	-4646
▁ovarian	-4647
▁500	-4648
▁know	-4649
▁docum	-4650
kinin	-4651
▁regulated	-4652
▁wide	-4653
▁organs	-4654
▁localization	-4655
PG	-4656
▁liter	-4657
▁Anti	-4658
▁needed	-4659
week	-4660
ymme	-4661
ervation	-4662
8-	-4663
azole	-4664
▁ventral	-4665
▁stro	-4666
▁profile	-4667
▁polymorph	-4668
onin	-4669
▁55	-4670
feron	-4671
embran	-4672
▁dynamic	-4673
greater	-4674
▁buffer	-4675
▁subject	-4676
▁begin	-4677
▁displayed	-4678
ferred	-4679
ER	-4680
▁diagnosed	-4681
▁Ap	-4682
▁middle	-4683
▁extrem	-4684
▁solutions	-4685
▁infil	-4686
▁transformation	-4687
hyde	-4688
▁300	-4689
dehyde	-4690
▁ACh	-4691
▁equilibrium	-4692
▁Serum	-4693
sal	-4694
▁While	-4695
load	-4696
▁95%	-4697
▁way	-4698
▁biosynthe	-4699
▁progression	-4700
▁depletion	-4701
▁computer	-4702
▁Some	-4703
flu	-4704
▁normally	-4705
uit	-4706
▁65	-4707
▁maintenance	-4708
▁presum	-4709
meth	-4710
response	-4711
▁adjacent	-4712
▁direction	-4713
▁compr	-4714
▁5,	-4715
ochem	-4716
▁fibr	-4717
▁ATPase	-4718
▁accel	-4719
3.	-4720
▁pump	-4721
▁immunoreactive	-4722
ror	-4723
▁evident	-4724
▁iod	-4725
▁carcinomas	-4726
▁endothelium	-4727
▁oes	-4728
▁carbon	-4729
▁deaths	-4730
▁ti	-4731
▁core	-4732
lined	-4733
▁placed	-4734
▁ADP	-4735
▁log	-4736
▁smoking	-4737
▁novel	-4738
ubation	-4739
▁HDL	-4740
▁imaging	-4741
▁ventricle	-4742
▁facilit	-4743
▁grown	-4744
▁always	-4745
▁oil	-4746
▁itself	-4747
▁simultaneously	-4748
▁pas	-4749
▁40%	-4750
▁vasodil	-4751
▁NE	-4752
▁allowed	-4753
▁80%	-4754
▁DR	-4755
kinase	-4756
avy	-4757
▁46	-4758
▁cortisol	-4759
▁typical	-4760
▁residual	-4761
]-	-4762
▁conversion	-4763
oconstric	-4764
eness	-4765
▁relev	-4766
▁concom	-4767
▁Each	-4768
▁circulation	-4769
insic	-4770
▁reductase	-4771
▁undergoing	-4772
ID	-4773
▁radiol	-4774
MS	-4775
▁reversible	-4776
▁optimal	-4777
▁muta	-4778
unced	-4779
dimensional	-4780
▁cytotoxicity	-4781
▁ranging	-4782
▁Dop	-4783
▁estradiol	-4784
▁microns	-4785
▁Per	-4786
▁reach	-4787
hr	-4788
antial	-4789
▁radioactivity	-4790
▁Par	-4791
▁domains	-4792
ema	-4793
▁conductance	-4794
aro	-4795
▁carotid	-4796
▁5'	-4797
▁yield	-4798
▁currents	-4799
▁Over	-4800
ipine	-4801
▁depressed	-4802
▁final	-4803
▁problem	-4804
trin	-4805
▁morphological	-4806
▁Exper	-4807
versely	-4808
derly	-4809
▁foc	-4810
oride	-4811
atri	-4812
▁Under	-4813
▁PRL	-4814
ulus	-4815
tamine	-4816
▁Cy	-4817
▁vec	-4818
▁transition	-4819
▁trypsin	-4820
▁alternative	-4821
▁Finally	-4822
aring	-4823
men	-4824
▁grade	-4825
vis	-4826
olute	-4827
▁derivatives	-4828
▁act	-4829
▁prono	-4830
▁concomitant	-4831
▁47	-4832
ofluores	-4833
▁MT	-4834
▁maturation	-4835
▁greatly	-4836
▁arrhy	-4837
▁Med	-4838
▁monitored	-4839
opic	-4840
▁linked	-4841
▁Km	-4842
azine	-4843
crimin	-4844
▁pronounced	-4845
ession	-4846
▁pass	-4847
▁morphine	-4848
ergen	-4849
▁reducing	-4850
▁fresh	-4851
▁follows	-4852
▁home	-4853
affinity	-4854
▁mixture	-4855
▁assum	-4856
▁dist	-4857
▁contractile	-4858
▁erythrocytes	-4859
▁abdominal	-4860
▁subjected	-4861
chain	-4862
▁diminished	-4863
oxide	-4864
▁volunteers	-4865
▁disturb	-4866
ostatin	-4867
luded	-4868
▁actu	-4869
▁acetate	-4870
▁IgA	-4871
▁Bi	-4872
▁spectrum	-4873
▁probes	-4874
▁sensory	-4875
▁requires	-4876
-12	-4877
aments	-4878
▁carbox	-4879
▁Gl	-4880
▁limb	-4881
▁fill	-4882
▁done	-4883
▁monocytes	-4884
tron	-4885
▁secreted	-4886
organ	-4887
ike	-4888
eptid	-4889
▁150	-4890
▁41	-4891
▁Thir	-4892
▁entr	-4893
▁agree	-4894
▁element	-4895
▁mitral	-4896
▁ke	-4897
▁run	-4898
oA	-4899
▁Des	-4900
▁selection	-4901
gra	-4902
▁efflux	-4903
▁BAL	-4904
rological	-4905
olved	-4906
▁absent	-4907
ense	-4908
▁ganglion	-4909
achid	-4910
oded	-4911
▁kinetic	-4912
▁score	-4913
▁leading	-4914
DC	-4915
uture	-4916
▁echocardi	-4917
▁advanced	-4918
athione	-4919
ayer	-4920
▁explained	-4921
▁aorta	-4922
▁glutamate	-4923
▁environment	-4924
▁cats	-4925
▁shorten	-4926
▁reports	-4927
-2,	-4928
▁pneumon	-4929
▁PMN	-4930
▁arth	-4931
HP	-4932
sA	-4933
ocarcin	-4934
▁elderly	-4935
▁susp	-4936
for	-4937
▁bic	-4938
▁frac	-4939
▁episodes	-4940
▁resection	-4941
▁scores	-4942
▁alveolar	-4943
▁1.3	-4944
▁Following	-4945
▁pel	-4946
▁circum	-4947
▁profiles	-4948
nd	-4949
▁exhibit	-4950
▁Fc	-4951
▁terminals	-4952
▁catalytic	-4953
▁discharge	-4954
toph	-4955
▁turnover	-4956
▁recurrence	-4957
▁(20	-4958
CH	-4959
▁serotonin	-4960
▁enzymatic	-4961
▁underlying	-4962
LDL	-4963
▁bond	-4964
▁airway	-4965
▁classified	-4966
ached	-4967
▁clone	-4968
▁strep	-4969
▁states	-4970
▁detect	-4971
▁regar	-4972
▁NaCl	-4973
▁trache	-4974
▁encoding	-4975
▁contractions	-4976
▁mucosal	-4977
▁phag	-4978
▁alkaline	-4979
▁rout	-4980
▁bands	-4981
▁access	-4982
ifferen	-4983
▁defects	-4984
▁temporal	-4985
▁PB	-4986
▁glands	-4987
ionine	-4988
teine	-4989
▁constants	-4990
ire	-4991
▁newborn	-4992
▁12-	-4993
asone	-4994
▁recipients	-4995
opressin	-4996
▁prognosis	-4997
GH	-4998
glyc	-4999
LISA	-5000
▁Compar	-5001
▁frequencies	-5002
▁limit	-5003
▁modification	-5004
▁hemorrh	-5005
gor	-5006
▁layers	-5007
▁pressures	-5008
▁synap	-5009
urrent	-5010
ledge	-5011
ronectin	-5012
nit	-5013
▁acetylcholine	-5014
▁LA	-5015
▁centr	-5016
gu	-5017
▁anat	-5018
▁substantial	-5019
▁reviewed	-5020
▁variations	-5021
aryn	-5022
▁drop	-5023
▁gain	-5024
▁composed	-5025
▁heavy	-5026
▁stem	-5027
▁granules	-5028
▁triglycer	-5029
testinal	-5030
▁comm	-5031
▁adverse	-5032
▁stability	-5033
▁NH	-5034
▁satur	-5035
▁signals	-5036
emi	-5037
▁56	-5038
-5)	-5039
▁pent	-5040
oplasty	-5041
▁contral	-5042
▁returned	-5043
▁carbohydrate	-5044
▁ye	-5045
anded	-5046
▁5%	-5047
▁lost	-5048
▁reference	-5049
▁explain	-5050
▁ane	-5051
teroids	-5052
enzyme	-5053
▁innerv	-5054
▁tachyc	-5055
▁abund	-5056
▁discrimin	-5057
▁ae	-5058
▁back	-5059
▁tetr	-5060
LT	-5061
▁fell	-5062
▁benef	-5063
▁counts	-5064
occus	-5065
▁glycos	-5066
+-	-5067
-19	-5068
▁advan	-5069
▁reflect	-5070
▁hex	-5071
▁Ab	-5072
▁absolute	-5073
▁bo	-5074
▁intestine	-5075
▁52	-5076
▁MR	-5077
rected	-5078
▁lipids	-5079
ics	-5080
▁detail	-5081
▁distributed	-5082
terase	-5083
▁stroke	-5084
rotic	-5085
▁CSF	-5086
▁eas	-5087
ucine	-5088
▁binds	-5089
▁exce	-5090
▁supernat	-5091
otomy	-5092
▁adi	-5093
eroxide	-5094
robic	-5095
125	-5096
▁cytosolic	-5097
▁exam	-5098
estern	-5099
▁persons	-5100
▁existence	-5101
▁hypertrophy	-5102
▁(12	-5103
▁pregnant	-5104
▁histological	-5105
vascular	-5106
▁phorbol	-5107
▁reson	-5108
▁genome	-5109
▁phospholipid	-5110
-3-	-5111
fil	-5112
ogens	-5113
▁traum	-5114
▁differed	-5115
▁recurrent	-5116
70	-5117
ople	-5118
▁move	-5119
semb	-5120
▁inters	-5121
▁athe	-5122
ecyl	-5123
poly	-5124
ulmonary	-5125
▁classes	-5126
ensitivity	-5127
▁lungs	-5128
▁summ	-5129
▁mammary	-5130
▁Type	-5131
▁phenomenon	-5132
▁GM	-5133
▁error	-5134
▁duct	-5135
▁behaviour	-5136
kines	-5137
amethasone	-5138
].	-5139
▁points	-5140
da	-5141
del	-5142
▁lec	-5143
▁GnRH	-5144
ophageal	-5145
lip	-5146
▁hypoxia	-5147
▁quin	-5148
▁prolactin	-5149
atinine	-5150
▁androgen	-5151
opa	-5152
throm	-5153
▁cytoplasm	-5154
/100	-5155
▁chest	-5156
▁cas	-5157
▁differentiated	-5158
olus	-5159
▁slic	-5160
▁aspir	-5161
▁varying	-5162
▁influx	-5163
draw	-5164
▁lymphoma	-5165
▁bul	-5166
▁counter	-5167
▁NP	-5168
▁antiserum	-5169
▁metastases	-5170
▁considerable	-5171
ometh	-5172
▁49	-5173
▁thrombin	-5174
▁Man	-5175
cor	-5176
▁myosin	-5177
ectomized	-5178
▁wound	-5179
▁metabolite	-5180
▁51	-5181
acyl	-5182
▁compare	-5183
▁thought	-5184
▁noradrenaline	-5185
renol	-5186
umerous	-5187
hex	-5188
sies	-5189
▁interf	-5190
▁AIDS	-5191
▁homogen	-5192
▁Di	-5193
▁conduction	-5194
▁Sever	-5195
▁2.0	-5196
▁coding	-5197
▁donors	-5198
▁ce	-5199
▁propranolol	-5200
▁glucagon	-5201
▁weights	-5202
rele	-5203
▁Doppler	-5204
▁elu	-5205
2),	-5206
lue	-5207
aves	-5208
▁educ	-5209
tiveness	-5210
▁newly	-5211
fection	-5212
▁surround	-5213
asing	-5214
NH	-5215
termin	-5216
▁embryonic	-5217
▁root	-5218
▁natri	-5219
operatively	-5220
▁colony	-5221
▁induces	-5222
▁contralateral	-5223
▁difficult	-5224
▁intrap	-5225
▁regimen	-5226
alin	-5227
here	-5228
▁ald	-5229
ened	-5230
alled	-5231
▁bleeding	-5232
▁24-	-5233
cardi	-5234
▁randomly	-5235
44	-5236
ML	-5237
▁tit	-5238
▁duoden	-5239
▁60%	-5240
▁nitrogen	-5241
immuno	-5242
450	-5243
ancies	-5244
▁impairment	-5245
embrane	-5246
RA	-5247
adily	-5248
▁once	-5249
oracic	-5250
▁wk	-5251
▁subsequently	-5252
dis	-5253
▁cirrh	-5254
▁thin	-5255
ranial	-5256
▁transcripts	-5257
▁literature	-5258
▁PTH	-5259
▁breath	-5260
▁extended	-5261
▁nutrition	-5262
▁CI	-5263
arr	-5264
▁survey	-5265
▁loop	-5266
▁towards	-5267
▁Other	-5268
▁glutathione	-5269
▁AT	-5270
▁amb	-5271
▁deep	-5272
▁depolarization	-5273
ospor	-5274
▁rose	-5275
▁bilateral	-5276
top	-5277
cm	-5278
versity	-5279
▁guan	-5280
▁IgE	-5281
▁seiz	-5282
▁Trans	-5283
▁responded	-5284
0,000	-5285
▁reticulum	-5286
axis	-5287
▁declined	-5288
▁pathogenesis	-5289
▁reverse	-5290
work	-5291
▁rejection	-5292
▁peroxidase	-5293
▁apical	-5294
▁leg	-5295
▁conserved	-5296
▁proved	-5297
▁proliferative	-5298
ograms	-5299
▁avoid	-5300
▁25%	-5301
▁deletion	-5302
▁immediate	-5303
▁coll	-5304
▁elimination	-5305
▁TA	-5306
icle	-5307
▁Ma	-5308
tization	-5309
▁regular	-5310
▁ER	-5311
▁MC	-5312
▁spe	-5313
▁attenuated	-5314
▁susceptibility	-5315
▁86	-5316
▁identification	-5317
▁digestion	-5318
▁Five	-5319
▁arteri	-5320
▁lamb	-5321
▁tumours	-5322
gent	-5323
unit	-5324
itable	-5325
▁yeast	-5326
glycerol	-5327
▁dosage	-5328
BM	-5329
actic	-5330
▁organization	-5331
imer	-5332
▁retention	-5333
RS	-5334
▁retinal	-5335
▁1.6	-5336
uria	-5337
▁knowledge	-5338
▁junction	-5339
oline	-5340
thym	-5341
▁motion	-5342
▁54	-5343
oradi	-5344
▁how	-5345
▁delay	-5346
▁(15	-5347
▁agreement	-5348
▁dod	-5349
▁beginning	-5350
▁vaccine	-5351
▁relationships	-5352
▁remission	-5353
▁epidermal	-5354
▁persistent	-5355
▁immunohist	-5356
▁fit	-5357
▁antigenic	-5358
▁1.7	-5359
ovirus	-5360
▁nodes	-5361
zing	-5362
achment	-5363
intestinal	-5364
oproterenol	-5365
ero	-5366
▁DM	-5367
independent	-5368
oll	-5369
▁evolution	-5370
▁extract	-5371
▁exclus	-5372
▁immunofluores	-5373
cribed	-5374
▁UV	-5375
▁ow	-5376
▁ET	-5377
▁paren	-5378
▁acetyl	-5379
▁anesthesia	-5380
▁putative	-5381
virus	-5382
▁activator	-5383
▁ventilation	-5384
ymptom	-5385
amines	-5386
▁1.4	-5387
▁flux	-5388
life	-5389
sk	-5390
▁ben	-5391
▁admission	-5392
▁uterine	-5393
phosphor	-5394
▁yielded	-5395
titial	-5396
▁Clin	-5397
▁mill	-5398
▁spectro	-5399
▁HT	-5400
roscop	-5401
aver	-5402
erating	-5403
▁stom	-5404
▁anaesthe	-5405
▁inst	-5406
plete	-5407
▁mRNAs	-5408
▁interferon	-5409
▁infused	-5410
▁tachycardia	-5411
▁practice	-5412
gely	-5413
▁enter	-5414
bular	-5415
▁Several	-5416
▁thickness	-5417
▁Blood	-5418
▁developmental	-5419
otropin	-5420
pyr	-5421
▁lowest	-5422
▁70%	-5423
glucose	-5424
▁ile	-5425
itory	-5426
▁input	-5427
▁Such	-5428
▁polypeptides	-5429
icine	-5430
▁proton	-5431
▁substances	-5432
ateg	-5433
▁orient	-5434
ped	-5435
▁protocol	-5436
tus	-5437
▁belie	-5438
arch	-5439
obarb	-5440
▁producing	-5441
▁glob	-5442
▁astro	-5443
▁microsomal	-5444
▁acqui	-5445
▁variability	-5446
▁largely	-5447
iety	-5448
▁viruses	-5449
▁spre	-5450
▁hydrogen	-5451
osts	-5452
▁social	-5453
▁positions	-5454
▁rein	-5455
▁metastatic	-5456
ively	-5457
▁plasmin	-5458
▁withdraw	-5459
▁instr	-5460
▁100%	-5461
▁monkeys	-5462
plants	-5463
▁capillary	-5464
▁microscopic	-5465
▁ages	-5466
▁kb	-5467
▁transloc	-5468
▁shape	-5469
taken	-5470
▁selectively	-5471
▁mononuclear	-5472
body	-5473
▁postnatal	-5474
obl	-5475
cAMP	-5476
▁understanding	-5477
abil	-5478
▁Be	-5479
inositol	-5480
sorption	-5481
acts	-5482
▁consisting	-5483
▁57	-5484
brain	-5485
vices	-5486
▁start	-5487
▁extraction	-5488
▁considerably	-5489
▁correlate	-5490
▁MHC	-5491
-15	-5492
▁correct	-5493
▁phases	-5494
▁NO	-5495
▁illness	-5496
▁transformed	-5497
month	-5498
▁spontaneously	-5499
immune	-5500
▁reacted	-5501
▁spectra	-5502
clerosis	-5503
▁intrinsic	-5504
educ	-5505
PI	-5506
▁peritoneal	-5507
▁arachid	-5508
▁quantif	-5509
▁tubular	-5510
▁hemoglobin	-5511
ontal	-5512
selec	-5513
▁disrup	-5514
▁cholinergic	-5515
▁Br	-5516
tents	-5517
21	-5518
▁count	-5519
▁determining	-5520
ifug	-5521
▁transpor	-5522
▁disorder	-5523
▁canc	-5524
▁stor	-5525
▁transm	-5526
▁homogene	-5527
after	-5528
2+,	-5529
abain	-5530
▁morb	-5531
▁ulcer	-5532
yle	-5533
▁members	-5534
▁stimulatory	-5535
acetate	-5536
oxygenase	-5537
▁solub	-5538
▁0.01	-5539
▁Acc	-5540
▁analysed	-5541
],	-5542
otypic	-5543
▁Cor	-5544
▁glycogen	-5545
▁cold	-5546
▁prospective	-5547
▁vasopressin	-5548
▁53	-5549
▁assayed	-5550
▁cycles	-5551
▁subgroup	-5552
4.	-5553
▁pseud	-5554
▁hypothalamic	-5555
▁Sch	-5556
▁coupled	-5557
▁flex	-5558
▁produces	-5559
▁ped	-5560
▁pancreas	-5561
▁myocardium	-5562
undred	-5563
▁keratin	-5564
idate	-5565
▁wt	-5566
▁make	-5567
▁dodecyl	-5568
▁attributed	-5569
▁exist	-5570
▁creatinine	-5571
▁labelled	-5572
▁coefficient	-5573
▁urea	-5574
SS	-5575
▁broad	-5576
▁distance	-5577
▁microsomes	-5578
▁simultaneous	-5579
▁consistently	-5580
uvate	-5581
son	-5582
▁mess	-5583
based	-5584
▁contents	-5585
chron	-5586
▁ple	-5587
▁SV	-5588
▁link	-5589
ley	-5590
▁domin	-5591
hour	-5592
▁epitopes	-5593
▁undertaken	-5594
▁compe	-5595
appa	-5596
athyroid	-5597
▁satis	-5598
▁commonly	-5599
inter	-5600
▁58	-5601
▁Based	-5602
dies	-5603
▁anesthetized	-5604
lytic	-5605
▁nicot	-5606
▁susceptible	-5607
▁contribution	-5608
▁latency	-5609
ll	-5610
▁center	-5611
▁hap	-5612
omethacin	-5613
▁biosynthesis	-5614
▁entry	-5615
▁slowly	-5616
rowth	-5617
▁phospholipase	-5618
PO	-5619
▁extra	-5620
▁obstruction	-5621
▁inflammation	-5622
alc	-5623
riched	-5624
▁assigned	-5625
▁pharmacokine	-5626
▁adequate	-5627
amycin	-5628
▁glucocortic	-5629
▁sil	-5630
▁migration	-5631
▁Elec	-5632
inephrine	-5633
▁lute	-5634
▁inactive	-5635
FP	-5636
athy	-5637
▁strateg	-5638
ctomy	-5639
olgi	-5640
▁suspension	-5641
nic	-5642
ophore	-5643
▁hypothalamus	-5644
oprec	-5645
▁protease	-5646
▁mode	-5647
▁portal	-5648
▁0.03	-5649
▁sole	-5650
▁tended	-5651
mm	-5652
ready	-5653
▁tail	-5654
▁minimum	-5655
▁manifest	-5656
▁CG	-5657
▁zinc	-5658
▁spermat	-5659
uli	-5660
sors	-5661
▁kidneys	-5662
▁HB	-5663
▁1.8	-5664
▁overl	-5665
▁protective	-5666
▁prognostic	-5667
siologic	-5668
▁numerous	-5669
ED	-5670
▁mast	-5671
45	-5672
▁rod	-5673
four	-5674
▁eyes	-5675
apamil	-5676
▁original	-5677
▁vasoconstric	-5678
▁monol	-5679
phenyl	-5680
▁AA	-5681
▁sucrose	-5682
2/	-5683
▁insuff	-5684
▁PKC	-5685
▁effectiveness	-5686
iability	-5687
▁decreasing	-5688
physiological	-5689
7-	-5690
▁images	-5691
▁accounted	-5692
nai	-5693
types	-5694
▁spati	-5695
▁onc	-5696
▁hair	-5697
▁spin	-5698
▁retained	-5699
amination	-5700
EF	-5701
▁ejection	-5702
▁storage	-5703
▁hydrophob	-5704
▁resto	-5705
▁discre	-5706
▁99	-5707
▁give	-5708
two	-5709
▁ionic	-5710
▁che	-5711
▁cho	-5712
▁angina	-5713
▁section	-5714
▁Studies	-5715
▁macrophage	-5716
▁posts	-5717
ophil	-5718
MDA	-5719
▁carry	-5720
ool	-5721
deficient	-5722
atically	-5723
▁cG	-5724
▁respective	-5725
▁dialysis	-5726
▁isolation	-5727
▁1:	-5728
-7)	-5729
▁progen	-5730
▁already	-5731
▁represents	-5732
encing	-5733
▁Is	-5734
+)	-5735
from	-5736
▁radioimmuno	-5737
▁extension	-5738
na	-5739
▁qual	-5740
▁Thirty	-5741
delta	-5742
▁surfaces	-5743
▁homology	-5744
iciently	-5745
▁Hyp	-5746
▁promin	-5747
▁3.5	-5748
▁resemb	-5749
▁[14	-5750
ering	-5751
▁saliv	-5752
▁competitive	-5753
IFN	-5754
▁axis	-5755
▁somatostatin	-5756
▁jud	-5757
▁dram	-5758
hion	-5759
▁SHR	-5760
▁pure	-5761
▁immunode	-5762
▁400	-5763
acting	-5764
▁hundred	-5765
▁statistical	-5766
▁Also	-5767
▁morbidity	-5768
▁aspects	-5769
▁verte	-5770
▁genomic	-5771
▁neutrophil	-5772
▁NS	-5773
▁sexual	-5774
hyper	-5775
▁parts	-5776
▁nar	-5777
▁59	-5778
▁movements	-5779
▁inges	-5780
oin	-5781
thmias	-5782
▁chamb	-5783
▁fibronectin	-5784
▁drin	-5785
alanine	-5786
▁accep	-5787
▁coupling	-5788
▁families	-5789
▁dexamethasone	-5790
enia	-5791
itch	-5792
ochemistry	-5793
thern	-5794
cessive	-5795
▁define	-5796
EV	-5797
▁Previous	-5798
▁assemb	-5799
▁essentially	-5800
▁true	-5801
▁-0.	-5802
clonal	-5803
▁embryo	-5804
▁conformation	-5805
▁depolar	-5806
▁(13	-5807
▁ANP	-5808
omers	-5809
▁reason	-5810
▁inositol	-5811
▁brady	-5812
▁Despite	-5813
odon	-5814
RT	-5815
▁plaque	-5816
oreceptor	-5817
thma	-5818
▁hamster	-5819
tituted	-5820
▁fashion	-5821
▁reading	-5822
inger	-5823
▁microtub	-5824
▁Eight	-5825
LL	-5826
-4)	-5827
▁temperatures	-5828
clic	-5829
▁efficient	-5830
▁(50	-5831
▁hCG	-5832
▁fron	-5833
▁64	-5834
▁excitatory	-5835
▁Neither	-5836
▁lymphoid	-5837
▁estimate	-5838
▁sources	-5839
▁ring	-5840
▁absorb	-5841
▁mutagen	-5842
AA	-5843
▁readily	-5844
▁Nine	-5845
▁fasting	-5846
trate	-5847
▁maintain	-5848
modulin	-5849
▁epinephrine	-5850
▁orth	-5851
oe	-5852
▁kind	-5853
ket	-5854
▁pene	-5855
▁incre	-5856
2+-	-5857
▁add	-5858
▁eosin	-5859
▁gall	-5860
▁shorter	-5861
▁Western	-5862
LH	-5863
▁New	-5864
tructural	-5865
▁oppos	-5866
▁strom	-5867
▁organisms	-5868
atest	-5869
illation	-5870
▁frame	-5871
▁ppm	-5872
▁laser	-5873
▁prostate	-5874
▁resonance	-5875
▁determinants	-5876
▁thal	-5877
glutinin	-5878
▁modulation	-5879
ymptomatic	-5880
▁fetuses	-5881
iary	-5882
atient	-5883
▁benign	-5884
▁isoproterenol	-5885
▁Similarly	-5886
▁obtain	-5887
▁diffusion	-5888
CoA	-5889
itus	-5890
▁blocking	-5891
▁az	-5892
ulose	-5893
▁superoxide	-5894
▁eluc	-5895
▁alteration	-5896
jun	-5897
▁PO	-5898
▁veh	-5899
▁growing	-5900
▁stimulating	-5901
▁mineral	-5902
cious	-5903
▁cost	-5904
▁adduc	-5905
▁AD	-5906
obacter	-5907
-60	-5908
tious	-5909
▁SR	-5910
▁PAF	-5911
thase	-5912
▁expressing	-5913
▁CF	-5914
.3%	-5915
eds	-5916
▁analogue	-5917
▁biopsies	-5918
ercul	-5919
kground	-5920
ibility	-5921
TC	-5922
▁equally	-5923
▁63	-5924
plate	-5925
anthine	-5926
▁initiated	-5927
lated	-5928
▁interstitial	-5929
▁astrocy	-5930
▁derivative	-5931
▁High	-5932
▁greatest	-5933
▁devi	-5934
onomic	-5935
.6%	-5936
▁PMA	-5937
▁height	-5938
mL	-5939
etitive	-5940
▁similarly	-5941
▁natriuretic	-5942
▁widely	-5943
/6	-5944
PL	-5945
pop	-5946
aemic	-5947
▁polar	-5948
▁confidence	-5949
▁concept	-5950
▁ips	-5951
▁joint	-5952
▁asthma	-5953
urys	-5954
▁accuracy	-5955
▁balance	-5956
▁rear	-5957
olone	-5958
▁cation	-5959
▁behavioral	-5960
tidine	-5961
▁0.05),	-5962
▁ket	-5963
encephal	-5964
▁fibrosis	-5965
▁involves	-5966
lact	-5967
▁lam	-5968
▁allows	-5969
▁documented	-5970
▁intervention	-5971
▁preoperative	-5972
▁intravenously	-5973
▁poorly	-5974
▁radiolab	-5975
24	-5976
▁workers	-5977
▁acidic	-5978
▁former	-5979
iatum	-5980
▁TRH	-5981
▁mothers	-5982
▁saturation	-5983
-17	-5984
▁objective	-5985
▁ELISA	-5986
▁investigations	-5987
▁HPV	-5988
usal	-5989
nucle	-5990
▁immunodef	-5991
▁affecting	-5992
▁extracted	-5993
▁melanoma	-5994
fused	-5995
▁(0.0	-5996
▁tube	-5997
▁environmental	-5998
▁Golgi	-5999
mitter	-6000
uppres	-6001
▁describe	-6002
▁normo	-6003
sulf	-6004
▁4)	-6005
▁1,25	-6006
▁aldosterone	-6007
▁7.	-6008
apped	-6009
▁cancers	-6010
▁lectin	-6011
isp	-6012
cephal	-6013
ars	-6014
▁slices	-6015
▁predictive	-6016
▁incorporated	-6017
ann	-6018
▁stere	-6019
▁ger	-6020
PP	-6021
▁NADP	-6022
dine	-6023
▁10,	-6024
fen	-6025
▁virtu	-6026
▁sched	-6027
▁hippocampus	-6028
▁depending	-6029
▁ge	-6030
ecal	-6031
otroph	-6032
▁presumably	-6033
VA	-6034
▁(+/-	-6035
▁epitope	-6036
icardi	-6037
▁border	-6038
▁HC	-6039
.7%	-6040
▁depends	-6041
▁None	-6042
▁characterize	-6043
IR	-6044
▁Col	-6045
▁synthase	-6046
ested	-6047
partate	-6048
▁utilization	-6049
epam	-6050
▁relevant	-6051
owel	-6052
▁plays	-6053
▁lesser	-6054
▁sulph	-6055
▁transcriptional	-6056
ifed	-6057
▁nasal	-6058
▁steps	-6059
▁Seven	-6060
▁reveal	-6061
▁defic	-6062
hood	-6063
▁lambda	-6064
▁solid	-6065
▁bund	-6066
phasic	-6067
▁synerg	-6068
▁restored	-6069
▁Significant	-6070
-4-	-6071
▁exclusively	-6072
SR	-6073
▁Hist	-6074
▁reag	-6075
▁receive	-6076
mor	-6077
▁catal	-6078
▁example	-6079
-30	-6080
bal	-6081
▁stomach	-6082
▁background	-6083
sil	-6084
▁pathological	-6085
yel	-6086
▁dup	-6087
▁67	-6088
itud	-6089
ders	-6090
▁uniform	-6091
▁constructed	-6092
▁dark	-6093
▁thymus	-6094
▁Hep	-6095
▁analges	-6096
▁cartil	-6097
▁yr	-6098
▁desc	-6099
ifedipine	-6100
▁(-	-6101
▁hor	-6102
▁HA	-6103
rever	-6104
ying	-6105
▁(14	-6106
ipitation	-6107
blind	-6108
▁carrier	-6109
▁pan	-6110
using	-6111
▁younger	-6112
▁independently	-6113
bloc	-6114
▁routine	-6115
▁emphas	-6116
▁1.9	-6117
▁rhythm	-6118
27	-6119
vol	-6120
▁prevention	-6121
FR	-6122
▁6,	-6123
▁acquired	-6124
▁future	-6125
▁cows	-6126
▁Pr	-6127
ier	-6128
▁biliary	-6129
▁sham	-6130
GT	-6131
37	-6132
▁Day	-6133
▁fluorescent	-6134
utyr	-6135
▁66	-6136
▁LC	-6137
▁Fif	-6138
▁meal	-6139
ocor	-6140
▁lysis	-6141
▁antisera	-6142
▁neurones	-6143
▁suppressor	-6144
▁peaks	-6145
▁erythrocyte	-6146
carinic	-6147
ss	-6148
▁questionnai	-6149
dial	-6150
back	-6151
▁afferent	-6152
▁prominent	-6153
5%)	-6154
▁brains	-6155
▁variant	-6156
▁pacing	-6157
▁implanted	-6158
esium	-6159
▁1.1	-6160
▁recommended	-6161
rene	-6162
▁Mn	-6163
▁phosphatidyl	-6164
▁bolus	-6165
ises	-6166
▁ANF	-6167
▁entero	-6168
▁progressively	-6169
▁applic	-6170
▁arginine	-6171
quin	-6172
▁obese	-6173
▁TPA	-6174
▁Sout	-6175
▁199	-6176
▁cytosol	-6177
▁insertion	-6178
▁injuries	-6179
▁comparing	-6180
itin	-6181
▁moder	-6182
▁prosthe	-6183
▁substantially	-6184
ls	-6185
▁Sh	-6186
▁dent	-6187
▁contin	-6188
adm	-6189
.4%	-6190
▁doub	-6191
▁trauma	-6192
rophy	-6193
▁probability	-6194
▁adenocarcin	-6195
88	-6196
▁indomethacin	-6197
▁upstream	-6198
▁hemorrhage	-6199
▁nal	-6200
▁repeat	-6201
▁histologic	-6202
▁correlations	-6203
otting	-6204
loon	-6205
▁cen	-6206
▁matched	-6207
▁(11	-6208
▁potentially	-6209
▁discon	-6210
▁interest	-6211
ropyl	-6212
▁experienced	-6213
▁gradually	-6214
▁neg	-6215
▁vehicle	-6216
▁chicken	-6217
ietic	-6218
tophan	-6219
▁inferior	-6220
▁consists	-6221
▁therm	-6222
atch	-6223
omat	-6224
tition	-6225
▁completed	-6226
',	-6227
GE	-6228
▁(16	-6229
▁plan	-6230
▁femoral	-6231
▁germ	-6232
fed	-6233
▁requ	-6234
▁consequence	-6235
.8%	-6236
pig	-6237
itrate	-6238
▁impact	-6239
▁brom	-6240
▁dental	-6241
▁rhe	-6242
▁suitable	-6243
▁phospholipids	-6244
▁corne	-6245
▁image	-6246
▁concerning	-6247
inhib	-6248
▁Chan	-6249
▁[125	-6250
ullary	-6251
▁polyclonal	-6252
/3	-6253
BS	-6254
chlor	-6255
▁hydrophobic	-6256
56	-6257
irc	-6258
▁CNS	-6259
▁stabil	-6260
▁(30	-6261
▁separation	-6262
▁fish	-6263
platin	-6264
▁analogues	-6265
tec	-6266
isation	-6267
ga	-6268
▁SO	-6269
▁supported	-6270
▁substitution	-6271
▁250	-6272
▁ouabain	-6273
uts	-6274
▁attachment	-6275
▁Sur	-6276
weight	-6277
izations	-6278
▁compens	-6279
▁prophyl	-6280
▁neck	-6281
ulative	-6282
▁introduced	-6283
▁HSV	-6284
▁SDS	-6285
▁exists	-6286
▁lens	-6287
ev	-6288
▁isot	-6289
CS	-6290
obarbital	-6291
PE	-6292
nis	-6293
lished	-6294
PT	-6295
roz	-6296
▁eti	-6297
▁soft	-6298
▁indices	-6299
▁immature	-6300
▁leukocytes	-6301
▁Sec	-6302
▁1%	-6303
ude	-6304
▁aneurys	-6305
dr	-6306
▁never	-6307
BG	-6308
▁conscious	-6309
▁operative	-6310
▁estimates	-6311
▁msec	-6312
ifications	-6313
ulla	-6314
▁retina	-6315
▁resolution	-6316
▁IU	-6317
hep	-6318
▁hum	-6319
ffe	-6320
▁.00	-6321
saccharide	-6322
-13	-6323
tomy	-6324
amous	-6325
with	-6326
▁autoradi	-6327
▁follicular	-6328
▁Pur	-6329
ields	-6330
▁presentation	-6331
▁62	-6332
astom	-6333
▁mann	-6334
▁(0.1	-6335
▁eliminated	-6336
▁ammon	-6337
▁ret	-6338
▁vector	-6339
▁Ep	-6340
▁positively	-6341
oluble	-6342
▁isoform	-6343
▁precursors	-6344
bodies	-6345
factor	-6346
▁diffuse	-6347
▁activate	-6348
▁canine	-6349
cies	-6350
▁involve	-6351
NO	-6352
kephal	-6353
ination	-6354
▁cum	-6355
▁transplant	-6356
HD	-6357
▁pharmacological	-6358
▁orientation	-6359
lox	-6360
▁arm	-6361
▁asymptomatic	-6362
orphin	-6363
▁matter	-6364
▁fixation	-6365
formed	-6366
▁10(-6)	-6367
iotics	-6368
▁antibiotic	-6369
galact	-6370
▁7,	-6371
▁variants	-6372
kine	-6373
▁charge	-6374
arter	-6375
▁molar	-6376
.2%	-6377
▁phosphorylated	-6378
▁adrenergic	-6379
▁spatial	-6380
▁tone	-6381
▁disappear	-6382
era	-6383
▁bp	-6384
hydr	-6385
▁196	-6386
▁display	-6387
thmic	-6388
uting	-6389
▁excell	-6390
▁75%	-6391
▁forsk	-6392
maximal	-6393
▁lowered	-6394
▁hyperp	-6395
rief	-6396
▁sci	-6397
▁follicles	-6398
eptidase	-6399
▁regarding	-6400
▁phenyl	-6401
▁sac	-6402
ocellular	-6403
▁forskolin	-6404
▁gp	-6405
▁trip	-6406
▁opioid	-6407
▁degeneration	-6408
▁Whe	-6409
▁replaced	-6410
▁10(6)	-6411
insulin	-6412
labelled	-6413
tons	-6414
▁ipsilateral	-6415
▁VO	-6416
▁optic	-6417
▁arti	-6418
▁0.01),	-6419
inv	-6420
umes	-6421
▁tom	-6422
urons	-6423
▁oocytes	-6424
(2+	-6425
▁Vmax	-6426
enteric	-6427
▁represented	-6428
▁conformational	-6429
-[	-6430
▁CS	-6431
▁Reg	-6432
▁ligands	-6433
▁combinations	-6434
▁96	-6435
▁(18	-6436
▁radiotherapy	-6437
▁immunobl	-6438
phyloc	-6439
▁chond	-6440
▁killed	-6441
▁accurate	-6442
tetr	-6443
▁clamp	-6444
▁wash	-6445
▁coag	-6446
▁arachidonic	-6447
▁distinguish	-6448
▁atheros	-6449
▁categor	-6450
▁choice	-6451
▁refrac	-6452
▁heterogeneity	-6453
▁slower	-6454
53	-6455
▁effectively	-6456
piration	-6457
ference	-6458
Phe	-6459
ilep	-6460
▁Experim	-6461
tries	-6462
▁congen	-6463
▁Gy	-6464
▁ide	-6465
eling	-6466
mobil	-6467
▁dissec	-6468
titution	-6469
▁excellent	-6470
/10	-6471
arbox	-6472
▁longitud	-6473
idin	-6474
tages	-6475
▁qualit	-6476
liter	-6477
▁blue	-6478
▁just	-6479
28	-6480
thrombin	-6481
▁opposite	-6482
atum	-6483
▁filaments	-6484
▁nam	-6485
▁BALB	-6486
▁edema	-6487
▁cut	-6488
▁serine	-6489
ifugation	-6490
illus	-6491
▁Biol	-6492
▁translation	-6493
fr	-6494
▁SA	-6495
▁sem	-6496
reactive	-6497
▁subpop	-6498
▁PE	-6499
ulates	-6500
GM	-6501
deoxy	-6502
▁angioplasty	-6503
▁requirements	-6504
trus	-6505
omon	-6506
▁epidemi	-6507
5.	-6508
olateral	-6509
su	-6510
tumor	-6511
▁slope	-6512
▁setting	-6513
▁Total	-6514
▁duc	-6515
▁favor	-6516
▁scanning	-6517
▁living	-6518
▁Northern	-6519
▁hind	-6520
▁stop	-6521
29	-6522
▁synthetase	-6523
▁cirrhosis	-6524
spectively	-6525
queous	-6526
▁dense	-6527
▁premature	-6528
▁1988	-6529
▁oxidative	-6530
iring	-6531
▁muscarinic	-6532
▁classification	-6533
▁68	-6534
▁lumen	-6535
▁hemo	-6536
▁coval	-6537
▁verapamil	-6538
ariate	-6539
phil	-6540
▁intraper	-6541
▁own	-6542
incubation	-6543
▁pate	-6544
▁sial	-6545
ylline	-6546
▁passive	-6547
opoietic	-6548
▁dimension	-6549
▁reductions	-6550
▁past	-6551
▁Human	-6552
▁balloon	-6553
hea	-6554
ropine	-6555
yst	-6556
▁burst	-6557
▁pulses	-6558
▁autologous	-6559
▁demonstrates	-6560
▁DO	-6561
▁CCK	-6562
▁kappa	-6563
▁ganglia	-6564
▁recordings	-6565
earing	-6566
▁orally	-6567
▁arrhythmias	-6568
▁reliable	-6569
▁inhibiting	-6570
-16	-6571
▁magnetic	-6572
▁descending	-6573
▁sph	-6574
▁Mon	-6575
▁SEM	-6576
aminergic	-6577
▁hors	-6578
▁causing	-6579
▁HR	-6580
▁spectroscop	-6581
▁Inter	-6582
▁SE	-6583
▁fibrinogen	-6584
ejun	-6585
five	-6586
▁published	-6587
comp	-6588
▁immunoprec	-6589
ayers	-6590
ansion	-6591
▁AV	-6592
iversity	-6593
▁cartilage	-6594
alth	-6595
▁angiography	-6596
oreactive	-6597
▁hormonal	-6598
▁chromosomes	-6599
▁compartment	-6600
▁attempt	-6601
ocardial	-6602
▁porcine	-6603
▁mem	-6604
▁idi	-6605
lycemia	-6606
aches	-6607
▁immunization	-6608
▁bronchial	-6609
▁AR	-6610
▁focal	-6611
▁End	-6612
▁enl	-6613
-3)	-6614
▁effector	-6615
isk	-6616
▁fibroblast	-6617
▁sequential	-6618
tead	-6619
8+	-6620
▁7-	-6621
forming	-6622
rectomy	-6623
▁loading	-6624
acetic	-6625
▁glycoproteins	-6626
▁isch	-6627
▁EEG	-6628
▁patch	-6629
▁irradiated	-6630
▁organic	-6631
▁discontinu	-6632
vul	-6633
accharides	-6634
▁exception	-6635
▁0.001),	-6636
▁cef	-6637
toxin	-6638
-6-	-6639
clin	-6640
version	-6641
▁nifedipine	-6642
▁superficial	-6643
erents	-6644
▁excluded	-6645
▁replic	-6646
enes	-6647
▁mug	-6648
▁1000	-6649
▁encoded	-6650
omorph	-6651
rangement	-6652
▁physicians	-6653
ras	-6654
▁Neu	-6655
▁electrocardi	-6656
▁relapse	-6657
▁shortening	-6658
▁pretreated	-6659
▁CL	-6660
▁TCR	-6661
resting	-6662
▁anastom	-6663
▁striatum	-6664
▁infectious	-6665
Ar	-6666
▁endotoxin	-6667
▁PI	-6668
▁fields	-6669
▁faster	-6670
▁aw	-6671
▁beats	-6672
▁chloro	-6673
▁dry	-6674
▁memory	-6675
▁thoracic	-6676
istar	-6677
tivation	-6678
oval	-6679
-8)	-6680
iminary	-6681
▁thereby	-6682
▁symptomatic	-6683
▁sn	-6684
▁Hb	-6685
ogenetic	-6686
otone	-6687
▁cluster	-6688
▁1987	-6689
cyt	-6690
▁serve	-6691
▁endometr	-6692
▁tubercul	-6693
▁designated	-6694
▁3.0	-6695
▁irrever	-6696
times	-6697
▁lear	-6698
▁neurotrans	-6699
▁implantation	-6700
▁withdrawal	-6701
▁pup	-6702
▁interact	-6703
▁deposition	-6704
silon	-6705
▁scale	-6706
▁oxy	-6707
▁sig	-6708
▁10(-5)	-6709
▁minute	-6710
▁examinations	-6711
▁20-	-6712
▁fever	-6713
down	-6714
tran	-6715
apan	-6716
▁CTL	-6717
▁GSH	-6718
NT	-6719
▁thi	-6720
▁spread	-6721
ministration	-6722
▁healing	-6723
▁utilized	-6724
▁(4)	-6725
▁(0.5	-6726
▁narrow	-6727
tine	-6728
antigen	-6729
ivered	-6730
▁TH	-6731
▁reflected	-6732
▁instrum	-6733
xt	-6734
Nase	-6735
subunit	-6736
▁mobility	-6737
+/	-6738
acks	-6739
epine	-6740
osidase	-6741
▁cavity	-6742
▁plasminogen	-6743
cells	-6744
▁squamous	-6745
▁steroids	-6746
▁mim	-6747
▁striking	-6748
▁4.5	-6749
▁regardless	-6750
thel	-6751
▁pic	-6752
▁compli	-6753
ithelial	-6754
▁AVP	-6755
kephalin	-6756
▁precipit	-6757
three	-6758
▁elong	-6759
▁extremely	-6760
approximately	-6761
off	-6762
▁acyl	-6763
peptide	-6764
▁depos	-6765
2+.	-6766
▁clar	-6767
▁tRNA	-6768
▁choline	-6769
▁filling	-6770
▁remark	-6771
▁Sal	-6772
▁what	-6773
▁Their	-6774
itor	-6775
▁outs	-6776
oag	-6777
▁requirement	-6778
Leu	-6779
▁intrav	-6780
▁cysteine	-6781
▁anion	-6782
▁benefit	-6783
▁endocrine	-6784
▁deficient	-6785
▁stimulates	-6786
▁attention	-6787
▁dye	-6788
▁titers	-6789
▁dendritic	-6790
▁hypers	-6791
CAM	-6792
▁modify	-6793
▁expansion	-6794
IF	-6795
▁fmol	-6796
irst	-6797
▁room	-6798
▁Li	-6799
▁thyro	-6800
▁immunity	-6801
▁(17	-6802
nitro	-6803
▁axon	-6804
▁Data	-6805
patient	-6806
▁unilateral	-6807
▁ju	-6808
▁infusions	-6809
NG	-6810
▁teeth	-6811
▁dominant	-6812
▁myelin	-6813
▁volumes	-6814
▁sk	-6815
ocomp	-6816
▁immunological	-6817
▁arom	-6818
ester	-6819
▁gels	-6820
opathic	-6821
▁Hospital	-6822
▁community	-6823
▁projections	-6824
phic	-6825
trated	-6826
▁medulla	-6827
▁reser	-6828
▁atropine	-6829
▁placental	-6830
ld	-6831
▁61	-6832
acid	-6833
DO	-6834
▁IP	-6835
▁task	-6836
▁glycine	-6837
▁Cu	-6838
▁stud	-6839
▁find	-6840
▁delivered	-6841
26	-6842
▁cocaine	-6843
▁Ten	-6844
▁stret	-6845
atation	-6846
▁brief	-6847
ygous	-6848
▁peri	-6849
▁Cells	-6850
▁2.3	-6851
▁ECG	-6852
▁bab	-6853
▁Chem	-6854
▁rheum	-6855
▁splic	-6856
▁quite	-6857
▁parental	-6858
▁According	-6859
4).	-6860
divid	-6861
▁currently	-6862
▁95	-6863
▁PV	-6864
ury	-6865
▁disulf	-6866
▁Mic	-6867
▁aqueous	-6868
▁proteoglyc	-6869
▁admitted	-6870
▁virtually	-6871
achol	-6872
usted	-6873
chymal	-6874
ressed	-6875
▁bearing	-6876
▁addi	-6877
▁fewer	-6878
▁mediate	-6879
▁tubules	-6880
formation	-6881
▁subcutaneous	-6882
▁lamina	-6883
▁normotensive	-6884
▁ones	-6885
▁para	-6886
▁tendency	-6887
▁Pa	-6888
▁kne	-6889
▁vacu	-6890
▁serious	-6891
▁education	-6892
▁caudal	-6893
▁leak	-6894
tussis	-6895
▁hippocampal	-6896
----	-6897
▁people	-6898
▁continuously	-6899
▁antibiotics	-6900
++	-6901
▁perman	-6902
▁cutaneous	-6903
▁7.5	-6904
▁oligos	-6905
ensitization	-6906
.1%	-6907
▁bowel	-6908
▁Dec	-6909
ophag	-6910
▁allogra	-6911
▁surrounding	-6912
▁15%	-6913
▁influenz	-6914
kes	-6915
pes	-6916
▁similarity	-6917
.9%	-6918
▁Clinical	-6919
coun	-6920
▁limits	-6921
▁calf	-6922
▁belong	-6923
▁serial	-6924
▁persisted	-6925
▁testicular	-6926
▁anae	-6927
▁cros	-6928
▁inotropic	-6929
▁transfusion	-6930
▁SS	-6931
kb	-6932
43	-6933
arbonate	-6934
▁calmodulin	-6935
▁regimens	-6936
▁accumulated	-6937
▁translocation	-6938
▁occasion	-6939
▁implications	-6940
oxone	-6941
press	-6942
▁Here	-6943
▁mobil	-6944
icular	-6945
▁purification	-6946
myc	-6947
▁coord	-6948
uminal	-6949
▁KCl	-6950
▁subset	-6951
▁interc	-6952
▁chromosomal	-6953
▁cytokines	-6954
imb	-6955
▁partly	-6956
▁Comparison	-6957
▁livers	-6958
mac	-6959
▁Changes	-6960
▁perc	-6961
thymidine	-6962
▁MAP	-6963
▁69	-6964
entan	-6965
▁lipoproteins	-6966
ME	-6967
▁reduces	-6968
▁identi	-6969
▁clinic	-6970
▁envelop	-6971
▁transfected	-6972
▁fund	-6973
atible	-6974
ced	-6975
▁explan	-6976
▁Pl	-6977
ergency	-6978
▁coinc	-6979
▁averaged	-6980
effective	-6981
▁unable	-6982
▁luminal	-6983
▁aud	-6984
▁chamber	-6985
▁abundant	-6986
ogeneic	-6987
▁inward	-6988
▁barrier	-6989
NC	-6990
▁2.7	-6991
iven	-6992
▁Meas	-6993
▁motility	-6994
▁breathing	-6995
rd	-6996
▁2%	-6997
▁Wistar	-6998
ifferenti	-6999
▁augmented	-7000
▁longitudinal	-7001
▁postsynaptic	-7002
▁granule	-7003
▁services	-7004
▁safety	-7005
0-	-7006
3%)	-7007
▁arrest	-7008
▁inducing	-7009
▁availability	-7010
ori	-7011
enta	-7012
▁ent	-7013
▁drinking	-7014
▁hypog	-7015
theless	-7016
alse	-7017
▁stain	-7018
▁unrelated	-7019
▁targets	-7020
▁acts	-7021
▁react	-7022
▁attached	-7023
hern	-7024
illi	-7025
▁proportional	-7026
▁(25	-7027
▁supply	-7028
oretic	-7029
▁plex	-7030
omotor	-7031
▁take	-7032
isons	-7033
▁dilution	-7034
▁glial	-7035
▁assembly	-7036
▁successfully	-7037
eak	-7038
▁principal	-7039
2318	-7040
▁76	-7041
▁78	-7042
▁coh	-7043
posure	-7044
▁neurological	-7045
▁nig	-7046
▁arthritis	-7047
▁lumb	-7048
▁NADPH	-7049
▁ann	-7050
regulation	-7051
▁VP	-7052
▁draw	-7053
▁determinant	-7054
▁77	-7055
Me	-7056
ellum	-7057
oderm	-7058
olism	-7059
▁Inhib	-7060
▁advantage	-7061
rologic	-7062
▁leukocyte	-7063
matched	-7064
▁calves	-7065
orr	-7066
▁BM	-7067
Gl	-7068
▁Within	-7069
uth	-7070
linking	-7071
▁galact	-7072
▁carboxyl	-7073
▁route	-7074
▁easily	-7075
▁sampling	-7076
▁lethal	-7077
▁pyruvate	-7078
luding	-7079
motic	-7080
▁libr	-7081
polyacrylamide	-7082
▁indicator	-7083
▁SL	-7084
▁Control	-7085
▁analogs	-7086
heres	-7087
▁cyst	-7088
▁motone	-7089
hypertensive	-7090
▁Leu	-7091
▁1989	-7092
▁converted	-7093
▁magnesium	-7094
▁0,	-7095
▁public	-7096
▁biphasic	-7097
otri	-7098
iper	-7099
▁Forty	-7100
▁tight	-7101
▁preferentially	-7102
22	-7103
▁potentiated	-7104
▁mening	-7105
din	-7106
▁return	-7107
▁compliance	-7108
▁epilep	-7109
fol	-7110
▁RF	-7111
roc	-7112
▁85	-7113
▁neuron	-7114
▁immunized	-7115
occal	-7116
electro	-7117
NK	-7118
andid	-7119
▁next	-7120
▁taking	-7121
▁mapping	-7122
uvant	-7123
▁disper	-7124
▁monkey	-7125
▁real	-7126
electric	-7127
selective	-7128
▁invasive	-7129
venous	-7130
▁afferents	-7131
▁thrombosis	-7132
estis	-7133
▁Dis	-7134
▁Americ	-7135
▁transferred	-7136
rozen	-7137
▁suspected	-7138
certain	-7139
Tc	-7140
dibular	-7141
▁acting	-7142
topril	-7143
▁mostly	-7144
Se	-7145
size	-7146
▁ect	-7147
▁immobil	-7148
▁NMDA	-7149
romy	-7150
ocyan	-7151
▁Compared	-7152
▁reversal	-7153
▁predict	-7154
▁foot	-7155
TNF	-7156
bre	-7157
ureus	-7158
▁fibre	-7159
▁trend	-7160
▁plant	-7161
rection	-7162
▁surviv	-7163
▁3.2	-7164
▁2.4	-7165
▁lib	-7166
ophylline	-7167
▁hyperplasia	-7168
▁CRF	-7169
▁jejun	-7170
fib	-7171
tructive	-7172
iasis	-7173
▁fourth	-7174
▁messen	-7175
▁osc	-7176
itals	-7177
jug	-7178
point	-7179
alk	-7180
yond	-7181
▁heme	-7182
ancing	-7183
▁served	-7184
aturated	-7185
pur	-7186
▁surge	-7187
▁Kd	-7188
▁thermal	-7189
3).	-7190
▁network	-7191
▁20.	-7192
▁circular	-7193
ads	-7194
MO	-7195
▁inhal	-7196
omical	-7197
no	-7198
usc	-7199
▁shifted	-7200
ffeine	-7201
▁monomer	-7202
▁situation	-7203
acylglycerol	-7204
▁scan	-7205
▁oligonucle	-7206
86	-7207
▁endoscop	-7208
▁enriched	-7209
NE	-7210
oxid	-7211
▁seas	-7212
▁firing	-7213
▁lobe	-7214
ept	-7215
▁sud	-7216
▁Health	-7217
tability	-7218
odal	-7219
elve	-7220
▁detailed	-7221
▁nonspecific	-7222
▁73	-7223
▁roles	-7224
▁operated	-7225
▁outside	-7226
▁parameter	-7227
▁PP	-7228
▁NGF	-7229
releasing	-7230
▁includes	-7231
▁supplemented	-7232
▁plateau	-7233
▁generate	-7234
haps	-7235
▁incom	-7236
iral	-7237
▁papill	-7238
▁proteolytic	-7239
-5-	-7240
▁ionophore	-7241
▁inoculation	-7242
▁sediment	-7243
▁max	-7244
▁dendrites	-7245
atine	-7246
oxane	-7247
▁processed	-7248
(2+)-	-7249
▁chromatin	-7250
icos	-7251
▁HPLC	-7252
▁cumulative	-7253
▁achieve	-7254
ophy	-7255
▁VIP	-7256
▁identity	-7257
bearing	-7258
▁Overall	-7259
aret	-7260
▁regulate	-7261
ocular	-7262
non	-7263
trop	-7264
▁30-	-7265
▁depth	-7266
▁intensive	-7267
▁crude	-7268
▁expon	-7269
▁asymme	-7270
PSP	-7271
▁survived	-7272
▁unus	-7273
▁mell	-7274
▁accom	-7275
▁arch	-7276
▁septal	-7277
bac	-7278
▁records	-7279
▁started	-7280
▁kil	-7281
▁(5-	-7282
▁bed	-7283
ospitals	-7284
gal	-7285
▁OK	-7286
lastoma	-7287
▁regurg	-7288
▁meta	-7289
aria	-7290
▁infant	-7291
▁disappeared	-7292
azol	-7293
▁noc	-7294
▁abnormality	-7295
▁ethyl	-7296
▁cerebellar	-7297
▁Cd	-7298
rated	-7299
▁chemot	-7300
▁pertussis	-7301
▁IR	-7302
▁exon	-7303
▁cond	-7304
bis	-7305
▁bath	-7306
▁duodenal	-7307
oate	-7308
▁decay	-7309
▁aureus	-7310
▁feature	-7311
gue	-7312
IGF	-7313
▁too	-7314
six	-7315
▁FA	-7316
▁Specific	-7317
▁App	-7318
▁key	-7319
semin	-7320
▁ME	-7321
▁Sup	-7322
▁severely	-7323
▁colonies	-7324
▁starting	-7325
▁closed	-7326
▁micron	-7327
-40	-7328
▁loci	-7329
▁questionnaire	-7330
osamine	-7331
▁copper	-7332
▁mental	-7333
▁sudden	-7334
▁fibrillation	-7335
ief	-7336
▁NMR	-7337
igaret	-7338
▁fif	-7339
▁hab	-7340
occi	-7341
otin	-7342
sets	-7343
▁Mul	-7344
▁appar	-7345
▁terminus	-7346
turally	-7347
▁defective	-7348
opoly	-7349
▁epsilon	-7350
▁beneficial	-7351
▁functionally	-7352
▁disappearance	-7353
▁myc	-7354
▁mellitus	-7355
▁thereafter	-7356
▁lyso	-7357
tally	-7358
▁wean	-7359
uary	-7360
▁AM	-7361
▁seemed	-7362
▁seizures	-7363
▁15-	-7364
ozo	-7365
-11	-7366
▁minus	-7367
▁heteroz	-7368
▁cyclospor	-7369
▁depr	-7370
▁lysine	-7371
▁carbachol	-7372
▁phosphodies	-7373
▁apparatus	-7374
▁HL	-7375
▁triglyceride	-7376
▁programs	-7377
▁live	-7378
pharose	-7379
▁([	-7380
▁glutamine	-7381
▁artic	-7382
▁difficul	-7383
tives	-7384
▁testis	-7385
▁metastasis	-7386
▁autoimmune	-7387
atr	-7388
▁1986	-7389
Gly	-7390
▁mis	-7391
▁sugar	-7392
▁cGMP	-7393
▁nursing	-7394
▁feedback	-7395
aped	-7396
rown	-7397
▁10(-7)	-7398
▁refractory	-7399
▁GP	-7400
▁restor	-7401
▁lacking	-7402
adenosine	-7403
▁glycerol	-7404
▁EBV	-7405
adian	-7406
▁oxide	-7407
▁eggs	-7408
▁Many	-7409
zymes	-7410
▁autom	-7411
▁gradients	-7412
▁Recent	-7413
▁interpreted	-7414
▁congenital	-7415
▁cyan	-7416
▁gestational	-7417
arrhy	-7418
▁olfactory	-7419
▁3.1	-7420
▁invasion	-7421
▁safe	-7422
etween	-7423
▁propose	-7424
▁homogenates	-7425
▁zero	-7426
2%)	-7427
▁PGF	-7428
▁graf	-7429
▁antagonized	-7430
pH	-7431
▁mimic	-7432
▁quantitatively	-7433
▁DH	-7434
▁NF	-7435
▁computed	-7436
▁NT	-7437
orec	-7438
▁0.25	-7439
▁providing	-7440
▁implicated	-7441
▁diver	-7442
▁gonadotropin	-7443
▁false	-7444
▁amplification	-7445
▁assumed	-7446
▁hypotension	-7447
▁basement	-7448
Arg	-7449
▁deterior	-7450
▁approaches	-7451
icients	-7452
▁MS	-7453
mann	-7454
▁representing	-7455
diastolic	-7456
rib	-7457
▁adaptation	-7458
▁becomes	-7459
▁tryptophan	-7460
▁Binding	-7461
elen	-7462
stimulating	-7463
▁fluc	-7464
▁projection	-7465
asic	-7466
dal	-7467
▁encoun	-7468
5),	-7469
▁helper	-7470
timal	-7471
▁pall	-7472
▁adherence	-7473
▁materials	-7474
▁thymidine	-7475
▁74	-7476
▁conditioned	-7477
8%)	-7478
▁recr	-7479
0)	-7480
▁Ki	-7481
roid	-7482
what	-7483
▁amn	-7484
teral	-7485
▁clonidine	-7486
▁Mo	-7487
itonin	-7488
▁killing	-7489
oactive	-7490
▁beyond	-7491
lig	-7492
▁splenic	-7493
dia	-7494
flex	-7495
UC	-7496
▁cisplatin	-7497
▁working	-7498
▁junctions	-7499
▁pi	-7500
openia	-7501
▁auditory	-7502
onuclease	-7503
▁rough	-7504
▁countries	-7505
▁amp	-7506
▁allele	-7507
▁interview	-7508
▁distinguished	-7509
▁heterogeneous	-7510
▁hospitals	-7511
omonas	-7512
▁centers	-7513
▁bicarbonate	-7514
7%)	-7515
▁laminin	-7516
▁fractional	-7517
▁calor	-7518
▁variance	-7519
▁83	-7520
▁gli	-7521
phosphamide	-7522
april	-7523
oration	-7524
▁intermedi	-7525
▁8,	-7526
▁spectroscopy	-7527
La	-7528
-3,	-7529
▁ultrasound	-7530
▁inactivated	-7531
▁particle	-7532
▁glucocorticoid	-7533
iliary	-7534
▁emergency	-7535
▁classical	-7536
▁incomplete	-7537
▁unde	-7538
▁Its	-7539
▁theory	-7540
operox	-7541
Ala	-7542
▁corticosterone	-7543
riers	-7544
▁moderately	-7545
▁supernatant	-7546
tol	-7547
otoxic	-7548
olipoprotein	-7549
▁RV	-7550
loxacin	-7551
▁islets	-7552
1/2	-7553
▁lysosomal	-7554
▁termination	-7555
▁displacement	-7556
▁MI	-7557
▁map	-7558
▁somatic	-7559
jected	-7560
▁cerebellum	-7561
▁inoculated	-7562
▁PF	-7563
▁additive	-7564
▁2.6	-7565
▁frontal	-7566
helin	-7567
▁Sta	-7568
▁requiring	-7569
▁hydroxylase	-7570
▁5.5	-7571
▁school	-7572
▁synchron	-7573
Group	-7574
opausal	-7575
▁Dep	-7576
▁aging	-7577
▁parents	-7578
▁PS	-7579
▁ovary	-7580
▁judged	-7581
NAc	-7582
▁apprec	-7583
▁endoplasmic	-7584
orp	-7585
▁RT	-7586
▁gastrin	-7587
▁carrying	-7588
▁colonic	-7589
PK	-7590
▁12,	-7591
ubicin	-7592
▁influences	-7593
▁iv	-7594
▁inh	-7595
micro	-7596
-18	-7597
ives	-7598
▁iss	-7599
median	-7600
▁students	-7601
39	-7602
▁transcript	-7603
▁coefficients	-7604
▁transmembrane	-7605
bi	-7606
▁subtypes	-7607
pective	-7608
▁config	-7609
▁phe	-7610
▁5)	-7611
▁session	-7612
▁har	-7613
ophils	-7614
▁forming	-7615
▁gir	-7616
rague	-7617
▁allo	-7618
educed	-7619
absorption	-7620
34	-7621
55	-7622
▁referred	-7623
▁parathyroid	-7624
oster	-7625
atibility	-7626
▁ultrastructural	-7627
▁Tak	-7628
▁neurom	-7629
▁infiltration	-7630
▁shar	-7631
▁GMP	-7632
▁tracer	-7633
romes	-7634
▁stric	-7635
▁7.4	-7636
▁inserted	-7637
▁somewhat	-7638
▁tuberculosis	-7639
icep	-7640
-2)	-7641
▁84	-7642
▁stored	-7643
▁cigaret	-7644
▁tur	-7645
▁smokers	-7646
razosin	-7647
▁cardiomy	-7648
▁disulfide	-7649
▁accelerated	-7650
mut	-7651
▁catecholamine	-7652
stage	-7653
▁selectivity	-7654
uctose	-7655
▁pneumonia	-7656
sup	-7657
▁accessory	-7658
▁neoplastic	-7659
lyl	-7660
▁complication	-7661
▁opening	-7662
▁emp	-7663
▁detergent	-7664
▁tolerated	-7665
col	-7666
▁CV	-7667
▁called	-7668
▁microv	-7669
▁division	-7670
▁mesenteric	-7671
▁infarct	-7672
▁demonstrating	-7673
▁radiolabeled	-7674
eli	-7675
vents	-7676
ensities	-7677
CM	-7678
▁transferrin	-7679
FGF	-7680
▁cryp	-7681
▁manip	-7682
▁rostr	-7683
▁esters	-7684
▁veins	-7685
responsive	-7686
▁allogeneic	-7687
aryngeal	-7688
▁succin	-7689
▁modulate	-7690
▁noise	-7691
▁clusters	-7692
opulmonary	-7693
▁responsive	-7694
▁viable	-7695
▁3.4	-7696
▁.05)	-7697
chloro	-7698
ducing	-7699
side	-7700
▁axonal	-7701
▁Ele	-7702
▁reaching	-7703
timulation	-7704
yt	-7705
urane	-7706
▁alleles	-7707
▁centrifugation	-7708
▁His	-7709
eight	-7710
▁od	-7711
▁adjuvant	-7712
▁naloxone	-7713
adrenoceptors	-7714
▁branch	-7715
▁radioactive	-7716
▁isop	-7717
▁began	-7718
▁regis	-7719
▁collagenase	-7720
pt	-7721
▁Pos	-7722
▁(95%	-7723
pus	-7724
vian	-7725
▁180	-7726
▁operations	-7727
▁thiol	-7728
▁multiv	-7729
▁physiologic	-7730
4%)	-7731
▁Po	-7732
▁anx	-7733
▁Measure	-7734
unctional	-7735
▁ingestion	-7736
odiaz	-7737
▁Pretreatment	-7738
▁71	-7739
ste	-7740
density	-7741
igible	-7742
▁plastic	-7743
▁dischar	-7744
mega	-7745
▁esophageal	-7746
▁passage	-7747
▁horiz	-7748
▁tau	-7749
▁DS	-7750
▁Pi	-7751
▁electrode	-7752
sorb	-7753
▁CFU	-7754
▁recognize	-7755
▁responding	-7756
oting	-7757
▁radicals	-7758
▁transduction	-7759
▁fluoride	-7760
▁Post	-7761
▁linkage	-7762
cap	-7763
▁perm	-7764
activation	-7765
nine	-7766
▁affects	-7767
▁protected	-7768
▁interpretation	-7769
TT	-7770
ples	-7771
▁rup	-7772
inemia	-7773
tetra	-7774
▁ineffective	-7775
100	-7776
▁SH	-7777
traction	-7778
▁war	-7779
urop	-7780
▁tubule	-7781
erb	-7782
▁densities	-7783
BR	-7784
centr	-7785
▁largest	-7786
▁limiting	-7787
siology	-7788
▁complementary	-7789
▁approxim	-7790
▁conges	-7791
▁adenocarcinoma	-7792
clamp	-7793
pinal	-7794
▁cover	-7795
▁United	-7796
▁ID	-7797
▁actual	-7798
▁irreversible	-7799
5'-	-7800
uclear	-7801
requency	-7802
▁sarcoma	-7803
▁captopril	-7804
trypsin	-7805
▁transl	-7806
▁reasons	-7807
pi	-7808
▁innervation	-7809
▁canal	-7810
▁phage	-7811
▁medication	-7812
▁chronically	-7813
▁recombination	-7814
▁Sw	-7815
▁reproductive	-7816
OP	-7817
olecular	-7818
▁3%	-7819
▁tomography	-7820
▁perhaps	-7821
controlled	-7822
CI	-7823
molec	-7824
otre	-7825
▁islet	-7826
phrag	-7827
▁79	-7828
▁2.8	-7829
ximide	-7830
rogenic	-7831
▁10(-4)	-7832
▁device	-7833
▁5.0	-7834
▁strand	-7835
▁caffeine	-7836
▁4%	-7837
▁plasmids	-7838
▁competition	-7839
▁cogn	-7840
▁omega	-7841
▁weekly	-7842
▁fractures	-7843
▁ster	-7844
▁codon	-7845
▁regen	-7846
▁ACE	-7847
▁87	-7848
▁oxidized	-7849
▁constric	-7850
AR	-7851
▁dimer	-7852
▁pressor	-7853
tative	-7854
▁gross	-7855
invasive	-7856
▁tracheal	-7857
▁potentiation	-7858
▁frozen	-7859
▁Sprague	-7860
ogenicity	-7861
▁studying	-7862
▁inclusion	-7863
tocin	-7864
othane	-7865
▁marg	-7866
NB	-7867
ND	-7868
ipr	-7869
ensus	-7870
▁0.04	-7871
▁spike	-7872
prom	-7873
0.0	-7874
6%)	-7875
1%)	-7876
▁lith	-7877
▁fa	-7878
▁needs	-7879
▁Cyt	-7880
▁blocks	-7881
▁angle	-7882
▁diarr	-7883
icardial	-7884
▁nutritional	-7885
coup	-7886
▁panel	-7887
▁precise	-7888
▁unex	-7889
▁luteal	-7890
▁88	-7891
▁standardi	-7892
▁CsA	-7893
idated	-7894
▁color	-7895
cription	-7896
▁herpes	-7897
ygo	-7898
▁trim	-7899
▁personal	-7900
lys	-7901
▁degen	-7902
▁pathology	-7903
▁soci	-7904
growth	-7905
▁82	-7906
▁modifications	-7907
unting	-7908
▁medullary	-7909
▁catecholamines	-7910
ylic	-7911
▁global	-7912
operated	-7913
ares	-7914
▁3.3	-7915
MB	-7916
bic	-7917
▁changing	-7918
▁subsets	-7919
oblasts	-7920
thyroid	-7921
▁tib	-7922
▁hydroxyl	-7923
▁thromboxane	-7924
usate	-7925
▁excitation	-7926
▁theore	-7927
stranded	-7928
odg	-7929
exis	-7930
▁histopath	-7931
▁contacts	-7932
▁adipose	-7933
▁hypoxic	-7934
▁adjust	-7935
▁person	-7936
▁transplanted	-7937
roscopic	-7938
▁efficiently	-7939
aved	-7940
▁Ass	-7941
▁0.02	-7942
▁hearing	-7943
▁Southern	-7944
▁polyacrylamide	-7945
ques	-7946
acil	-7947
▁optimum	-7948
mag	-7949
▁cations	-7950
▁permanent	-7951
▁consequences	-7952
(1	-7953
ineal	-7954
▁viability	-7955
arin	-7956
osity	-7957
▁cytokine	-7958
▁alanine	-7959
▁commerc	-7960
CF	-7961
▁envelope	-7962
ycl	-7963
▁rot	-7964
astic	-7965
▁Vari	-7966
olamine	-7967
▁hol	-7968
gia	-7969
▁DP	-7970
▁lavage	-7971
sions	-7972
Daw	-7973
▁prostatic	-7974
amyl	-7975
GP	-7976
HB	-7977
▁integrated	-7978
angi	-7979
estions	-7980
land	-7981
▁encodes	-7982
tened	-7983
+]	-7984
▁adop	-7985
urgical	-7986
▁retrograde	-7987
▁symme	-7988
▁physician	-7989
▁concurrent	-7990
▁excision	-7991
▁categories	-7992
75	-7993
vation	-7994
ofl	-7995
▁sizes	-7996
▁spite	-7997
heximide	-7998
▁instead	-7999
▁SK	-8000
odgkin	-8001
▁regeneration	-8002
Dawley	-8003
▁aggres	-8004
▁LD	-8005
ogenes	-8006
▁black	-8007
py	-8008
▁controlling	-8009
▁CMV	-8010
regular	-8011
▁adoles	-8012
▁lumbar	-8013
risk	-8014
▁6.5	-8015
▁My	-8016
▁vin	-8017
▁filter	-8018
▁catab	-8019
▁exhibits	-8020
▁leukotri	-8021
▁correspond	-8022
outh	-8023
ylephrine	-8024
▁library	-8025
▁2.2	-8026
▁autop	-8027
▁oscill	-8028
toxic	-8029
▁hemisp	-8030
▁ulc	-8031
olipid	-8032
▁pregnancies	-8033
▁3.6	-8034
aminop	-8035
▁labelling	-8036
▁apolipoprotein	-8037
anking	-8038
▁encephal	-8039
▁resolved	-8040
▁connective	-8041
▁thymocytes	-8042
▁Gen	-8043
sibility	-8044
-24	-8045
▁blast	-8046
▁muscular	-8047
▁cholec	-8048
orectal	-8049
▁survivors	-8050
▁prel	-8051
oes	-8052
▁NADH	-8053
▁amyl	-8054
dimethyl	-8055
▁incon	-8056
▁swelling	-8057
herent	-8058
urea	-8059
▁courses	-8060
diabe	-8061
aldehyde	-8062
plastic	-8063
▁believed	-8064
idol	-8065
▁homogeneous	-8066
▁totally	-8067
▁leucine	-8068
▁Experiments	-8069
elles	-8070
▁aber	-8071
▁born	-8072
▁breakdown	-8073
ophilic	-8074
▁States	-8075
▁mitogen	-8076
▁89	-8077
erin	-8078
▁dosing	-8079
my	-8080
▁CK	-8081
▁shunt	-8082
mittent	-8083
▁vul	-8084
sibly	-8085
▁trained	-8086
▁interfere	-8087
▁fine	-8088
▁activating	-8089
▁RBC	-8090
▁careful	-8091
▁hamsters	-8092
utable	-8093
▁negatively	-8094
SE	-8095
▁emerg	-8096
▁organism	-8097
▁phi	-8098
▁splen	-8099
▁fracture	-8100
leb	-8101
▁blocker	-8102
▁destruction	-8103
▁lu	-8104
sequently	-8105
ulse	-8106
▁acin	-8107
▁killer	-8108
▁moiety	-8109
▁disturbances	-8110
▁face	-8111
▁corpus	-8112
▁HD	-8113
▁comprised	-8114
▁Increas	-8115
oprol	-8116
▁zones	-8117
ethylene	-8118
35	-8119
ura	-8120
atoid	-8121
▁round	-8122
Ag	-8123
▁atom	-8124
▁anaerobic	-8125
adic	-8126
icks	-8127
▁Fac	-8128
▁vesicle	-8129
▁retrospective	-8130
▁foci	-8131
▁filament	-8132
▁University	-8133
▁waves	-8134
▁anemia	-8135
▁granulocyte	-8136
anal	-8137
▁amph	-8138
▁abor	-8139
▁corticos	-8140
▁tool	-8141
icol	-8142
▁discrete	-8143
▁35%	-8144
5,000	-8145
▁Lys	-8146
atile	-8147
aminase	-8148
base	-8149
▁intense	-8150
ocon	-8151
bor	-8152
▁6)	-8153
▁Rats	-8154
▁insufficiency	-8155
▁supplementation	-8156
ixed	-8157
▁Administration	-8158
itic	-8159
lysis	-8160
▁cystic	-8161
Hz	-8162
▁fertil	-8163
▁compl	-8164
▁fetus	-8165
▁4.0	-8166
▁scin	-8167
▁bip	-8168
▁evid	-8169
▁Fifty	-8170
▁Between	-8171
▁Sm	-8172
ceptive	-8173
▁anomal	-8174
▁preventing	-8175
▁hypothyroid	-8176
▁supports	-8177
ubiqu	-8178
▁exceeded	-8179
▁profound	-8180
phragm	-8181
▁pep	-8182
▁messenger	-8183
etan	-8184
▁aspirin	-8185
▁confined	-8186
▁myocytes	-8187
:1	-8188
▁tro	-8189
▁emission	-8190
▁synapses	-8191
▁First	-8192
▁knee	-8193
▁exert	-8194
▁fluids	-8195
▁Radi	-8196
▁distributions	-8197
▁Cardi	-8198
▁ultra	-8199
▁shifts	-8200
▁98	-8201
▁rig	-8202
▁cohort	-8203
▁permit	-8204
66	-8205
▁Ia	-8206
▁width	-8207
esity	-8208
▁methionine	-8209
▁promote	-8210
urium	-8211
▁making	-8212
▁gut	-8213
sts	-8214
trical	-8215
▁suppress	-8216
1/	-8217
▁theophylline	-8218
▁rostral	-8219
▁aer	-8220
▁leuc	-8221
▁cov	-8222
tectable	-8223
▁spind	-8224
▁prednis	-8225
▁depleted	-8226
▁inversely	-8227
▁proportions	-8228
▁sacr	-8229
▁reflects	-8230
▁bases	-8231
iloride	-8232
OS	-8233
▁pelvic	-8234
▁liposomes	-8235
▁horizontal	-8236
onyl	-8237
cholesterol	-8238
▁CM	-8239
▁2.1	-8240
-)	-8241
anav	-8242
▁autoanti	-8243
▁differentiate	-8244
▁isolate	-8245
▁preliminary	-8246
▁fluctu	-8247
je	-8248
▁BC	-8249
▁questions	-8250
eces	-8251
▁pec	-8252
▁93	-8253
acted	-8254
▁rectal	-8255
▁LHRH	-8256
▁dial	-8257
ido	-8258
▁stromal	-8259
▁deviation	-8260
vo	-8261
asm	-8262
▁blockers	-8263
▁electrodes	-8264
▁MP	-8265
osides	-8266
▁multic	-8267
▁tooth	-8268
▁Intra	-8269
▁hydroxy	-8270
▁histologically	-8271
ritin	-8272
▁reveals	-8273
▁postoperatively	-8274
▁desensitization	-8275
▁correction	-8276
▁malignancy	-8277
▁PL	-8278
▁artificial	-8279
▁microtubules	-8280
▁bis	-8281
ugin	-8282
▁BW	-8283
▁outward	-8284
▁leukemic	-8285
▁parasite	-8286
ber	-8287
▁ventil	-8288
▁supernatants	-8289
▁AF	-8290
▁compatible	-8291
-80	-8292
▁pyl	-8293
dt	-8294
▁bradykinin	-8295
▁immunosuppres	-8296
▁2.9	-8297
▁Inhibition	-8298
▁inhalation	-8299
49	-8300
▁strepto	-8301
▁VT	-8302
▁xen	-8303
▁regulating	-8304
osen	-8305
seven	-8306
▁preceded	-8307
▁GC	-8308
pregn	-8309
▁Protein	-8310
prop	-8311
▁seconds	-8312
▁Second	-8313
ypical	-8314
▁definite	-8315
▁sometimes	-8316
▁quantities	-8317
▁attributable	-8318
▁gold	-8319
▁hapl	-8320
▁detecting	-8321
▁recipient	-8322
▁virul	-8323
▁kept	-8324
uscular	-8325
operoxidase	-8326
etal	-8327
▁sepsis	-8328
olated	-8329
▁encountered	-8330
tribution	-8331
▁dopaminergic	-8332
▁pyram	-8333
▁yields	-8334
▁excreted	-8335
▁presynaptic	-8336
arial	-8337
arginine	-8338
▁Bac	-8339
▁gram	-8340
▁irregular	-8341
▁reconstituted	-8342
▁MAb	-8343
▁Non	-8344
▁corn	-8345
aminidase	-8346
▁lymphomas	-8347
▁facilitate	-8348
▁600	-8349
▁6%	-8350
▁pHi	-8351
isomer	-8352
▁regurgitation	-8353
ifferentiated	-8354
urance	-8355
▁81	-8356
▁absorbed	-8357
▁electrophoretic	-8358
▁1/	-8359
irub	-8360
▁exact	-8361
▁diarrhea	-8362
trial	-8363
orubicin	-8364
producing	-8365
▁ureth	-8366
▁portions	-8367
▁spectral	-8368
ACh	-8369
yste	-8370
▁Low	-8371
monella	-8372
Kd	-8373
aterally	-8374
▁myeloid	-8375
▁satisfactory	-8376
azem	-8377
uresis	-8378
globulin	-8379
▁guanine	-8380
▁intermittent	-8381
orts	-8382
▁Ang	-8383
uginosa	-8384
astric	-8385
ana	-8386
▁wet	-8387
kelet	-8388
▁date	-8389
▁risks	-8390
▁Rep	-8391
▁thre	-8392
▁astrocytes	-8393
face	-8394
ometer	-8395
▁3.7	-8396
▁implants	-8397
▁autonomic	-8398
▁halothane	-8399
▁concentrated	-8400
OR	-8401
▁Hear	-8402
▁aeruginosa	-8403
ographically	-8404
▁mutagenesis	-8405
▁mL	-8406
▁inside	-8407
▁coagulation	-8408
32	-8409
imide	-8410
▁contex	-8411
opolysaccharide	-8412
▁Pseud	-8413
▁adip	-8414
▁onto	-8415
thmatic	-8416
inese	-8417
PAGE	-8418
▁focus	-8419
▁triglycerides	-8420
Tyr	-8421
molecular	-8422
▁subcellular	-8423
▁110	-8424
itudes	-8425
▁supra	-8426
▁salivary	-8427
lycemic	-8428
▁preserved	-8429
quis	-8430
fluoro	-8431
▁unstable	-8432
▁atrophy	-8433
▁anatomical	-8434
▁namely	-8435
enicillin	-8436
ulum	-8437
▁assis	-8438
rometry	-8439
▁conclusions	-8440
omb	-8441
likely	-8442
▁fructose	-8443
▁ging	-8444
▁13-	-8445
▁lambs	-8446
puts	-8447
▁(197	-8448
▁entered	-8449
▁EDTA	-8450
▁preceding	-8451
▁merc	-8452
▁contamin	-8453
ash	-8454
▁mitotic	-8455
▁papillary	-8456
▁parad	-8457
▁elucidate	-8458
renal	-8459
▁mediating	-8460
-9)	-8461
▁bu	-8462
transformed	-8463
ventricular	-8464
▁Stre	-8465
▁schiz	-8466
▁lipase	-8467
▁oxytocin	-8468
▁participate	-8469
▁uro	-8470
▁night	-8471
▁inverse	-8472
▁decarbox	-8473
▁profession	-8474
▁lag	-8475
coated	-8476
anavalin	-8477
titis	-8478
▁perin	-8479
human	-8480
▁rheumatoid	-8481
▁aerobic	-8482
▁PCR	-8483
▁intram	-8484
▁%	-8485
usive	-8486
BD	-8487
▁phospho	-8488
▁PHA	-8489
▁mixtures	-8490
tiazem	-8491
hetamine	-8492
36	-8493
▁fung	-8494
sectional	-8495
odialysis	-8496
▁-2	-8497
▁retard	-8498
evoked	-8499
▁homoz	-8500
▁sacrific	-8501
pair	-8502
▁brush	-8503
elves	-8504
▁Af	-8505
▁progress	-8506
kinje	-8507
▁unlikely	-8508
isc	-8509
▁Long	-8510
▁birds	-8511
▁97	-8512
▁kD	-8513
▁depart	-8514
3),	-8515
▁proce	-8516
▁corrected	-8517
nea	-8518
▁dib	-8519
▁agar	-8520
▁entirely	-8521
▁respiration	-8522
terolog	-8523
▁striatal	-8524
▁alcoholic	-8525
immunoreactive	-8526
▁Tw	-8527
▁3'-	-8528
▁giving	-8529
▁neonates	-8530
tracellular	-8531
idazole	-8532
▁paired	-8533
▁deduced	-8534
▁crystall	-8535
deple	-8536
ophys	-8537
▁0.06	-8538
▁usual	-8539
▁presenting	-8540
▁Ha	-8541
▁chel	-8542
▁diaz	-8543
phosphorylation	-8544
▁ta	-8545
sial	-8546
▁boys	-8547
▁vent	-8548
▁plane	-8549
AI	-8550
▁speed	-8551
rophenyl	-8552
23187	-8553
▁10(-8)	-8554
▁monocyte	-8555
▁placenta	-8556
▁empty	-8557
▁girls	-8558
▁took	-8559
▁equation	-8560
▁schedule	-8561
▁cattle	-8562
▁indication	-8563
▁TT	-8564
osus	-8565
▁dox	-8566
▁dich	-8567
▁vaginal	-8568
▁repetitive	-8569
▁phenylephrine	-8570
▁3.8	-8571
adequ	-8572
clear	-8573
Fe	-8574
▁mitogenic	-8575
▁ligation	-8576
▁Or	-8577
▁outflow	-8578
irradi	-8579
wes	-8580
▁92	-8581
▁correlates	-8582
▁separately	-8583
IgG	-8584
Ch	-8585
▁selen	-8586
▁implant	-8587
▁follicle	-8588
▁HTLV	-8589
▁benzodiaz	-8590
3+	-8591
-2.	-8592
▁introduction	-8593
0.5	-8594
ocrit	-8595
▁obesity	-8596
▁chemically	-8597
▁Rel	-8598
▁isomer	-8599
hydroxyp	-8600
usp	-8601
▁NAD	-8602
aving	-8603
▁baro	-8604
▁kcal	-8605
▁preservation	-8606
chloride	-8607
wave	-8608
▁feas	-8609
gic	-8610
▁unusual	-8611
▁Lab	-8612
ropathy	-8613
▁effort	-8614
emak	-8615
▁PDGF	-8616
▁manifestations	-8617
ocin	-8618
uric	-8619
▁Arg	-8620
HIV	-8621
▁rarely	-8622
▁94	-8623
▁EG	-8624
▁endothelin	-8625
va	-8626
▁adenine	-8627
menopausal	-8628
▁lap	-8629
▁dual	-8630
▁dynamics	-8631
ropo	-8632
▁pol	-8633
▁horn	-8634
▁deoxy	-8635
▁aggregates	-8636
▁HeLa	-8637
acrine	-8638
▁granular	-8639
illar	-8640
▁flav	-8641
endorphin	-8642
▁latent	-8643
▁branches	-8644
▁cycloheximide	-8645
BH	-8646
thanol	-8647
Pro	-8648
▁[(	-8649
▁8.	-8650
▁fist	-8651
▁pathologic	-8652
▁solubilized	-8653
▁peroxidation	-8654
▁Ba	-8655
▁Cons	-8656
▁nude	-8657
rocytes	-8658
dered	-8659
oblastic	-8660
▁comparisons	-8661
▁clarify	-8662
▁spermatozo	-8663
▁closure	-8664
ca	-8665
▁fu	-8666
rist	-8667
▁nicotine	-8668
▁postulated	-8669
▁FM	-8670
site	-8671
▁transforming	-8672
itr	-8673
▁(24	-8674
▁Chinese	-8675
▁Cr	-8676
▁synov	-8677
▁dihydro	-8678
▁compression	-8679
▁subtype	-8680
▁antitumor	-8681
ochemically	-8682
▁Tc	-8683
▁corneal	-8684
oxic	-8685
▁vaccination	-8686
renaline	-8687
▁allergic	-8688
▁dyst	-8689
atonin	-8690
ostatic	-8691
romycin	-8692
trous	-8693
▁neurob	-8694
▁circadian	-8695
▁Incubation	-8696
)]	-8697
▁corresponded	-8698
ecan	-8699
▁Evid	-8700
bp	-8701
▁7.0	-8702
▁pigment	-8703
▁neoplasms	-8704
▁promoters	-8705
urable	-8706
▁sexes	-8707
▁macrom	-8708
▁interrup	-8709
yrox	-8710
▁hen	-8711
▁isoforms	-8712
▁lowering	-8713
▁compartments	-8714
bred	-8715
riton	-8716
▁sets	-8717
▁BA	-8718
▁EF	-8719
▁Glu	-8720
▁sound	-8721
▁85%	-8722
ostasis	-8723
▁solvent	-8724
▁collection	-8725
ulator	-8726
▁suffering	-8727
▁table	-8728
▁eluted	-8729
▁learning	-8730
▁contractility	-8731
TPA	-8732
▁Ro	-8733
▁RIA	-8734
9%)	-8735
▁frog	-8736
▁chosen	-8737
▁tradition	-8738
EGF	-8739
▁drain	-8740
▁4.2	-8741
enkephalin	-8742
▁sedimentation	-8743
▁4.1	-8744
▁photo	-8745
xate	-8746
▁fati	-8747
▁EA	-8748
▁ole	-8749
▁umb	-8750
aching	-8751
aints	-8752
▁diges	-8753
receptors	-8754
▁understand	-8755
▁generalized	-8756
▁Staphyloc	-8757
nu	-8758
-1).	-8759
▁consensus	-8760
▁thems	-8761
▁Whereas	-8762
▁WK	-8763
geneic	-8764
Cr	-8765
Cs	-8766
▁themselves	-8767
ocompatibility	-8768
anuary	-8769
▁(0	-8770
▁septum	-8771
ilical	-8772
▁RNAs	-8773
arcoma	-8774
tracted	-8775
▁acceptor	-8776
▁basolateral	-8777
▁8%	-8778
▁fold	-8779
phthal	-8780
▁dilatation	-8781
BI	-8782
EL	-8783
▁Hem	-8784
secre	-8785
▁autoradiography	-8786
ivation	-8787
.).	-8788
▁AL	-8789
▁deletions	-8790
▁assessing	-8791
99	-8792
▁visible	-8793
keto	-8794
▁spor	-8795
▁py	-8796
▁phenotypes	-8797
tioned	-8798
▁monophosphate	-8799
▁histidine	-8800
itions	-8801
▁citrate	-8802
▁synergistic	-8803
▁pharmacokinetic	-8804
▁wa	-8805
▁ewes	-8806
▁plexus	-8807
▁enhancer	-8808
▁sti	-8809
▁weakly	-8810
linear	-8811
▁SI	-8812
▁Strep	-8813
brom	-8814
▁au	-8815
ucose	-8816
▁ileum	-8817
▁trigg	-8818
▁structurally	-8819
▁MO	-8820
▁myof	-8821
▁sigma	-8822
▁ubiqu	-8823
glutination	-8824
▁lid	-8825
▁trunc	-8826
▁trigger	-8827
▁childhood	-8828
▁Mod	-8829
▁fasc	-8830
8).	-8831
▁fin	-8832
▁graded	-8833
▁glomerul	-8834
▁wheat	-8835
▁amiloride	-8836
clerotic	-8837
hydroxylase	-8838
▁atri	-8839
▁crystal	-8840
▁illus	-8841
cein	-8842
trover	-8843
▁usefulness	-8844
▁allowing	-8845
prim	-8846
▁gap	-8847
▁tor	-8848
▁ends	-8849
▁parie	-8850
▁intracranial	-8851
▁pil	-8852
▁drawn	-8853
▁alkyl	-8854
▁amylase	-8855
▁surfact	-8856
▁intraperitoneal	-8857
hepatic	-8858
diabetic	-8859
▁sulphate	-8860
▁monolayers	-8861
▁aberr	-8862
▁uncom	-8863
▁monitor	-8864
▁dramatic	-8865
adex	-8866
▁imm	-8867
▁exposures	-8868
▁Salmonella	-8869
cyclic	-8870
▁strategies	-8871
HI	-8872
estic	-8873
tryptamine	-8874
▁epidermis	-8875
▁electroly	-8876
▁evaluating	-8877
▁Calc	-8878
▁0.001	-8879
▁monolayer	-8880
▁cruc	-8881
▁pediatric	-8882
▁differs	-8883
▁PM	-8884
▁bundle	-8885
▁granulosa	-8886
▁140	-8887
▁uterus	-8888
▁scans	-8889
▁patches	-8890
arrhythmic	-8891
▁miss	-8892
▁visc	-8893
▁dramatically	-8894
▁bulk	-8895
iding	-8896
▁degraded	-8897
▁valuable	-8898
▁reticular	-8899
▁preferred	-8900
▁quad	-8901
▁Triton	-8902
▁esophag	-8903
▁psychiatric	-8904
amel	-8905
channel	-8906
illaries	-8907
▁hyperg	-8908
rospinal	-8909
▁reconstruction	-8910
▁explanation	-8911
▁Rh	-8912
ranged	-8913
▁Evidence	-8914
500	-8915
ffinities	-8916
lines	-8917
▁ascending	-8918
▁thir	-8919
change	-8920
▁perturb	-8921
):	-8922
directed	-8923
▁microscope	-8924
▁genetically	-8925
▁cardiomyopathy	-8926
irubin	-8927
▁strategy	-8928
dihydroxy	-8929
▁complicated	-8930
▁standardized	-8931
▁cool	-8932
hydrop	-8933
▁makes	-8934
spring	-8935
▁configuration	-8936
idium	-8937
▁VLDL	-8938
▁quantity	-8939
▁RI	-8940
ochle	-8941
▁modest	-8942
▁CEA	-8943
oidal	-8944
essation	-8945
▁perfusate	-8946
▁bonds	-8947
▁ultim	-8948
sistent	-8949
bacter	-8950
▁motif	-8951
tivities	-8952
▁sequencing	-8953
yrid	-8954
▁flat	-8955
▁resorption	-8956
▁Pseudomonas	-8957
NU	-8958
fect	-8959
▁unclear	-8960
▁congestive	-8961
ADP	-8962
▁fig	-8963
phen	-8964
▁subgroups	-8965
▁context	-8966
▁excessive	-8967
▁pacemak	-8968
ming	-8969
▁Exposure	-8970
▁Purkinje	-8971
4),	-8972
▁burn	-8973
▁Insulin	-8974
▁dextran	-8975
▁obvious	-8976
▁ovulation	-8977
▁rings	-8978
ications	-8979
▁hepatocellular	-8980
▁conjunction	-8981
▁TC	-8982
rein	-8983
▁dismut	-8984
▁etiology	-8985
▁Inte	-8986
▁unlabeled	-8987
▁Additionally	-8988
tan	-8989
▁hard	-8990
▁Afric	-8991
▁dimensions	-8992
▁arise	-8993
epithelial	-8994
▁understood	-8995
▁utilizing	-8996
Met	-8997
orbent	-8998
▁synapt	-8999
▁attempted	-9000
▁instances	-9001
▁HBV	-9002
▁tun	-9003
acing	-9004
▁Respon	-9005
depleted	-9006
▁digital	-9007
▁cytometry	-9008
▁TP	-9009
▁30,	-9010
▁gives	-9011
▁overe	-9012
▁clonal	-9013
-50	-9014
▁elast	-9015
▁errors	-9016
macropha	-9017
▁affinities	-9018
8.	-9019
▁silic	-9020
oplastic	-9021
▁morphologic	-9022
phot	-9023
▁coated	-9024
▁supine	-9025
▁comparative	-9026
▁reflux	-9027
▁osmotic	-9028
▁chim	-9029
▁prazosin	-9030
iii	-9031
▁1/2	-9032
▁exerted	-9033
organic	-9034
▁hypother	-9035
▁Cal	-9036
▁Met	-9037
▁typh	-9038
rophic	-9039
ether	-9040
▁rich	-9041
cellulose	-9042
zard	-9043
ona	-9044
▁hip	-9045
▁quantified	-9046
▁share	-9047
▁medicine	-9048
▁colorectal	-9049
▁preference	-9050
▁proto	-9051
pa	-9052
nia	-9053
opus	-9054
▁strips	-9055
flamm	-9056
aminob	-9057
ipramine	-9058
▁adjusted	-9059
▁sequenced	-9060
▁soy	-9061
▁Taken	-9062
▁disruption	-9063
▁indications	-9064
▁Rat	-9065
▁aneurysm	-9066
▁advantages	-9067
▁tan	-9068
ulant	-9069
▁adducts	-9070
SI	-9071
▁TG	-9072
PTH	-9073
▁mesen	-9074
▁Differen	-9075
▁mediators	-9076
chrom	-9077
▁accompl	-9078
▁asthmatic	-9079
▁adrenaline	-9080
yroxine	-9081
▁American	-9082
▁ambulatory	-9083
erad	-9084
000.	-9085
▁anticoag	-9086
▁dissociated	-9087
▁SF	-9088
omyel	-9089
▁prophylaxis	-9090
▁substitutions	-9091
▁15,	-9092
▁ori	-9093
▁tric	-9094
▁carriers	-9095
▁casein	-9096
vae	-9097
▁dilated	-9098
▁modulated	-9099
oman	-9100
onography	-9101
▁oct	-9102
▁10(5)	-9103
▁triti	-9104
liters	-9105
ographs	-9106
▁syngeneic	-9107
▁cardiopulmonary	-9108
phadex	-9109
chemical	-9110
▁Heart	-9111
▁cytoch	-9112
▁FEV	-9113
▁call	-9114
inesterase	-9115
▁capillaries	-9116
▁relap	-9117
▁margin	-9118
▁theoretical	-9119
▁prot	-9120
▁calcitonin	-9121
▁locations	-9122
Glc	-9123
osing	-9124
rocal	-9125
quisition	-9126
▁deposits	-9127
▁umbilical	-9128
▁(40	-9129
respective	-9130
▁spermatozoa	-9131
▁CGRP	-9132
▁Poly	-9133
▁penetration	-9134
+.	-9135
▁catheterization	-9136
isions	-9137
restric	-9138
▁Subjec	-9139
▁pyramidal	-9140
▁functioning	-9141
ades	-9142
▁distant	-9143
▁inadequ	-9144
▁linearly	-9145
▁ribosomal	-9146
ria	-9147
▁see	-9148
▁Staphylococcus	-9149
▁pyro	-9150
▁Effec	-9151
▁Never	-9152
▁cephal	-9153
▁endometrial	-9154
▁hematopoietic	-9155
▁keratinocytes	-9156
iant	-9157
▁direc	-9158
omatous	-9159
▁particulate	-9160
▁91	-9161
▁Ox	-9162
plies	-9163
▁staff	-9164
▁facial	-9165
▁transmitter	-9166
UT	-9167
▁streptoc	-9168
▁cessation	-9169
▁describes	-9170
eradish	-9171
vice	-9172
▁Anim	-9173
▁isoelectric	-9174
▁saturated	-9175
otrexate	-9176
▁vertical	-9177
▁undetectable	-9178
▁HCO	-9179
rs	-9180
▁Ul	-9181
keleton	-9182
otoxicity	-9183
icidal	-9184
▁idiopathic	-9185
▁anaesthesia	-9186
itre	-9187
▁puber	-9188
tual	-9189
▁aromatic	-9190
▁spect	-9191
▁Nevertheless	-9192
▁pK	-9193
▁tonic	-9194
▁normalized	-9195
-25	-9196
Glu	-9197
itting	-9198
portun	-9199
▁forces	-9200
taz	-9201
▁Tum	-9202
ocortical	-9203
regulated	-9204
field	-9205
mus	-9206
onine	-9207
▁parietal	-9208
▁phenotypic	-9209
▁vagal	-9210
▁capsule	-9211
▁isometric	-9212
▁proteinase	-9213
agic	-9214
▁reabsorption	-9215
▁situations	-9216
▁subpopulations	-9217
oea	-9218
oneph	-9219
▁Cys	-9220
ophren	-9221
▁proteolysis	-9222
▁pools	-9223
▁pineal	-9224
▁ec	-9225
.5%)	-9226
IDDM	-9227
then	-9228
trating	-9229
▁charged	-9230
▁extensively	-9231
▁box	-9232
▁nas	-9233
methionine	-9234
31	-9235
▁termed	-9236
▁controver	-9237
▁qualitative	-9238
length	-9239
▁house	-9240
▁analgesia	-9241
▁rIL	-9242
onium	-9243
▁postin	-9244
LM	-9245
▁Stage	-9246
▁catalase	-9247
terologous	-9248
▁atherosclerosis	-9249
▁aspartate	-9250
▁enough	-9251
7).	-9252
▁-1	-9253
optic	-9254
lix	-9255
ishes	-9256
▁costs	-9257
▁allergen	-9258
sw	-9259
oscopy	-9260
▁experimentally	-9261
▁puls	-9262
▁prolongation	-9263
luent	-9264
▁prospectively	-9265
▁Tyr	-9266
▁deprivation	-9267
▁6.0	-9268
ositi	-9269
▁ascorb	-9270
▁hepatoma	-9271
▁catheters	-9272
idym	-9273
▁14,	-9274
▁Twelve	-9275
▁menstr	-9276
▁lengths	-9277
▁percutaneous	-9278
▁consideration	-9279
ANP	-9280
▁EMG	-9281
▁histone	-9282
altered	-9283
▁vascul	-9284
yridine	-9285
▁dissection	-9286
▁expiratory	-9287
sur	-9288
ister	-9289
CDD	-9290
▁160	-9291
othelial	-9292
▁analyze	-9293
▁pancreatitis	-9294
ygdal	-9295
▁carboxy	-9296
-1),	-9297
▁acces	-9298
▁diaphragm	-9299
▁novo	-9300
▁Initi	-9301
▁gradual	-9302
38	-9303
▁MRI	-9304
ensory	-9305
chicine	-9306
▁dimethyl	-9307
▁influenza	-9308
▁immunoprecipit	-9309
▁supporting	-9310
▁Study	-9311
▁TR	-9312
aicin	-9313
▁transported	-9314
▁evidenced	-9315
▁deterioration	-9316
▁amyloid	-9317
▁dismutase	-9318
▁Sixty	-9319
▁stores	-9320
▁conjugates	-9321
ogl	-9322
▁fatal	-9323
▁lutein	-9324
▁accepted	-9325
▁radial	-9326
floxacin	-9327
▁deficit	-9328
▁connections	-9329
▁phagocytosis	-9330
AS	-9331
tere	-9332
rates	-9333
▁ferritin	-9334
▁Conversely	-9335
Mg	-9336
▁45%	-9337
▁finger	-9338
▁oligonucleotide	-9339
▁enhances	-9340
Mr	-9341
▁VIII	-9342
▁divalent	-9343
▁amplified	-9344
▁favorable	-9345
▁immobilized	-9346
▁aid	-9347
▁creatine	-9348
▁synthesize	-9349
▁AS	-9350
ereb	-9351
▁scinti	-9352
omed	-9353
bacco	-9354
opamine	-9355
▁deficits	-9356
▁beg	-9357
▁pleural	-9358
▁opportun	-9359
▁abundance	-9360
▁surfactant	-9361
▁elastic	-9362
CAT	-9363
edded	-9364
▁sphinc	-9365
HO	-9366
▁MV	-9367
urope	-9368
▁0.02).	-9369
▁seizure	-9370
▁7%	-9371
▁sar	-9372
▁inher	-9373
▁unlike	-9374
+/-	-9375
subs	-9376
▁prove	-9377
▁cognitive	-9378
▁intermediates	-9379
abilities	-9380
▁stretch	-9381
▁accurately	-9382
▁Even	-9383
ection	-9384
patients	-9385
▁autopsy	-9386
▁12%	-9387
▁acidosis	-9388
▁demonstration	-9389
▁vertebr	-9390
sAg	-9391
▁Tn	-9392
▁proteoglycan	-9393
ban	-9394
▁proven	-9395
▁transplants	-9396
▁Lym	-9397
▁discrimination	-9398
rc	-9399
illed	-9400
6.	-9401
▁sap	-9402
arose	-9403
dotoxin	-9404
▁Gra	-9405
▁rotation	-9406
flammatory	-9407
pp	-9408
▁larvae	-9409
arterial	-9410
▁otherwise	-9411
▁determinations	-9412
▁lysosomes	-9413
AD	-9414
▁offspring	-9415
▁strict	-9416
48	-9417
atories	-9418
ologies	-9419
▁duplex	-9420
▁project	-9421
phosphatase	-9422
▁obstructive	-9423
fe	-9424
▁chor	-9425
▁duplic	-9426
▁decision	-9427
▁phenomena	-9428
▁sick	-9429
▁alkal	-9430
▁helix	-9431
▁nodules	-9432
▁existing	-9433
▁contributes	-9434
▁maintaining	-9435
ember	-9436
▁Class	-9437
▁drainage	-9438
▁screened	-9439
▁immunosorbent	-9440
▁spine	-9441
▁contracep	-9442
ache	-9443
▁LTB	-9444
▁mapped	-9445
▁shared	-9446
drug	-9447
limb	-9448
reed	-9449
admium	-9450
pressed	-9451
▁attack	-9452
▁glass	-9453
▁monos	-9454
▁practic	-9455
▁specimen	-9456
ucl	-9457
oinositi	-9458
▁reagents	-9459
▁insensitive	-9460
▁integrity	-9461
▁ischaemia	-9462
▁forearm	-9463
▁stay	-9464
▁connected	-9465
▁NI	-9466
mber	-9467
▁ens	-9468
▁lean	-9469
▁conjugate	-9470
▁protect	-9471
utaneously	-9472
▁diltiazem	-9473
▁estimation	-9474
▁0.0001).	-9475
phosphatid	-9476
high	-9477
▁conditioning	-9478
▁DE	-9479
▁substituted	-9480
▁indis	-9481
▁rub	-9482
ximum	-9483
▁titer	-9484
▁ending	-9485
pread	-9486
▁elect	-9487
tel	-9488
tium	-9489
exposed	-9490
venty	-9491
omized	-9492
▁bilirubin	-9493
▁cigarette	-9494
2(+)-	-9495
thmia	-9496
▁4.6	-9497
shaped	-9498
▁article	-9499
▁histology	-9500
▁acquisition	-9501
▁contamination	-9502
▁surviving	-9503
▁Increased	-9504
CL	-9505
▁pM	-9506
aryotic	-9507
▁testes	-9508
▁treating	-9509
.),	-9510
▁RP	-9511
▁Like	-9512
TG	-9513
▁din	-9514
▁preincubation	-9515
amer	-9516
▁1-2	-9517
uanti	-9518
▁epididym	-9519
▁heterologous	-9520
ocys	-9521
▁cleaved	-9522
▁collateral	-9523
▁Aut	-9524
viral	-9525
▁vesti	-9526
▁ocular	-9527
▁GV	-9528
▁elongation	-9529
oventricular	-9530
▁tobacco	-9531
▁National	-9532
poses	-9533
▁guid	-9534
▁differing	-9535
▁twenty	-9536
▁humoral	-9537
▁Sep	-9538
▁vege	-9539
▁antero	-9540
▁conjugated	-9541
dex	-9542
ydig	-9543
▁cos	-9544
▁nonc	-9545
▁limbs	-9546
▁Stimulation	-9547
6).	-9548
▁galactose	-9549
▁segreg	-9550
▁lactation	-9551
thio	-9552
gnetic	-9553
▁3.9	-9554
retin	-9555
▁ways	-9556
ordance	-9557
▁elicit	-9558
▁Another	-9559
▁plaques	-9560
▁morning	-9561
▁paralleled	-9562
Rs	-9563
▁7.2	-9564
robial	-9565
▁practition	-9566
rus	-9567
▁mos	-9568
which	-9569
uridine	-9570
▁prostaglandins	-9571
xia	-9572
phila	-9573
▁corresponds	-9574
▁airways	-9575
▁exponential	-9576
▁interference	-9577
une	-9578
▁cholera	-9579
▁cerebrospinal	-9580
rolase	-9581
tinguish	-9582
▁tubulin	-9583
▁intub	-9584
▁periodontal	-9585
▁decarboxylase	-9586
alas	-9587
tonic	-9588
▁Recently	-9589
▁mobilization	-9590
▁similarities	-9591
▁indus	-9592
▁diabetics	-9593
▁substantia	-9594
▁AII	-9595
▁atrium	-9596
formance	-9597
▁immunocyt	-9598
DI	-9599
▁Phosph	-9600
▁favour	-9601
heal	-9602
▁4.3	-9603
▁lidocaine	-9604
▁subjective	-9605
▁contributed	-9606
▁fatigue	-9607
▁brid	-9608
bladder	-9609
▁melatonin	-9610
unk	-9611
▁GL	-9612
▁MIC	-9613
▁bon	-9614
angu	-9615
iferative	-9616
▁erg	-9617
▁remarkable	-9618
Ac	-9619
▁timing	-9620
▁("	-9621
▁summary	-9622
do	-9623
▁CE	-9624
▁AH	-9625
enal	-9626
uppression	-9627
pal	-9628
▁plot	-9629
▁anxiety	-9630
▁4.4	-9631
▁Leydig	-9632
▁naturally	-9633
2;	-9634
▁vibr	-9635
▁brainstem	-9636
▁chemotactic	-9637
▁enlarge	-9638
▁repeats	-9639
▁25-	-9640
▁suspensions	-9641
roso	-9642
95	-9643
▁Acute	-9644
▁System	-9645
▁Medical	-9646
▁amygdal	-9647
▁kinases	-9648
▁peroxide	-9649
istribution	-9650
▁converting	-9651
▁sarcoplasmic	-9652
circ	-9653
iably	-9654
▁negl	-9655
restricted	-9656
▁4.8	-9657
▁underg	-9658
▁saturable	-9659
▁preferential	-9660
▁Mar	-9661
▁sca	-9662
▁walls	-9663
lam	-9664
opl	-9665
▁representative	-9666
amuscular	-9667
▁	-9668
e	-9669
t	-9670
i	-9671
a	-9672
n	-9673
o	-9674
s	-9675
r	-9676
l	-9677
c	-9678
d	-9679
h	-9680
m	-9681
u	-9682
p	-9683
f	-9684
g	-9685
y	-9686
b	-9687
w	-9688
.	-9689
v	-9690
,	-9691
-	-9692
1	-9693
0	-9694
T	-9695
)	-9696
(	-9697
x	-9698
A	-9699
2	-9700
I	-9701
k	-9702
C	-9703
P	-9704
5	-9705
3	-9706
4	-9707
H	-9708
S	-9709
M	-9710
D	-9711
N	-9712
/	-9713
z	-9714
6	-9715
R	-9716
8	-9717
L	-9718
7	-9719
F	-9720
B	-9721
E	-9722
9	-9723
G	-9724
%	-9725
q	-9726
+	-9727
O	-9728
j	-9729
V	-9730
W	-9731
;	-9732
K	-9733
U	-9734
'	-9735
=	-9736
:	-9737
]	-9738
[	-9739
"	-9740
