PV
▁subpop
▁addi
▁Cytoplasmic
ectomy
▁glu
▁excitatory
ineph
▁thymocytes
opoietic
▁thromboemb
▁pati
▁minus
aneously
▁collagenase
piratory
ergen
▁7%
▁allergic
▁Afric
▁apolipoprotein
▁pediatric
tant
▁auditory
▁elic
▁subunit
detected
jected
Au
▁rebound
tility
▁Nine
▁saliv
onography
erican
▁Inhibition
siveness
▁analogue
▁72
▁199
▁nomenclature
urrence
▁shor
▁antigens
stranded
titution
▁stimuli
tions
▁fibers
ginine
▁physiological
▁fatalities
orin
▁apprec
▁scans
▁wors
▁fixation
erad
▁endothelium
▁glyc
▁blocker
▁tachycardia
LISA
▁salivary
ipolar
▁clonidine
▁inflamm
▁uncom
ystolic
▁streptococci
operated
evaluation
▁poorer
atical
alanine
iversity
▁glycine
▁nutr
▁mitochondria
.2%)
▁IBD
stolic
athyroid
▁carriers
▁Treatments
▁systematically
▁preferable
▁tubes
▁surrogate
▁myocardial
hig
odies
▁sequel
▁steroid
▁labeling
▁disks
▁Hz
unar
▁irrever
entical
▁comparisons
▁determinant
▁reactivation
7.
protein
bular
yro
▁moderately
pharose
ophils
▁RNA
▁31
▁hypothyroid
▁(12
▁Hyp
▁3'
▁myoepithelial
orec
loride
▁hams
▁geniculate
helin
umulative
oA
84
▁succin
▁exceeded
fine
▁coronal
▁mucosal
ophren
▁10(6)
▁clus
▁unexpl
▁acetylcholine
▁distrib
▁ceph
▁Failure
▁progestin
queous
ogenic
▁advan
ameters
namic
▁staining
▁kine
ept
▁clinically
▁Trial
ivation
entral
▁assessments
▁phosphor
▁cerebrovascular
ditional
osome
▁actu
▁cardiomy
5,000
▁mAb
▁valve
dimer
▁cirrh
olecular
▁tomography
▁pretreatment
romes
▁newborns
▁overweight
▁manu
▁aqueous
AIDS
▁antec
▁selective
▁resul
terol
lec
▁catheterisation
▁aspirin
▁infiltration
ropriate
▁heparin
itant
tion
▁neutroph
▁cues
▁pharmacists
alp
▁ATP
IU
8%
oceptor
glum
80
▁4.
produc
▁impair
▁fluctu
insulin
▁ADP
▁preclude
▁thyroidectomy
▁MM
▁65
▁IgE
▁pathways
-17
▁(4
▁previ
0.0
▁expres
▁Ras
istrib
▁reser
epine
▁intrac
iary
ohy
idney
▁uninjured
▁gamma
▁pretreated
▁hypot
nine
Ti
anin
▁irradiated
▁aneurys
phyloc
▁apo
▁worsened
▁lamin
herence
▁ramus
▁stimul
▁subsp
aminidase
▁endoscopic
▁30%
▁irradiation
trum
▁efflux
60
▁contributes
▁arti
▁subgroup
▁fluorescent
▁upd
▁antigen
▁immunity
▁stratification
▁ligand
till
▁apoptotic
protective
oglyc
▁sepsis
employ
▁circumference
uctose
▁endoscopy
▁cytoplasmic
▁Forty
▁scintigraphy
▁elimin
taining
▁diagnos
-0
▁heterogene
▁Samples
(2+)-
▁inoculated
▁transduction
▁0.5
▁substances
omedullary
▁abnormality
turb
phrag
▁susceptible
▁inducing
vul
▁hydroxylase
sies
▁incubation
ynthe
olol
▁specificity
▁statistically
▁fragile
▁proximal
▁5)
▁Rats
▁sensorineural
KI
▁bolus
Cy
▁.00
rague
78
▁sarc
▁kinase
▁residues
▁accep
▁Phy
▁ammon
▁1.8
▁hyperg
▁progressively
▁3.0
▁advisable
saturated
▁immunoprec
▁55
ameter
81
▁alanine
ocar
▁propensity
ighted
▁lavage
54
pinephrine
itone
▁inhibitors
▁emphasizes
CMV
▁arrhy
▁islets
▁TBI
▁ow
▁suppor
▁phospholipids
ostomy
▁NN
rins
cine
▁deli
orotic
▁Mucosal
▁cytokine
▁compounds
clic
3-
▁esters
attern
▁supernatants
▁oligos
▁thyroid
▁consecu
▁(7
▁oxygenation
▁AE
ifol
▁toge
aminase
▁mmHg
ococci
7%)
weighted
▁catechol
arotid
ofl
▁graft
▁thickening
ubtedly
▁regression
▁monocytes
▁prednis
▁0.01)
▁ultim
erals
▁predictor
▁11,
▁adhesive
▁theore
▁Engl
▁anticoag
▁ach
▁molecule
▁dissociation
▁retur
▁supernatant
omatic
▁20-
plas
▁recurrent
▁triglycer
50
vice
▁reactive
▁metabolism
▁hydroxyl
▁contral
▁Measure
▁pyl
▁microM
▁3%
LN
▁mRNAs
▁respiratory
▁lipoproteins
▁complexes
aldehyde
▁seropositivity
▁qualit
▁IgM
▁197
▁premature
▁markers
ellosis
versely
quit
▁precipit
ensory
125
▁outpatient
▁retinal
adenosine
▁parotid
oplas
▁Throm
▁SLE
▁anastomotic
▁reas
itamin
▁tympan
▁IGF
▁deficits
▁Fifty
3,
▁sustaining
athe
▁slices
▁expressing
inositol
affec
▁APC
▁autosomal
▁parental
▁diame
▁regeneration
tization
ergic
▁GTP
ece
▁uniformity
▁accessory
fat
▁loci
▁MV
▁89
cad
▁LN
▁cyclic
▁cations
6%)
▁withdrawn
▁indetermin
2+.
▁remin
hydro
▁topographic
jug
▁biochemical
rapid
.1%
▁mediation
functional
▁antibodies
▁(8
▁hemorrh
▁elimination
tructural
▁hormonal
▁PB
▁concurrent
ocul
▁PCT
▁NPC
▁dilated
▁nicot
▁reversed
▁8-
ods
ayers
▁gluc
▁poten
▁lept
▁hapl
ranial
▁insulin
clonal
▁gestational
embran
cence
ocytosis
-6
▁adenocarcin
▁resection
▁cholest
▁competi
▁acetyl
brain
▁activator
▁Chemical
illin
-12
tis
▁phosphodies
astatic
▁3.3
resist
▁ischemia
▁vasoconstric
▁superficial
rents
▁cation
▁desensitization
▁gastro
urrent
oxin
▁valu
▁ELISA
▁KCl
▁perfor
obarb
▁prevalence
licate
FH
tectable
▁10-
▁cumulative
▁neonatal
ardia
▁stimulated
acet
▁lithotrip
▁2.3
▁NK
▁comprised
▁(25
opoly
▁(198
▁uncovered
▁Randomized
▁ocul
▁hCG
9)
-6-
minis
▁elec
▁radiolabeled
▁alteration
▁preven
▁Clinical
receptor
sions
electric
▁consequently
▁inges
▁0.0
erent
▁TRH
▁monoclonal
▁elevation
flux
▁coli
iotensin
ospitals
▁abd
▁alleviate
▁lar
uria
heum
▁reactivity
ampl
antial
erate
tative
Ly
esic
▁dischar
▁renal
▁Alternatively
lact
▁hypoth
iae
▁testicular
▁prophylactic
▁metastas
rected
▁diabet
absorption
Pa
openia
▁HS
erb
▁vagin
severe
▁ranged
ylline
imens
▁ETS
▁Pregnancy
sus
▁thoracic
▁suppressing
9,
▁phosphatase
▁NADH
▁attemp
relations
▁calcium
▁streptococcal
▁Acute
istar
▁immunohist
▁hazard
▁modality
▁Doppler
32
▁chori
ATP
eces
▁abor
▁regulate
asone
▁diastolic
▁contex
gments
7-
▁fluids
▁2.8
ewish
tics
▁disapp
MH
▁tox
derly
eptide
erox
▁67
▁anomal
25
erator
lastoma
▁virtu
urgery
roxim
▁vaginal
▁33
▁carbox
▁tris
▁prospective
▁astro
ineal
▁follicle
ecre
▁postoperative
▁preoperatively
▁concurrently
vate
▁RAR
▁xen
▁bowel
▁24-
▁perin
keletal
▁mimic
▁Vac
0.
▁putative
▁pigmented
▁1987
8)
ergy
▁66
▁10(-6)
osomal
▁corne
▁cyst
acerb
onol
stimulating
▁2.9
▁astrocy
▁redund
▁tubercul
▁2.
▁inadequ
46
omethacin
ifug
▁enhancing
99
trical
orbol
▁HCM
oreceptor
▁adjunct
oglobulin
▁[14
ocular
▁develops
▁Ultrasound
▁caudal
adrenoceptor
1-2
▁62
▁50%
▁labial
ture
itic
▁prognostic
Ia
▁elicited
pies
Ts
LB
▁transloc
▁conclu
ucle
▁monounsaturated
▁prostatic
rogenic
ucleation
Gly
menopausal
▁bedside
usp
oxif
opathological
CoA
▁calves
ussion
▁cervix
▁NaCl
▁amn
▁thrombo
▁excreted
▁nM
aemic
Dawley
andard
▁FD
▁incub
104
▁pate
uccessful
▁(2)
▁Cushing
loxacin
▁glycos
▁atmospheric
hemo
clamp
tine
amn
▁interventions
▁bovine
▁triv
9%
▁synthe
▁connective
ximal
trac
▁subtype
incubation
Cer
cious
dibular
EGF
▁hybridization
approximately
▁chec
quid
LH
▁immunodef
-24
▁carbohydrate
opha
▁somatostatin
icine
▁dete
▁radicals
phosphon
▁overlaps
ostic
ognitive
regulated
▁resonance
▁athle
aryngeal
▁physi
▁44
▁500
ocyan
▁fetus
▁NADP
19
▁flexion
turally
▁hypertrophied
▁proce
▁actin
TB
▁recons
▁fasting
ticular
ritish
▁phorbol
▁correcting
▁sensory
▁familial
▁68
▁silicone
olis
tiv
▁implantation
▁sampl
▁hernia
▁kb
undibular
▁regimens
▁acetabular
▁pancreatitis
echanical
▁amyl
▁58
▁fibrillation
▁testis
phosph
▁phagocytic
▁thre
▁lamb
enic
-6)
ecu
nowled
▁demonstrates
osidase
▁transcript
▁plaque
opro
▁administered
ipit
-450
▁myelin
▁acute
aventricular
▁0.00
▁Thirty
roscopic
ioid
▁Previous
osides
neal
▁Concomitant
▁rotated
pine
4.
ochrome
▁intervertebral
▁evaluating
▁inhibition
▁satis
▁intestine
▁resear
▁infused
▁gallbladder
▁oxide
rele
aceous
▁BMI
AO
▁retrograde
▁HCC
▁behavioural
▁chloride
olipoprotein
▁laparoscopic
plantation
▁immunoreactive
din
ogeneic
▁acqui
▁terminals
occi
▁lysine
▁homology
ervative
▁messen
▁cyclosporine
▁pyruvate
diagn
▁histologically
▁abolishes
opsy
▁aorta
▁glomer
ullary
▁Removal
▁cortex
genic
responsive
ulmonary
▁perox
▁abnormal
▁WHO
▁tas
▁2,
idem
esium
▁immunosuppres
▁angiotensin
▁spontaneous
▁IVF
▁metoclopramide
▁ultrasonography
ethyl
▁Sprague
trition
▁rCBF
▁0-1
-2)
▁ACL
▁comple
▁aerobic
prep
▁(1
▁donor
oskeletal
▁parathyroid
osynthe
onate
▁socio
ditions
chymal
trop
▁detrimental
9-
▁vein
▁staging
NB
sul
▁vagal
qui
tens
ifferentiated
▁laboratories
▁Asp
istal
▁201
▁polyps
ellum
▁symptom
▁nitrogen
wk
tural
20
bral
PAP
▁proportional
▁oxidase
▁5'
positive
▁chemotactic
▁3-
oratory
hered
cents
▁carbohydrates
otypes
▁mM
viron
lobin
28
opia
▁sulfonyl
dition
mobil
▁discer
loid
▁creatinine
▁induce
▁contributory
56
▁lam
filtration
tus
▁conduction
olgi
fron
▁Accordingly
stress
controlled
▁venous
▁PMA
ximum
assay
ogenicity
ochondral
ologous
▁cytochrome
▁deem
▁Muc
▁20%
▁nig
▁Compared
27
isol
▁biosynthe
▁BAL
osition
▁adhesions
▁plasmids
▁coronary
▁inser
▁5.
▁excision
▁1:
▁underestimated
Hg
▁organisms
ymme
HF
embr
▁hepat
tured
▁musculoskeletal
DG
▁(20
▁thereafter
▁speculated
▁ultras
22
▁EEG
▁fluoroquin
▁Improved
tivation
ration
osyl
▁ECG
▁biopsies
▁markedly
▁reversible
▁antiserum
▁7.4
maximal
▁docum
orectal
▁CI
ocytes
▁nonc
▁cG
eclampsia
▁manifestation
▁polymer
▁ANP
▁comprehen
MN
▁sciatic
minal
▁diffuse
-4-
▁antigenic
otroph
▁FHR
tension
tors
▁appreciably
lication
▁Leu
▁regulated
tig
LDL
hydroxy
▁modestly
bodies
▁amputation
▁3,
▁spermat
▁90
49
▁heparinized
tryp
▁trig
▁hypers
-11
otrop
mittent
▁rigor
osine
▁haemorrh
▁+/-
oplast
tially
olones
arcin
CSF
▁progn
opo
aptic
1/2
chym
ylic
▁cortic
▁proportions
▁hyperp
chol
▁underwent
anav
helium
prising
▁suture
acr
▁identifies
otone
▁functionally
▁ventil
▁PET
geal
▁undergoing
▁85
▁(+/-
▁analogs
releasing
▁hepatocytes
▁unprotected
▁29
450
▁stroma
mig
21
23
▁BP
noise
stim
▁sensi
idne
▁80
esti
▁adequately
▁cef
onc
▁OA
-16
▁corneal
▁contrac
▁0.05
▁ald
▁recordings
▁electrodes
▁sedentary
DNA
glutin
▁Chan
▁livers
▁tumours
▁brom
▁ESR
▁instrum
▁malignancy
▁tol
▁Considering
ozo
▁micros
▁persis
trimental
ternational
▁perme
-20
bic
atient
▁inhibit
▁acceleration
▁apop
▁sut
▁newborn
otri
▁awa
lasting
▁mumol
▁interc
▁dehydrogenase
gression
▁microscop
▁sexes
▁smo
utyr
▁15-
▁acidic
▁stenosis
▁polym
▁propranolol
regulation
glumine
▁suppressor
umbar
aline
▁ethanol
iciently
▁mammalian
mixed
▁undergone
eliac
▁IH
▁18
▁captopril
gia
53
roin
overall
tability
ialysis
▁synthase
▁APTT
agic
▁proteins
▁sulfate
▁1.
-8)
omain
▁disparate
▁acet
▁rectal
tensive
APC
▁arachid
▁inositol
lym
▁cataly
▁hemodynamics
▁menopausal
▁ambulatory
▁23
ellular
▁nucleotide
▁45
otre
ropha
▁ventilation
rotic
othane
▁disappearance
▁usefulness
odil
KA
▁depleted
▁latency
▁methionine
IGF
▁Plas
▁surgeon
otropin
▁thymus
edic
▁adhesion
▁ions
ilateral
▁segmental
▁intraoperative
diastolic
▁homologous
▁TB
▁instability
▁metabolite
▁1000
▁hypertensive
assi
gesterone
onance
clim
lective
30
▁allogra
RNA
▁occurrence
olytic
▁Inhib
▁lax
▁transmembrane
▁84
rocy
▁probes
▁reconstituted
ceptibility
etus
▁gastric
▁oxy
dehyde
▁eosinophilic
▁eosinophil
▁CFU
▁undisturbed
amines
▁subjec
guided
hospital
▁biosynthesis
rosis
▁proteoglyc
▁rehabilitation
lys
ylchol
invasive
▁correlate
containing
ocl
▁pulp
vents
ionic
▁inheritance
▁responsive
▁dislocation
▁Hb
▁preservation
rox
rowth
▁inoculation
2).
▁AO
lytic
imination
▁disruption
cyt
▁ech
▁deform
bac
▁radiograph
abain
tub
mL
inj
▁accumulated
▁abolished
▁prolonged
▁colonization
tation
▁indomethacin
▁arth
▁hypothalamus
▁spectroscop
tussis
▁VIP
xone
▁saline
▁infec
▁chromosomal
▁selec
▁lipids
▁cephal
▁enriched
▁androgen
▁PTH
▁cuff
hern
67
iatric
▁regimen
▁epinephrine
▁schiz
fos
tophan
▁coex
▁surgeons
▁balloon
▁plantar
▁chan
▁neoplasm
▁precedes
adm
▁NF
zole
▁footprint
▁12,
▁tolerated
▁carcinomas
▁accel
iciencies
continu
.4%
▁oss
▁micron
.7%
▁hospitalization
ipr
pation
tum
▁fas
▁pene
▁epilep
▁MRI
▁4.5
▁supplementation
▁myel
-1,
▁adhering
▁suppression
▁hap
▁circulating
crib
▁NGF
▁35
tib
▁MAP
▁acids
▁vena
jejun
oprotein
▁bipolar
▁exacerb
coh
▁carc
tection
▁supple
▁corrective
pS
▁coexistence
▁Fc
▁chromosomes
urium
▁enrol
▁predictors
meth
udin
▁(19
▁alterations
oplastic
▁proliferation
tomy
ileptic
▁granule
▁combin
▁phag
▁polypeptide
veolar
▁300
ophilic
▁reagents
▁intest
▁12
renol
▁glucose
▁conformation
▁MG
▁Tum
▁6%
▁discern
ophageal
▁dehyd
▁warr
ygo
acted
adily
▁decisive
▁immunomod
▁resec
▁thym
4%
▁fibres
reas
▁antibiotic
▁detectable
cepti
edle
erop
aminop
▁homogenates
otent
▁repro
mentation
▁splic
▁exo
ogenetic
▁intercostal
otor
▁capillary
▁infarct
▁AMP
▁APD
mia
▁clinics
▁mice
▁endocrine
resting
plate
reast
olarization
inergic
erable
▁equivocal
umably
▁epitope
▁melanoma
ATPase
▁rostr
▁responsiveness
otting
▁TAA
▁employing
chond
opausal
▁reflux
▁caregi
▁adherence
-1.
▁microbiological
▁assurance
phen
▁depolarization
▁retention
▁.05)
▁prostates
▁predic
SPECT
▁cholec
▁sperm
▁potentials
anthine
▁overdose
ensit
kground
▁fractures
went
▁peri
ectom
ographically
▁practiced
obacter
▁retic
oidal
atectomy
▁ester
lecting
▁chlor
oderm
▁pathological
▁cys
▁iso
▁obstruction
▁discordant
ithi
▁64
▁pleomorphic
▁MN
▁endometr
▁shig
▁multicenter
odial
▁conditioned
iplin
▁neutrophilic
estive
▁GSH
▁organism
enzymatic
▁gout
lateral
▁follic
vated
▁hypertrophy
rosine
▁diminished
▁leakage
-30
▁melan
onstric
sors
platin
▁progres
▁homogen
▁11
SAP
▁devi
▁thrombosis
lycerol
▁reacted
tory
▁diagnose
▁granulocyte
▁peroxidase
▁discrimin
▁discus
▁mutagen
carinic
▁minimally
rophilic
▁patellar
▁ACTH
▁6.
tocin
▁upstream
5).
▁1.4
▁conceptual
trogen
▁pla
arrhy
▁disappointing
threatening
▁continence
▁chloroquine
▁affec
adian
embers
ovirus
▁scin
▁dissec
▁abnormalities
emory
▁glycerol
▁pH
illus
enhanced
▁chorio
▁mL
▁hep
▁investigations
zard
-100
▁inh
ustif
essional
▁hydroxy
valence
urea
▁promoter
▁75%
bladder
▁defective
▁prevalences
▁cigaret
erative
▁potenti
▁Improvement
▁multivariate
artum
ophylline
eptin
tral
▁reperfusion
▁hemo
▁(14
▁deliveries
▁adminis
tiz
▁Intra
▁lec
▁thromb
aturated
▁liposomes
▁External
umption
2318
▁IFN
▁ppm
ilibr
rone
▁DH
▁FH
ught
▁HPLC
▁msec
▁moles
posure
uminal
▁protoc
▁RA
urc
▁1,
▁commerc
'-
▁compli
▁incidence
▁fracture
▁coel
ionine
onyl
tures
14
astric
▁perce
cAMP
▁isolate
▁postoperatively
▁tended
18
▁reagent
▁cathe
▁metabol
activation
/3
-3
▁undetected
icardi
▁indeterminate
▁HPV
knee
atid
▁70
▁CSA
opathic
▁retin
▁monit
rotein
educed
orption
▁hepatic
6.
throm
1%
▁reposition
▁uneventful
▁plasmid
▁fibre
loro
▁utilisation
gene
LV
▁dilution
fal
▁gradients
eration
opathy
▁extrac
▁ulcer
▁Tumour
alact
oxid
▁pancreatic
▁abundant
▁septum
ocrine
▁quantitatively
▁mammography
treated
sulf
▁0.
erine
ilized
16
▁HSV
atif
▁ovarian
molec
▁relapse
toxin
▁unic
otomy
▁morbidity
▁immunode
▁0.03
-7)
▁purification
▁eradication
itro
▁viability
▁(10
▁overestimated
▁deterioration
▁filtration
▁TGF
aminated
▁paradigm
▁100
▁conjug
▁cis
olism
gth
▁antagonist
▁polymerase
nucle
▁pathologically
.3
odal
▁tubule
▁intraven
omycin
▁microns
2)
yel
ectable
▁cirrhotic
▁RB
heximide
▁esophagitis
▁heterogeneity
trin
venth
mend
itally
thym
2.
ipar
omonas
▁tracheal
idation
erally
-[
▁examin
Phe
▁analysed
blast
intestinal
▁acetab
▁microcirc
▁Plasma
cus
▁LHRH
▁cAMP
▁communic
▁intestinal
aryn
orpor
▁dendri
▁coag
abies
operatively
ocellular
▁immunofluores
▁10(-4)
▁creatine
▁49
▁19
▁averaged
▁derivatives
sion
▁gluten
▁prospectively
▁32
,000
fused
olum
▁transient
▁deletion
▁pharmacokine
▁phosphate
▁cann
erus
▁Stroke
▁medulla
nRH
▁83
▁duodenal
4)
▁interferon
licular
▁DSM
lyl
tically
▁OSA
▁8,
arbox
▁studi
▁6)
▁myocardi
▁improves
▁0.8
encephal
▁sequential
▁biop
▁compartments
▁donors
▁heteroz
▁sodium
▁synovial
▁Km
generation
▁mandibular
▁potency
▁Binding
▁phosphatidyl
▁20
▁infusion
hep
▁synthesis
▁2.0
44
▁procedural
immuno
▁recess
▁fluorescence
▁interstitial
▁neutrophils
▁allogeneic
▁indicators
▁GPs
lop
ichia
ylase
▁pertussis
▁decreases
▁fluor
▁myocytes
▁8
▁hydrolysis
▁fluoride
▁hemisphere
▁0.01
▁tumors
▁interp
lead
▁terminus
▁recurrence
▁1.3
adequ
▁oxidative
▁cerebellum
▁favourable
▁surrog
hips
idin
▁shorten
▁supernat
▁naloxone
▁electrophoretic
▁therapies
vail
timal
uccess
astolic
▁foci
resses
▁counseling
▁anastomosis
▁muscular
trate
▁degen
▁198
▁dosing
▁facilitated
▁electrophoresis
▁MBC
rosclerosis
-9,
▁(5
▁arachidonic
▁infants
phyl
▁lymphoid
▁reac
▁PAN
▁reflec
▁sequelae
▁trac
▁endarterectomy
▁inducer
▁heme
▁mug
▁nifedipine
teroid
▁viral
▁38
independent
▁psychiatric
▁jejun
RU
▁cereb
radi
alities
▁inotropic
epit
▁wean
▁restenosis
▁progest
thrombin
▁oligo
(2+
▁ouabain
▁diabetic
exis
▁deficiencies
▁1.9
▁synthetase
▁40
▁vegetable
▁olig
▁cervical
oside
▁masked
atase
▁TPA
cture
icep
▁anticoagulation
▁LS
▁omitted
onin
ospor
▁complications
jec
omial
rof
tained
▁inference
▁AGE
▁pylorus
▁monke
▁strom
▁endogenous
▁lysis
iloride
eptides
▁leukotri
▁spikes
morph
▁swelling
opamine
linolenic
ventive
stro
fected
▁diarr
▁Hg
▁physici
▁(9
▁OT
1%)
▁Treatment
rhy
▁characteris
lowering
idine
▁bic
ulph
▁misleading
inic
▁78
▁unresectable
▁inpatient
onous
▁therapeutic
▁95
▁adren
▁leukocytes
▁gp
▁sebaceous
sia
ensities
▁potentiated
▁glucocortic
▁hemis
▁urea
▁empirical
tition
▁obese
odynam
acial
ymp
achid
▁prevalent
▁sham
▁pituitary
icardial
nutrition
▁dendritic
selec
▁0.001),
▁2.4
(5
rease
▁venti
▁replic
thel
▁galact
▁graf
▁amput
▁criter
▁possi
▁nonspecific
▁pulmon
tality
asal
rologic
sive
▁heterogeneous
oresis
▁(3
▁monol
ustment
▁95%
▁practitioners
▁pHi
▁mediated
partate
otypic
▁hydrogen
▁outward
▁endoscop
▁laparo
▁unclear
▁accumulation
▁axon
▁follicles
▁fatality
▁antibody
enol
76
▁intramedullary
lycemia
▁persist
▁oes
seud
Ara
▁selectively
▁peritoneal
▁dele
ACS
▁multic
▁degrad
▁7.
2+-
▁predominantly
▁Vitamin
▁tetr
▁debr
▁acetate
siological
▁sclerosis
▁FS
▁developmental
Ra
▁unevent
.4
▁shortened
▁compart
ceptive
NAP
▁genic
ochlear
▁alve
▁immunisation
▁substrates
tical
▁PGE
riched
topril
▁31-
occal
ropriately
▁alk
▁implic
idement
▁epitopes
▁neurologic
utaneous
ylate
▁3.5
▁tryp
oride
▁stimulate
amino
CBF
▁MRC
▁umbilical
▁oxidation
▁transferrin
ducing
▁striatum
▁0.7
▁endothelin
kine
▁RV
▁predictive
mediated
▁noradrenaline
▁hemat
▁pall
▁canine
▁adver
▁focal
▁isot
▁disrup
agit
▁chl
tive
piration
▁anaerobic
gment
▁defic
▁counteract
oplasty
▁peripheral
▁86
▁gangrene
▁7-
iological
ariate
▁epithelial
▁proct
myc
▁mediates
3.
▁differentiate
▁discharge
▁ACh
▁omega
▁precur
▁placental
▁progression
▁chole
▁operative
▁juvenile
▁mRNA
▁inactivation
▁exis
▁morb
rates
100
kines
cele
▁MH
onit
▁0.01).
fusion
ulla
ecal
immune
ylamide
identical
▁degradation
ensitization
onium
rozen
▁SG
orepinephrine
▁norepinephrine
▁hydrophob
▁3.1
omers
▁placent
divid
▁Whereas
▁skeletal
▁hippocampal
ylcholine
▁neuron
deoxy
▁ALT
▁ves
▁hypothalamic
▁cysteine
▁fri
rophyl
▁adenomas
evaluated
▁projections
▁severity
%).
▁0.25
▁inhibitor
-2,
ected
lier
▁endoplasmic
▁thymidine
▁tibial
▁Contr
▁cen
▁seroton
▁preparations
ophy
▁resistant
endan
▁3.2
stem
▁calcified
▁choline
▁THA
▁homogeneity
▁quantit
▁Radi
▁AVR
▁genotype
▁striated
▁anatomy
▁proposes
▁hypotension
vant
▁vaccin
▁ATPase
▁catalytic
immun
▁(100
ithms
▁transplantation
▁ruptures
dents
-4)
▁2)
▁Immun
▁Ia
▁aggravation
ectomized
▁acupuncture
▁dimer
▁regar
TNF
dial
▁lumen
otom
▁amplification
2+]
▁arter
trip
▁soluble
▁gynec
▁aortic
.3%
▁coh
▁inad
5)
▁effector
▁methyl
▁DP
uality
▁underst
ulatory
▁unrelated
▁contraction
▁differing
▁200
otassium
▁cochlear
vian
years
▁rhy
▁quanti
▁lumbar
0.5
▁Alternative
reatine
▁81
▁CPAP
▁silic
cessive
iasis
▁titers
▁transcripts
8%)
▁deposition
▁septal
▁0.2
Tc
▁synerg
▁untreated
▁preferen
rogenase
▁transpor
▁circumferential
▁202
oten
glutinin
▁exon
▁aspiration
IgM
▁marrow
▁Phen
▁microsomes
odiaz
incidence
ulcer
▁cisplatin
▁immunized
▁CAM
▁regis
tead
▁lys
▁sucrose
hemia
uvate
ensi
acetyl
▁anesthetized
ancement
▁dye
▁arginine
▁genomic
▁1.1
▁hypoxic
▁ANF
▁translocation
ults
▁distinctly
iatum
▁vulnerability
▁epsilon
▁alp
▁mec
▁cancellous
▁caro
▁biochemistry
▁Adherence
▁injur
lood
▁assays
▁5%
▁paren
▁trough
▁phospholipase
crip
▁preliminary
aluation
▁membrane
▁repaired
tivity
mortality
▁duoden
▁electrocardi
orphism
+/
▁anomalies
▁differe
40
opramide
duce
▁nec
erence
vity
tries
idase
▁synapses
▁polyp
▁71
razosin
▁receptor
▁debridement
▁adenylate
▁clipping
operox
lesion
etal
▁stu
▁spike
0%)
rological
▁1-
▁metastases
ocomp
.2%).
▁10.
▁biphasic
oreactive
2%
▁1.2
ropyl
▁48
▁kappa
ymptom
clin
▁messenger
tase
▁unselected
▁reproduction
▁recombination
▁enrolled
▁urine
▁corticos
▁resis
enteric
opulation
olenic
orphic
▁bir
adren
roscop
▁3.6
contrast
▁retina
osamine
▁recessive
igel
▁porcine
▁disturbances
▁glut
▁acidosis
▁prostagland
▁erythrocy
duction
oscop
▁suppres
esity
▁HU
infected
▁Vaccin
▁prognosis
▁30
▁deterior
▁edema
phosphor
▁validated
ilep
hers
ovir
▁Biol
▁membran
▁morbid
▁hydrox
▁estimating
▁43
▁appropriately
entan
oxide
▁exacerbations
▁individualized
▁transcription
NAc
▁28
▁reper
▁1%
▁lymphadenectomy
▁dysfunction
arental
ivoc
cretion
tructive
▁sphincter
4-
antigen
▁binds
▁haemorrhage
olec
▁limb
hering
GV
▁cows
avage
diagnosed
ocor
▁lipid
acclim
alsy
▁medullary
▁10(-5)
▁peptide
▁currents
▁ageing
bacco
itonin
▁antagon
atial
oxane
▁reproduc
▁Biochemical
▁reductase
teral
▁incorporation
▁monkeys
▁atrial
▁injected
occus
▁pylori
▁resected
.2%
▁myosin
▁protease
▁characterize
▁diluted
irc
unctional
▁enzymatic
6%
▁Intravenous
▁melatonin
tetra
▁ancestor
tin
▁0.6
▁EMS
eroxide
urons
▁referrals
mTc
▁provocation
▁migraine
▁BALB
8.
▁scoliosis
tein
▁appendicitis
▁(10(
▁negatively
▁amyloidosis
ostat
▁inserts
▁soybean
ifferen
tam
▁mitogen
▁radiographic
▁anatomic
oic
subunit
▁shortening
▁gonad
MIC
▁techniqu
acil
▁LD
▁verteb
▁nutritional
▁mening
▁buc
▁PCO
▁genome
▁sickness
▁resto
▁intermittent
▁toxin
▁(1)
▁axons
▁suppressed
omized
▁somatic
▁unsuccessful
zation
▁circumferen
tach
electro
essel
▁0.001)
▁plasminogen
ejun
▁uterine
▁leuk
▁Addition
phth
ilical
▁psychotic
▁polyethylene
▁antiser
pregn
▁insertion
▁interleukin
▁sci
endri
-3-
▁fati
▁rigidity
▁hypo
adiol
itrate
▁defec
▁malign
▁amo
▁mortality
▁pulmonary
tetr
asive
otyp
entists
▁readings
▁displacement
▁drainage
Ki
▁fulf
▁cesarean
▁toxicity
▁evaluations
▁glutathione
▁antic
ogenes
▁adenocarcinoma
▁5.0
dia
▁tau
▁HC
▁undoubtedly
▁fractional
▁intramuscular
▁erythrocytes
▁pyram
▁ket
▁([
▁purified
ubation
▁exten
▁stained
▁deviation
anic
orac
▁definite
thle
▁pmol
▁vitro
▁glycogen
▁depolar
▁intragastric
▁eyel
▁defects
▁recombinant
athione
▁enucleation
▁satur
▁leukemia
▁radiotherapy
▁sedation
▁microscopic
▁determinants
embrane
scop
WB
lyce
55
▁asymptomatic
arial
▁symptomatic
responders
HN
▁ligands
▁kidne
-18
1).
rants
1.
certain
▁pigs
▁IgA
0,000
▁torsion
▁polypeptides
▁enlarged
▁chromatin
▁TA
3%)
▁airway
▁bradykinin
.2
▁2.7
▁femoral
rehen
▁morphologic
▁Thir
▁LVH
consuming
teine
▁Tran
▁0.04
▁22
▁gastrin
cribed
omerular
tiveness
ocarcin
▁correlated
▁phenotype
enzyme
▁pneumonia
▁concomitant
▁seb
▁reductions
iferation
ulose
plastic
▁cholinergic
▁Wistar
▁angioplasty
oretic
▁uter
▁ae
▁abdomen
▁lumb
▁Hep
▁palsy
▁ventricle
▁NMDA
▁appendic
▁remo
anking
scher
teric
▁shunt
▁Kupffer
▁adhe
alian
▁encodes
▁Protein
▁Comparison
IK
▁hemisp
dominal
▁.0
atibility
▁fluc
.9
hemical
45
▁DFS
▁hepatitis
▁reproductive
▁effec
▁Excess
▁hypox
▁cytos
▁compe
3%
▁recombin
cis
IFN
▁inflammatory
▁adverse
▁4
▁Kup
ervical
thma
▁olfactory
▁benign
▁repor
ondr
▁contralateral
▁judged
▁recom
esting
▁follicular
▁initiating
▁extraction
▁contrib
▁antibiotics
▁53
▁acad
▁cava
HG
▁apical
▁(3)
seal
ressive
4%)
▁endometrial
ysm
▁linkages
▁Significant
▁sacr
▁resuscitation
▁SNP
▁histologic
▁6-
acental
▁80-
ocaine
▁stimulates
helial
ometr
▁desm
▁69
▁rup
▁antagonists
HM
ths
▁-0.
▁shif
HB
trypsin
▁macropha
ediatric
▁mutant
▁intrauterine
▁neurolog
▁Phe
iably
▁interf
▁inadequate
▁TCR
utroph
Tn
▁numb
35
▁gradi
▁ruptured
▁rese
uclear
ovascular
▁posi
▁spleen
▁lymphoma
ields
▁exhibited
▁cytotoxicity
▁5,
odgkin
cysteine
▁limbs
ylated
57
tak
ocytic
▁laminin
▁metastasis
geons
▁synov
▁adjustments
▁vesicle
tage
iatic
▁workload
▁optimum
anish
▁Kd
▁cyan
▁Swed
▁receptors
▁PF
▁stimulation
▁manifestations
▁plasm
onuclease
carcin
▁Magnetic
▁uptake
▁pneumon
▁Roux
▁evoked
/2
▁tyrosine
amate
▁HM
▁monkey
azole
▁lobectomy
sian
▁TSH
▁infections
▁radioactive
▁bip
cored
ropine
traction
▁preventive
▁SEM
opressin
▁heavier
ocele
epti
▁leukemic
urally
▁kerat
▁rhe
▁cellular
treatment
▁24
4,
ylephrine
▁Bac
▁88
rength
vascular
▁coincidence
cyst
▁10(-7)
BW
fir
▁93
▁trophob
tives
▁microtubules
▁3)
▁natriuretic
race
▁microgram
▁plateau
▁fragility
▁tumor
▁excimer
▁interfere
▁disadvantages
amycin
▁1989
icul
▁Effective
itin
ochemistry
▁lateral
▁attenuated
▁99
hesive
quine
idated
ubiqu
entif
▁90%
▁promin
▁phosphorylated
▁muta
▁assessing
▁alleles
▁ovary
sively
inephrine
opam
▁GV
▁GH
atonin
▁etiology
▁undertaken
yses
ompan
titial
▁arrhythmias
▁ery
▁angiography
ituitary
pinal
reness
▁evid
▁46
▁(17
clerosis
activated
▁pathologists
▁carotid
▁residency
ignific
0)
Ba
▁imaging
▁tamoxifen
▁congen
▁initiation
elvic
astom
▁biom
▁malignant
centr
▁strains
-2-
▁LF
▁pyramidal
▁51
▁(11
▁reliably
▁paralle
rogra
▁pedig
▁errone
CGP
operative
odialysis
▁Dopamine
▁steroidal
▁pathogenesis
▁engraftment
▁adop
Hu
▁GMP
▁sero
trib
atment
▁endpoints
tect
ignificant
coun
▁spati
▁albumin
ostatin
▁vaccination
iotics
eak
▁COS
tages
▁catab
▁regurg
▁disparity
arbonate
▁uncommon
▁(4)
▁antegrade
eptidase
▁hormones
infarct
rC
▁56
▁Pretreatment
▁squamous
▁LC
▁scre
▁150
▁Chronic
▁mononuclear
▁5-
▁isch
methyl
▁confir
▁multifactorial
▁catheter
▁modulation
▁phon
▁polymorphism
▁1)
▁GnRH
ointing
▁adjuvant
omical
anine
▁CCK
ofluores
▁encephal
▁metast
▁lymph
▁anaesthe
▁intra
▁radioimmuno
▁decreas
▁NP
▁yr
▁implanted
odynamic
▁standardi
▁phosphatid
raine
▁rabb
▁250
1,
ureth
▁(16
▁ile
▁cocaine
▁125
▁versa
osin
▁metabolic
estis
▁inherent
6)
▁colonic
▁autoxidation
▁substantially
▁HAM
▁inclin
▁blin
▁discom
▁phosphorylation
▁beha
70
-3)
▁warranted
▁impairment
-1
moid
▁1,25
▁elevated
oru
▁luteal
oyl
zyme
▁estradiol
▁saturated
asic
▁conges
▁chromatography
▁wt
ipitation
.0
▁removes
▁regulating
▁Larger
▁oligonucle
▁thi
90
▁undes
▁hyperplasia
▁4)
▁dexamethasone
▁LPS
oproterenol
▁autoimmune
LF
▁enzymes
▁intram
▁tumour
▁asthma
▁anesthe
▁unco
▁substitu
/-
comitant
▁induces
▁pulses
acyl
tumor
▁leuc
lymph
dose
gulation
ifed
▁esophageal
affected
▁0.02
▁reevaluated
ffer
▁(54
▁concentrations
▁excretion
saccharide
▁bladder
▁glutamine
▁chol
▁0.05),
▁Physicians
▁noc
erper
▁catheters
▁fractions
omiting
▁Cardi
entricular
urethral
atories
arate
tual
▁cerebellar
-3,
ctomy
cephal
acid
▁locus
ellar
▁aneurysm
▁Serum
physiological
ethylene
▁DST
▁validity
itoneal
virus
▁cholecystectomy
▁embryos
responder
▁SDS
▁Regarding
▁endoc
tration
VH
▁cholestasis
tific
▁gallstones
▁cate
▁physiologic
▁[125
▁palp
▁chronically
▁UL
7%
▁eti
oleic
▁pacing
▁positively
▁sti
▁molec
▁bronch
▁infil
▁platelet
▁10
copic
▁precursors
hort
TG
omal
▁agonists
▁PEG
▁PMN
▁linkage
tribution
veness
▁affinity
growth
▁murine
▁tracers
▁atres
▁hypothal
▁vasodil
▁(0.
▁neuronal
▁neo
▁nal
▁immobil
▁neoplastic
-67
▁adaptive
▁phage
▁MAb
▁mann
elan
▁subtypes
otoxin
▁DN
▁rabbit
tious
discharge
linic
▁inhibin
uretic
jun
acrylamide
2),
oagulation
associated
▁percutaneous
▁0.1
teroids
▁substitution
uoden
▁Operative
▁spinal
▁evolving
2%)
labeled
tur
▁10(
▁micrograms
6,
romy
▁atherosclerosis
uin
▁ischemic
▁lectin
▁10,
▁cyto
▁residue
pecially
▁frontal
▁splenectomy
▁polyacrylamide
▁oxid
▁mutation
actin
▁mellitus
▁parasite
▁establ
▁nonadherent
either
▁coexist
▁projec
▁causal
▁warrants
▁panc
▁blockers
atinine
▁fluores
urse
▁autop
▁prono
▁differentiated
▁incubated
▁optic
▁Contrary
▁prel
ducible
▁cytology
▁ionophore
▁biliary
▁bilateral
▁bac
hyde
lux
lobulin
▁motility
luding
▁differed
▁osteoporotic
unctions
FGF
▁intensive
ietic
▁40%,
▁augmented
▁fatigue
pir
graftment
▁Recurrence
24
▁adap
▁minerals
▁iatrogenic
▁placebo
▁abdominal
▁adolescents
▁immunore
▁tympanic
▁melanomas
ilization
▁lysosomal
hei
▁quantitative
▁atropine
▁fetuses
▁beats
▁adipose
micro
▁mitochondr
▁ablation
▁PAS
▁fibroblasts
oluble
roph
▁Findings
▁spind
▁cloned
effec
▁dentists
▁analogues
▁discriminative
▁kinetic
mented
▁myo
ineural
othelial
▁exercised
▁peris
▁pathologies
lac
ipine
ducts
ints
▁detecting
drome
accharides
▁molar
▁glucocorticoid
▁physiology
▁LT
▁supplemented
diol
oplasmic
▁chloro
▁transcrip
▁lethal
▁chor
aminergic
▁anion
oracic
▁plur
▁promo
▁nmol
▁entero
tate
lox
retion
▁anae
▁catecholamines
▁Vmax
▁EGF
▁influenz
▁feasible
tened
▁consultations
▁reversal
▁heroin
▁resusc
essive
▁sple
▁questionnaire
▁HG
luent
▁ASA
▁encoun
iferol
▁curative
▁expon
▁inflammation
▁soy
▁guinea
glycerol
osts
▁sulfonylurea
affinity
tebral
labelled
▁CTL
ections
▁PAF
▁lymphocytes
-4
▁dorsal
inemia
▁12-
▁13
▁deficit
genital
8+
polyacrylamide
usate
ameth
ergency
▁respondents
itudinal
▁quin
oty
29
▁tet
▁blockade
▁oocytes
▁aerob
▁inoc
▁distal
▁annulus
▁Cox
▁molecules
▁ipsilateral
▁79
▁subf
▁3
vely
venous
▁unde
uted
▁Neurop
yroid
FV
tidine
▁Elec
oxidation
▁somat
▁gangl
▁ascer
ilic
0%
▁equilibr
▁increas
▁endarte
adrenergic
tif
▁isoform
▁simultaneous
▁refrac
▁timely
▁surgically
▁21
▁Estrogen
▁loosening
oconstric
otomies
▁extensor
onomic
▁stimulus
▁pep
effectiveness
▁milieu
▁injec
▁ganglia
2+
10
▁superoxide
▁0,
▁anat
▁headache
alues
▁Systolic
oung
RH
EG
▁Ig
▁1.6%
▁inters
esia
▁epidemi
ritin
▁crest
▁600
▁plasmin
othel
▁grading
▁elong
omies
▁PID
henyl
tituted
▁prescrib
▁tracer
▁haem
▁histopathology
hap
▁incomplete
▁cartilage
mega
heal
▁colorectal
LU
Ala
▁recr
▁hygiene
▁autologous
▁vesicles
▁AMI
▁intracellular
▁39
5'-
▁pelvis
▁rejection
▁anastom
ressing
▁preferably
▁lobe
ensitivity
▁tric
▁pancreas
▁ultrastructural
▁77
lycer
▁sugges
-2
▁inactivated
sA
▁VE
vertebral
5.
▁subsets
▁bypass
owel
pyr
▁visually
gesia
oxia
▁questionnaires
▁derangement
stimulated
glucose
▁hypoglycaemia
▁neurological
▁conservatively
▁inhibitory
ertion
vic
5),
▁42
NK
▁tertiary
▁amino
assium
▁Steady
▁thorac
▁cavity
ectin
▁HN
uppres
mental
▁secretory
▁thiol
▁strep
isomer
▁(95%
▁Lys
.8%
▁substrate
▁vacu
▁rash
▁pyr
▁rigorous
▁parame
▁psychosocial
▁conserved
▁strepto
▁illustrate
▁phospholip
▁targe
▁apparatus
▁bloc
▁PEEP
irrhotic
chloro
▁inten
▁(30
WBC
siology
ochemical
xia
ipient
▁gland
▁synaptic
Tu
▁exchan
formin
17
▁behavioral
otropic
▁ventilatory
▁isoproterenol
▁overd
rati
▁85%
▁drin
▁mutants
▁medial
terone
oxygenase
oblasts
▁(2
▁preferentially
▁examinations
ourable
▁agon
ibi
▁inactiv
▁enl
ohyd
▁resour
▁nuclei
▁Paget
▁beverages
▁MCP
▁adduc
▁26
dic
amet
▁construc
ocortic
ogenous
▁zinc
owever
▁1.6
▁50
34
▁centr
▁perc
ologic
▁35%
▁autoradi
▁19%
▁ischem
Ka
▁axillary
▁cerebral
▁estrogen
-80
▁alveolar
▁decreased
▁manipulations
▁vitamin
▁mutations
mitter
▁predicts
urement
▁clearance
▁cortisol
sensitive
▁erg
ronch
▁cyt
▁endothelial
▁SBA
▁filaments
▁ana
ffs
▁alkaline
imin
▁spi
▁CsA
▁monitored
armac
▁prophyl
▁subtraction
▁oro
▁glucagon
hea
▁scanning
grees
▁cros
adder
▁prolif
▁dopaminergic
▁Patients
▁mucosa
▁preterm
▁envelop
▁libr
earance
▁196
▁cardi
▁chond
▁throm
▁empir
opulmonary
▁adenoma
zymes
▁axonal
immunization
▁5.5
amus
▁guan
▁compartment
▁identi
sorb
encl
▁hypothe
leb
5%
▁reflex
▁Golgi
▁diagnoses
olysis
▁1
▁tiss
▁carcin
▁10%
resistant
echn
▁thromboembolic
▁cancers
▁collateral
terase
thyl
▁herpes
▁blot
▁asymme
▁7
sue
inol
▁epi
ficial
▁evol
▁hemorrhage
12.
▁glial
trative
▁mammary
▁76
fib
tamine
▁Mn
▁oxidized
▁RP
▁1986
▁resol
ometh
motic
▁lymphocyte
▁microc
mide
▁(6
▁implicate
Gi
odon
▁nodules
▁occlusion
▁perfusion
▁Increas
▁forskolin
▁modif
▁glycoproteins
vation
▁moiety
etan
▁neoplas
▁IIb
2-
▁vancomycin
▁LV
▁9
SAH
ortal
▁transplanted
▁tubules
▁Cd
▁inhibited
▁physicians
mur
▁diabe
▁yiel
urate
▁differenti
▁ascertain
cholesterol
▁VC
▁requi
▁radiolab
▁activating
gely
acin
▁embryo
31
omat
▁Routine
omod
▁merits
▁variants
▁ascertained
▁PCR
▁collagen
isqu
▁depres
▁cerv
▁integrating
glut
▁ART
graft
▁similarity
renal
▁afferent
▁excre
▁papill
reactive
▁obesity
▁reag
▁Pregn
▁sev
▁GI
.8
hydr
▁subjected
ylation
▁Therapeutic
▁pS
umulation
▁paradig
taken
▁dodecyl
▁potent
ulitis
etitive
apeutic
7,
sorption
▁(0.0
▁bronchoscopy
▁0.3
▁normotensive
▁aureus
GH
▁mediate
▁muc
▁intrap
▁GVHD
erving
pH
▁Meas
▁respec
▁cGMP
▁fron
▁dosage
lip
▁fibronectin
▁traum
▁HL
▁chromat
ogens
▁sympathetic
▁neurotrans
▁parap
▁cue
▁implicated
▁virul
▁poin
oscopic
▁empirically
obl
▁potassium
▁persisted
▁prenatal
ondral
▁unil
▁kDa
ycin
▁gallst
ravid
▁16
▁exclusion
▁fetal
▁40%
▁restor
▁progesterone
▁necro
▁cyclo
5%)
▁cystic
▁carcinoma
▁adhere
kinase
eptid
▁incom
▁60%
alc
▁microscopy
▁contractile
OH
▁decreasing
▁dietary
▁3.4
▁complemented
▁radiol
▁PGF
▁polymorph
▁vasopressin
▁differentially
▁63
▁angina
▁wee
▁2.2
▁phi
▁differentiation
▁52
39
esthe
▁14
▁gestation
▁pathologic
truc
parative
▁microtub
vival
▁innervation
▁mesenteric
bility
neumon
ervations
▁extracellular
▁nucleotides
▁tec
▁intravenously
kade
▁palliative
▁thir
8,
▁dors
irrh
▁prostatectomy
ochem
oclonal
▁disulfide
tial
▁CG
monary
▁prolactin
▁analges
▁Multiple
▁bile
▁bene
arous
▁correlates
▁Cells
kephal
▁glands
▁provid
omotor
tabl
derived
planted
▁restorative
eal
▁hipp
▁Americ
adrenaline
▁cytoplasm
otides
thymidine
+)-
▁orally
obarbital
urane
totic
▁cadaver
▁nitro
▁aspec
▁Rout
▁tachyc
▁exer
▁irreversible
▁uni
▁atresia
▁NB
▁ure
faction
▁Increased
▁nm
▁60
▁fentanyl
▁vascular
▁synchronous
▁arteri
idol
ixation
▁appropriateness
▁4.0
coup
bearing
FU
gmental
▁34
adherent
▁progen
erance
▁lipoprotein
▁groin
roma
▁carcinogens
▁glycaemic
erating
dle
▁electr
ubicin
lusion
▁differen
▁referral
▁6.5
▁colonoscopy
▁aden
▁transfusion
angli
nitro
▁microm
▁HI
▁frac
▁IBS
luores
▁0.000
tisol
▁enzym
▁comparative
▁distin
▁scaled
▁routinely
▁AGA
▁immature
osom
▁consis
▁muscul
▁ejection
▁FV
hyd
▁EO
▁0.05)
▁Atropine
increased
acchar
▁100%
2/
▁discontinued
▁cigarettes
▁variability
▁kidneys
▁Ear
▁aort
▁PKC
▁angi
icin
gic
aturation
▁TC
▁longitudinal
▁ceased
terminal
▁VD
semin
ograms
MV
▁opioid
▁unchanged
arers
▁yielded
ivary
TN
▁discontinu
▁IU
kephalin
▁linole
▁0.4
▁bp
▁systolic
unced
risk
▁schizophrenia
▁ossification
▁gyn
regn
angl
cardi
opa
▁ethyl
anding
▁multim
▁assemb
▁consolidation
▁electrode
▁adjustment
▁6
▁ultr
▁acco
NH
▁disagreement
▁61
▁ganglion
▁hamsters
▁deformity
▁amph
uptake
▁basal
▁dialysis
▁endotoxin
illation
▁Surgical
onad
▁cholesterol
ucine
modulin
▁inappropriate
▁pathology
▁postsynaptic
▁attributable
valent
erin
leu
▁HDL
▁propor
tact
leukin
▁audi
▁reticulum
▁ingestion
▁depletion
trated
▁sinus
▁80%
▁VP
atation
urine
anyl
dor
titu
▁hern
tagland
elong
nai
▁120
▁secreted
▁subc
▁LOS
▁modulate
▁exert
▁74
▁ketamine
▁hygi
1-
▁echocardi
▁fractured
▁birthweight
lysis
erated
siologic
onset
oradi
clinical
▁bicarbonate
iability
▁CMV
▁demographic
▁Mg
▁microsomal
injured
▁superv
athy
heres
15
orrh
▁2
▁microv
▁assay
BV
atible
▁anatomical
-1-
▁RS
▁secretion
fts
▁4-
erents
▁[3
▁experim
itively
▁atmosp
▁testosterone
▁GER
phrine
▁Bec
tering
▁maturation
phasic
▁96
▁AVP
(1
▁subunits
4+
▁inapp
▁synergistic
▁deple
fentanyl
▁unrel
▁cardiovascular
75
▁duc
▁histamine
/6
▁scl
linking
ococcal
▁junctions
oprote
▁disulf
odium
inally
heric
IIIa
▁compressed
▁psychotropic
▁eyelid
▁pineal
ffinity
chers
▁uncontrolled
▁paraventricular
/100
▁myc
▁prostate
▁hypothyroidism
▁reduc
0-
▁positioning
tolerated
▁favorable
▁summ
▁CSF
▁endot
▁unaware
▁simult
inactivation
▁0.05).
olamine
gland
▁sulph
▁hippocamp
▁intrag
▁canc
ochondr
▁CNS
▁Thromb
▁thrombolysis
toc
▁subcutaneous
orrhagic
▁avail
▁UF
▁mell
ffin
▁carbachol
bumin
3).
▁splenic
▁digestion
kDa
enin
phosphonate
onary
▁mitral
▁prescribing
▁pneum
Ig
▁gynecological
13
▁enti
uran
vices
▁margins
▁preconditioning
-10
▁1.0
-40
▁1988
farct
▁induction
▁CRF
▁irradi
asses
ffe
▁intravenous
▁occlusal
▁definitive
▁microvascular
▁Bone
▁elu
▁thal
▁overex
▁overlapping
▁desirable
4).
▁exce
▁ICS
▁2-
lue
▁fibrin
▁adrenergic
olip
▁accounted
0%,
▁0.001).
-5-
▁PRP
▁sph
amethasone
▁nucleus
acetate
▁hemodynamic
▁utilization
-9
▁uremia
▁ultrason
ayed
▁(0.1
▁conformational
▁autoanti
▁subgroups
ortic
umerous
▁DG
chlor
▁filament
▁verapamil
▁0.01),
▁embryonic
▁ane
▁adequ
▁Adverse
▁traumatic
▁influenza
▁clinicians
:1
▁noncom
▁interpersonal
induced
▁isolates
▁perone
▁overlying
-7
▁perip
▁correlations
▁platelets
▁unexplained
hicle
rae
isture
dent
ocamp
▁aor
2,
atural
▁phagocy
▁2.1
00
▁peroneal
athetic
79
genes
arginine
nee
olipid
▁Surgery
oxone
▁sial
▁volumetric
7)
▁serotonin
sible
▁neurones
versal
▁(0.5
-13
▁atten
▁indicative
▁polyclonal
oactive
▁utero
▁glycoprotein
▁enzyme
tally
▁1/
▁crude
▁lamina
overed
▁spontaneously
thyroid
tran
▁laparotomy
ociation
arean
FG
▁eliciting
▁prol
▁introduces
▁hippocampus
▁infar
▁RH
▁ect
▁congenital
▁algor
thmic
tized
-5)
amide
epam
chondral
ivariate
▁dissection
▁intake
agin
xual
▁arterial
▁lesion
▁allevi
xiety
trus
▁Escherichia
▁Blockade
▁pathway
▁susceptibility
▁enteral
lasses
▁dendrites
▁cutaneous
▁adolescent
▁feasibility
▁chemot
▁kinetics
oscopy
itance
▁tryptophan
▁proteolytic
▁cytotox
▁bran
▁highl
▁restric
acylglycerol
erum
igaret
▁triglyceride
hion
trast
▁symp
▁MEP
▁laparoscopy
▁cytotoxic
▁resemb
sequent
ositol
▁vaccines
oprec
agal
▁Analy
▁unemploy
lix
/1
ronchial
▁neurom
urred
▁induc
▁yeast
▁arteries
▁herp
▁confound
▁lymphomas
▁CRP
▁implant
pig
jective
.1
▁pharmacological
ymptomatic
▁termination
▁abl
▁Percutaneous
12
▁atrophy
▁IB
▁stimulatory
scherichia
▁recor
▁ultrasound
▁osteoporosis
gluc
aginal
atab
.5
luc
▁obser
▁extracts
phil
▁seizures
angi
osterone
▁2%
ophag
▁undo
atheter
▁reticul
▁injections
onor
▁stimulating
▁occl
▁selectivity
▁unilateral
▁macrophages
gative
▁grafts
66
▁depressive
▁births
▁RBC
dine
▁clinician
▁morphological
▁ensured
▁peptides
▁NH
▁(13
▁hemodialysis
-60
onuclear
▁prednisone
▁periodontal
▁ration
sial
▁32%
trol
lated
▁fibroblast
stab
▁mono
▁horiz
▁rationale
3)
86
1/
versus
▁globally
▁caffeine
▁electroph
peptide
fication
▁IHD
▁4%
MDA
▁proton
gans
2+,
▁refractory
65
▁MHC
thmias
operoxidase
▁prosthe
ceptual
ocardial
▁fertil
▁synthesized
▁theophylline
▁perfused
▁epidemic
tence
▁predicting
▁neph
▁pelvic
▁substituted
▁GBS
69
▁gon
iosis
▁avascular
▁cardiac
.6
▁acyclovir
▁isop
▁disper
▁conduc
▁87
▁2.5
▁pter
▁BD
▁trypsin
▁struc
▁inhibiting
▁densities
atoid
rangement
▁analyses
▁Ket
ostal
tively
▁7.5
▁lith
▁remission
▁benz
tent
onatal
▁Inclusion
Daw
entanyl
▁diffic
▁interacted
atell
▁Older
▁synap
▁constitutes
▁discusses
▁concom
▁allele
▁wk
▁cannulae
transplantation
robic
▁4,
▁phe
0,
pecific
entary
thase
▁morphine
▁Patient
▁Prospective
▁smokers
ypical
ococcus
▁HLA
▁doses
kage
OA
-5
ocyt
▁UTI
ulae
▁genotypes
▁radioactivity
genesis
▁bronchi
oplasm
▁phenyl
▁immunization
▁Cyt
▁identif
-1)
dimethyl
▁rabbits
DH
▁prophylaxis
▁urinary
truction
sibly
tention
▁sten
▁aldosterone
▁postnatal
arthritis
▁chewing
tinu
▁inward
Cu
ygen
▁adrenal
relevant
ollicular
▁amy
▁reflecting
▁lithotripsy
tel
▁Stu
▁grouped
▁foc
▁cardio
▁produc
iotic
▁distinguishing
iminary
▁calcification
▁LH
responding
▁21-
▁complication
mutant
▁parag
▁30-
▁pT
Hb
▁intrinsic
▁morphology
▁unex
5-
urther
ocardi
luded
▁-0.5
▁19-9
▁solub
TU
▁(18
ncy
▁neutrophil
▁ACE
odic
▁25%
▁natri
SCC
ancre
▁multiv
▁constric
oag
▁directional
sities
▁47
adic
▁73
▁ovari
▁divertic
ygous
▁descending
▁dex
CRP
phon
gents
▁pathogen
▁forsk
▁inversely
▁clon
▁insertions
▁37
itures
▁gad
▁anemia
▁nulliparous
▁presynaptic
▁gels
▁corpus
ureus
▁Emergency
ctive
▁clamp
hypertensive
▁spectro
ercul
lasts
▁geriatric
▁cytosolic
8-
▁periodon
▁splen
▁chromosome
▁investigating
▁IUD
perfusion
▁pressures
11
monstr
▁normo
▁NMR
itus
▁saturation
)2
▁gonadotropin
tice
vating
rophob
eded
adication
▁magnesium
▁unres
▁evacuation
apamil
▁diets
▁intermedi
▁leu
▁immunobl
ectomies
plasia
▁amyloid
▁caud
▁perinatal
osyn
▁subun
illi
5,
verages
▁tymp
▁palpation
tec
aemia
Ds
▁LDL
lax
mature
▁junction
estion
▁8.
▁assayed
▁overexpression
rine
ophil
▁27
▁Greater
thre
▁vitamins
lectomy
diabe
▁oils
85
PSP
▁vomiting
▁plas
▁overe
ognition
▁TK
nthe
▁Histologic
tance
▁facilit
▁interpre
▁lact
+,
▁5
▁CK
▁phosph
97
illic
▁cytosol
▁undetectable
▁Tren
▁6,
orative
▁hypog
▁glutamate
ulfonyl
▁sarcoma
▁carboxyl
▁0
▁tonsil
estions
▁7,
▁98
hydrox
IH
▁VS
▁inver
rested
▁accelerated
▁turnover
▁cortical
phenyl
▁objec
▁monomer
▁expenditures
▁Alter
▁surgical
phe
ifugation
▁180
▁intrarenal
▁suggestive
▁replication
▁hormone
ogra
▁epiderm
orax
bloc
econd
▁bacterial
toph
▁SGA
uncture
rement
olus
▁aggregation
▁adi
▁Biochem
▁sulf
▁deficiency
otactic
natal
▁ortho
▁spectroscopy
atrial
▁IgG
▁substanti
blind
▁TNF
▁VO
.5%
▁NADPH
▁consol
▁efficacy
timulation
otin
▁gly
BK
ociated
▁IA
▁(5-
▁tRNA
▁0.9
▁regen
%),
▁metabolites
▁episodic
otoxic
▁artery
lep
uble
+]
▁residual
duced
▁tubular
ositive
▁concordance
1),
ffeine
oate
▁opi
▁membranes
facial
uron
▁Alcohol
iliac
okine
▁unaffected
▁reproducible
▁implantable
orphin
dies
transferase
▁Ara
▁discon
▁esophag
ivered
▁BV
▁metastatic
▁illustrates
▁OC
▁underg
▁veins
▁attrib
▁underlie
retro
▁vesic
▁symme
▁ratios
▁centrifugation
▁microb
▁TG
▁biopsy
▁kidney
elec
▁sequentially
▁statis
▁allo
▁PVR
▁consequent
cells
▁mucos
▁adenosine
▁20.
▁exhibits
tradiol
▁rats
▁brady
▁placenta
sych
▁Experim
ocarcinoma
atitis
▁mV
▁perforations
▁peptic
▁infusions
.9%
▁prostaglandin
KD
razole
▁detergent
▁degeneration
▁hypertension
glyc
ometrial
▁depr
otide
phosphamide
▁cartil
▁afferents
48
▁influx
phragm
cutaneous
romed
▁chemo
▁FSH
▁intraper
tabol
1-3
▁pec
lob
▁connec
wenty
▁lactate
▁neurons
▁inhalation
azol
▁onc
▁assis
▁cleavage
▁callus
▁heavi
otox
▁myocardium
▁infectious
toxic
tensin
opres
▁coval
▁pedigree
atients
▁400
▁topical
mol
▁migrated
▁amin
▁BPs
ifferenti
▁additive
ronectin
▁Medicare
▁hemoglobin
▁widening
▁sediment
▁glomerular
ifedipine
▁tidal
▁systemic
ailure
olesterol
▁cohort
▁renin
26
▁ventricular
greater
kele
▁stellate
▁collec
uting
TSP
▁ventral
▁preceded
▁deprivation
▁contaminated
trexone
.6%
▁ineffective
▁localization
▁athe
osal
▁fibr
eared
phal
selective
▁innerv
▁colloid
atum
▁15
▁transcriptional
▁problematic
plants
▁supervision
ithm
▁Delayed
▁rati
▁detachment
phosphate
▁umb
▁unin
▁needles
▁epileptic
▁postmenopausal
▁stric
▁homogene
▁anesthesia
▁Experiments
estim
silon
▁pregnancies
lapping
▁specialty
▁histological
▁Continu
utable
ecyl
▁onset
-14
▁viruses
▁cryp
▁chamb
▁lis
▁stren
▁tissues
othermic
▁arthritis
▁organs
▁dopamine
idate
Ca
▁calmodulin
▁naltrexone
acting
▁immig
itoneum
▁adolescence
▁alcoh
-15
37
▁hazards
physiologic
▁endemic
Nase
▁depic
▁hydrophobic
olateral
tic
▁tran
▁carbohyd
nec
▁radiography
▁effic
▁permeability
▁BW
osocial
▁immunoglobulin
▁tib
ignant
▁insufficient
onucle
▁vivo
▁tuber
rotid
1)
▁insuff
▁deformities
▁1.7
▁HB
atine
-8
roximately
▁tert
▁immuno
▁interv
odg
▁indi
rophy
▁chemotherapy
▁pharmac
ritis
olectomy
▁confron
▁proliferative
▁catecholamine
ximide
▁acin
▁juven
ynaptic
▁occupational
▁granul
▁trophoblastic
▁tes
▁hospitalized
▁complementary
▁aggres
opi
▁specimens
rever
▁derange
▁immunological
▁impaired
olated
osomes
▁stillbirth
▁fatty
oretical
88
ventricular
▁ionic
▁embry
▁ambul
▁predominant
ithelial
tox
▁neurop
▁75
▁deficient
▁EBV
▁colonies
▁femur
▁inactive
atest
▁socioeconomic
▁linoleic
▁immun
▁17
ranolol
▁iod
▁emerg
▁hetero
sibility
▁fibrosis
▁79%
illary
ovine
▁contractions
anese
▁serine
▁erroneous
▁tuberculosis
▁randomized
reased
▁strand
▁radiological
▁tach
▁difficul
erations
Leu
ivocal
ustained
▁54
▁vasomotor
birth
▁atheros
▁eryth
▁PV
rectal
▁advancement
apeu
▁cyclospor
▁indications
reported
▁relap
▁fibrob
feren
▁musc
▁ips
TK
▁invasive
▁cardiomyopathy
▁modulates
benz
rene
▁3.
▁syndromes
▁Whilst
▁gait
▁attentional
▁immunos
▁GFR
▁mitochondrial
▁metformin
rane
000
clo
▁5'-
▁histopath
vac
▁trache
edullary
tric
▁discomfort
▁quantif
▁measurable
▁congenitally
.7
Fs
▁unstable
▁agonist
utions
▁memb
carb
▁Streptococcus
sess
▁infarction
▁insufficiency
▁stromal
▁perceptions
▁VL
▁transfected
galact
emia
▁necrosis
▁localized
ontal
▁preoperative
ipid
▁recipients
▁rostral
inhib
crimin
▁57
echan
▁Chest
▁41
▁codon
▁paraplegia
▁PSA
ocusing
etween
▁VAS
▁labelling
feron
kely
▁mmol
▁assessed
▁rheum
▁suscepti
▁exogenous
▁repres
ubted
gm
▁contamin
▁extre
lastic
urys
▁identically
oxic
tingu
tro
▁keratin
▁GABA
▁coeliac
▁AIDS
▁leukocyte
▁lyso
▁transurethral
tero
▁iliac
oxygen
▁eluc
▁rotational
▁precursor
▁plex
ventional
vaginal
▁transi
fec
▁Severe
▁duct
▁serum
▁Neu
▁cyclase
▁comprehension
ocyte
▁verte
Ta
▁hydroly
idis
▁hepar
▁ventric
▁(50
anol
estig
▁antisera
▁inhibits
▁cla
▁clones
▁leucine
▁confined
▁SCH
▁detec
▁epit
▁epithelium
economic
hyp
achol
▁pancre
spective
▁elucidate
▁screened
▁fmol
6-
▁demonstrating
▁Comparisons
▁motone
cold
▁apex
▁excitation
phic
versity
▁Medicaid
lyc
urin
▁thyro
▁thresholds
▁rheumatoid
▁hypoxia
ofol
43
olone
▁2.6
tents
▁Tumor
legia
▁fibrinogen
▁muscarinic
▁inhal
▁PCP
▁transplant
▁latent
MRI
▁lute
pendent
▁ADH
uterine
kinin
▁irregular
phos
▁followup
▁irritation
]-
▁retrospective
acetic
▁exposures
▁PRL
▁Dil
▁reproducibility
mediately
/10
▁amp
spectively
▁Preoperative
▁potentiation
▁cohorts
april
▁ulc
▁phy
▁cultured
▁neon
lore
▁erythrocyte
▁buccal
ithiasis
▁hyperfiltration
▁macrophage
▁HMO
▁orthopaedic
quired
rals
▁depar
▁uncomplicated
testinal
▁hemorrhagic
▁labelled
stages
▁70%
utin
▁conductance
▁cirrhosis
oglobin
acetylcysteine
▁CABG
ogenesis
oprol
▁poisoning
▁nosocomial
▁calf
▁36
tyl
essential
▁SHR
uvant
▁conclusive
▁practic
median
ffec
▁pressor
▁DF
▁82
▁Taken
implantation
▁granules
-19
▁phospholipid
▁homogeneous
ithin
▁spre
▁luminal
▁hypertro
ophore
▁challen
uscular
▁thrombin
(+)-
▁corticosterone
▁HCMV
▁maternal
urgical
▁islet
▁acyl
▁undergo
▁epidermal
amyl
bly
loon
▁cytokines
▁oste
▁palli
▁59
enia
▁causative
ministration
nosis
▁25
▁cDNA
▁(15
accharide
▁intrav
▁questionnai
▁1.5
▁eosin
▁calor
▁RM
▁merit
▁bronchial
▁pharmacy
▁UT
tected
arer
+)
▁steroids
adrenoceptors
pT
▁attenu
▁antagonized
▁ambient
deficient
▁GE
▁amines
▁nasal
rectomy
iol
▁regurgitation
▁endos
▁spon
▁hamster
tional
▁thromboxane
eric
tron
▁lesions
▁15%
