<unk>	0
<s>	0
</s>	0
<0x00>	0
<0x01>	0
<0x02>	0
<0x03>	0
<0x04>	0
<0x05>	0
<0x06>	0
<0x07>	0
<0x08>	0
<0x09>	0
<0x0A>	0
<0x0B>	0
<0x0C>	0
<0x0D>	0
<0x0E>	0
<0x0F>	0
<0x10>	0
<0x11>	0
<0x12>	0
<0x13>	0
<0x14>	0
<0x15>	0
<0x16>	0
<0x17>	0
<0x18>	0
<0x19>	0
<0x1A>	0
<0x1B>	0
<0x1C>	0
<0x1D>	0
<0x1E>	0
<0x1F>	0
<0x20>	0
<0x21>	0
<0x22>	0
<0x23>	0
<0x24>	0
<0x25>	0
<0x26>	0
<0x27>	0
<0x28>	0
<0x29>	0
<0x2A>	0
<0x2B>	0
<0x2C>	0
<0x2D>	0
<0x2E>	0
<0x2F>	0
<0x30>	0
<0x31>	0
<0x32>	0
<0x33>	0
<0x34>	0
<0x35>	0
<0x36>	0
<0x37>	0
<0x38>	0
<0x39>	0
<0x3A>	0
<0x3B>	0
<0x3C>	0
<0x3D>	0
<0x3E>	0
<0x3F>	0
<0x40>	0
<0x41>	0
<0x42>	0
<0x43>	0
<0x44>	0
<0x45>	0
<0x46>	0
<0x47>	0
<0x48>	0
<0x49>	0
<0x4A>	0
<0x4B>	0
<0x4C>	0
<0x4D>	0
<0x4E>	0
<0x4F>	0
<0x50>	0
<0x51>	0
<0x52>	0
<0x53>	0
<0x54>	0
<0x55>	0
<0x56>	0
<0x57>	0
<0x58>	0
<0x59>	0
<0x5A>	0
<0x5B>	0
<0x5C>	0
<0x5D>	0
<0x5E>	0
<0x5F>	0
<0x60>	0
<0x61>	0
<0x62>	0
<0x63>	0
<0x64>	0
<0x65>	0
<0x66>	0
<0x67>	0
<0x68>	0
<0x69>	0
<0x6A>	0
<0x6B>	0
<0x6C>	0
<0x6D>	0
<0x6E>	0
<0x6F>	0
<0x70>	0
<0x71>	0
<0x72>	0
<0x73>	0
<0x74>	0
<0x75>	0
<0x76>	0
<0x77>	0
<0x78>	0
<0x79>	0
<0x7A>	0
<0x7B>	0
<0x7C>	0
<0x7D>	0
<0x7E>	0
<0x7F>	0
<0x80>	0
<0x81>	0
<0x82>	0
<0x83>	0
<0x84>	0
<0x85>	0
<0x86>	0
<0x87>	0
<0x88>	0
<0x89>	0
<0x8A>	0
<0x8B>	0
<0x8C>	0
<0x8D>	0
<0x8E>	0
<0x8F>	0
<0x90>	0
<0x91>	0
<0x92>	0
<0x93>	0
<0x94>	0
<0x95>	0
<0x96>	0
<0x97>	0
<0x98>	0
<0x99>	0
<0x9A>	0
<0x9B>	0
<0x9C>	0
<0x9D>	0
<0x9E>	0
<0x9F>	0
<0xA0>	0
<0xA1>	0
<0xA2>	0
<0xA3>	0
<0xA4>	0
<0xA5>	0
<0xA6>	0
<0xA7>	0
<0xA8>	0
<0xA9>	0
<0xAA>	0
<0xAB>	0
<0xAC>	0
<0xAD>	0
<0xAE>	0
<0xAF>	0
<0xB0>	0
<0xB1>	0
<0xB2>	0
<0xB3>	0
<0xB4>	0
<0xB5>	0
<0xB6>	0
<0xB7>	0
<0xB8>	0
<0xB9>	0
<0xBA>	0
<0xBB>	0
<0xBC>	0
<0xBD>	0
<0xBE>	0
<0xBF>	0
<0xC0>	0
<0xC1>	0
<0xC2>	0
<0xC3>	0
<0xC4>	0
<0xC5>	0
<0xC6>	0
<0xC7>	0
<0xC8>	0
<0xC9>	0
<0xCA>	0
<0xCB>	0
<0xCC>	0
<0xCD>	0
<0xCE>	0
<0xCF>	0
<0xD0>	0
<0xD1>	0
<0xD2>	0
<0xD3>	0
<0xD4>	0
<0xD5>	0
<0xD6>	0
<0xD7>	0
<0xD8>	0
<0xD9>	0
<0xDA>	0
<0xDB>	0
<0xDC>	0
<0xDD>	0
<0xDE>	0
<0xDF>	0
<0xE0>	0
<0xE1>	0
<0xE2>	0
<0xE3>	0
<0xE4>	0
<0xE5>	0
<0xE6>	0
<0xE7>	0
<0xE8>	0
<0xE9>	0
<0xEA>	0
<0xEB>	0
<0xEC>	0
<0xED>	0
<0xEE>	0
<0xEF>	0
<0xF0>	0
<0xF1>	0
<0xF2>	0
<0xF3>	0
<0xF4>	0
<0xF5>	0
<0xF6>	0
<0xF7>	0
<0xF8>	0
<0xF9>	0
<0xFA>	0
<0xFB>	0
<0xFC>	0
<0xFD>	0
<0xFE>	0
<0xFF>	0
in	-0
▁t	-1
▁a	-2
re	-3
he	-4
on	-5
ti	-6
▁o	-7
te	-8
▁the	-9
▁c	-10
en	-11
▁s	-12
▁in	-13
▁p	-14
▁of	-15
▁w	-16
al	-17
▁an	-18
ro	-19
as	-20
es	-21
er	-22
▁m	-23
ed	-24
or	-25
an	-26
▁d	-27
▁b	-28
tion	-29
it	-30
▁f	-31
is	-32
▁and	-33
ic	-34
ar	-35
▁re	-36
at	-37
le	-38
ate	-39
ent	-40
ing	-41
▁e	-42
▁to	-43
el	-44
ation	-45
▁th	-46
ul	-47
▁(	-48
ec	-49
ly	-50
▁n	-51
▁T	-52
▁h	-53
os	-54
us	-55
ol	-56
ac	-57
▁l	-58
id	-59
om	-60
ter	-61
ur	-62
ere	-63
ith	-64
▁with	-65
▁g	-66
im	-67
tr	-68
ve	-69
▁con	-70
▁was	-71
un	-72
▁1	-73
▁The	-74
ce	-75
uc	-76
▁pro	-77
ig	-78
um	-79
ot	-80
ati	-81
ated	-82
▁v	-83
am	-84
if	-85
▁were	-86
▁be	-87
res	-88
ell	-89
▁for	-90
il	-91
ph	-92
▁by	-93
▁I	-94
▁r	-95
od	-96
ow	-97
oc	-98
ts	-99
ine	-100
ta	-101
▁de	-102
▁A	-103
▁ex	-104
▁ac	-105
▁is	-106
ted	-107
▁res	-108
▁that	-109
ut	-110
rom	-111
▁on	-112
ity	-113
di	-114
ase	-115
▁as	-116
▁al	-117
se	-118
th	-119
si	-120
ents	-121
▁C	-122
▁cell	-123
▁or	-124
▁2	-125
tic	-126
ir	-127
up	-128
op	-129
og	-130
her	-131
tu	-132
ay	-133
ver	-134
ff	-135
▁com	-136
▁ch	-137
ad	-138
ge	-139
tiv	-140
ib	-141
qu	-142
▁me	-143
▁from	-144
▁at	-145
ant	-146
duc	-147
red	-148
▁inc	-149
ess	-150
▁P	-151
▁S	-152
▁su	-153
ab	-154
0.	-155
ment	-156
ran	-157
▁pati	-158
▁comp	-159
▁se	-160
▁3	-161
▁than	-162
ten	-163
▁wh	-164
ain	-165
ific	-166
▁per	-167
▁cells	-168
reas	-169
ap	-170
yp	-171
ical	-172
▁patients	-173
▁le	-174
▁ad	-175
vel	-176
▁en	-177
orm	-178
▁In	-179
pec	-180
ion	-181
ous	-182
▁dis	-183
ffec	-184
und	-185
▁M	-186
igh	-187
yl	-188
▁not	-189
▁H	-190
st	-191
▁0.	-192
tive	-193
ore	-194
tor	-195
iz	-196
ular	-197
▁are	-198
▁D	-199
ip	-200
ges	-201
ign	-202
▁ne	-203
).	-204
▁im	-205
min	-206
ations	-207
ence	-208
ure	-209
▁he	-210
▁sh	-211
▁gro	-212
ys	-213
▁5	-214
pl	-215
ding	-216
tro	-217
ose	-218
ia	-219
de	-220
▁B	-221
▁4	-222
ary	-223
▁N	-224
▁pres	-225
▁effec	-226
▁pre	-227
iv	-228
▁stu	-229
nt	-230
ial	-231
▁activ	-232
bs	-233
pon	-234
las	-235
entr	-236
ich	-237
fter	-238
),	-239
iff	-240
lu	-241
tein	-242
▁+	-243
▁us	-244
ch	-245
▁E	-246
one	-247
▁sign	-248
lec	-249
ther	-250
▁diff	-251
tain	-252
▁anti	-253
per	-254
▁inf	-255
00	-256
▁F	-257
▁ap	-258
/-	-259
▁conc	-260
ug	-261
por	-262
ra	-263
▁which	-264
gen	-265
▁after	-266
▁+/-	-267
sion	-268
oth	-269
▁ph	-270
▁mic	-271
duced	-272
▁tran	-273
low	-274
lo	-275
▁this	-276
-1	-277
▁signific	-278
tions	-279
▁sub	-280
ally	-281
▁L	-282
▁group	-283
▁W	-284
▁po	-285
em	-286
tim	-287
▁we	-288
ies	-289
▁R	-290
hib	-291
reased	-292
▁k	-293
▁but	-294
▁significant	-295
▁differe	-296
▁resul	-297
▁pos	-298
ater	-299
ved	-300
▁G	-301
tes	-302
▁ha	-303
▁cor	-304
▁protein	-305
NA	-306
hen	-307
▁6	-308
ym	-309
cep	-310
pres	-311
▁co	-312
▁trans	-313
▁level	-314
mon	-315
▁di	-316
▁respon	-317
sis	-318
ide	-319
ance	-320
▁these	-321
▁tre	-322
▁less	-323
▁gen	-324
▁par	-325
we	-326
ound	-327
to	-328
▁un	-329
wo	-330
▁show	-331
ting	-332
▁rat	-333
olog	-334
ium	-335
ree	-336
▁ass	-337
▁Th	-338
uring	-339
tal	-340
▁bet	-341
ers	-342
▁it	-343
ight	-344
ble	-345
ative	-346
▁rec	-347
▁app	-348
end	-349
▁inter	-350
ear	-351
▁inhib	-352
ue	-353
▁activity	-354
ma	-355
▁have	-356
and	-357
▁st	-358
ween	-359
▁O	-360
jec	-361
▁reg	-362
▁dec	-363
▁had	-364
inding	-365
so	-366
iti	-367
▁between	-368
▁str	-369
▁ab	-370
▁spec	-371
ely	-372
▁rel	-373
▁both	-374
ulation	-375
▁cy	-376
▁concentr	-377
▁10	-378
ren	-379
▁cl	-380
▁two	-381
▁car	-382
▁ev	-383
pha	-384
rease	-385
▁no	-386
trol	-387
ist	-388
▁micro	-389
ied	-390
ome	-391
▁chan	-392
ep	-393
▁hyp	-394
ction	-395
anc	-396
mun	-397
ast	-398
our	-399
▁7	-400
all	-401
ox	-402
ates	-403
ke	-404
ormal	-405
▁during	-406
▁sur	-407
▁also	-408
▁ag	-409
▁mon	-410
▁low	-411
ceptor	-412
▁studi	-413
▁control	-414
▁ar	-415
▁=	-416
▁ind	-417
▁obs	-418
▁(1	-419
amin	-420
▁increased	-421
mo	-422
mb	-423
atment	-424
▁sug	-425
▁pl	-426
▁sy	-427
▁y	-428
ared	-429
ari	-430
ory	-431
ach	-432
▁sugges	-433
▁all	-434
▁results	-435
age	-436
▁8	-437
dy	-438
ost	-439
ocy	-440
osph	-441
▁may	-442
▁tr	-443
ath	-444
▁acid	-445
tin	-446
out	-447
ogen	-448
▁inv	-449
▁been	-450
trac	-451
▁obser	-452
▁levels	-453
▁ser	-454
▁day	-455
able	-456
enc	-457
ugh	-458
▁sec	-459
▁high	-460
▁ma	-461
▁effect	-462
ating	-463
et	-464
▁anal	-465
ame	-466
▁study	-467
ized	-468
yd	-469
ub	-470
als	-471
ases	-472
▁other	-473
▁more	-474
▁fol	-475
▁form	-476
ill	-477
pend	-478
▁tim	-479
▁ca	-480
pos	-481
ons	-482
tem	-483
cc	-484
ong	-485
▁sim	-486
▁stim	-487
est	-488
▁min	-489
▁med	-490
▁mod	-491
▁si	-492
▁gl	-493
▁These	-494
vi	-495
▁fac	-496
▁found	-497
▁immun	-498
tained	-499
▁sup	-500
▁receptor	-501
oci	-502
rox	-503
▁treatment	-504
form	-505
lood	-506
▁has	-507
▁col	-508
▁indic	-509
▁normal	-510
alu	-511
▁0.0	-512
▁This	-513
▁differen	-514
▁deter	-515
uld	-516
▁only	-517
duction	-518
ech	-519
ucle	-520
▁occ	-521
ility	-522
▁significantly	-523
usion	-524
▁mo	-525
ition	-526
ri	-527
▁9	-528
▁meas	-529
▁comple	-530
hem	-531
▁increase	-532
port	-533
▁blood	-534
gn	-535
▁one	-536
ism	-537
ors	-538
unction	-539
tent	-540
▁ro	-541
▁end	-542
▁plas	-543
▁observed	-544
ever	-545
▁effects	-546
-2	-547
▁can	-548
ven	-549
▁rate	-550
▁acc	-551
uman	-552
▁follow	-553
str	-554
ded	-555
ct	-556
▁und	-557
▁whe	-558
ace	-559
zym	-560
▁sp	-561
▁their	-562
tab	-563
gr	-564
ype	-565
▁rats	-566
atic	-567
enti	-568
▁li	-569
▁response	-570
dition	-571
ilar	-572
▁es	-573
velop	-574
▁gre	-575
▁We	-576
▁binding	-577
▁memb	-578
▁1.	-579
tively	-580
0%	-581
▁human	-582
lym	-583
▁non	-584
ile	-585
pendent	-586
ody	-587
▁vari	-588
▁up	-589
ak	-590
▁alpha	-591
act	-592
▁mg	-593
par	-594
der	-595
▁expres	-596
acter	-597
cl	-598
ystem	-599
ag	-600
iss	-601
▁into	-602
▁V	-603
ked	-604
▁develop	-605
▁12	-606
▁showed	-607
▁under	-608
ne	-609
▁when	-610
ond	-611
ited	-612
▁[	-613
▁tum	-614
▁antib	-615
rel	-616
▁dise	-617
▁membran	-618
owever	-619
hed	-620
▁factor	-621
ological	-622
adi	-623
▁system	-624
▁did	-625
▁compared	-626
▁respec	-627
ros	-628
▁used	-629
▁19	-630
ments	-631
▁pr	-632
▁ins	-633
ears	-634
▁bas	-635
ans	-636
ization	-637
iod	-638
▁beta	-639
ens	-640
▁cons	-641
▁ob	-642
▁K	-643
action	-644
▁time	-645
nal	-646
▁different	-647
rop	-648
▁U	-649
▁phosph	-650
▁hig	-651
bin	-652
▁similar	-653
sed	-654
▁cal	-655
▁those	-656
cle	-657
ulated	-658
tero	-659
▁function	-660
▁enzym	-661
atory	-662
▁meth	-663
ple	-664
▁dr	-665
▁mus	-666
ses	-667
▁specific	-668
▁three	-669
▁ep	-670
ture	-671
cr	-672
▁present	-673
ensi	-674
▁days	-675
umb	-676
nthe	-677
me	-678
▁plasma	-679
▁tiss	-680
ysis	-681
▁its	-682
▁occur	-683
rent	-684
cin	-685
▁des	-686
ata	-687
▁inhibit	-688
amine	-689
uch	-690
ron	-691
▁fib	-692
▁associ	-693
▁there	-694
osis	-695
▁using	-696
ither	-697
▁changes	-698
▁over	-699
▁groups	-700
▁greater	-701
▁gene	-702
▁nucle	-703
▁exper	-704
inal	-705
▁disease	-706
ery	-707
▁DNA	-708
▁proc	-709
ulin	-710
ution	-711
▁contr	-712
▁grow	-713
▁concentration	-714
epti	-715
▁presence	-716
▁qu	-717
▁mar	-718
▁cases	-719
dependent	-720
▁concentrations	-721
▁hyper	-722
▁bl	-723
▁press	-724
tial	-725
ogra	-726
ici	-727
▁my	-728
▁II	-729
fore	-730
ard	-731
▁cyt	-732
old	-733
.5	-734
esti	-735
sive	-736
▁cul	-737
▁elec	-738
▁region	-739
▁man	-740
▁studies	-741
▁id	-742
▁dete	-743
▁dose	-744
2+	-745
▁higher	-746
▁sequ	-747
▁determin	-748
arge	-749
▁respectively	-750
▁fe	-751
▁synthe	-752
hel	-753
med	-754
▁(2	-755
ute	-756
▁caus	-757
▁Al	-758
▁rele	-759
lymph	-760
▁numb	-761
▁arter	-762
gre	-763
▁age	-764
▁data	-765
▁serum	-766
tre	-767
▁loc	-768
lyc	-769
▁addition	-770
▁def	-771
pro	-772
▁studied	-773
kg	-774
phy	-775
tern	-776
ual	-777
ardi	-778
til	-779
▁period	-780
ane	-781
xim	-782
minis	-783
monstr	-784
▁demonstr	-785
▁sc	-786
▁bi	-787
▁vir	-788
▁poten	-789
ants	-790
ities	-791
▁well	-792
erg	-793
ces	-794
ks	-795
▁infec	-796
tric	-797
▁fir	-798
▁15	-799
▁examin	-800
tivity	-801
▁out	-802
▁subjec	-803
▁clin	-804
itro	-805
ail	-806
oma	-807
▁intr	-808
ild	-809
ise	-810
▁who	-811
▁lymph	-812
ocytes	-813
▁most	-814
▁membrane	-815
estig	-816
ured	-817
▁pressure	-818
hyd	-819
TP	-820
▁ther	-821
gl	-822
▁neur	-823
▁either	-824
vid	-825
▁anim	-826
ough	-827
▁do	-828
ately	-829
▁investig	-830
ature	-831
▁mal	-832
ive	-833
▁decreased	-834
lic	-835
▁adminis	-836
▁could	-837
taining	-838
▁experim	-839
ty	-840
echan	-841
▁fr	-842
▁calc	-843
apy	-844
tration	-845
▁char	-846
▁first	-847
▁Ca	-848
ived	-849
-3	-850
▁growth	-851
les	-852
ob	-853
ite	-854
▁each	-855
ters	-856
▁isol	-857
▁years	-858
ency	-859
art	-860
%)	-861
itive	-862
▁mechan	-863
ung	-864
ass	-865
▁tes	-866
▁analysis	-867
▁associated	-868
ft	-869
▁total	-870
idence	-871
gram	-872
its	-873
ously	-874
▁ox	-875
▁suggest	-876
ov	-877
av	-878
▁within	-879
ified	-880
fer	-881
▁clinical	-882
▁mean	-883
itu	-884
kin	-885
▁br	-886
▁rem	-887
▁enzyme	-888
ains	-889
▁abs	-890
▁same	-891
▁antigen	-892
▁reduced	-893
tical	-894
▁drug	-895
▁correl	-896
▁number	-897
▁am	-898
requ	-899
br	-900
arly	-901
sible	-902
▁use	-903
▁It	-904
▁gener	-905
▁molec	-906
▁sm	-907
oid	-908
▁equ	-909
urther	-910
cular	-911
▁character	-912
▁sta	-913
▁method	-914
▁gluc	-915
▁obtained	-916
▁radi	-917
MP	-918
cy	-919
tabol	-920
GF	-921
▁wee	-922
▁However	-923
▁20	-924
ade	-925
tom	-926
▁tissue	-927
▁2.	-928
rect	-929
ellular	-930
▁expression	-931
entric	-932
▁valu	-933
ures	-934
▁secre	-935
▁induced	-936
50	-937
▁op	-938
cted	-939
▁lower	-940
rough	-941
▁measured	-942
odies	-943
▁cur	-944
▁struc	-945
▁post	-946
onal	-947
▁exc	-948
▁perform	-949
li	-950
▁small	-951
▁vol	-952
zed	-953
ues	-954
▁mor	-955
▁metabol	-956
▁11	-957
▁liver	-958
▁type	-959
▁prim	-960
▁injec	-961
▁inclu	-962
▁sol	-963
▁some	-964
▁flu	-965
▁ter	-966
▁cap	-967
▁evalu	-968
▁values	-969
RNA	-970
anti	-971
▁month	-972
ie	-973
▁14	-974
000	-975
▁syn	-976
▁invol	-977
▁lip	-978
▁neu	-979
▁frequ	-980
-4	-981
▁mice	-982
qui	-983
▁lab	-984
▁hyd	-985
▁complex	-986
ingle	-987
▁pat	-988
ered	-989
▁animals	-990
▁24	-991
induced	-992
▁poly	-993
▁pe	-994
ult	-995
▁There	-996
▁mechanism	-997
entif	-998
▁subjects	-999
▁release	-1000
▁increas	-1001
▁proteins	-1002
tered	-1003
ves	-1004
▁initi	-1005
iqu	-1006
▁without	-1007
▁expos	-1008
▁tumor	-1009
▁(3	-1010
cent	-1011
▁second	-1012
▁long	-1013
trib	-1014
▁cardi	-1015
▁prol	-1016
▁mut	-1017
▁such	-1018
▁through	-1019
▁single	-1020
▁while	-1021
▁ran	-1022
opro	-1023
des	-1024
val	-1025
vely	-1026
▁stimulation	-1027
▁path	-1028
ize	-1029
king	-1030
thyl	-1031
▁ele	-1032
▁vitro	-1033
ores	-1034
▁val	-1035
medi	-1036
▁muscle	-1037
▁model	-1038
▁main	-1039
▁following	-1040
▁treated	-1041
▁reac	-1042
jor	-1043
ind	-1044
ix	-1045
▁vas	-1046
.0	-1047
▁whereas	-1048
▁pred	-1049
▁30	-1050
▁dia	-1051
olar	-1052
▁test	-1053
ould	-1054
▁surf	-1055
▁determined	-1056
own	-1057
▁mm	-1058
▁sensi	-1059
▁identif	-1060
▁cat	-1061
▁major	-1062
▁aut	-1063
though	-1064
▁affec	-1065
▁decrease	-1066
plic	-1067
other	-1068
ior	-1069
▁produced	-1070
tur	-1071
▁partic	-1072
▁flow	-1073
▁pur	-1074
▁previ	-1075
tures	-1076
▁del	-1077
▁about	-1078
▁requi	-1079
och	-1080
▁four	-1081
▁isolated	-1082
▁13	-1083
eptide	-1084
▁responses	-1085
▁examined	-1086
ival	-1087
grees	-1088
▁bec	-1089
▁inhibition	-1090
yr	-1091
gan	-1092
▁degrees	-1093
▁sites	-1094
▁cle	-1095
▁amin	-1096
▁hep	-1097
▁months	-1098
▁bloc	-1099
▁pattern	-1100
take	-1101
oplas	-1102
▁process	-1103
▁extrac	-1104
use	-1105
erc	-1106
tics	-1107
▁synthesis	-1108
▁development	-1109
▁import	-1110
mic	-1111
sc	-1112
▁ventric	-1113
▁pul	-1114
5%	-1115
▁virus	-1116
▁before	-1117
over	-1118
▁stimul	-1119
roxim	-1120
▁due	-1121
.1	-1122
)-	-1123
▁consis	-1124
▁receptors	-1125
▁chrom	-1126
▁role	-1127
ymp	-1128
▁j	-1129
ently	-1130
▁eff	-1131
▁patient	-1132
ines	-1133
▁reve	-1134
ays	-1135
.2	-1136
▁finding	-1137
▁site	-1138
phosph	-1139
ins	-1140
ions	-1141
spec	-1142
▁differences	-1143
ml	-1144
▁weight	-1145
ateral	-1146
▁selec	-1147
▁contrast	-1148
▁0.05	-1149
ditions	-1150
ged	-1151
▁16	-1152
II	-1153
▁rece	-1154
ished	-1155
lass	-1156
omen	-1157
▁maxim	-1158
▁Ig	-1159
▁heart	-1160
▁dos	-1161
▁prob	-1162
▁ref	-1163
▁hem	-1164
▁insulin	-1165
▁ner	-1166
▁inhibited	-1167
ocardi	-1168
▁conditions	-1169
echn	-1170
▁An	-1171
hemical	-1172
olic	-1173
▁microgram	-1174
▁10(	-1175
▁To	-1176
▁diagn	-1177
▁again	-1178
con	-1179
▁techn	-1180
unt	-1181
▁antibody	-1182
oper	-1183
▁subs	-1184
▁0.00	-1185
▁assess	-1186
aled	-1187
▁sam	-1188
▁therapy	-1189
ry	-1190
ital	-1191
▁18	-1192
▁amino	-1193
▁"	-1194
-6	-1195
▁influ	-1196
▁administration	-1197
▁mRNA	-1198
▁combin	-1199
▁produc	-1200
ai	-1201
▁antibodies	-1202
▁conf	-1203
▁enh	-1204
▁rati	-1205
ful	-1206
fold	-1207
▁they	-1208
ography	-1209
ability	-1210
▁weeks	-1211
▁surface	-1212
▁medi	-1213
.3	-1214
▁CD	-1215
atur	-1216
▁glucose	-1217
ental	-1218
ented	-1219
omy	-1220
▁change	-1221
mong	-1222
▁child	-1223
rome	-1224
roximately	-1225
▁demonstrated	-1226
oles	-1227
ume	-1228
ypes	-1229
▁ris	-1230
▁new	-1231
1)	-1232
▁indicate	-1233
treated	-1234
▁pH	-1235
ules	-1236
▁performed	-1237
▁indi	-1238
▁hist	-1239
▁giv	-1240
▁sever	-1241
▁early	-1242
▁pop	-1243
io	-1244
.4	-1245
▁shown	-1246
uce	-1247
▁repor	-1248
led	-1249
▁tem	-1250
ancer	-1251
▁positive	-1252
respon	-1253
▁brain	-1254
.,	-1255
▁production	-1256
ology	-1257
▁glyc	-1258
▁der	-1259
▁activation	-1260
▁mul	-1261
▁factors	-1262
▁cir	-1263
titu	-1264
▁remain	-1265
▁horm	-1266
▁distrib	-1267
▁Na	-1268
ffin	-1269
▁compar	-1270
▁inte	-1271
ene	-1272
▁100	-1273
▁les	-1274
ones	-1275
▁detected	-1276
co	-1277
ties	-1278
▁related	-1279
▁electro	-1280
▁sequence	-1281
▁cycl	-1282
▁surg	-1283
▁amo	-1284
▁surv	-1285
▁IL	-1286
▁calcium	-1287
▁formation	-1288
▁left	-1289
▁percent	-1290
▁mM	-1291
▁any	-1292
.6	-1293
arent	-1294
▁ur	-1295
sin	-1296
▁resid	-1297
▁ir	-1298
▁large	-1299
▁ol	-1300
▁line	-1301
ably	-1302
trans	-1303
rol	-1304
amma	-1305
▁techniqu	-1306
▁renal	-1307
ause	-1308
▁hour	-1309
▁gra	-1310
▁revealed	-1311
▁against	-1312
▁prote	-1313
▁lung	-1314
▁resist	-1315
▁phen	-1316
▁mit	-1317
▁caused	-1318
▁fail	-1319
▁epit	-1320
.8	-1321
▁17	-1322
.7	-1323
▁compon	-1324
air	-1325
▁198	-1326
▁rap	-1327
▁microM	-1328
▁controls	-1329
pir	-1330
▁ste	-1331
la	-1332
▁heal	-1333
roup	-1334
▁complete	-1335
mine	-1336
▁reduction	-1337
iel	-1338
ud	-1339
oprotein	-1340
atin	-1341
▁potential	-1342
▁symp	-1343
sy	-1344
▁acute	-1345
▁conclu	-1346
ex	-1347
oly	-1348
atively	-1349
rag	-1350
▁investigated	-1351
▁measure	-1352
▁fem	-1353
▁lim	-1354
tag	-1355
▁micrograms	-1356
▁neurons	-1357
▁findings	-1358
ms	-1359
▁ventricular	-1360
▁direct	-1361
crib	-1362
yro	-1363
amic	-1364
tis	-1365
ulf	-1366
▁important	-1367
▁aden	-1368
-5	-1369
▁occurred	-1370
sequ	-1371
ically	-1372
amm	-1373
app	-1374
2,	-1375
▁approximately	-1376
az	-1377
ivo	-1378
▁(4	-1379
▁given	-1380
▁class	-1381
crip	-1382
onary	-1383
▁consid	-1384
▁x	-1385
▁(5	-1386
▁infection	-1387
ood	-1388
PA	-1389
ort	-1390
ross	-1391
▁rates	-1392
▁em	-1393
▁hom	-1394
▁secretion	-1395
▁further	-1396
▁rapid	-1397
▁At	-1398
▁vivo	-1399
▁marked	-1400
onic	-1401
▁risk	-1402
roph	-1403
▁body	-1404
▁difference	-1405
▁carcin	-1406
▁i	-1407
▁local	-1408
▁chron	-1409
ule	-1410
▁el	-1411
▁cancer	-1412
uk	-1413
helial	-1414
▁seen	-1415
eren	-1416
▁prec	-1417
nown	-1418
▁intrac	-1419
▁primary	-1420
▁phase	-1421
▁disc	-1422
oph	-1423
aline	-1424
ner	-1425
ergic	-1426
▁determine	-1427
▁various	-1428
imin	-1429
▁active	-1430
▁5-	-1431
1,	-1432
▁however	-1433
ole	-1434
▁When	-1435
▁diet	-1436
▁children	-1437
tagon	-1438
▁On	-1439
terol	-1440
▁u	-1441
rob	-1442
ocyte	-1443
eration	-1444
▁plate	-1445
▁ang	-1446
odium	-1447
osom	-1448
▁organ	-1449
▁gas	-1450
ffinity	-1451
▁containing	-1452
▁fat	-1453
gth	-1454
▁fraction	-1455
▁elev	-1456
eled	-1457
terone	-1458
▁medium	-1459
▁tox	-1460
▁action	-1461
lin	-1462
▁among	-1463
▁rep	-1464
tory	-1465
▁impro	-1466
▁intra	-1467
ish	-1468
▁women	-1469
▁health	-1470
▁ratio	-1471
▁contrac	-1472
gative	-1473
aneous	-1474
ption	-1475
%,	-1476
▁25	-1477
ences	-1478
▁wor	-1479
▁individ	-1480
ha	-1481
idine	-1482
▁peak	-1483
inc	-1484
▁bone	-1485
▁doses	-1486
▁carb	-1487
▁sampl	-1488
2-	-1489
▁coronary	-1490
hip	-1491
monary	-1492
ologic	-1493
▁nec	-1494
itis	-1495
ygen	-1496
▁sus	-1497
▁content	-1498
1).	-1499
ds	-1500
▁area	-1501
▁evidence	-1502
▁[3	-1503
▁exposure	-1504
▁antagon	-1505
abe	-1506
anced	-1507
0,	-1508
tinu	-1509
ids	-1510
▁1,	-1511
table	-1512
▁imp	-1513
▁free	-1514
▁vs	-1515
25	-1516
▁RNA	-1517
are	-1518
rine	-1519
▁part	-1520
fusion	-1521
ning	-1522
▁reported	-1523
▁cardiac	-1524
▁very	-1525
tact	-1526
ator	-1527
normal	-1528
otox	-1529
oti	-1530
omp	-1531
icity	-1532
mit	-1533
▁several	-1534
▁experiments	-1535
▁infusion	-1536
▁recor	-1537
▁culture	-1538
ince	-1539
row	-1540
▁times	-1541
ick	-1542
ack	-1543
tensive	-1544
.9	-1545
▁resulted	-1546
▁volume	-1547
minal	-1548
▁possible	-1549
ale	-1550
▁uptake	-1551
▁previously	-1552
▁(0.	-1553
let	-1554
uble	-1555
active	-1556
▁After	-1557
ouse	-1558
▁gr	-1559
▁followed	-1560
▁0.1	-1561
unc	-1562
▁developed	-1563
▁cere	-1564
icient	-1565
ving	-1566
nel	-1567
▁identified	-1568
cell	-1569
osp	-1570
▁incub	-1571
▁Thus	-1572
▁relations	-1573
oss	-1574
▁injection	-1575
▁hours	-1576
▁assay	-1577
▁oper	-1578
arb	-1579
entral	-1580
▁molecular	-1581
▁distribution	-1582
chan	-1583
CA	-1584
▁whether	-1585
SH	-1586
▁suppres	-1587
▁proper	-1588
mol	-1589
▁least	-1590
▁electr	-1591
▁sodium	-1592
ylation	-1593
▁sl	-1594
▁All	-1595
▁increases	-1596
▁artery	-1597
▁myocardi	-1598
rh	-1599
▁should	-1600
▁survival	-1601
▁species	-1602
▁hal	-1603
vere	-1604
▁range	-1605
▁chronic	-1606
▁ATP	-1607
▁describ	-1608
--	-1609
gres	-1610
▁rever	-1611
▁multi	-1612
▁tested	-1613
rogen	-1614
▁result	-1615
sor	-1616
▁value	-1617
▁circ	-1618
▁kin	-1619
ists	-1620
▁differenti	-1621
▁const	-1622
▁order	-1623
▁suc	-1624
▁appear	-1625
▁five	-1626
▁transcrip	-1627
▁morph	-1628
▁2-	-1629
activ	-1630
▁predic	-1631
try	-1632
▁size	-1633
rin	-1634
▁No	-1635
▁reaction	-1636
▁frequency	-1637
vement	-1638
▁types	-1639
▁common	-1640
▁repres	-1641
ogn	-1642
▁tub	-1643
▁perip	-1644
be	-1645
ograph	-1646
tional	-1647
▁leuk	-1648
▁characteris	-1649
abb	-1650
▁relationship	-1651
▁genes	-1652
▁men	-1653
▁absence	-1654
ensity	-1655
DP	-1656
▁aver	-1657
tension	-1658
ice	-1659
ness	-1660
ax	-1661
specific	-1662
▁50	-1663
ward	-1664
emia	-1665
▁proced	-1666
adren	-1667
eu	-1668
sing	-1669
terior	-1670
▁involved	-1671
▁current	-1672
DL	-1673
chol	-1674
ational	-1675
▁initial	-1676
▁effective	-1677
Da	-1678
▁vis	-1679
actions	-1680
▁apparent	-1681
tically	-1682
bility	-1683
▁alter	-1684
▁ul	-1685
▁late	-1686
ae	-1687
▁prepar	-1688
▁frag	-1689
▁alone	-1690
▁case	-1691
yroid	-1692
amp	-1693
▁so	-1694
▁diabe	-1695
▁required	-1696
▁temper	-1697
▁population	-1698
atis	-1699
▁21	-1700
▁quanti	-1701
▁mac	-1702
▁lesions	-1703
atal	-1704
▁ax	-1705
▁lead	-1706
▁subst	-1707
▁ly	-1708
yn	-1709
▁exhib	-1710
▁ace	-1711
▁then	-1712
▁hormone	-1713
▁loss	-1714
▁prolif	-1715
▁peripher	-1716
▁abnormal	-1717
▁relative	-1718
▁substr	-1719
▁dom	-1720
▁expl	-1721
like	-1722
▁if	-1723
▁peptide	-1724
▁As	-1725
ew	-1726
▁For	-1727
▁nerve	-1728
▁six	-1729
▁tumors	-1730
▁rabb	-1731
▁including	-1732
▁acids	-1733
▁samples	-1734
▁our	-1735
omer	-1736
ification	-1737
day	-1738
▁indicated	-1739
▁received	-1740
▁adult	-1741
▁gu	-1742
uration	-1743
▁resistance	-1744
ercise	-1745
arm	-1746
▁affinity	-1747
▁symptom	-1748
▁estim	-1749
▁oxid	-1750
▁z	-1751
▁continu	-1752
▁cer	-1753
2)	-1754
▁pulmonary	-1755
▁purified	-1756
▁known	-1757
▁ability	-1758
lusion	-1759
Cl	-1760
esis	-1761
▁super	-1762
▁cellular	-1763
scop	-1764
▁equal	-1765
▁accum	-1766
▁correspon	-1767
olesterol	-1768
10	-1769
AMP	-1770
▁strains	-1771
▁analy	-1772
▁lar	-1773
▁emb	-1774
▁suggesting	-1775
▁expressed	-1776
▁being	-1777
ger	-1778
▁av	-1779
olip	-1780
SA	-1781
duce	-1782
▁structure	-1783
ension	-1784
▁because	-1785
▁beha	-1786
▁mouse	-1787
▁does	-1788
▁severe	-1789
▁smo	-1790
▁made	-1791
▁separ	-1792
▁transport	-1793
ochemical	-1794
ission	-1795
▁fil	-1796
▁channel	-1797
way	-1798
▁activities	-1799
▁contain	-1800
▁te	-1801
▁AC	-1802
ased	-1803
▁tissues	-1804
▁inj	-1805
▁transi	-1806
▁hy	-1807
▁intracellular	-1808
truc	-1809
tra	-1810
omas	-1811
▁gran	-1812
▁throm	-1813
vir	-1814
▁slow	-1815
▁bacter	-1816
▁kinase	-1817
enz	-1818
of	-1819
▁mat	-1820
▁potenti	-1821
▁parame	-1822
▁block	-1823
-7	-1824
line	-1825
▁nor	-1826
▁state	-1827
▁stimulated	-1828
▁ml	-1829
plant	-1830
▁arterial	-1831
▁Further	-1832
iciency	-1833
▁Although	-1834
▁consistent	-1835
idne	-1836
▁regions	-1837
ides	-1838
ength	-1839
4,	-1840
ortic	-1841
▁correlation	-1842
▁properties	-1843
▁Ex	-1844
unts	-1845
lex	-1846
▁(6	-1847
▁40	-1848
▁remo	-1849
▁gamma	-1850
▁density	-1851
▁exercise	-1852
▁male	-1853
▁dog	-1854
IV	-1855
stim	-1856
set	-1857
hydrox	-1858
amide	-1859
tabl	-1860
TH	-1861
▁strong	-1862
3,	-1863
▁deg	-1864
▁seg	-1865
▁dep	-1866
type	-1867
ances	-1868
▁evaluated	-1869
▁peripheral	-1870
▁membranes	-1871
▁lines	-1872
▁subun	-1873
▁fl	-1874
▁Con	-1875
chem	-1876
▁pig	-1877
ogenous	-1878
AP	-1879
fec	-1880
▁behavi	-1881
eptides	-1882
ric	-1883
▁progres	-1884
eding	-1885
▁Ch	-1886
ling	-1887
-8	-1888
▁22	-1889
operative	-1890
▁basal	-1891
▁mater	-1892
▁phosphor	-1893
▁por	-1894
▁60	-1895
▁suggested	-1896
lob	-1897
▁negative	-1898
▁although	-1899
▁oxygen	-1900
'-	-1901
▁cross	-1902
▁even	-1903
▁incidence	-1904
ord	-1905
▁vascular	-1906
▁water	-1907
▁sensitivity	-1908
▁recogn	-1909
▁confir	-1910
esthe	-1911
▁kidne	-1912
▁functional	-1913
ands	-1914
osine	-1915
▁myocardial	-1916
ised	-1917
▁correlated	-1918
eared	-1919
▁cultures	-1920
▁acet	-1921
▁affected	-1922
▁drugs	-1923
▁place	-1924
▁Ad	-1925
ode	-1926
▁recom	-1927
ogenic	-1928
used	-1929
NF	-1930
▁increasing	-1931
▁establ	-1932
▁polym	-1933
acy	-1934
DNA	-1935
▁light	-1936
▁observ	-1937
▁appears	-1938
▁injur	-1939
▁provid	-1940
tle	-1941
▁inhibitor	-1942
▁ion	-1943
▁technique	-1944
▁stage	-1945
HT	-1946
plication	-1947
▁compound	-1948
tex	-1949
ton	-1950
ually	-1951
ison	-1952
▁contrib	-1953
RH	-1954
▁orig	-1955
▁defin	-1956
lor	-1957
▁half	-1958
went	-1959
▁constant	-1960
ife	-1961
▁gel	-1962
ibr	-1963
▁pregn	-1964
▁death	-1965
▁diagnosis	-1966
▁met	-1967
▁duration	-1968
▁surgery	-1969
▁mechanisms	-1970
ady	-1971
▁endot	-1972
orb	-1973
▁suggests	-1974
▁adren	-1975
▁particular	-1976
▁cholesterol	-1977
▁agon	-1978
itude	-1979
▁reduc	-1980
▁skin	-1981
▁prov	-1982
erm	-1983
term	-1984
▁right	-1985
▁temperature	-1986
▁(10	-1987
▁lo	-1988
mia	-1989
BA	-1990
▁enhanced	-1991
ocl	-1992
ospital	-1993
▁sequences	-1994
▁average	-1995
umin	-1996
tured	-1997
▁ov	-1998
lab	-1999
tage	-2000
3-	-2001
▁0.5	-2002
▁degree	-2003
lagen	-2004
izing	-2005
▁clear	-2006
phosphate	-2007
utes	-2008
piratory	-2009
▁ischem	-2010
alpha	-2011
Ca	-2012
▁inde	-2013
ropha	-2014
▁cent	-2015
rosis	-2016
▁promo	-2017
▁sulf	-2018
▁phy	-2019
orph	-2020
int	-2021
ove	-2022
▁short	-2023
▁muc	-2024
▁metabolism	-2025
kers	-2026
ethyl	-2027
▁cri	-2028
ield	-2029
▁atr	-2030
▁elevated	-2031
▁stand	-2032
▁his	-2033
▁experimental	-2034
▁hydro	-2035
ential	-2036
▁ng	-2037
ety	-2038
▁amount	-2039
▁microscop	-2040
▁general	-2041
▁lymphocytes	-2042
oxy	-2043
▁fam	-2044
▁administered	-2045
▁sal	-2046
BP	-2047
▁described	-2048
▁need	-2049
eti	-2050
hest	-2051
▁induction	-2052
▁28	-2053
iving	-2054
beta	-2055
▁intact	-2056
▁III	-2057
ancy	-2058
▁agents	-2059
▁transfer	-2060
▁inhibitory	-2061
bral	-2062
ulatory	-2063
▁parameters	-2064
▁Both	-2065
▁subsequ	-2066
▁highly	-2067
▁bound	-2068
related	-2069
▁indicating	-2070
▁cour	-2071
▁remained	-2072
toc	-2073
ress	-2074
▁fluid	-2075
▁much	-2076
▁combination	-2077
ulations	-2078
▁influence	-2079
▁Two	-2080
▁sex	-2081
▁os	-2082
▁magn	-2083
▁capac	-2084
activity	-2085
osed	-2086
CD	-2087
ian	-2088
▁hypot	-2089
▁failure	-2090
▁maximum	-2091
LA	-2092
▁ampl	-2093
▁dependent	-2094
5,	-2095
hes	-2096
bo	-2097
brid	-2098
▁length	-2099
andom	-2100
aily	-2101
uted	-2102
▁nucleus	-2103
▁23	-2104
▁bel	-2105
▁where	-2106
oclonal	-2107
cence	-2108
▁independent	-2109
▁26	-2110
put	-2111
anol	-2112
▁central	-2113
▁embry	-2114
ave	-2115
▁excre	-2116
▁slight	-2117
▁side	-2118
▁mix	-2119
ascular	-2120
DS	-2121
▁neuro	-2122
ographic	-2123
▁solution	-2124
▁ve	-2125
▁propor	-2126
▁LH	-2127
itation	-2128
▁ery	-2129
▁Un	-2130
▁lay	-2131
▁extent	-2132
▁many	-2133
ulating	-2134
onucle	-2135
▁prof	-2136
▁chain	-2137
▁strain	-2138
round	-2139
▁(7	-2140
▁areas	-2141
▁recover	-2142
▁random	-2143
cal	-2144
gin	-2145
osterone	-2146
otherapy	-2147
▁will	-2148
tral	-2149
▁contained	-2150
ull	-2151
▁chem	-2152
▁methods	-2153
ondr	-2154
more	-2155
ergy	-2156
▁dig	-2157
sec	-2158
▁With	-2159
▁distin	-2160
▁allow	-2161
▁48	-2162
▁upon	-2163
orpor	-2164
▁lig	-2165
▁would	-2166
▁depend	-2167
tality	-2168
rior	-2169
tural	-2170
pre	-2171
esic	-2172
▁characterized	-2173
ogenesis	-2174
▁hypothe	-2175
▁maximal	-2176
▁(8	-2177
▁panc	-2178
▁appeared	-2179
▁depres	-2180
▁colon	-2181
▁seem	-2182
▁interaction	-2183
▁enc	-2184
▁phys	-2185
ily	-2186
▁based	-2187
▁conclude	-2188
ochondr	-2189
▁epid	-2190
▁yo	-2191
▁glut	-2192
siological	-2193
cept	-2194
▁-	-2195
▁targe	-2196
idase	-2197
▁analog	-2198
opath	-2199
resh	-2200
▁dogs	-2201
▁displ	-2202
atus	-2203
▁radio	-2204
▁retin	-2205
▁collagen	-2206
▁dam	-2207
go	-2208
CG	-2209
▁sensitive	-2210
▁basis	-2211
▁hr	-2212
▁derived	-2213
methyl	-2214
osin	-2215
uter	-2216
▁above	-2217
▁Se	-2218
▁conduc	-2219
▁index	-2220
▁spon	-2221
▁IgG	-2222
ites	-2223
▁bre	-2224
▁37	-2225
ayed	-2226
▁monoclonal	-2227
radi	-2228
▁residues	-2229
last	-2230
▁component	-2231
▁daily	-2232
▁discus	-2233
▁1-	-2234
▁individual	-2235
▁fas	-2236
ulate	-2237
▁ver	-2238
posed	-2239
▁inten	-2240
▁useful	-2241
▁During	-2242
▁tak	-2243
▁One	-2244
▁lit	-2245
▁care	-2246
cess	-2247
▁lipid	-2248
▁oral	-2249
▁carcinoma	-2250
▁assessed	-2251
immun	-2252
▁prop	-2253
▁symptoms	-2254
▁possi	-2255
▁complic	-2256
jection	-2257
lets	-2258
vers	-2259
OH	-2260
kely	-2261
▁2,	-2262
▁macropha	-2263
▁synd	-2264
vent	-2265
SF	-2266
▁ach	-2267
▁capacity	-2268
atures	-2269
uff	-2270
▁0.2	-2271
▁kine	-2272
mediate	-2273
ope	-2274
NP	-2275
▁mortality	-2276
very	-2277
▁analyzed	-2278
ially	-2279
▁kidney	-2280
itary	-2281
5)	-2282
ximal	-2283
▁eryth	-2284
free	-2285
▁termin	-2286
▁incorpor	-2287
▁hepatic	-2288
▁demonstrate	-2289
▁components	-2290
▁fetal	-2291
▁chromat	-2292
▁antigens	-2293
▁accumulation	-2294
inary	-2295
▁vesic	-2296
▁prior	-2297
▁design	-2298
PS	-2299
▁intest	-2300
▁injury	-2301
binding	-2302
▁50%	-2303
▁corresponding	-2304
▁inform	-2305
▁adj	-2306
otide	-2307
MA	-2308
▁vers	-2309
▁achie	-2310
rence	-2311
helium	-2312
▁cause	-2313
▁avail	-2314
▁coli	-2315
ording	-2316
▁adv	-2317
▁hybrid	-2318
otrop	-2319
ication	-2320
FN	-2321
hy	-2322
▁defec	-2323
view	-2324
▁intraven	-2325
▁pap	-2326
▁mass	-2327
ogene	-2328
CR	-2329
▁provide	-2330
▁multiple	-2331
▁electron	-2332
▁(9	-2333
ensitive	-2334
▁cAMP	-2335
omin	-2336
▁standard	-2337
emb	-2338
▁infar	-2339
▁bil	-2340
▁forms	-2341
▁transform	-2342
14	-2343
phal	-2344
otor	-2345
▁recovery	-2346
▁tests	-2347
▁lin	-2348
▁support	-2349
▁extracellular	-2350
▁might	-2351
ening	-2352
lyce	-2353
entical	-2354
ways	-2355
▁PA	-2356
▁patterns	-2357
▁hepat	-2358
▁hand	-2359
ils	-2360
▁mid	-2361
mean	-2362
▁whole	-2363
greg	-2364
▁ess	-2365
▁statis	-2366
▁course	-2367
▁considered	-2368
▁thus	-2369
▁Me	-2370
▁additional	-2371
▁Furthermore	-2372
osa	-2373
phrine	-2374
▁measurements	-2375
▁fluores	-2376
▁minim	-2377
1-	-2378
atter	-2379
▁cortex	-2380
12	-2381
acet	-2382
▁since	-2383
▁regulation	-2384
▁previous	-2385
oplasmic	-2386
▁included	-2387
▁cycle	-2388
▁cultured	-2389
▁probably	-2390
rec	-2391
▁mitochondr	-2392
▁enzymes	-2393
▁air	-2394
essel	-2395
group	-2396
▁week	-2397
▁hetero	-2398
▁position	-2399
ird	-2400
▁relatively	-2401
▁27	-2402
till	-2403
▁sero	-2404
▁nM	-2405
▁molecules	-2406
ker	-2407
▁hypertension	-2408
erate	-2409
▁spont	-2410
▁Our	-2411
enced	-2412
ram	-2413
▁distinct	-2414
▁substrate	-2415
▁characteristics	-2416
▁32	-2417
▁thromb	-2418
▁exposed	-2419
▁repe	-2420
lasts	-2421
▁polyp	-2422
▁Of	-2423
odes	-2424
▁mamm	-2425
▁vac	-2426
▁versus	-2427
▁wall	-2428
▁Res	-2429
▁trial	-2430
char	-2431
▁monit	-2432
▁PG	-2433
▁adhe	-2434
▁NA	-2435
▁few	-2436
▁young	-2437
▁(19	-2438
);	-2439
▁0.3	-2440
▁healthy	-2441
▁minutes	-2442
5-	-2443
%.	-2444
▁concluded	-2445
▁ven	-2446
armac	-2447
▁proliferation	-2448
osomes	-2449
▁incubation	-2450
▁procedure	-2451
▁detec	-2452
orn	-2453
fac	-2454
▁nuclear	-2455
▁differentiation	-2456
▁platelet	-2457
▁immune	-2458
plied	-2459
▁acco	-2460
▁reflec	-2461
▁restric	-2462
▁hospital	-2463
▁thym	-2464
▁year	-2465
tially	-2466
CO	-2467
aptic	-2468
treatment	-2469
▁3-	-2470
▁series	-2471
▁female	-2472
▁dil	-2473
rate	-2474
▁identical	-2475
▁chol	-2476
▁recorded	-2477
▁quantit	-2478
▁origin	-2479
▁0	-2480
▁affect	-2481
elf	-2482
▁infl	-2483
▁appro	-2484
▁atten	-2485
ring	-2486
▁necess	-2487
▁via	-2488
▁cr	-2489
grad	-2490
▁syndrome	-2491
▁bind	-2492
▁CA	-2493
▁therefore	-2494
rous	-2495
aly	-2496
rocy	-2497
▁information	-2498
▁fibers	-2499
otype	-2500
▁rise	-2501
▁systems	-2502
omic	-2503
▁Re	-2504
▁eth	-2505
pected	-2506
18	-2507
ural	-2508
ging	-2509
imens	-2510
▁cerebral	-2511
▁By	-2512
▁norm	-2513
DA	-2514
▁activated	-2515
▁GH	-2516
ler	-2517
▁markedly	-2518
▁behavior	-2519
▁bir	-2520
ults	-2521
4-	-2522
ible	-2523
▁later	-2524
▁rabbit	-2525
▁Pre	-2526
▁mutant	-2527
▁Group	-2528
▁collec	-2529
▁work	-2530
▁excretion	-2531
▁phospholip	-2532
ages	-2533
▁energy	-2534
stimulated	-2535
ried	-2536
%).	-2537
▁base	-2538
▁plus	-2539
▁anterior	-2540
▁comparison	-2541
LC	-2542
perm	-2543
▁signal	-2544
mission	-2545
▁decreas	-2546
ok	-2547
ostic	-2548
tid	-2549
pine	-2550
TA	-2551
▁lact	-2552
ocyt	-2553
▁cyclic	-2554
▁likely	-2555
▁them	-2556
▁conver	-2557
▁completely	-2558
▁prep	-2559
RP	-2560
ales	-2561
▁exhibited	-2562
▁discussed	-2563
▁little	-2564
erv	-2565
▁urinary	-2566
estion	-2567
▁analys	-2568
plantation	-2569
ylase	-2570
▁prolong	-2571
▁dys	-2572
positive	-2573
af	-2574
▁onset	-2575
ectom	-2576
▁preven	-2577
mediated	-2578
urn	-2579
3)	-2580
ained	-2581
▁malign	-2582
most	-2583
▁fatty	-2584
▁plac	-2585
ral	-2586
▁eight	-2587
-10	-2588
▁amounts	-2589
▁myel	-2590
▁pain	-2591
lobulin	-2592
itol	-2593
▁seven	-2594
▁represent	-2595
▁association	-2596
▁combined	-2597
ronch	-2598
▁0.05).	-2599
▁recombin	-2600
6,	-2601
ylated	-2602
▁mu	-2603
▁stress	-2604
▁double	-2605
ision	-2606
arc	-2607
unctions	-2608
bumin	-2609
▁produce	-2610
▁fed	-2611
▁situ	-2612
III	-2613
▁induc	-2614
▁products	-2615
▁suff	-2616
▁respiratory	-2617
▁infected	-2618
ovine	-2619
▁specificity	-2620
▁located	-2621
▁red	-2622
▁exten	-2623
▁35	-2624
▁cytotox	-2625
▁var	-2626
less	-2627
▁immunore	-2628
▁prost	-2629
ochrome	-2630
▁metast	-2631
▁established	-2632
▁dop	-2633
aneously	-2634
▁consider	-2635
▁proble	-2636
oked	-2637
▁step	-2638
▁hel	-2639
glut	-2640
▁delta	-2641
▁directly	-2642
▁IV	-2643
▁mediated	-2644
orption	-2645
terminal	-2646
sych	-2647
▁cm	-2648
▁subsequent	-2649
▁coun	-2650
▁recur	-2651
▁techniques	-2652
▁CT	-2653
▁div	-2654
▁potent	-2655
▁peptides	-2656
▁pa	-2657
▁phot	-2658
▁condition	-2659
▁don	-2660
ient	-2661
▁cDNA	-2662
▁rather	-2663
ser	-2664
yc	-2665
▁Pro	-2666
▁occurs	-2667
▁mes	-2668
angl	-2669
▁HIV	-2670
▁epithelial	-2671
illary	-2672
▁formed	-2673
▁still	-2674
▁ear	-2675
tase	-2676
ATP	-2677
▁preparations	-2678
▁presented	-2679
▁45	-2680
▁tra	-2681
▁trac	-2682
▁29	-2683
RF	-2684
▁marrow	-2685
▁material	-2686
▁antagonist	-2687
▁shif	-2688
▁hypothesis	-2689
ators	-2690
aturation	-2691
rose	-2692
-1,	-2693
▁placebo	-2694
▁36	-2695
▁clos	-2696
eline	-2697
▁util	-2698
▁injected	-2699
▁predomin	-2700
▁labeled	-2701
cop	-2702
osome	-2703
▁pathway	-2704
ylchol	-2705
▁CO	-2706
▁atrial	-2707
▁diss	-2708
sp	-2709
▁pharmac	-2710
▁0.4	-2711
▁units	-2712
▁0.05)	-2713
▁chromatography	-2714
▁life	-2715
▁vessel	-2716
-(	-2717
▁metabolic	-2718
%),	-2719
▁added	-2720
man	-2721
▁Hg	-2722
▁carried	-2723
oy	-2724
▁chemical	-2725
7,	-2726
▁repl	-2727
tras	-2728
▁examination	-2729
▁3.	-2730
▁secondary	-2731
▁fibrob	-2732
▁often	-2733
omes	-2734
osomal	-2735
▁responsible	-2736
loc	-2737
▁rapidly	-2738
namic	-2739
▁confirmed	-2740
▁den	-2741
▁damage	-2742
▁som	-2743
▁tumour	-2744
▁compounds	-2745
▁altered	-2746
DH	-2747
▁chlor	-2748
▁structures	-2749
ituitary	-2750
▁program	-2751
▁iso	-2752
▁tend	-2753
▁defined	-2754
MC	-2755
▁overall	-2756
▁GA	-2757
6)	-2758
feren	-2759
▁subunit	-2760
▁transcription	-2761
▁tw	-2762
▁available	-2763
amb	-2764
hydroxy	-2765
▁percentage	-2766
▁cytos	-2767
▁dim	-2768
▁selective	-2769
▁anesthe	-2770
▁require	-2771
enter	-2772
1),	-2773
▁clon	-2774
Ab	-2775
verse	-2776
▁hypoth	-2777
cer	-2778
▁infants	-2779
range	-2780
▁dire	-2781
▁surgical	-2782
ending	-2783
▁thyroid	-2784
apeu	-2785
▁blocked	-2786
▁diame	-2787
▁calculated	-2788
alle	-2789
▁electroph	-2790
atitis	-2791
8,	-2792
athe	-2793
-9	-2794
▁product	-2795
▁tryp	-2796
oding	-2797
▁bovine	-2798
▁polymer	-2799
▁differ	-2800
▁angi	-2801
▁lateral	-2802
▁latter	-2803
▁applied	-2804
▁Com	-2805
▁internal	-2806
atients	-2807
▁staining	-2808
max	-2809
▁visual	-2810
coh	-2811
lation	-2812
▁inactiv	-2813
▁inflamm	-2814
▁PR	-2815
▁intake	-2816
▁third	-2817
ading	-2818
▁exchan	-2819
4)	-2820
EC	-2821
po	-2822
▁persis	-2823
urine	-2824
▁constr	-2825
▁inhibitors	-2826
▁manner	-2827
pose	-2828
▁spinal	-2829
teroid	-2830
plas	-2831
▁physiological	-2832
▁slightly	-2833
▁mel	-2834
▁'	-2835
ylate	-2836
▁structural	-2837
transfer	-2838
▁proportion	-2839
sized	-2840
IL	-2841
▁cate	-2842
▁induce	-2843
▁relax	-2844
iat	-2845
▁she	-2846
arily	-2847
EM	-2848
/2	-2849
reast	-2850
ious	-2851
▁target	-2852
▁0.9	-2853
anine	-2854
▁labor	-2855
▁almost	-2856
▁bronch	-2857
▁alk	-2858
▁highest	-2859
▁ed	-2860
olol	-2861
▁play	-2862
▁neut	-2863
▁sperm	-2864
▁Ac	-2865
▁toward	-2866
viron	-2867
tance	-2868
▁stable	-2869
▁fractions	-2870
▁More	-2871
▁33	-2872
ias	-2873
▁gangl	-2874
▁lys	-2875
▁pancre	-2876
▁label	-2877
▁olig	-2878
ided	-2879
▁gradi	-2880
▁Ser	-2881
▁125	-2882
▁ey	-2883
▁prac	-2884
▁sour	-2885
▁att	-2886
▁success	-2887
▁cathe	-2888
▁Mg	-2889
▁biop	-2890
ang	-2891
▁poor	-2892
labeled	-2893
▁macrophages	-2894
▁perf	-2895
▁IGF	-2896
emic	-2897
mental	-2898
▁means	-2899
/1	-2900
▁stab	-2901
▁cre	-2902
PC	-2903
▁according	-2904
▁urine	-2905
▁compos	-2906
▁toler	-2907
▁fragment	-2908
▁review	-2909
▁Sim	-2910
▁197	-2911
order	-2912
▁larger	-2913
ust	-2914
▁perox	-2915
ologically	-2916
▁partial	-2917
▁degrad	-2918
▁complexes	-2919
▁trig	-2920
▁certain	-2921
iting	-2922
▁vesicles	-2923
ternal	-2924
▁aortic	-2925
▁birth	-2926
CC	-2927
fic	-2928
▁resulting	-2929
▁Since	-2930
▁Im	-2931
odynamic	-2932
▁estimated	-2933
▁retro	-2934
▁ischemia	-2935
nec	-2936
▁must	-2937
▁better	-2938
aired	-2939
▁noted	-2940
▁effic	-2941
▁4-	-2942
▁subc	-2943
▁ra	-2944
▁vel	-2945
▁males	-2946
▁intravenous	-2947
que	-2948
thm	-2949
apeutic	-2950
reg	-2951
itamin	-2952
▁plasm	-2953
▁0.6	-2954
▁observations	-2955
ump	-2956
▁gastric	-2957
ality	-2958
▁agonist	-2959
▁experi	-2960
▁taken	-2961
▁diabetic	-2962
fected	-2963
▁breast	-2964
▁systemic	-2965
lobin	-2966
▁throughout	-2967
part	-2968
▁status	-2969
▁aggreg	-2970
▁family	-2971
atase	-2972
▁endogenous	-2973
▁report	-2974
▁prepared	-2975
▁features	-2976
pite	-2977
year	-2978
▁kDa	-2979
▁scre	-2980
utions	-2981
▁viral	-2982
ociated	-2983
gluc	-2984
▁good	-2985
cles	-2986
▁ren	-2987
▁veloc	-2988
▁open	-2989
▁deriv	-2990
▁ure	-2991
▁molecule	-2992
▁necessary	-2993
mg	-2994
▁Using	-2995
avage	-2996
otic	-2997
▁phosphorylation	-2998
▁0.7	-2999
▁longer	-3000
▁sple	-3001
▁selected	-3002
▁interval	-3003
ylcholine	-3004
dim	-3005
▁0.8	-3006
gamma	-3007
▁processes	-3008
▁AMP	-3009
tized	-3010
atid	-3011
▁toge	-3012
▁together	-3013
aged	-3014
▁elimin	-3015
▁dehyd	-3016
▁phosphate	-3017
AC	-3018
▁fer	-3019
olution	-3020
▁pituitary	-3021
▁perfusion	-3022
▁endothelial	-3023
▁inner	-3024
▁pair	-3025
▁transient	-3026
▁consum	-3027
▁maintained	-3028
ned	-3029
▁31	-3030
▁females	-3031
stolic	-3032
gene	-3033
ompan	-3034
▁alcoh	-3035
▁fix	-3036
▁pregnancy	-3037
ats	-3038
▁integr	-3039
ocal	-3040
uals	-3041
▁enhance	-3042
▁Cl	-3043
▁layer	-3044
▁experiment	-3045
▁Rec	-3046
▁dors	-3047
▁.0	-3048
▁evaluate	-3049
itone	-3050
▁evaluation	-3051
20	-3052
henyl	-3053
▁achieved	-3054
▁reactions	-3055
▁irradi	-3056
▁animal	-3057
inea	-3058
▁detection	-3059
occ	-3060
▁preval	-3061
▁hydrox	-3062
mented	-3063
ored	-3064
▁4.	-3065
▁cyto	-3066
ze	-3067
▁clearance	-3068
▁head	-3069
▁sep	-3070
▁partially	-3071
▁psych	-3072
9,	-3073
rolog	-3074
▁though	-3075
▁complement	-3076
▁nuclei	-3077
▁limited	-3078
▁cytochrome	-3079
▁conclusion	-3080
EA	-3081
▁strongly	-3082
▁intens	-3083
▁comparable	-3084
▁clones	-3085
▁accompan	-3086
sensitive	-3087
▁lac	-3088
▁smooth	-3089
▁stages	-3090
tensin	-3091
▁kg	-3092
HC	-3093
▁domain	-3094
▁et	-3095
▁infarction	-3096
▁nu	-3097
cepti	-3098
▁complications	-3099
▁neutroph	-3100
▁optim	-3101
▁hydroly	-3102
▁output	-3103
▁elic	-3104
▁essential	-3105
▁paralle	-3106
▁baseline	-3107
▁interactions	-3108
uct	-3109
ogram	-3110
ched	-3111
▁mainly	-3112
▁fragments	-3113
enic	-3114
▁microscopy	-3115
▁34	-3116
ef	-3117
▁relation	-3118
acchar	-3119
ock	-3120
oring	-3121
▁set	-3122
▁diseases	-3123
2.	-3124
▁improved	-3125
aps	-3126
▁pers	-3127
astolic	-3128
▁having	-3129
SV	-3130
▁haem	-3131
▁environ	-3132
▁events	-3133
▁shor	-3134
▁precur	-3135
▁diabetes	-3136
.)	-3137
pecially	-3138
▁sera	-3139
▁1)	-3140
▁sw	-3141
▁performance	-3142
trogen	-3143
assi	-3144
▁failed	-3145
rit	-3146
▁another	-3147
▁lipoprotein	-3148
▁specimens	-3149
▁IFN	-3150
utaneous	-3151
reshold	-3152
mal	-3153
▁ty	-3154
▁simult	-3155
▁glomer	-3156
▁diameter	-3157
▁adenosine	-3158
▁oste	-3159
iol	-3160
▁prolonged	-3161
▁detectable	-3162
▁38	-3163
RI	-3164
▁investigate	-3165
▁able	-3166
ression	-3167
▁criter	-3168
▁receiving	-3169
▁proximal	-3170
ometric	-3171
▁agent	-3172
ify	-3173
▁infections	-3174
▁6-	-3175
▁perme	-3176
▁saline	-3177
▁medical	-3178
▁Three	-3179
▁200	-3180
▁mum	-3181
▁promoter	-3182
▁conj	-3183
▁coup	-3184
▁muscles	-3185
▁efficacy	-3186
ologous	-3187
▁posi	-3188
ipp	-3189
IP	-3190
▁(1)	-3191
▁incorporation	-3192
olytic	-3193
▁ill	-3194
ploy	-3195
allen	-3196
test	-3197
▁individuals	-3198
▁lesion	-3199
▁They	-3200
▁motor	-3201
▁great	-3202
▁pyr	-3203
▁interv	-3204
gland	-3205
▁substitu	-3206
▁En	-3207
▁undergo	-3208
▁sulfate	-3209
▁numbers	-3210
▁smaller	-3211
▁mutants	-3212
▁dopamine	-3213
▁amplitude	-3214
▁(2)	-3215
▁continuous	-3216
▁kill	-3217
CP	-3218
▁progn	-3219
,000	-3220
▁spontaneous	-3221
dom	-3222
▁spleen	-3223
teen	-3224
▁guinea	-3225
▁HP	-3226
▁predominant	-3227
▁underwent	-3228
▁field	-3229
▁2)	-3230
▁cataly	-3231
▁absorption	-3232
omal	-3233
▁functions	-3234
▁respect	-3235
▁Patients	-3236
▁micros	-3237
▁glycoprotein	-3238
uses	-3239
oresis	-3240
▁star	-3241
▁intermediate	-3242
adiol	-3243
▁intestinal	-3244
▁natur	-3245
▁toxicity	-3246
▁hypox	-3247
▁conform	-3248
-1.	-3249
▁alterations	-3250
▁populations	-3251
▁causes	-3252
▁contains	-3253
bil	-3254
▁especially	-3255
transferase	-3256
acr	-3257
ark	-3258
▁1.0	-3259
▁immuno	-3260
SP	-3261
▁application	-3262
▁linear	-3263
▁cord	-3264
tox	-3265
oglyc	-3266
▁0.01).	-3267
▁distal	-3268
acement	-3269
▁approach	-3270
▁genetic	-3271
+)-	-3272
40	-3273
Hg	-3274
elled	-3275
cine	-3276
rest	-3277
▁stre	-3278
▁recip	-3279
▁From	-3280
▁follic	-3281
▁neon	-3282
▁old	-3283
▁ethanol	-3284
neum	-3285
▁wild	-3286
come	-3287
▁iron	-3288
phyl	-3289
▁frequently	-3290
MN	-3291
▁point	-3292
▁identify	-3293
▁abol	-3294
▁accur	-3295
▁altern	-3296
▁operation	-3297
▁cann	-3298
▁simple	-3299
▁retic	-3300
▁remaining	-3301
6-	-3302
▁cys	-3303
▁until	-3304
▁turn	-3305
▁grad	-3306
gesterone	-3307
▁rib	-3308
▁statistically	-3309
▁enti	-3310
produc	-3311
▁particularly	-3312
LI	-3313
▁weak	-3314
ropri	-3315
ables	-3316
▁channels	-3317
▁2.5	-3318
▁modified	-3319
kele	-3320
▁segment	-3321
▁erythrocy	-3322
▁tract	-3323
▁indicates	-3324
BC	-3325
▁hypothal	-3326
▁contraction	-3327
ivalent	-3328
plan	-3329
▁dele	-3330
ime	-3331
▁exchange	-3332
NS	-3333
▁preparation	-3334
▁removal	-3335
kDa	-3336
▁median	-3337
▁suscepti	-3338
▁ultras	-3339
▁Ph	-3340
▁intervals	-3341
▁rad	-3342
▁cereb	-3343
keletal	-3344
▁periods	-3345
▁DA	-3346
▁food	-3347
iotensin	-3348
rup	-3349
tation	-3350
zyme	-3351
assium	-3352
▁inser	-3353
otassium	-3354
▁therapeutic	-3355
▁albumin	-3356
▁potentials	-3357
AL	-3358
▁arteries	-3359
▁employ	-3360
truction	-3361
rix	-3362
▁released	-3363
▁venous	-3364
tri	-3365
▁off	-3366
ficial	-3367
▁incubated	-3368
▁shows	-3369
actin	-3370
▁prevent	-3371
▁cortical	-3372
tile	-3373
EP	-3374
pr	-3375
▁nucleotide	-3376
▁Therefore	-3377
▁abnormalities	-3378
▁0.01)	-3379
▁gest	-3380
aining	-3381
eric	-3382
ols	-3383
▁moderate	-3384
tagland	-3385
ams	-3386
▁near	-3387
fts	-3388
ST	-3389
▁procedures	-3390
▁host	-3391
sia	-3392
mod	-3393
iable	-3394
▁except	-3395
wenty	-3396
amino	-3397
▁blot	-3398
oceptor	-3399
▁bal	-3400
▁gon	-3401
rosine	-3402
▁chemotherapy	-3403
▁nitro	-3404
▁42	-3405
▁recombinant	-3406
▁connec	-3407
▁Le	-3408
11	-3409
▁generated	-3410
▁decreases	-3411
▁conven	-3412
▁granul	-3413
lying	-3414
aging	-3415
▁malignant	-3416
▁Ne	-3417
▁3,	-3418
▁retur	-3419
▁segments	-3420
olarization	-3421
▁90	-3422
▁TNF	-3423
tradiol	-3424
bly	-3425
▁sections	-3426
LV	-3427
IC	-3428
tence	-3429
▁mil	-3430
receptor	-3431
acin	-3432
▁kinetics	-3433
▁fluorescence	-3434
▁constitu	-3435
oro	-3436
▁majority	-3437
▁thick	-3438
▁nine	-3439
▁intensity	-3440
▁He	-3441
▁bile	-3442
▁velocity	-3443
▁net	-3444
▁0.001).	-3445
▁external	-3446
▁mV	-3447
▁below	-3448
▁rabbits	-3449
ising	-3450
▁composition	-3451
▁challen	-3452
▁assays	-3453
▁prevalence	-3454
▁terminal	-3455
aine	-3456
▁SP	-3457
▁deple	-3458
▁gland	-3459
▁biological	-3460
▁provided	-3461
▁variation	-3462
▁sten	-3463
ositol	-3464
mitted	-3465
▁regard	-3466
▁nmol	-3467
tub	-3468
rhy	-3469
changed	-3470
adrenergic	-3471
▁Similar	-3472
▁auto	-3473
ration	-3474
omycin	-3475
▁mild	-3476
▁mig	-3477
▁biochemical	-3478
▁died	-3479
▁hear	-3480
▁pub	-3481
▁postoperative	-3482
▁underst	-3483
FA	-3484
equ	-3485
▁stimulus	-3486
tors	-3487
▁bene	-3488
▁aged	-3489
▁proposed	-3490
HA	-3491
▁hepar	-3492
▁Inc	-3493
▁occlusion	-3494
▁antiser	-3495
▁pancreatic	-3496
15	-3497
au	-3498
▁mmol	-3499
▁heat	-3500
oglobin	-3501
atives	-3502
containing	-3503
erative	-3504
icin	-3505
onate	-3506
▁rest	-3507
▁extracts	-3508
▁unchanged	-3509
overed	-3510
▁variety	-3511
▁cry	-3512
ycin	-3513
▁lamin	-3514
▁matrix	-3515
rents	-3516
▁1.5	-3517
▁Wh	-3518
▁appearance	-3519
clo	-3520
▁dietary	-3521
▁threshold	-3522
▁St	-3523
▁treat	-3524
▁typ	-3525
▁suppor	-3526
▁history	-3527
veness	-3528
ili	-3529
▁vitamin	-3530
▁sample	-3531
▁PC	-3532
▁aff	-3533
▁pros	-3534
▁whose	-3535
▁electrophoresis	-3536
eff	-3537
anth	-3538
▁mmHg	-3539
ociation	-3540
amate	-3541
▁murine	-3542
▁potassium	-3543
▁radiation	-3544
▁generation	-3545
siveness	-3546
▁chick	-3547
lux	-3548
▁dorsal	-3549
▁fall	-3550
▁neph	-3551
▁mumol	-3552
▁expected	-3553
rogenase	-3554
phas	-3555
▁resistant	-3556
▁mutations	-3557
loro	-3558
▁epithelium	-3559
▁cop	-3560
▁adrenal	-3561
position	-3562
▁gradient	-3563
▁steady	-3564
▁histamine	-3565
▁sin	-3566
aemia	-3567
▁particles	-3568
▁supple	-3569
tingu	-3570
but	-3571
IA	-3572
90	-3573
▁every	-3574
▁lack	-3575
ropriate	-3576
adder	-3577
▁5.	-3578
erved	-3579
▁collected	-3580
ident	-3581
▁sens	-3582
▁criteria	-3583
▁exis	-3584
▁cyclase	-3585
▁pretreatment	-3586
▁auth	-3587
3%	-3588
opha	-3589
▁pac	-3590
DR	-3591
▁Moreover	-3592
idal	-3593
linked	-3594
▁evoked	-3595
2+]	-3596
▁magnitude	-3597
-1)	-3598
▁synthesized	-3599
▁importance	-3600
▁platelets	-3601
▁untreated	-3602
▁graft	-3603
▁chromosome	-3604
▁neutral	-3605
▁GABA	-3606
tum	-3607
▁characteristic	-3608
▁concer	-3609
▁seems	-3610
eral	-3611
▁native	-3612
▁nm	-3613
▁subunits	-3614
▁cytoplasmic	-3615
associated	-3616
istic	-3617
▁reper	-3618
▁improvement	-3619
oral	-3620
▁along	-3621
anding	-3622
urg	-3623
▁parallel	-3624
▁systolic	-3625
▁fibroblasts	-3626
▁venti	-3627
vic	-3628
▁particip	-3629
▁bacterial	-3630
umn	-3631
▁injections	-3632
amus	-3633
▁Plas	-3634
▁vessels	-3635
▁competi	-3636
function	-3637
▁exp	-3638
▁cortic	-3639
ilibr	-3640
▁measurement	-3641
raw	-3642
derived	-3643
▁voltage	-3644
▁fibrin	-3645
▁polypeptide	-3646
▁laboratory	-3647
▁Four	-3648
▁her	-3649
▁repeated	-3650
athetic	-3651
MT	-3652
▁ovari	-3653
▁reached	-3654
▁degradation	-3655
▁80	-3656
▁models	-3657
▁analyses	-3658
▁unit	-3659
▁actin	-3660
▁70	-3661
▁consequ	-3662
▁recognized	-3663
▁possibility	-3664
pecific	-3665
▁10.	-3666
6%	-3667
com	-3668
▁physical	-3669
▁steroid	-3670
▁yiel	-3671
▁close	-3672
▁diagnostic	-3673
mediately	-3674
▁mature	-3675
▁probe	-3676
▁curve	-3677
uv	-3678
geal	-3679
ione	-3680
lycer	-3681
▁metabolites	-3682
▁accompanied	-3683
▁ACTH	-3684
▁diffic	-3685
olysis	-3686
23	-3687
iment	-3688
iew	-3689
0%)	-3690
entricular	-3691
ips	-3692
pression	-3693
▁closely	-3694
ril	-3695
▁examine	-3696
▁immunos	-3697
eth	-3698
▁toxin	-3699
temp	-3700
▁suppression	-3701
▁stimuli	-3702
ynthe	-3703
▁regulatory	-3704
▁deficiency	-3705
▁prevented	-3706
▁minor	-3707
otides	-3708
▁purpose	-3709
▁HLA	-3710
▁now	-3711
aden	-3712
▁mas	-3713
▁synthetic	-3714
ese	-3715
▁varied	-3716
▁generally	-3717
▁consumption	-3718
▁elements	-3719
▁resting	-3720
▁transplantation	-3721
▁posterior	-3722
▁pneum	-3723
▁soluble	-3724
the	-3725
otropic	-3726
▁successful	-3727
▁nature	-3728
7%	-3729
▁entire	-3730
▁variables	-3731
▁dy	-3732
▁view	-3733
▁primarily	-3734
▁neuronal	-3735
itoneal	-3736
▁39	-3737
▁down	-3738
oside	-3739
▁usually	-3740
orders	-3741
lier	-3742
▁mixed	-3743
▁methyl	-3744
▁predicted	-3745
ilic	-3746
▁doc	-3747
thal	-3748
▁alcohol	-3749
▁natural	-3750
▁involvement	-3751
orrh	-3752
▁nerv	-3753
tility	-3754
▁facil	-3755
ilateral	-3756
▁became	-3757
▁attenu	-3758
4%	-3759
▁er	-3760
asal	-3761
ovascular	-3762
ints	-3763
▁question	-3764
▁EC	-3765
erox	-3766
▁nons	-3767
▁prostagland	-3768
▁sto	-3769
▁dex	-3770
▁tempor	-3771
▁progesterone	-3772
▁media	-3773
▁dehydrogenase	-3774
▁band	-3775
▁bur	-3776
▁terms	-3777
▁vary	-3778
ets	-3779
7)	-3780
spective	-3781
▁regression	-3782
ii	-3783
▁epis	-3784
elling	-3785
▁Bec	-3786
earch	-3787
elec	-3788
▁leukemia	-3789
▁abolished	-3790
▁lymphocyte	-3791
▁projec	-3792
▁depression	-3793
LP	-3794
▁controlled	-3795
ectomy	-3796
▁testing	-3797
SO	-3798
turb	-3799
carb	-3800
ocamp	-3801
lycerol	-3802
▁quantitative	-3803
▁stren	-3804
▁conducted	-3805
▁deli	-3806
inally	-3807
▁catheter	-3808
ohyd	-3809
ometry	-3810
▁ratios	-3811
30	-3812
▁wid	-3813
▁investigation	-3814
▁delayed	-3815
HR	-3816
▁Only	-3817
▁72	-3818
▁outcome	-3819
▁localized	-3820
▁radical	-3821
mature	-3822
▁cis	-3823
▁cont	-3824
▁mutation	-3825
▁last	-3826
▁recording	-3827
▁antagonists	-3828
▁melan	-3829
rac	-3830
▁Tre	-3831
VP	-3832
▁hemat	-3833
CSF	-3834
otoxin	-3835
▁estrogen	-3836
▁recons	-3837
idity	-3838
-2-	-3839
▁las	-3840
▁divided	-3841
▁dimin	-3842
▁reduce	-3843
▁bac	-3844
1.	-3845
▁monke	-3846
▁Anal	-3847
by	-3848
▁mitochondrial	-3849
▁Addition	-3850
▁respond	-3851
▁variable	-3852
olin	-3853
MR	-3854
leu	-3855
bl	-3856
▁remains	-3857
▁buff	-3858
▁20%	-3859
iform	-3860
▁hypertensive	-3861
▁nit	-3862
▁column	-3863
▁resec	-3864
pinephrine	-3865
▁severity	-3866
▁specifically	-3867
aw	-3868
▁vag	-3869
▁upper	-3870
odil	-3871
▁removed	-3872
▁led	-3873
ecu	-3874
▁Because	-3875
▁contribute	-3876
▁dyn	-3877
rog	-3878
▁0.001)	-3879
▁spl	-3880
den	-3881
▁suppressed	-3882
assay	-3883
▁vein	-3884
encies	-3885
MI	-3886
▁markers	-3887
60	-3888
raz	-3889
erent	-3890
▁De	-3891
▁significance	-3892
▁conventional	-3893
▁polymerase	-3894
rier	-3895
▁ester	-3896
glutin	-3897
▁attrib	-3898
▁hepatitis	-3899
▁bran	-3900
fl	-3901
PD	-3902
▁Co	-3903
phase	-3904
▁apo	-3905
▁attemp	-3906
▁marker	-3907
▁paper	-3908
▁nervous	-3909
▁hipp	-3910
1%	-3911
ings	-3912
▁account	-3913
PR	-3914
▁mol	-3915
▁chains	-3916
▁immediately	-3917
▁toxic	-3918
▁earlier	-3919
▁angiotensin	-3920
▁pigs	-3921
olec	-3922
▁valve	-3923
▁observation	-3924
▁contact	-3925
▁bro	-3926
istry	-3927
▁renin	-3928
▁10%	-3929
▁benz	-3930
▁ech	-3931
▁full	-3932
▁curves	-3933
▁phosphatid	-3934
quid	-3935
AT	-3936
▁preferen	-3937
▁epiderm	-3938
▁heparin	-3939
▁agonists	-3940
▁bacteria	-3941
▁ST	-3942
unted	-3943
opathy	-3944
▁recently	-3945
▁gastro	-3946
▁surve	-3947
gg	-3948
iotic	-3949
▁Immun	-3950
ocytic	-3951
hist	-3952
▁portion	-3953
▁reactivity	-3954
CT	-3955
▁uter	-3956
izes	-3957
+,	-3958
▁Ar	-3959
9)	-3960
▁LV	-3961
▁lum	-3962
▁inflammatory	-3963
▁fore	-3964
-,	-3965
leep	-3966
▁ranged	-3967
▁Six	-3968
▁ischemic	-3969
▁extre	-3970
gi	-3971
▁PD	-3972
▁rh	-3973
▁ble	-3974
orepinephrine	-3975
▁appropriate	-3976
agon	-3977
▁EGF	-3978
▁gonad	-3979
▁(+	-3980
▁hippocamp	-3981
veolar	-3982
▁problems	-3983
ocrine	-3984
▁mono	-3985
▁reticul	-3986
▁signs	-3987
Na	-3988
▁Among	-3989
▁secretory	-3990
ATPase	-3991
endri	-3992
▁skeletal	-3993
▁cyclo	-3994
oglobulin	-3995
luores	-3996
▁aim	-3997
8%	-3998
▁AI	-3999
▁consecu	-4000
▁Twenty	-4001
FU	-4002
osal	-4003
▁source	-4004
▁cleavage	-4005
alact	-4006
▁diastolic	-4007
▁around	-4008
▁inactivation	-4009
trum	-4010
agement	-4011
ower	-4012
▁disorders	-4013
▁coeff	-4014
▁disapp	-4015
▁ou	-4016
sess	-4017
▁fusion	-4018
▁sum	-4019
▁intro	-4020
seud	-4021
▁force	-4022
▁SC	-4023
▁LDL	-4024
▁ten	-4025
▁phenotype	-4026
ichia	-4027
▁gave	-4028
BV	-4029
▁Sc	-4030
imen	-4031
rotid	-4032
▁whom	-4033
▁equilibr	-4034
▁hypertro	-4035
oplasm	-4036
▁here	-4037
▁sarc	-4038
ights	-4039
MV	-4040
▁caps	-4041
▁phenomen	-4042
oic	-4043
ape	-4044
▁adap	-4045
scher	-4046
▁clinically	-4047
(+)-	-4048
control	-4049
17	-4050
orbol	-4051
▁initiation	-4052
▁objec	-4053
8)	-4054
▁tach	-4055
▁interpre	-4056
▁pathways	-4057
▁(3)	-4058
▁hydrolysis	-4059
▁consisted	-4060
▁LT	-4061
▁implic	-4062
asis	-4063
▁sch	-4064
▁capable	-4065
▁labeling	-4066
scherichia	-4067
▁parent	-4068
▁superior	-4069
▁uniqu	-4070
okine	-4071
▁hybridization	-4072
hyp	-4073
▁replication	-4074
pass	-4075
hydro	-4076
▁include	-4077
▁ligand	-4078
▁paras	-4079
▁3)	-4080
▁repair	-4081
DM	-4082
▁adults	-4083
▁minimal	-4084
planted	-4085
▁elicited	-4086
▁best	-4087
▁alle	-4088
▁pulse	-4089
▁IC	-4090
▁clearly	-4091
▁tyrosine	-4092
leukin	-4093
▁frequent	-4094
▁jo	-4095
ek	-4096
▁PGE	-4097
▁oxidation	-4098
▁sinus	-4099
▁ms	-4100
▁CH	-4101
▁put	-4102
▁fast	-4103
▁extr	-4104
▁inoc	-4105
bound	-4106
itant	-4107
▁Escherichia	-4108
▁separate	-4109
▁cytotoxic	-4110
▁uns	-4111
▁axons	-4112
▁basic	-4113
▁tension	-4114
▁conjug	-4115
▁screening	-4116
▁designed	-4117
▁separated	-4118
▁somat	-4119
car	-4120
tice	-4121
▁reas	-4122
▁treatments	-4123
▁strength	-4124
resist	-4125
▁occurring	-4126
ots	-4127
▁testosterone	-4128
sively	-4129
▁tolerance	-4130
▁Plasma	-4131
▁across	-4132
▁sustained	-4133
▁go	-4134
ritis	-4135
▁sympathetic	-4136
onuclear	-4137
ula	-4138
ono	-4139
▁stri	-4140
▁load	-4141
▁irradiation	-4142
stre	-4143
▁substrates	-4144
ella	-4145
▁maternal	-4146
▁assessment	-4147
▁electrical	-4148
rons	-4149
adrenoceptor	-4150
2).	-4151
▁SD	-4152
▁recent	-4153
infected	-4154
▁regional	-4155
isms	-4156
ollow	-4157
▁FSH	-4158
▁commun	-4159
19	-4160
generation	-4161
Ig	-4162
▁exogenous	-4163
ticular	-4164
▁hemodynamic	-4165
▁10-	-4166
16	-4167
▁NK	-4168
▁break	-4169
▁Tr	-4170
▁provides	-4171
▁recovered	-4172
▁cannot	-4173
▁phosphatase	-4174
▁Sub	-4175
ynaptic	-4176
BL	-4177
SD	-4178
▁saf	-4179
▁impair	-4180
otyp	-4181
▁impaired	-4182
▁self	-4183
▁leads	-4184
▁Cell	-4185
wor	-4186
▁neither	-4187
▁white	-4188
ina	-4189
tiz	-4190
ncy	-4191
▁cerv	-4192
▁5'-	-4193
▁0.000	-4194
▁training	-4195
▁fav	-4196
▁biopsy	-4197
▁chloride	-4198
GA	-4199
▁consecutive	-4200
known	-4201
now	-4202
oprote	-4203
13	-4204
▁cervical	-4205
hal	-4206
▁filtration	-4207
▁clus	-4208
▁asc	-4209
▁Ins	-4210
▁seroton	-4211
activated	-4212
▁relaxation	-4213
▁Stu	-4214
tail	-4215
▁fet	-4216
asion	-4217
▁circulating	-4218
mend	-4219
▁necrosis	-4220
oids	-4221
▁metal	-4222
def	-4223
▁sleep	-4224
▁.	-4225
natal	-4226
▁authors	-4227
EG	-4228
time	-4229
dominal	-4230
▁raised	-4231
▁stimulate	-4232
▁shift	-4233
▁medial	-4234
incip	-4235
▁developing	-4236
osynthe	-4237
▁elevation	-4238
▁defect	-4239
▁despite	-4240
▁extensive	-4241
▁hormones	-4242
loid	-4243
▁feeding	-4244
▁Ag	-4245
▁management	-4246
▁hypo	-4247
▁mitochondria	-4248
ching	-4249
▁RA	-4250
▁research	-4251
ches	-4252
ialysis	-4253
▁older	-4254
▁lactate	-4255
ameth	-4256
▁indirect	-4257
▁twice	-4258
▁Sp	-4259
trition	-4260
▁exer	-4261
▁Most	-4262
▁Treatment	-4263
▁eye	-4264
▁milk	-4265
▁reflex	-4266
acetyl	-4267
genic	-4268
▁excess	-4269
▁bar	-4270
protein	-4271
▁liquid	-4272
eded	-4273
▁hams	-4274
▁prom	-4275
▁adhesion	-4276
▁critical	-4277
ardia	-4278
▁donor	-4279
▁feed	-4280
▁dendri	-4281
2%	-4282
▁precursor	-4283
▁stenosis	-4284
yg	-4285
▁fact	-4286
▁protoc	-4287
-100	-4288
▁ker	-4289
▁progressive	-4290
▁reperfusion	-4291
▁possibly	-4292
mentation	-4293
ik	-4294
▁distingu	-4295
affec	-4296
anning	-4297
▁ful	-4298
▁pla	-4299
▁8-	-4300
▁fibres	-4301
▁sufficient	-4302
9%	-4303
▁interven	-4304
tif	-4305
▁43	-4306
▁trials	-4307
▁heterogene	-4308
▁special	-4309
▁CP	-4310
▁confirm	-4311
▁TGF	-4312
apping	-4313
-1-	-4314
opo	-4315
▁tri	-4316
-14	-4317
▁dissociation	-4318
▁become	-4319
state	-4320
▁unique	-4321
iaz	-4322
aces	-4323
ray	-4324
ET	-4325
▁Am	-4326
▁possess	-4327
▁dip	-4328
▁(198	-4329
-20	-4330
▁none	-4331
tisol	-4332
▁neurop	-4333
▁monitoring	-4334
ylamide	-4335
▁movement	-4336
▁princip	-4337
▁norepinephrine	-4338
▁reversed	-4339
▁restriction	-4340
▁substance	-4341
cul	-4342
sh	-4343
▁far	-4344
▁75	-4345
▁aug	-4346
▁mother	-4347
▁BP	-4348
▁plasmid	-4349
oden	-4350
▁responsiveness	-4351
▁outer	-4352
▁egg	-4353
▁pool	-4354
▁neonatal	-4355
4+	-4356
▁ED	-4357
ctive	-4358
nat	-4359
▁4,	-4360
stream	-4361
aries	-4362
▁antic	-4363
▁nic	-4364
ginine	-4365
affected	-4366
ometr	-4367
otal	-4368
ionic	-4369
▁Follow	-4370
▁bladder	-4371
mat	-4372
▁event	-4373
▁yet	-4374
▁fiber	-4375
▁pg	-4376
vious	-4377
orac	-4378
ectin	-4379
▁substanti	-4380
▁processing	-4381
▁differential	-4382
▁mucosa	-4383
dle	-4384
▁neural	-4385
born	-4386
alian	-4387
▁TSH	-4388
lastic	-4389
▁salt	-4390
ply	-4391
ellar	-4392
▁isolates	-4393
▁involving	-4394
ocaine	-4395
▁AP	-4396
ipit	-4397
▁improve	-4398
▁synaptic	-4399
▁reactive	-4400
ined	-4401
▁compart	-4402
accharide	-4403
ception	-4404
▁transmission	-4405
irus	-4406
▁equivalent	-4407
▁occup	-4408
BF	-4409
▁challenge	-4410
erated	-4411
▁delivery	-4412
▁recommend	-4413
oxygen	-4414
▁cardiovascular	-4415
▁catechol	-4416
▁others	-4417
▁measures	-4418
idation	-4419
▁(10(	-4420
▁diets	-4421
▁IgM	-4422
▁manif	-4423
oses	-4424
▁help	-4425
▁construc	-4426
dose	-4427
▁randomized	-4428
▁Fe	-4429
acent	-4430
▁hearts	-4431
▁neoplas	-4432
vity	-4433
▁establish	-4434
▁determination	-4435
5).	-4436
▁lob	-4437
▁pp	-4438
▁decline	-4439
▁like	-4440
ocortic	-4441
▁dependence	-4442
iae	-4443
inated	-4444
tak	-4445
rophob	-4446
▁dem	-4447
▁30%	-4448
lim	-4449
▁excl	-4450
▁humans	-4451
ns	-4452
▁44	-4453
▁PK	-4454
▁bio	-4455
gans	-4456
▁carbohyd	-4457
▁permeability	-4458
▁shock	-4459
▁interleukin	-4460
uoden	-4461
ilized	-4462
entially	-4463
▁embryos	-4464
▁actions	-4465
▁potency	-4466
benz	-4467
▁vaccin	-4468
unte	-4469
▁immunoglobulin	-4470
▁changed	-4471
ocar	-4472
effec	-4473
▁opi	-4474
grade	-4475
aced	-4476
▁squ	-4477
▁continued	-4478
▁hepatocytes	-4479
▁pmol	-4480
57	-4481
▁adenylate	-4482
▁directed	-4483
oz	-4484
uretic	-4485
▁If	-4486
ulph	-4487
ensional	-4488
▁residue	-4489
▁Mr	-4490
▁term	-4491
▁nerves	-4492
inic	-4493
iles	-4494
SC	-4495
osyl	-4496
ament	-4497
▁wave	-4498
▁morphology	-4499
▁unaffected	-4500
▁Analysis	-4501
▁ana	-4502
iatric	-4503
▁grafts	-4504
▁aggregation	-4505
opres	-4506
opes	-4507
▁Tran	-4508
▁perfused	-4509
▁apparently	-4510
▁ions	-4511
▁excit	-4512
-6)	-4513
▁infer	-4514
▁bodies	-4515
oscop	-4516
▁cloned	-4517
-450	-4518
tenance	-4519
ocial	-4520
adrenaline	-4521
▁GTP	-4522
▁showing	-4523
▁enhancement	-4524
tention	-4525
flow	-4526
▁volunte	-4527
▁reproduc	-4528
▁tas	-4529
▁rare	-4530
▁gestation	-4531
▁Hz	-4532
▁predominantly	-4533
ranolol	-4534
▁zone	-4535
▁sheep	-4536
ignific	-4537
▁nearly	-4538
▁CC	-4539
▁influenced	-4540
▁occurrence	-4541
oyl	-4542
)2	-4543
MG	-4544
illin	-4545
ake	-4546
▁caud	-4547
▁CR	-4548
▁nur	-4549
▁protection	-4550
resistant	-4551
▁express	-4552
lasses	-4553
ocytosis	-4554
▁prostaglandin	-4555
tryp	-4556
wh	-4557
negative	-4558
▁PT	-4559
▁Nor	-4560
▁sed	-4561
▁MA	-4562
ignificant	-4563
apse	-4564
nRH	-4565
▁mAb	-4566
▁adequ	-4567
▁node	-4568
▁aspec	-4569
▁stained	-4570
▁(100	-4571
sub	-4572
▁pal	-4573
asive	-4574
▁Comp	-4575
▁space	-4576
uron	-4577
▁3'	-4578
ients	-4579
▁fully	-4580
rich	-4581
▁replacement	-4582
inergic	-4583
▁mammalian	-4584
wise	-4585
▁Mean	-4586
▁LPS	-4587
▁6.	-4588
▁nod	-4589
▁cryst	-4590
plasia	-4591
onstric	-4592
▁dysfunction	-4593
▁90%	-4594
▁1.2	-4595
erence	-4596
oli	-4597
▁120	-4598
charge	-4599
▁mechanical	-4600
chym	-4601
▁experience	-4602
▁locus	-4603
ush	-4604
▁power	-4605
▁fo	-4606
▁bypass	-4607
▁glomerular	-4608
dl	-4609
amil	-4610
▁famil	-4611
▁neutrophils	-4612
▁physici	-4613
▁unknown	-4614
▁quality	-4615
▁recognition	-4616
▁fixed	-4617
▁rhy	-4618
▁measuring	-4619
▁Results	-4620
▁dev	-4621
▁blockade	-4622
▁employed	-4623
▁nucleotides	-4624
▁assign	-4625
.5%	-4626
gest	-4627
acrylamide	-4628
ows	-4629
otypes	-4630
ES	-4631
▁oxidase	-4632
oxin	-4633
▁efficiency	-4634
▁initially	-4635
▁aor	-4636
pler	-4637
▁top	-4638
factory	-4639
▁pairs	-4640
▁homologous	-4641
etic	-4642
▁inhibits	-4643
▁restricted	-4644
80	-4645
▁location	-4646
▁ovarian	-4647
▁500	-4648
▁know	-4649
▁docum	-4650
kinin	-4651
▁regulated	-4652
▁wide	-4653
▁organs	-4654
▁localization	-4655
PG	-4656
▁liter	-4657
▁Anti	-4658
▁needed	-4659
week	-4660
ymme	-4661
ervation	-4662
8-	-4663
azole	-4664
▁ventral	-4665
▁stro	-4666
▁profile	-4667
▁	-4668
e	-4669
t	-4670
i	-4671
a	-4672
n	-4673
o	-4674
s	-4675
r	-4676
l	-4677
c	-4678
d	-4679
h	-4680
m	-4681
u	-4682
p	-4683
f	-4684
g	-4685
y	-4686
b	-4687
w	-4688
.	-4689
v	-4690
,	-4691
-	-4692
1	-4693
0	-4694
T	-4695
)	-4696
(	-4697
x	-4698
A	-4699
2	-4700
I	-4701
k	-4702
C	-4703
P	-4704
5	-4705
3	-4706
4	-4707
H	-4708
S	-4709
M	-4710
D	-4711
N	-4712
/	-4713
z	-4714
6	-4715
R	-4716
8	-4717
L	-4718
7	-4719
F	-4720
B	-4721
E	-4722
9	-4723
G	-4724
%	-4725
q	-4726
+	-4727
O	-4728
j	-4729
V	-4730
W	-4731
;	-4732
K	-4733
U	-4734
'	-4735
=	-4736
:	-4737
]	-4738
[	-4739
"	-4740
