▁PMA
elvic
ominant
▁5.2
▁progen
▁14,
▁CAD
ordin
▁Diagnostic
▁extracellular
aline
coh
ozo
▁inconsistent
▁Pneum
▁genomic
▁precursor
▁Treatment
▁Likewise
▁2,
▁stools
▁adenoid
▁iso
▁exhaustion
▁triam
erving
osine
ithromycin
▁depressive
radi
olarization
roxicam
▁excre
bly
▁deformities
-22
▁19%
▁TCA
azone
roxy
piration
acted
▁HbA
▁sci
▁43%
▁uric
▁deleterious
▁13-
▁243
▁protease
▁edema
aryngeal
▁infertile
▁discomfort
chers
▁0.43
uracy
TSH
▁(31
▁Cumulative
▁(46
▁Epidemi
▁criterion
idespread
▁inositol
▁Eleven
▁potenti
▁2)
▁tubules
odic
ucine
ture
▁-4
LR
romycin
▁63%
▁topical
▁Rates
▁CAH
entral
▁(20
▁phospholipase
▁anae
▁physi
benz
▁septal
oconstric
▁provid
iclovir
▁seizures
▁ultrasonography
vaginal
fts
▁obstetr
▁adenocarcin
▁abnormality
▁ori
oxane
▁juven
▁(3
ariate
▁315
▁lutein
▁conges
▁histamine
▁singlet
Gly
▁cultured
▁adjustment
-2.0
▁malabsorption
▁140
thma
▁cortisone
▁intraven
▁epitope
▁proce
▁suppres
chloro
ochem
.7
comitant
thre
▁8.0
▁0.6%
24
73
▁hemorrhages
▁carbohydrates
▁syndromes
rotein
▁increas
/3
▁benzo
▁35%
▁32%
onatal
▁modifying
opoietic
▁vegetable
▁paired
60
▁immuno
ylene
▁sickness
▁venti
▁buspirone
odular
▁aerobic
▁addi
▁saliv
7,
▁staging
contrast
▁.00
atectomy
ophren
allium
▁pathway
▁intranasal
alb
olig
▁erythrocy
▁expec
▁spasm
▁metabolite
▁2000
▁antis
average
▁sclerotherapy
erable
asic
▁neoplasm
▁lipoprotein
uted
▁Symptom
▁erythema
▁CFU
5,000
▁embryonic
fiber
▁resto
▁subtypes
umably
▁67%
tensives
▁pigs
▁hippocampal
NAc
▁antithrombotic
oplasm
divid
tronic
EG
▁dendri
▁continuation
▁CABG
▁psychomotor
▁thyro
queous
traum
ocyst
ophils
▁carbonic
▁metabolic
▁hyperbil
▁sensi
▁infertility
▁efflux
▁scarring
▁donor
tionally
▁(3)
tention
angl
▁Hg
▁(9%)
jac
▁cyto
▁hydrolysis
▁126
carinic
▁ecological
▁histological
▁excision
▁empir
▁femoral
▁TGF
▁elastic
pinephrine
▁supra
▁prophyl
▁proteins
▁nonfatal
rates
▁LPS
▁800
▁canc
▁arteries
▁tubes
tron
25
▁irradiation
inhib
izin
▁enal
ofl
▁plantar
▁anatomic
odine
▁disclosed
▁2.5,
▁DH
melan
▁0.
tents
▁mammalian
▁immature
▁proteoglyc
▁(2.5
▁Doppler
inopril
▁spi
▁brom
▁abduc
▁5%.
▁transmitted
grees
▁naproxen
▁bronchodilator
▁targe
eces
▁cutaneous
umetanide
▁arose
1)
▁wors
ffe
▁glutathione
▁Sixty
▁tau
▁94
ovine
▁streptococcal
▁receptor
▁logistic
adrenoceptor
▁13.3
▁conjunction
▁carpal
regn
▁longus
▁metast
▁potentials
▁anxio
▁shunt
▁endoplasmic
4%)
▁stratification
▁suture
ontal
▁hypon
▁hyperp
▁incubated
5%
tein
▁47,
▁granule
roat
drome
facturing
▁5.1
▁79
tig
130
▁quadrup
▁chromatography
▁10,
▁catecholamine
▁11.2
uctose
▁amplification
▁heme
▁serum
oxifen
Dawley
▁Ps
▁grise
xia
▁prostate
▁thyroxine
tial
▁operative
81
erum
▁comparative
▁delaying
obac
▁acqui
▁(2%)
▁advan
▁saphen
▁0.82
▁0.45
▁antigens
▁linkage
▁prolongs
▁0.18
▁ureter
▁obstructive
/6
▁(4
▁subun
pH
▁yr
ygen
▁morphology
▁extensor
▁Phen
▁NF
thromb
▁mice
▁124
utin
phosph
Ba
▁2.0
▁uv
▁favorably
▁electrom
▁BMI
▁uter
▁ascorbic
▁fibrinogen
▁antidepress
encephal
▁(10
0.9
▁relap
▁Coronary
▁doxycycline
NH
▁regar
▁(300
CRP
difference
▁endarterectomy
▁influenz
otine
▁neoplastic
ietic
▁radiolabeled
▁37
▁propranolol
▁motone
etent
odies
▁cerebral
▁1.05
tained
▁suggestive
▁arrhythm
spectively
▁inappropriate
▁0.52
▁synaptic
▁185
▁exag
▁0.05).
▁interc
18
▁reproducible
opril
▁60%.
anding
▁uteri
▁-0.
mur
ocortic
monstr
▁INH
▁neomycin
▁Stro
▁29,
versely
42
dil
inase
anat
▁Delayed
onc
▁(5%)
▁prenatal
▁restraint
▁responsive
▁0.01).
▁neph
▁enrolled
▁glycosyl
▁sinusitis
▁gastrin
▁osteoporosis
35
▁substitution
▁extrac
▁heterosexual
▁methotrexate
▁23%
-9
pran
▁hypothesize
▁LR
▁deficient
▁metformin
▁corticosteroid
▁1.7%
▁aerosolized
/1
▁10-
▁3)
▁discontinued
▁AMP
▁determinant
▁hydroxyl
7).
▁bene
▁scin
▁9
▁neonatal
▁drip
lasts
▁CIN
▁etiology
▁unexplained
amole
clonal
▁Milk
▁restenosis
ubiqu
▁prol
omann
▁spati
yrid
arynx
▁defic
tensin
ituitary
mmol
▁Leuk
conver
osteroids
-2,
30,
▁gastro
timulation
ecre
▁isoniazid
ylcholine
▁eradicated
▁Therapy
▁outpatient
▁0.00
▁compartment
ffeine
▁tas
▁(5-
▁albuminuria
▁casein
▁(1
alp
ulsive
▁heparin
▁nif
▁Bac
▁cytotox
▁tended
▁creatine
▁36
▁ovulation
▁55%
otriene
▁vasopressin
-[
▁readings
▁LV
▁anastom
▁skinfold
orectal
▁deposition
▁impair
▁hamsters
pig
inflammatory
aryl
7;
▁overlapped
0,000
▁glut
rein
scherichia
▁cyclic
▁medullary
▁folate
vus
lym
▁exposures
-1000
▁scans
▁circumference
▁occlusive
▁mM
▁fluoride
omal
bacter
▁TSH
▁retrospective
▁0.51
▁construc
ferrin
immuno
enteric
tency
▁1.03
tices
stress
yel
▁-0.5
0%.
oscopy
▁loos
▁mec
rected
stranded
▁14.5
▁NADH
associated
▁32
▁249
▁guan
▁70%.
▁enl
tead
3,
plasty
Leu
▁obese
▁aggregation
.0
▁bilirubin
▁Clinic
▁oes
▁cuff
▁subgroup
▁eradic
protein
anin
olated
opa
▁devi
▁5.
▁24-
omial
chlor
▁(95
18)
dominal
▁correlations
▁retin
▁Gluc
ypass
5]
endix
nisolone
phosphamide
cemic
▁Binding
▁61
▁newborns
▁discharge
▁rabbit
▁diagnosing
articular
▁thirds
▁messenger
phosphate
▁CsA
▁125
▁bronchial
▁therapeutic
raine
▁9.7
78
▁venography
cortisone
29
orphin
▁chond
▁186
hydration
▁(0.6
▁DMP
acrylamide
tics
▁infrared
▁(79
▁sati
▁alveolar
▁alteration
▁predominantly
apride
▁0.4
▁supr
ethyl
▁thal
▁193
etus
▁emo
▁colorectal
vertebral
82
▁immunotherapy
▁normalization
tening
meth
▁colectomy
▁133
▁hemat
▁100%.
ductive
▁identif
▁lar
oxic
▁aden
▁0.61
▁clinics
▁premenopausal
▁Mn
MV
▁Highly
oreal
hion
▁resis
apeutic
opre
▁mitochondrial
▁derivatives
▁ecz
▁propionate
vices
▁1.12
vation
▁7
adone
▁enlarged
▁65
oxin
▁polys
▁sheath
ropine
▁recipients
▁crosso
itoring
▁corticosteroids
8;
buride
71
urons
otypic
▁frontal
tured
luded
▁distinguishing
96
urgical
thick
▁envelop
▁6-
▁vigorous
▁nutritional
andard
▁8.1
amisole
▁conservatively
▁mitogen
▁10(-4)
▁myocytes
tine
▁Eighty
▁pyruvate
phyl
▁behavioral
lamydia
▁lymphoma
▁transient
▁microb
▁9-
▁48
00-
▁melan
titu
▁potent
resis
▁166
▁237
▁actin
▁CAP
▁75%
▁antimic
ctive
eliac
▁abscess
sul
▁additive
▁pellets
▁6.4
▁(7%)
▁naloxone
▁degen
▁bumetanide
acental
olol
2,000
▁0.64
aminated
meas
osac
85
▁intrinsic
glycoprotein
▁symme
ardias
viral
▁100-
▁paren
temperature
/7
▁irrever
▁tolerated
chloride
openia
▁tibia
▁inhibitor
▁iden
▁diffic
▁corticos
▁unrecognized
▁improves
▁loci
onuclease
oporosis
▁ECGs
idis
▁glutamate
▁0%,
▁computerized
▁noradrenaline
▁soy
dural
estig
repres
(2
Hyp
itus
farin
▁spinal
acycl
▁syncope
oderm
▁spectroscop
▁0.5%
▁bathing
enic
▁209
0.2
opro
▁experimentally
▁malign
▁trache
▁defective
▁hydroly
▁bup
▁efficacy
LN
▁4%
roscop
rhy
ogenic
▁norfloxacin
0.
early
▁142
▁4000
ospasm
▁postmortem
embry
operatively
▁inhibition
lora
otomy
▁83%
▁188
▁Prevalence
▁55
▁glomer
dL
▁182
▁endoscop
diagnosed
▁3000
▁histology
yro
17
▁adren
enters
▁epiderm
ensitization
▁demonstrates
rance
istal
▁Computed
▁HC
medicated
▁89%
▁HLA
2).
▁progression
obarbital
▁Increased
▁selectivity
▁abnormalities
▁stimulation
"-
titute
alsy
▁descriptive
▁atopic
▁prednisone
TNF
▁Multiple
▁immunobl
▁elicited
rogesterone
ylation
▁superf
▁CDC
orac
▁12%,
▁solit
tomy
▁116
ipid
DH
▁gonococcal
▁15%.
▁biochemical
▁predictive
▁assemb
▁Examination
onary
tense
clamp
▁estradiol
administered
roscopy
promoting
▁defec
▁Neurop
Cer
romal
▁maturation
plasia
oprote
▁coag
oporotic
▁10.5
lated
▁vaccination
▁57%
hydroxy
▁concurrently
▁fibroblast
▁esophageal
▁nucleus
uppres
rays
cells
▁LVH
ionine
▁ech
▁coordination
▁caffeine
ocytosis
▁pathophysiology
▁20%.
▁congestive
▁198
irub
▁functionally
▁0,
▁cytology
continu
acetate
▁0.001),
▁Fc
▁Rats
0%).
▁5'-
39
▁Transi
Fs
▁epithelial
erop
LH
▁71%
arean
▁tracheal
▁Streptococcus
SMR
oprost
blind
▁biop
▁carbohyd
▁29
▁glomerul
▁ane
▁3.6%
ameter
ginine
▁tyrosine
▁0.25%
independent
▁residues
▁Hz
▁reser
▁pyr
amid
▁glycol
orpor
▁cytokine
stimulated
▁anaesthe
-1).
▁serotypes
▁systemic
▁unsuitable
▁inducer
tigu
ifed
.8%
▁fulf
▁PCR
▁inten
ohyd
▁19
atropium
tility
eak
▁antagonist
▁lor
▁preeclampsia
▁revascular
▁cerebellum
insulin
▁mononuclear
▁344
uminal
▁Veterans
▁lisinopril
▁Findings
▁1991.
▁manifestations
▁suppressed
▁psor
endazole
rotid
▁coval
▁22)
isole
▁hygi
▁Combin
▁contrib
increased
▁bipolar
▁titr
vitamin
▁carc
6-
(2+)-
▁hypox
sian
ancomycin
▁aspirin
▁communic
▁epidural
▁8.
▁investigator
▁confined
plantation
specificity
▁(1/
taken
renal
▁lectin
▁(19
▁1.11
▁angiotensin
ordial
sA
▁myopathy
▁lacked
▁CMV
▁codon
▁sugges
▁maternal
▁229
▁colonic
▁Acad
▁diabe
labeled
trol
▁6
ventilation
▁Estim
-80
▁(3.0
▁120
▁Chan
▁chromatin
diabetic
▁accid
▁proximal
▁13
estions
0.00
▁confound
▁0.79
▁(1.2
▁junction
▁emesis
ilibr
vail
tosis
▁simplex
▁40-
▁transformations
bearing
▁positively
▁Tolerance
icine
▁(49
inergic
▁indomethacin
▁73%
amilton
▁VIP
▁lith
▁sensitivities
▁elevating
▁0.99
▁persist
▁mRNA
▁0.1,
▁systematically
▁PF
ipramine
-70
▁cations
▁ECG
BH
▁ranitidine
▁absorp
▁rigorous
1]
tration
keletal
▁exhibits
▁commercially
▁quoti
merc
▁cavity
▁5.3
obarb
ithm
razosin
growth
▁adenocarcinoma
▁86%
▁antiarrhythmic
▁(25%)
▁disturbances
▁0.72
▁stimulants
▁numb
▁sucrose
▁analgesics
▁alopecia
epithelial
▁inh
▁probes
psych
▁hetero
till
▁Improvement
▁136
anking
▁papill
otroph
▁(95%
▁40
0.4
▁177
lipid
▁reacted
▁(1.5
10
▁pathologic
▁shortened
▁(78%)
▁imaged
▁multivariate
▁15
▁transi
▁tachyc
▁21%
▁ultrastructural
▁epidemiologic
invasive
median
▁0.59
▁cervical
▁accumulation
▁aspec
▁responsiveness
▁PV
vastatin
▁endoscopically
▁hyperlipid
▁clind
▁12.5
timate
azep
▁paroxys
▁placental
▁Respiratory
▁masked
▁refractory
▁peptides
affinity
▁menopausal
4;
osol
▁mitochondr
▁foci
inesterase
epam
nai
-5-
▁antich
otide
▁0.35
▁gyn
ignificant
▁inotropic
lycer
urgery
ocomp
▁95
▁antenatal
70)
distal
chymal
hydropyridine
-12
▁secreted
▁cystic
105
▁sediment
▁infar
▁candidiasis
▁contradictory
▁IB
▁triglycer
tative
▁Sulf
▁herpes
romes
▁0.01
▁hepatocytes
▁radiograph
▁(1.6
▁gluc
▁galact
imus
ophyll
▁developmental
idine
▁nephropathy
▁hexa
▁fibres
▁antif
▁3.1
▁comple
▁4.8
▁SPL
ophilic
ipine
▁Estrogen
▁discon
▁59
▁favoring
▁cerebro
▁murine
-2
▁cyclical
▁determinants
▁incubation
▁tib
▁metastases
occus
▁hCG
▁derm
oung
99
edema
ilized
28
▁Thy
▁TRH
▁HBs
▁hydrophob
virus
▁autoantibody
▁12.5%
▁epidermal
atation
▁heavier
▁conclusive
Bs
▁outflow
vents
▁83
yrib
itone
▁IVC
indol
▁somatic
▁erg
▁ouabain
edocromil
▁129
▁(92
▁localization
▁binds
yzed
ronchial
aminophen
▁pall
ococcus
proven
diastolic
▁hams
700
andida
▁phy
▁standardized
tum
▁displacement
uling
▁WHO
▁malignant
olip
▁hypercalcemia
sus
teroids
▁steroids
▁ure
▁objec
1-2
▁vaccin
▁scre
▁3.4
▁1.7
lue
throm
▁60-
▁intensive
▁3.7
▁tubular
▁(89
▁Nit
yses
udin
▁cortic
▁chloramphenicol
▁evaluations
▁postinjection
Ly
▁permeability
urrent
▁4.7
▁Haem
fractions
ulant
ritis
▁mite
▁econ
▁morb
▁fertility
▁42%
icin
▁distrib
▁Km
▁plasmin
▁entero
▁concep
-2-
▁simult
▁gonadotroph
▁covari
▁pharmacologic
▁artifact
▁physiological
trition
ipr
▁posi
75
kage
expressed
▁hydrophobic
▁familial
▁Diabetic
▁200-
rangement
▁hyperactivity
tural
dose
ergy
athetic
rele
▁instruc
ositi
▁aluminum
▁toge
responding
▁substanti
450
▁converting
▁99%
▁iatrogenic
▁0.19
0/
nthe
▁EBV
▁chloride
▁evacuation
receptor
ervical
olism
▁weighed
▁MMS
▁immobil
▁aggression
▁Trial
-20
▁recor
lastic
▁preferentially
▁0.30
▁64
▁40%.
▁lethal
▁hepatic
▁lysine
▁ultim
▁variability
▁definitive
▁62%
▁Abnormal
▁allergens
▁leu
40)
▁preven
▁memb
▁NMDA
▁nec
▁carcin
▁37%
molar
olateral
lactam
gated
feron
tries
vival
eration
hetamine
gol
▁lipids
ectomy
-11
urin
▁Assess
arous
▁diagnose
▁endotracheal
osin
▁immunohist
▁(58%)
▁0.0
azepine
▁proteinuria
▁90%.
▁1983
xual
▁fungus
▁comprising
accharides
.3.
▁35
▁fron
▁luteinizing
▁saline
sensitivity
▁cylinder
Nase
tations
▁infil
▁differe
▁7.5%
38
▁(36%)
orbol
▁surgically
▁modestly
▁gon
▁Holter
usate
▁vascular
tiv
▁progest
ATPase
▁infancy
▁wk
▁3.8
▁antid
▁1.5-
usively
0%),
▁swelling
/18
▁monocytes
140
rosine
▁veins
▁infiltration
9,
▁DF
▁differentiated
▁validity
▁dysplasia
▁hippocamp
1%
▁replic
▁phospholipids
▁SHR
▁certainty
▁fati
▁impaired
siology
▁156
▁perfusion
oten
▁specialty
▁(4.0
1.
+/
▁chl
ubs
▁relaxant
stem
▁205
tisol
▁antim
blood
▁inflamed
coronary
▁induces
oste
dens
osition
▁1.
intestinal
▁ELISA
parathyroid
▁30%.
risk
▁oss
▁solitary
▁natriuretic
oreceptor
estis
idation
mental
▁follicles
RNA
▁139
▁chec
▁recombination
atest
▁8%,
▁overt
▁mediate
▁Epid
▁analges
ergency
spectrum
▁offspring
▁stratified
ATP
▁sequenced
▁tox
▁bip
oreactive
▁soluble
genic
orphine
9-
dition
ctomy
▁dextrose
▁trimethoprim
▁0.2,
▁bacteriuria
cemia
▁haem
▁hepar
▁inoculated
▁231
▁utilization
▁pharmacokine
▁blot
tizing
▁(1000
▁1.9
▁smokers
iatum
amyl
▁ANF
▁AFP
▁incom
ositive
▁750
-40%
agonists
▁diarr
iuria
umerous
▁synthe
arate
▁vancomycin
▁Smoking
▁striatum
▁mmol
▁abstin
tructural
▁paradox
▁benzodiazepines
▁kinetic
idase
aemic
▁muscular
▁(1)
drug
▁supernat
▁seropositive
▁alkaline
▁controver
▁islets
loride
▁endocrin
▁regression
▁atheros
sulf
ysm
▁(14
ulence
etitive
▁spectroscopy
ocaine
▁1.5
▁15.8
▁testosterone
mortem
robial
▁sequential
▁lamin
▁axonal
2+.
erent
quit
▁115
▁palp
2318
▁colonies
▁pancre
▁elevations
▁18
▁Atrial
▁2.1%
anic
otoxin
seud
HN
8,
ylase
▁(250
fused
86
oxone
▁14.8
urred
▁implicated
roxyprogesterone
▁verte
cholesterol
iphene
▁hypertro
tional
▁undergone
lep
ofib
▁coated
▁Lact
▁(15
▁vulgaris
▁98%
horm
vian
▁tuberc
▁collec
PCR
cine
▁1990
▁CVD
▁lyso
tocin
▁36%
▁perfused
▁cholinergic
olipid
▁favored
▁ineffective
▁aspartate
▁uncommon
▁prostaglandin
▁clamp
tiguous
▁150-
tive
amethoxazole
adder
▁tymp
omotor
ioid
▁92%
▁constric
eded
sions
▁thyroidectomy
▁dete
23
▁implanted
▁encephal
roin
▁virtu
xyl
▁(7
crip
▁awak
▁nondiabetic
▁acad
ints
▁acyclovir
▁postural
tant
ritish
▁Ninety
59
▁clinically
bral
AO
▁physicians
▁23
▁nonp
▁cruc
vaccin
▁fibrosis
▁Scale
▁bolus
▁libr
iol
▁renders
▁allo
rachial
▁PEF
▁spon
▁1.9%
▁PKC
▁promoter
▁39
▁recruited
▁3.2
▁muc
▁emerg
▁monoclonal
▁dialysis
erence
iological
▁atrial
▁Prel
erents
leb
0.0
▁infusion
▁regurg
▁unusually
▁splenomegaly
▁93%
itidine
▁fluconazole
▁68
▁77
'-
determined
tussis
diabe
▁reticulum
notic
▁perinatal
▁disrup
▁Extr
▁dipyridamole
▁Magnetic
▁Viral
▁(50%
▁complication
▁triazolam
▁catheter
kephal
▁dus
▁700
▁biopsies
25,
▁HSV
sia
▁strokes
▁optic
avir
produc
ylate
ipheral
▁couns
▁endothelium
gely
essel
uprofen
ilin
▁cephalosporins
thmias
▁tac
adin
▁DCA
minis
▁detec
adiol
oprolol
▁subunit
teric
tens
▁0.1
▁livers
▁heterogeneity
▁5000
▁256
▁0.03
acids
▁topically
lasses
▁acidic
opause
siological
▁consis
300
▁(54
▁10.2
▁0.86
▁nasal
▁angina
▁promp
▁airway
▁Rout
▁algor
▁insulin
▁measurable
ypical
▁81%
▁84%
▁ciprofloxacin
opus
onazole
▁interstitial
elves
▁etiologies
▁epidemi
Hg
thyroid
▁schizophrenia
▁CG
▁glycoprotein
ignific
agic
▁intrauterine
▁referral
▁93
inally
▁abr
iary
-78
▁BP
▁tracer
ropath
▁lysosomal
incubation
thmatic
rophy
▁dietary
95
▁retention
▁lipid
▁88%
▁correlate
ociation
opharynx
▁peri
▁immunized
▁ceftriaxone
icides
ochondr
▁preserving
organism
▁Afric
2+]
▁(13
▁transcripts
spective
▁histopath
azoline
partate
▁elas
aneously
▁thrombin
osomal
▁constipation
▁adversely
▁excitatory
▁spas
▁bronchodil
sectional
▁550
esia
baseline
▁proceeded
▁follicular
▁3/
▁prel
▁inser
▁catalytic
▁neutroph
▁39%
▁irritant
▁hypoglycemia
▁circulating
▁expiratory
.1,
2%)
▁immunore
▁admissions
27
▁Plasma
▁pharmacists
cents
0),
▁fertile
▁31,
▁1,25
gus
orrh
▁limb
▁0.2-
osid
▁asymp
▁quinine
▁Hyd
▁attainment
▁mAb
▁musc
educed
▁carbam
ration
▁146
ardized
▁hydrochloride
olone
cysteine
-1,
▁subf
▁thereafter
4.1
tric
▁neurologic
▁brainstem
▁213
7%
▁Myocardial
▁90-
▁macrophages
rocy
▁ethanol
▁tuber
11
▁hypot
etoprotein
▁neurons
▁epsilon
▁CTL
amphenicol
molecular
▁cytoch
stro
▁cic
gag
▁bioavailability
mediated
▁48%
▁cDNA
▁hematoma
▁-7
▁olfactory
▁1/
FU
urea
▁4.5
▁meningitis
48
astatin
▁Measure
titial
▁1.1
AFP
▁ampicillin
▁0.91
▁tic
▁fertil
▁LDL
tide
20
▁0.05
▁acetyl
▁Evaluation
▁6.
▁contaminated
▁secretion
▁33
▁UTI
corrected
▁2/
▁perioperative
52
▁bromocriptine
▁155
▁1.5%
▁25
▁endometr
16
▁spleen
▁69
amn
▁perme
turally
▁58%
▁diclofenac
acr
▁13%
▁pneumococcal
ocalization
ections
ighted
▁benzyl
▁sham
▁penicillin
▁gentamicin
epines
▁Bacter
opam
▁[125
▁69%
▁adap
titutes
▁1:
azol
▁0.28
▁218
▁membrane
▁11-
▁tiss
70
▁rhin
troph
▁polyp
▁hypertension
▁urinary
roscopic
▁mimic
▁stringent
vely
▁adipose
▁(0.5
▁199
2+-
▁cartil
▁arrhythmias
▁kinase
▁leukocytosis
eptid
▁omeprazole
ecretory
▁glycosylated
▁connec
▁grouped
ventional
▁sti
▁Ure
▁erosion
4/
▁prono
5'-
▁supplementation
▁pretreated
▁instrumented
▁reinforcement
▁7.4
epsia
▁transluminal
▁surgeon
▁54
▁retinopathy
▁irregular
▁aberrant
ceptive
▁contraction
▁Increasing
ardia
▁33-
▁134
1-1
onstric
▁Risk
▁illnesses
▁incis
▁264
ximal
urnal
obenz
▁promin
plate
▁tachycardia
toph
luding
▁Failure
lox
▁1970
▁dilatation
▁recombin
▁54%
3%)
▁analyses
phosphor
olysis
▁skeletal
osidase
▁interpretations
▁antic
▁equilibr
▁alcoholic
fal
1-
ubation
▁encodes
▁deficit
▁275
▁tumors
▁lowers
▁cerv
▁MM
▁canine
▁NMR
ischemic
▁lithium
▁nuclei
▁formulations
ophageal
▁kidney
▁deem
▁osteoporotic
1;
troduction
▁resour
▁Beta
▁prevalence
▁immunoblot
▁39,
▁unin
▁undergoing
▁Biol
cad
▁ulcers
oglobin
resist
galact
▁moderately
ealand
▁(2
▁compart
▁24%
▁RV
▁fibrillation
▁fibroblasts
▁hepat
▁prolif
amines
▁underst
-14
▁phosphor
▁glycemic
▁Ade
oratory
▁90
atally
partic
▁pulmon
▁Sensitivity
▁nicot
▁cAMP
▁bronchoscopy
rotal
▁complementary
▁ofloxacin
▁detergent
oplasia
▁gases
▁attenu
usually
▁sulf
jug
▁amoxicillin
induced
▁Prospective
menopausal
,000
▁50,000
▁congen
▁Suc
tam
▁esophagus
.0%
dehyde
arying
usp
▁EGF
▁contralateral
▁staining
▁locus
▁AVP
94
▁hypotension
glutinin
▁102
rine
opo
chool
rocyte
▁lysis
▁ATPase
▁exten
▁+/-
▁1986
▁epinephrine
10,
▁6%
lobulin
▁toxin
▁stren
▁hamster
▁respiratory
▁cohort
▁competi
▁colonization
▁expres
▁innervation
▁hypo
itant
▁IFN
▁Increas
4-
aturation
▁panc
▁antibiotic
▁antisera
▁80,
9).
▁doubling
ASA
urys
loon
igaret
▁HDL
▁64%
▁hepatocellular
▁onset
tiz
▁SEM
▁provoke
uris
▁7.7
▁allogra
tel
sies
▁Tissue
▁electrophoresis
atoid
.00
▁aqueous
▁215
▁progn
▁0.09
▁equivalents
▁enriched
carbohydrate
rectomy
▁268
▁medically
▁menstr
▁duct
irds
▁necro
▁persis
-10.
▁bile
rozen
lovir
▁analgesia
▁immunocomp
▁vitamin
itrate
reactivity
2-
-36
▁oxid
▁Pregn
▁contiguous
▁abstinence
▁ipratropium
-3.0
tact
▁fulfilled
▁nitro
luc
▁97
▁glial
▁agonist
oretic
▁labelling
▁physiology
31
▁symptomatology
▁fluorescent
uria
▁isop
erance
▁satis
▁4.1
tability
uin
▁flora
reness
▁enalapril
▁exploratory
epine
▁somatostatin
▁hemorrhage
▁salivary
▁anticonvulsant
terase
orbidity
▁frac
▁nm
-450
▁73
▁cGMP
▁abundant
opamine
▁fibronectin
▁intraper
▁8
▁adhered
tamine
▁quantitative
Phe
▁proliferative
cyt
▁titration
▁nonsteroidal
▁transloc
econd
▁(60%)
▁ablation
onyl
▁19,
carotene
▁fecal
▁radioactivity
acterial
▁rup
▁(86%)
cis
▁duoden
▁reliability
opoly
gents
67
modulin
▁manu
haled
▁157
14,
▁endometri
▁secretory
chym
▁thymidine
▁nucleotides
Ta
▁encoun
genital
▁Absolute
aminop
▁immunode
▁neuron
▁erythromycin
trib
▁adherence
▁phosphatase
▁routinely
▁organisms
▁blockade
▁junctions
▁7.9
osomes
▁gland
llate
▁difficul
▁randomization
▁1.75
▁44%
tenti
ducing
▁affinities
▁91%
ocys
▁adrenal
▁triad
▁17-
sors
rogenic
▁caloric
▁Raynaud
flamm
▁165
asal
▁accessory
▁progesterone
▁supplements
▁241
▁confounding
▁Investig
▁spre
bility
▁Golgi
▁0.87
68
▁therapeu
aerobic
▁Conventional
▁mann
56
▁diarrh
lies
▁strom
▁counseling
▁twofold
arbox
oA
▁drainage
▁characterizes
▁dye
▁2.8
▁contraception
▁inhibiting
▁wt
▁Caucas
releasing
amus
▁morphological
▁270
▁eosin
▁posth
▁furosemide
ampl
▁progres
▁practitioners
▁anoxic
▁Prevention
▁TPA
prising
hemo
▁molar
▁preferen
▁0.13
trop
34
▁cortisol
ithelial
▁prostatectomy
▁intestinal
▁electrolyte
TCA
▁standardi
▁(5
PPP
▁disadvantage
▁creatinine
ycline
▁intolerance
▁duplex
▁adjustments
tate
▁regulated
▁averaging
toxin
▁agon
▁infused
-65
▁tumours
asses
▁attenuation
▁hematologic
struc
▁heterozygous
▁arth
▁90.
▁leukotri
▁classifications
▁53%
aldosterone
▁medulla
otre
▁cytokines
Ox
edding
inol
▁subunits
▁0
24,
NK
▁poin
▁Fifty
.5.
gressive
▁1600
7),
▁98
▁benzodiazepine
oluble
esophageal
ifedipine
omical
valence
romy
▁strep
▁calves
elan
acyl
▁thym
▁myosin
tent
enem
uron
.3%
.1%
▁diets
▁1.8
000
roxic
5%),
▁antagonists
▁neon
▁171
▁gluten
▁curric
▁PCO
glycer
▁sucralfate
▁discontinuation
▁25%
▁categorized
▁refrac
▁fossa
tak
▁adhesion
opathic
erate
▁cholec
▁anxiolytic
▁enamel
▁4,
ophila
sives
▁hydrocortisone
▁dosage
osynthe
▁wee
glycerol
▁nadir
▁Oste
▁vein
▁agglutination
inum
tumor
▁estrogen
tested
8-
tryp
▁microsomal
cence
atible
▁Alzheimer
▁pertussis
viron
▁discrimin
dent
▁Subsequently
103
ispanic
▁(3),
▁dimethyl
▁occlusion
▁EB
ylline
▁antec
▁phosphatidyl
FEV
▁dermat
▁inflamm
▁pulmonary
imethyl
▁inactivated
Cu
▁demonstrating
▁mV
▁prodrug
▁alcoh
▁hypop
▁accessibility
▁antidepressants
eptidase
asive
▁leuk
▁psychosocial
▁212
▁seroton
▁cardio
▁56,
▁250
▁BALB
ventil
owel
trin
▁TCR
▁Ig
▁discriminate
xiety
▁prolonged
▁quin
▁CHD
iplinary
ocellular
▁organs
▁lumbar
▁0.60
▁EEG
inj
▁48-
induc
trical
hydrop
▁(94
lamin
▁glycine
▁rabb
▁symp
▁psoriatic
54
▁CI
eprazole
▁(50%)
▁0.77
▁potency
▁inspiratory
tral
▁clus
▁Evidence
parative
▁prognosis
opathology
obacter
▁(12.5
▁cytosol
▁0.69
▁summ
thymidine
treated
▁enhances
▁intractable
▁0.63
▁ulnar
▁tubercle
duce
▁cleavage
▁polymer
ocarcinoma
▁RA
▁aneurysms
oride
onvul
▁fixation
▁deliveries
▁sperm
▁menstrual
▁latex
hexidine
tically
-3
▁0.33
▁90%,
▁mcg
▁400
▁filaments
positive
atif
▁95%
▁inflammatory
▁Finnish
▁mmHg
▁allergy
▁24)
▁adip
topril
▁thromboxane
▁capsules
▁unilateral
aturated
ulcer
▁(50
▁antiser
▁defects
▁favors
▁jaundice
▁desaturation
▁pituitary
▁comparisons
▁145
osterone
▁epidemiological
▁fluorescence
▁citrate
▁regulating
▁otitis
▁injec
▁qualit
(4
bac
stim
▁digoxin
▁-10
▁cen
idated
▁expectancy
greater
▁3.0
▁31
▁mucos
▁calorie
▁ventricle
▁favorable
▁88
▁10
▁1500
▁aerob
▁Disease
osom
derived
▁cerebrovascular
iotensin
▁Hypertension
ifferen
▁axon
cessive
oconazole
omerular
▁sulfonyl
▁reduc
▁laminin
▁thiol
▁efficac
▁ACE
ellar
orec
kele
▁peroxide
▁apo
▁mammography
▁polym
▁clamping
▁Optimal
▁10.7
antoin
▁proportional
▁30.
▁rhinitis
onit
antial
otyp
otypes
▁ventil
omiting
▁evid
▁solub
otides
▁(71%)
tition
▁contracep
earance
atell
▁inactivation
▁elic
▁hyperthyroid
▁blinded
algia
anad
▁ipsilateral
▁subdural
▁173
ovirus
▁PGF
▁hypothetical
87
▁chor
▁tach
▁deletion
▁ischemic
▁Cells
heres
▁persisting
imentation
▁.0
▁Invent
▁amphetamine
EMG
▁4.3
▁hypers
vic
hyp
conduc
icep
▁50%
▁allergen
phil
▁deple
▁detrimental
▁correlating
disciplinary
▁insufficient
▁membran
▁lam
▁TS
▁80-
▁infrequently
-20%
poor
anol
▁233
ticular
▁anesthetized
▁unres
brain
▁percentages
eeding
tigo
▁kappa
▁fung
hig
▁schiz
▁slowing
sistent
▁questionnaires
▁perone
GH
▁genotype
▁epilep
▁sputum
▁positioning
ipit
▁postpartum
▁Subjects
-100
sequent
5)
availability
▁PB
▁4-
▁(68%)
▁75%,
tened
rox
▁covariates
▁mortality
▁precursors
ystitis
▁receptors
▁focal
▁digestion
▁hygiene
▁0.81
▁anhydr
olec
lytic
tors
22,
▁cortex
▁gum
triglycerid
▁340
▁scanning
▁rebound
▁Serum
tally
▁Initi
▁ank
▁HI
olgi
phenyl
olesterolemic
transferase
uting
▁initiate
▁heteroz
5%,
▁reproduc
▁lovastatin
▁0.07
▁(18%)
▁5.6
▁Lyme
ospor
▁3%
teria
▁-6
▁nebul
▁Diagn
▁0.9%
▁ibuprofen
▁7.6
▁whee
▁16
▁usefulness
emin
polyacrylamide
teroidal
eptides
▁exogenous
zine
▁KCl
iae
▁Elec
▁hepatotoxicity
▁dele
▁prophylactic
▁Dip
:1
▁33%
▁unnecess
natal
▁CNS
odgkin
unctional
▁uncom
▁192
helin
▁ANP
ogenetic
▁pathology
cyst
amicin
xime
▁15,
▁peptide
▁apprec
▁hydrophilic
▁investigations
▁syphilis
▁definite
trast
amilies
phal
ocular
sensitive
▁Doses
▁augmenting
▁inflammation
enal
visc
▁identi
agin
rals
▁7%
acetyl
▁10(-6)
zard
aldehyde
meter
▁132
tructive
▁(2.6
▁contex
6)
▁inherent
▁tumour
▁analgesic
oselective
▁0.80
teroid
▁sexually
▁Preliminary
▁plasmids
▁DBP
ziness
▁187
▁regulate
19
▁serogroup
tection
▁saphenous
▁tendons
ulatory
▁pretreatment
nitro
▁fractures
▁hepatitis
.9%
▁glycer
opar
▁reflecting
▁antimicrobial
▁Seventeen
▁normo
▁characteris
anthine
inic
ffer
fusion
▁concentrations
ayers
:3
▁commerc
lyc
sparing
sibly
▁retina
▁hippocampus
▁epit
▁predic
▁islet
reduced
▁parac
Gs
▁105
▁cardiomy
▁(45%)
▁induction
duction
-70%
▁epilepsy
▁constituted
operative
4]
▁mL
▁Subsequent
▁atyp
▁(44
.9
▁erythrocyte
10)
▁sedim
nish
tical
▁131
olerance
uretics
▁vesic
▁warr
otrop
▁Alz
omyces
▁discharged
▁clues
rosis
amet
idic
▁0.42
ifug
26
ococci
▁lateral
▁duodenal
(3
atosis
▁concordance
-35
▁depolarization
tracted
ylamide
▁PPD
▁Maximum
albumin
▁hap
▁genotypes
▁dyspnea
▁centrifugation
rane
itively
▁reac
▁1,
-5
▁granules
43
▁158
▁flashes
▁malignancies
▁cyt
otoxicity
▁chromosomal
NIDDM
▁(47
▁assessments
▁96
achn
tering
▁insoluble
oagulation
▁Statistically
▁outlet
▁targeting
▁hypoxic
▁0.62
▁intra
▁hybridization
kely
▁relapse
▁treadmill
rever
▁compositions
thirds
Gy
▁endometrial
administration
acrine
▁medial
mega
▁ascertain
yste
deficiency
▁RAS
▁200,
▁sampled
▁227
▁chronically
ylated
▁meperidine
▁(63
▁3.6
antibody
atine
owever
-1
▁surrog
ipolar
▁PGE
▁tracts
▁kinases
▁intrap
▁(1:
apanese
adian
ameth
▁0.90
▁synthesize
loid
▁monkeys
▁thymus
resting
▁afferent
ethylene
▁8-
▁135
▁transcriptional
▁Histologic
▁40,
▁cep
▁qualitatively
thood
▁myc
minal
2+,
12-
▁(16
▁6.5
▁reticulocyte
tiary
estim
▁neuroleptic
▁59%
▁25-
uric
▁socio
▁arterial
44,
orh
timal
etence
▁neutrophils
▁mammary
▁decayed
▁histologic
▁hydrolys
assessed
centr
▁exer
▁dosing
0-
embrane
tise
plementation
▁20-
urane
▁4.6
▁unreliable
▁diverged
▁euthyroid
odopa
▁resistant
400
▁apne
restricted
▁61%
mol
▁conductance
lux
▁lapa
.5
ometh
reases
▁chorion
▁infarct
▁51%
▁limbs
esti
63
▁reversed
▁fluor
▁30%,
▁keto
▁incorporation
IGF
▁MRSA
erb
reasing
▁31%
testinal
▁triglyceride
▁IgA
tropin
wenty
kets
▁ligand
amphetamine
▁Specificity
▁intub
relaxation
▁activator
▁rotavirus
▁Behavioral
▁lymphadenopathy
electro
Pa
▁96%
▁ruptured
▁lidocaine
abain
▁(40
▁transfected
aptic
▁RR
eroxide
▁114
vant
▁intake
▁remo
▁43
tin
actam
▁34%
▁infarction
%).
▁plas
▁placent
▁augmentation
attern
Daw
▁identically
trated
▁acyl
▁0.41
uran
▁diuretics
▁3.9
▁salbutamol
▁respec
▁alanine
▁yielding
▁immunofluores
odds
▁Vitamin
oprostol
▁110
▁NGF
▁ferrous
iteal
▁arrhy
▁(21
tioned
▁isch
▁(1.4
leukin
▁contraceptives
ffinities
▁AIDS
▁antibiotics
tetra
▁3;
▁uncontrolled
ncy
▁Physicians
plen
▁3).
77
▁87
▁neuronal
glyc
▁Acet
6%
▁excretory
▁palsy
inyl
osyl
▁41
elic
▁vaccinated
immune
▁gels
▁6.6
uled
▁intravenous
pregnant
athioprine
▁TDI
▁transplant
tages
▁transcript
cycline
idazole
ocytic
▁cytotoxic
ameters
▁118
▁retinoids
▁promo
phyloc
▁balloon
opulmonary
▁reticul
▁crude
▁incompetence
▁investigators
▁tissues
▁adhe
ronch
▁urine
▁ambulatory
loxacin
▁smo
ilateral
traction
▁eti
operox
▁rati
▁diazepam
▁sero
buterol
thase
▁aneurys
hern
▁Abnormalities
▁complications
▁Ventricular
▁adi
measured
50
▁asymptomatic
▁adduc
osts
▁choline
▁pneumon
▁99
ruc
▁mildly
8)
▁dex
▁Intr
▁febrile
▁eradication
ectin
sion
▁SG
▁lability
irubin
trum
45
▁emphasized
▁ventricular
▁abdominal
▁physiologic
9%)
▁atenolol
plast
▁SDS
▁carp
▁postprandial
▁lipoproteins
▁dermatitis
▁inguinal
▁bladders
havi
▁(150
▁13,
venty
▁10(
▁platelet
atical
▁genital
▁12,
retic
76
0.7
achid
▁postnatal
▁parat
oic
▁pancreatitis
▁intercourse
▁pelvic
amide
▁Functional
toc
arial
▁menopause
acid
▁lep
▁0.34
▁(6
leuk
salt
▁adjus
tively
▁piroxicam
▁graft
▁examining
▁Bec
▁600
▁gradients
▁regained
40
▁resuscitated
itoneal
cinolone
dibular
▁0.016
▁(28
-52
▁immunosorbent
▁128
▁implantation
▁2%
▁aureus
ogenous
partum
pharmac
entricular
▁hypog
▁irradiated
effects
▁gestational
▁asymme
8]
▁thir
ducts
▁predictors
▁rupture
50)
▁Levels
▁quotient
▁phosphorylation
▁cellular
▁conduction
lives
▁BCG
▁lavage
▁MHC
▁sarcoma
▁concom
taz
▁neurones
▁kb
▁resol
▁clinician
▁26
▁oxym
▁amp
kground
▁10.
▁2.2
/30
lip
7)
dimethyl
reased
▁6%,
methyl
IgA
ubicin
tis
▁hyperplasia
▁(9
▁0.74
2.2
▁triglycerides
▁saturation
▁manifested
▁progressed
imination
▁tamoxifen
▁123
▁perin
ffinity
55
▁NADP
▁0.3%
▁HS
roximately
▁PMN
bic
▁intram
iotic
urate
▁anat
▁49
▁Ace
▁25,
▁(28%)
▁echocardi
▁selectively
▁28
▁Infants
tte
▁modulate
▁76
▁deviation
▁reductions
hormonal
izine
▁protr
▁interfer
ophil
▁0.2%
▁aortic
▁estimating
▁atherosclerotic
▁carbox
gia
onine
▁cumulative
▁27
▁appendicitis
gene
▁disulfide
mum
quisition
▁hep
▁shif
▁extre
▁lymph
oglyc
▁tetracycline
90
odiaz
ureth
hydramine
oidal
▁1000
▁ovary
thym
gression
aicin
▁preparations
▁oximetry
omatosis
▁1.02
abies
cepti
▁inhibitory
▁standardization
▁sial
creatinine
▁clearance
▁pec
▁7.2
itic
ulmonary
▁influx
▁metabolism
▁summarized
▁154
▁inversely
▁2.4%
▁verapamil
enyl
wes
olam
.6%
▁nominal
▁negatively
▁thymocytes
▁homocysteine
anine
idol
cribed
▁chol
▁psychiatric
ercul
▁jejun
parous
▁255
▁21.
RH
▁inpatients
actin
▁ery
▁hypertensive
years
▁benign
▁hypothal
▁chlamydial
occi
800
▁1-
osocial
▁excitation
FSH
▁(32%)
▁incomp
phor
deficient
▁potassium
▁coping
▁TC
▁successive
▁bypass
gesia
oxif
phine
olipoprotein
▁compares
ullary
▁Exercise
astatic
14
▁14%
▁allele
hep
abd
▁biosynthe
▁mucosal
▁Lactobacillus
▁nig
▁0.11
▁emboli
▁capsaicin
(5
oplasmic
▁exhibiting
pyr
▁0.50
▁detecting
▁plaques
▁surrogate
aund
▁transfusion
6;
▁iat
▁euth
illation
▁Lys
chol
uestionnaire
▁4;
▁10.8
▁127
▁occult
▁autoradi
ivary
teine
9)
▁(16%)
2/
▁indo
▁0.05)
ressing
▁intracellular
ayed
▁quantified
itin
intensity
opathological
▁enlargement
ministration
▁deoxy
▁Secondary
enzyme
butamol
orbid
tensive
▁cocaine
▁2.7%
oneph
▁cathe
▁dizziness
-25
uresis
▁Combination
▁intermittent
lec
ventricular
▁ultrasound
crimin
esity
▁Prac
▁superoxide
▁aor
▁77%
ocar
▁condensed
ropha
▁stool
▁cerebellar
▁49,
rosy
aginal
▁correspondingly
▁discom
▁0.67
calor
5%)
▁ingestion
▁untrained
sively
oscop
▁rhy
▁107
▁symptom
93
▁Registry
-2.5
▁80%,
compared
▁clon
▁carbohydrate
▁195
▁cryp
▁progestin
respective
▁bic
CoA
▁zinc
.6
▁goiter
orotic
▁isot
therapeutic
ochemistry
▁androgenic
▁Identif
▁potentiated
▁intracerebral
hyd
▁secretagog
▁dihydro
▁thiazide
▁macrophage
▁rifampin
▁athe
▁unex
controlled
Ig
▁conformational
5;
▁biliary
▁wheezing
▁preexisting
tophan
46
lax
▁ingu
rophob
▁contrac
▁Surgery
▁Mild
lamp
▁0.54
▁1.00
▁microbi
600
▁carvedilol
▁cigaret
▁pharmacokinetic
▁bladder
▁43,
-79
▁(1.0
▁translocation
linking
▁absorptiometry
▁eluc
▁Subcutaneous
▁susceptibility
▁0.24
strual
▁suicidal
25)
athe
▁50,
omn
▁cholinesterase
ulose
▁linearly
▁Wistar
oproterenol
▁mEq
smokers
▁pathogenesis
▁hypertrophy
atients
▁preterm
▁estrogens
▁complexes
adrenoceptors
ilep
▁elevated
individual
▁ACTH
▁competence
otropic
▁axons
▁adverse
91
▁diaz
▁Transient
▁1988
prandial
▁erythematosus
▁IgG
▁plex
sive
idney
▁71
opres
▁granulocyte
▁psycho
▁350
▁0.89
0.3
▁psychosis
▁pla
60)
▁deform
▁60.
▁microscopy
65
tene
▁0.1%
▁hypothalamus
▁traction
▁0.08
▁ocular
929
ailure
adrenergic
ipril
ocysteine
chid
-]
▁synthetase
▁glucosamine
ucl
din
▁70.
▁multiv
-8)
gulation
ffin
▁20,000
▁Previous
▁ions
▁34
▁rejection
▁(10%
▁insom
▁mucosa
▁fibers
▁rheum
▁forsk
▁varicella
▁(27
3),
▁OD
aminases
▁Specifically
▁(24%)
▁(2)
yroxine
▁117
▁acces
5.
▁sulfoxide
4,
▁diagnos
▁screened
▁Hyp
▁irritation
▁hypotonic
▁correlated
▁(39
PSP
▁17,
enec
▁tetr
▁thromboembolic
▁discus
glycerin
▁experim
▁glycos
100
otting
▁.05)
▁hemisp
▁Myc
▁currents
▁ligands
-16
generation
heximide
▁prostatic
▁datab
9;
▁preoperative
▁inadequate
▁immun
ths
▁preceding
tabl
ellular
▁immunodef
▁pharmacological
romised
▁stres
▁164
▁enlarge
glucosidase
-2)
▁splic
▁pH
▁messen
▁6.3
▁markers
oxyl
▁(41%)
▁inducing
▁Exc
▁cann
tur
crib
▁Feeding
▁(0.4
▁catab
▁clu
HDL
▁1.4%
▁anemia
▁perce
▁longitudinal
▁modeled
▁grains
occal
bumin
▁(72
▁4.0
▁Experiments
▁glycogen
▁biopsied
▁thromboemb
▁thromboembolism
▁tolerability
▁specimens
▁(100
▁reflex
▁dissemin
▁hydrop
▁cloned
▁hypercal
▁deoxyrib
▁(42
▁0.6
ensi
LISA
▁succin
▁rabbits
▁afferents
-125
+)-
▁glutamine
iparous
▁eighth
▁immunoprec
▁pharmac
▁unrel
▁eliminating
▁voluntary
ifferenti
-0
▁(11
▁70%
mature
▁BAL
▁16.
▁colonoscopy
▁rats
oxid
92
▁statis
▁homogenates
ditions
▁163
▁gradual
osal
adication
▁exaggerated
▁isolates
april
athione
thel
▁(8
▁Assessment
▁postmenopausal
▁discriminant
▁150
▁ejection
▁oste
neph
athyroid
opathy
▁10(-5)
▁nonpregnant
ocamp
▁cef
▁apparatus
fate
ologic
▁1.0
tually
▁ionized
iasis
otin
▁reactive
▁phenotype
▁pim
▁23,
▁7.5
▁lowering
▁(33
▁transplantation
ituit
▁adolescence
▁10(-7)
ocardi
▁interventions
amphen
ropriate
▁excised
▁challen
▁5
▁Factors
ficial
▁attain
inephrine
ophen
▁schedules
▁coenzyme
▁iod
▁Sixteen
angi
▁incompletely
uoden
erant
▁vomiting
ographies
trover
atology
acute
formations
▁pati
motor
▁Survival
idate
igl
/24
▁positives
cephalic
▁unrelated
12.
▁nonc
▁cation
odil
iline
▁Whereas
ococcal
▁heterogeneous
▁Caucasian
valent
▁1985
▁analysed
ields
▁detrusor
▁Adverse
▁persistently
heat
iversity
▁miti
▁spike
▁nausea
▁substrates
▁lymphoid
▁dehyd
▁3'
▁Concentrations
essive
▁72
▁derangement
oligo
▁radiographic
iotics
▁0.04
▁diminished
▁epithelium
ovastatin
effec
▁Retrospective
tyl
▁polyacrylamide
▁ow
▁ascorb
cAMP
ereb
▁1.25
▁perit
▁endotoxin
anate
onas
▁amn
▁ADA
▁obstruction
ometri
▁serotoninergic
ilization
▁occupational
▁(20%
▁180
tion
hydrox
▁facilit
▁calcitonin
▁tibial
▁subcutaneous
idne
▁ovari
▁14.
▁bacterial
▁produc
▁enteric
▁0.38
▁leukotriene
▁Calcium
-72
▁metastasis
▁untreated
sue
ilic
▁postin
▁stimulant
▁pts
▁synthesized
▁fluores
▁neurom
bladder
▁NP
▁influenza
▁drin
▁simultaneous
-1.5
▁Thirteen
otrexate
▁hypoxia
▁tran
▁0.25
umented
alic
▁intestine
kinase
okinetic
▁restric
▁calcification
▁189
▁TI
▁(69
▁5,
arachnoid
▁ranged
stolic
▁densities
▁multis
▁17%
▁18.
infected
▁cefaclor
plants
▁astrocy
▁75
▁biopsy
▁Injury
ogeneic
veolar
▁tenderness
ungal
▁cancers
truc
▁collagenase
▁GH
-45
▁hydrogen
▁natri
▁41%
▁(1),
▁guinea
4).
▁nitrogen
▁antagonized
▁gonadotrophin
▁22%
3%
▁opioid
ometers
▁contractile
ausea
▁diarrhea
▁diabetic
▁smears
▁radicals
▁abscesses
ymme
mitter
▁halves
▁5.8
▁4.4
▁hypnotic
▁augmented
▁stu
▁Inhib
▁felodipine
affec
▁92
ulph
▁palpable
▁pene
pirone
▁recons
▁indi
▁nonin
▁dendritic
▁confers
▁29%
tivation
roxim
odia
▁inhibited
▁possi
NB
▁(30
▁(63%)
vaccinated
▁statistically
▁(99
2+
▁ket
▁vertebral
▁Depression
▁appra
▁consul
▁oxidized
▁dysp
▁hypocalcemia
▁oligonucle
ologous
uestion
▁Inventory
ocusing
omized
▁-1
▁mutants
examin
▁66%
▁normotensive
▁biphasic
▁12-
8+
▁foc
▁warfarin
tia
▁modalities
▁abdomen
ovarian
▁(82
▁ratios
bran
▁anesthe
▁28%
▁regeneration
selec
▁cyclosporine
▁leukocyte
▁87%
▁7.
▁diffuse
▁exhaus
▁80.
▁cardiac
▁44
▁interf
▁oxidase
▁remission
▁(56
▁necrotizing
▁compe
▁endocrine
▁micrograms
iminary
▁vivo
nucle
▁3.3
▁Tiss
▁RBC
▁plasminogen
ecia
▁paradoxical
effectiveness
▁optimally
▁mononucle
▁kits
▁elec
ymp
▁(0.
▁100
▁inactiv
helium
4%
▁respir
▁500
▁3,
othane
onidine
▁LC
quired
blockers
▁carboxyl
▁hypothalamic
▁radiologic
-100%
henyl
kDa
saccharide
▁MCV
▁uro
▁cysts
oracic
-7.
-50%
▁gynec
▁47
▁(18
▁perox
▁ketoconazole
▁theore
▁anion
▁prevalences
labelled
▁saturated
▁112
aturia
▁abd
▁0%
▁0.001).
▁extracorporeal
▁introduc
▁Dental
▁inhal
▁neuropsych
▁Kd
▁morphine
avail
▁vacu
▁fumarate
▁97%
(2+
biotic
▁pyl
containing
▁scientif
▁18%
▁150,
▁practic
otonic
▁adop
ystic
onin
idone
glucose
▁musculoskeletal
▁warts
▁1.6
vated
▁46
▁pectin
acquired
▁stepwise
veness
▁12.0
▁attenuated
▁incision
▁elective
oceptor
▁30%
▁40%
▁concomitant
0%
diagnosis
▁amin
▁methadone
▁asymmetric
▁VV
▁Nineteen
▁hereditary
▁0.84
▁viruses
pressing
ithin
▁ductus
imeth
80
▁perforation
enol
▁(22
athiop
▁fulminant
▁Swed
▁rostr
▁0.4%
▁appropriately
▁bactere
▁ejac
▁HPV
razolam
ionate
▁microvascular
2,
▁0.65
herence
-7)
▁(31%)
tual
4),
▁arrhythmia
enicillin
▁norepinephrine
▁membranes
▁unchanged
eric
trypsin
▁1.16
▁20,
▁TA
▁ACh
otom
iplin
▁contraceptive
nec
▁retic
)2
-1)
cus
▁injections
▁competent
▁positional
helial
▁20%
▁resolving
▁13.9
▁11.
odg
▁erythrocytes
▁eczema
▁proton
▁precipit
rologic
tase
▁infections
MW
▁protoc
▁outbreaks
▁PAF
monary
▁pate
▁conception
▁percutaneous
▁0.56
IU
renol
▁muta
▁glucocorticoids
▁turnover
▁follic
▁anticoagulant
brom
imens
▁solids
▁dors
unar
▁reflec
▁crom
eryth
▁-5
▁PEG
▁17.
pore
▁graf
▁70-
53
kephalin
▁strand
▁nal
▁hydroxylase
gative
▁metabolites
▁14-
▁carbamazepine
▁repro
▁audi
▁androgen
▁[3
▁monke
▁peritoneal
▁underestimated
▁mitral
▁codeine
▁serotonin
▁181
▁78
ofluores
▁parental
▁epitopes
69
▁dehydration
▁antagon
ellum
▁25%.
edic
tives
14)
▁0.71
▁studi
▁HBsAg
inoc
▁asthma
race
▁rehabil
▁hypoth
▁fric
▁hyperg
▁200
▁1.13
▁injur
▁clinicians
.0,
▁alleles
▁injected
lys
amethasone
bular
▁Comparison
▁6.9
▁dosages
illary
▁melanomas
▁Mg
▁65%
▁-0.8
▁8.2
▁combin
Ra
▁malformations
athy
▁144
edle
▁noninvasive
ALT
achnoid
▁infec
▁granuloma
8%)
entif
▁prematurity
echn
▁attrib
▁adjuvant
obl
osacral
▁psychotherapy
▁transcription
-4)
▁cephal
▁intravenously
▁nonsmokers
▁MH
ortal
etaz
irc
▁0.40
▁exceeded
vating
enteritis
clo
▁hematuria
▁tertiary
▁0.49
▁pneumoniae
▁substitu
blocker
otone
onucle
▁assay
▁incub
▁labelled
▁Significantly
silon
▁stimulus
▁(23
sorb
▁89
▁esophag
▁18,
▁adequ
▁1.6%
chlorothiazide
activated
▁ischem
▁thyroiditis
ucas
▁basal
▁jaund
▁TM
13
▁hormonal
▁cros
▁38%
pinal
particularly
▁91
▁homogeneity
▁oxide
▁quanti
▁immunogenicity
▁-2
gestation
regulation
planted
▁antioxid
adequ
▁adenosine
cys
▁78%
▁TP
▁ICU
▁chorio
▁calculi
▁comprised
▁blocker
▁160
oscopic
▁Cardiovascular
▁(48
▁exis
▁attenuating
▁sarc
▁radioactive
▁arteri
▁antipsych
▁stent
certain
▁unselected
▁steroid
vice
POA
▁elimination
5%).
▁1200
▁interferon
tero
▁ovaries
▁endoscopy
titis
acting
▁uptake
▁luminal
▁urea
▁108
utaneous
▁(85%)
roma
▁splen
▁74%
▁occurrence
▁FSH
▁sut
61
▁albumin
▁Angiotensin
▁neutropenia
▁hyperthyroidism
▁62
▁serology
▁phorbol
▁1.15
▁50-
▁NK
siveness
▁prostagland
activation
muscle
▁uterine
amel
-10
8),
lyl
▁0.93
aric
50,
oglobulin
▁zoster
oil
ociated
▁dorsal
organic
▁lipophilic
olecular
▁stric
aryn
▁serolog
▁caregi
▁Incidence
ralfate
▁-0.0
odop
▁vasodil
▁cartilage
▁examin
▁chromat
atitis
▁glycoproteins
▁reper
▁unexpectedly
▁articular
▁dilution
aturity
▁coagulation
ophysical
uretic
▁suppressor
oskeletal
convul
▁allogeneic
▁phosph
▁angiography
▁immunogenic
0.1
▁progressively
esthe
▁dihyd
▁nM
rofen
▁6)
lyce
6,
▁([
▁exce
▁Vmax
▁weakly
▁plateau
▁tubercul
▁testicular
▁12.
▁enrollment
▁ferritin
▁enteral
/100
▁coronary
▁residual
▁0.15
tif
▁cys
▁oxidative
84
▁superficial
▁exclusion
HF
osamine
▁2.6
-6.
esium
▁catechol
galy
▁orally
▁hypokalemia
▁echocardiogram
▁exacerb
/4
▁projections
▁subpop
omonas
hydroxyp
tence
▁conjug
▁tol
▁(62%)
▁msec
▁bloc
eclamp
▁elevate
▁labial
▁precur
ectom
triglycer
▁sonography
▁enzyme
-5.
▁attemp
moderate
88
▁Approximately
▁daytime
cutaneous
IFN
▁homologous
▁colos
▁benz
41
▁thrombotic
▁Hear
▁predicting
trates
▁methyl
▁nylon
▁triceps
achial
▁nucleotide
plas
▁adrenergic
▁thrombosis
▁supple
▁homogene
yocardial
tox
▁latent
-24
estrogen
▁intracranial
uncture
▁differed
▁sedation
▁0.9
0.6
lycerol
▁subjec
▁bac
▁neuropathy
▁compli
▁variants
lier
▁threefold
Ala
hers
▁11.8
▁sequelae
▁prescribed
▁cyclooxygenase
▁interpre
▁ammon
▁diphen
mobil
▁glomerular
▁noc
ipro
yclic
▁toxicity
▁ovarian
ylephrine
▁withdrawn
▁DVT
▁transduction
▁cephalosporin
▁poisoning
otropin
▁blockers
/-
▁0.5
eclampsia
▁hyperb
▁divertic
▁electrodes
▁molecules
tization
▁fmol
ucle
▁potentiation
00,
iloride
▁LT
ithi
erating
olones
▁13.
exin
▁worsened
trogen
▁mutagen
oxine
▁dox
▁encephalopathy
▁intrav
▁omega
▁regimen
elec
-1.
▁decreased
▁pulses
▁80%
▁coh
ejun
▁characterize
▁caries
▁21,
▁Seventy
tinguish
ypro
resistant
▁0.23
assium
▁oxidation
▁classify
▁synap
9.
sant
-19
▁succes
▁(24
▁acet
▁thrombus
▁inconclusive
ocor
▁polypeptide
▁CHF
▁183
▁1.2%
▁genit
.2%
▁predisposition
▁examinations
▁neutrophil
▁fluids
▁duc
tious
▁ligation
▁addic
▁aids
▁synovial
ritic
▁PRL
▁0.000
▁retard
▁COPD
antibodies
▁(12
▁polycystic
▁bran
yridine
▁(2),
imin
▁conflicting
MN
▁5.0
▁0.55
scher
-6
▁brady
oppler
▁Breast
tite
▁agonists
uality
▁0.05%
porting
-60
▁9.9
▁exhibited
ejection
uccess
eptic
rography
▁GnRH
▁indus
epti
molec
▁spirometry
▁oocytes
adders
entical
▁300
▁neoplas
▁dias
amol
▁pmol
▁ester
acylglycerol
▁nasopharyngeal
othal
▁Fifteen
▁VO
▁myocardium
amycin
oxygenase
▁2.3%
▁regis
▁antiserum
ectomies
ostatin
▁440
▁19.
responsive
▁ald
▁indefinite
5,
▁2.1
▁fluc
Ts
ureus
▁symptomatic
▁chemotherapy
acchar
▁vaginal
▁adulthood
▁adenylate
▁parathyroid
thmia
▁luteal
▁murmur
▁bronch
▁conclu
▁teratogenic
ostatic
▁Gyn
▁mening
ographically
▁renovascular
▁concurrent
▁2.9
lamy
▁cirrh
gm
▁hyperglycemia
sibility
▁undergo
120
ocyt
phosphon
▁2.4
▁durations
endi
▁5)
▁unde
micro
▁0.26
placebo
odium
gluc
traumatic
▁modulation
ronectin
▁adolescent
▁adhesive
▁chorionic
▁centr
feren
2;
▁organism
esin
▁tuberculosis
▁subc
▁sampl
lac
▁Significant
-15
neumon
trus
▁mellitus
▁electroly
▁paternal
▁hypocal
▁anteced
disc
▁(3%)
▁confirming
57
▁kine
lycemia
otox
ocyan
ylic
▁172
▁lupus
(+)-
admill
tolerated
mittent
oxyrib
went
▁mediated
▁proteolytic
▁anomal
BV
▁acetylcholine
▁pacing
acin
▁-0.7
▁2.7
▁lax
▁semen
▁descending
▁gastroenteritis
▁insufficiency
▁Elevated
tiveness
olus
▁revised
▁expressing
orbent
▁2.8%
▁(70
ximum
▁(4%)
3-
▁2.
tabol
lob
rowth
▁aspiration
▁tricyclic
▁torsion
▁gonad
▁azathioprine
ortic
▁cytosolic
odal
▁indicators
ynaptic
▁colpos
▁anhydrase
▁pleural
▁9.0
gth
▁40%,
▁congestion
▁dissection
▁leukocytes
tures
ressive
▁absorpti
▁niacin
▁mug
▁thyroid
▁ulcer
▁fas
▁titrated
▁79%
iatic
▁parox
▁acetate
66
▁nonex
▁lifest
▁acco
▁arteriosus
uterine
unced
abdominal
▁Hyper
▁individualized
▁Estimates
83
pharose
▁levodopa
omatic
▁Escherichia
▁Cyt
▁cystitis
▁seronegative
▁phosphodies
▁cirrhosis
oradi
▁sympathetic
▁angio
0,
▁LD
▁ionophore
▁prolactin
▁enzymatic
▁nitroglycerin
ritin
-0.
▁relieve
▁termination
LDL
▁indications
322
▁53
▁cardi
letion
▁peripheral
▁anticholinergic
clin
establ
▁0.70
▁fibros
eptide
▁enzym
▁1%
▁tetrac
▁(67
▁verbal
89
▁monkey
upuncture
▁immunoglobulin
xone
▁cytoplasm
initi
directed
IgM
oate
▁biased
▁47%
▁fracture
astom
fine
.9%)
▁observational
ffec
▁surveyed
▁autosomal
▁sensory
▁glucose
▁ile
▁calmodulin
▁0.97
hene
▁requi
▁propensity
jective
▁exceptionally
▁DP
trate
▁polysaccharide
severe
ithium
-600
▁apical
▁cysteine
▁1.4
ochemical
▁151
▁induc
atural
Ls
▁regurgitation
▁allevi
stimulating
▁bony
▁GTP
▁embryo
▁immunization
▁myocardi
▁Surve
▁hairs
▁rhabdomy
oplasty
▁(0.9
cious
timulus
▁alp
▁lumbosacral
▁cyclospor
21)
▁(90%)
▁consecu
▁16,
▁(10.
glutin
▁interv
-4-
▁transferrin
▁EMA
omers
osome
inamide
▁252
36
▁lymphocyte
▁(17
▁acute
▁tec
▁caudal
vity
▁flexor
▁2.6%
▁100%
▁techniqu
azepam
▁LMW
yrox
amuscular
▁Pretreatment
enin
rease
▁compressive
▁cranial
ureas
▁analogues
agonist
▁polyethylene
▁electromy
21
ophys
rogenase
thi
cancer
caro
▁prosthe
▁152
ropathy
tir
▁Benz
▁bradycardia
▁electr
▁bp
3).
lysis
asone
▁(75
▁postsynaptic
▁thoracic
15
▁immunocompetent
ensities
▁mutations
6/
▁emulsion
gans
▁optimum
ritten
(6
▁1.6-
omies
▁Patients
▁42
▁severity
▁1.2,
▁pressor
7.
44
tingu
▁capsule
:1)
fir
+]
▁prophylaxis
onset
▁purified
hospital
▁opi
▁9.
▁shedding
exposed
.2
glut
▁transpor
itamin
Cs
▁14%,
cellular
umping
▁terat
▁shorten
▁doubled
orrhea
▁arrhythmic
▁recordings
azolam
osclerotic
▁oligos
▁vitro
▁lactate
▁streptococci
▁neurogenic
▁10,000
clic
▁compartments
▁compounds
▁obser
▁projec
▁0.05),
CHD
▁dodecyl
▁unstable
▁aerosol
▁appendic
▁Mast
▁phleb
ocytes
gland
▁glutamic
▁postoperative
.7%
aemia
▁nonspecific
▁10%
▁bovine
▁1.3
▁cardiovascular
▁autologous
▁xyl
▁5'
4.
64
▁resear
emia
▁poten
▁pep
cephal
tism
▁choles
97
atid
▁chewing
▁exercising
▁backgrounds
/12
▁antigen
trial
▁collagen
▁phospholipid
▁psoriasis
▁bismuth
riched
▁9,
▁lymphocytes
▁neutralizing
▁beha
torchid
ocated
▁supernatant
▁protracted
▁monol
esting
uitable
▁implic
▁(76
iability
▁evaluates
▁85%
dor
junction
▁implants
▁PGA
pecially
▁atropine
▁Engl
predic
▁sple
▁hormones
phrine
tance
▁SPF
▁GE
retin
odipine
terone
oterol
tinent
▁8.4
10.
uclear
▁170
▁0.88
900
▁oxytocin
▁27,
▁lumb
ineal
▁incidence
▁Nine
osteroid
▁159
osage
▁ionic
▁direc
reening
▁amniotic
nons
peptide
icardi
▁pooled
.0)
▁4).
imodipine
▁tomography
lowering
▁marginally
▁Chronic
▁monitored
▁106
▁rigor
odiazepine
▁ipr
▁detectable
▁accelerated
▁hydrox
▁4.5%
onad
▁magnesium
▁7%,
utable
illi
botic
▁reproductive
significant
leu
▁sensitiz
▁analogue
▁gonorrh
▁fulmin
▁diuretic
arrhythmic
▁electroph
▁11
▁1.2
▁tumor
▁unil
economic
▁ect
-3,
▁activating
▁217
isolated
erated
rosemide
▁0.21
3]
within
▁autoantibodies
▁bacteremia
▁pediatric
▁hypogonad
▁cutoff
▁serologic
▁paral
0%,
-6-
ordance
vaccination
▁disturbance
BMI
▁15%
▁formulation
▁0.36
Ni
▁posttreatment
▁sinus
▁Duc
▁wards
venous
▁45%
▁NSAIDs
obronchial
olamine
▁impairment
cardi
▁disapp
▁-12
▁ankle
LTS
▁endo
▁hemo
piratory
▁221
reatine
▁3.
▁equivocal
▁Subjec
-23
▁arginine
▁undetected
pli
▁aldosterone
▁82
12
etan
-8
▁Screening
irone
absorption
6).
▁pyrid
roxen
▁putative
▁MIC
▁NADPH
▁puncture
▁Compared
▁enti
▁0.12
▁reperfusion
tions
arrh
▁stimuli
▁fasting
▁3
▁0.8%
faction
▁resonance
▁acne
▁CRP
▁abolished
▁5.5
▁retur
5%.
▁acros
▁cytoplasmic
▁Infection
opressin
▁103
▁granul
inositol
▁1
ongest
▁phag
dic
▁hepatotoxic
▁assayed
▁ganglion
acetic
▁crossover
▁pregnancies
▁84
▁inactive
-90%
ytoin
▁dissec
▁paralle
derly
-50
▁vasoconstric
▁196
▁0.01)
▁motility
▁rash
▁197
▁hepatomegaly
▁exchan
▁accounted
▁exud
▁prescrib
ergen
▁6.2
▁ATP
kelihood
-2).
orepinephrine
▁8.5
▁lamb
myc
▁carcinoma
ecyl
▁sulfate
▁(43
tified
tential
▁parame
▁shortening
▁11,
▁tRNA
achol
phasic
▁nonsignificant
▁filament
▁75-
ogra
versity
▁unclear
▁LH
▁plasm
▁113
▁insignificant
▁fractions
▁imipramine
erver
▁cataly
▁qualitative
▁idiopathic
Ca
responders
▁0.57
dies
▁7-
▁NH
-66
▁14
▁disulf
▁differentiate
ults
▁fluoxetine
▁modality
▁shor
▁22
▁retardation
▁perfor
▁terfenadine
+)
▁spikes
▁8.3
▁ascer
esic
▁58
▁amiloride
▁infectious
▁administered
▁pylori
▁gamma
▁anticoag
▁arter
ophilus
▁Reduc
▁elu
▁naf
▁superiority
▁7.1
%),
ibrate
▁dentures
pirin
sorption
▁metoclopramide
▁nifedipine
ositol
▁hormone
casein
▁evol
▁spectro
▁evaluating
79
▁yearly
Ep
1:
▁82%
0).
▁fetal
▁forskolin
HB
▁circulatory
molality
▁spacer
oside
PaO
LU
▁immunos
▁inversion
▁IGF
tivity
ensitivity
▁metoprolol
ported
▁recombinant
1/
▁decarbox
ivered
atum
▁percentile
ogl
▁fibrob
▁lactation
▁visualization
4)
▁matur
▁(4)
▁hazard
tory
▁8%
▁throm
▁initiation
coun
▁72%
▁BMD
▁24,
▁Factor
▁proliferation
▁clones
▁wean
▁presumed
▁assis
alian
▁repres
▁inters
mentation
vivors
90)
5).
▁Mortality
orated
17,
▁5%
0)
▁adipocytes
isal
sodium
▁preventive
▁traumatic
▁Statistical
▁RNA
▁leakage
▁(5.0
adjusted
▁OA
▁antidepressant
Ds
▁0.44
▁colic
onide
▁ADP
ognition
ediatric
▁identifiable
▁localized
▁fla
▁203
▁protec
▁onc
▁Clinical
oretically
▁enrol
▁alternating
▁disseminated
▁contamin
▁washout
▁amo
▁terminus
.3
▁hemorrh
▁ventilation
▁5.7
▁contractions
▁235
▁CCK
ilus
37
▁attributable
▁Gonad
▁blin
zymes
onegative
1/2
▁accep
▁asthmatic
tus
▁0.29
▁27%
udation
▁stimulates
unctions
yclo
▁anemic
▁increments
tice
▁reversing
-1.1
▁(0.1
▁(93
▁0.95
feeding
▁lesions
▁12%
ronate
heum
tissue
▁antipsychotic
▁cholest
vascular
▁cortical
▁homology
▁cyst
cyte
▁Combined
▁ventral
▁2.5%
atrop
▁80
▁hazards
▁dermal
▁ulc
▁167
▁70
▁distal
▁satur
▁contral
▁TMP
▁abnormally
▁quantitatively
▁affec
opausal
▁lec
-4.
▁venous
▁arachidonic
▁hir
▁1980
othiaz
74
acet
▁(45
▁phon
▁228
6.
▁metabol
▁137
pecies
▁osmotic
▁immunological
32
▁placenta
ynthe
▁6.1
Hb
▁receptive
▁resemb
▁1991
▁Plas
retion
▁gout
▁metastatic
taining
deriv
▁micros
▁Haemophilus
xate
tized
▁uniformly
▁acutely
▁perip
▁hospitalization
▁acids
urine
▁subarachnoid
parathyroidism
▁(4-
▁fibr
gment
▁myocardial
▁alk
▁confirms
uscular
▁desatur
▁transthoracic
▁13.2
ustained
▁90%
oprec
▁scl
erebral
ertion
consuming
entia
ludes
▁4.9
▁births
▁elicits
▁exacerbations
nee
▁arthritis
/20
▁(32
▁autoimmune
72
▁thrombocyt
angiotensin
▁socioeconomic
▁(1.3
sied
▁hypothe
onor
▁sph
▁162
▁sten
▁infusions
▁spor
oactive
ocomial
▁0.7%
tipation
▁substrate
▁acin
▁drinkers
▁predictor
3/
eared
▁0.27
oxazole
▁inver
▁atrophy
▁phenyl
▁chloro
▁208
▁phosphorylated
▁fatigue
▁293
▁Effic
10-
▁3.5%
yroid
▁194
▁Lymph
terminal
▁newborn
▁Positive
▁radiological
dia
embran
amino
▁0.5,
eal
pir
▁Lipid
▁simplified
▁differentiation
7-
▁anaerobic
ometr
▁microns
▁Americ
▁hospitalized
▁specificity
bacco
▁35-
▁heterogene
astric
▁antibody
-96
▁methodological
▁serological
▁cG
▁11%
▁latency
▁CN
▁electrolytes
▁radiolab
▁angi
▁factorial
ticularly
▁obesity
▁glands
▁tes
▁antibodies
2.
▁51
▁lumen
▁Nutrition
▁invasive
▁Comparing
▁disappearance
PV
5),
▁intermedi
▁16%
▁ventilator
▁Hib
▁bism
▁ae
▁outpatients
▁(10(
▁endemic
▁psychophysical
indolol
cture
▁conduc
tro
▁premature
▁suppor
▁ligament
▁adjusting
▁phospholip
ophy
▁methodology
ometrial
▁pathways
bodies
▁900
▁precordial
▁irrig
-34
▁cytologic
▁carbachol
pine
▁exon
▁0.10
treatment
▁orthoped
▁inoculation
▁subfractions
▁strains
adrenaline
ranolol
lobin
▁enzymes
▁chromosomes
▁multic
▁(88%)
▁0.7,
▁overestimated
atment
ximide
▁nontoxic
amate
▁Dys
acerb
urther
▁radiol
ymptomatic
omethacin
▁esters
▁intramuscular
▁stratif
▁esophagitis
ods
omegaly
▁1)
converting
▁adhering
▁thre
▁transplanted
estive
▁38
▁subgroups
▁splenic
▁microorganisms
otransferase
▁TNF
▁glucocortic
▁valu
2%
▁0.06
▁endot
▁predominant
▁dextro
rowing
1),
▁depolar
▁(38
▁chlorhexidine
/10
▁vesicle
.6,
▁cytos
8.
▁subjective
▁CAL
▁hemoglobin
▁(75%)
▁tonsillar
4+
▁synerg
▁Candida
terin
fetoprotein
▁50
oblasts
▁avail
▁fec
▁electrocardi
▁Patient
▁endometrium
▁caud
ogens
/8
▁(15%)
▁stenosis
oplas
immun
▁cyclase
▁45
vac
tec
▁Apgar
▁10%.
▁underg
▁dementia
▁malignancy
▁overweight
ocrine
▁elevation
▁Higher
▁effector
aminase
sible
▁24
-4
▁tric
▁quinolones
ystag
▁tet
▁trac
▁OC
▁rheumatic
platin
▁internally
▁lobe
▁7.8
OA
iscal
atrial
▁ppm
▁rehabilitation
sants
▁9.5
selective
ytes
▁glycerol
atase
▁predis
▁irreversible
▁mobilization
▁interacted
armac
8).
0.8
▁mIU
▁occl
SAID
apeu
▁ultr
jun
▁worsening
▁thromb
▁0.3
▁extraction
2)
▁catecholamines
loro
▁pyridoxine
phen
▁(0
diagn
▁Medicare
-1.2
▁insuff
▁critically
▁synthesis
▁Systolic
▁milder
▁cla
18,
▁60
▁atten
▁nosocomial
dihyd
vul
▁resection
▁inges
mend
▁VP
▁airflow
▁0.22
▁arous
ulants
▁microM
▁tolerate
3.
▁dysfunction
-3.
▁retrospectively
▁autop
▁differenti
-13
posure
▁fatty
▁graded
assay
oyl
olytic
5-
▁(5%
▁111
entified
▁(=
geal
▁phage
onephritis
▁electrode
turb
▁0.94
atinine
orsal
itonin
▁ultrason
astolic
ohns
azin
▁endogenous
2),
uplex
▁UT
▁multim
▁spleens
oprim
▁NaCl
▁prednisolone
▁inhibitors
▁1966
▁-3
▁Thir
▁0.46
▁maneuvers
▁81
▁viral
ocytopenia
▁0.47
▁thi
▁genome
▁trimester
▁deox
▁anomaly
ergic
▁RS
tially
cellent
adenosine
▁fractional
adily
▁plaque
▁unresponsive
aceous
teral
▁Comparative
1);
▁0.76
▁promptly
▁pigment
▁fetuses
etal
▁neoplasia
1.1
▁arachid
▁mesenteric
ocrom
▁deficiency
DNA
▁Meas
tran
opramide
▁tremor
ymptom
▁lamina
▁stained
▁infants
itro
▁acetaminophen
▁cellul
▁bronchitis
▁selec
arrhy
▁urtic
mediately
▁grading
Cy
▁quantit
tetr
▁8,
zyme
▁121
▁EE
promazine
▁Sodium
▁decreasing
atient
▁94%
kine
▁GAD
▁30-
lyb
▁lorazepam
▁prognostic
▁5%,
▁2
▁prospective
strain
androgen
▁deviations
▁stimulatory
▁spontaneous
farction
▁ips
)],
▁IgE
▁10(6)
approximately
▁replication
posable
deoxy
oxetine
illus
lusion
roph
adine
▁15.
▁ischemia
▁clot
titution
reactive
▁650
oclonal
▁4-5
▁substances
▁doses
▁immunoreactive
▁vitamins
(1
▁migraine
▁macropha
▁cytochrome
iciently
▁valpro
▁unpredictable
osus
iagn
▁Successful
ocl
onography
▁mutation
▁perc
▁expon
▁multin
umbar
truction
▁argues
▁uncomplicated
arbonate
▁deterior
ochrome
▁Hb
▁interfere
idating
ysts
▁12
▁trich
pregn
▁unipolar
/1000
retro
▁incid
▁evoked
olitis
onate
endri
▁arti
▁homogen
▁breaths
▁distin
▁ach
▁reactivity
▁hairy
▁PTH
▁subsets
tisone
▁atypical
daily
▁analogs
▁granulomas
▁0.20
▁gastric
▁hypothyroidism
▁alb
motic
▁FD
▁causal
▁avoidance
▁distorted
▁ultras
▁74
▁9.2
▁enroll
tation
▁10.4
▁gestation
▁Consequently
▁nodule
▁295
▁capillary
▁bir
▁monotherapy
▁correlates
histamine
▁carriers
illin
kines
▁insertion
▁microgram
avage
▁intraepithelial
/2
▁radiography
▁retinal
fec
▁Surgical
valvular
▁inhaled
opian
threatening
▁CK
ocardial
▁bouts
▁intran
▁(+/-
▁instrum
▁tryptophan
adm
▁4.2
▁(198
sych
bloc
▁metronidazole
.8
▁docum
opi
▁similarity
▁initiating
▁conditioned
▁200,000
▁amino
▁embryos
exis
potassium
▁renin
▁recurrence
▁223
▁deterioration
▁cran
pecific
otri
▁monomer
potential
aternal
▁280
▁endpoints
▁corne
▁oxygenation
ected
itudinal
▁necrosis
▁206
▁8.6
either
▁lact
▁conditioning
utyr
▁cholesterol
▁SIDS
▁(1).
▁quantif
▁60%
▁radioimmuno
7%)
▁fibre
athic
▁encompassing
▁excretion
▁0.001)
patients
terol
▁Few
▁Twelve
portant
▁HPLC
ograms
▁BV
▁clomiphene
▁infarctions
opecia
enil
▁dissociation
▁sequentially
▁clonidine
▁fetus
tagland
▁damaging
▁ethyl
jec
entile
▁168
▁thems
▁pneumonia
▁Recurrent
▁deli
▁somat
▁diagnoses
▁147
▁irrigation
▁chan
1%)
▁0.66
▁ventric
▁depletion
zation
▁carbonate
razole
erative
▁melanoma
ept
nine
otor
indings
phic
alc
▁(62
▁Thyroid
▁mumol
▁demonstrable
ermal
▁Sprague
▁15-
▁confir
1,
Tu
▁0.75
▁auditory
▁Calc
tebral
▁extracts
▁56%
▁reag
▁differen
▁headaches
▁6,
▁efficacious
▁undertaken
arcin
▁Bronch
▁dor
ucose
iazide
▁amput
▁tryp
▁Insulin
▁Stu
atab
rague
▁hered
▁hypoglycemic
▁microscop
▁Individuals
▁orthostatic
▁neurotrans
▁valve
tropine
3;
surgical
▁aorta
▁suppression
▁criter
▁176
ospitals
ocin
▁cohorts
▁theoretically
▁kinetics
thoracic
9),
▁109
▁0.2
▁embol
▁mep
ectable
▁Forty
valine
ostic
▁EI
Gi
▁weighing
22
▁coli
▁presentations
▁transverse
▁AO
▁hypokal
oprol
erad
▁IU
▁molec
▁retrograde
▁chlor
WB
▁influenzae
▁elimin
▁kidne
▁0.17
enia
▁nonf
▁CRF
▁NSAID
▁46%
▁obstetric
reas
OH
thmic
▁multicenter
orin
etween
dine
▁derange
rometry
▁rheumatoid
▁11.6
odon
▁diastolic
▁MRI
▁adolescents
▁affinity
estion
▁markedly
▁LN
atibility
1).
▁(97
ocyte
▁nipple
tinu
erge
▁helical
gic
▁nonresponders
▁apnea
lodipine
▁Leu
ostomy
▁undere
erin
▁subclinical
ondr
▁anesthetic
▁surgeons
▁inward
▁decarboxylase
ecu
▁postnatally
▁reductase
-5)
▁MAP
▁PSA
▁maneu
▁platelets
▁Caucasians
illar
tub
▁CSF
umbers
▁40.
▁decreases
ichia
▁detects
tidine
TG
▁resul
▁gonadotrop
▁hypothyroid
▁ABR
▁sepsis
ophylline
▁20.
▁clom
▁eryth
uates
▁establ
▁11.0
▁exert
quine
▁poorer
▁osm
110
▁quinacrine
▁Nons
aminergic
▁swabs
olesterol
FGF
▁voiding
duced
▁rectal
▁trig
▁phe
▁surgical
omat
▁microsomes
▁dexamethasone
▁serine
ller
▁unaffected
-7
▁celiac
▁alcoholics
▁methionine
▁sulph
pendent
▁20)
▁119
atches
yx
-400
▁cows
▁filtration
▁prospectively
semin
▁alterations
▁neurop
▁serologically
▁herni
▁underwent
8%
▁calcium
▁myelin
▁therapies
iatric
coated
▁aggres
▁1986.
▁abor
▁peaked
▁pem
49
▁Neuro
▁cyclo
coag
▁dopamine
▁undetermined
▁ESR
▁pneum
icillin
initiated
▁1989
▁amph
▁30
albuminuria
exercise
▁polymorph
▁gp
▁terminals
▁suction
▁cate
▁Stress
emide
▁embry
echan
30
▁Tran
▁mitochondria
plastic
▁2.5-
▁parity
hemical
▁placebo
ternational
]-
▁52
▁splenectomy
▁Reduction
concentration
▁cromoglycate
▁adminis
▁fenoterol
▁prednis
▁chamb
▁pressures
▁nonsur
osclerosis
▁Fourteen
▁Bacterial
▁(4.8
▁7,
▁captopril
▁cured
propanol
coup
▁penile
▁(500
echanical
▁substantially
▁PLP
▁bowel
▁spermat
▁weighted
dip
▁11.5
eptin
▁ND
mokers
okine
▁unfractionated
▁acetic
onam
physiological
98
▁calcified
weighted
affected
oxide
tic
-90
33
▁5.4
sess
opr
▁Thirty
roscopically
▁stimulate
▁bicarbonate
▁0.01),
olesterolemia
▁chemot
ompan
fatal
ochrom
plemented
▁Laser
▁extrap
▁sedimentation
▁synapses
000.
127
wk
apamil
▁calor
11.
▁nodules
▁4
▁lacks
▁heavi
tib
▁waking
▁10%,
▁glucagon
Tc
▁ethn
ycin
tituted
limb
-18
▁angioplasty
ovis
▁glucocorticoid
operated
▁struc
▁21
kinin
▁endoscopic
luores
▁1960
▁suprac
6%)
ervative
▁laparoscopy
▁hemodynamic
▁Steroid
▁dehydrated
▁plasmid
stin
▁-0.6
▁margins
▁100,000
utions
havioral
▁recurred
▁colitis
▁pulsed
▁validated
▁vesicles
▁nore
stab
▁dendrites
▁caro
istar
gestin
ogenesis
▁infrequent
▁clindamycin
adic
gesterone
▁acupuncture
▁questionnai
▁Ultras
▁serotonergic
itriptyline
▁conformation
▁GER
▁yiel
-17
▁degrad
qui
▁adenomas
▁cyan
▁gradi
anide
▁Relative
▁1987
ervations
▁donors
apine
▁reas
moking
cyclic
▁sutures
▁inadequ
▁sodium
▁systolic
▁elemental
▁prescribing
IH
Ti
tradiol
jected
▁mell
EI
ovascular
▁3.5
▁manipulation
ipitation
▁purification
9%
▁40,000
hydro
▁physici
▁0.58
▁(84
vular
▁porcine
subunit
▁minus
▁49%
overed
▁Diabetes
▁56
▁embolism
hyde
7,000
▁specifying
▁incontin
jury
▁46,
▁trichloroacetic
otoxic
▁dimer
▁phosphatid
uvate
ticle
▁42,
▁randomized
▁PMS
▁smear
30)
▁Ear
▁maturity
▁recom
▁suppressive
▁(80
.4%
▁trypsin
▁dischar
0.5
rati
namic
dial
formin
▁radionuclide
+,
▁estrogenic
acial
▁viability
▁66
▁8.8
▁phosphate
▁slices
▁Immun
▁20
vedilol
▁carotid
▁angiogram
▁10.0
▁0.48
▁100,
▁secretagogues
▁amenorrhea
▁immunity
oxygen
▁HL
▁(25
▁Addition
fected
▁intest
▁hipp
▁0.78
▁inoc
▁adul
ectomized
▁mU
▁polyclonal
▁noncom
tality
▁oxy
▁satisfactorily
aind
▁(26
▁DSM
▁averaged
▁gly
▁55-
mia
apsulated
ecal
▁stimulating
▁-15
▁postoperatively
▁Oral
welling
▁microtub
▁indeterminate
/9
antigen
ogenes
▁Injection
▁lis
Rs
▁microscopic
oag
▁juvenile
hap
▁referrals
▁homogeneous
▁incontinence
▁reinfection
▁Progesterone
▁cereb
▁Cd
-40
▁corpus
fat
▁polymerase
▁neonates
▁stimulated
athered
quid
▁LM
oxicillin
▁101
▁effec
▁traum
▁(1.9
alanine
erox
thrombin
injection
2]
▁fathers
emetic
mented
▁20%,
▁2.5
ophag
▁restor
infection
nRH
▁cesarean
fraction
▁Complications
urrence
▁scalp
-1.0
▁1.08
omycin
▁stimul
brile
▁nocturnal
▁opioids
▁decreas
erican
▁nmol
alact
▁0.02
▁arousal
▁paroxysmal
accharide
lymph
▁kidneys
thrombotic
LV
▁amyl
plenic
▁hyperch
.10
▁ganglia
▁irradi
hips
▁gonadotropin
▁muscarinic
▁innerv
onuclear
47
azole
▁(3.8
weekly
▁depr
▁sorb
trimester
▁renal
▁neutrop
▁actu
▁amlodipine
▁oils
▁68%
▁allergic
▁grafts
▁104
▁assays
trac
▁ison
▁lesion
▁keratin
▁chromosome
▁doxazosin
▁neurological
apid
▁pell
DV
▁220
▁17
▁judged
ocarcin
aryng
▁spontaneously
▁residue
▁nonselective
▁hyponatremia
ionic
▁effusion
▁singleton
▁[14
▁Experim
pharyngeal
▁esterase
phrag
▁differing
▁HB
▁(0.0
MDA
▁leucine
▁labeling
▁chlorpromazine
▁recurrent
▁reversible
▁encompass
hea
pain
▁yielded
▁308
▁disper
▁Staphylococcus
▁0.14
▁Arter
▁polypeptides
▁suscepti
▁moiety
▁susceptible
▁endoc
▁incomplete
▁1969
acil
125
ergenic
▁(67%)
0%)
thyl
opha
▁anomalies
▁birthweight
▁GABA
ogenicity
▁assessing
▁FEV
▁lute
▁0.8
▁diffus
ystolic
pation
opsy
erally
▁antigenic
▁86
dle
▁uterus
▁isoform
imazole
naud
▁titers
▁63
▁persisted
odynamic
-6)
▁elong
▁isoproterenol
▁4.
▁67
▁bacteri
▁0.7
-2.
▁2-
▁minimally
▁seb
▁desm
▁179
▁cis
▁upstream
▁cisplatin
▁reversal
ygo
ofil
SDS
gthen
phragm
toxic
▁supplemented
▁depres
▁Neu
▁anesthesia
urban
▁degradation
▁mutant
-1-
onomic
3)
-3-
▁biosynthesis
▁persists
▁Hep
▁300-
▁congenital
▁glyc
▁pancreatic
icardial
▁imaging
▁transaminase
upus
▁Ib
▁conserved
▁osteoarthritis
▁1.06
ventive
ropyl
thickness
umulative
▁discontinu
▁GSH
ughter
▁anticoagulation
rotic
hypertensive
▁muscul
organisms
▁accumulated
▁induce
-3)
▁apolipoprotein
▁IgM
▁corticosterone
▁122
▁9%
uble
▁(400
▁ramipril
gestrel
rene
▁connective
▁transmembrane
tivities
▁implying
ulitis
maximal
▁impairs
otent
rents
▁sorbitol
▁astro
▁antioxidants
62
▁degeneration
▁thrombo
▁Urine
▁repor
rological
▁bilateral
▁generalized
▁synthase
ylchol
▁uniquely
hydr
▁4)
▁recr
▁thresholds
▁rhe
▁polyc
▁fum
▁practitioner
gA
▁pathological
ilol
▁proportions
▁pyel
▁26%
idin
▁dairy
ingers
▁specificities
6),
▁pancreas
▁reti
▁abnormal
▁mono
▁beats
perature
oprotein
▁antifungal
▁0.83
▁questionnaire
spar
ialysis
▁olig
uvant
▁leukemia
▁polymyxin
▁EG
▁chemically
▁0.98
lact
▁urticaria
essation
▁hyperlipidemia
▁5-
uppression
▁horiz
▁80%.
CSF
mL
lude
▁molecule
isol
▁preschool
▁inhibit
▁effic
▁amitriptyline
▁sput
ophore
58
51
▁selective
MH
▁subjected
▁tablets
-8,
lood
▁endothelial
reast
scop
-6,
00
▁Fib
▁Regarding
ulla
clerosis
adren
▁artery
▁peroxidase
choles
-88
charged
clinical
▁neurolep
▁85
▁57
▁previ
▁mRNAs
▁carcinomas
▁2.3
▁pharmacy
200
▁50%,
▁regimens
▁cytotoxicity
▁monit
▁intrac
▁yeast
▁excluding
▁cyc
▁relapses
▁Depending
▁amputation
ranial
▁52%
dered
▁headache
entan
▁regen
oresis
500
▁cessation
▁transcrip
▁239
▁recurrences
assi
▁sedative
fib
▁myel
▁Increases
▁130
▁micron
▁dehydrogenase
▁sugars
▁reflux
tension
ignant
▁assessed
▁(77%)
floxacin
▁nicotine
▁prescriptions
▁abl
▁scars
▁(8%)
▁microv
▁buc
▁Interestingly
▁pea
▁reliably
▁hysterectomy
-30
inemia
leural
▁fluoro
isters
tage
▁adequately
▁nip
▁fibrin
▁encomp
otassium
▁gangl
▁modif
▁cosmetic
▁whey
▁ana
ifugation
▁eccentric
opulation
reported
▁hemorrhagic
▁Replacement
▁testis
siologic
electric
.5%
▁inhibits
▁76%
▁secrete
▁sonographic
▁Chlamydia
▁squamous
▁resec
▁swit
▁diame
▁morbidity
▁tendon
▁Severe
etine
ygous
▁lys
▁kDa
.4
▁3-
flammatory
▁radiotherapy
▁Centers
▁Extensive
▁aro
▁marrow
carb
orption
▁interleukin
▁calf
▁propor
▁accel
tensity
robic
▁tubule
▁GMP
othi
.1
▁Barrett
lastoma
SBP
▁phi
