▁autoantibodies
itant
▁acids
owever
▁uptake
▁transcripts
2/
▁predicting
▁5'-
▁noradrenaline
tral
▁kinetics
▁3.8
▁neurons
▁1987
▁synthesis
.9
▁calcium
▁2)
▁triglyceride
▁15,
▁epit
adiol
affinity
▁3,
▁infusions
retin
tus
olip
▁viral
▁3.9
lue
ellular
ignificant
▁facilit
estions
▁benz
athyroid
▁capsule
▁retic
ucine
25
▁5.2
▁aggregation
▁150
85
▁hepar
trib
▁proximal
▁titers
ectin
▁1:
▁dele
▁carcin
▁2.0
▁combin
▁proliferation
56
▁glomerul
ctive
37
oyl
duce
molecular
▁dosing
intestinal
▁aorta
19
▁nephropathy
▁fibrillation
▁chemotherapy
▁prol
idine
▁mutation
▁predic
▁symptomatic
▁prophyl
ofluores
▁Alz
▁47
▁6-
▁Measure
▁ELISA
oderm
▁ineffective
erence
phic
.0%
sible
opa
ogenous
transferase
onate
▁antigens
roscop
RH
▁aureus
gesterone
▁nig
.4
5)
▁neph
▁filtration
atif
▁sperm
▁platelets
▁1986
▁cyclic
tality
▁peptides
Cs
▁assis
▁underg
tabl
accharide
▁opi
▁0.1
▁detectable
▁42
▁substrates
▁pec
pecially
▁AMP
▁8%
ergen
7%)
▁experim
▁Increas
▁choline
▁inhal
ocin
▁0.
▁250
39
▁CSF
▁compartments
▁postnatal
phrine
dominal
▁hypertrophy
▁0.01).
▁cohort
▁dox
azole
atum
▁influenz
▁cen
▁7
▁impaired
▁82
▁atten
▁lactation
DH
▁persis
▁interpre
-3
▁sero
▁4.3
▁mening
otri
▁endogenous
▁lavage
▁ventil
▁3.
60
▁regression
▁acute
uria
stolic
▁tric
▁reproduc
trin
▁indus
lastic
▁surgically
▁asymptomatic
▁-1
▁angi
▁shorten
▁melan
▁spon
▁asthma
ositol
entical
hydro
▁beats
▁averaged
uric
▁elimination
▁pathways
▁decreasing
▁variability
▁undergoing
▁4.5
▁adhesion
onucle
▁bladder
▁predis
▁angiotensin
tures
▁79
▁ocular
▁nonspecific
ilized
▁vesic
▁degradation
CSF
▁mM
inflammatory
taz
▁fibr
▁49
oprote
nai
ilic
operative
acyl
▁cranial
▁nitro
tine
▁evid
2%
▁exhibited
▁graf
ylate
5%
▁placenta
▁epidemi
▁carcinoma
▁saliv
-2)
▁8.
▁plasmid
aline
-25
▁linearly
onc
9).
▁artery
-20
anad
▁nutritional
▁injec
dered
▁aerobic
▁subun
▁metastatic
osine
cence
ignific
▁strains
▁compart
▁sple
omycin
▁arth
▁pyr
ocarcin
▁follic
mia
▁3'
piratory
positive
▁diagnoses
illi
tory
ipr
▁compounds
▁carcinomas
▁intermittent
sia
▁injected
▁synthe
otassium
▁struc
athe
▁impair
▁sulfate
rologic
▁5,
▁23
▁intestinal
▁ventricular
▁retin
tility
▁reas
▁pancreatic
ffeine
▁malign
▁arrhy
▁Thy
▁comprised
▁lipoprotein
▁acetylcholine
38
lox
oglobulin
lytic
▁quantitative
oprol
tinu
treated
36
hyd
.3
▁duoden
ortic
testinal
▁uterine
6)
▁donors
▁LH
aneously
uretic
▁7.
.0
▁epithelial
2,
▁fluc
rein
atient
▁endoscop
▁mitochondria
▁LDL
▁0.4
thma
traction
▁objec
▁24-
rosemide
▁66
▁gland
tagland
▁antibiotics
sive
▁pertussis
▁micros
▁compli
▁sinus
robic
▁CI
ults
▁HB
▁valve
▁embry
scher
▁mice
▁consecu
▁residual
adrenoceptor
utions
▁acco
▁bacteri
7)
▁fetal
rotic
ophil
▁gonadotropin
▁(15
▁ethanol
spective
nec
▁aqueous
▁cardiac
▁hams
▁polypeptide
▁colorectal
▁epiderm
▁succin
ogens
▁prolactin
▁avail
▁(22
ints
▁substantially
▁localization
oplas
▁blot
▁61
▁vitamin
ographically
itro
▁0.01
▁respiratory
32
pH
▁ultrasound
ylic
▁plasmin
▁duct
▁0.04
▁MIC
▁defic
▁metabol
iae
ynaptic
▁dehyd
lobin
48
▁69
menopausal
▁duodenal
▁weakly
▁heterogeneity
▁40%
▁attenuation
▁contrib
tro
osome
▁(9
▁throm
▁4
ocellular
▁exten
▁inser
▁reversed
▁peptide
▁elastic
▁LD
99
▁replication
▁retardation
phosphate
centr
▁angina
▁Significant
▁specificity
▁fixation
risk
aptic
viron
itamin
▁excision
iotensin
inic
▁immunity
▁persisted
▁Fc
▁preven
▁reactivity
▁penicillin
▁95%
otre
/100
uminal
derly
▁nM
▁rheumatoid
▁35
▁basal
▁venous
▁specificities
▁1
▁65%
▁increas
▁catheter
▁1.7
▁sham
▁suppressed
▁indomethacin
▁soluble
▁glutathione
imin
ociation
▁antagon
▁proportions
tryp
4+
▁glucocortic
▁pep
▁33
▁198
▁IgM
▁synthesized
▁92
▁expiratory
▁infec
▁anesthesia
▁polyc
▁inactiv
▁consis
ethylene
▁14
otomy
▁membrane
▁intub
▁hypox
▁3.2
hea
▁trache
▁vaccination
▁inges
grees
quid
▁tib
ifferen
▁+/-
.2
▁prophylaxis
itrate
▁aspirin
▁myocardial
ficial
jec
0.0
▁conditioning
▁analyses
▁hyperplasia
▁polymer
sively
▁1.0
▁underwent
▁neurologic
▁limb
▁hormones
3).
ycin
opausal
leukin
▁cryp
▁fluids
lec
ialysis
▁IFN
▁compartment
▁coronary
tig
▁pathway
▁adrenal
)2
erate
▁dete
▁mAb
sibly
▁molec
din
asive
▁hypoth
esthe
thi
▁adenosine
▁LV
▁contraction
OH
natal
atients
amuscular
▁adminis
▁conduction
▁unchanged
0,
▁uncom
▁esophageal
▁(16
▁diffic
▁differing
trum
▁electrophoresis
▁0.2
▁Staphylococcus
4.
▁invasive
ocrine
oprotein
▁psychiatric
▁conductance
▁12%
▁discharge
▁resonance
plantation
luores
thmia
tisol
▁uro
▁sugges
▁elicited
stimulating
erad
trol
▁pelvic
▁perfusion
▁6.2
tured
▁alkaline
▁21
▁agon
▁oxidation
▁foc
▁enzymatic
acrylamide
▁longitudinal
bly
▁newborn
▁(0.0
▁63
▁reductions
lasses
▁(30
gia
▁criter
▁measurable
▁kidney
etal
ubation
▁(19
▁induces
tors
acil
enal
glutin
▁1/
▁theore
HB
▁14,
Ca
.8%
▁resul
▁conjunction
ologic
vian
▁pancre
oracic
▁atrial
▁suppor
▁characteris
▁systemic
▁(11
▁ane
▁(6
enzyme
▁kinases
▁standardized
▁neutrophils
▁85%
▁irradiation
▁tumors
▁10.
▁45%
/1
▁esophag
▁100-
diabetic
▁progn
aryn
▁drin
tact
tual
siological
9%
▁amo
▁NH
8,
▁cyto
▁regurg
2).
17
▁vaginal
▁Plasma
▁(0
▁ambulatory
odal
▁Stu
▁chan
2)
▁nuclei
▁sensi
▁preceding
▁cDNA
▁decreas
NH
▁micrograms
henyl
-4
▁(198
▁testis
▁intestine
▁confir
▁Addition
▁rabb
MN
▁edema
tially
Rs
▁peroxide
LH
▁lesion
▁mL
▁hypertension
aturated
▁75
▁fibrob
00
odiaz
▁cephal
▁synap
ronch
▁NK
▁depletion
▁sten
▁mitochondrial
ropriate
.5%
▁Hb
▁Compared
▁assay
▁mutations
tituted
▁physici
▁mmol
▁diaz
▁lumen
▁nucleotides
apeu
▁inadequ
▁electroly
▁chloride
▁lys
▁monoclonal
tak
fec
ectomized
dose
-80
▁reactive
▁oxy
44
▁extracellular
arbox
itone
titu
▁transplant
▁cAMP
▁1000
▁benign
coun
rhy
▁incorporation
▁acetate
▁differe
▁acutely
ylation
▁amin
tensive
▁receptive
▁cessation
▁alcoh
▁dimethyl
▁pleural
▁noc
romes
▁cartil
▁emerg
qui
▁immunobl
▁24
1,
▁90
▁12-
▁vasoconstric
▁30%
▁43
▁subjec
▁moderately
75
▁atropine
▁fatigue
▁microns
▁glucose
▁chol
000.
▁fetuses
▁biopsy
▁4,
▁pmol
▁ultras
▁iod
/10
hemical
ginine
tran
▁hep
orrh
▁sulf
ositi
ondr
▁ranged
entricular
tice
▁symp
▁zinc
0-
▁imaging
▁Ig
▁injur
lip
feren
tracted
yrid
▁99
MV
▁dysplasia
oscopy
.6
▁chor
▁detecting
▁shor
vice
tional
▁Hg
▁9,
▁pregnancies
▁thems
+)-
▁lumbar
▁stimul
▁(1
inally
-1.
▁bilateral
▁4)
turb
▁postoperative
helium
orepinephrine
▁assessed
▁9-
▁depres
▁prono
exposed
▁toge
ylated
▁200
▁viruses
▁ulc
ulose
▁epidural
▁substitu
namic
osom
icin
▁opioid
treatment
▁agonist
▁marrow
▁1,
▁cyclase
ucle
estig
ffe
▁comparative
▁labeling
▁50
▁exceeded
orption
mittent
nthe
▁Hyp
▁anesthetic
leu
▁41
▁implants
▁75%
▁coated
clin
▁evoked
ostic
▁Escherichia
▁Evidence
▁remission
ylase
▁correlates
▁ovulation
lob
▁cis
▁quantit
▁subgroups
▁unclear
amphenicol
trical
▁bypass
▁neurop
effec
▁(3)
9%)
▁mutants
▁ow
ypical
▁placebo
uncture
tally
▁prostatic
queous
47
▁fasting
rox
hyde
ospor
▁3.4
odynamic
▁perip
▁LPS
▁reflux
▁carriers
▁6.
.1%
▁enti
controlled
▁dors
ranolol
▁polymorph
iotics
▁pathogenesis
▁300
▁9
▁substanti
0.5
emia
▁catechol
▁adenocarcinoma
▁64
▁conserved
▁complexes
▁dilatation
amethasone
▁lateral
▁BP
▁98
quine
▁summ
▁Thir
tivity
▁analgesia
affec
went
tum
▁indications
▁indi
▁13-
ocytosis
▁accep
tence
▁oxid
▁pneumonia
▁calf
bumin
▁obese
▁ventric
stim
▁100%
500
1%)
tically
▁81
ologous
10
▁thrombo
▁mammary
onine
▁cortic
▁PCR
125
▁induc
eak
▁aor
▁(2
ograms
▁mumol
ovine
▁venti
▁intrap
inesterase
ocor
▁suppres
▁regulated
▁demonstrating
▁lipids
▁donor
▁concentrations
▁attemp
▁reproducible
3)
ynthe
floxacin
▁terminals
rents
ocomp
▁hypog
renal
▁inhibition
▁cystic
sectional
tinguish
▁therapeutic
▁protoc
2),
▁discon
albumin
fected
▁untreated
orectal
▁pneumon
▁excre
▁establ
▁receptor
toc
▁vasodil
ectomy
ociated
▁ATP
vity
▁markedly
▁projec
trated
tussis
minal
▁occlusion
partum
benz
▁phenyl
▁hydrogen
ceptive
crimin
▁progression
▁androgen
elves
atid
▁96
▁fibroblasts
atitis
yro
▁glycos
▁serotonin
teral
ylchol
▁6
otropin
▁7%
igaret
▁20
▁57
.7
▁endothelium
▁77
▁arterial
▁polym
otrexate
▁diminished
thyl
▁reticulum
▁aortic
▁Fifty
viral
▁dosage
▁pigs
▁tolerated
bodies
ture
0%
sion
▁perme
▁induction
ergic
oride
kinase
▁sensory
chym
▁predictive
43
▁induce
▁disturbances
deficient
▁transverse
tivation
ucose
▁interleukin
meth
scherichia
.2%
▁agonists
▁54
▁4.1
▁homologous
▁supernat
▁circulating
▁renal
chloride
▁direc
▁prednis
▁activator
▁presumed
▁sarc
▁retard
▁repor
vices
▁clamp
otting
▁lipid
hydrox
▁cyclospor
assi
▁digoxin
aturation
▁25-
▁graded
▁bacterial
▁RNA
▁quantified
▁2%
▁tox
▁turnover
▁splenic
▁lymphocyte
▁affec
entif
33
▁94
▁etiology
▁somat
▁morbidity
▁thromb
▁prostaglandin
▁demonstrates
sistent
▁splen
ilibr
▁isch
▁56
otroph
lys
▁antagonists
▁abolished
oretic
▁smo
▁16
mented
▁acqui
▁erythrocy
▁Comparison
lyc
▁latency
ophilic
▁regulate
▁gonad
▁elec
▁(20
yroid
▁vesicles
oresis
▁acet
tens
▁nec
rophob
ipramine
▁transcription
lysis
▁gluc
▁connec
thyroid
▁transferrin
▁ventilation
acetic
▁neutroph
▁PV
atase
otyp
▁Serum
2+]
radi
▁hydrolysis
pecific
▁mucosa
▁scans
olus
lycemia
oxid
▁pancreatitis
▁intracellular
5).
odies
▁PMN
▁lymphocytes
▁stric
▁TS
▁50%
▁twofold
▁maturation
gans
▁cerebral
▁asthmatic
▁inoc
otypes
aric
crip
ecyl
▁Twelve
▁lymph
▁cytosolic
▁supplemented
amines
mental
kely
▁leuk
associated
▁deoxy
ochemical
rogenase
▁HPV
▁synthesize
▁deviation
▁contractions
▁ischemia
▁55
▁synaptic
▁(8
▁administered
▁testicular
▁rhy
▁(14
▁embryos
▁amp
▁2.8
▁intra
elec
▁perin
▁incom
▁tended
▁allele
tension
ffec
▁biopsies
▁treadmill
▁subjected
▁unstable
tamine
▁histologic
trates
ucl
▁110
▁steroids
▁3.1
▁methionine
31
▁cardi
▁hypothyroid
▁examinations
lyl
▁15-
-17
▁elevations
▁endometrial
▁recordings
▁ppm
▁permeability
gative
▁hypo
veness
▁1-
rease
echan
▁(50
rocy
lym
▁cytos
▁diabe
▁binds
tensin
kines
▁obstructive
3%
▁hydrochloride
▁repro
ithi
hion
▁metastases
▁generalized
▁(4)
▁anemia
▁pH
NB
▁focal
▁statistically
esity
▁oes
terone
▁congen
▁ischem
▁grafts
▁arter
▁undergo
sA
teine
▁olig
▁techniqu
▁phosphatase
topril
protein
▁spre
adren
▁thre
▁infections
▁cann
▁Mg
▁lidocaine
▁subunit
▁questionnaire
rine
▁cros
▁chronically
▁Sixty
▁lowering
▁2.1
▁cataly
▁85
▁5.6
urea
▁radiol
▁urinary
▁occupational
▁(18
▁atrophy
renol
Ig
▁vascular
ilateral
▁morphological
▁steroid
.3%
▁collagen
▁granules
entral
▁lactate
▁parathyroid
▁differed
enia
▁exhibiting
unctions
▁placental
▁experimentally
gic
▁macrophages
echn
▁urea
▁paralle
▁thym
▁Bec
oxic
▁60%
quisition
▁cruc
8).
2-
/2
▁genome
▁hypertro
▁brainstem
▁endocrine
▁intake
▁15%
▁diets
tomy
▁immunoreactive
eroxide
▁37
▁Nine
▁subjective
▁blocker
throm
▁osmotic
:1
▁pulses
ometh
▁obesity
▁verapamil
▁ganglion
▁rabbit
-1).
erating
▁lar
▁metabolism
8-
ocytes
▁cerv
▁magnesium
kine
omat
▁bronch
monstr
▁-3
▁phosph
▁deple
▁1.3
▁cirrh
median
▁discontinu
▁(0.
jun
▁3%
▁34
tioned
▁electrodes
▁tissues
▁hypoxia
▁1.4
▁chlor
▁attenu
unced
-8
▁urine
lact
ffinities
LDL
▁hypers
▁relap
▁PTH
▁0.9
▁offspring
▁1.8
-18
▁amiloride
▁tubercul
▁morphine
▁0.00
▁subc
-5
▁dexamethasone
▁wk
▁ery
oxygen
ometr
▁0.05).
timulation
▁arrhythmias
▁parental
oside
iotic
arrhythmic
LISA
keletal
▁hypotension
▁intram
▁MRI
▁preoperative
▁inadequate
▁intest
▁hemat
sibility
▁(10
limb
▁27
▁pigment
▁120
4).
▁44
▁mmHg
▁31
▁nitrogen
▁nucleus
▁exchan
amicin
20
▁Whereas
otox
▁fibers
▁secretion
▁assessing
osomal
▁premature
irubin
▁67
▁guinea
▁PCO
▁rheum
▁biosynthe
▁cytotoxicity
roscopic
▁questionnai
100
▁lec
▁myocardi
tial
1)
▁stained
nRH
▁superficial
▁econ
-6)
▁subgroup
▁prognostic
alc
▁cervical
▁regar
tis
'-
57
▁recombin
-1-
▁4-
▁bac
olysis
adic
okine
-6
ilep
▁smokers
tisone
orbol
▁pretreated
▁supple
onuclear
adily
ulatory
▁kidneys
▁plasm
tin
35
▁devi
▁enzyme
3,
▁heterogene
▁fluorescence
▁endot
▁orally
▁vivo
▁caud
oidal
▁rupture
000
▁decreased
▁complications
▁cyst
ept
▁transi
▁bolus
▁actin
phil
▁prostagland
yrox
▁tachyc
▁4.0
taining
astric
▁operative
ranial
-450
▁incidence
▁ure
bladder
▁abnormal
trial
▁ratios
▁1990
orac
hydroxyp
epti
ducing
▁contex
ochondr
ulph
tions
▁hypothalamic
rogenic
▁tomography
crib
responsive
▁propranolol
▁effec
▁cancers
▁recom
reactivity
▁hypertensive
▁unrelated
▁graft
immune
▁intensive
▁refractory
3),
epine
gely
5.
7%
▁inhibits
▁responsiveness
▁cys
ocytic
-3-
tox
▁EGF
▁HDL
▁cortisol
ocl
otor
▁vein
atible
+,
reast
▁mono
▁adenomas
▁norepinephrine
▁20%
▁1989
▁paired
▁FEV
▁conges
▁excised
idespread
icep
▁coag
▁-0.
hypertensive
,000
▁efficacy
▁influx
▁inhibitor
▁adap
▁repres
bacter
-9
▁100
▁nodules
▁29
▁3.3
toph
▁87
oplasty
osomes
▁0.01)
▁calcitonin
▁5.4
greater
ipine
vitamin
▁inh
▁0.5
▁dendri
▁scanning
▁competi
amide
sych
▁precursor
FU
▁enamel
6-
till
▁sodium
▁membran
▁deterior
▁68
-2.
▁leukotri
1),
▁hipp
▁Hear
▁lymphoma
▁(4
▁contralateral
▁contractile
▁stu
▁transcrip
▁requi
ATP
▁duc
▁tyrosine
▁shif
▁yiel
▁analogue
ocyte
-2,
▁kinetic
(1
1/
▁metabolite
40
▁reac
▁48
▁cutaneous
▁practic
ifedipine
▁400
▁preparations
venous
▁construc
Pa
aminop
ighted
▁amph
▁exposures
ximum
▁tetr
▁comparisons
▁percentages
acrine
▁lute
▁sti
clo
▁athe
athy
▁reflecting
▁anticoag
▁inhibitors
▁20-
trop
▁susceptibility
tron
▁oxytocin
▁ultim
▁methotrexate
▁ingestion
▁coh
▁peri
ochrome
tric
kDa
▁hepatic
-100
ogenicity
4%)
tub
▁antiserum
▁monitored
▁electroph
absorption
▁markers
▁infusion
tion
▁pretreatment
ventricular
lycer
tif
▁phospholipid
▁supplementation
▁distal
terol
tiz
▁nasal
▁posi
DNA
▁105
iol
▁catalytic
gene
▁pyl
▁distin
▁pneum
▁(3
idate
-5)
istar
illin
micro
▁differen
oluble
opro
▁elevation
▁citrate
operatively
▁25%
▁lamin
▁sampl
▁ventricle
▁serum
▁natri
cardi
lood
▁7.5
▁bowel
▁thereafter
%).
▁.0
uppression
▁95
ymptomatic
▁differentiate
▁polymerase
▁retrospective
omized
acchar
▁adi
▁IgA
▁inver
otoxic
otoxicity
siveness
ochem
yste
▁arthritis
ffinity
antial
ensi
osus
8%
▁exogenous
▁residue
▁microscopic
erb
▁estradiol
▁pate
reas
▁phospholip
▁2.
▁2-
▁antigen
posure
(+)-
▁Meas
▁potassium
arial
GH
▁phy
uoden
▁percutaneous
rological
tent
▁symptom
ifed
zymes
▁dissemin
▁phorbol
geal
▁accumulation
▁identi
▁gangl
▁abdominal
▁tes
▁evaluating
ophy
▁TGF
cyt
▁5.5
▁staining
▁intracranial
12
resistant
▁diabetic
▁65
49
oplasm
▁amplification
▁promin
hep
ostatic
▁blockade
▁acces
cyclic
dial
▁triglycer
▁screened
▁valu
▁phosphor
BH
▁hemodynamic
▁carbohydrate
▁insertion
▁angioplasty
▁thi
▁adren
glut
▁Increased
▁3.5
▁residues
angl
▁53
▁dihydro
30
olec
▁ATPase
▁3.0
▁phosphorylation
oscop
▁PGE
▁erythrocytes
▁prospectively
▁[3
▁adip
-7
▁excretion
jected
▁accel
▁stimulus
▁pulmonary
▁phosphatid
-15
▁peritoneal
▁91
tiv
▁simplex
lycerol
.6%
orbent
▁tryp
▁quantif
odon
▁thresholds
▁adherence
truc
]-
▁estrogen
▁concurrent
etan
erin
▁TNF
▁neon
▁successive
▁exce
▁inhibit
▁TSH
▁lesions
reactive
▁salivary
anking
essel
eration
▁challen
bral
anding
▁investigations
▁atypical
▁0.03
▁hydroly
rotid
▁inducing
opo
yel
▁ferritin
tabol
▁homogeneity
immun
▁distrib
▁incubation
▁epidemiological
▁ADP
▁implicated
▁innerv
▁kidne
erance
▁currents
▁glyc
▁strep
osts
monary
tic
▁20.
▁Subjec
▁inflammatory
▁eti
▁reperfusion
▁lutein
▁antibodies
▁embryonic
▁gestational
▁kinase
▁bronchial
leb
vation
▁phosphate
hyp
idase
▁affinity
admill
▁secrete
▁inversely
assay
-12
alian
ygen
▁ablation
▁HSV
orec
▁83
ituitary
ylcholine
▁irradi
▁hepatocellular
▁ovarian
▁recons
▁-2
▁echocardi
ergy
▁fibrin
▁46
▁qualit
5%)
▁synovial
▁bir
zard
▁25
-2
▁thrombin
▁oxidase
▁attributable
▁pharmacokine
▁guan
▁progres
▁inflammation
▁prolif
ocortic
▁fetus
sess
zyme
osamine
odium
ophageal
omotor
24
16
▁4.6
▁metabolites
▁centr
▁(5
▁hazard
ofl
▁bile
▁canc
▁fluoride
▁trypsin
▁ovari
itus
3%)
▁triglycerides
▁recurrence
▁thir
▁alterations
yroxine
▁(40
▁haem
fib
▁Forty
▁ascorb
▁microM
▁dissociation
rowth
▁pharmac
▁encephal
▁wee
▁rectal
▁neurotrans
▁2.5
▁immunosorbent
▁monocytes
ereb
phosph
orpor
▁seroton
RNA
▁memb
0%)
▁immuno
▁0.000
essation
olytic
▁reduc
▁trac
olarization
▁positively
▁reticul
▁fung
▁ligand
▁extracts
lobulin
▁70
dine
▁ventral
▁nmol
▁cultured
Hg
▁carotid
▁commerc
▁2.6
▁Immun
2%)
▁inters
▁influenza
▁peripheral
eptid
epithelial
▁duplex
▁plasminogen
45
scop
▁insulin
▁fibrosis
illary
acin
▁proliferative
▁hemoglobin
▁plaques
olism
▁bovine
▁mitral
▁ana
tious
acetyl
▁(2)
▁anomal
▁incub
▁bicarbonate
ulant
▁dopamine
▁resection
vents
loxacin
▁verte
ritin
ocardial
▁deficit
▁phenotype
▁clonidine
ulla
itoneal
▁glands
▁30-
▁30
▁behavioral
▁indicators
▁aspec
▁saturated
▁expressing
▁3
usp
athione
gluc
4,
occal
▁22
onin
▁incubated
▁intraven
▁fas
mediately
▁carbox
▁pati
▁neonatal
▁receptors
dition
utaneous
ocamp
luding
▁alveolar
infected
oglyc
▁relapse
▁0.15
▁panc
▁localized
gment
▁diazepam
ellar
▁mRNA
▁(7
▁optimum
▁quin
/3
robial
0,000
▁axons
80
▁7.2
▁cytoplasm
▁amn
▁ligation
▁dietary
▁toxin
6).
gthen
▁cytochrome
▁beha
▁mU
▁restric
▁(95%
▁anesthe
▁38
feron
▁TP
▁bran
▁selective
apeutic
adrenergic
timal
▁spontaneous
▁colonic
anol
▁necrosis
▁neonates
lyce
uscular
otrop
ocardi
▁hormone
icillin
▁retur
▁methyl
▁multivariate
▁predominantly
-2-
erox
▁congestive
▁histology
oag
▁adhe
▁discus
flammatory
eptides
▁advan
roph
▁casein
▁normotensive
▁regimens
▁3.6
▁immunore
▁postin
▁mellitus
oA
aicin
prising
▁homogen
65
uted
▁20,
▁5.
▁malignant
▁respec
▁TC
▁Insulin
iatric
illus
▁pla
▁7,
amycin
phen
titution
▁contrac
▁immunos
▁endothelial
HDL
mediated
▁brom
▁definite
roximately
▁poten
▁Afric
▁identif
▁mortality
▁alk
▁oste
▁disturbance
70
▁statis
▁5.0
astolic
▁pituitary
embran
8)
▁gels
▁clearance
21
▁Hep
acting
▁cytoplasmic
▁previ
▁muc
▁carbohyd
certain
▁diarrhea
▁tumour
trogen
.7%
▁IGF
▁hepatitis
▁angiography
▁10%
▁specimens
wes
▁mammalian
▁196
▁(24
▁defec
▁hetero
▁pressures
▁dysfunction
▁thrombosis
mend
ayers
▁45
▁chec
▁glomerular
▁Plas
activated
bility
▁nucleotide
▁lep
▁cef
▁ae
95
▁10(
▁nonc
66
▁3-
3-
▁intermedi
▁bene
▁ach
▁remo
-50
ameth
▁adop
esti
trac
1).
▁60
armac
▁Calc
▁hydrox
▁cathe
▁hemorrhage
▁lumb
uble
▁secretory
4%
▁reversible
▁80%
▁17
▁limbs
▁2.3
▁Tran
tural
▁ulcer
ogenesis
ration
chlor
▁vitro
▁molecule
▁esters
▁unaffected
▁chromosome
▁resistant
aminase
▁glucocorticoid
xate
▁secreted
pregn
obl
▁1.5
1%
▁clon
▁glomer
▁scre
▁converting
▁cellular
6,
imens
▁cyclosporine
▁dissection
▁congenital
▁19
▁hepat
duction
vul
▁doses
▁4.4
olol
▁ect
loid
▁fractions
acted
ocaine
opha
▁Km
▁NP
▁saline
assium
▁reper
ichia
▁4.2
▁actu
▁enalapril
▁arti
rometry
▁occurrence
▁cortical
romycin
▁130
bacco
.8
▁6,
oneph
▁rati
actin
▁coli
hydroxy
▁reflex
lated
8.
▁possi
▁glut
uron
4)
86
▁600
▁traum
▁59
▁inhibited
alact
peptide
ATPase
▁elic
▁uter
▁stimulation
▁potenti
containing
epam
▁yeast
asic
▁biop
55
▁prognosis
▁renin
18
enic
▁inflamm
▁conclu
▁paren
estion
▁physiological
▁depolarization
▁PRL
▁exer
▁kDa
TG
ohyd
6%
▁luteal
▁anat
▁clinically
oglobin
▁hypot
produc
▁enhances
▁infectious
▁contral
▁defects
usate
tative
▁hybridization
▁fluores
tration
▁hippocamp
▁88
▁1%
▁conjug
itonin
▁histological
13
ronectin
▁leukocyte
▁intrav
▁caffeine
▁stenosis
▁mell
▁cumulative
EG
pendent
▁58
▁peroxidase
▁28
▁provid
luded
▁apo
ecal
▁mediated
▁sequenced
ompan
urther
▁derivatives
▁complication
▁neuronal
▁initiation
ogenic
▁minus
▁squamous
▁abnormalities
▁0.001).
▁exis
▁adjustment
▁monit
esium
▁tas
inergic
▁usefulness
restricted
7-
ocar
rected
▁enal
5-
▁degrad
▁84
▁granul
BV
▁immunoglobulin
▁docum
▁0.3
▁calor
receptor
▁5
venty
34
▁abnormality
▁inspiratory
omethacin
▁locus
▁hyperg
▁prenatal
motic
▁progesterone
▁subsets
▁effic
▁ions
ionine
opathic
▁surgical
▁26
▁judged
induced
nine
▁10-
lusion
▁toxicity
▁2.7
tivities
▁soy
ogra
▁0.8
bic
▁ket
xia
0)
▁cate
▁bip
tized
▁veins
▁saturation
▁randomized
▁tran
▁perc
▁precur
▁leukemia
▁cleavage
ardia
▁arteries
▁10
▁isolates
▁satis
idation
occus
embrane
▁functionally
-1)
generation
▁abor
▁herpes
acet
5),
▁transplantation
▁tiss
▁antic
/-
▁horiz
▁78
▁Neu
▁capillary
tance
▁amino
▁hemo
▁substances
▁pathologic
atinine
▁1)
amel
▁heparin
▁eryth
▁reflec
▁unex
▁interv
▁iso
▁developmental
▁mucosal
8%)
▁onset
▁produc
piration
oic
▁menstr
urrent
▁retinal
6.
▁dorsal
▁pathology
▁accounted
5,
blind
plemented
▁comple
▁(17
partate
irc
▁NaCl
▁15
hetamine
▁reproductive
adm
▁suppression
▁AIDS
▁73
▁fractures
cholesterol
▁1.1
iasis
90
▁promo
formations
▁hemorrh
organic
reased
▁1.
▁albumin
▁immun
atoid
onstric
ophys
molec
▁Subjects
osyl
▁RA
▁retention
-16
apanese
opamine
▁epithelium
ontal
9)
▁32
utable
▁propor
▁0.06
▁500
▁39
otides
carb
encephal
illar
▁biochemical
toxic
▁microscopy
versely
▁differentiated
ecu
▁enl
.9%
▁stimulate
▁cyclo
plants
▁metabolic
▁bic
▁IU
olesterol
▁gastric
▁18
▁potentials
pinephrine
▁targe
9,
▁prolonged
▁muta
▁(1)
▁3)
▁dye
▁omega
oceptor
▁Initi
▁intrac
hydrop
▁preferen
amino
▁ACTH
▁promoter
450
▁polyp
▁0.05)
▁cloned
agic
odil
▁clus
1-
ariate
▁(12
2.
11
stimulated
▁qualitative
0.
ditions
▁ischemic
▁antibiotic
▁prevalence
▁chemically
▁favorable
▁enzym
▁extrac
▁aspartate
▁gastro
adequ
▁stren
enicillin
▁cardiovascular
▁infar
▁hypothal
cribed
ospitals
▁correlated
▁2.9
▁(10(
kinin
▁maternal
▁lith
▁junction
ximal
▁chromat
▁femoral
▁nm
▁allergic
▁resec
▁cyt
▁5%
▁ori
▁quanti
fusion
▁myel
planted
▁13
▁plateau
▁undergone
tase
▁decarboxylase
▁0.02
▁perfused
labeled
▁suscepti
selec
respective
▁intramuscular
urys
ylamide
▁reductase
patients
pir
▁studi
79
seud
▁0.001)
▁drainage
eric
▁Hz
▁spor
▁0.7
▁precursors
tec
▁enzymes
olamine
▁3.7
aemia
opathy
ffin
▁rup
▁airway
▁LT
thmias
▁35%
▁subcutaneous
▁simultaneous
▁72
▁fati
invasive
▁leakage
rosis
oconstric
▁extre
▁yielded
▁62
▁hyperp
eces
7).
sors
▁5)
▁metast
iability
▁cytotoxic
▁captopril
cine
fts
▁assays
▁CG
▁rats
▁potent
▁36
.4%
▁(100
▁Leu
7,
▁Clinical
▁cereb
▁spinal
▁impairment
.5
▁Thirty
onyl
ipit
ergency
vely
▁RR
erent
▁termination
▁coagulation
2;
owel
▁expres
erative
▁numb
▁efflux
tives
▁myosin
ymptom
▁schiz
inemia
adder
▁4%
resist
eptide
overed
▁kine
ocyt
▁tuberculosis
aryngeal
tation
regulation
1.
▁creatine
▁0.25
▁adequ
uting
drug
▁transfusion
vic
chol
athetic
14
avage
urine
▁arteri
▁sci
titis
▁contracep
▁rabbits
▁outflow
▁responsive
▁6.5
▁mutant
▁reser
▁inactivation
▁parame
ropha
gth
iloride
april
▁morb
▁ester
▁apical
hydr
▁differenti
plas
▁immunized
-60
▁0.6
▁93
▁89
olated
▁predominant
cessive
ureus
▁attrib
clic
dle
osin
▁DF
lymph
▁mV
▁satur
▁197
flamm
▁skeletal
▁interferon
cious
▁FSH
ectom
minis
▁spleen
▁EG
ophren
▁anaerobic
rele
▁injections
▁enlarge
▁recurrent
▁glycol
sies
oplasmic
▁frac
▁instrum
▁inten
atation
▁71
mentation
▁microscop
▁sympathetic
▁cartilage
3.
ordance
▁5-
▁76
rates
ulmonary
▁51
trover
▁infarction
▁probes
icine
▁proce
▁transient
▁0
onary
immuno
ropathy
▁mobilization
▁multic
achid
▁histopath
▁10,
adrenaline
▁deli
▁selec
tics
22
▁199
coated
▁2.4
▁regulating
idne
oclonal
▁elu
▁hepatocytes
umerous
-1
spectively
▁normo
osterone
ncy
terase
▁infants
yridine
.1
derived
ritis
anine
otoxin
-14
apamil
▁1985
▁4.8
▁chromatography
▁severity
▁stimuli
27
▁latent
▁nifedipine
▁2.2
▁0.0
coh
▁125
29
osynthe
teroid
▁Doppler
enteric
tition
▁glycoprotein
eared
opres
asone
▁aden
▁ald
15
▁allergen
▁leukotriene
tein
ticular
▁sepsis
aemic
▁recombinant
uresis
▁alanine
▁manifestations
erated
▁affinities
▁bloc
ipro
▁ulcers
▁ECG
duced
▁sedimentation
tingu
▁uterus
▁PB
▁tumor
▁hypoxic
▁underst
▁differentiation
▁cholesterol
▁5'
oxide
▁auditory
4),
▁concomitant
rosine
pine
releasing
▁fibres
dehyde
▁malignancy
ovirus
urgical
▁analges
▁bilirubin
wenty
▁Bac
▁proteins
▁stimulated
▁GnRH
plasia
ionic
▁86
▁gamma
▁disapp
▁melanoma
▁antibody
▁deficiency
▁70%
▁purified
tive
▁organs
tively
▁postoperatively
idin
amus
▁90%
▁(21
roxim
achol
▁histamine
▁physicians
estis
arate
mol
onomic
ensitivity
▁neutrophil
iminary
▁creatinine
▁mitochondr
▁trig
▁incomplete
▁nicot
▁(0.5
acr
▁recor
eded
▁pediatric
53
▁GH
▁erg
▁molecules
▁concom
ithelial
▁prospective
▁obser
lux
▁substrate
▁12,
sulf
▁antiser
▁implic
▁2
23
▁contamin
▁capsaicin
▁(25
▁murine
▁recipients
gland
▁proteinuria
▁cysts
▁unilateral
▁80
tage
▁ech
-13
▁irregular
esic
▁rejection
phal
brom
vascular
-24
2+
helial
LV
▁regurgitation
opressin
▁glutamate
▁vaccin
▁1.6
▁monke
▁sediment
openia
-19
▁52
▁derm
▁erythrocyte
thmatic
idated
4-
▁infarct
▁proton
▁diame
glyc
▁Treatment
▁GABA
▁Americ
▁adenylate
veolar
▁collec
tur
▁blockers
-1,
▁systolic
▁nicotine
azol
ocys
▁equilibr
▁dehydrogenase
26
methyl
ymme
arrhy
▁idiopathic
▁140
▁elimin
▁rhe
88
▁testosterone
▁97
▁8
▁hypothe
bac
▁8-
▁autoimmune
versity
▁lact
lasts
amate
▁thyroid
otide
dia
lier
ayed
▁HLA
phyl
opus
▁simult
▁infil
▁balloon
▁obstruction
▁substitution
tents
trition
▁recr
bearing
▁perox
▁decarbox
▁deterioration
amphen
osal
omal
unctional
▁platelet
▁pharmacokinetic
▁160
▁40
otropic
ethyl
▁medial
▁multiv
▁glucagon
▁examin
tical
▁myc
▁membranes
▁Patients
▁electr
mature
▁clones
cepti
erebral
▁biphasic
▁acetyl
directed
asal
▁12
▁HL
▁elevated
idazole
thmic
▁regimen
/6
▁cortex
▁11
atment
▁macropha
▁controver
▁plas
arbonate
▁microgram
▁morphology
▁interf
▁cavity
acid
▁Hyper
▁0.05
itin
▁IgG
▁islet
▁4.
mL
▁immunization
▁interc
tero
▁mann
▁familial
▁74
▁diastolic
▁potency
▁fracture
adian
genic
▁conduc
-10
▁7-
▁vesicle
tained
ctomy
▁hyperthyroid
▁insufficiency
▁correlate
▁cytoch
irub
▁supra
▁gradi
▁1.9
▁neoplas
ymp
affected
sions
%),
sensitive
▁radioactivity
oxin
▁ejection
onography
7.
▁gradual
tel
endri
▁GTP
ilization
avail
mega
▁somatic
▁antiarrhythmic
olone
▁1.2
▁EB
▁detec
▁gestation
▁6%
▁cytotox
ovascular
▁tach
50
kele
28
▁adverse
▁intravenous
ophag
truction
tradiol
▁BAL
6%)
loro
terminal
▁phag
▁fatty
romy
tention
▁deposition
teroids
▁inhibitory
insulin
▁ACh
tiveness
▁acidic
ostatin
▁discrimin
▁decreases
▁alcoholic
pig
▁2,
▁antagonist
▁dex
▁subunits
▁gon
ogl
▁IgE
