▁urgent
▁strokes
stress
▁80,
▁subdi
cristine
▁exce
▁urea
▁RNA
erum
▁secretin
tyl
▁promotes
ortic
▁plastic
31
ylephrine
▁tiss
▁mesangial
▁polymorphism
itively
1-2
umbers
▁nonselective
▁30%,
tidine
cyst
▁TCDD
▁encomp
▁Laser
▁concep
▁Tryp
▁laser
▁(3.8
▁144
rotal
▁(10(-5)
GnRH
▁lactic
▁ammonium
embedded
▁0.20
▁MCV
-4-
▁emissions
▁cytochromes
▁1.6%
oscop
bloc
+)-
xyl
▁Inhibition
▁lymphatic
▁APC
▁10%,
perme
▁suppressed
erent
▁glut
derly
▁prerequ
ashing
▁degenerative
otriene
▁attenuation
(5
▁Recurrent
emide
gesterone
responsive
▁15,
11.
onatal
deriv
urred
PMA
▁Purified
▁adenomas
▁injections
▁VL
▁cotrans
▁benzo
▁HIV
regulation
▁pathway
▁digestive
▁deficits
▁injur
▁leukemia
▁pregnancy
▁Intra
▁compound
▁onset
rostaglandin
▁silica
▁215
imus
▁neurite
mum
RP
▁glutathione
anadate
▁Acet
▁disturbance
▁adhering
▁fracture
.5%)
▁pyramidal
▁vertebral
esting
▁construc
fused
▁-0.6
▁innervated
▁genomic
opic
▁confounding
ogenously
▁breaths
▁108
invasive
ifed
▁275
▁influenzae
▁PTCA
CHO
▁tension
▁adenylyl
▁nonsur
inic
▁possessing
▁chimeric
nithine
urgery
▁grafted
▁insurance
▁discrimin
affinity
▁reporter
ardized
enicill
ollagen
eminal
▁Hypertension
▁neuroendocrine
▁thrombolytic
filament
▁anatomy
▁immunogenicity
▁alters
▁calor
▁incid
▁nonresponders
ocrine
▁pulmon
▁bup
▁85%
▁HSP
rehen
▁0.77
▁elicit
ensi
▁muscul
▁Fifteen
▁doses
▁(3)
▁PEG
bran
▁hydrolase
▁reticul
▁25%.
▁predomin
▁COOH
▁oligodend
▁titers
▁prolonged
ompan
▁Rates
tussis
▁HB
▁suppor
▁elic
▁spermatozoa
▁MoAb
▁VV
▁asbestos
▁tetrodotoxin
▁myotub
▁behavi
▁exercises
cellulose
▁15.
▁CN
virus
▁Infusion
acr
▁0.75
tiz
▁pulses
antigens
▁delays
▁increments
▁39%
osus
▁1988.
2%)
tenance
kinje
▁potentiation
-60
▁hemo
faction
PMN
▁lysate
▁argues
▁glycosaminoglyc
▁genetic
▁decline
tested
▁thoracic
▁ventil
▁lysates
▁malformations
menopausal
3+
▁weighted
▁1%
▁hydroxy
▁intoxication
significant
▁cistern
▁0.4%
▁25
▁tuberc
▁interacting
rowth
▁asthmatic
▁inbred
MN
tro
▁transfusion
▁sphing
▁spleens
▁ventilation
▁Abnormalities
NV
flammatory
ograp
▁mutagenic
▁retarded
▁employing
tructed
▁Prevalence
sul
▁solvents
▁synthase
▁labeling
▁reasonably
lamy
▁questionnaires
▁PEF
otin
▁underestimated
▁69%
▁retention
▁expressing
odies
▁pectoris
▁demonstrates
▁CHO
violet
▁placent
ateral
▁persistence
▁leth
▁positional
▁Accordingly
▁NG
▁differentiate
itonin
igand
▁10(-1
enicillin
tryp
▁serotypes
▁expiratory
reast
▁57%
▁tricuspid
oplasia
▁114
▁sorbitol
▁eryt
▁histological
▁ejection
▁catheterization
▁ampicillin
▁Tyr
:1
▁nurse
▁acute
▁spermatozo
▁genetically
▁restoration
▁practition
-34
▁213
▁solubility
▁retinoic
▁(10
▁decarboxylase
▁alve
▁endot
ziness
ffec
00-
▁arous
▁diurnal
▁deline
-26
▁remod
▁localize
▁4;
▁fibrinogen
yroxine
▁(21
phosphamide
▁ovid
▁10(-6)
▁ultra
▁intimal
▁vacu
▁globin
▁myopathy
-32
unsaturated
▁0.93
▁mucosa
▁anemia
▁hsp
rophenol
▁235
matched
▁motivation
▁regulation
▁(17
▁Sleep
▁evolved
▁Protection
▁2%
▁cytoplasmic
▁carp
▁7.2
SOD
illary
▁2)
ranged
operiod
▁ICa
▁hypoglycemic
DV
▁excitatory
▁60
▁plac
obac
▁damaging
-4,
▁ionomycin
▁biphasic
▁retrospectively
▁mitogens
▁injuries
aryng
▁hypothal
▁isoflurane
▁isch
▁attainment
Rb
▁1981
▁crom
tigo
▁1.6
▁risks
▁gonadotrophin
▁antiser
atation
▁septic
takes
▁degradation
▁3).
▁triam
odine
/9
▁assays
▁electromy
▁dendrites
▁estradiol
▁FN
glucose
▁autoantibody
urine
▁179
▁striatal
uccess
▁daytime
▁(93
▁metastatic
▁medulla
gran
othyronine
▁quenching
▁diminished
ocyte
▁anxio
▁alcoh
▁Thy
▁LFA
▁lesioned
▁malnutrition
▁Surgery
▁micros
▁Nutrition
abec
amide
▁MBP
▁(1/
iatic
respective
▁uncontrolled
oselective
▁molecules
▁HPLC
oustic
▁IA
▁gonadotrop
▁endpoints
▁malignancy
CAP
mur
urin
▁223
gus
▁carvedilol
▁intrinsic
toph
▁coordination
▁spots
▁bleeding
▁67
lec
charged
osal
piratory
▁anaesthe
uded
▁0.05
▁enamel
illar
▁unfav
▁EGTA
▁Hg
▁failures
examin
▁breeding
▁Forty
▁0.95
▁subcl
phila
▁nucleic
▁strongest
▁laparo
▁persisted
▁56
ifferentiated
▁osmolality
ionate
▁lungs
dT
▁amniotic
▁Throm
umbar
tents
▁Phen
hers
▁bacteria
Gs
▁preliminary
ethyl
nitroso
stimulation
.8%)
obut
▁incremental
osoma
▁Measurement
FGF
▁epid
▁vaccine
▁thyroxine
▁synovial
▁permanently
▁fluc
▁36
▁spectra
▁CK
▁0.0001)
▁prostagland
▁polyaden
▁accep
▁cyto
▁fetal
erebral
▁81%
▁nuclei
▁adhesion
▁managing
orable
▁perc
▁prospective
▁Cumulative
cents
tages
▁mediastinal
▁mmHg
▁phosphorylated
orrh
-3-
ofluores
12
▁cytokeratin
▁achie
5.
erican
▁ventricle
▁nodal
othane
▁tolerance
▁reass
18
(-)-
▁approx
▁diacylglycerol
3),
▁GER
inesterase
letion
▁phag
▁doctors
▁homogene
▁vitamins
▁tubulin
urations
▁mutated
▁compe
razosin
▁umbilical
▁olig
anserin
incip
dle
▁homose
▁indicative
galactosidase
▁conflicting
▁9.7
▁alteration
▁iliac
▁detecting
▁labeled
▁1-4
▁constric
▁ciliary
▁eligible
▁valvular
▁retinopathy
▁singlet
▁protoc
cholate
▁clinician
allium
▁dehydro
esthe
▁ipratropium
▁artery
▁dias
▁parenchym
▁heparin
fluoro
▁0
▁inges
▁predictor
▁0.28
immun
▁116
▁redox
onin
▁amo
▁immunoassay
▁ethanol
▁agarose
imazole
encephalon
▁proximity
▁neuropathy
▁detergent
▁650
▁histamine
+-
▁Glc
▁phyto
entified
▁Levels
▁77
▁Comparing
-27
idity
▁22
▁6.8
▁analytical
tase
aired
▁Addition
angl
abies
▁transitional
▁grades
tinu
ergy
▁spray
▁HM
▁neuros
▁Tissue
▁69
▁plasmids
▁punct
▁nominal
▁infertile
▁determinations
▁bronchitis
fos
▁10(9)
▁(-)
otre
PSP
▁90-
▁Tum
▁polarity
▁(4%)
86
▁PN
▁nadir
▁menstrual
tical
▁phosphatid
▁glands
▁137
▁musc
ocyst
olute
assessed
▁glucagon
▁drinkers
PGE
▁previ
▁(198
▁proliferative
▁carcinogenesis
hist
▁nitric
▁proteoglycans
▁PaCO
pite
▁presumed
▁ovarian
▁steroid
▁cats
▁gonadotroph
▁hippocampal
ucl
▁2).
▁locomotor
acrylamide
▁slic
ariate
▁constituents
anding
▁PAP
▁Plasm
idase
rectomy
▁localization
luent
▁transfection
▁biopsies
▁clamping
▁helic
▁inducer
▁gastro
oxyrib
PAT
ectom
▁megakary
▁disadvantage
▁(72
▁(1987)
▁3/
opeptidase
▁intra
▁confound
▁proteoglycan
▁Km
▁(92
▁0.66
▁forearm
diabetic
aund
▁stain
positive
ipr
venous
▁twofold
oxazole
apamil
BP
▁8,
▁SHR
▁adenovirus
▁HRP
endix
esthetized
▁superim
▁poin
▁thymocytes
▁endoplasmic
graphy
▁hemat
▁indoor
▁ablation
▁ASA
edding
▁reversing
▁5.1
ologists
▁crucial
▁monomeric
allikrein
▁dietary
▁arteriovenous
▁escal
▁recombination
▁SG
▁ECGs
▁infec
▁diazepam
oids
▁thrombosis
▁Lp
uvate
untary
▁ultrastructural
▁TCR
▁evolutionary
0.
▁.01).
▁Sephadex
▁uncoup
-7)
▁Sixty
▁(28
bacter
▁contributes
▁SKF
(2+
▁(41
tices
benz
▁Highly
atally
trating
▁anae
ulitis
▁subjec
▁choles
▁8%,
▁shortened
▁depleted
▁dihyd
▁cultured
icin
elvic
▁sorb
▁IFN
▁onc
▁starch
▁hepatoma
irradiation
▁autoantibodies
▁chorio
▁preoperatively
▁1991
tection
economic
▁peroxis
lasting
ylate
▁steers
esium
▁subcutaneous
▁backgrounds
▁therapies
▁normo
▁obtaining
cture
▁sha
ocysteine
▁glucone
hydropyridine
▁(2),
arum
▁hyperthyroid
▁2.3%
▁glycoproteins
GSH
▁muta
▁hemorrhagic
▁resour
pA
disc
▁hydrolyzed
iliary
▁dysplasia
▁oxy
▁antagonists
▁manifested
uoden
▁surviv
▁1982
vular
sor
triglycer
▁elimination
▁lipid
▁reactions
olab
▁maturity
▁regulator
▁sputum
nucleotide
cnemius
▁differe
entric
▁700
proliferative
▁Dose
▁intox
▁wean
exposed
▁quantit
▁supernat
▁170
thmias
▁stab
▁contamin
ophore
TNF
▁CMV
8),
▁ureth
▁arachidonic
▁centrifugation
15
▁irritation
▁metabol
▁primed
pendence
▁salvage
▁TF
▁vasodilatation
▁examinations
▁205
▁nm
▁tobacco
inemia
▁investigator
yro
▁TI
▁cann
▁abolish
▁deterior
tigu
▁digestion
olerance
▁Positive
▁typhimurium
▁Conversely
▁frog
chloro
▁myofibr
▁staging
tide
▁OA
▁Unlike
loid
▁illnesses
▁halothane
▁0.59
▁(5.0
antigen
▁Experim
▁supr
tle
ondon
▁favoring
ocortex
oneph
▁projec
▁nutritional
▁endometrium
▁penicillin
▁83
▁Nine
▁pyl
oscopy
▁cephal
ulinemia
heres
▁repetitive
glut
▁(3.0
▁9%
▁tow
▁90.
▁neonatal
▁44
▁4.0
otrexate
▁epitopes
▁monolayers
▁Taken
▁insemin
▁stimulator
▁(2
adian
▁fibre
▁passive
Ba
▁upright
▁diagnostic
▁globulin
▁antibiotics
▁islet
▁relieve
erate
▁apolipoprotein
▁MgATP
▁challenges
▁Neurop
dehyde
▁1-3
▁synthetase
3/
floxacin
gated
▁cardiomy
▁organelles
▁pericardial
▁100,000
▁77%
dimethyl
▁encompass
erver
▁selectivity
▁(35
▁transc
▁heavier
titial
▁0.1
onucle
ostic
astatin
rhy
▁pall
alp
eight
▁presentations
▁contrac
▁incub
▁157
▁neuroleptic
▁advances
Nase
ogra
▁92
ctive
▁clinical
▁melanomas
▁moieties
▁10(-9)
.8%
▁preval
olism
iline
ustained
ylamide
▁discus
omegal
▁rectif
renal
▁buspirone
FSH
ylcholine
opulmonary
▁suicide
▁analyzing
▁fluids
▁kinases
derived
▁oxygenation
▁secretion
▁splen
▁verapamil
▁cris
▁mucus
▁rotavirus
▁24
▁pulse
▁progestin
▁CM
▁shor
▁substantia
▁chemotaxis
▁diseased
LISA
▁Glyc
▁hydrop
athe
▁catalysis
▁collaterals
either
▁dyn
▁endurance
▁perioperative
▁immunode
▁astrocy
▁pneumon
▁sten
▁ET
▁phasic
▁contex
▁239
▁neurones
▁bromide
▁degran
▁inflamed
▁ib
▁serolog
▁164
▁necro
▁Incidence
▁paras
▁motif
▁juven
▁1:1
convul
▁hematoma
▁neuraminidase
pyrene
▁30%.
▁thyroiditis
▁hydrophobic
▁adenocarcinoma
▁rectum
▁(62%)
▁vege
▁Urinary
▁undergone
▁800
ophil
indolol
▁labelling
ervated
▁Urine
▁occult
▁ile
▁pyrimidine
hans
▁radiolab
▁1
▁Insulin
▁incontin
▁28
▁appreciable
▁fasted
▁medically
65
▁aerosolized
▁Staphyloc
▁sequential
▁basement
terol
▁fecal
(3)
Sepharose
▁26
▁selec
▁ulcer
isole
adherent
-1.0
▁neutroph
▁shear
▁agglutin
▁gestation
-70%
▁GFR
▁46,
itol
▁corticos
▁Oc
tations
cemia
▁0.01
Gl
rences
▁9)
▁randomized
▁EE
▁(2.5
▁concentrations
▁focuses
nons
oxine
▁responding
▁31
▁fertilization
▁outlined
▁biased
semin
▁larval
▁phagocytosis
/10(6)
▁slowing
phosphatase
▁HI
▁manipulation
▁nerves
-0
▁ADP
tium
▁horm
ingle
▁10(6)
olymer
▁rodent
▁Likewise
▁sca
rection
▁malignant
▁complic
▁MI
▁codons
thood
▁guanine
▁eosinophils
ivation
▁lithium
600
fed
74
▁Plasma
adrenoceptor
▁14%,
▁persists
▁phospholipids
.7%
▁efficac
▁maxillary
abilized
▁pharm
▁fluidity
▁plasminogen
enkephalin
PB
▁10%
were
▁theore
▁subdural
▁qualitative
▁histologically
▁(69
amine
▁molar
▁39
▁Concentrations
▁deox
hydroxyphenyl
▁complexed
ongest
ported
rospor
▁ganglia
icardial
▁pituitary
▁iodide
1-1
tococcus
▁Stro
-35
▁Pt
Gal
5%)
▁0.00
▁utero
embran
▁recurred
▁polymorph
renic
heal
▁lax
▁alternating
mend
▁titr
ses
▁dismutase
▁gastritis
▁albuminuria
▁specimens
ogenous
neph
▁Leydig
imethyl
▁proline
▁allergens
▁(54
injected
▁ESR
▁tes
ometrically
gans
▁LC
▁encompassing
ilin
▁32
selective
▁Pharmac
-)-
▁54%
fentanil
zard
▁carbachol
▁aneurysm
▁300-
-198
▁immunosorbent
▁HBsAg
▁Bone
▁rectal
ncy
▁95%
▁hypokal
▁fist
▁persisting
▁Hepatic
▁moderate
43
▁CRP
atitis
henyl
▁diagnos
▁substrates
▁pathogenic
▁0.21
tries
▁succes
otopic
▁mesenchymal
producing
▁periphery
▁caution
▁catabolism
▁nons
▁HSV
▁3,
▁Coronary
▁PGA
▁manifestations
▁diffuse
▁mesang
▁distor
▁puncture
keto
mber
▁(70
▁Dex
▁deter
▁epithelia
▁ploidy
▁lidocaine
.3
▁Extensive
▁labile
roup
▁heterozygous
ietin
▁metoclopramide
▁adults
idespread
▁45
▁interfer
70
▁Immun
▁0.42
ilic
▁fulfilled
▁41
▁enroll
ostomy
utaneously
▁superiority
oric
▁catecholamines
▁Consid
nthe
hyp
▁80%
▁pelvic
▁vasoconstric
tetrahydro
▁gelatin
rachial
▁somata
caro
▁carcinogens
▁enrolled
▁arterial
▁233
methoxy
ophysical
▁Evid
▁produc
▁correspondence
▁degraded
▁concomitantly
aluation
▁jejun
eptide
tors
▁depolarizing
▁weakly
▁pharmacokinetic
ameth
▁fibrob
atinine
repres
▁inactivated
▁transfected
arean
▁mesenteric
orectal
fetoprotein
▁reacted
▁sustain
▁blotting
▁fiber
▁hyperglycemia
▁peptic
anad
▁3'-
glycerol
▁(32
lude
▁lipolysis
trient
▁truncated
▁bursts
itidine
dominal
▁reversibly
▁characterized
▁sarcoma
▁0.10
▁immunologically
)],
onine
▁(7
▁ald
reening
ulators
▁Antibodies
▁instillation
▁0.18
▁-6
oprim
▁conducting
▁sple
▁retard
▁perme
▁rhinitis
▁excitation
▁glucosamine
enteritis
dose
▁47
▁receptors
fts
▁analogues
▁GDP
▁sulfoxide
▁whereby
▁breed
▁10(8)
OHDA
ectin
▁bp
▁undergoes
▁elastin
ipitation
▁knees
▁0.70
▁256
atid
▁spasm
▁suggestive
GMP
thre
▁occl
▁cholesterol
ceptions
ylon
▁exert
▁ulcers
▁compliance
▁opiate
rae
heximide
▁Chrom
horm
▁Biophys
▁exerts
▁171
silon
▁ketanserin
RD
ATP
▁prednisone
▁exten
▁ips
▁persis
▁restor
▁Prel
terin
▁1).
▁subpopulation
▁diaphragm
residue
▁myeloid
mRNA
gulation
▁Holter
▁acqui
pregn
69
osyltransferase
▁chemotherapy
▁ascer
▁genit
▁cholecystokinin
2+
▁streptokinase
▁nonf
▁withdrawn
FEV
phine
▁heteroz
MLP
▁5.5
▁(1.2
▁exploration
-29
▁propria
▁chick
▁allergic
▁oligonucleotide
▁triacylglycerol
▁twin
controlled
▁currents
▁lambs
myc
▁micron
▁smear
70)
▁clinic
uated
4,
▁addi
oscopic
existing
▁221
ocellular
▁Purkinje
▁suspected
coag
sively
▁NSAIDs
CFU
▁(22
▁(197
anin
▁analysed
▁SMC
▁([3
▁lep
▁LT
tetra
▁aerobic
▁BMI
▁prospectively
mitter
▁lipoproteins
▁reversed
▁sleeping
▁10(-4)
arynx
▁134
▁Functional
▁Invent
▁endoscopy
bred
▁Bmax
▁35-
▁specialists
▁glycosyl
▁alopecia
▁presumably
icide
▁preterm
ATPase
▁conduc
▁Consistent
▁translational
▁98
▁PAF
▁cataly
▁monoamine
▁dissec
onazole
▁hydroph
▁determining
▁intrad
epines
▁3.2
▁progressive
▁duplex
▁nontoxic
usive
▁thrombolysis
▁preoperative
▁neonates
▁neuronal
▁trichloroacetic
iated
roprus
▁epithel
activating
rostenedione
paired
▁occasional
▁radiological
bac
erally
ministration
▁sperm
▁20,000
odic
lactamase
▁Combination
▁salic
ameters
fec
uretics
▁CEA
alkyl
subs
acted
▁laboratory
ytes
▁1.00
macropha
▁provoke
▁conjunction
▁Preliminary
filaments
▁500
▁comparisons
27
▁227
▁descriptions
▁BM
▁228
embrane
oxif
▁departments
▁homogen
ocks
▁preexisting
polar
▁Injection
.3%
▁2-4
elves
▁amine
tified
siological
unar
fluorouracil
icardi
rometry
▁Glut
1;
▁orthostatic
CRP
▁midline
▁Histological
tam
enopus
▁immunoprec
▁halves
▁viscer
▁0.87
ritis
▁innervation
▁(6
atment
tiv
▁dehyd
▁uncom
▁glioma
▁hypoglycemia
▁reveals
terase
▁13.2
▁calcitonin
▁initiated
▁inhib
▁Mortality
rangement
tured
▁migraine
amet
▁0.57
itant
otype
▁abnormalities
unting
▁anxiety
▁1987,
▁ultras
sus
minute
cholesterol
▁7-
▁laparoscopy
▁0.40
▁isoniazid
▁unexplained
▁MH
▁testes
kD
▁124
▁catalase
▁musculoskeletal
antoin
feron
▁1/2
▁MAbs
▁quin
▁glauc
▁prednis
▁favorable
▁30%
▁39,
▁relapses
iscal
▁potentials
▁unlabeled
▁ejac
▁forebrain
▁resembled
4%)
▁abortion
ocial
100
▁ORF
achn
▁follicular
▁ramipril
▁precur
dural
▁pharmacokine
lasts
▁cardio
▁considerations
▁64%
▁pineal
▁diseases
otherapy
▁fumarate
azem
weighted
odop
▁convul
plies
▁socioeconomic
▁fluor
▁distorted
trically
-[
▁examined
acting
ichloro
▁chemotactic
▁electrodes
1)
folate
▁neutralizing
▁secreted
▁overestimated
▁nmol
▁labelled
▁diges
▁stent
▁favourable
▁tissues
41
saccharide
▁89%
▁classifications
▁oxidase
▁eluted
gth
▁206
oreal
▁nebul
▁biopsied
▁seb
▁interfere
▁facilitation
▁quantif
▁3.0
amuscular
▁amelior
▁discharges
▁keratin
oxicillin
▁0.2
▁rhy
▁regulatory
▁hippocampus
tophan
▁NAD
▁Epidemi
(+)
▁granulocytes
▁soluble
clinical
▁amput
▁185
tetric
troph
▁12.0
▁dizziness
ANF
ionyl
▁1987.
▁elevate
ovarian
▁nephro
▁acupuncture
▁Seventeen
▁implants
▁audit
▁98%
▁PCO
▁diz
▁factorial
▁immunoblot
▁LN
▁phosphor
utyr
▁redistribution
▁fistula
tox
LV
▁pulp
▁symme
▁arteriosus
imens
▁cured
▁fluorescence
/20
RH
▁equimolar
ubation
▁restr
▁CB
▁11
▁LVH
tochemistry
▁immobil
▁electrophoretic
▁lactating
arbox
▁aromatase
▁lor
▁feces
▁adhesive
potassium
▁aspartate
fine
uncture
▁morphine
Leu
▁65
▁coupled
▁15.8
▁hypotheses
dopa
▁Caucas
proteins
dies
▁arises
▁peritoneal
▁validated
▁immuno
▁etiology
▁(20
▁gonococcal
▁231
▁experts
▁reticular
▁mating
▁Seventy
ellular
▁peric
▁amygdal
▁TEA
▁inflammatory
▁protec
▁Gluc
ubiqu
▁hemoglobin
estern
▁trachea
▁Eleven
medicated
▁keto
▁potencies
▁microcirc
▁zinc
osyl
▁determines
enriched
▁8644
azole
▁WGA
▁mitotic
▁18%
▁refractory
rocytes
▁grise
▁prevention
▁seques
▁0.001)
overed
ophen
▁MK
▁arteriography
quine
galact
▁NM
▁tear
▁BL
▁immunod
▁Rating
indings
▁10(-5)
ropath
▁carbonate
99
arcoma
▁semen
▁correspon
▁hypotonic
▁gyr
▁painful
struc
▁2),
▁4%
▁differentiated
▁Aden
▁6-
▁supplemented
GI
▁10(7)
▁enlarged
▁papilloma
angerhans
HETE
▁underst
▁epilepsy
▁chromatography
▁mammals
▁purification
coup
▁ech
▁exon
▁Subs
oluble
hypertensive
▁CAP
▁antenatal
▁cardiopulmonary
-21
▁21.
▁synthe
▁mEq
▁lovastatin
▁differentiating
▁270
▁perfusion
▁ventral
▁arrhy
▁0.60
▁.01)
▁apoprotein
alcip
▁FSH
▁alumin
▁tracer
onad
▁aryl
-7,
vices
iotics
▁(27
▁arterio
▁signaling
▁compounds
phthal
▁EIA
PKC
iosis
▁carpal
▁bronchodilator
▁vasopressin
▁tetracycline
▁0.12
▁resonance
▁arthritis
▁theta
▁echocardi
▁enhancement
amisole
0.6
▁antipsychotic
cardi
teroides
reactive
▁(19
▁substanti
tec
▁membrane
ygo
2.
▁crossover
▁acinar
▁intral
▁microscope
▁captopril
▁admission
uginosa
▁tol
▁clu
▁cyst
▁bolus
amily
▁basal
▁endocrine
nitro
▁cisplatin
BSA
labelled
▁methotrexate
▁outcomes
▁(58%)
▁197
strand
schemic
▁skull
▁TG
▁7%,
▁62%
atient
idating
▁MLC
▁42
▁105
▁estrogen
▁acces
▁herni
▁regulating
▁routinely
▁anesthesia
endazole
▁0.001).
atase
ivariate
▁condensed
▁CRF
▁asbest
ilibrium
▁mutagenesis
▁salivary
▁steroidogenesis
▁241
▁32%
olateral
▁1960
▁reflecting
▁caloric
cotic
▁ppm
▁DSM
▁10(-3)
▁.001).
erop
▁microtubules
▁disturbances
ilol
85
▁sulfhydryl
opecia
ranolol
▁diarrhea
▁hematologic
-200
acyclin
amethyl
▁poli
pran
▁sonic
8%
▁antinoc
18)
Hodgkin
▁adrenergic
▁molecule
oes
ureth
▁sonography
▁Protein
▁indeterminate
7-
▁infiltrating
▁17.
▁mildly
▁dissoci
butamol
▁adduct
▁envelop
▁hyperther
imeth
▁polycystic
▁dose
▁strom
▁valpro
ecu
▁instrumented
▁biotin
▁8.0
▁WHO
▁prematurity
▁intense
▁thyroidectomy
▁consul
▁0.13
▁(36%)
▁averaging
60
enching
▁nonfatal
▁lipophilic
▁nutrient
▁stret
.2%
▁critically
openia
2/
▁supportive
farction
▁couples
ayers
▁precipitation
▁postpartum
kine
apid
▁ester
▁mM
tember
ipher
▁manifestation
▁transepithelial
▁esophagitis
thma
▁descriptive
1).
▁researchers
▁measuring
▁schist
▁encodes
▁circumference
alb
▁adjustment
▁1.2%
▁astro
ELISA
uary
▁34
▁100,
▁splenic
phosphon
▁Exposure
admill
▁sterile
▁cessation
ochem
iplinary
▁sclerosis
aminoglyc
ifferenti
▁HA
▁inversely
▁MRSA
▁chloramphenicol
rosine
▁192
agittal
▁structural
▁erythromycin
▁adjuvant
ervo
tract
▁psoriatic
▁excretion
cephalic
mented
▁gly
nine
▁antim
▁phenylephrine
ipine
▁heifers
▁rotational
thase
▁glucocortic
clin
adenosine
loxacin
oidal
semb
phorbol
▁EG
.3.
electron
▁antigen
▁balanced
▁conclusions
▁endemic
▁0.58
▁outlet
▁attain
omatic
▁bradyc
posing
40)
uronium
▁Epid
▁dendritic
amel
▁-0.
▁gyrus
▁180
▁commercially
▁CCK
▁fetus
▁dimers
frontal
oyl
▁seroton
▁nicot
▁confers
▁FFA
etine
▁extre
▁endometrial
▁histologic
▁(1.9
▁trabecular
pressing
▁9.2
▁102
ithium
▁diagnosing
▁neomycin
▁dispersed
▁myocardi
▁colony
▁uro
▁polyclonal
▁(4.0
onyl
▁1000
▁142
▁investigations
▁Kupffer
▁implicated
▁GRF
▁octa
▁lysine
▁measurable
▁cytos
-90%
▁75%
adequ
leukin
ordance
▁homologous
▁immunoglobulin
▁perikary
▁blinded
orin
restricted
▁leukemic
▁arb
blind
▁competence
▁ratios
▁amn
helin
eradish
filtration
▁uridine
AFP
▁exceeding
▁reproducibility
▁shortening
▁trunk
affin
maleimide
▁nox
conver
▁resec
98
GF
▁lis
▁mutans
predic
▁antic
▁Evidence
▁activator
▁retrograde
▁stationary
oposide
▁baro
▁restric
▁norepinephrine
ographies
▁progn
▁Symptom
▁Statistically
suppres
▁Patients
helix
ocalization
methyl
▁genotypes
▁granulocyte
epid
▁14-
▁supra
▁150,
▁mothers
/4
accharides
▁termed
▁tolerated
▁Angiotensin
▁deduced
▁stools
omers
estive
itr
yste
▁antagonism
/8
▁favors
▁20
erated
▁ventric
▁chimer
▁reproductive
vitamin
▁serological
▁thalamus
oxane
grees
topril
▁barrier
▁coronary
eroxide
▁0.025
rested
ocytopenia
▁epithelial
▁expenditure
▁osteoarthritis
▁PAH
▁600
▁inoculation
▁enhances
▁outs
apeptide
7%
6)
elec
▁albicans
▁polymyxin
▁circumflex
▁surround
conjugated
achol
▁spine
oprote
encl
▁epicardial
dihydroxy
▁identif
▁100%.
▁immunocomp
▁VO
ocytochemistry
ervoir
▁spirometry
▁sialic
taken
▁0.79
anavalin
▁presum
▁ultrasound
▁menopausal
▁hypertrophic
oea
▁hazard
▁abscess
▁GE
benzyl
▁intest
▁pene
▁(500
▁radiolabeled
lowering
▁parenchyma
12.
▁0.03
▁proximal
▁UV
▁152
▁ligament
▁postprandial
▁clus
▁LDH
▁babo
sorb
otoxin
thel
-600
▁descending
▁fric
adjusted
▁ACTH
▁lymphadenopathy
▁(9
▁76
gthen
▁(0.9
therapy
▁lowers
▁possi
▁abd
▁cysts
▁controversial
apanese
EMG
▁bac
▁hazards
▁muc
▁intravascular
-5)
ductase
▁doubled
▁clindamycin
▁altering
▁poorly
amole
39
▁95
▁chond
▁analges
▁questionnaire
▁ductal
▁docum
▁subjective
▁4-5
avail
phragm
▁18-
atized
▁chow
BG
▁filament
ithelial
gely
▁immunoreactive
▁alkal
ydig
▁elicited
▁amplification
▁perox
▁0.34
▁neoplasia
▁unusually
▁phosphate
▁modeling
▁couns
seud
reported
▁isotonic
▁cirrhotic
fatal
▁chym
▁Individ
▁Oral
trial
▁worsened
rague
▁[1
-3
tact
▁recombin
▁arachid
pretreated
▁epidemiologic
uates
▁2
echan
inyl
▁analogue
-6-
▁vasodilation
▁responsive
iruses
iable
▁dosage
▁(1).
▁resolving
▁actinomycin
▁substitutions
▁neo
ulcer
▁240
ealand
aventricular
▁relaxing
▁aeruginosa
▁seizure
infection
xual
▁prednisolone
▁articular
▁Dip
▁underg
▁negatively
omical
▁linearly
HIV
▁135
▁dorsal
▁nonlinear
▁microtubule
viral
▁frozen
▁acini
▁operative
▁conditioning
▁colos
▁cooper
▁tumors
▁cuff
asses
idol
vents
▁1.3
ophag
▁endonuclease
▁FGF
▁Extr
-9)
▁Strep
▁phagocytic
▁blockers
▁humoral
▁Statis
▁cytometry
atinum
▁grafting
▁REM
▁136
▁drinking
▁reliably
▁progression
agic
▁triphosphate
▁ultrac
▁EcoRI
▁Assessment
▁3',
▁chest
▁modulating
▁seated
▁(1,
▁interacts
uprofen
▁antidepressant
▁brainstem
▁specialist
otoxic
▁TCA
▁accordance
.0%
▁3-4
▁corticosteroid
astolic
▁trypsin
▁9
▁anion
▁RR
52
iability
rogenase
▁neoplas
+/-
▁linkage
▁BW
▁Retrospective
▁adequate
▁outbreaks
▁expec
yrib
tionally
▁augmentation
▁[125
▁12,
▁Pretreatment
▁(32%)
▁pups
uron
▁gonorrh
▁ATPase
▁intracranial
▁desaturation
arose
▁ICI
ylated
▁79
▁293
▁(89
▁atri
▁RNase
erating
tized
▁intakes
▁analyses
lymer
▁pHi
▁oes
viruses
▁antioxidants
zation
▁adolescence
▁bronchial
▁Estrogen
▁natriuresis
▁tolerate
▁crest
▁modulate
adrenoceptors
▁plasmin
▁gilts
▁exogenous
▁estrus
▁hyponatremia
emic
▁disruption
▁20%,
▁benign
▁impair
▁tetanus
▁neurotensin
tinent
-24
▁CAL
▁31%
▁308
▁luteinizing
▁negligible
▁6.1
▁castrated
▁Elevated
tics
▁pore
▁(31
ylic
▁162
▁INH
farin
▁odds
▁pregnant
▁6.9
▁interpretations
terologous
▁roentgen
▁0.62
vian
▁1.15
▁Impro
▁160
▁mono
idym
▁androgenic
▁outbreak
▁295
carotene
baseline
▁contraception
olated
▁alleles
▁fractionation
▁myo
▁(60
▁deletions
tabol
▁competi
ocytic
▁sexes
entanyl
▁vesicles
▁angiotensin
▁177
hea
▁nephropathy
3,
▁20-
▁digoxin
▁ventricles
▁Overall
gestin
▁PCP
labeled
▁enhancing
▁smoking
ugular
▁vasoconstrictor
▁sensitivity
▁(100
-16
▁Morph
▁3.1
molec
gol
▁triglycerides
49
▁transmural
reducing
▁2.4%
-17
▁cytoch
▁CoA
▁(97
ystag
18,
-1,
▁nitro
▁mAb
ressed
plicated
▁hydrochloride
▁1,25-(
▁(0.0
▁Pregn
ocompatibility
▁11.8
▁depolarized
▁LTC
cycline
▁hairs
-13
▁angina
consuming
rox
▁pH
▁MG
emius
▁diploid
▁radiotherapy
▁infectious
▁carbam
▁hGH
carboxy
▁fibroblast
ymp
romal
▁dB
rescine
3'-
▁vivo
imol
929
▁53%
idium
tingu
▁NaCl
▁cleavage
▁excitability
▁FEV
▁conjugates
▁cascade
▁gallbladder
▁nonex
▁anatomic
▁categorized
▁aggregates
▁recurrences
phenylalanine
▁derm
▁grain
tRNA
▁17
▁CVD
perature
▁piglets
▁(44
▁nylon
▁saturation
▁regulations
▁inh
▁atropine
esic
▁mechanisms
trig
▁AMI
▁adaptive
▁survive
▁infil
▁tryptic
▁PSA
▁Authors
▁posi
▁Biochemistry
73
▁interviewed
tituted
▁viral
▁triti
▁12.5
▁paroxys
▁agglutination
▁myel
echn
aminob
▁(0.
Ly
resist
▁fibros
▁individualized
Asp
▁151
▁118
▁heme
chlo
▁colonoscopy
▁adjus
▁determinants
6),
▁145
▁LPS
▁carbonyl
▁enriched
inducible
yridine
▁cefaclor
▁accessibility
▁Significantly
▁(34
▁attributable
▁establishing
yron
▁excluding
▁bradykinin
ADP
▁spacer
▁Animals
rogesterone
armac
amido
▁virtually
endocrine
▁antiv
ximide
▁carbohyd
▁revised
▁unrelated
▁aeros
▁employment
catalyzed
▁264
diabe
▁5.7
ulates
▁pharmacists
▁warrant
9),
5),
thmic
▁centr
▁laparotomy
cutaneous
▁condens
oporosis
▁dox
▁causal
▁10(-8)
cortic
▁serine
▁milder
tigmine
4)
▁ultrason
▁Ace
▁axons
▁yeast
▁questionnai
organic
▁attitudes
▁electrocardi
▁doxycycline
▁cytochrome
▁Krebs
▁0.69
obl
▁GnRH
cellular
10
▁pyro
▁resc
iesis
▁averaged
▁erythropoietin
▁programmed
inum
▁hemolytic
▁Secondary
▁bicuculline
▁paradig
atoid
-5'-
▁bism
▁myocardial
▁AChE
▁achieving
ubertal
▁kd
▁0.65
glial
▁PDGF
▁dyst
-[3
ieties
containing
▁bloc
▁subgroups
▁kain
▁aorta
▁EA
▁puls
▁ultrastructure
▁2.8
▁BV
▁13,
▁100-
▁mammography
HF
azol
▁carbox
▁genes
▁TGF
▁PLA
protein
▁ultrasonic
▁10%.
▁stained
helial
gland
▁inguinal
odiazepine
▁specificities
▁antioxid
▁100%
tance
▁amlodipine
▁exhibiting
▁oligosaccharide
▁sput
▁emo
8).
▁deem
▁reliability
▁anaemia
▁61%
ercul
▁abor
▁Dental
▁antifungal
▁prenatal
occus
▁apoB
ympathetic
▁irradi
-8
.00
osclerosis
▁brom
jected
▁ICU
ffeine
▁159
▁2/
▁ciprofloxacin
▁nonpregnant
▁evidenced
▁initiating
thmatic
▁controversy
tissue
▁eradic
▁10)
▁doubling
▁nerve
▁transmitted
▁RU
chloride
▁etoposide
▁metals
▁intensive
%),
-1),
▁208
thanol
cancer
▁sti
ejun
▁nephron
3;
atories
minal
▁syndromes
▁fold
-2.
enal
▁anticholinergic
▁epileptic
▁4000
▁disrup
4),
▁Fib
otropin
▁compli
▁perip
alasin
▁0.05).
disciplinary
sibility
IIIa
▁endocarditis
▁aureus
▁Comparative
kephal
torchid
▁radiographic
▁carriers
▁anatomical
▁parie
▁Combined
▁fructose
mortem
ographically
▁thymidine
▁autop
▁retardation
▁blast
▁ascribed
▁rodents
▁needle
▁PH
▁ileal
▁transcribed
▁silic
/2
▁genic
▁comparable
trover
rotic
▁homolog
aicin
amyl
▁excised
▁plas
▁Fc
▁dermat
▁traits
▁peroxidation
▁survivors
000,
▁1),
▁heterosexual
▁ascites
▁Hear
▁fractures
▁Dys
▁155
▁refrac
▁loci
apride
▁membranous
oxid
iatric
umulative
tron
▁biom
000
▁accounting
5-
rals
▁corneal
phage
synthe
roxicam
orubicin
▁90%,
▁commerc
▁Recently
▁cartil
opolysaccharide
▁117
▁7,
▁pati
habil
tisol
▁unfractionated
ration
tur
hesus
▁CCl
▁covalent
▁frontal
-2.0
▁fertility
▁Finnish
▁knee
▁infarct
trition
▁aminoglyc
▁(75%)
▁hygiene
▁clom
▁PD
adrenal
▁correlating
rophen
▁sensory
▁apparatus
4;
▁tube
▁diphen
▁emergency
▁tetr
▁practically
▁146
tively
▁moiety
ammon
atous
▁Various
▁erythrocytes
▁iden
▁anesthetized
operox
▁autopsy
▁potentiated
▁appendicitis
▁cGMP
xia
▁antigenic
▁biologic
nRH
▁bleomycin
omegaly
▁parat
▁monkeys
LPS
8;
▁panic
▁reproduc
▁erythema
AH
propyl
ylline
▁organs
estradiol
Hg
▁mimic
▁microns
▁Hib
imidine
soluble
▁codeine
velength
ogeny
▁immunoblotting
▁overlapping
▁tooth
▁recordings
ulline
▁spherical
▁2.6
▁mutagen
▁relaxation
▁viscosity
▁Triton
ystolic
▁rabbit
▁mobilization
▁antibodies
▁clues
PAGE
▁lymph
▁DL
▁hypothe
▁unin
▁hyperb
inating
▁medullary
▁Antibody
▁chromat
▁9.0
▁(1989)
odg
▁subpop
▁rats
▁fertil
rolog
▁(14
▁experiencing
▁anteced
48
▁seminal
lamp
▁repor
▁hybridization
ulph
▁0%
▁compressive
april
▁mature
TG
MV
▁perikarya
.1%)
▁consensus
▁amplitudes
▁PMS
asone
▁remarkably
tenosis
▁Continu
.6,
▁myosin
▁positivity
▁123
▁intrap
ulence
umetanide
▁prol
odermal
▁myocytes
▁desm
▁PaO
iodo
▁PPD
▁Eight
-18
▁Parkinson
▁hyperch
▁DMSO
▁4.3
▁bacter
▁CsA
▁multivariate
▁effusion
▁wedge
atidyle
amphenicol
▁inactive
(4
icep
▁coated
▁oils
oracic
kling
▁histidine
▁methylene
▁Scale
titutes
ymme
cytochrome
▁Michaelis
▁aneurys
▁scinti
entical
arone
▁microorganisms
ceptive
trop
▁secretory
dibular
alact
▁pretreatment
▁physiologic
sulfate
5,000
▁distinctly
ysts
562
formin
▁ineffective
erative
oxic
▁46%
▁psycho
▁AII
▁posti
58
▁libr
▁transmembrane
▁40
▁thickness
▁summarized
tabl
▁bFGF
▁cryp
tile
▁bombesin
trip
▁expend
▁acoustic
▁shunt
lesion
▁transit
▁perit
▁(20%
▁inhalation
▁esters
▁dete
▁neoplasm
▁5
▁stabilization
83
acil
▁imipramine
▁196
▁acuity
▁thorac
iary
▁sciatic
▁leukotriene
▁cep
▁0.6
-14
▁reflexes
▁intub
▁MN
aned
veness
ept
▁aggressive
▁pI
▁cef
▁accidents
▁adop
▁dichroism
▁hepatocyte
▁transient
▁gamma
▁transcript
▁overweight
▁perfusate
▁adoption
▁retic
▁deformities
reased
▁undere
▁DBA
▁bilayers
ygen
▁cyclosporine
▁gels
▁LD
▁septal
▁48
▁reserpine
19
6.
▁SPF
▁transi
estis
assays
▁bip
▁mechanically
▁antithrombotic
▁57
▁regeneration
▁antiviral
primed
▁compares
▁nitroglycerin
2+,
rostagland
▁40%.
▁discontinu
▁epitope
itoneally
▁attitu
▁clinics
▁hemodynamics
▁Centers
osage
neoplastic
idone
athiop
▁microgram
▁retrospective
87
▁blots
alian
▁prescription
▁enrich
yrene
▁mamm
▁cytokines
NGF
▁quotient
▁molecular
▁severely
uretic
▁prevalent
SBP
peptide
▁transverse
▁hemag
▁vitamin
matic
bodies
acholine
▁adversely
-3,
▁peripheral
ischem
▁hypotension
▁titrated
▁cardiovascular
▁tendon
▁neutrop
depleted
▁morphological
▁incorporation
rected
▁intranasal
wes
compared
iodothyronine
rele
▁consciousness
▁weakness
▁immunocyt
▁PDE
andros
▁symp
▁53
▁shorten
▁dilated
▁Clin
▁cortic
▁pressor
oreactive
idation
▁yearly
▁cardiomyopathy
▁cyan
▁RP
▁institu
▁recessive
▁adriamycin
▁irrig
▁pmol
▁topical
▁thems
▁LH
▁macromolecules
aldosterone
▁Renal
risk
▁activate
icient
osome
phosphorylation
▁offspring
▁concom
▁sinusitis
▁subunit
▁fentanyl
▁(1.5
▁ferritin
▁0.8%
rates
serum
▁feeding
▁wk
-1).
linking
olesterol
▁intercellular
▁shifted
▁4.6
oblast
▁344
▁Depression
▁nif
▁microtub
▁nondiabetic
-6
ophila
▁irrigation
omes
▁postinjection
Mu
Mg
▁acros
▁ventrolateral
▁reactivity
▁soy
enteric
▁anastom
▁(7%)
tryptamine
▁attenu
25,
▁interferon
▁angiogram
ungal
▁contracted
▁Neither
▁66
▁spectrin
▁embryo
aminidase
▁jaw
orated
▁BH
▁FE
▁0.36
▁coenzyme
competitive
▁phosphoinositi
▁deprived
▁inhal
tained
▁neon
▁supplements
▁symptoms
avage
ceived
▁adip
54
ygous
▁ubiqu
▁algor
oplasmic
▁4
▁67%
▁papill
▁likelihood
bumin
▁continuation
-400
▁scars
▁erythrocyte
vedilol
▁fatty
▁saline
▁9.5
▁cardiople
▁lysed
▁1989,
▁1969
▁postmenopausal
▁professionals
olution
▁ovary
inated
▁consecu
▁inotropic
▁deficit
▁mAbs
odds
▁pronounced
▁lymphomas
▁chlo
lycerol
▁killer
▁cholinergic
▁borderline
ocortic
▁lymphoid
▁provoked
thickness
0%.
omeric
.0,
▁TRH
▁renal
tran
tochem
-8-
vation
▁Sout
▁ferric
▁fulf
▁43
bic
limb
onset
▁Sulf
buterol
▁MIC
esides
otox
▁acco
▁catecholamine
▁parity
ysto
22,
plications
ucose
/30
▁multis
mediated
▁muscular
▁nitrogen
▁tet
▁mmol
▁pertussis
▁dextro
▁3)
ogeneic
odiaz
▁aor
▁cytokine
ietic
▁0.05)
anesthetized
▁untreated
13
otonic
▁tumorigen
▁agonist
chicine
-5.
▁EGF
▁cysteine
utyryl
▁emptying
▁(+/-
otom
▁amiodarone
▁entero
▁avoidance
▁AFP
drome
▁streptococci
azin
▁vaccinated
▁Prospective
▁MAP
▁encouraged
glycoprotein
▁stimulates
lective
▁strepto
▁eukaryotic
orporeal
▁elucidated
▁38
ternational
▁pediatric
▁156
▁unpredictable
istal
roma
▁substituted
ogenic
▁nicotine
▁Cycl
▁drain
▁Large
▁gonadotropin
▁bacterial
▁attrac
▁130
▁morb
trous
▁creatinine
▁pea
radi
▁gradi
▁remn
▁0.97
▁Calcium
tyrosine
▁myometr
.6
▁mitogenic
▁reflux
eliac
▁endogenous
▁gradual
▁pig
▁Trp
▁encour
yramine
▁survived
▁collec
▁clamp
▁7.3
▁intrac
mide
▁ingested
▁23,
▁ventilated
▁mammary
sian
▁fibrous
▁weighing
osity
▁adjusting
▁Examination
▁identi
▁norfloxacin
▁(33
▁prosthetic
-1
▁theophylline
▁determinant
imid
mental
▁1980
▁litter
▁adenocarcinomas
▁hypothetical
▁substrate
▁Sertoli
▁choroid
▁placebo
▁cloned
▁5.
▁2.2
▁ward
gm
)2
obarb
▁deferens
▁antithrombin
▁Interestingly
▁autoradiography
▁ethical
▁spp
▁58
imentation
▁polymorphisms
▁Diff
aturity
trone
parag
▁subfractions
▁canine
▁0.41
ergency
xanthine
▁deficient
▁TP
▁porcine
▁guan
▁microsomes
▁chromosomes
▁70
lue
▁Maximal
▁cutaneous
▁tricyclic
▁mening
ubicin
▁ascertain
ensitive
ochondr
▁cited
thymidine
▁0.08
cad
glutination
▁panc
-4
▁EBV
▁virul
▁hyperthyroidism
▁quantify
schem
▁indomethacin
.1)
insensitive
▁Registry
EPs
▁excre
▁3.4
keleton
▁hrs
iaz
▁projections
▁renovascular
xone
▁inappropriate
othiaz
▁emerg
specificity
regn
▁HS
▁eosinophil
▁sclero
gluc
▁(31%)
systolic
orption
purified
▁prono
▁conformations
▁thrombotic
▁172
.5%
▁recognizing
▁Immunohist
▁measles
▁Lyme
▁progenitor
▁respiration
▁cleaved
▁catalytic
▁leukocyte
liters
▁centrally
PCR
▁GMP
conversion
▁periv
▁103
▁concordance
tially
▁bic
▁minority
▁aromatic
▁proteases
▁fetuses
▁4.5
aminophen
▁Fourteen
▁incompetence
23187
▁decade
chlorothiazide
▁asymmetric
▁randomization
▁cran
▁quinolones
▁nal
▁99%
▁inflammation
▁continuing
▁motility
nutrition
▁resuscitation
▁HLA
▁capsaicin
▁correlations
rought
▁0.49
▁relaxed
▁shedding
▁ulc
tise
▁extraction
▁necrotic
ovol
▁pyr
▁Kup
▁kilobases
▁stratum
▁unsuitable
▁75-
▁beneficial
▁Injury
▁arteri
icated
▁(95
▁typh
▁(3
▁skinfold
tural
edle
▁preparations
▁hep
▁6.
▁kDa
▁phosphorus
facial
▁hindlimb
dial
▁phospholipase
▁optimally
acycl
▁consumed
0%
▁(50%)
▁neutropenia
▁enal
ymptomatic
▁hepat
▁11%
0%)
ostatic
▁nitroprusside
omod
severe
▁psychological
▁NT
▁cohort
▁harmful
322
terolog
tional
▁waveform
▁Incubation
▁aluminum
-1.2
sorption
partum
degree
▁circulating
feren
▁medications
▁0.91
▁intrag
tocin
9,
▁1500
▁adipocytes
blockers
▁WK
▁discriminant
irds
▁discontinued
▁anaerobic
ethanol
ospecific
▁curative
▁94%
units
5;
▁murine
iliated
▁spi
▁Estim
▁Recom
▁infected
▁RII
▁apprec
▁.1
▁shaft
ipheral
▁immunoprecipit
▁buc
ystic
▁cis
▁transcriptional
ocyanin
.0
ducts
-2.5
▁peaks
estrogen
▁enrichment
Ev
▁elec
▁implying
▁Peak
-22
namic
terminal
▁tidal
▁arrhythm
obenz
strual
▁cellular
restingly
▁matur
▁PLC
ositive
▁rated
inhib
▁cytology
uation
▁113
▁50%.
urgical
▁cortical
▁metronidazole
sectional
PAC
▁bronchoscopy
▁Recent
▁latency
▁0.71
▁71
ocytes
▁abnormality
▁envelope
▁vacuoles
▁epilep
urospor
61
rein
dii
▁Subsequently
tage
▁experimentally
▁thereafter
▁satisfactory
ocytoma
deoxy
sial
▁(50
▁10.0
▁outward
▁crosso
▁circadian
▁myrist
▁mild
▁suspicious
opathology
▁nursing
▁0.3%
▁filaments
hospital
▁Chlamydia
▁interference
tak
▁5.8
asive
icides
▁unde
▁murmur
▁(15
▁fulminant
▁pyel
400
▁eminence
▁bacteremia
▁propranolol
▁suspensions
Pen
▁hapten
▁laboratories
▁cardi
molality
▁microscopic
fluo
epam
alveolar
▁HDL
abbit
▁heparan
▁tumor
ximal
▁consequently
▁defic
arity
▁junctional
.2%)
sAg
▁polyc
▁preoptic
▁0.1,
▁assessment
▁Adverse
▁benzyl
▁weekly
▁apical
▁Respon
▁inhibits
▁90
▁identifying
▁8%
▁increas
▁tablet
sors
▁marrow
▁unm
▁3.
▁intensities
▁displ
ohyd
▁78
formations
epti
aced
▁14
▁83%
▁adequ
zyme
▁decarbox
▁Leu
▁births
▁placement
▁osteoporotic
▁methanol
▁intrav
-52
▁kinetics
▁metabolized
grams
▁hemisphere
rogra
iciencies
▁abnormal
▁dioxide
▁HC
▁Neuro
normally
-20%
inely
▁DHEA
▁8.2
retic
▁Prevention
▁optic
stained
trical
promoting
▁islets
▁dimer
▁amines
oplas
▁phosphoryl
rozen
▁thiol
oglut
/5
▁favored
▁acad
▁trimester
▁awa
▁dialys
▁colic
▁acidification
▁emin
▁ubiquitin
▁lens
▁8
▁50
yzed
▁sut
▁calculi
10,
▁discrep
▁doxorubicin
▁CIN
-450
▁thyrotropin
fron
▁clotting
tense
▁Absolute
▁ey
dotoxin
vus
▁20)
▁monoclonal
teric
▁cranial
▁tubules
venty
▁treatments
natal
-1-
▁expectancy
▁40.
▁wake
onium
▁macroscopic
▁8)
▁Kinetic
▁atmosp
-10
▁0.23
▁lorazepam
▁anaesthetized
ensities
▁(-)-
▁GLUT
▁melatonin
▁theoretically
▁0.55
▁195
othelial
▁aggregated
▁Hyd
▁transferrin
icine
roline
▁conjunctiv
▁valves
sess
▁2,3-
▁pA
▁ure
62
▁cytogenetic
▁BMT
orpor
▁10,000
▁omega
▁osm
▁discharged
▁109
cine
▁fathers
▁[3
geneic
.7
▁comprise
▁transporter
▁cofactor
▁.05).
▁follicle
▁endocardi
▁findings
▁2.3
▁11.
▁aggres
▁HR
▁cadaver
amn
tir
turally
▁188
:3
▁benzodiazepines
▁EMG
hap
▁neurop
▁(38
▁noc
▁glutamic
▁Sodium
-38
▁AK
ocytosis
▁BCG
tib
▁PF
▁dipyridamole
▁erythropo
▁vagotomy
▁retinol
tants
perfusion
▁Organization
riamycin
▁gynec
▁distal
cycl
▁elast
▁elongation
125
▁methodology
▁unsaturated
▁relieved
▁dissemin
▁positives
kinase
enin
▁hybridized
aspartate
▁terminals
▁regen
▁reser
VT
▁14,
▁acr
▁0.44
▁ether
▁appropriately
▁pump
▁femoral
▁microscop
▁cyclo
▁anis
quir
▁dissection
eration
▁187
▁4.7
▁overex
▁canc
▁scl
▁decreas
▁histones
▁psychiat
▁deterioration
esity
astom
▁sensitization
▁dosing
▁metabolism
tally
▁cerevisiae
▁enzymes
▁promp
▁evaluable
▁morphometric
▁superoxide
exercise
▁vibration
▁sutures
aturia
▁56,
olip
▁codon
▁fused
glucosamine
▁modality
actam
▁originating
▁juvenile
▁markedly
traum
▁chromatographic
▁-4
▁subarachnoid
▁cerebellum
taz
▁inverted
▁OC
conduc
▁dial
thirds
osarcoma
▁MHC
▁spind
▁euk
▁Eighteen
▁functioning
▁disclosed
atening
▁(18
▁nights
▁contiguous
ysm
▁specialized
averine
▁87
▁fluores
▁4.8
▁27,
crip
▁mumol
▁dithi
▁vWF
▁MAO
▁indicators
iloride
plic
9).
▁5.2
▁synchronous
visc
▁Thir
agonists
▁propionate
▁calcified
▁sarcolem
▁exclusion
carbon
▁microvilli
▁therap
▁GSH
ignant
lipid
▁ethnic
▁positioning
90)
anthine
▁disability
▁metabolite
▁syncy
organisms
ogl
▁hypnotic
▁recombinant
▁permeation
▁interventions
▁endotoxin
▁voiding
▁VIP
▁hepatic
▁calibr
absorption
▁Ia
▁melanoma
▁saturated
▁basolateral
▁relap
▁logar
heat
▁dehydrogenase
isters
▁cytotoxic
▁abrog
micro
30)
uminal
▁astrocytes
umented
▁radioligand
▁ligands
▁cortisol
▁validity
▁homozygous
▁chronic
vac
▁isoform
▁Hz
▁phenomenon
▁alcoholic
▁Computed
▁(1
2+/
erence
▁urine
illance
▁distinctive
▁dehydration
▁mosa
▁thrombocyt
▁Eco
▁72%
▁elevating
ficial
aminop
▁neurites
▁gluten
▁abnormally
▁40,000
▁antich
toxin
algia
(+)-
tiazem
▁Bec
▁migrating
▁insignificant
▁uremic
▁Lact
▁hormonal
▁dialysis
iceptive
▁78%
tite
▁undetermined
▁abolished
▁meals
▁glutamine
▁(11
▁fulmin
▁isop
▁overlapped
iron
▁VH
▁haplotypes
▁indus
▁stimul
▁parenchymal
opathy
ocardial
▁sediment
▁RBC
▁diabetics
▁complaint
▁0.83
receptor
▁mixtures
▁furosemide
▁glucose
▁distress
ygdal
▁neutrophil
hest
aldehyde
▁hybridoma
cyclic
▁aerob
▁posth
▁parv
▁turnover
▁implanted
▁intraepithelial
▁msec
▁capsule
▁isometric
▁lacked
opres
▁radiol
▁tendons
▁ABR
▁toxin
▁Removal
▁hypers
▁irritant
-(1
mittent
▁nifedipine
illus
1]
ophilic
▁1,25
▁adipose
▁hydrocarbon
NH
▁microscopy
▁recurrent
▁.00
▁acidosis
▁electrical
▁fron
▁mandibular
▁cys
tory
▁macropha
▁DHT
VIP
/100
▁recurrence
▁affec
▁discharge
▁CAT
▁129
thi
▁thymus
▁enlarge
inally
▁cylinder
▁Perc
▁(47
azepam
spectively
▁palli
▁6.3
▁dramatic
▁symptomatic
▁methacholine
rangements
▁-3
▁16,
▁solitary
▁lytic
▁Effects
tisone
▁indefinite
TSH
CRF
pyruvate
operatively
▁ELISA
▁crystals
sequent
intestinal
▁histochemical
ochrome
▁enhancer
▁haemoglobin
▁digesti
odend
-8)
ffinity
▁carbonic
38
tinguish
▁unid
▁flap
Thr
RIF
▁adenosine
▁6%,
▁eosin
▁NIH
▁(1.4
▁hCG
▁presynaptic
atches
osacral
iprofloxacin
▁ruptured
▁radiologic
▁excl
▁ingu
▁hypercal
▁Patient
▁qualitatively
peak
▁thrombo
plenic
▁physician
▁estrogens
▁mutations
▁corne
▁absorption
▁Atrial
tition
ogenesis
▁polymerase
▁embryos
▁relaxations
onate
assium
ypass
▁subtypes
▁preeclampsia
▁stric
arrhy
▁0.01,
utyric
enem
▁kD
▁forsk
130
gmental
transferase
▁Higher
cAMP
fected
ducing
▁0.25
▁predictive
▁auditory
HV
▁limiting
▁perceived
▁0.005)
▁attenuated
▁Nineteen
▁mediate
▁complication
▁unresponsive
▁elbow
▁201
▁cation
otone
obases
▁DD
76
▁discrimination
yrate
▁apex
▁asymptomatic
HPLC
▁prognosis
▁1,25(
▁undetectable
ploy
▁17,
▁cones
-43
▁tamoxifen
▁heterologous
▁basilar
▁70%
▁sequentially
▁243
▁replic
▁229
rase
ANP
▁pK
▁mesen
▁hemodialysis
▁AIDS
oxone
▁anastomosis
▁psychosocial
▁allele
sy
bisphosphate
piper
▁pressures
▁84%
uitable
▁infused
▁IgA
▁inapp
▁detrusor
▁Inventory
Km
adecanoyl
ycl
initi
chym
▁lobe
▁pyrid
ximum
▁angiography
▁Drug
▁lasting
▁glucocorticoids
▁inhibitors
▁NIDDM
▁isotope
▁examin
▁cyclooxygenase
▁Caucasian
▁iso
▁declines
▁CHF
heum
▁alcoholics
iant
▁71%
▁hypophys
▁mim
▁GV
bilities
▁ae
▁dithiothreitol
▁CHD
▁embryonic
▁atopic
▁electrolyte
tened
▁stenoses
▁(5-
▁exerted
▁recipients
▁11.0
▁evid
▁clonidine
▁awake
lofen
edema
▁neoplastic
▁lateral
oxyl
▁duoden
RF
▁SBP
elan
RB
▁hypertro
▁24%
▁[35
-12
▁equilibr
▁focal
▁tracheal
▁beds
▁sows
▁digestibility
▁extrav
dered
▁reflects
▁carcinogenic
▁ascorbate
▁203
2+-
▁aspir
ithi
▁LTB
wk
▁longitudinal
▁dexamethasone
▁intravenously
▁virions
▁radiography
▁excretory
▁nephrotic
▁attrib
▁8.6
▁alcohol
▁neurological
▁Phy
▁bacteri
▁Pain
▁emphasized
itin
▁hybrids
▁cytoskeleton
valence
▁insertions
▁inherent
▁97
aline
▁hyperthermia
▁phosphates
5%).
▁conjugated
▁sacrificed
▁9.3
▁0.9
▁88%
▁reactive
vated
▁16-
▁40%,
▁Sixteen
-90
lym
adm
▁27%
arms
▁tertiary
▁glyc
ectable
▁dissociation
▁granular
2;
▁exis
▁2.8%
itary
icients
▁cobalt
▁29
ovalent
▁accumbens
▁pallid
ographs
helical
▁torsion
▁vomiting
800
▁PB
▁descrip
▁hyperplasia
ylchol
adine
sensitive
ancre
▁21,
4).
tif
▁hypertension
▁Serum
IH
eled
osteroids
▁(1.3
pirin
▁solub
ullary
▁Dop
▁isotype
electro
zotocin
acchar
▁reviewed
▁perinatal
▁serotonergic
5)
fate
▁hydrogen
▁intraoperative
tensin
▁collateral
▁muscarinic
limiting
corrected
▁relevance
▁neurob
▁subpopulations
monophosphate
▁epidemi
aminated
▁PTH
▁cerebrovascular
▁imaged
▁2-3
▁deleterious
▁trend
crimin
oxo
▁tissue
▁Beta
▁temperatures
▁prophyl
▁preincubation
ACTH
eptin
▁Clinical
-10(
▁lamina
▁6.7
▁RS
▁emesis
▁750
ustif
▁chel
▁preincubated
▁extrinsic
▁imaging
▁CSF
ticularly
▁haemodynamic
▁obese
▁CAD
▁parietal
▁chickens
▁Elec
timal
▁lethal
4%
▁accurately
▁catechol
[3
otrypsin
▁25-
▁10(5)
▁TA
keratin
▁placenta
▁insom
▁bumetanide
FN
renaline
itals
▁198
▁(88%)
Gy
▁adequately
▁200,
▁endo
▁carrier
▁1985
irub
lasses
▁tetra
▁chemot
▁spreading
▁Sepharose
▁depress
1/
▁Gs
aints
▁pathological
-20
▁Eighty
▁explants
ophysiological
▁Viral
▁Bronch
neu
▁potenti
▁increasingly
▁plaques
otting
azolium
▁tic
▁enhanced
inflammatory
ronate
▁Physical
osine
▁prolongation
uccin
GFR
▁inorganic
▁phenotyp
▁(4
▁sensitivities
lodipine
yridamole
andida
▁activates
▁acin
▁gonad
▁0.98
avir
▁doxazosin
▁ultrasonography
▁Calc
resistance
▁1.5%
-0.
▁hepatocellular
▁parasympathetic
pinephrine
▁ori
odium
anking
growth
tead
▁postmortem
▁aberr
rotoxin
▁cephalosporins
ylene
hetamine
Barr
meth
roitin
iazide
▁respondents
▁fluorescein
▁residues
serine
ervative
earing
▁stimulated
▁phosphorylase
50)
▁polyunsaturated
nai
▁3'
▁adrenaline
4+
▁monomers
▁autocrine
▁51%
amethasone
IDDM
iflu
phosphatid
▁plasma
▁continuously
▁4.5%
sych
iol
▁GTP
▁morphologic
▁(3%)
▁visits
▁instability
ilts
▁eliminating
CDD
▁mathem
▁dementia
▁exceptionally
▁normalization
oalveolar
▁(400
7),
himbine
▁63%
tation
▁perfused
▁neoplasms
▁derange
DPAT
ycin
▁antipsych
▁differing
mega
▁dye
▁strains
▁lysosomal
PSPs
▁sickness
5%),
atosis
▁isoenzymes
▁3',5'-
▁resection
▁(40
▁spinal
▁TMP
uric
▁unaffected
ococcus
▁larvae
genic
enoic
▁aeti
▁Twelve
▁triglycer
▁aging
▁alanine
▁suscepti
▁0.01)
▁59%
HSV
▁deple
pressure
▁carnitine
roin
ociation
▁intrathe
alc
▁adjusted
dU
▁phenylalanine
phylaxis
▁morbidity
▁sulfate
chool
▁FD
▁progesterone
smokers
▁tightly
adrenaline
▁infar
▁lipids
orepinephrine
sions
(1
ralfate
▁diarr
▁(25
▁anoxic
idated
1210
pontaneous
-1;
▁strep
zot
ronchial
inescence
pregnant
ithm
▁monocytes
-80
▁teratogenic
lected
▁phospholipid
▁umb
olarization
clusive
▁glycos
▁0.78
prisingly
▁60%.
▁trache
▁attending
▁denaturation
▁hydroxylase
▁17-
resting
urea
ailure
▁overl
▁stimulating
tention
▁ultim
▁infrequently
▁cobal
AIDS
▁suckling
coronary
▁HMG
▁HPV
▁glutamate
▁evaluates
▁8.1
reement
▁gallst
79
▁modif
▁transplants
eptic
pread
▁calcium
valent
▁GAD
▁accumulated
epine
▁chronotropic
perfused
▁Intr
ochle
kDa
▁rabbits
▁residual
hion
▁Biol
.6%)
▁mucin
▁lenses
atients
▁exagger
▁4.
▁hamster
▁Tg
▁leuc
1.
▁emotional
4,5)
▁pyrophosphate
▁hemorrh
astric
▁anesthe
osin
▁0.05,
63
▁amoxicillin
▁chloride
▁intervention
▁2,
▁6,
▁joints
irradi
▁350
isol
▁6).
▁acyl
▁malign
▁249
kground
ophylline
▁cyclosporin
▁(60%)
▁notic
ulses
▁complementary
▁rifamp
▁analogous
effects
▁trends
▁bovine
nitine
▁0.56
▁VE
▁duplic
▁coincided
00
▁methionine
▁indirectly
adecan
▁decreases
▁sharply
▁saturable
hemoglobin
▁ambulatory
▁(45
▁(49
▁characterize
▁sequenced
▁7.7
▁0.5%
cence
▁answ
▁predictors
▁tac
▁reproducible
termined
▁evaluating
▁Sprague
▁ischemia
osylation
▁phyl
▁relie
sorbed
9.
uin
▁insufficiency
▁(+)-
ococcal
▁11.2
▁subcellular
▁disorder
oceptor
0.00
▁crystall
treatment
▁causative
itone
ventil
inopril
▁reacts
▁kallikrein
▁unsuccessful
▁rhabdomy
▁96%
▁polyacrylamide
trained
lysin
threshold
2%
▁sensitized
8]
▁ranitidine
▁atheros
▁5%,
measured
▁triceps
▁Measurements
adders
▁backbone
▁disulf
▁conditioned
▁parotid
▁thromboxane
crist
prol
▁nonsmokers
▁catar
aemia
kely
▁60.
▁(5
gag
▁warts
▁abstin
olecular
▁cGy
▁pulmonary
▁DF
▁Reduc
▁monovalent
admium
▁74%
titute
▁93%
2,000
▁psychomotor
thle
▁cerebro
▁163
▁amenorrhea
▁emboli
▁lactation
▁membran
▁cG
▁MAb
▁incompletely
▁levodopa
▁leukaemia
34
ocaine
haem
▁transcripts
muscle
▁relaxant
▁unaltered
▁catheters
.4%)
▁Increased
▁inflow
▁chlorpromazine
▁ventilator
▁equivalents
▁Milk
▁abduc
▁intestine
▁glu
▁vaccinia
▁sulf
▁glycoprotein
ophren
▁immunization
(2+)-
▁coping
EPO
otine
▁hypotensive
▁Schwann
▁contracep
▁ferrous
ocamp
1%
being
molecular
▁0.63
▁183
▁cure
▁urinary
66
▁IK
▁perception
brain
romedial
▁anticonvul
▁hepatotoxic
▁normalized
▁usefulness
▁1.75
onstric
lamydia
▁staining
▁phenomena
istar
cells
minis
approximately
kinson
▁roset
▁cytoplasm
▁utilized
▁competitively
▁72
▁lifest
▁resear
tant
/18
▁gastrin
adone
▁1200
▁EPSPs
▁slices
▁calves
HM
-72
▁KCl
▁peaked
▁physiologically
anoid
▁equivocal
phosphor
ophosphate
▁absorbed
vaccination
▁Sequence
▁posttrans
▁LMW
▁allergen
▁20.
stranded
olitis
mediately
▁hemorrhages
▁awareness
▁absorp
opeptides
▁barb
IAA
▁chambers
▁ODC
▁1-2
ields
nee
ucleotide
inj
rents
▁7.1
obronchial
▁Hep
▁0.04
▁fimbr
amination
ynaptic
▁spike
ventricular
▁psor
▁eluc
ially
kade
omethyl
▁archite
▁pem
▁pathology
▁4-
▁55%
▁intake
▁fever
▁suppres
heric
▁dendri
albuminuria
▁arom
10)
▁describ
▁40%
▁probe
tokinase
▁colchicine
▁(1988)
▁repolarization
omn
▁encephalopathy
▁angi
▁caries
ropyl
2318
dividual
orphin
▁wee
▁spermat
▁cardiac
Bs
▁atherosclerosis
triglycerid
▁constipation
▁ranging
▁vestibular
traction
▁66%
itro
bular
lyce
▁lacking
▁cycloheximide
▁prostatic
imodipine
▁prosthesis
▁hypocalcemia
allik
Cer
▁pathogens
ophores
otides
▁bromocriptine
▁plexus
▁slowed
▁clind
plantation
▁cigaret
kilobase
ovine
HCl
▁syncope
ominant
▁promin
acylglycerol
▁TDI
▁latencies
▁0.11
converting
▁Complications
▁Doses
hydroxyp
▁prosthe
irradiated
sts
▁adminis
▁DCA
cyt
▁elas
▁rup
▁clones
ocyanate
▁generations
2(
▁positioned
▁TS
fraction
Glu
▁hind
urc
▁symptom
▁30,
▁Diabetes
acking
▁naf
ancomycin
▁rejection
▁perfor
▁venom
▁mU
▁10
lobin
▁mep
▁hyperlipid
▁degeneration
▁syngeneic
adder
▁reag
▁inoc
▁accessory
▁220
-70
tamine
▁heterodim
orax
▁oligos
▁skeletal
▁exocrine
Ps
▁pound
LH
▁autonomic
▁prostacyclin
▁baroreceptor
▁juice
▁61
otypic
▁Systolic
tial
olol
▁obstetr
▁Pseudomonas
yrosine
▁12.5%
▁vaginal
▁0.7%
▁MV
9%)
▁Criteria
▁PLP
▁denat
▁chemo
ypro
▁reacting
▁NP
opam
▁vascul
ogenicity
▁monitored
tipation
▁(0
▁neph
▁transferase
▁immobilized
ethylene
individual
oprolol
▁165
▁sodium
▁spontaneously
nisolone
▁Hodgkin
roxen
▁grading
▁Phase
▁0.
▁novo
▁Metabol
▁glomer
pirone
▁athe
▁aerosol
:1)
▁occupational
▁prevented
▁desatur
opes
▁capsid
▁capillary
▁androstenedione
▁76%
olam
osidase
▁sheath
▁sampl
onidine
-96
▁190
▁progen
▁12%
ocul
▁(37
▁excision
ofil
▁galactose
▁benz
▁confluent
▁rt
▁surviving
▁depolar
▁GM
▁tibia
▁3;
GD
▁VA
▁ventricul
dL
▁enalapril
▁introns
▁estrogenic
▁assis
ainide
▁Kd
▁lys
▁adi
▁sarcoid
rous
hydraz
sia
▁symmetrical
obarbital
▁unbound
ivered
TCA
Ala
▁Concentr
▁parap
adap
▁cruc
▁systematically
▁IIb
▁thirds
▁immunized
▁bronchoalveolar
▁adren
▁systematic
tency
▁deferen
tinguishable
irubin
igaret
roscopic
7)
ilization
▁oncogene
othreitol
▁contras
▁deposits
▁mell
▁anomalies
▁chains
ughter
▁anions
▁axonal
▁preferentially
supplemented
ellar
performance
rever
▁0.0
membrane
▁euthyroid
81
▁(68%)
▁Tran
azepine
▁Bacter
57
▁appendic
▁75
▁mannose
▁stoichi
▁gastroenteritis
▁histopath
▁280
▁2.9
▁(24%)
-15
globin
▁antin
▁ceftriaxone
▁renin
oste
▁curric
▁leakage
▁endoscopically
inducing
roxic
SHR
▁succin
Rs
vive
▁38%
▁resultant
▁susceptibility
▁[32
▁surge
▁hydrophilic
▁rash
▁aort
atonin
▁73%
brile
lactam
▁extremity
/24
tine
▁(62
▁recruitment
▁hypokalemia
tality
oskeletal
resid
▁thermo
-40
▁reversal
▁structured
.1%
▁cervical
▁immunological
▁allogeneic
onvul
▁electrostatic
▁pooled
▁acutely
▁trigg
▁quantitative
▁homogenate
▁5.3
▁correlated
▁surgeon
▁oocytes
lastoma
▁0.05),
plastic
▁uter
▁constitutively
▁tumours
▁gland
▁phorbol
merc
ivacaine
▁conserved
rogenic
uplex
affec
▁AVP
▁nicotinic
▁duct
▁ribosomal
▁RIA
▁eighth
▁46
93
▁utilization
optic
▁constitutive
▁phi
cessive
▁exceeded
▁(0.1
ylase
▁Previously
olones
▁mediators
surface
olved
ologous
▁proton
▁diabetes
▁acyclovir
▁vitro
tagog
imetry
ocated
▁cros
▁segregation
▁behavioural
▁capsules
▁abundance
▁mineral
▁tilt
ocor
charomyces
▁occluded
▁1-
stim
▁rhythm
yses
▁brains
▁paraffin
▁cooling
▁biosynthe
▁respon
▁endocrin
▁olive
▁smokers
▁carotid
ometri
▁inconclusive
▁Lipid
▁PGI
▁degen
clamp
▁loos
ifugation
▁projected
esarean
▁LAK
ilibr
▁sucrose
▁portions
▁(18%)
tectable
▁lymphocytic
▁Proc
▁enlar
▁improving
aterally
rocal
▁anesthetic
▁beliefs
"-
opathological
▁catalyzes
imetric
▁0.99
▁contribut
▁wounds
▁hir
▁baseline
▁favorably
▁splenomegaly
evoked
▁cumulative
▁0.16
romycin
3)
ctomy
▁hypothalamus
▁(46
oriented
▁5.4
▁pigment
▁livers
▁166
eruleus
▁creatine
▁minimally
▁Pulmonary
▁14.
surgical
120
▁radicals
glutamate
▁dibutyryl
ensitization
▁10(4)
▁transection
▁gastric
▁pacemaker
▁postural
▁isot
retro
▁calmodulin
▁laryngeal
▁ascorb
▁volunteers
▁irradiation
fluores
.5,
▁recruit
uscular
atible
phosphorylated
▁facilitate
ocine
▁calcification
▁Increases
▁Median
▁transpos
▁Together
prandial
▁OD
▁intraven
▁splanchnic
▁15%
▁stabilized
▁apoA
▁perone
▁exposures
▁lutein
▁quinidine
trients
▁syndrome
9;
anine
▁nigra
ronectin
▁sterol
▁multil
▁Rats
eak
himb
ositi
▁classify
cys
▁geniculate
▁polymerization
▁dele
▁conto
▁labial
▁seropositive
isal
ethoxy
▁discomfort
▁(24
itic
▁sequelae
▁requi
cephal
tracted
▁100
▁UDP
kelihood
▁6.2
yclo
▁0.89
▁bronchi
roscop
1-
▁0.01),
▁desensitization
▁acetaminophen
pharose
hydrop
▁transiently
ilum
▁sugars
▁criterion
osamine
▁cartilage
▁transpor
▁predisposition
▁acquisition
▁cirrh
▁0,
▁infarc
▁physicians
▁recr
▁AMP
bromo
▁1970
▁hypoxic
▁waking
▁12.
▁sinusoidal
▁xen
daily
▁2.7
administered
▁fractionated
▁certainty
acerb
▁standardization
00,
▁bacteriuria
▁neuropsych
▁ovine
▁prolif
▁antibody
▁.000
ASA
▁Additional
▁56%
▁establ
▁6.4
68
▁21
▁Staphylococcus
▁stroma
omegalovirus
▁Cardiovascular
▁normotensive
ostigmine
determined
endri
▁systemic
▁synaptosomes
▁carcass
▁injecting
30,
▁swabs
▁strand
triphosphate
▁hypercap
▁nephrotoxicity
▁Findings
anav
▁193
6).
▁PGF
▁KD
induc
▁AO
▁Previous
▁elevation
▁scientif
▁counterparts
flanking
iuria
NMDA
▁PG
iminary
▁affinity
▁contributing
coh
▁glomerul
▁rehabil
▁thio
antibody
▁beha
▁MRI
▁Infection
quinone
▁pools
renol
▁palate
onucl
blocker
▁lifestyle
▁suspicion
othi
▁severity
illion
▁elevated
▁-0.5
▁developmental
glucosidase
.5
-1.5
etence
echanical
gative
iably
▁splenectomy
sulf
acental
▁apomorphine
▁mutagenicity
▁sedimentation
▁stiffness
▁drip
▁nuclease
▁Consequently
▁impairment
kerat
tral
▁polysaccharide
▁aggregation
▁cornea
2+]
▁4)
omiting
respon
choline
▁orthoped
illation
▁atria
▁traction
▁(75
immuno
▁heavi
tivities
▁covalently
▁elevations
▁motoneurons
▁chymotrypsin
▁postoperatively
▁Epstein
▁paradigm
]-
requency
▁Scatchard
▁carcinogen
▁0.35
▁choro
▁regained
▁dodecyl
▁beats
HCO
ocon
▁hydroxyp
▁paternal
ipramine
▁cationic
▁genome
▁bowel
▁helix
▁evac
▁coval
▁cyanide
▁dichro
▁benzodiaz
▁multic
▁lectins
alues
-1.
opi
plasia
▁weaning
▁accid
▁glycolysis
▁Tris
▁ventilatory
▁11,
▁discontinuation
▁fixation
▁excreted
▁yielded
hydrox
▁paralysis
▁tachyc
AVP
carb
phenyl
tensive
▁acetic
▁libitum
900
motic
Ds
▁asymmetry
immunoreactive
▁corticosterone
aminergic
▁30
mong
▁0.1%
▁accel
otherapeutic
▁Tox
44,
16
▁Radi
▁19
▁37%
▁75%,
enic
▁citrate
▁scattering
▁albumin
▁antral
infected
-6.
adication
▁parasite
ophys
otoxicity
▁spati
▁noradrenergic
tence
▁(2-
▁tumour
oxygenase
▁Whereas
glycerin
▁14%
▁aqueous
▁unres
▁swim
▁TNF
▁3.3
▁constriction
▁kine
▁concentrated
▁51
ighteen
bility
▁reconstitution
▁glycol
▁hypertensive
▁perif
DNA
140
▁pancreatic
▁ultracentr
▁1989.
▁crude
▁Haem
▁hypot
▁orally
▁quoti
▁esophag
▁Myc
olig
omorphine
▁blasts
▁neuro
▁ulcerative
▁respiratory
▁fibrinolytic
teine
▁ureter
conjug
▁elastic
▁traumatic
▁119
roglobulin
▁meaningful
▁purified
▁prostheses
▁cosmetic
onuclease
▁feasible
▁UTI
▁hetero
▁oestrogen
▁58%
▁19%
▁untrained
▁spor
▁hysterectomy
▁assessments
▁topoisomerase
▁ketoconazole
phil
▁thalamic
▁bronchoconstric
▁OT
BT
oxin
▁neuroblastoma
▁sustained
.8
▁Alzheimer
▁guanylate
▁TB
otyp
▁adenine
▁strands
oblasts
▁natriuretic
tubulin
▁lactate
▁exag
▁reinforcement
utin
▁influx
▁2.
▁epidermis
▁cultures
▁TT
ffin
arly
▁lining
▁BSA
rological
reness
▁trigeminal
▁allograft
thyroid
▁Brain
omyces
isomerase
5%
▁infectivity
▁groove
▁displacement
▁faecal
▁standardi
1/2
omotor
guan
tetradecanoyl
titis
▁iodine
CBF
roso
▁prescribing
gangl
▁soybean
▁mesenchym
ognition
oreg
▁GABAA
herent
▁peripher
▁vasoactive
▁Intracellular
44
amous
▁venti
▁screening
▁constructs
▁mammalian
ectomy
▁suspension
▁regulate
naud
apse
usal
ocys
▁glycerol
▁flora
▁clot
valine
trum
▁hydration
ipril
▁keratinocytes
▁reagent
▁complaints
aterals
7,000
▁aspec
▁abruptly
▁0.54
▁nucleotides
▁interc
▁hormones
▁OH
HRP
▁elicits
▁inhibitory
motor
▁DMP
▁bacterio
▁virtu
▁satis
▁flanking
unced
hig
inamide
tus
▁pate
ulsive
CoA
rolateral
77
hemat
3]
▁Breast
▁adenoma
▁AML
-48
▁granulomas
▁pentobarbital
▁diverged
▁interleukin
▁antero
▁Optimal
▁monotherapy
▁tubercul
▁repressor
▁mitochondr
vail
▁reabsorption
BMI
▁Simult
secreting
▁conformational
▁toxins
▁200-
▁junctions
▁10(-10)
▁abscesses
▁inhibit
oice
antibodies
▁80%,
vaccinated
▁targe
▁thromboembolism
illaries
▁8.7
▁diethyl
▁intestinal
▁unrel
imination
▁lymphoblastic
▁limb
▁synov
amycin
ylyl
orac
▁gentamicin
▁guinea
▁dextran
aryotic
▁caffeine
▁1990
▁enrol
tee
▁vulgaris
▁allergy
▁uncommon
dipine
▁revascular
110
opr
▁lowering
amines
▁bilateral
alsy
▁induc
▁8.4
bly
▁eradicated
ropine
totic
▁harb
▁zymosan
▁naproxen
▁antioxidant
2+.
▁harves
▁identifiable
onitis
uronic
▁bilaterally
Ox
tronic
ineal
▁erythematosus
erable
hormonal
macrophage
ophageal
▁2.5
uris
▁Doppler
▁trimethoprim
▁longus
▁postnatally
oproteins
▁differed
-28
rography
▁12-
▁Arter
athetic
▁reticulocyte
▁colorectal
▁lec
▁Vmax
▁participating
▁plasmid
▁ribosome
▁embolism
▁infrequent
▁0.15
assay
▁originated
▁20,
▁pS
▁congestion
▁7)
olone
▁Thirty
▁mimicked
tism
tig
▁fluoride
▁throat
glucuron
odialysis
▁pneumoniae
▁obesity
roxyprogesterone
-40%
▁splice
utroph
Ins
ymptom
▁interstitial
▁annually
▁diagnosis
▁hypere
▁warran
▁cytoskeletal
▁ICP
▁acetyl
EAE
amphen
▁PBMC
▁spectrometry
incubated
▁ventricular
phosphates
athered
-4)
▁psoriasis
▁antimicrobial
arous
▁nonin
▁fragmentation
▁conformation
▁0.80
ergen
opian
▁testosterone
▁contraction
▁Obs
ereb
▁affecting
iodarone
▁lymphokine
hydr
28
▁Lymph
ecal
▁ANF
▁myelinated
67
arrhythmic
ausea
▁7.
erin
▁CRH
BH
▁50%
/10
▁chromaffin
unately
▁saliv
▁5.9
▁remo
▁haem
▁0.5,
▁reticulum
▁5.0
ikary
otide
▁haemorrh
▁occlusive
▁Surgical
▁Respiratory
▁Factors
▁hyperactivity
▁Wistar
brids
guanine
▁microelectro
vul
▁Differences
▁dyspnea
▁propensity
wenty
▁capillaries
▁visceral
▁spectrophot
▁plasm
▁EMA
▁diversity
▁0%,
▁abdomen
aning
▁spon
▁1.0
turition
▁necrosis
▁chlamydial
▁acidic
▁abundant
trates
plas
vae
dihydroxyvitamin
▁calories
tilis
▁(79
hexidine
oxifen
▁differs
uding
▁freezing
oxygen
▁3%
piration
▁22%
▁bulb
enec
▁0.8
plication
▁peroxidase
▁throm
oventricular
▁Fifty
▁malabsorption
bladder
▁186
▁neutralization
▁denatured
▁diuresis
▁viability
▁Inde
roscopically
unctions
▁hypog
▁aggression
▁5%
▁azathioprine
▁Relative
▁cycling
▁immunore
olization
▁adsorbed
▁TM
▁airways
opoiesis
▁newborns
omere
▁circulatory
▁biologically
tenolol
otomy
▁polypeptide
▁phentolamine
▁arising
▁immun
▁Sensitivity
acute
▁1.1
▁SPL
▁transfusions
▁unidentified
▁readings
vant
intensity
▁dermatitis
acids
▁48%
▁profound
sensitivity
▁stepwise
tein
▁simultaneous
▁81
xiety
▁scans
▁percentages
▁CFU
tivated
▁blas
tential
▁ganglion
alanine
▁Indi
▁29,
▁impairs
▁(6)
▁evoked
▁compartments
▁freshly
▁denervated
trogen
▁foci
▁49%
1,
▁elemental
▁enlargement
▁carc
omat
tive
acin
▁irr
essive
▁menstr
▁Tes
ication
gA
oderm
92
▁drin
▁follic
▁AI
▁substitu
▁pancre
-50%
▁isoproterenol
sepithelial
▁biochemical
Glc
▁maximally
orts
uctose
▁regulates
lobulin
azoline
▁pregn
▁enzym
osomal
▁Hig
▁antidepressants
▁(9%)
ertion
▁(8%)
9%
▁mellitus
ficially
▁PIP
aturation
▁MMS
▁Acute
▁falciparum
tens
notic
▁elongated
▁adherent
▁(30
enil
aceous
▁relapse
econd
▁postsynaptic
▁adhered
tate
▁twitch
robic
▁physiological
▁indication
▁Salmonella
▁mite
▁predominantly
oblastoma
▁ligand
romes
apatite
▁breakdown
▁enzymatically
kines
▁virulent
▁somatosensory
▁LM
tagland
▁adap
forming
▁conductance
▁158
▁300
▁hydrolys
▁platinum
oretically
▁0.84
▁unrecognized
▁68%
▁blacks
▁reduc
orrhea
especially
▁percentile
ocyan
▁ADA
oppler
omonas
apo
ulum
ofol
othre
▁substantially
omycin
▁phosphatidyl
▁jaundice
▁VLDL
▁flashes
▁regimen
enyl
▁bonding
▁motone
▁extensively
▁detects
▁postnatal
erox
▁16.
▁suture
▁extrac
▁retinoids
ecre
▁cytotox
▁(0.4
▁membranes
▁41%
▁retur
-45
▁8.5
Ls
▁Samples
terious
▁24,
ials
ococci
▁duodenum
72
▁mitral
asic
▁contraceptives
▁aspirin
▁hereditary
▁intracerebral
▁effector
▁investigating
▁emphasize
▁tach
pore
tails
ayed
▁enti
▁enteric
▁42%
▁pathologic
ercise
fib
▁treadmill
▁chlor
loride
thym
▁HCV
▁gangliosides
cryst
▁gestational
▁hypoxia
▁3.8
▁LTD
duction
▁alp
▁reconstituted
▁0.0001).
▁medication
▁fluorescent
▁adul
embr
▁Tests
▁undergoing
PRL
▁catheter
amino
▁PMNs
▁NADP
▁74
myrist
▁glycosylated
ologic
▁eliminated
▁Evaluation
educ
▁localized
▁headache
▁institutional
▁lipoxygenase
▁epidemiological
atropium
▁Risk
▁lamin
▁Cardi
▁benzodiazepine
educed
▁follicles
incubation
oic
▁900
▁addiction
▁achievement
▁acceptor
▁glucuron
ograms
▁priming
osts
▁[14
▁tyros
hep
▁10.7
0.2
▁carbohydrate
▁fluconazole
3.
▁GA
loro
▁quadrup
yclic
▁effluent
▁0.17
ocarcinoma
▁crystal
opa
Cs
▁6%
ochemically
ypical
▁.05)
entif
entgen
-5
▁referral
▁amylase
galy
▁psychotherapy
insulin
▁FT
▁cations
▁striatum
▁liver
nitros
▁alloster
▁agglutinin
ectomized
olipoprotein
▁(42
▁potent
▁additive
idine
▁59
amol
▁tended
▁multin
▁arrhythmia
▁radioimmuno
onide
seven
▁unchanged
lycemia
▁laminae
borne
▁DTH
ventilation
trus
▁superf
▁esophagus
▁lymphocyte
▁CBF
▁withdrawal
lact
▁epsilon
▁oxygen
organism
.3%)
▁triggering
▁prescrib
▁awak
tilb
ocriptine
▁nodules
moderate
▁(15%)
▁syphilis
▁disper
▁colonization
2)
▁antagonist
▁allogra
▁transluminal
▁Smoking
▁worsening
▁endothelin
▁vesti
ulae
▁internalization
ionine
▁meal
ospasm
▁substances
▁(39
tures
▁3.7
▁70%.
omethacin
▁alveolar
▁aldosterone
Hyp
▁tubular
itum
tin
▁topically
ochemistry
inergic
▁6.0
leu
sA
▁scarring
▁isozyme
▁stool
▁immunocompetent
hemo
▁airway
▁HL
▁ischemic
▁vena
sizing
▁gyn
chol
▁-5
▁RAS
▁damaged
ochemical
▁emerged
▁protons
▁prel
8,
▁neuromuscular
onephritis
iplin
▁selectively
oride
5).
▁Physicians
▁1/
▁amputation
▁rearrangements
HLA
▁quinacrine
lebrand
effec
▁discriminate
▁1988
▁paralleled
LN
sulph
▁laminin
posable
bile
uran
▁Oste
▁unexpectedly
▁arth
4,5-
▁secrete
▁simian
idazole
▁Raynaud
▁chloro
acial
▁olfactory
▁hepatocytes
▁transforming
▁sugges
▁tenderness
▁peroxide
▁mediates
▁clonal
uodenal
.4
▁renders
▁140
▁statis
▁1.25
▁analgesic
Tc
▁immature
▁Average
▁endotracheal
▁surveyed
▁contradictory
olytic
▁Lung
ifferen
adex
▁downstream
78
IGF
▁necrop
▁insec
increased
▁intracor
▁alkaline
▁1.4
▁oncogenes
Cu
▁neurolep
▁cDNA
▁abl
▁decisions
▁titres
▁vegetable
▁supine
ostatin
prising
▁analys
▁upstream
iciency
ontal
▁intron
olipids
▁influencing
▁ultraviolet
opamine
▁muscle
oresis
apeu
▁5'
▁conclusive
▁hypothalamic
▁regurg
▁interacted
▁anhydr
▁2.5%
▁metastases
▁[2
▁8.
tions
tioned
amphetamine
unts
▁compensatory
▁0.5
▁acetate
▁physi
▁detectable
▁surfactant
▁metabolites
▁vagal
0/
phyl
▁procollagen
▁synthetic
▁Acad
▁consistently
ergic
▁35%
▁dors
loidy
▁AH
ilep
vix
▁lesser
▁donor
rotid
▁PMN
▁PI
▁82%
▁synapt
▁sampled
▁marginally
▁aids
▁0.02
▁bif
▁structurally
▁implantation
tailed
-1000
osylated
ocusing
17
otrophic
▁filtration
▁gout
▁angl
alciparum
arge
robial
▁transitions
▁ana
onography
▁sonographic
orotic
▁intact
▁providers
▁0.45
▁saphenous
▁vulnerable
otent
▁uterine
▁NGF
▁hypothermia
▁insertion
▁phenotype
▁PRA
90
▁Willebrand
▁moderately
▁bacteriophage
selec
▁binds
ventional
▁oste
▁blockade
▁leucine
ocap
olase
▁pigs
33
▁tris
thio
initiated
▁perivascular
romic
▁suspic
▁simulated
.2
oxetine
difference
6;
▁estimating
trin
▁fibres
ntolamine
▁nasal
▁epiderm
plants
upus
▁erosion
▁incomp
▁axon
odil
psin
▁putative
▁circulation
modulin
▁29%
▁augmenting
▁transported
▁Experiment
lymphocytes
melan
▁cathe
ocin
siveness
lovir
▁aldehyde
▁2.0
▁tibial
stem
▁depr
▁maternal
trimester
helium
▁91
tensives
▁cytotoxicity
▁IgE
▁fractions
▁caudal
▁thyroglobulin
▁inclusions
▁locomotion
▁mitogen
oside
▁contralateral
▁slopes
▁ductus
meas
▁1986
▁0.46
▁necrotizing
▁FMLP
▁lacks
▁outpatients
▁incis
▁mitosis
thrombotic
ths
tructural
▁RNAs
TPA
/1000
7).
▁mortality
▁allosteric
▁lumbosacral
▁addic
▁mucous
▁messenger
▁thrombin
imbr
independent
▁isoelectric
▁mycobacter
▁extensor
▁poisoning
▁0.22
10.
▁87%
▁transcrip
herol
▁uterus
▁(1.6
▁exhibit
GH
tiguous
▁RPE
ropo
▁antibiotic
▁wearing
▁132
ncies
▁13.3
opyr
▁Surprisingly
▁bismuth
▁cows
▁genotype
▁MF
▁sarcoplasmic
▁maturation
uled
ometh
-]
pharmac
▁HBV
amethoxazole
▁warfarin
▁rigid
acquired
▁Myocardial
▁Differen
▁lipoprotein
▁proteinuria
▁overnight
ondr
▁fibr
▁mononucle
achial
▁(4-
▁bypass
▁60%
orbent
subunit
▁phospholip
▁kappa
NAc
▁(0.3
▁(8
▁precordial
osum
▁confirms
96
▁Certain
exin
estim
ovascular
▁HF
▁carbohydrates
sibly
▁erythroid
▁peptid
ifers
▁ADH
▁blot
▁decreasing
▁mediator
tension
▁elution
▁Electro
athioprine
▁diarrhoea
ditions
omies
▁birthweight
oretic
7.
▁RF
▁VT
Ki
▁osteoc
▁2.1%
bral
▁Suc
▁isozymes
26
oconstric
atology
operidol
▁43%
▁17%
▁exchanger
restric
▁stimulants
brom
45
▁168
oxamine
▁toge
▁muscles
▁autoreg
▁52
▁SDS
▁illumin
▁overt
▁pim
osomes
teral
▁kcal
▁behaviors
ellum
etition
▁40,
ologically
lytic
▁neurogenic
/7
▁aneup
▁washout
▁1:
▁cerebellar
▁unfol
▁-0.0
▁26%
▁obstruction
tent
olgi
itrate
▁fluctuations
▁irrespective
jec
▁33%
▁fum
▁chromosome
▁clinicians
▁diffic
urones
oblas
▁tachycardia
▁15
▁lapa
▁infusions
▁scin
coated
▁intercourse
▁plateau
▁cirrhosis
▁disulfide
▁constitutes
opsy
PPP
▁immunologic
▁sympathetic
▁alkyl
deple
▁prescriptions
amicin
▁adhe
▁PKC
▁penetration
DTPA
▁sclerotherapy
▁periodontal
PAF
▁paral
▁cocaine
84
queous
+]
▁regar
▁immunodef
▁scanning
▁reac
▁ocular
▁parox
plemented
▁opioids
▁postulated
▁cerebrospinal
▁3-
▁ribonucle
▁pretreated
lix
embryonic
▁36%
▁aspiration
hemical
▁nonsignificant
▁serotonin
temperature
etidine
▁Treatment
▁hens
▁drugs
azolam
17,
amus
SDS
▁guanosine
oprostol
▁scre
▁displaced
▁rebound
placebo
▁ane
▁grip
ticular
▁dysfunction
▁exchan
▁noncom
▁competitive
▁49
▁dairy
▁polyp
▁direc
▁BALB
▁frac
▁incidence
ermal
orphine
8+
▁gains
▁tetan
(2-
ufficient
▁viruses
▁89
olec
▁gases
22
rometer
▁hormone
eptides
▁PCA
quid
▁GF
▁practitioner
▁luminal
▁cognitive
platin
-30
▁depres
▁plaque
▁enl
▁(28%)
▁sensitiz
issive
▁20%
▁hospitals
diol
ophy
▁ars
6,
▁PW
▁1986.
▁iatrogenic
▁cholinesterase
▁subunits
▁appra
▁Successful
▁RV
resis
▁Afric
zymes
2]
anat
▁hydrox
,000
▁Diagn
ifedipine
▁affects
▁chec
fiber
▁zoster
dihydro
sodium
planch
▁liposomes
▁posttreatment
▁manu
tiveness
▁cerv
oratory
▁avian
ocomp
▁predis
luores
▁0.02).
▁ultimate
junction
hemagglutinin
▁irreversible
▁amphetamine
▁congestive
▁hepatitis
▁HTLV
▁20%.
▁paired
affected
▁Effec
oplasma
ocrit
▁GS
▁consistency
acement
pig
ocular
▁1.7%
▁sedim
▁haemorrhage
▁verbal
▁transcription
▁0.000
▁formulations
▁headaches
▁divertic
▁resembles
▁complications
▁7.0
▁linole
yoto
▁myristate
iptine
▁insensitive
sities
▁felodipine
▁EI
occal
▁Initi
tene
▁antagonistic
▁nurses
ioid
▁refr
▁overe
▁actively
▁testicular
▁3.9
▁1,
▁graded
ystitis
▁000
▁angioplasty
▁fungus
atoxin
RR
/12
▁thymic
▁nucleoside
▁400
▁stimulate
▁dilution
▁therapeutic
▁hypogonad
▁8.3
reasing
▁cholera
portion
▁recons
▁chlorhexidine
teryl
dyn
▁prognostic
ivary
vival
orsal
▁analyzed
▁swelling
▁hematocrit
▁vesicular
entan
▁DT
▁nasopharyngeal
▁cytochalasin
▁vaccin
▁nitrate
▁surveys
▁Eff
▁targeting
▁5)
imide
▁.001)
▁examining
▁lyso
blood
▁traum
troduction
▁promo
▁restenosis
ocortical
itance
ocomial
▁barium
▁constr
▁yr
▁Cys
▁fmol
▁physiology
▁antib
▁persistently
▁allografts
▁cava
▁metabolically
responders
▁ovariectomized
▁phosphodies
Daw
8)
▁gum
▁sedative
lep
▁granulosa
▁Conventional
▁underwent
▁Reduction
▁dP
▁translocation
▁kidney
▁intractable
▁brady
▁stromal
▁specialty
▁degrad
▁cocul
pli
0.3
▁Infants
▁BMD
▁cytosolic
▁ribosomes
hydration
abdominal
apine
▁18.
median
▁Tc
▁0.82
phs
etent
▁deficiency
▁submuc
▁adolescent
▁serosal
▁multim
▁stren
▁streptoc
35
trol
▁lacto
▁targeted
▁eicos
oxal
idney
▁decreased
▁antif
▁fossa
▁Mild
▁adjustments
▁subf
▁adrenal
▁soleus
▁granul
mitters
▁incubated
▁virulence
▁yiel
tillation
▁unc
phadex
rati
▁utilize
▁swine
phrine
ensity
▁106
▁placental
▁112
▁121
▁histone
▁diameters
▁glycemic
21
▁tolerability
welling
olus
▁immunofluores
thrombin
▁TK
▁bupivacaine
atite
▁TD
▁6)
tually
▁efficacy
Ga
▁tubule
▁homogeneous
▁ultr
▁densities
▁experi
▁actin
▁1,000
▁ammonia
▁tau
▁154
vaginal
▁repression
▁(12
isopropyl
roximately
▁confirming
▁inpatients
.9
omatous
▁Statistical
▁predominance
▁attemp
▁rhythms
▁55
reflex
▁lysozyme
uculline
▁prophylaxis
ervical
SEM
▁seizures
▁choline
reases
partate
▁pharmacological
-300
▁monthly
HN
▁troponin
osac
ostr
testosterone
phosph
otropic
▁metast
gents
maximum
▁efferent
▁bioavailability
▁nonp
▁EPR
▁modestly
▁Repe
▁ecological
▁NI
6%)
▁wrist
ritish
▁collagen
eryth
idis
iph
▁nonsteroidal
▁reperfusion
▁depletion
▁arterioles
▁dermal
(6
herence
▁bile
▁phenotypes
▁(90%)
▁antigens
glycer
▁resemb
▁0.51
▁8.8
uestion
sion
▁bony
▁Inte
▁messen
tebral
luded
▁0.72
▁oximetry
ycline
▁probes
▁opioid
vaccin
3-
▁(0.5
▁twins
▁limbic
▁(13
opausal
▁kinetic
▁reagents
▁LDL
▁1.05
▁tremor
▁denervation
UV
dine
atectomy
umerous
elic
▁.0
▁rigorous
iteal
cemic
▁Monoclonal
▁endometr
rocy
▁cen
hydroxylase
▁19-
.9%
▁spas
epi
▁retina
/1
terone
▁multiv
▁fibrils
▁germinal
▁cooperative
▁ibuprofen
▁cholest
▁reactivation
▁formaldehyde
▁150
▁infrared
▁fibrin
▁-10
ritin
▁scalp
▁teen
▁respir
immune
sistent
▁endothelial
14)
97
lycer
mitoyl
▁electrom
▁ole
▁kary
▁modest
entral
▁sequel
OA
▁epididym
mobil
▁elective
▁regurgitation
▁accompanying
ludes
▁homoz
▁5.6
▁Estimates
71
▁nephritis
tensity
▁AUC
▁(250
▁tritiated
▁diuretic
▁undertaken
▁deuter
▁(26
▁underestim
reduced
▁eryth
▁hyperlipidemia
▁Stress
▁transthoracic
oag
▁phon
ochrom
▁5,
▁catab
▁yohimbine
▁discrepancy
▁peritonitis
deficient
▁concentrate
▁declined
▁systolic
▁anticoagulant
▁Tx
▁cystitis
▁suppression
▁(78%)
▁rearrangement
ogenes
achnoid
▁plates
▁cytometric
▁MCA
▁NSAID
romy
▁spontaneous
▁bactere
▁malaria
ethylmaleimide
mmol
▁prostate
ometers
▁wound
▁thallium
▁dismut
▁coli
▁angio
▁rigor
▁96
▁0.64
crib
▁62
myristate
▁13%
▁13-
luding
POA
roxim
arginine
▁intramuscular
▁1.
▁biop
▁Twenty
▁demonstrating
▁prolactin
▁permeability
9-
▁deficiencies
▁fati
29
▁mutants
▁rIL
▁adoles
molar
kage
▁unre
utaneous
▁intolerance
▁rele
chers
▁induce
▁0.30
▁viable
obal
urons
tum
▁mcg
▁eti
▁resistant
▁ipr
▁serologically
▁(150
▁nude
ameter
▁naloxone
▁surrog
▁Medicare
physiologic
▁Tolerance
emin
▁cytolytic
▁33
300
▁disrupted
-1.1
▁homeostasis
▁30-
▁schizophren
▁osmotic
▁psychiatric
riched
portun
oinositi
illin
▁noradrenaline
▁poorer
tative
toxicity
histamine
▁Candida
▁rati
▁adduc
▁exhaus
▁35
mature
▁nM
▁consultation
▁nig
▁elab
▁folate
▁velocities
ostasis
▁vesic
▁sarc
▁progressively
▁fibroblasts
RNP
lives
▁vertebrate
▁218
▁uteri
-88
plied
metic
▁normals
▁13
butyrate
clerosis
▁biosynthetic
ovastatin
▁receptor
▁217
throm
▁clomiphene
▁nucleus
▁deposited
▁wash
onam
▁spindle
▁subend
▁vicin
▁preservation
oterol
itoneal
inoc
▁prevalences
(1,
▁abrup
opropyl
▁ration
▁rota
gressive
iotic
▁1.8
tration
▁somat
▁transduction
▁surveillance
0,000
▁promptly
benzo
▁supplementation
▁leukotri
orbol
▁vigorous
▁defec
bacco
▁bab
glycine
▁10(-7)
angiotensin
▁jaund
▁(1000
▁pell
lamin
▁predominant
yrox
▁hypother
ochondrial
angi
▁deaminase
0.7
osol
tribution
rosophila
tia
▁oral
cortisone
▁proliferate
▁supplement
4/
91
▁6.6
▁protr
▁starvation
▁reciprocal
▁radios
▁reper
▁visc
:2
opeptide
▁mucos
▁hypocal
▁tubercle
arbonate
▁epidermal
▁concurrently
rinone
▁hematuria
▁limbs
▁compete
occi
opramide
▁pars
Hu
▁rRNA
▁2000
▁pulsed
sies
▁lupus
shaped
▁automated
omerular
salt
▁neurologic
▁methadone
▁palp
▁oxide
▁mum
orough
erant
/3
-5-
olet
▁extracellular
▁Hind
▁donors
oporotic
▁immunosuppres
▁rostr
anyl
▁RT
▁analgesia
▁platelets
ferrin
▁bladder
oprec
threatening
▁Growth
articular
ylcholinesterase
▁diet
▁tryp
40
opoly
▁appetite
thal
neumon
▁impaired
riton
▁Cyt
thymic
▁activated
othal
▁phospho
▁grafts
▁48-
contrast
▁Mn
▁Stimulation
ignificant
▁expectations
▁WR
anide
▁breathing
▁regulated
▁compartment
ETE
▁Ultras
oagulation
9)
▁BK
▁numb
ispanic
Ra
urys
ponin
omatosis
▁cimetidine
▁occurring
▁compositions
tumor
▁synthesis
▁immunogenic
▁semin
▁climb
ubular
▁strips
0.8
iatum
▁justif
ospitals
▁cavity
BV
▁1600
▁methyl
▁0.3
▁myc
▁aberrations
▁plantar
▁Abnormal
▁dressing
ulent
▁methodological
tomas
▁recognizes
idic
▁lith
▁psychosis
sized
oxide
romised
criptions
▁hospitalization
▁synergistic
▁organic
▁diaz
▁focusing
▁concer
dip
▁dilatation
▁melan
▁hyperins
oxia
oligo
▁modalities
eces
ociated
▁SLE
MH
Fc
▁rumen
▁ketamine
linked
uble
▁GABAergic
▁electroly
▁surf
ografts
▁isolates
▁paroxysmal
▁173
▁7.8
▁diltiazem
▁chor
▁flour
▁haemat
▁differen
▁1.9
patients
flamm
MG
▁parenteral
▁amiloride
uspid
cg
▁cement
plete
asal
prin
▁cooperativity
▁diagnosed
▁arachidonate
Cys
▁distric
▁PT
▁depression
▁dehydrated
amethonium
▁-1
▁introduc
▁infusion
erebro
▁0.43
▁tuber
▁gm
exc
▁fores
ecia
▁Increasing
▁histi
▁vancomycin
▁stu
▁glial
▁trypan
▁80
▁unstable
▁glomerular
▁1987
ozo
▁perforation
vating
▁0.6%
▁(25%)
eeding
▁mannitol
▁volunteer
uracil
▁Amin
▁palmit
unctiv
▁DBP
▁simplex
▁peptides
▁salts
siology
▁dams
kinetic
timate
▁11.5
▁palpable
erad
▁PAI
gnetic
stimulated
rophob
▁Graves
▁repertoire
▁iat
▁attained
▁LV
embry
phor
▁brush
usions
▁metabolic
▁obli
▁erythrocy
▁212
Ni
▁intubation
udin
▁hydrophob
▁eradication
▁endoc
▁heterogene
▁DEAE
▁steroids
▁(48
▁HCC
▁transaminase
94
▁durations
owever
itre
▁regenerating
▁vitre
yocardial
Kd
▁thromboembolic
ophils
relations
▁consis
phrag
▁cholec
▁diluted
▁(10(
▁bull
▁visualization
▁indications
▁sexually
adrenergic
▁derangement
▁ethyl
▁cochle
▁fertile
▁unilateral
▁exhibits
▁myeloma
▁bactericidal
▁Specificity
ituitary
▁gangli
▁vincristine
malignant
ialysis
▁dys
▁fasting
▁computerized
▁anticoagulation
▁Exc
▁inhibited
isely
drug
▁pleural
▁regis
▁subc
▁dex
▁ketone
▁dopamine
orporation
ejection
athic
▁inhibition
▁absorpti
▁solubilization
1%)
myr
▁drainage
▁IVC
▁gastr
▁92%
moid
▁(10(-7)
▁varies
acetate
▁absorptiometry
▁hypertrophy
uestionnaire
▁sensi
50,
▁copper
▁adulthood
▁detrimental
▁resis
▁Assess
tropin
▁21%
ocarcin
▁nonc
responding
roscopy
plast
▁SEM
trodotoxin
▁brach
▁ophthal
ressive
rogen
▁12%,
▁glucocorticoid
divided
lux
▁1.7
▁respec
▁sphinc
▁repeats
▁0.61
▁radionucl
▁COS
omized
▁Responses
▁avid
urate
▁embry
▁hydrolysis
▁proteolysis
ipital
isite
▁controver
Tyr
▁PGE
▁angiographic
tives
▁bundles
▁flas
▁prophylactic
▁postoperative
▁bathing
▁CGRP
▁virion
▁morphologically
▁initiate
▁11.6
PGF
▁luteal
▁oxidative
▁demyel
▁DS
▁rhin
▁8-
▁80-
▁sphincter
▁objec
carinic
▁pharmacologic
▁diets
▁horiz
▁(16%)
opha
globulin
Fs
▁conjugation
▁techniqu
▁carb
▁ACE
▁interrup
acts
arrh
▁diabetic
▁cil
▁3.6
▁colliculus
▁intraper
▁exacerb
▁0.76
Ti
1),
▁exaggerated
monella
▁insuff
▁electr
tivation
▁vibr
▁idiopathic
▁ectopic
▁45%
▁varic
▁mitomycin
eprazole
▁3.5%
▁+/-
glutamyl
▁preventing
esophageal
▁HbA
▁IgM
▁intram
▁Survival
▁tape
▁ect
▁glandular
tomy
enzyme
▁workplace
▁tRNA
▁succinate
▁Braz
▁progressed
▁inhaled
orh
urther
▁drank
▁macrom
▁deoxyrib
▁abuse
▁evacuation
82
▁termination
▁cere
▁stratified
▁tuberculosis
receptors
▁vein
ilized
▁exhaustion
-36
RV
▁wavelength
▁contamination
▁fibrosis
▁responder
▁flexor
▁quantified
▁microb
▁quantitated
▁genomes
▁muM
▁BU
▁comprehen
▁sulfonyl
▁macromolec
▁gastrocnemius
▁Intravenous
▁branching
▁grains
chemical
ystokinin
tic
▁bilayer
▁correc
▁burden
▁artic
aid
▁adenocarcin
urane
▁predic
▁Ringer
▁thym
700
establ
▁infiltration
posure
ordial
jury
▁commiss
monary
tization
▁pregnancies
▁trauma
iparous
46
▁molec
▁Crohn
▁Educ
▁droplets
opl
▁amph
etan
▁ECM
▁(67%)
phasic
▁survival
▁DP
▁ml
▁abstinence
▁thyro
accharide
▁zym
▁sigma
▁glycogen
▁parame
▁Cardiac
-23
▁strategies
odular
ropriately
▁(2%)
▁alkylating
▁biology
▁examination
▁Severe
▁phleb
injection
▁meningitis
upuncture
acet
▁reversible
▁Subcutaneous
▁intran
▁depended
▁infarction
sives
▁Maximum
▁139
▁128
▁Phosph
▁extras
▁PET
▁relapsed
idne
▁spectro
▁seas
▁Synthe
▁unex
▁extremities
▁proteinase
▁7.5
stimulating
▁Inhib
▁infection
▁satur
ignific
▁7.5%
▁wt
tub
ecan
obutyl
▁quantification
200
▁mug
▁adsorption
▁visualized
olysis
▁antiarrhythmic
▁microM
electric
ensitized
oblastoid
▁salmon
▁negl
▁excessive
RNA
▁promoter
operoxidase
▁pacing
▁immunoglobulins
▁GD
acyl
▁jugular
▁(4)
▁0.01).
mercap
▁preventive
▁cough
▁efficacious
albumin
chid
rinary
▁glycosylation
NK
▁dentin
▁37
▁wors
▁Lyt
▁1.2
idate
▁varicella
-78
▁chl
▁adenylate
acked
▁recur
▁enzymatic
▁biliary
aemic
▁modulated
uanti
▁(200
▁genital
▁puberty
till
▁hospitalized
▁immunos
▁ranged
▁nutrition
▁polypeptides
achid
▁spines
▁ileum
5%,
▁preschool
▁residue
▁sulph
▁neuron
▁NADH
▁influences
aminase
▁monkey
▁COPD
▁atenolol
▁axial
▁85
▁cholesteryl
▁infarctions
▁periodon
▁opi
.1,
▁PE
▁electrochemical
▁GI
▁precipit
▁0.94
▁hams
▁presenting
▁1,2-
▁deliveries
8%)
▁anomal
scherichia
▁sham
▁ovaries
▁cyclospor
▁resonances
▁progenitors
ensory
DH
▁dosages
▁susceptible
▁fascic
parathyroidism
▁ank
▁vaccination
▁7.6
▁standardized
timulus
acetyl
▁pyruvate
▁illus
▁phosphatidyle
▁intraperitoneal
▁malignancies
lox
▁sulphate
▁pathophysiology
▁Few
occlusion
▁mRNAs
450
ensitivity
oactive
▁competent
-9
▁colonies
▁characteris
▁intim
▁hypothesize
CSF
VLDL
▁Identif
▁vegetables
ectomies
▁PV
pinal
▁25%
▁hairy
▁2-
HB
▁fluctu
▁narrowing
omyelitis
Trp
▁capacities
oreceptors
vascular
IFN
▁osteoporosis
▁carcinoma
distal
oblastic
fem
activated
▁autologous
▁logistic
▁Bacterial
ischemic
teroids
roxy
pir
▁amitriptyline
47
▁3000
▁bronchodil
eptid
▁Changes
▁fibrillation
▁variability
opause
▁haloperidol
▁Progesterone
▁activating
▁reconstruction
▁Platelet
▁atrophy
▁Veter
▁1.06
▁glomeruli
mTc
88
thanolamine
▁epididymal
▁anesthetics
▁Haemophilus
BW
▁disseminated
▁yielding
rophenyl
odal
▁polymorphic
expressed
▁(80
+.
▁chicks
▁Tumor
▁hapl
▁atm
▁55-
psych
concentration
▁oxytocin
▁ligation
▁extracts
itus
▁mobility
iasis
▁lumen
▁unequ
posal
▁Peripheral
▁surgery
ogenetic
lyl
▁pancreas
▁kinase
▁Swed
+/
▁lymphocytes
onomic
▁nipple
▁preven
▁mast
otor
▁valve
▁nitrous
▁hepar
▁1983
5%.
▁0.26
▁beads
▁vasculature
▁admissions
▁Natl
▁clinically
thyl
▁diastolic
▁antagon
hydryl
▁inadequ
▁broth
HCV
▁0.74
▁(94
▁proliferation
▁lact
usate
▁forskolin
▁ionic
hyd
-7.
▁44%
▁-7
▁depolarization
▁holo
▁HP
▁confined
▁intrauterine
▁urokinase
ighted
▁terat
osides
▁(56
▁Groups
▁VP
▁Arterial
▁supernatants
ytoin
▁excit
0.1
SMR
(2
dC
▁predicts
otri
▁divalent
▁beef
▁cAMP
▁palsy
iciently
▁foetal
▁thickening
▁EEG
▁colpos
▁idi
aturated
▁examines
▁exposure
▁cyt
mg
23
▁antagonized
ecretory
▁tox
0).
essation
▁9.9
▁microsp
▁Adult
▁preserving
dition
▁eczema
▁amide
▁gag
.7%)
▁14.8
entricular
0)
ituit
▁epinephrine
▁selen
▁branched
athy
▁dihydro
▁solely
onit
30
▁(2)
▁1989
▁Subsequent
casein
▁ipsilateral
▁0.14
aryngeal
▁131
effective
▁0.001),
▁86%
▁magnesium
▁specimen
▁remission
▁linoleic
▁70-
▁Therapy
▁(0.6
▁chloroquine
hene
▁originate
▁isolate
apsulated
▁subtype
▁phage
rease
▁anaesthesia
redoxin
▁uv
80
▁oscillations
-6,
▁vascular
▁photoreceptor
▁modeled
tosis
▁manufac
adiol
tering
▁hydroly
▁4.2
▁11-
produc
frequency
▁Vitamin
▁surgeons
12-
▁folding
▁mIU
▁contaminated
▁reas
rolase
▁chondrocytes
tice
▁endoscop
▁recor
▁immunobl
hern
▁elu
▁conclu
▁ascending
▁9.
oglobulin
cinolone
toxic
▁enhance
▁centers
iotensin
▁cate
eric
▁phosphorylation
▁dextrose
▁destro
requ
olipid
▁gingival
▁titration
▁reductase
▁133
Dawley
▁9-
▁yolk
▁seronegative
▁occupancy
▁shifts
▁packed
▁subdivided
▁suspended
▁progest
▁balloon
▁tandem
▁autoanti
▁intravenous
asions
▁monol
▁collic
▁fourteen
▁macrophages
▁proce
▁activators
▁connec
▁asymme
▁deform
▁challen
▁(82
sis
▁swit
▁comprised
fusion
hCG
tructive
▁Immuno
hop
CCK
▁Replacement
unctional
xime
▁thromb
atest
▁gradients
▁tachy
▁vasodil
▁Compared
95
▁(2.6
▁leukocytes
▁metoprolol
DG
▁prazosin
▁unil
▁electrode
▁coagulation
tris
▁phosphatase
▁decades
MDA
▁ultrastruc
▁disappearance
▁antimic
24
▁leukocytosis
▁tas
EGF
▁hyperpolar
▁fec
▁househ
▁seiz
▁inducing
▁premature
isolated
▁operon
IgG
feeding
▁(71%)
▁synthesize
▁hypo
osynthe
▁selective
8.
▁(10%
▁amyl
▁fluoro
associated
▁Meth
▁involvement
▁discom
lyc
▁regimens
▁cyclic
▁cuts
▁incom
▁occlusion
▁dissociated
▁hematopoietic
posterior
LDL
▁comprehensive
▁deposition
▁practitioners
▁MT
▁40-
/10(
▁cochlear
▁whey
▁TC
▁lob
rocyte
▁otitis
▁nucleotide
▁Grade
▁childhood
ovirus
igible
▁encouraging
▁titer
ymethyl
▁defective
odgkin
▁15%.
▁mononuclear
incub
secre
transformed
▁iod
▁dispersion
▁difficul
▁toxicity
▁immunohist
erents
▁formulation
▁(67
tropine
geal
▁septum
blocking
plasty
▁saturating
NIDDM
▁43,
enters
▁specificity
▁Factor
oclonal
aneously
▁hypon
▁incubations
▁Transient
▁collagenase
▁Significant
erge
▁ADR
▁reservoir
▁Glucose
▁lectin
▁formalin
▁schizophrenia
4.
6-
▁methylation
▁kerat
▁papillary
oxidation
▁recycl
▁serologic
▁monke
▁suppressive
55
▁airflow
▁SRIF
▁squamous
▁0.06
opar
▁Lys
▁Hb
▁discre
▁quiescent
▁0.33
▁threefold
▁releasing
operative
▁NF
▁detec
▁4.1
-65
▁siblings
▁gangl
▁tric
osan
▁precursor
-2-
reatine
▁ammon
valvular
moking
▁stressed
▁atten
odopsin
▁replication
ishman
sants
▁colitis
opulation
aind
arate
▁recipient
erance
acterial
oradi
▁characterizes
▁84
▁abdominal
thoracic
▁endocardial
▁healing
anate
▁decayed
▁0.4
rosemide
tenti
▁microsomal
activation
▁debr
▁abilities
▁hypothesized
▁oval
comitant
▁3
▁progres
▁stimulatory
▁fluo
▁194
▁bladders
▁uniquely
▁correlates
▁bone
rowing
patient
▁cellul
hentic
oflav
▁surgical
▁differentially
▁experim
▁CaM
▁polyethylene
▁assay
▁(1),
▁(23
cholic
▁proliferating
▁meperidine
diagnosed
▁inward
▁GH
imetic
▁consequent
▁18
3%)
olamine
▁Trial
stolic
▁defects
▁hypoxanthine
▁0.24
▁radioactive
MHC
▁phe
usively
▁stoichiometry
▁eccentric
glutin
▁toxic
▁integrin
trast
ropathy
trac
53
▁34%
odeoxy
okine
▁interneurons
▁instruc
▁judged
▁heterogeneity
▁synerg
▁horseradish
-5,
▁Feeding
▁carboxy
ections
▁Simultaneous
▁hyperp
kephalin
▁DG
▁questioned
azone
opril
ocyt
▁25,
▁mucosal
▁relating
atine
NMR
▁emulsion
25)
MSH
irone
▁parasites
▁exud
okinetic
▁90%
resistant
▁inactiv
▁compromise
▁1,25-
▁vag
▁hig
▁cohorts
▁HCO
▁migrated
rosal
emias
▁coex
▁acids
▁contractile
▁demonstration
▁digested
mia
▁6.5
▁primates
▁concomitant
▁newborn
▁Diabetic
▁phosph
iclovir
tizing
▁pharmacy
EA
▁epithelium
▁myot
voltage
▁affinities
▁phy
▁autosomal
▁shel
biotic
▁(1)
▁whee
PV
▁167
▁radioactivity
fractions
▁vanadate
▁inconsistent
opharynx
▁16
▁preferential
.9%)
spectrum
▁depressive
phic
pain
▁participate
▁undergo
4-
▁graft
▁indi
inol
oglyc
▁cancers
-125
magglutinin
▁trophob
roprusside
ylation
▁definitive
4]
▁120
▁babies
azep
▁IgG
▁Tiss
ortal
▁aortic
▁NaF
▁GST
▁cephalosporin
▁symptomatology
▁0.9%
▁poten
uvant
▁irrit
▁thal
ffer
▁galact
ulin
▁spont
▁80.
▁conduction
▁transmitter
▁assessed
▁182
▁diuretics
▁cytologic
▁abrupt
▁stimulant
▁oss
▁androgen
▁neurotrans
▁4.4
▁distinguishing
aortic
▁NMDA
▁sedation
.5.
omal
esin
▁echocardiogram
loon
itamin
diagn
ulant
▁lymphoma
▁myelin
▁Drosophila
▁LR
ture
▁mediated
▁10.
▁oxid
etoprotein
▁antide
▁blocker
▁Ventricular
▁inver
▁isoenzyme
colem
▁hap
istribution
▁exploratory
▁kit
▁BT
▁predicting
▁uric
igenic
▁lengthen
▁receptive
▁subun
▁prostatectomy
▁spectroscopy
▁exons
oil
▁patches
32
▁electrically
▁threonine
▁nocturnal
ocar
▁mL
regulated
▁Glu
▁herpes
▁ofloxacin
▁50%,
▁radionuclide
terminus
36
▁carcinomas
▁centres
▁thrombi
▁hygi
▁radiograph
sue
▁infrequ
▁stimulation
▁oocyte
▁microliters
▁metall
▁DNAs
▁inducible
▁projecting
▁outgrowth
▁freeze
▁arti
▁quantitatively
▁(12.5
puts
▁develops
onor
mol
▁monolayer
▁chondroitin
▁pathways
▁cDNAs
▁weighed
2(+)-
▁aberrant
▁(5)
▁5-
▁IGFBP
GABA
▁homogenates
atibility
▁Lym
▁inactivation
lysis
▁0.52
▁minimize
▁triglyceride
▁24-
2),
1.1
▁catalyzed
tility
enol
▁7.4
aternal
▁atrial
▁thir
▁(43
▁PHA
▁ischem
▁MMC
siologic
▁daltons
substituted
▁actuarial
▁progeny
▁kb
▁bioassay
ginine
chlor
▁anat
▁mutation
▁concanavalin
▁Mice
▁mA
▁64
uantitative
▁colonic
▁preceded
▁arrhythmias
tectomy
▁fatigue
▁10-
▁apnea
▁insoluble
▁antid
▁similarities
▁smo
▁tomography
10-
▁54
ritic
▁UT
▁enteral
▁18,
▁sour
metabol
▁bones
▁(10(-6)
istically
▁exercising
odipine
polyacrylamide
▁0.50
▁chromatin
▁-15
-1)
▁repl
▁inflation
▁thi
plen
uridine
▁bipolar
indole
▁nosocomial
oate
▁disorders
▁anhydrase
yrid
▁corpus
sied
▁hyal
▁macrophage
▁worm
▁casein
▁Engl
5'-
▁ery
nucle
eptidase
▁vertebr
▁IDDM
obacter
▁0.47
▁chan
entanil
▁Saccharomyces
▁nervous
▁atr
▁demands
▁(50%
▁hypox
▁medial
▁0.90
placement
▁GABA
mortal
▁BP
▁dilation
▁30.
TGF
▁hyste
▁cellulose
▁irrever
▁oriented
tocop
otid
omotion
7%)
▁seasonal
▁NADPH
▁serogroup
pituitary
rays
▁mann
▁mediast
▁pouch
▁transp
cepti
37
sant
▁parathyroid
▁Pneum
▁locus
HDL
▁Ninety
▁phenol
▁86
▁quinine
iagn
▁complexes
▁isoforms
▁nodule
sparing
gradely
GTP
▁shif
▁rhesus
▁counseling
0.5
▁Screening
▁constituted
aptic
▁Approximately
▁patency
lyb
▁enkephalin
▁1)
▁trich
▁telephone
▁abr
altered
iferative
▁pacemak
cyclo
NM
▁introducing
▁hypercalcemia
▁splic
▁contraceptive
▁(5%)
▁biopsy
▁250
razolam
▁estrous
tability
turb
▁surfact
uccessful
▁duodenal
ffinities
▁SOD
His
▁paralle
▁(16
▁adrenocortical
▁splicing
▁lysosomes
▁resting
▁dental
▁resin
▁tracts
▁pts
izine
rendipine
▁triad
▁0.09
▁bronch
▁SIDS
ranial
▁(0.2
▁reductions
▁rheumatoid
6%
ressing
▁modulation
.6%
reed
▁Plate
HIAA
▁testis
trations
▁ascorbic
lated
▁margins
▁pathophy
operated
▁0.29
tically
▁evaluations
▁pylori
▁xyl
ervations
vertebral
▁heal
▁Clinic
gesia
inone
alas
▁10,
▁4,
tolerance
orbidity
trate
▁91%
▁mercury
ller
rosy
▁blunted
▁ICAM
thms
▁aimed
genital
oxy
osid
▁5'-
yronine
rometric
▁haplotype
cysteine
oxan
▁epidemic
▁sequencing
▁inhibitor
▁proportions
▁TATA
opathic
▁junction
▁Ala
▁disturbed
▁glycolytic
density
▁interf
▁neuropeptide
▁contral
▁13.9
▁purine
▁ganglioside
▁acetylcholine
▁1.5
▁hemisp
abd
arent
▁hypothyroidism
veolar
▁93
oplasty
▁PP
abain
▁tendency
▁rheum
▁kidne
ganglionic
▁viewing
▁pM
-50
▁deoxy
eclamp
▁hipp
▁vimentin
▁explored
0%),
▁lisinopril
▁4).
▁hybrid
acements
▁cerebral
▁cervix
▁substance
▁goats
rief
▁glycer
▁(125
▁contractions
FU
oglobin
▁0.27
▁mutant
▁challenged
89
▁CAH
mL
▁optimum
2,
▁Weight
▁immunostaining
▁responders
▁Rb
▁potassium
▁Histologic
▁tymp
▁encoun
avirus
▁epidural
▁correspondingly
▁90%.
ductive
▁adverse
exis
▁preparation
encephal
▁restraint
3).
SAID
0),
▁therapeu
▁diagnose
▁esophageal
▁staphyloc
ulatory
▁endothelium
▁endocytosis
▁premenopausal
▁impulse
▁gonadal
▁Entero
▁infra
jac
▁glutaraldehyde
alate
▁Escherichia
▁arter
▁apne
▁mec
▁synap
onuclear
responsiveness
▁Magnetic
urosporine
▁castration
▁Preincubation
▁influenza
▁analogs
▁68
11
▁9,
▁athle
oxim
▁0.67
teroidal
▁lumb
turnal
▁transduc
astatic
▁utilizing
▁qualit
▁ison
otypes
▁calorie
▁mitochondrial
▁ankle
▁Americ
▁availability
timulation
umbens
▁depressed
▁warr
▁intermittent
▁outpatient
▁ewes
▁internalized
ogens
▁belie
▁discon
▁pyram
▁deprivation
▁proteins
▁60,
rine
▁veins
▁primers
▁positively
ucas
▁cigarette
▁Comparison
athione
▁dopaminergic
▁solubilized
ureus
pecific
▁flexion
nec
▁0.07
igl
▁ovari
▁pepsin
▁cortisone
▁maintaining
▁caudate
▁10.4
▁bradycardia
▁blin
56
▁neurons
BM
ifornia
▁Gly
ichia
▁demographic
parathyroid
▁covari
▁pellets
▁secretagogues
▁oxidation
▁GVHD
gp
▁afferent
▁fungal
▁bilirubin
▁voluntary
▁hybridomas
▁CBA
IU
▁trials
ocl
▁endometri
uresis
▁Cancer
ching
▁conges
ospor
▁23%
▁infants
fat
▁(85%)
7,
tening
▁amplified
000.
▁0.88
24,
imentin
▁rehabilitation
▁NH
carbohydrate
olesterolemia
▁protease
▁1.4%
▁unselected
rofen
orbid
ropriate
epithelial
releasing
▁Kine
▁sacc
▁instrum
-13-
ometrial
▁(86%)
▁conservative
romed
-10)
mitted
▁33-
-(2-
▁Cox
▁organisms
▁inoculated
ipro
▁147
▁anticonvulsant
▁incision
▁stom
amate
▁oestradiol
▁hyperg
▁127
▁subjected
stro
▁inspiratory
▁reflec
duced
▁chewing
-79
▁impedance
lycero
pyr
▁suppressor
▁OB
ocardi
▁alterations
▁demonstrable
-2).
▁transloc
▁accounted
▁94
itudinal
ampl
uterine
▁assayed
etween
▁Cells
▁potency
20
▁edema
▁dramatically
▁serotoninergic
lastic
▁pector
▁nephrectomy
toc
▁10.5
▁DH
yroid
jun
imolar
▁ongoing
atab
erule
▁lasted
oreceptor
▁hemodynamic
▁sucralfate
▁investigators
▁wards
▁submaximal
▁(45%)
▁dischar
▁familial
▁adrenoceptor
▁possesses
▁bouts
▁0.19
▁Meas
translated
▁monophosphate
▁helical
▁behavioral
▁aneurysms
▁coeff
strain
▁superimposed
▁instr
aminobutyric
▁HeLa
▁resected
▁collecting
8-
▁injec
7;
▁(10.
ilical
▁isomers
▁CABG
lymph
atchard
ofl
traumatic
▁arteries
▁pathogenesis
▁contractility
▁pep
▁1984
▁adducts
▁widespread
▁resemble
▁ethn
▁lymphaden
▁prevalence
▁Apgar
athyroid
keletal
WB
▁biosynthesis
atellite
▁eug
▁naive
▁irradiated
▁dentate
titude
1:
▁influenz
▁181
▁histology
▁2.4
▁Diagnostic
▁paradoxical
▁vasodilator
▁pellet
0.4
lora
▁permits
▁dib
▁aden
aethyl
taining
diastolic
▁Caucasians
edded
▁encephal
▁bonds
kets
ulous
▁0.2,
otroph
▁Barrett
▁confirmation
▁therapy
▁meth
▁1.6-
▁reinforce
▁sepsis
▁diame
▁hyperox
▁209
cein
▁pneumonia
+,
spar
▁latex
▁ECG
kelet
yx
▁additionally
▁atypical
greater
hepatic
▁provid
▁52%
-2
▁sphe
oflurane
▁principally
▁guidelines
▁Disease
duce
ecyl
▁0.81
▁recruited
▁initiation
▁lowered
▁parac
CHD
▁advan
▁tonic
▁unipolar
hydroxy
▁solvent
▁ischaemia
oconazole
-100
attered
▁polyamine
▁3.5
▁4.9
▁socio
▁DAG
okinase
▁analgesics
▁atyp
toid
tivity
▁Failure
▁screened
42
▁emphasis
▁terminus
▁thyroid
years
▁amino
junctional
▁chemically
▁stres
▁Cd
osocial
tonic
-66
▁mood
ophilus
▁80%.
▁LHRH
spective
▁mandatory
59
osterone
ascular
▁quantitation
▁microbi
▁spleen
▁reflex
-100%
▁polys
75
▁Activation
▁obstetric
▁hydrocortisone
▁CTL
▁personality
particularly
▁sinus
▁tyrosine
▁albic
▁27
0%).
▁scintigraphy
▁Sequ
actin
▁microm
▁cloning
▁SCC
tomycin
▁raphe
▁autoimmune
ositol
▁Nons
centr
hydro
14
romyces
planted
opressin
▁serum
ACh
▁granules
rated
ollen
▁hippocamp
▁vesicle
uppres
▁cleft
▁endings
▁OKT
▁comprising
▁athletes
promazine
▁Transi
▁goiter
▁49,
▁indo
▁microf
ithromycin
▁(3),
▁adherence
▁recommendations
▁retinal
▁Delayed
▁0.48
atical
▁thresholds
physiological
▁augmented
▁outflow
▁implications
▁prodrug
▁splenocytes
▁incorporated
▁1991.
▁rheumatic
▁esterase
▁1.5-
obase
▁intracellularly
▁stenosis
▁cystic
51
olesterole
▁28,
▁quanti
▁functionally
▁Asn
▁13.
▁resul
ohns
▁enzyme
truction
▁considerably
▁0.2-
▁schiz
ipid
▁schedules
ipit
▁connective
▁homology
▁neurom
▁proteolytic
▁practic
agonist
▁50,000
monstr
▁segmental
▁transgenic
aryn
0-
▁(99
.10
▁raises
etaz
physe
▁elucidate
-2)
dil
▁uninfected
stant
▁xanthine
▁overload
▁hypothyroid
hyde
enzymes
▁determination
atrial
▁0.86
50
▁transplant
▁absorb
▁incubation
▁synaptic
entia
rosis
osom
glyc
▁proteoglyc
antial
▁trabec
KD
tempor
▁CML
▁lavage
▁perin
▁arteriolar
▁2.5,
▁unstimulated
▁morphology
▁corticosteroids
▁lesions
0%,
▁owing
▁EDTA
▁streptozotocin
▁Nit
RIA
Hb
▁intercal
▁physici
oung
▁ionophore
ynthe
▁intermedi
▁rostral
▁habits
▁cataract
crystall
▁thrombus
▁bicarbonate
▁thromboemb
▁antec
▁mV
▁neutrophils
▁lineage
▁natri
transfer
▁incontinence
-7
▁0.38
▁oligonucle
▁precipitated
ulants
▁lympho
llate
▁acet
▁salbutamol
▁caro
▁puber
uity
▁venous
▁Almost
▁retin
dihyd
anoids
▁Thyroid
▁kPa
▁classified
▁cream
ancies
▁2.1
generation
tradiol
▁73
▁foods
▁carbamazepine
▁sial
▁secretions
▁hypertonic
▁anionic
▁chol
early
▁stratification
▁Improvement
▁chronically
▁-0.7
aryl
▁hydroxyl
▁nodular
oprol
▁peptide
aric
▁mitochondria
▁cortex
aerobic
▁maneu
▁femur
▁distin
lymphocyte
irectional
divid
uronal
▁protective
▁heterogeneous
▁accumulate
▁47%
-4.
▁115
▁kidneys
oplastic
▁Leuk
▁investigated
▁hypertensives
▁supple
▁GHRH
▁Basal
▁nausea
▁Plas
▁Phe
▁serology
ications
chymal
cyte
▁tablets
▁euth
urnal
▁Alz
oplasm
▁strain
▁scle
▁elderly
▁urtic
Gly
idin
acrine
▁2.5-
▁facilitated
▁fluoxetine
tric
tetr
▁12
▁calf
▁protracted
▁myof
obacterium
ithine
methionine
opath
▁streptococcal
kers
▁implic
acer
.0)
porting
▁supernatant
andard
▁NMR
GlcNAc
▁complementation
▁cutoff
odopa
▁SCH
ammonium
▁440
▁0.001
atched
▁carcin
-75
luc
ults
▁189
carbox
▁harvested
icillin
▁suction
lys
127
▁interne
▁intermediates
▁stratif
▁550
▁Streptococcus
▁dissolved
abin
clonal
▁antidepress
zine
▁uncomplicated
▁conjugate
lational
▁stomach
▁cereb
▁microbial
▁jejunal
leuk
▁sph
androgen
yel
▁immunity
clerotic
▁amyloid
60)
araldehyde
arb
▁illness
▁agar
▁amin
stin
deficiency
rophy
phot
isomer
ensin
▁agonists
coupled
▁Measure
64
▁ACh
▁ischaemic
▁16%
▁(95%
▁infections
anded
usp
▁congenital
▁immune
▁24)
▁0.02)
▁110
-25
ithin
▁insufficient
▁stimulus
▁fibers
▁stimuli
flurane
▁immunotherapy
thmia
.4%
▁clon
eal
/6
▁segreg
▁allevi
▁radiographs
▁responded
▁MCF
▁ions
▁10(
▁prostaglandin
weekly
▁infancy
▁dimethyl
▁monit
anuary
muc
permine
mokers
apeutic
▁rises
▁Flu
ometr
▁permissive
▁200
▁82
assi
▁drops
arterial
▁scaven
gold
▁Chronic
▁sulfur
▁taurine
▁EB
▁chorionic
▁monomer
▁implant
▁ovulation
fibr
▁arginine
ureas
▁rhythmic
gic
▁10.8
▁Subjec
administration
osaminidase
▁multicenter
ardia
ipolar
▁lute
pation
▁somatic
▁erythemat
▁prescribed
▁avoiding
▁satisfactorily
▁reinfection
▁79%
▁hemorrhage
▁Recombin
▁cesarean
▁chicken
▁granuloma
▁elastase
▁inhibin
tious
trypsin
urium
▁vaccines
▁adolescents
Ts
▁Cul
▁smears
▁axillary
2-
▁autoradi
rophic
▁weigh
ardias
▁antisera
onegative
▁inability
▁Golgi
▁marginal
▁-2
▁controlling
▁Subjects
anic
▁quies
▁overview
olesterolemic
vastatin
amid
itriptyline
omyel
▁washed
▁diabe
▁heating
▁lobes
▁ulnar
-3)
▁107
pended
▁antitumor
▁ND
▁97%
▁ornithine
▁invasive
vivors
retion
▁anticoag
uclear
enh
▁struc
retin
roat
▁5%.
▁identically
▁anomaly
iphene
▁menopause
▁exhibited
▁cryst
Lys
-3.
aginal
IgM
▁chemicals
▁Tn
olestero
▁HCl
▁parturition
▁electroph
▁primate
lycemic
▁deaths
500
▁isoprenaline
▁healthy
▁caud
▁androgens
▁dihydropyridine
▁saliva
▁7%
▁Dise
trated
▁1988,
▁plex
titution
▁clearance
▁199
PTH
▁Increas
olic
▁15-
▁255
▁10.2
▁deletion
▁elong
razole
treated
▁savings
-11
rostened
▁Biochem
dIns
pH
▁monos
▁kits
▁insulin
▁dysp
oprost
▁nip
▁propagation
▁pneumococcal
▁jejunum
▁subclinical
▁122
▁conservatively
▁subtilis
effectiveness
▁126
▁PCR
▁organism
103
▁retrie
▁rhe
▁lactose
▁7.9
▁innerv
▁Thirteen
ucle
▁lysis
▁topo
ticle
▁Prol
0.9
modified
▁responsiveness
acetic
ulose
▁RI
▁104
▁agon
▁micrograms
dense
▁10(3)
0.0
lood
titu
▁accelerated
endorphin
▁pulsatile
onary
▁spikes
▁nutrients
▁gp
▁inflamm
▁secretagog
▁stere
▁99
▁PMA
▁rods
▁vicinity
tilled
coun
▁60-
potential
▁microvascular
▁DNase
▁TPA
▁promising
▁6
▁nec
sive
▁50,
▁42,
▁epit
ulmonary
▁ANG
▁synapses
kinin
pendent
▁celiac
▁cyc
▁asthma
▁resembling
▁50-
▁88
▁administered
lusion
▁parental
thromb
▁reinfor
▁granule
ivac
▁7
▁afferents
uppression
glycero
▁mg
▁platelet
▁hyperplastic
▁contour
▁intraocular
▁induces
versity
▁340
▁extracorporeal
▁noninvasive
▁glycine
ilateral
maximal
▁tetrac
0,
orec
▁promoting
▁Bacillus
hydroxyd
▁ate
▁aneuploid
▁candidiasis
▁TSH
▁(84
Ep
▁differentiation
toli
▁ecz
▁1.16
planchnic
rologic
phyrin
partic
▁excluded
▁superficial
ruc
ropha
▁ANP
▁dissected
▁isomer
▁biological
oA
▁pancreatitis
akary
ronch
havi
▁feasibility
▁schem
▁effec
PAP
▁Pb
▁0.2%
▁hered
▁lam
▁chromosomal
▁promoters
▁phenotypic
▁arousal
▁Individual
▁cadmium
▁saphen
itoring
odynamic
icidal
▁protocols
▁potentiate
adily
▁0.25%
▁successive
▁absorbance
otassium
▁BA
glutinin
▁constitute
▁CDDP
anol
▁rupture
.1
▁14.5
▁resorption
▁shar
wann
▁capability
▁(300
▁somatostatin
▁IGF
-6)
dyle
testinal
▁assessing
▁altered
▁anxiolytic
▁postin
▁indis
▁phenyl
Phe
2).
▁penile
▁Mg
▁0.005).
imurium
▁fluxes
▁3,4-
5,
▁coag
eclampsia
▁hepatotoxicity
▁monocyte
CAM
▁serotype
▁polymer
▁prothrombin
▁BAL
▁mice
ifug
atrop
▁microv
▁28%
▁maneuvers
5]
oprotein
▁statistically
▁infertility
▁176
dR
▁hamsters
▁anemic
▁improves
tiary
▁synthesized
▁(63%)
iliac
▁uptake
▁Carb
▁63
phosphate
amic
▁denti
botic
▁ionized
trib
▁fractional
▁intracellular
nish
▁CNS
▁resusc
proven
▁stringent
naph
▁mRNA
▁spectroscop
leucine
teria
▁weaker
▁31,
▁rifampin
▁extrap
conditioned
▁reveal
14,
▁cyclase
▁omeprazole
poor
▁undetected
directed
▁sero
▁amel
adren
emak
inephrine
phyloc
▁enanti
asting
ioma
▁psi
▁precursors
▁carboxyl
▁washing
▁cytomegalovirus
▁reperto
▁preferen
arachnoid
tual
▁obstructive
25
vely
gene
▁Experiments
nary
▁amygdala
encephalic
otransferase
▁DVT
▁antiserum
▁19,
-2,
▁PRL
▁metastasis
▁victims
▁ducts
oproterenol
opoietic
butyl
▁ouabain
▁corresponded
▁treating
▁effectors
reactivity
antagon
BAL
etitive
inositol
iper
▁phenobarbital
▁lumin
teroid
▁CDC
▁injected
PEG
went
osteroid
truc
portant
osensory
plasma
3%
▁atherosclerotic
▁65%
▁cytosol
▁paren
▁PBL
ediatric
▁comparative
▁expense
▁anterograde
▁facial
▁facilit
')2
▁111
ovulatory
-8,
rospinal
▁125
▁electrolytes
▁isolation
▁leuk
▁soma
▁interv
acid
induced
atching
▁transplantation
▁atrium
▁stiff
▁inadequate
▁pneum
ongue
▁Experimental
▁mediating
availability
▁masked
▁5000
▁101
▁exacerbations
▁curriculum
xate
▁midbrain
▁sati
▁LPL
yto
▁serially
hexyl
duc
▁electrophoresis
lysine
entile
▁(29
▁microspheres
▁patent
(3
▁suprac
▁0.7
Ci
▁Prac
ucine
attern
▁subcutaneously
▁afl
▁chamb
▁lamb
▁gluc
▁cerevis
▁effectiveness
▁antis
▁Combin
atell
functional
▁diarrh
▁efflux
ofib
▁nonspecific
▁inters
▁defibr
(2)
▁percutaneous
▁70.
▁paradox
mentation
▁fibronectin
ygotes
▁tryptophan
jug
▁ket
▁inhibiting
▁wheat
inase
▁exclusively
▁0.05%
-19
▁(76
▁reti
imetidine
versely
▁ingestion
creatinine
average
IgA
▁lipase
▁histories
▁(36
▁150-
▁tubes
▁cathepsin
▁Exercise
▁homogeneity
▁Different
▁eating
▁congen
▁inositol
dependently
▁particulate
▁23
tracellular
▁21-
▁endarterectomy
▁diagnoses
▁endoscopic
▁22)
▁latent
▁oxidized
▁(1.0
▁Isolated
▁accumulation
▁myocardium
▁oxalate
within
▁posture
▁lesion
▁transplanted
▁gon
▁lumbar
▁deviations
▁inversion
▁fourfold
▁surgically
▁recru
▁oleic
▁Benz
▁febrile
▁devoid
▁pharmac
bearing
▁(63
▁prostaglandins
