▁urgent
▁strokes
stress
▁80,
▁exce
▁urea
▁RNA
erum
tyl
ortic
▁plastic
31
ylephrine
▁tiss
itively
1-2
umbers
▁nonselective
▁30%,
tidine
cyst
▁encomp
▁Laser
▁concep
▁laser
▁(3.8
▁144
rotal
▁0.20
▁MCV
-4-
▁emissions
▁1.6%
adequate
oscop
bloc
+)-
xyl
▁Inhibition
▁10%,
▁suppressed
erent
▁glut
derly
ashing
otriene
▁attenuation
(5
▁Recurrent
emide
LU
gesterone
responsive
▁15,
11.
onatal
deriv
urred
▁adenomas
▁injections
▁TIA
-800
▁benzo
▁HIV
regulation
▁pathway
odone
▁injur
▁leukemia
▁pregnancy
▁Intra
▁compound
▁onset
▁215
imus
mum
RP
▁glutathione
▁Acet
▁disturbance
▁adhering
▁fracture
▁vertebral
esting
▁construc
fused
▁-0.6
VH
▁genomic
opic
▁confounding
▁breaths
▁108
invasive
ifed
▁275
▁influenzae
▁tension
myocardial
▁Adequate
▁nonsur
inic
▁312
urgery
▁insurance
▁discrimin
tilage
affinity
ardized
▁Hypertension
▁immunogenicity
▁calor
▁incid
▁nonresponders
ocrine
▁pulmon
▁bup
▁85%
▁0.77
ensi
▁muscul
▁Fifteen
▁doses
▁(3)
▁PEG
bran
▁reticul
▁25%.
▁predomin
▁titers
▁prolonged
ompan
▁Rates
tussis
▁HB
▁suppor
▁elic
▁VV
▁Parameters
▁behavi
▁exercises
▁15.
▁CN
virus
acr
▁0.75
tiz
▁pulses
▁increments
▁39%
osus
2%)
tenance
kinje
▁potentiation
-60
▁hemo
faction
▁argues
▁85%,
▁genetic
▁decline
tested
▁Intensive
▁thoracic
▁ventil
▁malformations
menopausal
3+
▁weighted
▁1%
▁hydroxy
significant
▁0.4%
▁25
▁tuberc
rowth
▁asthmatic
MN
tro
▁transfusion
▁spleens
▁ventilation
▁Abnormalities
NV
flammatory
ograp
▁dips
Pu
▁Prevalence
sul
▁synthase
▁labeling
▁reasonably
lamy
▁questionnaires
▁PEF
otin
▁underestimated
▁69%
▁retention
▁expressing
odies
▁demonstrates
▁placent
ateral
▁positional
▁aro
▁differentiate
itonin
enicillin
tryp
▁serotypes
▁expiratory
reast
▁57%
oplasia
▁114
▁sorbitol
▁histological
▁ejection
▁ampicillin
:1
▁acute
▁spermatozo
▁practition
-34
▁213
▁(10
▁decarboxylase
▁Localization
▁suicidal
▁endot
ziness
ffec
00-
▁arous
▁4;
▁fibrinogen
yroxine
▁(21
phosphamide
▁10(-6)
▁ultra
▁vacu
▁myopathy
▁0.93
▁mucosa
▁anemia
▁nonsmoking
▁235
matched
▁motivation
▁regulation
emory
▁(17
▁Sleep
▁evolved
▁Protection
▁2%
▁cytoplasmic
▁carp
▁itraconazole
▁7.2
illary
▁2)
▁hypoglycemic
DV
▁excitatory
▁60
▁plac
obac
▁damaging
▁biphasic
▁retrospectively
▁1.26
▁injuries
aryng
▁hypothal
▁isch
▁attainment
▁crom
tigo
▁1.6
▁risks
▁gonadotrophin
▁antiser
atation
▁degradation
▁3).
▁triam
odine
/9
▁assays
▁electromy
▁dendrites
▁estradiol
glucose
▁autoantibody
urine
▁179
▁striatal
uccess
▁daytime
▁(93
▁metastatic
▁medulla
▁diminished
ocyte
▁anxio
▁alcoh
▁Thy
▁Surgery
▁micros
▁Nutrition
amide
▁(1/
iatic
respective
▁uncontrolled
oselective
▁molecules
▁HPLC
oustic
▁315
▁gonadotrop
▁endpoints
▁malignancy
CAP
mur
urin
▁223
gus
▁carvedilol
▁intrinsic
toph
▁coordination
▁bleeding
▁67
lec
charged
osal
piratory
otherap
▁anaesthe
▁covariates
uded
▁0.05
▁enamel
illar
▁Hg
▁failures
▁antecedent
examin
▁Forty
▁0.95
▁strongest
▁persisted
▁56
ifferentiated
ionate
fied
▁lungs
▁amniotic
umbar
tents
▁Phen
hers
▁bacteria
Gs
▁stripe
▁preliminary
ethyl
5/
FGF
▁epid
▁vaccine
▁thyroxine
▁synovial
▁permanently
▁fluc
▁36
▁spectra
▁CK
▁prostagland
▁accep
▁cyto
▁fetal
ixation
erebral
▁81%
▁nuclei
▁adhesion
▁ambulation
▁managing
orable
▁perc
▁prospective
▁Cumulative
cents
tages
▁mmHg
▁phosphorylated
orrh
-3-
ofluores
12
▁achie
5.
erican
▁ventricle
othane
▁tolerance
▁reass
18
▁approx
3),
▁GER
inesterase
letion
▁phag
▁homogene
▁vitamins
urations
▁compe
razosin
▁olig
incip
dle
▁5.6%
▁9.7
▁conflicting
▁alteration
▁detecting
▁labeled
▁constric
▁eligible
▁retinopathy
▁singlet
▁protoc
▁clinician
▁24%,
allium
esthe
▁ipratropium
▁artery
▁dias
▁heparin
fluoro
▁0
▁inges
▁predictor
▁0.28
immun
▁116
onin
▁amo
olates
▁ethanol
imazole
▁neuropathy
▁detergent
▁650
▁histamine
+-
entified
▁Levels
▁77
▁Comparing
idity
▁22
sulfamethoxazole
tase
▁gynecological
aired
▁Addition
angl
abies
▁grades
tinu
ergy
▁spray
▁Tissue
▁69
▁plasmids
▁punct
▁nominal
▁infertile
▁bronchitis
otre
uating
PSP
▁90-
▁(4%)
86
▁nadir
predominant
▁menstrual
tical
▁phosphatid
▁glands
▁137
▁28%,
▁musc
ocyst
olute
assessed
▁glucagon
▁drinkers
▁previ
▁(198
▁proliferative
hist
pite
▁presumed
▁bottle
thin
▁ovarian
▁steroid
▁cats
▁gonadotroph
▁hippocampal
ucl
acrylamide
▁slic
ariate
anding
idase
rectomy
▁localization
▁biopsies
▁clamping
▁inducer
▁gastro
oxyrib
ectom
▁disadvantage
▁(72
▁3/
▁intra
▁confound
▁Km
▁(92
▁0.66
95%
diabetic
aund
▁stain
positive
ipr
venous
▁twofold
oxazole
apamil
BP
▁8,
▁SHR
endix
▁poin
▁thymocytes
▁endoplasmic
▁hemat
▁indoor
▁ablation
edding
▁reversing
▁5.1
ologists
▁crucial
▁dietary
▁escal
▁recombination
▁SG
233
▁ECGs
▁infec
▁diazepam
oids
▁thrombosis
uvate
▁ultrastructural
▁TCR
0.
-7)
▁Sixty
▁(28
bacter
(2+
tices
benz
▁Highly
atally
▁anae
ulitis
▁subjec
▁choles
▁8%,
▁shortened
▁depleted
▁dihyd
▁cultured
icin
elvic
▁sorb
▁IFN
▁onc
▁autoantibodies
▁chorio
▁1991
tection
economic
ylate
esium
▁subcutaneous
▁backgrounds
▁therapies
▁normo
cture
▁sha
▁1.19
▁cromoglycate
▁Surve
▁(2),
hydropyridine
▁hyperthyroid
▁2.3%
▁glycoproteins
ocysteine
▁muta
▁hemorrhagic
00)
▁resour
disc
iliary
▁dysplasia
▁oxy
▁antagonists
▁manifested
▁hydrolysate
uoden
▁surviv
vular
▁abortive
▁2.7%
sor
triglycer
▁elimination
▁lipid
▁reactions
▁Older
▁maturity
▁sputum
▁irritable
▁differe
▁Antic
entric
▁700
▁wean
exposed
▁quantit
▁supernat
▁170
thmias
▁stab
▁contamin
ophore
TNF
▁CMV
8),
▁ureth
▁arachidonic
▁centrifugation
15
▁irritation
▁metabol
▁examinations
▁205
▁nm
▁tobacco
inemia
▁investigator
yro
▁TI
▁cann
▁deterior
tigu
▁digestion
olerance
▁Positive
chloro
▁staging
tide
▁OA
▁Unlike
▁2.9%
▁atelectasis
loid
▁illnesses
▁halothane
▁0.59
▁postinjury
▁(5.0
antigen
▁Experim
▁supr
tle
ondon
▁favoring
oneph
▁projec
▁nutritional
▁endometrium
▁penicillin
▁83
▁Nine
▁pyl
oscopy
▁cephal
heres
▁repetitive
glut
▁(3.0
▁9%
▁tow
▁90.
▁neonatal
▁44
▁4.0
otrexate
▁epitopes
▁430
▁(2
adian
▁fibre
▁passive
Ba
▁upright
▁diagnostic
▁chorion
▁antibiotics
▁islet
▁relieve
omain
erate
▁apolipoprotein
▁challenges
▁Neurop
dehyde
▁synthetase
3/
floxacin
gated
▁cardiomy
▁100,000
▁77%
dimethyl
▁Chlamyd
▁encompass
erver
▁selectivity
▁transc
▁heavier
titial
▁0.1
onucle
ostic
astatin
rhy
▁pall
alp
eight
▁presentations
▁contrac
▁incub
▁157
▁neuroleptic
Nase
ogra
▁92
ctive
▁clinical
▁melanomas
.8%
▁arrhythmic
▁preval
olism
iline
ustained
ylamide
▁discus
renal
▁buspirone
FSH
▁conjunctivitis
ylcholine
opulmonary
▁suicide
▁22%,
▁fluids
▁kinases
kle
derived
▁oxygenation
▁secretion
▁splen
▁verapamil
▁rotavirus
▁24
▁pulse
▁progestin
▁CM
▁shor
LISA
▁hydrop
osm
athe
respectively
either
▁dyn
▁nondis
▁perioperative
▁immunode
▁astrocy
▁pneumon
▁sten
▁ET
▁contex
▁239
▁neurones
▁inflamed
▁simvastatin
▁ib
▁serolog
▁164
▁necro
▁HBs
▁Incidence
▁paras
▁juven
convul
▁hematoma
▁HER
▁30%.
▁thyroiditis
▁hydrophobic
▁adenocarcinoma
▁(62%)
▁undergone
▁800
ophil
indolol
▁labelling
▁Urine
▁occult
▁ile
▁radiolab
▁1
▁Insulin
▁incontin
▁empirically
▁28
▁medically
65
▁aerosolized
▁sequential
▁basement
terol
▁fecal
▁empiric
▁26
▁selec
▁261
▁ulcer
isole
-1.0
▁neutroph
▁nasopharynx
▁gestation
-70%
▁46,
itol
,000)
▁corticos
tations
cemia
▁0.01
Gl
menstrual
▁randomized
▁EE
▁(2.5
▁concentrations
▁focuses
nons
oxine
▁responding
▁31
alazine
▁outlined
▁biased
semin
▁slowing
▁HI
▁manipulation
▁nerves
-0
▁ADP
▁4.8%
▁horm
ingle
▁lactulose
▁10(6)
▁1%.
▁18%,
▁Likewise
rection
15)
▁malignant
▁complic
▁MI
thood
▁guanine
▁lithium
600
fed
74
▁Plasma
adrenoceptor
▁14%,
▁persists
▁phospholipids
.7%
▁efficac
▁pharm
▁plasminogen
▁Fewer
▁10%
were
▁theore
▁subdural
▁qualitative
rement
▁(69
▁histologically
amine
▁molar
▁antacids
▁39
▁Concentrations
▁deox
ongest
ported
▁ganglia
icardial
▁pituitary
1-1
▁Stro
-35
romatosis
5%)
▁0.00
embran
▁recurred
▁polymorph
▁herb
▁lax
▁alternating
mend
▁titr
ses
▁albuminuria
▁specimens
ogenous
neph
-10.
imethyl
▁allergens
▁(54
▁ESR
▁tes
incidence
gans
▁LC
▁encompassing
ilin
▁32
selective
▁54%
zard
▁carbachol
▁300-
▁surrogate
▁immunosorbent
▁HBsAg
▁practiced
▁rectal
ophor
ncy
▁95%
▁hypokal
▁fist
▁persisting
cellent
▁moderate
43
▁CRP
atitis
henyl
▁diagnos
▁substrates
▁0.21
tries
▁succes
producing
▁caution
▁nons
▁HSV
▁3,
▁Coronary
▁PGA
▁manifestations
▁diffuse
▁puncture
▁(70
▁deter
▁lidocaine
.3
▁Extensive
roup
▁heterozygous
▁metoclopramide
▁adults
idespread
▁45
▁interfer
70
▁Immun
▁0.42
ilic
▁fulfilled
▁41
▁enroll
ostomy
▁superiority
oric
▁catecholamines
nthe
▁xylitol
hyp
▁80%
▁pelvic
▁vasoconstric
rachial
caro
▁enrolled
▁arterial
▁233
ophysical
▁Evid
▁produc
▁correspondence
▁jejun
eptide
tors
▁weakly
▁pharmacokinetic
ameth
▁fibrob
atinine
repres
▁inactivated
▁transfected
arean
▁mesenteric
orectal
fetoprotein
▁reacted
▁sustain
▁fiber
▁hyperglycemia
anad
▁3'-
glycerol
▁(32
lude
itidine
dominal
▁characterized
▁sarcoma
▁0.10
)],
onine
▁(7
▁ald
reening
otamine
▁0.18
▁-6
oprim
▁conducting
▁sple
▁retard
▁perme
▁rhinitis
▁excitation
▁glucosamine
enteritis
dose
▁47
▁therapists
▁receptors
fts
▁analogues
▁sulfoxide
ectin
▁bp
ipitation
▁knees
▁0.70
▁256
atid
▁spasm
▁suggestive
thre
▁occl
▁cholesterol
ceptions
000)
ylon
▁exert
▁ulcers
▁compliance
heximide
horm
▁171
silon
RD
ATP
▁prednisone
▁exten
▁ips
▁persis
▁restor
▁Prel
terin
▁myeloid
gulation
▁Holter
▁acqui
pregn
69
▁chemotherapy
▁ascer
▁genit
2+
▁nonf
▁withdrawn
FEV
phine
▁heteroz
▁5.5
▁(1.2
▁exploration
▁chick
▁allergic
controlled
▁currents
▁lambs
myc
▁micron
▁smear
70)
▁clinic
uated
4,
▁addi
oscopic
existing
▁221
ocellular
▁suspected
coag
sively
▁NSAIDs
▁(22
▁(197
anin
▁analysed
▁lep
▁LT
tetra
▁aerobic
▁ACI
▁BMI
▁prospectively
mitter
▁lipoproteins
▁reversed
▁sleeping
▁10(-4)
arynx
▁134
▁Functional
▁Invent
▁endoscopy
bred
▁35-
▁specialists
▁glycosyl
▁alopecia
▁presumably
▁problematic
icide
▁preterm
ATPase
▁conduc
▁98
▁PAF
▁cataly
▁pefloxacin
▁Antim
▁dissec
onazole
▁determining
epines
▁3.2
▁progressive
▁duplex
▁nontoxic
usive
erose
▁preoperative
▁neonates
▁neuronal
▁trichloroacetic
iated
▁radiological
bac
erally
ministration
▁sperm
▁20,000
odic
▁Combination
ameters
fec
uretics
acted
▁laboratory
ytes
▁1.00
▁provoke
▁conjunction
▁Preliminary
▁500
▁comparisons
27
▁227
▁descriptions
▁BM
▁228
proved
oxif
▁departments
▁homogen
▁preexisting
embrane
▁Injection
.3%
elves
tified
siological
unar
icardi
rometry
1;
▁orthostatic
CRP
tam
▁immunoprec
▁halves
▁0.87
ritis
ittac
▁innervation
▁(6
atment
tiv
▁dehyd
▁uncom
orrheic
▁hypoglycemia
▁reveals
▁1.03
▁13.2
▁calcitonin
terase
▁initiated
▁inhib
▁Mortality
omann
rangement
blinded
tured
▁migraine
amet
▁0.57
itant
otype
▁abnormalities
unting
▁weakened
▁anxiety
▁ultras
sus
minute
cholesterol
▁7-
▁laparoscopy
▁0.40
▁isoniazid
▁unexplained
▁MH
▁124
▁musculoskeletal
antoin
feron
▁quin
▁prednis
▁favorable
▁30%
▁39,
▁relapses
▁methimazole
iscal
▁potentials
▁ejac
4%)
▁abortion
ocial
100
achn
▁follicular
▁ramipril
▁precur
dural
▁pharmacokine
lasts
▁cardio
▁64%
▁diseases
otherapy
fication
▁fumarate
azem
weighted
odop
plies
▁socioeconomic
▁fluor
▁distorted
-[
▁examined
acting
▁electrodes
1)
▁neutralizing
▁secreted
▁overestimated
▁nmol
▁labelled
▁262
▁stent
▁tissues
41
saccharide
▁89%
▁classifications
▁oxidase
▁eluted
gth
▁206
oreal
▁nebul
▁biopsied
▁seb
▁interfere
▁quantif
▁3.0
amuscular
▁keratin
oxicillin
▁0.2
▁rhy
▁regulatory
▁hippocampus
tophan
▁NAD
▁Epidemi
▁Aspirin
▁soluble
clinical
raconazole
▁amput
▁185
troph
▁12.0
▁dizziness
▁elevate
ovarian
▁acupuncture
▁Seventeen
▁implants
▁audit
▁98%
▁PCO
▁diz
▁factorial
▁immunoblot
▁LN
▁phosphor
lactating
utyr
tox
LV
▁symme
▁arteriosus
imens
▁cured
▁fluorescence
/20
RH
ubation
▁restr
▁CB
▁11
▁LVH
▁immobil
▁electrophoretic
arbox
▁lor
pretation
▁adhesive
potassium
▁aspartate
fine
uncture
▁morphine
Leu
▁65
▁coupled
▁15.8
▁Caucas
dies
▁peritoneal
▁validated
▁immuno
▁etiology
▁(20
▁gonococcal
▁231
▁experts
▁Seventy
ellular
▁inflammatory
▁protec
▁Gluc
ubiqu
▁hemoglobin
estern
▁Eleven
medicated
▁keto
▁zinc
osyl
▁determines
azole
▁mitotic
▁18%
▁refractory
rocytes
▁grise
▁prevention
▁0.001)
overed
ophen
specified
▁ketoacid
quine
galact
▁tear
▁Rating
indings
▁10(-5)
ropath
▁carbonate
99
▁Neph
▁semen
▁correspon
▁hypotonic
▁painful
struc
▁4%
▁differentiated
nosis
▁6-
▁supplemented
▁disabling
20.
GI
▁enlarged
▁underst
▁epilepsy
▁chromatography
▁purification
coup
▁ech
iodine
▁exon
oluble
hypertensive
▁CAP
▁antenatal
▁21.
▁synthe
▁mEq
▁lovastatin
▁270
▁perfusion
▁ventral
▁arrhy
▁0.60
▁1.21
▁ovulated
▁1.01
▁FSH
▁alumin
▁tracer
onad
▁lability
vices
iotics
▁(27
linded
▁compounds
▁carpal
▁bronchodilator
▁vasopressin
▁tetracycline
▁0.12
▁resonance
▁arthritis
▁echocardi
▁enhancement
amisole
0.6
▁antipsychotic
cardi
reactive
▁(19
▁substanti
tec
▁membrane
ygo
2.
▁crossover
ixime
▁captopril
▁admission
uginosa
▁tol
▁clu
▁cyst
▁bolus
amily
▁basal
▁endocrine
nitro
▁cisplatin
labelled
▁methotrexate
▁outcomes
▁(58%)
▁197
▁7%,
▁62%
atient
▁nore
idating
▁42
▁105
▁estrogen
▁acces
▁278
▁regulating
▁herni
▁routinely
▁anesthesia
endazole
▁0.001).
atase
▁levamisole
▁condensed
▁CRF
▁mutagenesis
▁salivary
▁241
▁32%
olateral
▁1960
▁reflecting
▁caloric
▁ppm
▁DSM
erop
▁microtubules
▁disturbances
ilol
85
opecia
ranolol
▁diarrhea
▁transaminases
▁hematologic
pran
8%
▁-0.4
18)
▁adrenergic
▁molecule
oes
ureth
▁sonography
▁Protein
▁indeterminate
▁thiaz
7-
▁17.
▁mildly
butamol
▁envelop
imeth
▁polycystic
▁dose
▁strom
▁valpro
ecu
▁HAM
▁instrumented
▁8.0
▁WHO
▁prematurity
▁intense
▁thyroidectomy
▁consul
▁0.13
▁(36%)
▁averaging
60
▁nonfatal
▁lipophilic
▁stret
.2%
▁critically
openia
overall
2/
▁supportive
farction
▁couples
ayers
▁irregularities
31,
▁postpartum
meg
kine
apid
▁ester
▁mM
▁esophagitis
thma
▁descriptive
1).
▁researchers
▁measuring
▁encodes
▁circumference
alb
▁adjustment
▁1.2%
▁astro
ocom
uary
▁34
▁100,
▁splenic
phosphon
admill
▁cessation
ochem
iplinary
ifferenti
▁HA
▁inversely
▁MRSA
▁chloramphenicol
rosine
▁192
▁structural
▁erythromycin
▁adjuvant
tract
▁psoriatic
▁excretion
cephalic
mented
▁gly
nine
▁antim
▁phenylephrine
ipine
thase
▁glucocortic
clin
adenosine
loxacin
oidal
semb
▁EG
.3.
▁antigen
▁balanced
▁conclusions
▁endemic
▁0.58
▁outlet
▁attain
omatic
examination
40)
▁Epid
▁dendritic
amel
▁-0.
▁180
▁commercially
▁CCK
▁fetus
oyl
▁seroton
▁nicot
▁confers
etine
▁extre
▁endometrial
▁histologic
▁(1.9
pressing
▁9.2
mined
▁102
ithium
▁diagnosing
▁neomycin
▁myocardi
▁colony
▁uro
▁polyclonal
▁(4.0
onyl
▁1000
▁142
▁investigations
▁implicated
▁lysine
▁measurable
▁cytos
▁Combining
-90%
▁75%
adequ
leukin
ordance
▁homologous
▁immunoglobulin
ranean
▁blinded
orin
restricted
▁leukemic
blind
▁competence
▁budesonide
▁ratios
▁amn
helin
AFP
▁shortening
▁trunk
conver
▁resec
98
GF
▁lis
▁cyclical
▁1.10
predic
▁antic
▁Evidence
▁activator
▁invasiveness
▁retrograde
▁baro
▁restric
▁norepinephrine
ographies
▁progn
▁Symptom
▁Statistically
▁Patients
▁fruits
ocalization
methyl
▁genotypes
▁granulocyte
▁14-
▁supra
▁150,
▁mothers
iterranean
emetic
/4
accharides
▁tolerated
▁Angiotensin
▁deduced
▁Caps
▁stools
omers
estive
itr
yste
/8
▁favors
▁20
erated
ocycline
▁ventric
▁reproductive
vitamin
▁serological
oxane
grees
topril
▁barrier
▁coronary
eroxide
ocytopenia
▁epithelial
▁osteoarthritis
▁600
▁inoculation
▁enhances
▁outs
7%
6)
elec
▁polymyxin
▁surround
achol
▁1964
▁spine
oprote
▁Pertussis
▁identif
▁100%.
▁immunocomp
▁VO
▁spirometry
hort
taken
▁0.79
anavalin
▁presum
▁ultrasound
▁276
▁menopausal
▁hazard
▁abscess
▁GE
▁intest
▁pene
▁(500
▁radiolabeled
lowering
12.
▁0.03
▁proximal
productive
▁UV
▁152
needle
▁ligament
▁postprandial
▁clus
haled
sorb
otoxin
thel
-600
▁descending
▁bedtime
▁fric
adjusted
▁ACTH
▁lymphadenopathy
▁17.8
▁(9
▁76
gthen
▁(0.9
umping
▁ingredients
▁lowers
▁possi
▁abd
▁cysts
apanese
EMG
▁bac
▁hazards
▁muc
-5)
▁doubled
▁clindamycin
170
▁poorly
amole
39
▁95
▁200,000
▁chond
▁analges
▁questionnaire
▁docum
▁subjective
▁4-5
avail
phragm
▁Epidemiological
▁6.7%
propanol
BG
▁filament
ithelial
gely
▁immunoreactive
oretical
▁elicited
▁amplification
▁perox
▁0.34
▁neoplasia
▁unusually
▁phosphate
▁modeling
▁couns
seud
reported
fatal
▁Individ
▁Oral
trial
▁worsened
rague
-3
▁enox
tact
edocromil
▁recombin
▁arachid
▁epidemiologic
uates
▁2
echan
inyl
▁analogue
-6-
▁responsive
iable
▁dosage
▁(1).
▁resolving
ulcer
ealand
▁aeruginosa
infection
xual
▁prednisolone
▁articular
▁Dip
▁underg
▁negatively
omical
▁linearly
HIV
▁135
▁dorsal
viral
▁frozen
▁operative
▁conditioning
▁colos
13.
LG
▁tumors
▁cuff
asses
idol
vents
▁1.3
ophag
▁Extr
-9)
▁blockers
ergenic
▁136
▁drinking
▁reliably
▁(25%
▁progression
agic
▁Assessment
▁chest
▁seated
gian
uprofen
▁antidepressant
▁brainstem
▁specialist
otoxic
▁TCA
▁sebaceous
.0%
▁corticosteroid
astolic
▁trypsin
▁9
▁anion
▁RR
52
iability
rogenase
▁neoplas
▁linkage
▁BW
▁Retrospective
▁adequate
▁outbreaks
▁expec
yrib
tionally
▁augmentation
▁[125
▁12,
▁Pretreatment
▁(32%)
uron
▁gonorrh
▁ATPase
▁intracranial
▁desaturation
ylated
▁79
▁293
▁(89
erating
tized
▁analyses
▁pHi
▁oes
▁antioxidants
zation
▁adolescence
▁bronchial
▁Estrogen
▁tolerate
▁modulate
adrenoceptors
▁plasmin
▁exogenous
▁hyponatremia
emic
▁20%,
▁benign
▁impair
tinent
-24
▁CAL
▁31%
▁308
▁luteinizing
▁6.1
▁Elevated
tics
▁(31
ylic
▁162
▁INH
farin
▁odds
▁pregnant
▁6.9
▁interpretations
▁0.62
vian
▁1.15
▁Impro
▁160
▁mono
▁androgenic
igarette
▁colleagues
▁outbreak
▁295
carotene
baseline
▁contraception
olated
▁alleles
tabol
▁competi
ocytic
▁sexes
▁vesicles
▁angiotensin
▁177
hea
▁nephropathy
3,
▁20-
▁digoxin
▁Overall
gestin
labeled
▁smoking
▁sensitivity
▁urticaria
▁(100
-16
▁3.1
havioral
molec
gol
▁triglycerides
49
▁2.4%
▁radiologists
-17
▁cytoch
▁(97
ystag
18,
-1,
▁nitro
▁mAb
ressed
plicated
▁hydrochloride
▁(0.0
▁Pregn
▁11.8
cycline
▁(1%)
▁hairs
-13
▁angina
consuming
rox
▁pH
153
▁radiotherapy
▁infectious
▁carbam
▁fibroblast
ymp
romal
▁vivo
929
▁53%
▁sore
tingu
▁Effic
▁NaCl
▁ribs
▁cleavage
▁FEV
▁nonex
▁anatomic
▁categorized
▁aggregates
▁recurrences
▁derm
▁grain
▁17
▁unwanted
▁CVD
perature
▁(44
▁nylon
▁saturation
▁regulations
▁inh
▁atropine
esic
▁mechanisms
▁infil
▁PSA
▁Authors
▁posi
73
▁reviewing
▁interviewed
▁viral
tituted
▁12.5
▁paroxys
▁agglutination
▁myel
echn
▁(0.
▁resuscitated
Ly
resist
▁fibros
▁individualized
▁151
▁118
▁heme
▁colonoscopy
▁adjus
▁(140
6),
▁145
▁determinants
atoma
▁LPS
olum
▁enriched
yridine
▁cefaclor
▁accessibility
▁Significantly
▁attributable
adenomas
▁establishing
▁excluding
▁bradykinin
▁spacer
rogesterone
armac
▁virtually
ximide
▁carbohyd
▁revised
▁unrelated
▁employment
imental
▁264
diabe
▁5.7
ulates
▁pharmacists
▁warrant
9),
5),
thmic
▁centr
cutaneous
oporosis
▁dox
▁causal
▁10(-8)
▁serine
▁milder
4)
▁ultrason
▁Ace
▁axons
▁yeast
▁phos
▁questionnai
organic
▁attitudes
▁electrocardi
▁doxycycline
▁cytochrome
▁0.69
▁Enal
obl
cellular
▁GnRH
10
▁resc
▁averaged
inum
▁Secondary
atoid
▁bism
▁myocardial
▁achieving
reasts
▁0.65
▁PDGF
▁dyst
containing
▁bloc
▁subgroups
▁aorta
▁puls
▁2.8
▁BV
▁13,
▁100-
▁mammography
HF
azol
▁carbox
▁genes
▁TGF
protein
▁10%.
▁stained
ognitive
helial
▁inguinal
gland
odiazepine
▁specificities
▁antioxid
▁100%
▁(69%)
tance
▁amlodipine
▁exhibiting
▁sput
▁emo
8).
▁deem
▁reliability
▁61%
▁lymphocytosis
ercul
▁abor
nowled
▁antifungal
▁prenatal
▁Dental
occus
▁1.4-
▁scrotal
▁irradi
-8
.00
osclerosis
▁brom
jected
▁ICU
ffeine
▁159
▁2/
▁ciprofloxacin
▁nonpregnant
▁initiating
thmatic
▁controversy
tissue
▁eradic
▁doubling
▁nerve
▁transmitted
chloride
▁intensive
%),
▁208
thanol
cancer
▁sti
ejun
3;
minal
▁syndromes
-2.
enal
▁anticholinergic
▁Changing
▁4000
▁disrup
▁abbrevi
4),
▁Fib
otropin
▁compli
▁perip
▁0.05).
disciplinary
sibility
▁aureus
▁Comparative
kephal
torchid
▁radiographic
▁carriers
▁anatomical
▁Combined
▁fructose
mortem
ographically
▁thymidine
▁autop
▁retardation
▁blast
▁needle
▁PH
▁oint
/2
▁comparable
trover
rotic
asthmatic
aicin
amyl
▁excised
▁plas
▁Fc
▁dermat
▁FDA
▁peroxidation
▁survivors
▁heterosexual
▁Hear
▁fractures
▁Dys
▁155
▁refrac
▁loci
apride
▁Decreases
oxid
iatric
umulative
tron
choles
000
▁accounting
5-
rals
▁(90%
▁corneal
roxicam
orubicin
▁90%,
▁commerc
▁Recently
▁cartil
opolysaccharide
▁117
▁7,
▁pati
habil
tisol
▁unfractionated
ration
tur
▁frontal
-2.0
▁fertility
▁Finnish
▁knee
▁infarct
trition
▁(75%)
▁hygiene
▁clom
▁PD
▁correlating
▁sensory
▁apparatus
4;
▁endos
▁tube
▁diphen
▁emergency
orenal
▁observational
▁146
tively
▁tetr
▁moiety
▁erythrocytes
▁iden
▁anesthetized
operox
▁potentiated
▁appendicitis
▁cGMP
xia
▁antigenic
nRH
omegaly
▁ensuring
▁parat
▁monkeys
8;
▁panic
erus
▁reproduc
▁erythema
AH
ylline
▁organs
Hg
▁mimic
▁adipos
▁microns
▁Hib
▁codeine
▁tooth
▁recordings
▁2.6
▁mutagen
▁relaxation
ystolic
▁rabbit
▁mobilization
▁antibodies
▁clues
PAGE
▁lymph
▁hypothe
▁Lactobacillus
▁unin
▁hyperb
inating
opre
▁medullary
▁chromat
▁exacerbate
▁9.0
odg
▁subpop
▁rats
▁fertil
rolog
▁(14
▁experiencing
▁anteced
▁3.2%
48
lamp
▁repor
▁hybridization
ulph
▁0%
▁compressive
april
▁mature
TG
MV
▁journals
▁consensus
▁PMS
asone
▁Gyn
.6,
▁myosin
▁123
▁intrap
ulence
umetanide
▁prol
▁myocytes
▁desm
▁PPD
▁Eight
-18
▁hyperch
▁4.3
▁bacter
▁CsA
▁multivariate
▁effusion
amphenicol
▁inactive
(4
icep
▁coated
▁oils
oracic
▁Scale
titutes
ymme
▁aneurys
entical
▁venography
heavy
ceptive
▁microorganisms
▁niacin
trop
▁secretory
dibular
alact
▁pretreatment
▁physiologic
5,000
▁Enalapril
ysts
formin
▁ineffective
erative
oxic
▁46%
▁psycho
58
▁libr
▁transmembrane
▁40
▁thickness
▁summarized
ochromatosis
tabl
▁cryp
tile
▁shunt
▁transit
▁perit
▁(20%
▁inhalation
▁esters
▁dete
▁neoplasm
▁5
83
acil
▁imipramine
▁196
versal
iary
geons
▁leukotriene
▁cep
▁0.6
-14
▁intub
veness
ept
▁aggressive
▁cef
▁accidents
▁adop
▁transient
▁gamma
▁transcript
▁overweight
▁adoption
▁retic
▁deformities
reased
▁undere
ygen
▁cyclosporine
▁gels
▁LD
▁septal
▁48
19
6.
▁SPF
▁transi
estis
▁bip
▁antithrombotic
▁57
▁regeneration
▁compares
▁nitroglycerin
2+,
▁40%.
▁discontinu
▁epitope
▁clinics
▁Centers
osage
▁252
idone
athiop
▁microgram
▁retrospective
87
alian
▁prescription
▁mamm
▁cytokines
▁quotient
▁molecular
▁severely
uretic
SBP
iological
peptide
▁transverse
▁vitamin
matic
▁negatives
bodies
▁adversely
-3,
▁peripheral
▁Indo
▁hypotension
▁titrated
▁cardiovascular
▁tendon
▁neutrop
▁morphological
▁incorporation
rected
▁intranasal
wes
compared
rele
▁consciousness
▁weakness
▁Modified
▁symp
▁53
▁shorten
▁Clin
▁cortic
▁pressor
90,
idation
▁yearly
oreactive
▁cyan
▁irrig
▁pmol
▁topical
▁thems
▁LH
▁Steroid
aldosterone
risk
▁activate
icient
osome
phosphorylation
▁offspring
▁concom
▁sinusitis
▁subunit
BMD
▁(1.5
▁ferritin
▁0.8%
rates
▁feeding
▁wk
-1).
linking
olesterol
▁shifted
▁4.6
▁344
▁Depression
▁nif
▁microtub
▁nondiabetic
-6
ophila
▁irrigation
omes
▁postinjection
Mu
▁acros
leural
▁reactivity
▁soy
enteric
▁anastom
▁(7%)
-81
▁attenu
25,
▁interferon
▁angiogram
ungal
▁Neither
▁66
▁embryo
aminidase
orated
▁FE
▁0.36
▁coenzyme
▁inhal
zinc
tained
▁neon
▁supplements
▁symptoms
avage
ceived
▁adip
54
ygous
▁algor
oplasmic
▁4
▁67%
▁papill
▁likelihood
bumin
▁continuation
-400
▁scars
▁erythrocyte
vedilol
▁fatty
zoster
▁9.5
▁saline
▁1969
▁postmenopausal
▁professionals
▁560
olution
inated
▁consecu
▁inotropic
▁ovary
▁deficit
odds
▁pronounced
▁lymphomas
lycerol
▁killer
▁cholinergic
ocortic
▁lymphoid
thickness
0%.
.0,
▁TRH
▁renal
tran
vation
▁Sout
▁fulf
▁43
bic
limb
onset
▁Sulf
buterol
▁MIC
otox
▁acco
▁catecholamine
▁parity
22,
plications
ucose
/30
▁multis
itness
mediated
▁muscular
▁insomnia
▁nitrogen
▁tet
▁mmol
▁pertussis
▁dextro
▁3)
ogeneic
odiaz
▁aor
▁cytokine
ietic
▁0.05)
▁untreated
13
otonic
▁agonist
-5.
▁EGF
▁cysteine
▁(+/-
otom
▁entero
▁avoidance
▁AFP
drome
▁streptococci
azin
▁vaccinated
▁Prospective
▁MAP
▁piroxicam
glycoprotein
▁encouraged
▁stimulates
▁strepto
▁wheezing
▁38
ternational
▁pediatric
▁156
▁unpredictable
istal
roma
ogenic
▁nicotine
▁Cycl
▁drain
▁gonadotropin
▁bacterial
▁130
▁morb
trous
▁creatinine
▁pea
radi
▁gradi
▁0.97
▁Calcium
.6
▁mitogenic
▁sprin
▁reflux
eliac
▁endogenous
▁gradual
▁pig
▁encour
▁survived
▁collec
▁clamp
▁intrac
▁23,
▁unreliable
▁mammary
sian
▁weighing
osity
▁adjusting
▁Examination
▁identi
▁norfloxacin
▁(33
▁277
-1
▁theophylline
▁determinant
mental
▁1980
▁hypothetical
▁substrate
▁placebo
▁plotting
▁cloned
▁5.
▁2.2
▁ward
ordination
▁prostatitis
gm
)2
obarb
▁Interestingly
▁ethical
▁58
imentation
aturity
▁subfractions
19.
▁canine
▁0.41
ergency
▁deficient
▁TP
▁porcine
▁guan
▁microsomes
▁chromosomes
▁70
lue
▁cutaneous
▁tricyclic
▁mening
ubicin
▁ascertain
ensitive
ochondr
▁cited
thymidine
▁0.08
cad
▁panc
-4
▁EBV
▁virul
▁hyperthyroidism
▁indomethacin
▁Registry
▁excre
▁3.4
iaz
▁projections
▁renovascular
xone
centered
▁inappropriate
othiaz
ecutive
▁emerg
specificity
regn
▁HS
gluc
▁(31%)
orption
▁prono
▁thrombotic
▁172
.5%
▁Lyme
▁respiration
▁catalytic
▁leukocyte
PCR
▁GMP
▁103
▁concordance
tially
▁bic
▁minority
classified
RCA
▁fetuses
▁4.5
aminophen
▁Fourteen
▁incompetence
23187
▁decade
chlorothiazide
▁asymmetric
▁randomization
▁cran
▁quinolones
▁nal
▁solids
▁99%
▁inflammation
▁continuing
▁motility
▁HLA
▁capsaicin
▁correlations
▁0.49
▁shedding
▁ulc
tise
▁extraction
▁pyr
▁unsuitable
▁75-
▁beneficial
▁Injury
▁arteri
icated
▁(95
▁(3
▁skinfold
tural
edle
▁preparations
▁hep
▁6.
▁kDa
▁therapist
dial
▁neuropathic
▁1.12
▁phospholipase
▁optimally
acycl
▁consumed
0%
▁Diets
▁(50%)
▁tonsillar
▁enal
▁neutropenia
ymptomatic
▁hepat
▁11%
0%)
ostatic
pectively
severe
▁psychological
▁NT
▁cohort
▁harmful
322
terolog
tional
▁Incubation
▁aluminum
-1.2
sorption
partum
degree
lline
▁circulating
feren
▁medications
▁0.91
tocin
9,
▁1500
▁adipocytes
blockers
▁discriminant
irds
▁discontinued
▁anaerobic
▁94%
5;
▁1.2-
▁murine
▁spi
▁Estim
▁infected
▁apprec
▁Topical
▁shaft
ipheral
▁buc
ystic
▁cis
▁transcriptional
.0
ducts
-2.5
▁peaks
▁(77%)
estrogen
Ev
▁elec
usually
▁implying
▁Peak
-22
namic
terminal
▁arrhythm
obenz
strual
▁cellular
▁matur
ositive
▁rated
inhib
▁cytology
uation
▁113
urgical
▁cortical
▁metronidazole
sectional
▁bronchoscopy
▁Recent
▁latency
▁0.71
▁71
ocytes
▁abnormality
▁envelope
▁epilep
61
rein
▁Subsequently
tage
▁experimentally
▁thereafter
▁satisfactory
deoxy
aminases
sial
▁(50
▁10.0
▁outward
▁crosso
▁circadian
▁mild
▁suspicious
▁(4.8
opathology
▁nursing
▁0.3%
▁filaments
hospital
▁Chlamydia
tak
▁5.8
1.0
asive
icides
▁unde
▁murmur
▁(15
▁fulminant
▁pyel
400
▁bacteremia
▁propranolol
Pen
▁cardi
molality
▁microscopic
epam
▁HDL
▁glyburide
▁tumor
ximal
▁Biopsies
▁defic
arity
▁polyc
▁0.1,
▁assessment
▁Adverse
▁benzyl
▁weekly
▁apical
▁inhibits
▁90
▁identifying
▁8%
▁increas
▁tablet
sors
▁marrow
▁unm
▁3.
▁displ
ohyd
▁78
formations
epti
aced
▁14
▁83%
▁succinyl
zyme
▁adequ
▁Leu
▁decarbox
▁births
▁placement
▁osteoporotic
▁exudates
▁intrav
-52
▁kinetics
▁abnormal
▁HC
▁Neuro
-20%
inely
▁8.2
retic
▁Prevention
▁optic
trical
promoting
▁islets
▁dimer
oplas
▁vagin
▁hypop
rozen
▁thiol
▁favored
▁acad
▁trimester
▁colic
▁lens
▁8
▁50
yzed
▁sut
▁calculi
10,
▁CIN
-450
tense
▁Absolute
▁ey
vus
▁20)
▁monoclonal
teric
▁cranial
oping
▁tubules
venty
▁treatments
natal
-1-
▁expectancy
▁40.
▁wake
-10
▁0.23
▁lorazepam
ensities
▁theoretically
▁0.55
▁195
▁Hyd
▁transferrin
icine
sess
▁ure
62
orpor
▁10,000
▁omega
▁osm
▁discharged
▁109
cine
▁fathers
▁[3
.7
▁follicle
▁findings
▁2.3
▁11.
▁aggres
▁HR
amn
▁uncovered
tir
turally
▁188
:3
▁benzodiazepines
hap
▁neurop
▁(38
▁noc
▁antihist
▁glutamic
▁Sodium
ocytosis
▁BCG
▁-0.8
tib
▁dipyridamole
▁PF
▁Organization
▁gynec
▁distal
cycl
125
▁methodology
▁relieved
▁dissemin
▁positives
kinase
enin
▁terminals
▁regen
▁reser
VT
▁14,
▁0.44
▁appropriately
▁pump
▁femoral
▁microscop
▁cyclo
quir
▁dissection
eration
▁187
▁4.7
▁canc
▁scl
▁decreas
▁17.7
▁psychiat
▁deterioration
esity
astom
▁dosing
▁metabolism
tally
▁enzymes
▁promp
▁superoxide
exercise
▁sutures
aturia
▁56,
othyroid
▁chances
olip
▁codon
▁breasts
▁modality
actam
▁juvenile
▁markedly
traum
▁-4
▁subarachnoid
▁cerebellum
taz
▁OC
conduc
▁dial
thirds
▁MHC
▁spind
▁functioning
▁disclosed
▁(18
▁advised
▁nights
▁contiguous
ysm
▁specialized
copic
▁pant
▁87
▁fluores
▁4.8
biased
▁(5.3
▁27,
▁-12
crip
▁mumol
▁indicators
iloride
plic
9).
▁LMWH
▁5.2
visc
▁Thir
agonists
▁homocysteine
▁propionate
▁calcified
▁exclusion
▁therap
▁GSH
ignant
lipid
▁ethnic
▁positioning
90)
anthine
▁disability
▁metabolite
organisms
ogl
▁hypnotic
▁recombinant
▁tympan
▁interventions
▁endotoxin
▁voiding
▁VIP
▁hepatic
pharyngeal
absorption
▁Ia
▁melanoma
▁saturated
▁relap
heat
▁dehydrogenase
isters
▁cytotoxic
micro
30)
uminal
▁astrocytes
umented
▁ligands
▁cortisol
▁validity
▁chronic
vac
▁isoform
▁Hz
▁phenomenon
▁alcoholic
▁Computed
▁(1
erence
▁breakthrough
▁urine
illance
▁Melan
▁dehydration
▁thrombocyt
▁72%
▁elevating
ficial
aminop
▁gluten
▁abnormally
▁40,000
▁antich
toxin
algia
(+)-
tiazem
▁Bec
excluding
▁insignificant
▁Lact
▁hormonal
▁dialysis
▁78%
tite
▁undetermined
▁abolished
▁meals
▁glutamine
▁(11
▁fulmin
▁isop
▁overlapped
iron
▁95%,
▁indus
▁stimul
▁Adh
opathy
ocardial
▁sediment
▁RBC
▁complaint
▁0.83
receptor
▁mixtures
▁furosemide
▁glucose
▁distress
▁neutrophil
hest
aldehyde
cyclic
▁aerob
▁posth
▁26.5
▁turnover
▁implanted
▁intraepithelial
▁msec
▁capsule
▁17.1
▁lacked
opres
▁radiol
▁tendons
▁ABR
▁toxin
▁hypers
▁irritant
mittent
▁nifedipine
illus
1]
ophilic
▁rGH
▁adipose
NH
▁microscopy
▁recurrent
▁.00
▁1,25
▁electrical
▁fron
▁cys
tory
▁macropha
/100
▁recurrence
▁affec
▁discharge
▁129
thi
▁thymus
verages
▁enlarge
inally
▁cylinder
▁(47
azepam
spectively
▁6.3
▁dramatic
ymal
▁symptomatic
▁18.3
▁-3
▁16,
▁solitary
tisone
▁indefinite
TSH
operatively
▁ELISA
sequent
intestinal
ochrome
-8)
ffinity
▁carbonic
38
tinguish
▁adenosine
▁6%,
▁eosin
▁(1.4
▁hCG
▁presynaptic
atches
nals
osacral
▁ruptured
▁radiologic
▁excl
▁ingu
▁hypercal
▁Patient
▁qualitatively
▁thrombo
plenic
▁physician
▁estrogens
▁durable
▁mutations
▁absorption
▁Atrial
tition
ogenesis
▁polymerase
▁embryos
▁corne
onate
assium
ypass
▁subtypes
▁preeclampsia
▁stric
arrhy
enem
▁kD
▁forsk
130
▁AGA
transferase
▁Higher
cAMP
fected
ducing
▁0.25
▁predictive
▁auditory
▁limiting
▁perceived
▁attenuated
▁Nineteen
ourinary
▁mediate
▁complication
▁unresponsive
▁elbow
▁cation
otone
76
▁asymptomatic
▁prognosis
ploy
▁17,
▁tamoxifen
▁70%
▁sequentially
▁243
▁allyl
▁replic
▁229
rase
▁miti
▁AIDS
oxone
▁psychosocial
▁allele
gestation
sy
▁pressures
▁84%
uitable
▁infused
▁IgA
hicle
▁detrusor
▁Inventory
ycl
initi
ibrate
chym
▁lobe
▁pyrid
ximum
▁angiography
▁lasting
▁glucocorticoids
▁inhibitors
▁examin
▁cyclooxygenase
▁Caucasian
▁iso
▁CHF
heum
7]
▁alcoholics
iant
▁71%
▁mim
▁ae
▁CHD
▁embryonic
▁atopic
▁electrolyte
tened
▁(5-
▁recipients
▁11.0
▁evid
▁clonidine
▁awake
ventive
edema
▁neoplastic
▁lateral
oxyl
▁duoden
RF
elan
RB
▁hypertro
▁24%
-12
sac
▁focal
▁tracheal
▁equilibr
dered
▁reflects
▁203
2+-
▁aspir
ithi
wk
▁longitudinal
▁dexamethasone
▁intravenously
▁radiography
▁excretory
▁attrib
▁8.6
▁alcohol
▁neurological
▁bacteri
▁Pain
▁emphasized
itin
valence
▁inherent
▁97
aline
5%).
▁0.9
▁88%
▁reactive
vated
▁40%,
▁Sixteen
-90
lym
adm
▁27%
arms
▁tertiary
▁glyc
ectable
▁dissociation
▁granular
2;
▁exis
▁2.8%
itary
icients
▁29
irubinemia
▁torsion
▁vomiting
800
▁PB
rhea
▁hyperplasia
ylchol
adine
sensitive
▁21,
4).
tif
▁hypertension
▁Serum
IH
eled
osteroids
▁(1.3
pirin
▁solub
ullary
▁Dop
electro
acchar
▁reviewed
▁perinatal
▁serotonergic
5)
fate
▁hydrogen
tensin
▁muscarinic
corrected
▁neurob
▁epidemi
aminated
▁PTH
▁cerebrovascular
▁imaged
▁deleterious
▁trend
crimin
▁tissue
▁Beta
▁temperatures
▁prophyl
eptin
▁Clinical
▁lamina
▁RS
▁emesis
▁750
▁chel
▁imaging
▁CSF
ticularly
▁obese
▁CAD
▁Elec
timal
▁lethal
4%
▁accurately
▁catechol
CABG
▁25-
▁TA
▁placenta
▁insom
▁bumetanide
FN
renaline
itals
▁198
▁(88%)
Gy
▁adequately
▁200,
▁endo
▁carrier
▁1985
irub
lasses
▁chemot
▁depress
1/
▁pathological
-20
▁Eighty
▁Viral
▁Bronch
▁potenti
▁plaques
otting
▁tic
▁enhanced
inflammatory
ronate
▁Physical
osine
▁fenoterol
▁(4
▁sensitivities
lodipine
andida
▁acin
▁referrals
▁gonad
▁0.98
avir
▁doxazosin
▁ultrasonography
▁Calc
▁1.5%
-0.
▁hepatocellular
pinephrine
▁ori
odium
anking
growth
tead
▁postmortem
▁pollic
▁cephalosporins
ylene
hetamine
2.2
meth
▁4.3%
iazide
▁residues
ervative
earing
▁stimulated
50)
nai
▁3'
4+
▁51%
amethasone
▁plasma
▁continuously
▁4.5%
sych
iol
▁GTP
▁(3%)
▁visits
▁eliminating
▁dementia
▁3.5,
▁exceptionally
▁normalization
▁(400
7),
▁(70%
▁63%
tation
▁perfused
▁neoplasms
▁derange
ycin
▁antipsych
▁differing
mega
▁dye
▁strains
▁sulfon
▁lysosomal
▁sickness
5%),
benefit
atosis
▁1.18
▁resection
essment
▁(40
▁spinal
▁TMP
uric
▁unaffected
ococcus
genic
▁Twelve
▁triglycer
▁aging
▁alanine
▁suscepti
▁0.01)
▁59%
▁deple
roin
ociation
alc
▁adjusted
▁morbidity
▁sulfate
chool
▁FD
▁progesterone
smokers
▁tightly
adrenaline
▁infar
▁lipids
orepinephrine
sions
(1
ralfate
▁diarr
▁(25
▁anoxic
idated
▁strep
ronchial
pregnant
ithm
▁monocytes
-80
▁teratogenic
lected
▁phospholipid
▁facet
olarization
clusive
▁glycos
▁0.78
▁60%.
▁trache
▁attending
▁hydroxylase
▁17-
resting
urea
ailure
▁overl
▁stimulating
tention
▁ultim
▁infrequently
coronary
▁HPV
▁glutamate
▁evaluates
▁8.1
reement
79
▁modif
eptic
pread
▁calcium
valent
▁GAD
▁accumulated
epine
▁Intr
kDa
▁rabbits
▁residual
▁Individuals
hion
▁Biol
50.
atients
-1.6
▁exagger
▁4.
▁hamster
fibrozil
oves
▁leuc
1.
▁emotional
6/
▁hemorrh
astric
▁anesthe
osin
63
▁amoxicillin
▁chloride
▁intervention
▁2,
▁6,
irradi
▁Behavioral
▁350
▁309
isol
▁acyl
▁malign
▁249
kground
ophylline
▁(60%)
ycardia
▁complementary
effects
▁trends
▁bovine
▁hyperbil
▁0.56
00
▁methionine
▁decreases
▁ambulatory
▁(45
▁(49
▁characterize
▁sequenced
▁7.7
▁0.5%
cence
▁answ
▁predictors
▁tac
▁reproducible
▁evaluating
▁Sprague
▁ischemia
▁relie
9.
uin
▁insufficiency
ococcal
▁11.2
▁257
▁subcellular
▁disorder
oceptor
0.00
▁crystall
treatment
▁gloves
ventil
itone
inopril
▁rhabdomy
▁96%
▁polyacrylamide
trained
2%
8]
▁ranitidine
▁atheros
▁5%,
measured
▁triceps
adders
▁disulf
▁conditioned
▁thromboxane
▁nonsmokers
aemia
yster
kely
▁60.
▁(5
gag
▁warts
▁abstin
olecular
▁Cooperative
▁pulmonary
▁DF
▁Reduc
▁74%
titute
▁93%
2,000
▁psychomotor
▁4.2%
▁cerebro
▁163
▁amenorrhea
▁emboli
▁lactation
▁membran
21.
▁cG
▁6.5%
▁levodopa
▁incompletely
▁MAb
34
ocaine
▁transcripts
muscle
▁relaxant
▁1.04
▁Increased
▁chlorpromazine
▁ventilator
4.1
▁equivalents
▁Milk
▁abduc
▁intestine
▁sulf
▁glycoprotein
ophren
▁immunization
(2+)-
▁coping
otine
▁contracep
▁ferrous
ocamp
1%
being
molecular
▁0.63
▁183
▁cure
▁urinary
66
▁perception
brain
▁hepatotoxic
▁normalized
▁usefulness
▁1.75
onstric
lamydia
▁staining
istar
cells
minis
approximately
▁cytoplasm
quamous
▁utilized
▁72
▁lifest
▁resear
tant
/18
▁gastrin
▁appendix
adone
▁1200
▁slices
▁calves
elong
-72
▁KCl
▁peaked
▁equivocal
phosphor
▁absorbed
vaccination
▁LMW
▁allergen
▁20.
▁0.5-
stranded
olitis
mediately
▁hemorrhages
▁awareness
▁absorp
ields
nee
inj
rents
▁7.1
obronchial
▁Hep
▁0.04
amination
ynaptic
▁spike
ventricular
▁psor
▁eluc
ially
▁pollicis
▁pem
▁pathology
▁4-
▁55%
▁intake
▁fever
▁3.4%
▁suppres
▁dendri
albuminuria
▁arom
10)
▁describ
▁40%
▁probe
omn
parous
▁encephalopathy
▁oxym
▁angi
▁caries
ropyl
2318
orphin
▁wee
▁spermat
▁cardiac
Bs
triglycerid
▁constipation
▁ranging
traction
▁66%
itro
bular
lyce
▁lacking
▁cycloheximide
▁prostatic
imodipine
▁hypocalcemia
Au
Cer
sufficient
otides
▁bromocriptine
▁slowed
▁clind
plantation
▁cigaret
ovine
▁nulliparous
▁syncope
ominant
▁1.56
▁promin
▁TDI
acylglycerol
▁0.11
converting
▁Complications
▁Doses
rength
hydroxyp
▁prosthe
sts
▁adminis
▁DCA
cyt
▁elas
▁rup
▁clones
▁erythro
▁TS
fraction
▁hind
▁symptom
▁Diabetes
acking
▁naf
ancomycin
▁rejection
▁perfor
▁mU
▁10
lobin
▁(89%)
▁mep
▁hyperlipid
▁degeneration
adder
▁reag
▁inoc
▁accessory
lamyd
▁220
-70
tamine
▁oligos
▁skeletal
Ps
▁pound
LH
▁autonomic
▁juice
▁61
otypic
▁Systolic
tial
olol
▁obstetr
▁asymp
▁12.5%
▁vaginal
▁0.7%
▁bronchospasm
9%)
▁Criteria
▁acquiring
▁PLP
ypro
▁NP
opam
ogenicity
▁monitored
tipation
▁(0
▁neph
ethylene
individual
oprolol
▁165
▁sodium
▁spontaneously
nisolone
roxen
▁grading
▁Phase
▁0.
▁1.2,
injury
▁glomer
pirone
▁athe
▁aerosol
:1)
▁occupational
▁expulsion
▁prevented
▁desatur
opes
▁capillary
PaO
▁1.02
▁delaying
▁76%
olam
osidase
▁sheath
▁sampl
onidine
-96
▁progen
▁12%
▁excision
ofil
▁benz
ocrom
▁depolar
▁GM
▁tibia
▁3;
GD
▁VA
dL
▁enalapril
▁(4.6
▁estrogenic
▁assis
▁Kd
▁lys
▁adi
rous
sia
obarbital
ivered
TCA
Ala
▁cruc
▁systematically
▁thirds
▁immunized
▁adren
▁systematic
tency
irubin
igaret
roscopic
7)
ilization
▁mell
▁anomalies
▁chains
ughter
▁axonal
▁preferentially
▁disposable
ellar
rever
▁0.0
▁euthyroid
81
▁(68%)
▁Tran
azepine
▁Bacter
57
▁appendic
▁75
▁gastroenteritis
▁histopath
▁280
▁2.9
▁(24%)
▁terfenadine
-15
▁ceftriaxone
▁renin
oste
▁curric
▁leakage
▁tendencies
▁endoscopically
roxic
▁succin
Rs
▁38%
▁susceptibility
▁Abdominal
▁surge
▁hydrophilic
▁rash
atonin
▁73%
brile
lactam
▁37.5
/24
tine
▁(62
▁hypokalemia
tality
oskeletal
-40
▁reversal
▁structured
.1%
▁cervical
▁immunological
▁allogeneic
onvul
▁pooled
▁acutely
▁quantitative
▁5.3
▁correlated
▁surgeon
▁oocytes
lastoma
▁polysomn
▁0.05),
plastic
▁uter
▁tumours
▁gland
▁phorbol
merc
▁conserved
rogenic
uplex
▁alprazolam
affec
▁AVP
▁duct
▁eighth
▁46
93
▁utilization
▁phi
cessive
▁exceeded
▁(0.1
ylase
olones
olved
ologous
▁proton
▁diabetes
▁stripping
▁acyclovir
▁vitro
ocated
▁cros
▁capsules
▁mineral
ocor
▁1-
stim
▁rhythm
yses
▁47,
▁brains
▁cooling
▁biosynthe
▁respon
▁endocrin
▁olive
▁smokers
▁carotid
ometri
▁inconclusive
▁Lipid
▁degen
clamp
▁loos
ifugation
ilibr
▁sucrose
▁portions
▁(18%)
tectable
▁allergenic
▁Stroke
▁improving
aterally
▁anesthetic
▁beliefs
▁Combinations
"-
opathological
▁0.99
▁contribut
▁wounds
▁33%,
▁hir
▁baseline
▁favorably
▁splenomegaly
evoked
▁cumulative
romycin
EI
3)
ctomy
▁hypothalamus
▁(46
opharm
oriented
▁5.4
▁pigment
▁livers
▁166
▁creatine
▁minimally
▁14.
surgical
120
▁radicals
ensitization
▁gastric
▁postural
hydramine
▁isot
retro
▁calmodulin
▁ascorb
▁volunteers
▁irradiation
uscular
atible
▁facilitate
▁calcification
▁Increases
prandial
▁OD
▁intraven
▁15%
▁perone
▁exposures
▁lutein
▁syndrome
9;
anine
plo
ronectin
▁(15%
▁Rats
eak
▁1.35
7/
ositi
▁classify
cys
▁dele
▁labial
▁seropositive
isal
▁discomfort
▁(24
itic
▁sequelae
▁requi
cephal
tracted
▁100
kelihood
▁6.2
yclo
▁0.89
roscop
1-
▁0.01),
▁desensitization
▁acetaminophen
pharose
hydrop
▁(5.8
▁sugars
▁criterion
osamine
▁cartilage
▁transpor
▁predisposition
▁acquisition
▁cirrh
▁0,
▁physicians
▁recr
▁AMP
▁1970
▁hypoxic
▁waking
▁12.
▁xen
daily
▁2.7
administered
▁certainty
acerb
▁standardization
00,
▁bacteriuria
▁neuropsych
▁prolif
▁antibody
ASA
▁Additional
▁56%
▁establ
▁6.4
68
▁21
▁Staphylococcus
25).
▁antisecretory
▁normotensive
▁Cardiovascular
determined
endri
▁systemic
30,
▁swabs
▁strand
▁Findings
anav
▁193
6).
▁PGF
induc
▁AO
▁Previous
▁elevation
▁scientif
iuria
▁PG
iminary
▁affinity
▁contributing
coh
▁glomerul
▁rehabil
antibody
▁beha
▁MRI
▁Infection
apular
renol
blocker
▁lifestyle
▁suspicion
othi
▁severity
illion
▁elevated
parative
▁-0.5
▁developmental
glucosidase
.5
-1.5
etence
echanical
gative
▁splenectomy
sulf
acental
▁sedimentation
▁drip
▁Consequently
▁impairment
tral
▁polysaccharide
▁aggregation
2+]
▁4)
▁Hispanic
omiting
respon
▁orthoped
illation
▁dyspepsia
▁traction
▁(75
▁268
immuno
diagnosis
▁heavi
tivities
▁elevations
▁postoperatively
]-
requency
▁0.35
▁19.
▁regained
▁dodecyl
▁beats
▁28)
ocon
▁paternal
ipramine
ocrin
▁genome
▁bowel
▁evac
▁coval
▁Gonad
▁benzodiaz
▁multic
-1.
opi
plasia
cretion
▁accid
▁11,
▁discontinuation
▁fixation
▁excreted
▁yielded
hydrox
▁tachyc
carb
phenyl
tensive
▁acetic
900
motic
Ds
immunoreactive
▁corticosterone
aminergic
▁30
mong
▁0.1%
▁accel
▁technologies
44,
16
▁Radi
▁19
▁37%
▁75%,
enic
▁citrate
▁albumin
▁3.7%
infected
50).
-6.
adication
▁parasite
ophys
otoxicity
▁spati
tence
▁tumour
oxygenase
▁Whereas
glycerin
▁administer
▁14%
▁aqueous
▁unres
▁TNF
▁3.3
▁kine
▁concentrated
▁51
alic
bility
▁glycol
▁hypertensive
DNA
140
▁pancreatic
▁crude
▁Haem
▁hypot
▁orally
▁quoti
▁esophag
▁Myc
olig
▁neuro
▁respiratory
teine
▁ureter
▁elastic
▁traumatic
osyn
▁119
▁meaningful
▁purified
▁cosmetic
onuclease
▁manufacturer
▁UTI
▁hetero
▁58%
▁19%
▁untrained
▁spor
▁hysterectomy
▁assessments
▁ketoconazole
phil
BT
oxin
▁sustained
.8
▁Alzheimer
otyp
▁adenine
oblasts
▁natriuretic
uality
▁lactate
▁exag
▁reinforcement
utin
▁influx
▁2.
▁valproate
▁cultures
▁TT
ffin
arly
rological
firmed
reness
thyroid
omyces
5%
exy
▁displacement
▁standardi
1/2
omotor
titis
arthritis
▁2%.
▁prescribing
▁posed
▁8-12
ognition
herent
▁peripher
150
44
amous
▁venti
▁screening
▁mammalian
ectomy
▁suspension
▁regulate
naud
apse
usal
ocys
▁glycerol
▁flora
▁clot
valine
trum
ipril
▁complaints
7,000
▁aspec
▁abruptly
▁0.54
▁nucleotides
▁interc
▁hormones
▁elicits
▁inhibitory
motor
▁DMP
▁virtu
▁satis
unced
hig
inamide
tus
▁pate
ulsive
CoA
77
hemat
3]
▁Breast
▁ejaculation
▁granulomas
▁diverged
▁interleukin
▁Optimal
▁monotherapy
▁tubercul
▁mitochondr
vail
BMI
▁conformational
▁200-
▁junctions
▁abscesses
▁inhibit
oice
antibodies
▁80%,
vaccinated
▁targe
▁thromboembolism
▁intestinal
▁unrel
imination
▁limb
▁synov
amycin
orac
▁gentamicin
▁3%.
▁guinea
▁caffeine
▁1990
▁enrol
tee
▁0.016
▁vulgaris
▁allergy
▁uncommon
▁revascular
110
opr
▁lowering
amines
▁bilateral
alsy
▁induc
▁8.4
bly
▁eradicated
ropine
▁multiparous
▁naproxen
2+.
▁identifiable
Ox
tronic
ineal
▁erythematosus
erable
hormonal
ophageal
▁2.5
uris
▁Doppler
▁trimethoprim
▁longus
▁postnatally
▁differed
timum
rography
▁12-
▁Arter
athetic
▁reticulocyte
▁colorectal
▁lec
▁Vmax
▁participating
▁4.7%
▁plasmid
▁embolism
▁hypogonadism
▁infrequent
▁0.15
assay
▁20,
▁congestion
others
olone
▁Thirty
tism
tig
▁fluoride
▁throat
odialysis
▁pneumoniae
▁obesity
roxyprogesterone
-40%
ymptom
▁interstitial
▁annually
▁diagnosis
▁acetyl
amphen
▁ventricular
athered
-4)
▁psoriasis
▁antimicrobial
arous
▁nonin
▁conformation
▁0.80
ergen
opian
▁testosterone
▁contraction
ereb
▁fibrill
▁affecting
hydr
28
▁Lymph
ecal
▁ANF
67
arrhythmic
ausea
▁7.
erin
BH
▁50%
/10
unately
▁saliv
▁remo
▁haem
▁0.5,
▁reticulum
▁5.0
otide
▁occlusive
▁Surgical
▁Respiratory
▁Factors
▁hyperactivity
▁Wistar
▁primiparous
vul
▁dyspnea
▁propensity
wenty
▁plasm
▁EMA
▁285
▁diversity
▁0%,
▁abdomen
▁valproic
aning
▁spon
▁1.0
▁necrosis
▁chlamydial
▁acidic
▁abundant
trates
plas
▁calories
▁(79
hexidine
oxifen
uding
oxygen
▁3%
piration
▁22%
enec
▁0.8
plication
▁peroxidase
▁throm
▁Fifty
▁malabsorption
bladder
▁186
▁viability
roscopically
unctions
▁hypog
▁aggression
▁metr
▁5%
▁azathioprine
▁Relative
▁immunore
▁TM
▁newborns
▁circulatory
otomy
▁polypeptide
▁immun
▁Sensitivity
acute
▁1.1
▁SPL
▁readings
vant
intensity
▁dermatitis
acids
▁obstructions
▁48%
▁profound
sensitivity
▁stepwise
tein
▁simultaneous
▁81
xiety
▁scans
urement
▁percentages
▁CFU
tential
skin
▁ganglion
alanine
▁29,
▁impairs
▁(72%)
▁evoked
▁compartments
trogen
▁foci
▁49%
1,
▁elemental
▁enlargement
▁carc
omat
tive
acin
▁irr
essive
▁menstr
▁Tes
ication
gA
oderm
92
▁drin
▁follic
▁AI
▁substitu
▁pancre
-50%
▁isoproterenol
▁biochemical
orts
uctose
lobulin
azoline
▁pregn
▁enzym
osomal
▁antidepressants
▁(9%)
ertion
▁(8%)
9%
▁mellitus
▁nonsurgical
aturation
▁MMS
tens
notic
▁(30
enil
▁morbid
aceous
▁relapse
econd
▁postsynaptic
enan
▁adhered
tate
robic
▁physiological
▁indication
▁mite
▁predominantly
erts
▁ligand
acti
romes
▁breakdown
kines
▁LM
tolerated
tagland
▁adap
forming
▁conductance
▁158
▁300
▁hydrolys
adox
oretically
▁263
▁0.84
▁unrecognized
▁68%
▁blacks
▁reduc
orrhea
especially
▁percentile
ocyan
▁ADA
oppler
omonas
ulum
▁substantially
omycin
▁phosphatidyl
▁jaundice
▁flashes
▁regimen
enyl
▁motone
▁detects
▁postnatal
erox
▁16.
▁suture
▁extrac
▁retinoids
ecre
▁cytotox
▁(0.4
▁membranes
▁41%
▁retur
-45
▁8.5
Ls
▁24,
ials
ococci
72
▁mitral
asic
▁contraceptives
ROS
▁aspirin
▁hereditary
▁intracerebral
▁effector
▁tach
pore
ayed
▁enti
▁enteric
▁42%
▁pathologic
ercise
fib
▁treadmill
▁chlor
loride
thym
▁gestational
▁hypoxia
▁3.8
▁Mast
duction
▁alp
▁reconstituted
▁medication
▁fluorescent
▁equi
▁adul
▁Tests
▁undergoing
▁misoprostol
▁catheter
amino
▁NADP
▁74
▁glycosylated
ologic
▁eliminated
▁Evaluation
educ
▁localized
▁headache
▁institutional
▁epidemiological
atropium
▁Risk
▁lamin
▁Cardi
▁benzodiazepine
educed
▁follicles
incubation
oic
▁900
▁addiction
▁achievement
ograms
osts
▁[14
hep
▁10.7
0.2
▁carbohydrate
▁fluconazole
3.
▁GA
loro
▁quadrup
yclic
conventional
▁0.17
ocarcinoma
opa
Cs
▁6%
ochemically
ypical
▁.05)
entif
▁relaxants
-5
▁referral
galy
▁psychotherapy
insulin
▁FT
▁cations
▁striatum
▁liver
ectomized
olipoprotein
▁(42
▁potent
▁additive
idine
▁59
amol
▁tended
▁multin
▁arrhythmia
▁radioimmuno
onide
seven
▁unchanged
lycemia
ventilation
trophin
trus
▁superf
▁esophagus
▁lymphocyte
▁withdrawal
lact
▁Routine
▁epsilon
▁oxygen
organism
▁prescrib
▁awak
▁nodules
moderate
▁(15%)
▁syphilis
▁disper
▁colonization
2)
▁antagonist
▁allogra
▁transluminal
▁Smoking
▁worsening
▁endothelin
▁triazolam
ionine
▁meal
ospasm
▁substances
▁(39
tures
▁3.7
▁70%.
omethacin
▁alveolar
▁aldosterone
Hyp
▁tubular
tin
▁attenuating
▁topically
▁leu
ochemistry
inergic
▁prolongs
leu
sA
▁scarring
▁stool
▁immunocompetent
hemo
▁airway
▁HL
▁ischemic
▁gyn
chol
▁-5
▁RAS
ochemical
▁Geor
▁prel
8,
onephritis
iplin
▁selectively
oride
5).
▁Physicians
▁1/
▁amputation
▁quinacrine
▁pectin
effec
▁discriminate
▁1988
LN
▁(84%)
▁laminin
posable
uran
▁Oste
▁unexpectedly
▁genitourinary
▁arth
▁secrete
idazole
▁Raynaud
▁chloro
acial
▁olfactory
▁hepatocytes
▁transforming
▁sugges
▁tenderness
▁peroxide
.4
▁renders
▁140
▁statis
▁1.25
▁analgesic
Tc
▁immature
▁endotracheal
▁surveyed
▁contradictory
olytic
ifferen
78
IGF
astases
increased
▁alkaline
▁1.4
Cu
▁neurolep
▁cDNA
▁abl
▁Ade
▁decisions
▁vegetable
ostatin
prising
▁analys
▁upstream
iciency
ontal
opamine
▁muscle
oresis
apeu
▁5'
▁conclusive
▁hypothalamic
▁regurg
▁interacted
▁anhydr
▁2.5%
▁metastases
▁8.
tions
tioned
amphetamine
unts
▁0.5
▁acetate
▁physi
▁detectable
udation
▁metabolites
0/
phyl
▁synthetic
▁Acad
▁consistently
▁enrollment
ergic
▁35%
▁dors
▁thiazide
ilep
▁lesser
▁donor
rotid
▁PMN
▁PI
▁82%
▁sampled
▁marginally
▁aids
▁0.02
▁implantation
-1000
ocusing
17
cessively
▁filtration
▁gout
arge
robial
▁ana
onography
▁sonographic
orotic
▁intact
▁providers
▁0.45
▁saphenous
▁vulnerable
otent
▁Randomized
▁uterine
▁NGF
▁insertion
▁phenotype
odip
90
▁moderately
selec
▁binds
ventional
▁oste
▁blockade
▁leucine
▁pigs
33
initiated
buride
▁suspic
.2
oxetine
difference
6;
▁estimating
trin
▁fibres
▁nasal
▁epiderm
plants
upus
▁erosion
▁incomp
▁axon
odil
▁putative
▁0.75,
▁circulation
modulin
▁29%
▁augmenting
melan
▁cathe
ocin
siveness
lovir
▁2.0
▁tibial
▁246
stem
▁depr
▁maternal
trimester
helium
▁91
tensives
▁cytotoxicity
▁IgE
▁fractions
▁caudal
▁mitogen
oside
▁contralateral
▁ductus
meas
▁1986
▁0.46
▁necrotizing
▁lacks
▁outpatients
▁incis
thrombotic
ths
tructural
/1000
7).
▁mortality
▁lumbosacral
▁addic
▁messenger
▁thrombin
independent
▁extensor
▁poisoning
▁0.22
10.
▁87%
▁transcrip
▁uterus
▁(1.6
▁exhibit
rof
GH
tiguous
ropo
▁antibiotic
▁wearing
▁132
▁13.3
▁bismuth
▁cows
▁genotype
▁recalled
▁maturation
uled
ometh
-]
pharmac
amethoxazole
▁warfarin
▁rigid
acquired
▁Myocardial
▁lipoprotein
▁proteinuria
▁overnight
ondr
▁fibr
▁mononucle
achial
▁(4-
▁bypass
▁60%
orbent
subunit
▁phospholip
▁kappa
NAc
▁(8
▁precordial
▁confirms
96
▁Certain
exin
estim
ovascular
▁carbohydrates
sibly
▁blot
▁decreasing
tension
athioprine
ditions
omies
▁birthweight
oretic
7.
▁RF
▁VT
▁2.1%
bral
▁Suc
26
oconstric
atology
▁endocervical
▁statistic
▁43%
▁17%
opped
▁stimulants
brom
45
those
▁swab
▁168
▁toge
▁muscles
▁52
▁SDS
▁overt
▁44-
▁pim
osomes
teral
▁kcal
▁behaviors
ellum
▁40,
ologically
lytic
▁neurogenic
/7
▁washout
▁1:
▁cerebellar
▁-0.0
▁26%
▁obstruction
tent
olgi
itrate
jec
▁33%
▁fum
▁chromosome
▁clinicians
▁diffic
uracy
▁tachycardia
▁15
▁lapa
▁infusions
▁scin
coated
▁intercourse
▁plateau
▁cirrhosis
▁disulfide
opsy
PPP
▁sympathetic
deple
▁prescriptions
amicin
▁adhe
▁PKC
▁sclerotherapy
▁paral
▁cocaine
84
queous
+]
▁regar
▁hepatomegaly
▁immunodef
▁scanning
▁reac
▁ocular
▁parox
plemented
▁opioids
▁postulated
▁3-
▁pretreated
▁36%
▁aspiration
hemical
▁nonsignificant
▁serotonin
temperature
▁Treatment
▁drugs
azolam
17,
amus
SDS
oprostol
▁scre
▁rebound
placebo
▁ane
▁grip
ticular
▁dysfunction
▁exchan
▁noncom
▁competitive
▁49
▁dairy
▁polyp
▁direc
▁BALB
▁frac
▁incidence
ermal
orphine
8+
▁gains
ufficient
▁viruses
▁89
olec
▁gases
22
▁hormone
eptides
quid
▁practitioner
▁luminal
▁cognitive
platin
-30
▁depres
▁plaque
▁enl
▁(28%)
▁sensitiz
▁20%
▁hospitals
ophy
6,
▁1986.
▁iatrogenic
▁cholinesterase
▁subunits
▁1.13
▁Successful
▁appra
▁RV
resis
▁Afric
zymes
2]
anat
▁hydrox
,000
▁Diagn
ifedipine
▁affects
▁chec
fiber
▁zoster
sodium
▁liposomes
▁posttreatment
▁manu
tiveness
▁cerv
oratory
ocomp
▁predis
luores
junction
▁irreversible
▁amphetamine
▁congestive
▁hepatitis
80)
roth
▁20%.
▁fulfill
▁paired
affected
ocrit
▁HTLV
▁16%,
▁consistency
acement
pig
▁benzoyl
ocular
▁1.7%
▁sedim
▁verbal
▁transcription
▁0.000
▁formulations
▁headaches
▁divertic
▁complications
▁7.0
▁felodipine
▁EI
occal
▁Initi
tene
▁nurses
ioid
▁refr
▁testicular
▁3.9
▁1,
▁graded
ystitis
▁angioplasty
▁fungus
RR
/12
▁400
▁stimulate
▁dilution
▁NN
▁therapeutic
▁hypogonad
▁8.3
reasing
▁recons
▁chlorhexidine
dyn
▁prognostic
ivary
vival
orsal
▁analyzed
▁swelling
entan
▁DT
▁nasopharyngeal
▁unrestricted
▁vaccin
▁surveys
▁Eff
▁targeting
▁5)
imide
▁examining
▁lyso
blood
▁traum
troduction
▁promo
▁restenosis
ocomial
▁constr
▁yr
▁fmol
▁physiology
▁antib
▁persistently
▁colectomy
hepatitis
responders
▁phosphodies
Daw
8)
▁gum
▁sedative
lep
▁Conventional
▁underwent
▁Reduction
▁translocation
▁kidney
▁intractable
▁brady
▁stromal
▁specialty
▁degrad
pli
0.3
▁Infants
▁BMD
▁cytosolic
hydration
abdominal
▁273
apine
▁18.
▁(76%)
median
▁Tc
▁0.82
▁deemed
etent
▁deficiency
▁adolescent
bronchial
▁multim
▁stren
35
trol
▁targeted
idney
▁decreased
▁antif
▁fossa
▁Mild
▁adjustments
▁subf
▁adrenal
▁granul
▁incubated
▁nedocromil
▁unc
▁nevi
▁yiel
rati
phrine
ensity
▁106
▁placental
▁112
▁121
▁glycemic
21
▁tolerability
welling
olus
▁immunofluores
thrombin
▁TD
▁6)
tually
▁efficacy
1.2
▁tubule
Ga
▁ultr
▁densities
▁homogeneous
▁experi
▁actin
▁tau
▁154
vaginal
▁(12
roximately
▁confirming
▁inpatients
.9
▁suppos
▁Statistical
▁metic
▁attemp
▁55
▁prophylaxis
ervical
▁seizures
▁choline
reases
partate
▁pharmacological
▁monthly
HN
osac
phosph
otropic
▁metast
gents
▁bioavailability
▁nonp
▁modestly
▁ecological
▁Veterans
6%)
▁wrist
ritish
▁collagen
eryth
idis
iph
▁nonsteroidal
▁reperfusion
▁depletion
▁dermal
(6
▁interim
herence
▁bile
▁(90%)
▁antigens
glycer
▁resemb
▁0.51
▁8.8
uestion
sion
▁bony
▁messen
tebral
luded
▁0.72
▁oximetry
ycline
▁probes
▁opioid
vaccin
3-
▁(0.5
/90
▁(13
opausal
▁kinetic
▁LDL
▁1.05
▁tremor
▁danazol
dine
atectomy
umerous
elic
▁.0
RM
▁rigorous
iteal
cemic
astine
▁endometr
rocy
▁cen
.9%
▁Copenhagen
▁spas
▁retina
/1
terone
▁multiv
▁ibuprofen
▁cholest
▁150
▁infrared
▁fibrin
▁-10
ritin
▁scalp
▁teen
▁respir
immune
sistent
▁endothelial
14)
97
lycer
▁electrom
▁modest
entral
OA
mobil
▁elective
▁regurgitation
▁metatar
ludes
▁homoz
▁5.6
▁Estimates
71
tensity
▁(250
▁diuretic
▁undertaken
▁(26
reduced
▁eryth
▁hyperlipidemia
▁Stress
▁transthoracic
oag
▁phon
ochrom
▁5,
▁catab
deficient
▁concentrate
▁declined
▁systolic
▁anticoagulant
▁remin
▁cystitis
specifically
▁suppression
▁(78%)
ogenes
achnoid
▁NSAID
romy
▁spontaneous
▁bactere
mmol
▁prostate
onical
ometers
▁wound
▁coli
▁alginate
▁angio
▁rigor
▁96
▁0.64
crib
▁62
▁choleste
▁13%
▁microorganism
▁13-
luding
▁(4.3
POA
roxim
arginine
AO
▁intramuscular
▁1.
▁biop
▁Twenty
▁demonstrating
▁prolactin
▁permeability
9-
▁fati
29
▁mutants
▁adoles
molar
kage
▁unre
utaneous
▁intolerance
▁rele
chers
▁induce
▁0.30
▁viable
obal
urons
tum
▁mcg
▁eti
▁resistant
▁ipr
▁serologically
▁(150
▁nude
ameter
▁naloxone
▁surrog
▁Medicare
▁Tolerance
emin
▁33
300
-1.1
▁30-
▁osmotic
▁psychiatric
riched
olem
illin
▁noradrenaline
▁poorer
tative
histamine
▁Candida
▁rati
▁adduc
▁exhaus
▁35
mature
▁nM
▁consultation
▁nig
▁folate
ostasis
▁vesic
▁sarc
▁progressively
▁fibroblasts
▁universally
lives
▁218
▁uteri
-88
plied
metic
Ta
▁13
clerosis
CDC
ovastatin
▁receptor
▁217
throm
▁clomiphene
▁nucleus
lyte
▁wash
onam
▁preservation
oterol
itoneal
inoc
▁prevalences
gressive
iotic
▁1.8
tration
▁95%.
▁somat
▁surveillance
0,000
▁promptly
▁transduction
▁supplementation
▁leukotri
orbol
▁vigorous
▁sulbactam
▁defec
▁fluoroquin
bacco
▁bab
▁10(-7)
angiotensin
▁jaund
▁(1000
▁pell
.7.
lamin
yrox
▁predominant
angi
0.7
osol
tribution
tia
▁oral
cortisone
▁supplement
4/
91
▁6.6
▁protr
▁reper
▁mucos
arying
▁hypocal
▁tubercle
arbonate
▁epidermal
▁concurrently
▁hematuria
▁limbs
occi
opramide
▁2000
▁pulsed
sies
▁lupus
shaped
▁automated
omerular
salt
▁neurologic
▁methadone
▁palp
▁oxide
▁mum
orough
erant
/3
-5-
▁extracellular
▁donors
oporotic
alene
▁rostr
▁metformin
▁immunosuppres
arcin
▁RT
▁analgesia
▁platelets
ferrin
▁bladder
oprec
threatening
articular
▁diet
▁tryp
40
chond
opoly
▁appetite
thal
▁vertigo
▁impaired
neumon
riton
▁Cyt
▁activated
othal
▁phospho
▁grafts
▁48-
contrast
▁Mn
ignificant
▁expectations
anide
▁breathing
▁regulated
▁compartment
roids
▁Ultras
oagulation
9)
▁numb
ispanic
Ra
urys
omatosis
▁occurring
▁compositions
rotein
tumor
▁synthesis
▁immunogenic
▁climb
0.8
▁flunarizine
iatum
ospitals
▁cavity
BV
▁1600
▁methyl
▁0.3
▁myc
▁plantar
▁Abnormal
▁dressing
▁methodological
idic
▁lith
▁psychopathology
▁psychosis
sized
oxide
romised
criptions
▁hospitalization
▁organic
▁diaz
▁focusing
▁hexa
▁concer
reated
dip
▁dilatation
▁melan
oligo
▁modalities
eces
ociated
MH
linked
uble
▁electroly
▁surf
▁isolates
▁paroxysmal
▁173
▁7.8
▁chor
▁flour
▁differen
▁1.9
patients
▁28.
flamm
MG
▁1.11
▁amiloride
cg
plete
asal
▁diagnosed
▁PT
▁depression
▁dehydrated
onance
▁-1
▁introduc
▁infusion
▁0.43
▁tuber
exc
ecia
▁269
▁Increasing
▁(60%
▁vancomycin
▁stu
▁glial
▁80
▁unstable
▁glomerular
▁1987
ozo
▁perforation
vating
▁0.6%
▁(25%)
eeding
▁1.17
▁volunteer
▁DBP
▁simplex
▁peptides
siology
timate
▁11.5
▁palpable
erad
stimulated
rophob
▁iat
▁LV
embry
phor
▁brush
usions
▁metabolic
▁erythrocy
▁212
Ni
udin
▁hydrophob
▁eradication
▁endoc
▁heterogene
▁237
▁steroids
▁(48
▁transaminase
94
▁durations
owever
yocardial
Kd
▁speculation
▁thromboembolic
ophils
▁consis
phrag
▁cholec
▁(10(
▁visualization
▁indications
▁sexually
adrenergic
▁derangement
▁ethyl
▁fertile
▁unilateral
▁exhibits
▁Specificity
ituitary
TN
ialysis
▁dys
▁fasting
▁computerized
▁anticoagulation
▁Exc
▁inhibited
drug
▁pleural
▁regis
▁subc
▁dex
▁dopamine
bA
ejection
athic
▁inhibition
▁absorpti
1%)
▁drainage
▁IVC
▁92%
▁varies
acetate
▁absorptiometry
▁hypertrophy
uestionnaire
▁sensi
50,
▁copper
▁adulthood
▁detrimental
▁resis
▁Assess
tropin
▁21%
ocarcin
▁nonc
responding
roscopy
plast
▁SEM
ressive
rogen
▁12%,
▁glucocorticoid
lux
▁1.7
▁respec
▁0.61
omized
urate
▁embry
▁hydrolysis
▁Thi
▁controver
Tyr
▁PGE
tives
▁prophylactic
▁postoperative
▁bathing
arental
▁initiate
▁11.6
▁luteal
▁oxidative
▁DS
▁rhin
▁8-
▁80-
▁objec
carinic
▁pharmacologic
▁diets
▁horiz
▁(16%)
opha
globulin
Fs
▁techniqu
▁carb
▁ACE
▁interrup
acts
arrh
▁diabetic
▁3.6
▁intraper
▁exacerb
▁0.76
Ti
1),
▁exaggerated
monella
▁insuff
▁electr
tivation
▁idiopathic
▁45%
eprazole
▁3.5%
▁+/-
▁preventing
esophageal
▁HbA
▁IgM
▁intram
▁Survival
▁tape
▁ect
tomy
enzyme
▁workplace
▁tRNA
▁Braz
▁progressed
▁inhaled
orh
urther
▁drank
▁macrom
▁deoxyrib
▁abuse
▁evacuation
82
▁termination
▁cere
▁stratified
▁tuberculosis
▁vein
ilized
▁exhaustion
-36
▁fibrosis
▁corpuscular
▁flexor
▁quantified
▁microb
▁exudation
▁cotinine
▁sulfonyl
▁grains
tic
▁artic
aid
▁adenocarcin
urane
▁predic
▁thym
700
establ
▁infiltration
posure
ordial
jury
monary
tization
▁pregnancies
▁trauma
iparous
46
▁molec
vate
▁Educ
opl
▁amph
etan
sched
▁(67%)
phasic
▁survival
▁DP
secondary
▁ml
▁abstinence
▁thyro
accharide
▁glycogen
▁parame
-23
▁seroconverted
▁strategies
odular
▁(2%)
▁examination
▁Severe
▁phleb
injection
1);
▁meningitis
upuncture
▁SMR
acet
▁reversible
▁Subcutaneous
▁intran
▁infarction
sives
▁Maximum
▁139
▁128
idne
▁spectro
▁seas
-8.
▁unex
▁7.5
stimulating
▁Inhib
▁infection
▁satur
ignific
▁7.5%
▁wt
tub
ecan
▁247
200
▁mug
olysis
▁antiarrhythmic
▁microM
electric
▁excessive
RNA
▁promoter
operoxidase
anazol
▁pacing
▁menses
acyl
▁2.6%
▁(4)
▁0.01).
▁preventive
▁cough
▁efficacious
albumin
chid
NK
▁37
▁wors
▁1.2
idate
▁varicella
-78
▁chl
▁adenylate
21)
acked
▁recur
▁enzymatic
▁biliary
aemic
▁genital
till
▁hospitalized
▁immunos
▁ranged
▁nutrition
tep
achid
▁polypeptides
5%,
▁preschool
▁residue
▁sulph
▁neuron
▁NADH
▁influences
aminase
▁monkey
▁COPD
▁atenolol
▁85
▁infarctions
▁opi
.1,
▁PE
▁precipit
▁0.94
▁hams
▁presenting
osclerotic
▁deliveries
8%)
▁anomal
scherichia
▁sham
▁ovaries
▁cyclospor
DH
▁dosages
▁susceptible
parathyroidism
▁ank
▁vaccination
▁brevis
▁standardized
▁7.6
timulus
acetyl
▁pyruvate
▁malignancies
lox
▁pathophysiology
▁Few
▁mRNAs
450
ensitivity
oactive
▁competent
-9
▁colonies
▁characteris
▁hypothesize
CSF
▁Identif
▁vegetables
ectomies
▁PV
pinal
▁25%
▁0.7,
▁hairy
▁2-
HB
▁fluctu
mostly
vascular
IFN
▁osteoporosis
▁carcinoma
▁dentures
distal
oblastic
fem
activated
▁autologous
▁logistic
▁Bacterial
ischemic
teroids
roxy
pir
▁amitriptyline
47
▁3000
▁bronchodil
eptid
▁Changes
▁fibrillation
▁variability
opause
▁Progesterone
▁activating
▁obstetrical
▁atrophy
▁Veter
▁1.06
88
▁ack
▁Haemophilus
openhagen
▁disseminated
▁yielding
rophenyl
▁meningococcal
odal
expressed
▁(80
▁hapl
▁55-
psych
concentration
▁oxytocin
▁ligation
▁extracts
itus
▁mobility
iasis
▁lumen
▁surgery
▁psychophysical
▁superv
ogenetic
lyl
▁pancreas
▁kinase
▁Swed
+/
▁lymphocytes
onomic
▁nipple
▁preven
▁mast
otor
▁valve
▁hypercalciuria
▁hepar
▁1983
5%.
▁0.26
▁admissions
▁clinically
thyl
▁diastolic
▁antagon
▁inadequ
▁0.74
▁(94
▁proliferation
▁lact
usate
▁forskolin
▁ionic
hyd
-7.
▁44%
▁-7
▁depolarization
▁HP
▁1.08
▁confined
▁intrauterine
ighted
▁terat
osides
▁(56
▁VP
▁supernatants
ytoin
▁excit
0.1
SMR
(2
otri
▁cAMP
▁palsy
iciently
16)
▁EEG
▁colpos
▁idi
aturated
▁Outcome
▁exposure
▁curet
▁cyt
mg
23
waves
ecretory
▁tox
▁antagonized
0).
essation
▁9.9
▁preserving
dition
▁eczema
▁14.8
entricular
0)
ituit
▁epinephrine
▁selen
athy
▁dihydro
▁solely
onit
30
▁(2)
▁1989
▁Subsequent
casein
LTS
▁0.14
depend
▁ipsilateral
aryngeal
▁131
effective
▁0.001),
▁86%
▁magnesium
▁remission
▁70-
▁Therapy
▁(0.6
hene
▁isolate
apsulated
▁subtype
▁phage
rease
▁uv
80
NSAID
-6,
▁vascular
▁acne
▁modeled
tosis
adiol
tering
▁hydroly
▁4.2
▁11-
produc
frequency
▁Vitamin
▁surgeons
12-
▁mIU
▁contaminated
▁reas
tice
▁endoscop
▁recor
▁immunobl
hern
▁elu
▁conclu
▁9.
oglobulin
cinolone
toxic
▁enhance
▁centers
iotensin
▁cate
eric
▁phosphorylation
▁dextrose
requ
olipid
▁titration
▁reductase
▁133
Dawley
▁9-
▁(1.25
▁seronegative
▁shifts
convulsive
▁confirmatory
▁progest
▁sulfonylurea
▁balloon
▁autoanti
▁intravenous
▁monol
▁fourteen
▁macrophages
▁proce
▁connec
▁asymme
▁deform
▁challen
▁(82
sis
▁swit
▁comprised
fusion
tructive
hop
▁Replacement
unctional
xime
▁thromb
atest
▁gradients
▁vasodil
▁Compared
▁atopy
95
▁(2.6
▁leukocytes
▁metoprolol
▁unil
▁electrode
▁coagulation
▁phosphatase
▁adiposity
MDA
▁disappearance
▁antimic
24
▁leukocytosis
▁tas
▁fec
▁seiz
▁inducing
▁premature
isolated
IgG
feeding
▁(71%)
▁synthesize
▁hypo
osynthe
▁selective
8.
▁(10%
▁amyl
▁fluoro
associated
isoxazole
▁involvement
▁discom
lyc
▁regimens
▁65%,
▁cyclic
▁cuts
▁incom
▁occlusion
LDL
▁comprehensive
▁deposition
▁practitioners
▁MT
▁40-
▁whey
▁TC
▁lob
rocyte
▁otitis
▁nucleotide
▁Grade
▁childhood
ovirus
igible
▁encouraging
▁nonm
▁defective
odgkin
▁15%.
▁mononuclear
transformed
▁iod
▁difficul
▁toxicity
▁immunohist
erents
▁formulation
▁(67
tropine
geal
plasty
NIDDM
▁43,
enters
etus
▁specificity
▁Factor
oclonal
aneously
▁hypon
▁Transient
▁collagenase
▁Significant
erge
▁lectin
▁schizophrenia
fortable
4.
▁triamcinolone
6-
▁papillary
▁serologic
▁monke
-1.4
▁suppressive
55
▁airflow
▁squamous
▁0.06
opar
▁Lys
▁Hb
▁discre
▁0.33
▁threefold
operative
▁NF
▁detec
▁4.1
-65
▁gangl
▁tric
▁precursor
-2-
reatine
▁ammon
valvular
moking
▁anticonvulsants
▁atten
Lac
▁replication
sants
▁colitis
opulation
aind
arate
▁recipient
erance
acterial
oradi
▁characterizes
▁84
▁abdominal
thoracic
▁healing
anate
▁decayed
▁0.4
rosemide
tenti
▁diary
▁microsomal
activation
comitant
▁3
▁progres
▁stimulatory
2.1
▁194
▁bladders
▁uniquely
▁correlates
▁bone
rowing
patient
▁cellul
▁surgical
▁experim
▁polyethylene
▁assay
▁(1),
▁(23
▁rickets
▁meperidine
diagnosed
▁inward
▁GH
ophyll
▁18
3%)
olamine
▁Trial
stolic
▁ointment
▁defects
▁0.24
▁radioactive
▁phe
usively
▁eccentric
glutin
▁toxic
trast
ropathy
trac
53
▁34%
okine
▁instruc
▁judged
▁heterogeneity
▁synerg
▁Feeding
ections
▁hyperp
kephalin
▁questioned
azone
opril
ocyt
▁25,
▁mucosal
atine
▁emulsion
25)
irone
▁exud
okinetic
▁90%
resistant
▁inactiv
▁compromise
▁vag
▁hig
▁cohorts
▁acids
▁contractile
mia
▁6.5
▁concomitant
▁1.9%
▁newborn
▁Diabetic
▁phosph
iclovir
tizing
▁pharmacy
EA
▁epithelium
▁affinities
▁phy
▁autosomal
biotic
▁(1)
▁whee
PV
▁167
▁radioactivity
fractions
▁inconsistent
opharynx
▁16
.9%)
spectrum
▁depressive
phic
pain
▁participate
▁undergo
4-
▁graft
▁indi
inol
oglyc
▁cancers
-125
▁VAS
ylation
▁definitive
4]
▁drinks
▁120
▁babies
azep
▁IgG
▁1.09
105
ortal
▁Tiss
▁aortic
▁cephalosporin
▁symptomatology
▁0.9%
▁poten
uvant
▁irrit
▁thal
ffer
▁galact
ulin
▁spont
▁80.
▁conduction
▁assessed
▁182
▁diuretics
▁cytologic
▁regain
▁abrupt
▁stimulant
▁oss
▁androgen
▁neurotrans
▁4.4
▁distinguishing
▁NMDA
▁sedation
.5.
omal
esin
▁echocardiogram
loon
itamin
diagn
ulant
▁lymphoma
▁myelin
▁LR
ture
▁mediated
ipar
▁10.
▁oxid
etoprotein
▁blocker
▁Ventricular
▁inver
▁hap
▁exploratory
▁kit
▁predicting
▁uric
▁receptive
▁subun
▁prostatectomy
▁spectroscopy
oil
▁patches
32
▁nocturnal
ocar
▁mL
▁Glu
▁herpes
▁ofloxacin
▁50%,
▁radionuclide
36
▁carcinomas
▁hygi
▁radiograph
sue
▁stimulation
▁freeze
▁arti
▁1.24
▁quantitatively
▁(12.5
puts
-3.0
onor
mol
▁pathways
▁weighed
▁aberrant
▁5-
▁homogenates
▁urodynamic
atibility
▁inactivation
lysis
▁0.52
▁triglyceride
▁24-
2),
1.1
tility
▁bronchodilators
enol
▁7.4
aternal
▁atrial
▁thir
▁(43
▁PHA
▁ischem
siologic
▁Epidemiologic
▁kb
ginine
chlor
▁17.3
▁anat
▁mutation
▁64
▁colonic
▁preceded
▁arrhythmias
▁fatigue
▁10-
▁apnea
▁insoluble
▁antid
▁smo
▁tomography
10-
▁54
▁aided
ritic
▁UT
▁enteral
▁18,
▁sour
▁exercising
odipine
polyacrylamide
▁0.50
▁chromatin
▁-15
-1)
▁repl
▁thi
plen
▁bipolar
▁nosocomial
oate
ditional
▁disorders
▁anhydrase
yrid
▁corpus
sied
▁macrophage
▁casein
▁Engl
5'-
▁ery
nucle
eptidase
obacter
▁0.47
▁chan
▁CU
▁234
▁nervous
▁atr
▁demands
▁(50%
▁hypox
▁medial
gestational
▁0.90
placement
▁GABA
▁BP
▁30.
▁irrever
7%)
▁NADPH
▁serogroup
rays
▁mann
cepti
37
sant
14.
▁parathyroid
▁Pneum
▁locus
HDL
▁Ninety
▁86
▁3.6%
▁quinine
iagn
▁complexes
▁isoforms
▁nodule
sparing
▁addressing
▁shif
▁counseling
0.5
▁Screening
▁constituted
aptic
▁Approximately
lyb
Ace
▁1)
nate
▁trich
▁telephone
▁abr
obacillus
▁introducing
▁hypercalcemia
▁splic
▁contraceptive
▁(5%)
▁biopsy
▁250
razolam
▁500,
tability
turb
▁duodenal
ffinities
His
▁paralle
▁(16
▁resting
▁dental
▁tracts
▁pts
izine
▁triad
▁0.09
▁bronch
▁SIDS
ranial
▁reductions
▁rheumatoid
6%
ressing
▁modulation
.6%
▁testis
▁ascorbic
lated
▁margins
operated
▁0.29
▁(80%
▁uninter
tically
▁evaluations
▁pylori
▁xyl
ervations
vertebral
▁heal
▁Clinic
gesia
▁10,
▁4,
orbidity
trate
▁91%
ller
rosy
▁(40%
enoid
▁aimed
genital
oxy
osid
▁5'-
cysteine
▁inhibitor
▁proportions
▁verification
artum
opathic
▁junction
density
▁interf
▁blister
▁contral
▁13.9
▁Efficacy
▁acetylcholine
whe
▁1.5
▁hemisp
abd
▁1.3-
arent
▁hypothyroidism
veolar
▁93
oplasty
▁PP
abain
▁tendency
▁rheum
▁kidne
▁viewing
-50
▁deoxy
eclamp
▁hipp
▁explored
0%),
▁lisinopril
▁4).
▁hybrid
▁cerebral
▁substance
rief
▁glycer
▁contractions
FU
oglobin
▁0.27
▁mutant
89
▁CAH
mL
▁optimum
2,
▁Weight
▁potassium
▁Histologic
▁tymp
▁encoun
avirus
▁epidural
▁correspondingly
▁90%.
ductive
▁adverse
exis
▁preparation
encephal
▁restraint
3).
SAID
0),
▁therapeu
▁-9
▁diagnose
▁esophageal
ulatory
▁endothelium
▁premenopausal
jac
▁Escherichia
▁arter
▁apne
▁mec
▁synap
onuclear
▁blu
▁Magnetic
▁349
▁influenza
▁analogs
▁68
11
▁9,
▁0.67
smoking
teroidal
▁lumb
astatic
▁utilizing
▁qualit
▁ison
otypes
▁calorie
▁mitochondrial
▁ankle
▁Americ
▁availability
timulation
▁depressed
▁warr
▁intermittent
▁outpatient
ogens
▁belie
▁discon
▁pyram
▁proteins
rine
▁veins
▁positively
▁ambul
ucas
▁cigarette
▁Comparison
athione
▁ruptures
▁dopaminergic
▁solubilized
ureus
pecific
nec
▁0.07
igl
▁ovari
▁etretin
▁cortisone
▁maintaining
▁10.4
▁bradycardia
▁blin
56
▁neurons
BM
ifornia
ichia
parathyroid
▁covari
▁pellets
▁secretagogues
▁oxidation
▁albuterol
▁afferent
▁bilirubin
▁voluntary
IU
▁trials
ocl
▁endometri
uresis
▁Cancer
ching
▁conges
ospor
▁23%
▁infants
fat
▁(85%)
7,
tening
000.
▁0.88
24,
▁rehabilitation
▁NH
carbohydrate
olesterolemia
▁protease
▁Biopsy
▁1.4%
▁unselected
rofen
orbid
ropriate
epithelial
releasing
▁instrum
ometrial
▁(86%)
▁conservative
▁3.8%
mitted
▁33-
▁organisms
▁inoculated
ipro
▁147
▁anticonvulsant
▁incision
▁stom
amate
▁cardiomegaly
▁pentoxifylline
▁hyperg
▁127
▁subjected
stro
▁inspiratory
▁reflec
duced
▁chewing
-79
pyr
▁suppressor
▁OB
▁27%,
ocardi
▁alterations
▁demonstrable
-2).
▁transloc
▁Asi
▁accounted
▁94
▁20.5
itudinal
▁unco
ampl
uterine
▁assayed
etween
▁Cells
▁potency
20
▁edema
▁serotoninergic
lastic
toc
▁10.5
hered
yroid
jun
▁DH
▁ongoing
atab
▁lasted
oreceptor
▁hemodynamic
▁sucralfate
▁investigators
▁wards
▁(45%)
▁dischar
▁familial
▁bouts
▁0.19
▁Meas
▁helical
▁behavioral
▁heel
▁aneurysms
▁coeff
strain
▁instr
▁HeLa
8-
▁injec
7;
▁(10.
▁CABG
lymph
ofl
traumatic
▁arteries
▁pathogenesis
▁pep
▁widespread
▁ethn
▁prevalence
▁Apgar
athyroid
keletal
WB
▁biosynthesis
▁irradiated
1:
▁influenz
▁181
▁histology
▁2.4
▁Diagnostic
▁paradoxical
0.4
lora
▁dib
▁aden
taining
diastolic
▁Caucasians
▁encephal
kets
ulous
▁0.2,
otroph
▁Barrett
▁confirmation
▁therapy
▁meth
▁1.6-
▁reinforce
▁sepsis
▁diame
▁209
▁pneumonia
+,
spar
▁latex
▁ECG
kelet
yx
▁additionally
anese
▁atypical
greater
▁provid
▁52%
-2
▁guidelines
▁Disease
duce
ritical
ecyl
▁0.81
▁recruited
▁initiation
▁lowered
▁parac
CHD
▁advan
▁unipolar
hydroxy
▁solvent
oconazole
-100
▁3.5
▁4.9
▁socio
▁analgesics
▁atyp
tivity
▁Failure
▁screened
42
▁terminus
▁thyroid
epsia
years
▁amino
▁chemically
▁(41%)
▁stres
▁Cd
osocial
-66
▁mood
ophilus
▁80%.
▁LHRH
spective
▁mandatory
59
osterone
ascular
▁microbi
▁spleen
▁reflex
-100%
▁polys
75
▁obstetric
▁hydrocortisone
▁CTL
particularly
▁sinus
▁tyrosine
▁27
0%).
actin
▁Recommend
▁autoimmune
ositol
▁Nons
▁merit
centr
hydro
14
planted
opressin
▁serum
ACh
▁granules
rated
▁diclofenac
▁hippocamp
▁vesicle
uppres
▁comprising
▁athletes
promazine
▁Transi
▁goiter
▁49,
▁indo
ohnson
ithromycin
▁Improved
▁(3),
▁adherence
▁recommendations
▁retinal
▁Delayed
▁0.48
atical
▁thresholds
physiological
▁augmented
▁outflow
▁implications
▁prodrug
▁incorporated
▁1991.
▁rheumatic
▁esterase
▁1.5-
▁stenosis
▁cystic
51
▁quanti
▁functionally
▁13.
▁resul
ohns
▁enzyme
truction
▁considerably
▁0.2-
▁schiz
ipid
▁schedules
ipit
▁connective
▁homology
▁neurom
▁proteolytic
▁practic
agonist
▁50,000
monstr
aryn
0-
▁(99
.10
▁raises
etaz
▁elucidate
-2)
dil
stant
▁hypothyroid
hyde
▁determination
atrial
▁0.86
50
▁transplant
▁absorb
▁incubation
▁synaptic
entia
▁(5.1
rosis
osom
glyc
▁proteoglyc
antial
▁lavage
▁perin
▁2.5,
▁hirsutism
▁morphology
▁corticosteroids
▁lesions
0%,
▁EDTA
▁Nit
Hb
enterolog
▁physici
oung
▁ionophore
ynthe
▁intermedi
▁rostral
▁habits
▁thrombus
▁bicarbonate
▁thromboemb
▁antec
gesic
▁mV
▁gemfibrozil
▁neutrophils
▁natri
transfer
▁incontinence
-7
▁0.38
▁oligonucle
ulants
llate
▁acet
▁salbutamol
▁caro
▁pyridoxine
▁venous
▁Almost
▁retin
dihyd
▁Thyroid
▁classified
▁cream
ancies
▁2.1
generation
tradiol
▁etiologies
▁73
▁foods
▁carbamazepine
▁(5%
▁sial
▁chol
early
▁cereal
▁stratification
▁Improvement
▁chronically
▁-0.7
aryl
▁hydroxyl
oprol
▁peptide
aric
▁mitochondria
▁cortex
aerobic
▁maneu
▁reiter
▁distin
divid
▁protective
▁heterogeneous
▁47%
▁5.5,
-4.
▁115
▁kidneys
▁Leuk
▁investigated
▁supple
▁nausea
▁Plas
▁serology
ications
chymal
▁azithromycin
cyte
▁tablets
▁euth
urnal
▁Alz
oplasm
▁strain
WBC
▁elderly
▁urtic
Gly
idin
acrine
▁2.5-
▁fluoxetine
tric
tetr
▁12
▁calf
▁protracted
opath
▁streptococcal
▁1966
kers
▁implic
acer
.0)
porting
▁supernatant
andard
▁NMR
▁cutoff
odopa
▁440
atched
▁carcin
luc
ults
▁189
icillin
▁suction
lys
127
▁stratif
▁550
▁Streptococcus
clonal
▁antidepress
zine
19)
▁uncomplicated
▁stomach
▁cereb
leuk
▁sph
androgen
yel
▁immunity
60)
arb
▁illness
▁agar
▁amin
stin
deficiency
rophy
isomer
▁agonists
▁Measure
64
▁ACh
▁16%
▁(95%
▁infections
anded
usp
▁congenital
▁immune
▁24)
▁110
-25
ithin
▁insufficient
▁stimulus
▁slows
▁fibers
▁stimuli
▁immunotherapy
thmia
.4%
▁clon
eal
/6
▁allevi
▁epic
▁responded
▁ions
▁10(
▁prostaglandin
weekly
▁infancy
▁dimethyl
▁monit
mokers
apeutic
ometr
▁200
▁82
assi
▁drops
gold
▁Chronic
▁EB
▁chorionic
▁monomer
▁implant
▁ovulation
▁arginine
ureas
gic
▁10.8
▁Subjec
administration
▁multicenter
ardia
ipolar
▁lute
pation
▁somatic
▁prescribed
▁avoiding
▁satisfactorily
▁reinfection
▁79%
▁hemorrhage
▁16.1
▁cesarean
acies
▁chicken
3.1
▁granuloma
tious
trypsin
urium
▁adolescents
Ts
▁smears
2-
▁autoradi
▁weigh
ardias
▁antisera
onegative
▁Golgi
▁marginal
▁-2
▁controlling
▁Subjects
relaxation
anic
▁overview
olesterolemic
vastatin
amid
itriptyline
▁diabe
▁ulnar
-3)
▁107
▁antitumor
▁ND
▁97%
▁invasive
vivors
retion
▁anticoag
uclear
enh
▁struc
retin
roat
▁5%.
▁identically
▁anomaly
iphene
gain
▁menopause
▁exhibited
▁cryst
-3.
aginal
IgM
▁chemicals
Hep
▁electroph
lycemic
▁deaths
500
▁healthy
▁caud
▁7%
trated
amilies
▁plex
titution
▁clearance
▁199
▁Increas
olic
▁15-
▁255
▁10.2
▁deletion
▁elong
razole
treated
▁savings
-11
pH
▁kits
▁insulin
▁dysp
oprost
▁nip
▁pneumococcal
▁subclinical
▁122
▁conservatively
effectiveness
▁126
▁PCR
▁organism
103
▁rhe
▁7.9
▁innerv
▁Thirteen
ucle
▁lysis
ticle
0.9
modified
▁responsiveness
acetic
ulose
▁104
▁agon
▁micrograms
0.0
lood
guing
titu
▁accelerated
endorphin
▁Newly
onary
gestrel
▁spikes
▁gp
▁inflamm
▁secretagog
▁stere
▁99
▁embol
▁PMA
coun
▁60-
potential
▁microvascular
▁TPA
▁6
quam
▁nec
sive
▁50,
▁42,
▁epit
ulmonary
▁synapses
kinin
pendent
▁celiac
idem
▁asthma
▁50-
▁cyc
▁88
▁administered
lusion
▁parental
thromb
▁granule
▁7
▁afferents
uppression
▁mg
▁platelet
▁induces
versity
▁340
▁extracorporeal
▁noninvasive
▁glycine
ilateral
maximal
▁tetrac
0,
orec
▁ate
▁candidiasis
▁TSH
▁(84
Ep
▁differentiation
▁ecz
▁1.16
rologic
partic
▁caregi
ALT
▁excluded
▁superficial
ruc
ropha
▁cac
▁ANP
calor
▁isomer
▁biological
oA
▁pancreatitis
ronch
havi
therapeutic
▁effec
alities
▁0.2%
▁hered
▁lam
▁chromosomal
▁promoters
▁arousal
▁Individual
ratic
▁saphen
itoring
odynamic
adily
▁0.25%
▁successive
otassium
▁BA
glutinin
anol
▁rupture
.1
▁14.5
▁shar
▁(300
▁somatostatin
▁IGF
-6)
facturing
testinal
▁assessing
▁altered
▁anxiolytic
▁postin
▁phenyl
Phe
2).
▁penile
▁Mg
▁methodologies
5,
▁coag
eclampsia
▁hepatotoxicity
▁monocyte
▁allerg
CAM
▁polymer
▁BAL
▁mice
ifug
atrop
▁microv
▁28%
▁maneuvers
5]
oprotein
▁statistically
▁infertility
▁176
▁hamsters
▁anemic
▁improves
tiary
▁synthesized
▁(63%)
▁uptake
▁63
phosphate
amic
▁interventional
botic
▁ionized
trib
▁fractional
▁intracellular
nish
▁CNS
proven
▁stringent
▁mRNA
▁spectroscop
teria
▁31,
▁rifampin
▁extrap
▁reveal
▁interp
14,
▁cyclase
▁omeprazole
poor
▁undetected
directed
▁sero
15.
adren
emak
inephrine
phyloc
asting
▁pyraz
▁precursors
▁carboxyl
▁preferen
arachnoid
tual
▁obstructive
25
vely
gene
▁Experiments
otransferase
▁DVT
▁antiserum
▁19,
-2,
▁PRL
▁metastasis
▁victims
▁Thin
oproterenol
opoietic
▁ouabain
▁corresponded
▁treating
reactivity
etitive
inositol
iper
teroid
▁anes
▁CDC
▁injected
PEG
went
osteroid
▁Ure
portant
truc
3%
▁atherosclerotic
▁65%
▁cytosol
▁paren
▁pharyng
ediatric
▁comparative
▁expense
▁facial
▁facilit
▁111
▁5.5%
-8,
atified
▁125
▁electrolytes
▁isolation
▁leuk
▁interv
acid
induced
▁transplantation
▁inadequate
▁pneum
▁Testing
▁mediating
availability
▁masked
▁5000
▁101
▁exacerbations
▁curriculum
xate
▁sati
duc
▁electrophoresis
entile
(3
▁suprac
▁0.7
▁Prac
ucine
attern
▁chamb
▁adenoid
▁lamb
▁gluc
▁effectiveness
▁antis
-1.3
▁Combin
atell
▁diarrh
▁efflux
ofib
▁nonspecific
▁inters
▁percutaneous
▁70.
▁paradox
mentation
▁fibronectin
▁tryptophan
jug
9]
▁ket
▁1.07
▁inhibiting
▁wheat
inase
▁exclusively
▁0.05%
-19
▁(76
▁reti
versely
▁(1:
▁ingestion
creatinine
average
IgA
indol
▁lipase
standardized
▁150-
▁tubes
▁Exercise
▁homogeneity
▁beverages
▁congen
▁inositol
▁23
tracellular
▁endarterectomy
▁diagnoses
▁endoscopic
▁progestogen
▁latent
▁22)
▁(1.0
▁accumulation
▁myocardium
▁oxidized
within
▁lesion
lli
▁transplanted
▁gon
▁lumbar
▁deviations
▁inversion
▁surgically
▁Benz
▁febrile
▁pharmac
bearing
▁(63
