acyl
▁biosynthetic
▁anaemia
▁chemicals
▁perceived
▁48
oves
▁antigen
▁retrospective
-90
▁aneup
▁Cycl
mRNA
▁ultr
orded
▁symptomatic
▁hyste
oretically
▁failures
▁orally
▁kD
phila
▁crust
▁raphe
▁0.3%
▁overt
▁resc
ventional
▁reac
▁peritoneal
▁junction
▁Michaelis
▁optimally
▁proportions
duce
59
immunoreactive
▁methadone
▁206
▁femoral
▁neutralization
31,
▁pulses
▁Combination
earing
▁immune
▁86
▁estrogens
uppressed
▁polymorphic
TN
otropy
ophysical
▁eIF
▁exud
▁tuberculosis
MuLV
▁Fifty
▁obstetrical
lycer
kerat
tro
▁lumen
▁posture
hydroxydopamine
skin
▁aberr
▁pS
▁10(8)
▁grise
▁Spontaneous
▁underwent
ths
▁-5
▁smear
▁0.70
▁conjugate
▁6-
brids
▁quiescent
embr
avage
orrhage
lesion
▁toxicities
▁amyl
ainide
sAg
▁palate
RV
deoxy
▁(38
▁postmortem
hydroxyphenyl
▁Streptococcus
IgA
ulates
▁Respiratory
▁microcirc
▁(28
▁beads
alim
▁0.01)
▁Cumulative
8/
▁motif
iaz
ercise
obal
BP
lastic
▁5.3
▁fetus
siology
▁swine
▁aneurysms
tetrahydro
▁enlarge
▁cholesteatoma
▁oxymetazoline
ocyt
▁pleural
embran
▁Individ
▁glutamate
▁MLC
▁IgG
ucine
▁hyperlipid
▁passive
istically
iatic
▁1.1
▁proliferative
▁elution
▁antigens
▁substitu
▁transmural
COP
▁transforming
linking
▁Tg
rP
▁peaks
rought
▁regularity
▁occlusive
raconazole
▁0.0001).
▁Physicians
▁candidiasis
▁Certain
▁serosal
▁fibre
▁28.
Ly
ller
▁Pertussis
▁cGy
▁extracellular
▁permanently
▁chambers
▁monovalent
▁cosmetic
▁demonstration
▁erythromycin
▁esters
▁implications
▁1987
▁chemot
ymme
▁obli
▁elicited
▁(100
▁unreliable
▁gluconeogenesis
▁airway
▁esterase
▁metastases
▁fibres
phenylalanine
▁phosphatid
sched
pore
▁79%
▁surfact
▁responding
patients
▁50,
▁57%
ficial
requ
amel
ses
eration
forming
▁diffuse
planted
entanil
akary
tokinase
▁asparag
▁needle
▁strongest
oprost
▁(41
▁attitu
▁outpatients
▁identi
▁fric
olic
onin
tilis
effec
▁questioned
▁carcinogens
▁sleepiness
▁sensory
▁scl
▁osmotic
▁constitutes
▁vimentin
▁repressor
▁67%
▁164
▁judged
▁CN
▁2.5%
▁dissociated
ocompatibility
▁1%
Ni
▁Testing
▁elastase
▁oligosaccharide
▁cationic
▁cardiopulmonary
▁utilization
▁PBMC
dihydroxy
orotic
assay
▁posi
▁decompression
▁ultrac
▁55-
▁coughing
42
▁biosynthesis
▁livers
▁innervation
kers
▁squamous
▁cytogenetic
▁resuscitated
immune
antibody
▁plasmin
ulators
▁lesion
repres
▁scintigraphy
▁cochlear
▁reservoir
▁vestibular
▁nonm
asone
▁EMG
glia
mur
▁(33
ruc
▁lesioned
itching
ypro
▁concep
▁monotherapy
▁modality
▁intral
producing
acrylamide
tingu
▁tolerated
severe
▁dors
opar
▁rumen
▁responded
clusive
▁covalent
▁spi
▁hexa
▁downstream
opoietic
▁600
▁remodeling
▁reass
baseline
actam
translated
▁Clinical
▁EI
▁phosphates
▁deficits
▁ration
▁perin
▁WBC
▁oxidant
orable
▁virulent
▁1969
▁BM
▁thrombocyt
icit
▁myoglobin
▁cholera
itant
23.
▁placebo
tus
▁TATA
▁bilateral
▁0.4%
▁allerg
50.
▁1986,
▁baseline
amily
depr
▁5.5,
▁OT
▁Oc
▁0.61
▁nervous
▁frontal
▁personality
incubation
▁parity
▁nociceptive
sy
▁(1).
electric
otide
▁HF
▁FS
▁moderate
▁IK
▁bronchospasm
▁Systemic
▁thymocyte
▁perikary
▁frac
TNF
:00
▁adip
-1.3
tivity
Ki
lysin
▁adjus
▁40,
▁7.4
▁rabbits
▁intracor
posable
▁24.7
urospor
79
▁fractionated
▁aeti
-29
▁accessory
▁3-4
▁26.5
4-
▁synapt
▁1.0
▁AVP
3/
▁cardiac
▁107
versus
adenomas
plasma
▁cereb
▁basement
otype
aem
▁tryptophan
▁40-
early
▁necrosis
▁Comparison
▁circumference
▁irradi
hern
encephalon
▁Epstein
▁20,000
▁Acad
▁salic
▁Activation
▁allergy
▁histologic
▁causal
▁MAbs
▁(31%)
urred
▁LTC
▁105
▁4.8
▁antisense
▁gradients
▁pneumococcal
▁palp
▁isomers
▁nifedipine
▁Ultras
▁dissec
▁gland
trus
ovaginal
-]
▁prostatectomy
▁chemilum
▁8.2
▁labeling
▁(70%
▁acetylcholine
▁joints
▁gluc
▁2-3
▁deform
RIA
▁-0.5
▁continuing
▁abnormal
Glc
▁(3-
oxamine
▁100,
kinin
▁remod
▁recirc
▁pouch
okinetic
▁regulates
▁77%,
metic
tified
▁Abnormal
▁infusions
▁equivalents
▁atenolol
▁3.5%
▁shunt
▁succinyl
▁nephro
▁quenching
cutaneous
terminus
illary
ervo
angl
operated
32,
tum
▁diffic
▁chicken
▁nonsurgical
omonas
▁negl
9).
ration
▁24,
▁cobal
▁toxic
▁immunotherapy
vessel
onidine
▁thromb
years
▁synerg
ropine
▁depolarizations
.00
▁19,
▁Increased
▁withdrawn
▁doxazosin
aturia
▁sympathetic
▁isoflurane
▁arteriosus
▁28%
▁mechanisms
▁postpartum
▁glycogen
▁fluor
▁wedge
▁therapy
fine
▁clinics
▁CFC
▁10(4)
▁collateral
▁diastolic
▁1.02
0.8
▁hydrocortisone
▁1.6%
▁Dys
kling
tempor
▁yolk
▁intranasal
ulum
ticular
▁preincubation
▁Growth
urones
ilum
▁7%,
▁staurosporine
atment
▁1),
tillation
▁Bacillus
▁hypothe
filtration
▁GM
▁stoichi
odgkin
-1-
▁kinetics
▁preceded
▁Impro
▁1.09
tenance
▁hypotonic
▁substitutions
obl
▁hypoglycemia
▁dete
▁Immuno
mental
▁2.9%
.6
▁polymer
invasive
▁hippocampus
▁mell
.5%
▁ATPase
▁pyram
FSH
▁(36
KD
oplasma
▁anticipated
▁48-
▁reser
▁Scatchard
▁breaths
▁eradic
▁perpendicular
▁mares
▁eosin
▁prostaglandins
▁prone
▁oss
▁proximity
treated
▁ambul
▁questionnai
▁RBC
▁pathologic
▁weighed
▁excluding
▁IMP
IFN
▁syncope
▁symptom
ymethyl
erver
▁alveolar
aminases
phasic
▁reinfor
teroids
jug
▁agonists
▁alkaline
▁isozyme
▁gp
▁lining
▁0.001),
liters
▁remarkably
ensity
omyc
▁gonadotroph
▁lectins
▁hyperins
▁menses
▁cerebrospinal
▁alginate
roxim
▁ascorb
▁surrog
▁ranitidine
▁Twelve
▁sagittal
▁mineralization
▁idiopathic
▁160
▁relapse
▁solely
geons
▁patency
▁(95%
▁lipid
gain
▁1.2-
▁PLA
▁antiserum
ulants
ociated
▁catalyzed
▁BH
▁dex
▁30,
ervated
ocom
usive
▁measurable
Cu
▁motoneurons
▁uterine
▁Ringer
idem
▁backbone
sis
vac
romy
▁electrode
▁monolayers
▁diaphragm
▁moiety
▁introducing
sac
▁choroid
▁dyes
uvant
▁17.7
▁tic
oporotic
traum
hemagglutinin
▁feasible
▁amphib
yrosine
▁excitatory
▁dibutyryl
▁240
rae
ifornia
myc
▁chlorthalidone
▁47
▁MCA
▁replicated
nee
▁100%.
▁terfenadine
▁hematologic
▁intracerebral
▁.01).
igand
▁(10.
▁sulfonyl
▁resection
▁mongrel
▁64
bred
▁Statistically
ytoin
RP
Nor
▁homolog
▁subcutaneous
PAT
9-
▁.001).
oag
▁ionic
hydramine
▁mesoderm
▁platelets
AVP
▁melatonin
▁Enzyme
▁Diabe
▁mesenchyme
▁pts
8]
▁postin
▁0.4
▁thalamic
▁Experiment
▁iat
▁MCV
▁vincristine
▁protects
▁phenomenon
otherapy
orts
▁1.47
anine
▁sulphate
56
▁extensor
▁bacterio
3,
▁steroids
tub
▁lympho
▁31,
▁Topical
chond
▁sphingomyel
pretation
(6
cad
600
▁laparotomy
▁0.2%
▁immunosorbent
trained
linked
▁homocysteine
▁12,
▁MMS
Daw
▁angiographic
▁anesthetics
▁oligonucle
enolpyruvate
tussis
mediated
▁regulate
▁88
tox
ophils
▁shortening
GD
sor
occi
erally
▁1.08
▁psychosis
ectomies
amate
▁drinking
▁demands
▁chorion
▁teratogenicity
neph
coun
54
▁unrelated
▁premenstrual
▁subend
▁microspheres
▁MF
stranded
/10(6)
NMR
▁Neph
trum
radi
▁(50%)
echn
(3)
▁triggering
▁glycoproteins
3)
▁deaminase
▁118
temperature
orbid
feren
▁physici
▁10(9)
▁thyroidectomy
flanking
▁anticholinergic
▁termination
▁endocervical
▁PCO
▁healed
▁aids
▁SG
▁isop
▁superficial
▁neoplasms
HLA
▁endocardial
▁quantif
moid
alities
otoxicity
130
▁CHD
▁objectives
▁cytomegalovirus
▁20%
▁200,
inase
etition
▁copper
▁nal
▁glyburide
Hu
turally
▁Thirty
▁doses
▁deoxy
▁0.16
olones
enyl
hydroxy
3+
▁regimen
inhibitory
110
3.1
▁Sexual
uculline
▁tryp
iflu
lipoxygenase
▁Km
ropriately
tabl
▁neurotrans
oric
▁myo
troduction
▁hypertro
▁comparatively
tine
▁septum
meas
▁vitreous
▁muscarinic
▁285
▁descriptive
monitoring
▁apparatus
▁slows
icardial
▁intraepithelial
▁colorectal
torchid
▁7.7
▁nonresponders
▁plaques
▁competitive
▁facilitated
▁divalent
▁48%
▁danazol
▁231
▁12.5%
leu
▁isoprenaline
▁caudate
▁abnormality
▁262
pyrene
▁discre
▁conduction
▁allergens
-5-
▁pyridoxal
▁adrenal
▁examin
▁xen
▁nephropathy
▁glycos
▁80,
▁Surgery
ocytochemistry
▁monomeric
▁biologically
▁.000
CABG
▁screened
▁yeast
LG
ognitive
▁carcass
ympathetic
▁lacto
▁annually
tolerance
▁approx
▁intravascular
▁neutropenia
▁.05).
▁ovariectomized
▁adminis
omplete
▁plasmids
.4%)
▁187
▁calcified
▁283
0.0
▁BMT
omagnes
▁Chrom
▁successive
▁mite
▁allogeneic
▁transitional
▁phle
▁35
▁adherence
▁probe
▁compartments
▁reflecting
tetric
▁enzymes
▁Gyn
▁sequencing
gestin
Wo
arly
otine
▁hydroly
▁budesonide
▁bFGF
ollagen
transplant
▁dispro
▁adolescents
iminary
▁4.2%
alanine
▁Salmonella
▁heel
▁freed
0)
▁Cd
▁topically
▁cardi
▁bacteri
▁Hind
scopy
ignant
ischem
aterals
/2
▁provoke
▁Ia
▁Tris
▁prevention
▁erythematosus
muc
▁pharmacokine
▁PTCA
omethyl
▁homose
stimulating
▁cistern
▁33%,
▁cardio
-2).
aneously
ophen
▁18-
▁tris
▁heifers
oside
atropium
▁Estimates
▁helix
ypass
▁HTLV
▁quinolones
▁antis
▁choles
▁PMA
atisfaction
▁cremaster
▁46
▁(0.01
▁1000,
▁assis
▁urokinase
▁chickens
▁instruc
▁(89
▁stroma
▁8.0
tiv
▁enlarged
▁axons
tophan
▁airflow
tries
arrhy
oxif
▁admission
ophylline
▁Bam
aceu
▁3.7%
butamol
▁currents
idov
▁uncontrolled
8)
▁0.29
oxan
rowing
▁metr
molar
▁counseling
-2-
ergy
▁unresponsive
convulsive
tract
ocap
▁repeats
▁ppm
▁submandibular
erican
usually
▁confined
▁Protection
hydro
ospor
▁increas
▁Drosophila
onucl
▁arises
edema
▁fluoroquin
▁11,
▁differentiate
▁workplace
▁negatives
lamp
▁Arter
▁Measure
▁(1/
▁prosthe
▁95%.
▁CTL
HV
▁oligonucleotide
▁0.02),
▁RSV
▁duodenum
▁MDR
ositol
▁vanadate
▁resis
transfer
▁forearm
▁perivascular
rophy
hydration
▁lact
▁pyrophosphate
urgical
▁operative
▁hypertensive
▁0.21
▁polyunsaturated
▁uv
▁metic
▁coincident
▁exposure
▁washout
▁scarring
.1
▁enhances
idated
▁oleic
▁pM
▁intraluminal
gestion
rowth
▁ouabain
▁confirms
▁1.3
▁LAK
avir
esicular
▁insulin
osocial
▁Immunobl
▁glucocorticoid
▁meperidine
ratic
▁Except
versity
▁triad
avoid
risk
▁.05)
▁regulatory
▁quantify
▁aromatase
minute
oterol
▁Successful
▁hypers
▁antiv
▁rigor
estradiol
relaxation
prin
▁malformation
▁PEFR
▁prostatitis
▁adjustments
▁cortical
▁1985
▁rheumatoid
athy
▁arthroscopy
gonal
▁alp
▁Bacterial
▁symme
▁donors
40.
xual
▁immuno
▁coli
▁radionuclide
▁92%
reening
vastatin
lix
▁exten
-45
otrypsin
▁leucocytes
▁mAbs
▁providers
▁projections
▁157
▁chimeras
ochemistry
odeoxy
▁ovid
▁promoter
othyronine
▁0.36
Ms
piride
▁hyponatremia
▁echocardiogram
modulin
▁ornithine
otor
ignific
▁albic
▁vasoactive
atching
▁drank
▁pancreatic
▁19
▁affects
osyltransferase
▁cows
IgE
▁osteoclasts
(5
oglut
▁ventricular
9)
antigen
irradi
▁amn
▁regurgitation
▁pathogenetic
atine
▁infection
15
oic
acerb
▁phosphorylase
▁angiotensin
blood
▁Indo
▁pentobarbital
isite
▁1.33
▁manufacture
Rb
▁gangliosides
▁ventricles
▁interp
▁nebulizer
▁lymphoma
▁catab
▁concentrate
▁yiel
▁quantified
▁caloric
▁methyldopa
▁wt
[3
▁ADA
aicin
▁CRP
mitted
▁perme
▁sequentially
▁SLE
rine
▁recommendations
filament
▁hypercap
▁inoculum
▁hyperbil
▁boutons
▁AE
▁rectif
▁pyr
voltage
▁Levels
▁ventilatory
▁GnRH
▁hyperplasia
▁amphotericin
▁DCA
▁Crohn
▁24.3
▁attendant
tabol
farin
▁intracranial
▁metabolized
▁resembles
▁relie
▁athymic
mild
▁membran
istar
▁pectin
▁Significant
ventil
irub
▁encouraging
▁Various
▁Tryp
erated
▁urgent
▁fimbr
▁repor
▁reconstitution
7%)
▁outpatient
▁researchers
▁dosing
BSA
dil
▁starved
pation
▁DAG
obese
genesis
▁1989
hicle
▁71%
322
▁lactulose
lethal
▁occipital
ocomp
▁parac
ploid
▁4;
rosy
▁segmental
alb
yronine
▁oncogene
▁enrolled
▁elderly
iptine
▁pollu
▁methodologies
▁allogra
▁grading
othre
chlorothiazide
▁syndrome
oxy
▁7.8
ranial
▁infec
imentation
▁inhibited
▁cytoplasmic
PCR
▁decreas
▁Caucasian
ifferen
▁ank
▁0.2
ophor
▁perioperative
▁depres
sorb
olus
ximum
▁SEM
▁vibration
▁midazolam
▁cesarean
cholesterol
athione
▁gonadotropin
ashing
bly
▁adjuvant
▁antibodies
▁gestational
ophageal
▁considerably
▁LPL
▁myometr
▁insol
▁analyzing
▁therap
▁56%
▁mannose
phyrin
▁retrie
▁immortal
▁respondents
▁DMBA
▁analogues
trations
▁ventil
prol
ophosphate
▁contribut
tosis
renol
62
▁posti
▁PET
▁pyridoxine
3;
▁venous
PV
▁bronchodilators
crip
▁Improvement
▁hemoglobin
▁respiration
▁Previously
▁leth
▁diazepam
ovine
▁merit
▁mesangial
▁gum
resistant
methionine
gnetic
▁arteriography
▁cage
▁equi
▁1.4-
▁phospholipids
▁Metabol
othane
▁bactericidal
▁infected
▁mild
▁posed
opram
centr
▁glomer
▁crucial
▁amoxicillin
hydrated
oprote
▁insensitive
▁comprehen
▁oxym
▁electrostatic
▁kinin
reed
uronic
▁pore
micrograms
▁abundant
▁sensitized
piration
▁Tes
▁neuronal
▁paras
▁genital
▁arterio
▁nonex
aethyl
▁85
dependently
▁salmon
▁catalyze
kets
▁sulfate
▁Rats
GI
▁primates
rogenase
▁4,
▁asthma
/9
▁massage
terminal
▁titration
▁substituted
▁poten
▁0%
roma
▁32%,
▁estrous
oppler
▁polymerization
▁disadvantage
▁Ninety
▁stimulates
▁ingu
▁proving
ocusing
▁altered
cholic
▁leukotri
▁9.0
peak
▁weekly
▁1975
▁influencing
ulsive
▁2.6
▁68%
ithine
rogen
▁Estim
▁herni
▁chances
▁4
▁irradiated
▁Parkinson
▁neuropath
▁Contr
▁wounds
▁10(-6)
▁LVH
▁Factor
maximum
uation
ocytosis
titudes
opulation
▁bactere
injected
▁DT
▁Higher
chicine
▁threefold
▁addiction
olitis
sibly
▁behavioral
▁reproducibility
▁4.2
obic
▁Nons
▁differing
▁(5.8
▁diacylglycerol
▁toge
▁adenine
bral
aric
▁jejunum
▁endoc
▁disorders
▁exceeded
50),
▁canine
90
▁valves
▁0.7,
▁consultation
9.
▁recurrences
▁progest
▁ascer
depend
tee
▁irradiation
umbens
▁acute
▁hypos
absorption
▁relevance
9%)
▁144
cence
▁ventrolateral
▁GFAP
▁300
▁perfusion
ovarian
▁epithelia
▁cooperativity
agonists
hydraz
rents
▁(24
▁characterizes
▁prospectively
▁immunized
▁cytokines
▁colonoscopy
▁Chronic
8,000
▁-3
▁physic
▁overestimated
▁electrically
▁122
5%).
▁cutoff
▁exerts
isopropyl
artum
fec
HETE
▁enzymic
aminophen
4,000
▁(15%
105
▁proteolytic
▁(90%)
dies
▁collagen
▁286
▁implant
Ep
▁pylori
▁organic
▁libr
▁selen
▁maxillary
▁Pretreatment
▁withdrawal
▁fasci
5).
▁nitroglycerin
gic
▁(4)
▁cyclosporin
▁vaccin
▁cis
▁horseradish
▁beats
▁cimetidine
▁justif
▁emphasize
ofol
ilution
enzym
▁geographic
secreting
▁2.8
27.
oxim
hest
▁3%
▁ovalbumin
▁responsive
seven
▁membrane
▁divergent
▁chick
▁newborns
▁alkylation
entral
▁chest
▁clamp
▁glucagon
▁underg
▁erythrocy
937
aluation
▁newborn
▁EE
▁BAL
-11
▁conjunctivitis
▁GI
ritish
▁spleen
▁FN
▁splenomegaly
▁cros
▁0.05%
▁invasive
igenic
▁BU
127
▁8.8
▁lacked
▁antiarrhythmic
▁ether
EMG
(3
120
▁differs
▁Concentr
Cer
▁constitutive
▁dermatitis
▁cranial
iatum
▁6.4
▁HLA
▁ORF
lyce
thym
▁albuminuria
GSH
iferative
inergic
▁(76%)
▁isolation
▁admissions
▁incubated
▁opioids
loon
-3.
estis
acements
▁enrichment
▁Systolic
▁arterial
▁volunteer
▁spontaneously
yroid
▁VLDL
▁1.40
amethasone
▁turnover
trial
14)
▁chondrocytes
▁(28%)
▁superimposed
zymes
uronium
(+)-
▁Isolated
substituted
▁Intra
▁eryt
▁hypothesized
ipients
▁195
▁stab
▁uve
aerobic
enoid
intensity
TGF
odipine
▁fumarate
lected
▁esophag
▁synthesize
▁dentures
▁hemisphere
-5.
▁2-5
▁truncated
▁synthesized
▁erythro
2-
plantation
tious
▁pertussis
▁cumulative
ovir
hospital
measured
▁(69
bisphosphate
airy
50,
▁1,25-
▁unvaccinated
▁matur
▁173
▁colposcopy
▁AGA
▁seroconverted
▁titr
.2
▁5'-
▁olfactory
▁nucleoside
▁protease
▁10.0
▁36%
▁atherosclerotic
micro
▁alkylating
nour
▁supers
▁unfractionated
▁diagnosed
▁accel
▁RNase
▁disturbing
romal
▁vap
▁PEG
▁abuse
▁Urea
oflurane
▁predominantly
amphetamine
▁lifelong
onegative
▁refr
▁optimizing
▁transplanted
▁159
▁accid
▁215
▁institu
▁valvular
▁endoplasmic
▁diagnosis
▁15-
▁dischar
uminal
faction
▁Abnormalities
psych
opropyl
loro
zot
▁oils
lactams
olem
phadex
▁peripheral
eeding
▁aggression
cortisone
NIDDM
▁132
▁influenzae
abec
▁gm
▁potentiation
▁latent
▁2).
▁angioplasty
▁1.17
loride
siologic
▁eukaryotic
▁drin
▁solvents
▁cerevisiae
▁quail
▁chromaffin
ardipine
chymal
▁(1987)
▁protec
trient
▁carcinogenesis
▁haem
ceptible
▁febrile
titu
apeu
ections
▁lytic
▁antibacterial
▁biological
▁Improved
▁supplement
▁thrombin
10
permine
▁arginine
versal
▁Inde
▁adrenoceptors
▁filamentous
▁Dop
oxazole
ammonium
▁Determin
150
administered
▁Fifteen
quine
mortal
proteins
lux
▁carbohyd
▁fractionation
▁troponin
:1)
tations
▁isozymes
100
▁consumed
▁effector
▁transepithelial
▁Ae
▁Tx
▁cytotox
gene
▁pneumon
▁obtaining
▁lymphokine
termined
spectively
VLDL
tability
▁1.05
pig
▁ascertained
▁blu
▁colectomy
▁rabbit
▁immunological
▁GMP
2.1
tering
▁neoplasia
▁contributes
▁infra
▁balanced
▁cate
▁81%
roprus
▁compromised
▁LR
blind
▁exclusion
▁3.1
▁abstin
▁IFN
educed
▁Subcutaneous
▁survival
▁1.75
lational
compart
atid
adjusted
▁39%
36
▁putative
alate
▁lymphocytes
▁163
ivary
▁10.8
VV
cephal
')2
▁phenylephrine
ducts
▁beverages
uplex
▁tumours
▁1-
▁panels
rosophila
▁7.2
▁0.005).
▁121
▁expulsion
▁encompass
▁phasic
atally
▁hydroxylase
esting
▁plexus
▁crystal
xate
▁8%,
▁anatomy
▁Pneum
▁fungus
▁chlamydia
.7%)
▁(71%)
▁complaints
▁compound
ivered
limb
▁acceptor
pectively
▁22)
▁150-
▁3,
▁therapists
15)
itoring
atonin
▁retrospectively
▁0.02
Vi
▁ribosomes
▁viruses
▁spherical
▁irritant
▁microvascular
▁severely
turing
▁cues
▁metabolically
ardias
▁Surve
▁diarrh
WL
▁stains
▁agon
onatal
▁thymic
▁restrictive
uary
▁vagal
-65
▁0.01
▁167
▁65%,
2]
vular
▁negligible
tention
▁reconstituted
▁resemb
▁mononuclear
▁cochle
▁cris
▁99%
▁relaxing
▁experi
▁6.5%
ameth
▁evolved
▁HRP
▁purine
astine
▁immunos
iph
amole
0%.
▁spinal
▁nonp
▁kappa
1/2
▁cardioplegic
▁astrocy
▁exudation
▁triflu
▁deformities
▁inh
▁evacuation
▁Lung
▁kinase
▁somn
▁parasite
▁antichol
benz
▁lobes
▁uremic
himb
▁Sprague
▁motivation
▁0.74
▁bronchodil
▁denti
▁263
▁buffered
shaped
otre
▁ducts
▁quisqu
rox
▁chloroplast
▁competitively
erable
mercap
respectively
▁tightly
▁excitability
atases
depleted
▁Fluc
those
▁climb
▁digestibility
▁apex
PHA
▁steroidogenic
▁discs
▁MIC
▁provoked
grown
▁necrotic
▁0.11
▁avid
others
-8
atical
▁0.
▁Myc
▁intraven
▁HA
▁rigid
▁infertile
▁162
▁protr
cAMP
osin
▁115
Leu
▁alkali
▁16,
▁24%,
▁therapeutic
▁neuropathy
oglyc
▁treating
▁predominance
▁biopsy
▁unrel
▁initiation
▁restraint
▁activators
tole
▁amiodarone
▁spanning
▁microscopic
▁strepto
▁135
▁spanned
▁morbid
▁myel
▁dilution
-5)
etaz
51
DG
▁Mg
duction
▁gag
▁nicotine
▁subarachnoid
▁migrating
5/
▁(25%
▁vege
tivities
ecretory
▁sequelae
pharyngeal
▁69
▁fluconazole
▁diagnosing
▁pyl
drug
lymph
amphenicol
iceptive
▁124
▁pretreatment
▁malaise
▁GDP
▁laparoscopy
-125
sparing
▁Nutrition
▁sial
ethanol
▁13.3
stim
guing
▁repl
iters
▁strikingly
▁adhesion
▁2.4
agittal
sul
▁4.0,
▁sensitivities
▁inges
▁chow
▁standardi
▁findings
orin
▁abolished
▁Raynaud
▁phosphatidyl
▁thromboembolism
iteal
▁perikarya
▁bonding
▁catechol
thrombotic
anol
brom
▁cessation
4/
▁enl
phage
▁corp
▁Cul
▁tended
iology
▁+/-
astric
tradiol
▁enalapril
-1.
uran
▁20%.
▁2000
▁duoden
▁malabsorption
tection
▁1.44
glutinin
irone
helical
▁54%
▁equimolar
▁radiolabeled
iciencies
ective
▁Reas
12.
▁PW
▁chyl
▁(1)
▁clarithromycin
effectiveness
▁900
ographs
exin
▁(25
▁stres
▁70%
detection
▁progressively
▁formulations
▁employing
exy
▁Milk
odopa
▁fenoterol
▁295
▁Purkinje
▁PCP
selec
▁3).
▁dehydration
uding
▁epid
▁Weight
otomy
▁13%
▁vitro
▁ploidy
elec
▁edema
▁chec
osome
Trp
▁divergence
inephrine
▁Hig
rotein
▁DMA
▁tendons
vents
▁oscillations
ximal
acetyl
approximately
tead
▁cytotoxic
▁polyacrylamide
▁hepatotoxic
▁acco
ervical
▁immunocompetent
▁prono
-79
▁DMP
▁transduction
▁tetrap
▁ozone
tensives
▁hepatotoxicity
entia
cristine
▁nutritive
olp
▁reapp
▁21.2
▁6%,
▁pren
Ps
▁15
positives
18,
▁adenylyl
inducing
▁adoption
opa
▁exudates
referred
▁GAD
▁niacin
▁epididym
▁insemin
▁antipsych
1).
▁128
acti
▁25
▁scaven
▁establ
▁Hepatic
imeth
▁1979
glucuronidase
▁subscapular
▁bronch
▁lithium
sia
opathy
tening
ylcholine
whe
▁refractory
tryptamine
▁Continu
▁palm
74
ortical
▁corticosterone
▁Sertoli
▁intoxication
9,
▁perfor
▁insertion
▁endo
▁ultim
▁MHC
crystall
▁superc
hyd
reacted
Thr
▁rho
ogonad
▁viability
▁poses
▁NF
adiol
▁chewing
▁TCDD
▁2%.
opressin
▁mitogens
▁(41%)
▁Registry
▁progn
▁22%
▁organelles
▁primers
▁VE
urther
ressed
▁coeff
▁HR
▁Assessment
▁encephalopathy
▁anaesthesia
▁constituent
▁hepatic
▁expenditure
trition
▁anoxic
▁0.23
▁sonographic
▁perox
▁Pn
cture
101
leuk
ysm
▁Kinetic
▁dihydropyridine
▁lifestyle
arose
▁protons
adication
▁NP
▁resembled
▁suprac
▁midw
biased
carbon
▁enzymatically
deficient
▁sting
▁descrip
▁pediatric
▁adequate
▁veins
▁impedance
▁18.
oride
▁locomotion
▁diarrhea
▁(15
lasts
▁plotting
▁glomerular
▁hypophys
▁consistently
▁uter
▁visualized
▁staging
▁renal
▁adrenoceptor
▁weigh
▁refined
ophilic
terol
7),
▁fatigue
tension
▁adriamycin
▁trach
▁norfloxacin
opyr
▁Hodgkin
▁detox
trover
monary
▁juice
▁proteinuria
▁modeling
disc
itrate
▁bursts
▁supplemented
▁paroxysmal
▁vena
▁(30
epine
ovirus
19.
crimin
▁pigmented
▁expend
▁clues
▁VAS
▁Amin
maleimide
▁(9%)
▁aminoglyc
▁800
criptions
▁practition
uppres
▁foci
▁passages
centered
▁oxidase
▁51
▁atmosp
▁clonal
▁specimens
▁prevalence
▁interferon
▁Mini
cytes
▁ergometer
▁behaved
▁COS
▁pant
37
opsy
6,
▁chains
▁offspring
▁enamel
▁streptococci
▁mmHg
acts
▁unbiased
▁stresses
parous
hir
▁discontinuous
▁0.97
▁adulthood
1-4
▁spas
▁augmentation
▁0.7%
transformed
phospho
oustic
▁Fourteen
▁densities
▁Entero
▁examining
▁preoperative
▁antiviral
▁proteinases
▁carp
▁GER
▁catheters
▁commercially
▁chlorpromazine
▁perc
▁accumulate
▁advised
▁imaged
▁lamina
▁angi
atation
▁cytos
2.2
▁1).
independent
▁overex
▁(0.0
▁Complications
▁sphincter
▁3.6
▁(86%)
▁statistic
▁ChAT
▁supernatants
▁sedative
▁CU
standardized
▁brainstem
▁antithrombotic
929
ronchial
▁indus
▁contraction
tics
urium
▁synovial
wes
▁16-
▁(75%
▁Effects
ications
roup
▁2.4%
osteroid
▁radiolab
▁progestogen
arying
▁Enterobacter
▁intolerance
▁neuros
▁priming
▁PRL
▁0.88
▁(79
ronch
ditional
▁26
▁tobacco
orh
inum
▁prosthesis
aptic
▁synergistic
▁catalase
istribution
▁(67%)
acental
prising
tectable
abies
▁randomization
▁centr
▁Criteria
▁isometric
▁modulated
▁washed
GTP
▁homozygous
▁neutralized
0.9
chemical
taining
▁Experiments
▁myocytes
▁anemia
▁microorganism
▁mM
▁haloperidol
▁sugges
▁isoelectric
▁anemic
▁sutures
▁Fc
▁emerged
▁anticonvulsant
▁dysp
▁transfusion
▁cytochrome
46
▁5%.
▁pestic
▁venom
▁cep
mTc
dihydroxyvitamin
▁itching
▁luminal
▁bicarbonate
ulinemia
▁collagenase
▁motifs
▁hypothalamic
▁155
▁ovaries
▁triam
sych
▁ethical
4,
HPLC
▁atypical
▁evid
▁desaturation
responsive
▁foetal
▁amylase
▁Groups
▁mandi
▁unid
olac
▁heal
aldosterone
▁epithelium
▁gonorrh
▁theophylline
▁silica
▁struc
tolerated
trogen
▁epic
▁Medicare
▁apprec
MN
13-
▁neuraminidase
ropath
idis
feron
incip
▁endoscopically
ometri
▁LF
azepine
ipit
▁selective
▁meaningful
▁Extr
▁Inhib
▁thromboembolic
iprofloxacin
▁corpora
▁gastro
▁mosaic
▁drinks
▁resear
cretion
▁glycer
▁surround
▁303
vitro
12),
olates
ussion
▁regulated
▁interstitial
lysine
▁muM
▁95%
▁leuk
8,
▁Meth
▁1,25(
cB
▁endothelium
CRF
▁Ure
ervations
▁endarterectomy
▁ECGs
▁vasodilator
stant
▁autoantibodies
▁intramuscular
▁resembling
▁embryo
▁chlorhexidine
aginal
lobulin
oblas
▁abrogated
▁predictive
▁(76
▁myelin
▁antitumor
▁electr
▁microliters
▁sequential
oxin
sue
▁obstructive
▁circulation
plasty
▁0.05
▁(5
▁recurrence
▁decreases
▁predicting
▁exercises
▁64%
ials
▁Interestingly
▁20-
▁immobilized
ycline
▁exacerb
CDC
▁cardioselective
▁(1.1
▁withdrew
▁synaptic
thanol
pain
essation
▁prostatic
mia
iated
68
▁unc
▁enlargement
▁abundance
▁glu
▁unrecognized
▁hyperthermia
▁1.03
▁injec
▁ventromedial
tively
▁usefulness
▁investigated
▁necrotizing
imolar
▁promp
▁31
oretic
▁(1,
50).
▁1.25
▁ERP
38
sulf
▁lacks
▁ANF
▁DHEA
▁persistence
▁homogeneous
rophob
▁regulator
▁contractions
▁1.6
▁225
▁morb
ubicin
▁KCl
▁ultrastruc
▁colitis
4%
ergic
▁iod
%),
▁dendritic
▁infarc
-10.
▁CAT
tilage
▁secretagogues
rophic
averine
▁sexes
▁accompanying
duced
▁erythroid
▁lob
pA
▁chymotrypsin
twitch
▁prevalences
▁histones
▁5).
▁osteoporotic
▁-0.7
▁tubes
tate
▁miconazole
perfusion
benzo
ponential
proliferative
▁bladder
amyl
osteroids
onorgestrel
▁myocardi
▁celiac
myristate
▁68
▁concomitantly
▁angiogram
▁91
▁outbreak
▁pHi
tochemistry
▁Ade
isol
▁21.
▁denervation
66
▁esophagus
▁tenderness
▁Infants
▁phleb
▁infused
uterine
▁hydrophob
aminidase
▁adduct
Ga
▁guanidine
▁telephone
leucine
▁InsP
flammatory
▁splice
ocytoma
▁Brain
endorphin
menopausal
▁23
tisone
▁30.
▁receptors
rein
▁Eighteen
▁metronidazole
oligo
▁52
▁antagonist
cystic
▁injecting
▁preval
▁psoriatic
10),
▁preoptic
▁solubility
▁seminal
medicated
units
▁deposits
▁interacts
▁0.10
▁mutans
transferases
▁denatured
▁palmitate
uris
▁deterior
3-
▁Addition
▁4).
wann
▁MoAb
▁nasal
mortality
▁myotub
103
▁elevate
▁NIH
1)
▁sialic
▁generations
▁bottle
PAGE
▁exerted
▁HSV
▁snoring
▁Graves
▁AML
▁parap
▁IgE
opril
adrenal
cortic
itro
PKC
clamp
▁urodynamic
HF
opharm
▁(21
lymer
▁outcomes
reated
▁mutations
▁cruz
▁depended
▁homogeneity
truc
▁DHT
▁ocul
▁smo
▁cerebrovascular
atest
▁erosion
idespread
▁focal
determined
▁6.2
▁alloster
▁61%
▁eti
ighteen
aminergic
tetradecanoyl
▁Measurement
calmodulin
▁antioxid
▁atri
▁pulp
▁(13
orax
kground
ministration
ialysis
▁iden
▁46,
urine
▁paralleled
-5
▁transaminase
▁zoster
▁formulation
▁350
erative
rement
▁practically
▁residue
▁mobility
▁0.9%
heat
▁ovulation
▁carbonyl
▁puber
▁trimester
▁PFC
▁spikes
opres
▁qualitative
rays
▁musc
▁cancers
▁indicators
DV
▁Relative
▁cann
roscop
birth
-400
eptidase
▁Biochemical
carotene
death
Lac
ampl
▁meningococcal
▁TRH
▁envelope
▁efferent
▁4.6%
0.5
▁vertigo
▁perturbation
ogold
▁Incubation
phoresis
▁catalytic
tumor
▁ventilation
▁achie
▁dyspnea
▁conditioning
uctose
ilep
▁medulla
▁colleagues
clinical
gol
tran
trodotoxin
▁facilitates
▁virul
surgery
arginine
▁alprazolam
▁surgeon
encephalic
agic
▁blunted
ediatric
eal
▁overweight
anding
▁consequent
▁Staphylococcus
otypic
▁urine
▁potencies
▁neurites
HIAA
▁allyl
orac
▁trauma
▁aerosol
▁Cardi
▁mixtures
advan
▁ovari
▁plaque
▁antide
▁incompletely
▁cyc
▁abrog
▁syndromes
▁hairy
▁anaesthetized
▁pulsatile
▁Oste
▁babo
▁carcinogen
▁eosinophil
clin
▁75%
▁vasoconstrictor
▁measuring
▁ionized
▁clomiphene
▁panic
retro
aning
▁nude
▁preparations
▁cotrans
▁facilitate
▁sensitization
▁IBS
:4
-7-
▁neurokinin
▁75%,
▁Hep
ipitation
WK
▁deposition
▁emptying
▁somat
▁ethn
pendicular
▁carboxy
▁TPA
▁biopsies
▁Sixty
▁arteri
▁calves
▁FEV
▁14-
▁inactiv
▁thyroxine
jun
supplemented
osynthe
▁guanosine
rehen
▁intractable
▁imipramine
▁sulph
helin
▁hrs
▁adsorbed
▁25-
▁prodrug
uronal
▁untranslated
▁discrimination
▁9.2
▁lipids
▁differentiating
▁inverted
ithromycin
▁RT
▁5.6%
tetra
▁cardiople
dT
▁(18
omyosin
dip
91
▁hyperplastic
lebrand
▁knees
azosin
▁diurnal
▁neoplastic
tyrosine
usate
▁PV
10,
retin
▁Beta
▁NIDDM
▁contracted
▁antibody
▁Cardiovascular
▁152
tocop
▁virtu
otoxic
▁92
dine
▁prostheses
visc
rease
▁viscer
▁chloride
piratory
asses
▁aberrations
▁sinusoidal
▁sedentary
▁colony
▁Formal
▁diluted
▁complexes
▁Stimulation
CDD
acted
▁Effec
othionein
▁adenocarcinomas
▁spati
astatin
tib
brain
▁outs
▁Highly
▁basolateral
bile
▁disturbed
▁nasopharyngeal
▁EST
▁MK
▁26%
▁kidney
▁internists
▁86%
▁emphasis
▁survive
▁1991
ondyl
thel
soluble
▁antagonism
hydroxylase
▁awareness
▁modulating
▁permeation
titute
▁myocardium
▁arb
amethyl
▁phy
itness
-2.2
ploy
▁amines
cardiac
stained
▁pancreas
ulmonary
▁hemochromatosis
astatic
welling
▁graded
▁feline
timum
▁suppressive
50/
▁EGF
▁22%,
▁pooling
keratin
▁asial
naph
▁IUD
▁transgenic
fted
tiveness
▁polymerase
▁suppresses
tron
▁confounding
▁chicks
▁0.2,
▁29,
anthine
67
▁abrup
▁regurg
nucleotide
▁saturation
▁3-5
▁unde
▁bacteremia
roxetine
▁concomitant
tant
dipine
▁absorbance
esides
▁blasts
▁1982
▁131
▁splicing
▁asbest
cinolone
▁Rb
▁SCH
▁96
▁conclu
ithin
▁insufficient
tracellular
antagonist
▁292
myr
▁mV
▁poorly
▁Significantly
▁pubertal
10.
▁cycloheximide
▁meiotic
▁rated
▁2.6%
▁phos
▁electromy
ressing
▁clonidine
iasis
▁intermediates
▁dihydro
NM
helium
muscle
▁chromat
▁addic
▁mucosal
distal
▁availability
▁ubiquitin
iably
toli
erating
▁procollagen
▁TcR
▁iodo
▁predominant
▁moderately
ethylmaleimide
▁dietary
▁13.
▁Mortality
24,
ostomy
▁progres
▁urinary
▁glaucoma
hort
ochondr
▁bism
▁fibers
kine
acetic
▁HC
▁rotavirus
43
▁immunogenicity
▁pepsin
▁elongated
▁252
▁titrated
triglycer
▁unin
blocking
▁motone
oconstriction
▁Laboratory
.8
SHR
.5,
▁slowing
▁Concentrations
▁incremental
▁abdomen
cessively
motic
▁autopsy
▁0.03).
▁curative
ecyl
oproterenol
▁Conversely
aints
hydroxyd
▁strokes
▁ECM
▁axial
lasting
700
lymphocytes
amylase
▁astro
▁Included
atinine
▁bradycardia
▁bradykinin
▁bile
▁65%
rocy
▁proteinase
▁gon
▁rectal
25)
▁decreased
▁inactivated
butyl
▁ophthalm
▁burden
▁1,25-(
ctomy
▁molecular
▁osm
▁liposomes
PMN
utyric
▁operon
▁clinicians
onates
▁OB
▁metall
▁Chang
gp
▁haemorrhage
▁VA
arrhythmic
mandibular
▁correspondingly
▁epidermal
▁nonlinear
urement
▁Elec
▁WHO
tential
opharynx
uppression
▁bip
▁pellet
matched
▁mitomycin
▁enhancing
uble
osity
▁18.3
thyl
▁distin
▁electrophoretic
▁proteolysis
▁alteration
▁PDGF
▁hap
▁lymphoid
▁PKC
▁inpatients
▁10,000
-2)
▁evolutionary
▁synthesis
▁IIb
▁eliminating
▁inorganic
▁8.9
acetamide
▁Comparative
▁illness
▁placental
▁VIP
▁(10(-7)
ostr
▁MAO
ystolic
▁pretest
histamine
achid
▁glioma
orbol
gA
-8)
LV
▁tricuspid
oconstric
▁elevation
▁transpor
▁OC
▁AChE
63
▁pulsed
30,
▁hypothal
▁MAb
osan
▁ocular
asions
▁vasoconstric
▁fluc
▁SCLC
▁conservatively
▁7.9
▁reductions
▁administer
(1
▁streptoc
andros
terin
▁UT
▁134
▁hexamethonium
▁incorporated
▁resonances
▁hetero
▁tibial
▁transplant
oposide
▁sensation
▁therapies
emide
umbar
oice
40)
▁enkephalin
ascular
blockers
▁brains
▁AKR
▁endocrin
▁favourable
molec
5%),
▁tension
▁vertebrate
▁pneumonia
▁phag
-1
ariate
▁contralateral
▁GAP
ancreatic
▁phospholipase
▁diphen
orphine
▁ductus
▁6)
▁103
▁1%.
▁hospitals
▁fmol
▁falciparum
8.
haled
▁dys
▁galanin
▁histologically
phosphonates
▁pmol
▁subtilis
eruleus
▁hypoxemia
0.
yx
▁histopathologic
▁mitig
▁estrus
▁alanine
▁pacemak
▁(1:
▁1500
tipation
▁anat
▁splen
▁conducting
▁exercising
embrane
▁supplementation
vices
ocl
sufficient
▁isch
▁gingiv
carb
▁practiced
▁40,000
hemolytic
▁Vmax
▁referral
▁cyclospor
ulline
▁weakened
6),
tinguishable
▁TMP
▁cysteine
▁0.67
▁sclero
▁causative
▁physiologically
▁reporter
▁oste
▁ket
▁superficially
phor
regn
1.1
3-2
posterior
apular
olute
▁atrophy
▁quantitatively
▁1.4
-36
▁ectopic
▁ars
▁CsA
▁(%
arbonate
atories
▁defective
dC
▁mucin
▁mobilization
▁insuff
▁follicles
▁obese
▁deferens
/5
▁concentrated
▁hipp
aired
▁hematocrit
▁stimulant
▁fiber
▁osteoarthritis
▁precursor
▁noradrenaline
▁evaluations
▁thalamus
posing
nine
▁grain
▁monophosphate
▁pulmon
▁1200
▁captopril
▁96%
▁139
▁unre
▁thirds
▁Infection
▁amplitudes
weigh
▁(75%)
mentation
dihydro
▁POMC
▁1.42
▁infiltrate
▁Cutaneous
▁direc
▁nodular
▁extensively
4'-
▁compartment
▁encephal
▁heteroz
▁Simult
PMA
▁(46
lod
▁alterations
▁BK
▁phosphoryl
ologically
evoked
▁hydroxyproline
uodenal
▁0.63
▁phospholipid
oate
▁mucus
▁DMSO
▁diaz
toxic
▁lis
▁(72%)
ietin
▁inhibitor
herence
▁virulence
FEV
oprotein
elvic
▁labial
tensity
▁glycolytic
▁Nineteen
indole
▁aorta
▁fossa
9]
▁contaminated
▁myopathy
kle
iosis
ominant
▁hydrox
▁examination
▁contributing
▁ribs
▁colonization
▁cytolytic
▁persists
▁mucosa
olymer
▁arous
▁ultrasonic
▁accumbens
▁arti
▁mycobacter
▁cDNAs
▁RNAs
▁343
xia
▁Positive
▁aspart
roxen
▁nonsur
chest
▁microelectro
▁encour
▁fluorescence
▁antagonized
▁resec
uating
▁infusion
▁suicide
▁regeneration
▁fistula
borne
▁Dose
▁hind
▁temperatures
▁expiratory
▁hygi
▁spirometry
▁fibrillation
▁absorpti
▁intestine
▁DP
tured
▁rIL
▁49%
▁mammary
▁Hz
▁microsomal
enopus
▁distinctly
orrh
▁clindamycin
ralfate
▁Increasing
▁hypokal
ANF
▁programmed
▁ferric
▁albicans
▁cellular
▁epidural
ineal
▁Throm
▁anesthesia
▁paradigm
ohns
etent
▁Modified
tam
inemia
▁transferase
▁nonprotein
▁washing
▁Lyt
▁SMC
▁15.
12,
renzepine
▁nurse
1210
otides
▁sediment
▁depressive
▁metabolism
▁tachy
cnemius
▁plac
bloc
ponin
ASA
▁tidal
50
-1.8
▁desatur
rotal
kage
▁transi
tak
▁cytologic
▁aerob
uclear
▁microv
▁nitrofur
silon
▁tectum
▁abolish
▁adoles
▁185
vertent
▁differentiated
PB
▁hydroph
▁20.5
▁bacteriuria
▁discharged
▁transit
▁raises
▁10(
▁LTD
▁dysplasia
▁dimeric
▁BF
01
▁lumbosacral
▁3.5,
fos
dyle
▁8.
▁macrom
reased
otherap
controlled
▁signaling
tails
entricular
▁antipsychotic
iciency
▁injur
opathic
▁Disease
▁Impair
▁interestingly
▁000
▁PDE
▁1.31
▁hypokalemia
presenting
▁pA
▁sensi
▁17.
▁sheath
uron
▁pyrimidine
▁calmodulin
▁MHz
▁adop
pran
▁6.6%
▁adenomas
▁sucrose
ogran
ollen
hormonal
▁50-
▁correlations
▁ml
5'-
induc
▁Clin
▁(22
NSAID
dialysis
▁hyperlipidemia
▁(58%)
riton
▁shedding
▁neuroendocrine
ulae
▁(1.6
▁methyl
▁painful
▁syncy
▁degran
IgG
fts
▁bp
ecu
▁10%
▁-4
▁pineal
▁ventricul
▁preventing
hion
▁mL
▁doubled
reast
atitis
▁cac
thle
▁lamellar
pyruvate
▁223
▁infections
▁11.
▁tachyc
▁escalating
-(3-
▁Chemical
▁breakdown
ficially
▁testosterone
▁menstruation
▁milder
ordination
ilibrium
▁diltiazem
aryotic
▁transcribed
alasin
▁esophagitis
▁PGF
glucosamine
17,
nai
▁minority
isolated
adex
ixation
▁physi
▁disulf
▁0.47
ubular
▁creatine
▁supportive
gag
subunits
▁hemolysis
▁phospholip
terase
▁inhibition
1-1
formin
▁taurine
▁proliferate
▁endpoints
etus
▁pancre
▁(56
▁10(5)
▁inapp
tinguish
infected
▁placenta
▁coated
▁atrium
▁cyclic
▁39
albumin
▁(27
▁Seventy
▁(3),
amisole
▁occlusions
▁dimethyl
▁UTI
▁25%
tropine
▁tachycardia
enolone
12
▁0.38
▁ribosomal
▁sharply
reness
▁brachial
asic
0.3
obenz
8%
▁237
▁galact
▁complic
▁([3
tisol
▁8.5,
▁DH
induced
EGF
▁gingival
▁dialysis
▁individualized
enon
▁omeprazole
▁secreting
▁intub
▁Kup
▁propensity
MIC
▁Bronch
▁examined
hemo
▁cys
▁primiparous
▁metastasis
▁structurally
moderate
▁Fib
▁degrad
▁internalized
heximide
phine
redoxin
▁Acet
-2,
▁overestim
▁medically
▁sedimentation
▁vegetable
0),
▁HCO
oproteins
yrin
enkephalin
Ox
phragm
RNA
▁supernat
▁poli
▁cascade
edocromil
perg
▁aspec
▁elong
-1.4
▁ethyl
▁precipit
▁nef
▁Sepharose
gesia
eces
▁83%,
▁mucos
▁indeterminate
diabe
ikary
▁participant
ystag
▁crosso
▁catecholamine
tency
▁outward
▁bull
▁Pros
▁116
▁1.29
▁mec
▁fluorescent
▁abortive
▁mefloquine
▁trabec
▁suppos
▁mildly
▁attenuate
acking
atectomy
▁.001)
▁TB
▁Lact
▁27%,
19
▁22.
loidy
cellulose
▁shocks
▁immunoprecipit
trophin
▁villus
▁(10%),
sants
▁Patient
trimester
▁certainty
▁appendic
▁semiqu
▁discontinu
▁attenu
BM
▁(+/-
▁47%,
▁slic
▁ambulation
▁ammon
▁reconstruction
ystatin
LDL
▁-1
allik
▁1964
▁diabe
▁ey
▁Haem
▁facet
▁renovascular
▁seated
icient
ervoir
▁RPE
▁aqueous
▁1-4
▁incub
▁neurologic
▁acids
idate
iphene
trac
▁Oxygen
▁interviewed
▁8,
▁nipple
▁encodes
▁stellate
▁capsules
▁sperm
▁imaging
▁euthyroid
▁151
▁ethylene
▁retur
▁neurob
oplas
▁saturating
april
hyp
unctiv
▁thyro
▁lysosomes
▁undergone
icide
▁distinctive
▁(72
ncies
esthe
▁hemorrhages
▁respir
ameters
hans
▁immunoglobulin
.4%
entary
▁Phosphor
▁amph
▁37%
80)
orporation
nitros
▁digestion
▁spor
▁anaesthe
▁clot
▁mutagenicity
salt
▁extrav
IDDM
▁deuter
▁anticoag
▁hemorrh
▁correlating
1;
rolase
PRL
▁intervention
uginosa
▁necrop
imide
ophila
▁counterpart
▁40
conjugated
▁25,
▁Monoclonal
▁detergents
sulfamethoxazole
▁fertile
▁consecu
▁Cells
▁BW
incub
▁diuresis
▁Lymph
▁500,
▁symptoms
▁87
▁cefixime
▁cyst
▁unselected
Ala
"-
▁gemfibrozil
erad
4,5-
lowering
▁bromocriptine
iological
vaccination
▁PaO
tration
ucas
ganglionic
globulin
▁computerized
▁fibr
vivors
▁remed
terious
sodium
▁efflux
ospitals
20
epiandrosterone
tice
▁relieve
▁nip
▁subcl
radiation
-3.0
▁0.005)
▁methanol
▁labelling
▁Mice
▁39,
▁haemodynamic
olarization
▁guinea
pinephrine
opeptidase
▁diagnose
▁capillary
▁produc
▁exogenously
▁evoked
▁administered
heum
opi
▁sati
▁excision
emory
-2.0
sibility
tivated
uled
▁cigarette
▁Platelet
▁pectoris
▁neutrophils
▁intimal
▁106
▁longitudinal
▁evaluates
▁methodologic
resid
mitters
yrene
▁stripping
▁aneurys
▁BSA
▁gastric
▁hourly
▁HER
▁valerate
▁awa
oglutarate
▁recruited
bic
▁attain
osylation
1]
▁557
▁amput
▁conformations
▁undergo
▁228
uncture
▁upright
▁contex
▁bilayer
▁catheterization
▁hemodialysis
4.
▁rectum
promazine
▁radioligand
▁originated
▁0.86
▁adverse
▁enanti
/6
▁ero
▁acutely
▁poisoning
ocor
hers
▁0.48
ylcholinesterase
▁activator
▁dramatic
omies
thymic
▁instrumented
▁exclusively
oil
▁septic
▁salivary
▁hyperglycemia
▁crystall
▁hypothalamus
▁myof
iatr
15.
▁enriched
▁(0.
▁mice
▁201
▁radiologic
rogenesis
▁abrupt
veolar
onazole
▁MgCl
thromb
▁intras
imidine
▁histochemistry
Kyoto
▁neo
udation
▁mutagen
sions
▁8.4
▁radiograph
▁appendicitis
▁17.8
amination
PTH
▁80-
divid
imens
ctive
▁connec
▁complementation
▁microM
▁Transi
▁etiologies
▁rhe
▁varicos
▁RI
▁spont
▁suppressor
▁institutional
▁rupture
keto
▁8.3
▁drops
osite
▁0.58
▁ecological
gran
▁5),
▁(2-
exis
▁jaundice
mg
▁Plate
▁Evaluation
olet
▁cornea
▁exacerbations
▁malign
▁surveys
1-
▁illnesses
hiscence
phosphatase
▁isoform
▁motility
▁asbestos
)],
▁10
▁psittac
driven
▁Tests
▁forskolin
▁mathem
urosporine
1%
reducing
idne
▁rhinitis
▁(300
araldehyde
▁(150
trip
▁aspirin
▁lymphocyt
RM
▁irr
tase
▁suspensions
▁acr
▁puls
aund
▁murine
hemical
▁aluminum
▁coag
▁rodent
▁dehydrogenase
folate
▁symptomatology
ulin
▁analyzed
▁Biophys
▁condens
renic
▁psycho
▁nitrous
▁grades
▁67
▁normals
▁pati
▁hypon
▁pump
▁mediates
▁FcR
ults
oprim
▁detachment
▁incubations
rachial
8;
▁Hb
▁ensuring
▁pretreated
▁arousal
phosphon
fortable
ensory
▁3',5'-
cells
erox
▁behaviors
▁antibiotic
diabetic
▁achieving
roth
ellar
▁satisfactory
▁peaked
▁(2.6
▁resemble
▁guanine
drome
teral
stole
▁Leu
piper
oxic
pled
▁similarities
▁thickening
▁Asi
▁varies
ozo
pinal
▁digested
androsterone
▁ligand
▁preexisting
▁athe
▁(44
▁employment
▁allergenic
▁attrac
▁postischemic
30-
▁linkage
▁epidemiological
▁phosphorylated
▁urtic
irectional
▁ofloxacin
respon
.1,
▁hypothesize
▁VO
▁peptic
▁agglutin
▁pharmacodynamic
-20
▁plex
entanyl
.5.
▁rota
▁17.1
▁oxidation
kade
▁HIV
eptide
▁unequ
▁instr
-0.0
threatening
▁bronchoconstric
▁repertoire
▁Notably
▁cyclooxygenase
▁favorable
▁tiss
▁shaft
▁activate
▁occluded
thirds
athered
ergenic
utyryl
▁microm
5%)
▁serology
mol
▁scanning
▁inclusions
▁pooled
▁0.76
▁tracers
▁Average
▁amplification
▁0.05).
ydig
aternal
▁selec
▁ADR
▁sputum
▁damaged
▁Recombin
fication
▁hemag
▁minocycline
▁multim
onical
ocrom
▁80.
▁CCl
▁myotubes
▁exchan
▁postnatally
posal
reduced
-28
exercise
▁neuropeptide
▁Antibody
▁24)
-14
ectomized
▁calcium
urane
▁10(-10)
▁psychopathology
▁androgen
ATPase
▁goiter
▁excluded
▁Mild
▁stret
oxal
▁erythemat
▁36
▁adaptive
▁cystein
perfused
floxacin
▁clom
porting
▁(4%)
▁AMA
▁projec
▁vasodilatation
▁0.1
vae
▁316
▁ratios
adrenergic
sepithelial
rested
▁suicidal
▁experimentally
▁weakly
▁4.9%
inating
▁0.84
▁chronically
inj
(2
▁skull
▁bacterial
▁electrolyte
▁dyspepsia
▁tas
▁triglycer
BG
▁ulceration
▁attenuating
▁4.4
▁parat
▁plasma
▁mitral
▁patent
▁tandem
nitroso
amine
Mu
▁modulate
▁CDDP
dose
omated
1),
▁revascular
thma
▁supplements
▁freshly
educ
▁questionnaire
▁controversy
▁32
▁interleukin
▁branching
diagnosis
▁(5%
ohnson
▁Calcium
iol
mented
▁acet
▁endothelin
94
▁pentoxifylline
plas
▁urethral
▁spots
himbine
ophil
▁leukocyte
polar
quinone
romycin
▁precordial
PAP
ethoxy
▁0.25%
2,000
purified
▁neutrop
▁iris
enoic
▁anions
▁grains
▁5.5
▁drinkers
▁156
▁Adult
osid
lycero
▁221
▁(500
▁shortened
▁UDP
▁10(7)
ampicillin
malignant
▁olive
▁granulocytes
▁dividing
▁Changes
imetric
resist
▁biology
/20
▁uncomplicated
▁SRIF
▁bim
▁kidneys
▁teratogenic
▁.00
▁243
▁displacement
tribution
▁pigs
▁immunostaining
▁LS
▁sarcoidosis
▁17%
ophy
▁palmit
leuc
▁(63%)
glycero
kilobase
ludes
cancer
ardia
▁transloc
95%
trating
altered
▁killer
▁5.
ubertal
uestionnaire
▁intox
▁ultra
▁(4
▁(6
▁69%
▁Functional
▁constric
-198
ophysiological
▁sarcomas
inyl
▁sequestration
.0,
▁nodules
myocardial
oresis
▁eating
umptive
▁bicuculline
rength
kines
▁optic
▁breasts
ugular
enedi
uretic
▁Removal
▁pharyng
uitable
▁recalled
▁Caps
olgi
▁retested
titude
▁glands
▁discus
firmed
▁gonorrhea
▁modeled
vate
▁adiposity
▁enti
▁chloramphenicol
▁induc
oglobin
▁180
sistent
riched
glycine
▁notably
▁ligament
▁radiologists
40
disciplinary
ronectin
▁Intr
▁narrowing
▁DTH
-4-
▁4.0
▁rIFN
▁ances
0,
imus
▁irrig
idazole
▁serologic
opath
▁ovarian
ancomycin
▁inhalation
pregnant
▁confound
titution
▁LN
▁FSH
POA
▁ions
▁filaments
▁utilized
▁NT
▁dithiothreitol
▁19-
▁relap
▁heated
rocytes
cellent
▁hypoxic
GMP
aspartate
▁PGs
+)-
▁lesser
▁reliably
▁12
▁transposition
▁34%
400
15).
usal
▁efficacy
▁biom
▁fulfilled
enh
▁nutrient
HCl
▁bicycle
▁HPLC
rated
tual
▁sphing
▁teen
▁indomethacin
▁4.7%
cephalic
▁promoters
▁necro
-8,
inone
▁duodenal
▁Therapy
tives
Nase
▁autoanti
rals
/100
▁nuclei
53
▁basilar
▁vertebrates
▁TF
vals
oradi
ateral
organism
▁(80
▁protoc
▁covalently
▁41
being
▁Pharmac
▁depolarized
aid
▁10.7
▁echocardi
▁homogenate
▁serum
▁ibuprofen
▁aspartate
arrest
▁1,2-
▁stationary
▁opioid
▁227
erance
▁superoxide
consuming
▁sti
▁10(-4)
▁268
relations
▁cigarettes
▁412
▁BV
▁Consid
▁adenosine
▁progestin
▁virtually
emias
ionyl
▁births
FGF
anav
▁disorder
▁electroly
▁genetic
▁adren
0%
▁bacter
▁theoretically
▁Exposure
▁metformin
onium
▁flashes
▁differentiation
▁immunosuppres
▁0.001
-4
▁Doses
▁(+)-
ordial
mined
▁amine
▁PCA
▁Sequence
▁exon
▁sigma
▁acoustic
elan
▁spine
buride
otidase
criptional
inic
▁microscop
econd
▁Unlike
▁Routine
▁discriminant
▁prevail
▁molec
▁homology
▁30-
urgery
pontaneous
▁ionomycin
havi
▁Fetal
▁pyel
▁absorb
▁proteoglycans
▁49
▁OD
oriented
ispanic
▁standardized
▁glycerol
SMR
▁alters
▁kilobases
exposure
▁Triton
▁glandular
▁excised
▁autoradiography
uity
▁activating
▁immunod
▁amounted
▁thrombosis
▁sarcoma
▁baro
tember
▁repolarization
▁superv
▁transmitter
▁NADP
ocyan
roxy
leukin
▁malate
▁Mast
▁alve
▁focuses
▁suspicious
dihydropyridine
▁pK
▁nitrite
▁devised
▁noxious
▁indole
oplasmic
▁juvenile
AFP
562
▁fum
▁substance
▁laboratories
▁topical
▁obstructions
▁Parents
▁preeclampsia
Hep
imental
▁labile
▁conjugates
▁glycemic
▁Evidence
ocyanin
78
▁lectin
77
▁fulfill
▁suicides
operox
▁6.6
▁ciliary
▁sprin
▁depolar
▁11%
▁amputation
▁adrenaline
siveness
otransferase
olon
▁leuc
▁mug
▁analogous
▁saturated
nec
-32
▁myofibr
▁Lys
▁MPO
▁steroidogenesis
ilized
▁AI
▁brach
▁rheum
▁unsuitable
plastic
▁Finnish
ication
rences
plying
▁pene
▁responder
yrate
pharose
▁azathioprine
.9%
▁293
RBC
▁80%
▁Almost
▁unchanged
▁5-
▁manifestation
gesterone
▁peptides
▁pelvic
▁Cushing
▁hypertension
▁adenoid
olerance
ductive
orated
▁encoun
▁intensities
▁AH
▁bone
orbidity
molality
▁transient
-4)
▁40%,
▁absorption
▁fathers
▁illumin
▁mediate
▁nephritis
▁NHL
razole
2+
adrenaline
▁-0.6
▁ovine
▁4.6
▁osteopenia
ACA
▁trophoblast
▁prol
▁systematic
▁Injury
▁(2),
▁genotype
oluble
▁cytoskeletal
▁0.5-
▁MW
▁nig
▁subc
labelled
ostic
oinositi
osarcoma
rostenedione
oleucine
▁gains
▁redox
▁infectivity
▁1.45
alp
▁(67
inhibition
oplastic
▁NaF
▁hypocalcemia
▁househ
▁1.12
▁indefinite
▁normo
ropathy
▁PGA
parathyroid
thrombin
▁psychological
troph
▁13.9
▁cadaver
▁ischaemic
yste
▁fever
▁tremor
▁dimers
▁aided
▁cerebro
▁endotracheal
tissue
ilateral
epti
▁cartil
▁209
▁0.0001)
totic
▁discrepancy
10)
▁intermittent
▁pector
mercapto
▁limiting
otyp
▁airways
▁randomized
▁epithel
▁feather
▁suspended
EI
MSH
▁apoB
prac
▁shar
rostened
erythro
▁etretin
▁pate
ameter
▁immobilization
▁inherent
▁1.11
▁competi
(2+)-
▁WR
omegal
ocriptine
▁anticonvulsants
adders
▁radiol
▁feeding
▁2.7
▁insom
▁PRA
▁Rates
admium
▁ubiqu
phot
▁principally
▁ghosts
▁relaxed
▁MICs
cg
dominal
cytochrome
▁intubation
▁hyperch
▁carboxyl
▁70-
▁consistency
▁0.78
▁stomach
▁189
▁diseased
tization
▁strains
70
▁Leydig
▁soma
6-
galactosidase
▁diame
▁putrescine
▁(140
▁asthmatic
▁octa
▁(1
▁ib
▁throm
adequate
▁rhodopsin
▁adipocytes
▁adipose
corrected
▁(4.3
ometers
▁variability
ulant
asting
androgenic
▁autoradi
▁fitness
▁monocyte
gth
▁azide
-1),
pituitary
▁contractility
azolam
▁guidelines
trated
-23
▁ultrastructural
azone
▁prognostic
ochromatosis
▁cyto
▁keto
athetic
clerotic
▁diverged
▁AMP
▁degenerative
▁progressive
ologic
ilts
-13-
▁leukocytes
▁gonadotrop
omeric
kDa
▁geniculate
enteric
weed
ochle
uric
▁implic
triglycerid
▁transitions
▁sucralfate
▁surf
nourished
▁125
ulatory
▁quantitated
▁psychomotor
▁managers
▁wake
timal
estim
▁(2.5
▁bab
▁microenviron
▁intrathe
facial
HIV
▁dox
▁progesterone
▁Meas
stin
▁classifying
ourinary
▁distinguishing
+/
ancre
obacillus
▁mediators
▁redistribution
▁sterile
itre
▁accurately
▁messen
enching
▁cytokine
deprived
▁Thi
inositol
▁phi
▁interviews
▁participate
tebral
▁neurons
▁Pain
▁(47
renz
▁saliva
▁inguinal
▁rheumatic
▁LD
▁cachexia
▁suppression
▁Mn
erule
▁8.6
▁sorbitol
▁uncovered
venty
yridamole
▁fluo
▁medicines
gland
▁inactive
genic
ordance
▁mosa
▁myeloperoxidase
associated
▁medication
-5'-
▁subdural
▁aggres
ocellular
orsal
▁cruc
expressed
acycl
▁pontine
▁specialty
▁antecedent
alkyl
▁indi
▁elongation
▁respon
▁0.0001),
▁tyrosine
otri
▁IOP
▁neuroblastoma
▁Phy
LTS
▁speculation
▁Angiotensin
▁nondiabetic
▁levonorgestrel
▁OKT
▁plas
▁11.5
BMD
▁vibr
▁dissemin
▁satisfactorily
▁musculoskeletal
NMDA
▁gonadotrophin
▁vaginal
▁limb
▁therapist
▁radiographic
eryth
ycin
▁89%
▁satis
▁improves
ynthe
teine
▁13-
▁apoprotein
▁ultimate
▁cathe
▁endocardi
▁melanogaster
▁expense
opha
icillin
▁98
vated
▁abdominal
▁degen
struc
▁reflects
▁emphysema
▁prematurity
▁embolization
▁irregularities
▁40%.
abd
▁autop
▁250
▁regenerating
▁kDa
iliary
▁Iso
▁hypercal
▁enroll
pendent
▁0.05,
▁prolonged
▁0.80
▁24-
lec
ACTH
▁oxytocin
▁histories
▁triglyceride
▁fructose
trop
▁(6),
▁Diabetes
▁monos
▁evac
▁susceptible
▁immunoglobulins
▁59%
▁assessed
▁vagus
▁Comparisons
▁wheat
▁emergency
▁fruits
▁mechanically
▁benzodiazepine
▁neutralizing
ituitary
▁mothers
▁3'
▁elevations
inhib
lyb
owever
obacter
▁breed
▁elevating
▁1.8
▁sustained
▁irreversible
itum
▁corticosteroids
oxide
▁(78%)
ylon
▁pige
4),
▁lam
▁NM
primarily
▁caffeine
▁stoichiometry
valvular
amuscular
adol
renaline
vail
individual
25.
rostaglandin
▁(55
iscal
▁cortisone
▁epiderm
either
▁(25%)
iotics
monella
▁immun
▁attained
▁impairment
ophag
▁heavier
iesis
▁embolus
phylaxis
▁NSAID
pap
▁Biopsy
▁tryptic
▁Combined
▁imbal
▁ward
tracheal
▁ultracentr
0%).
olated
portion
ipheral
particularly
▁ketone
▁centers
▁stimulate
▁cultures
▁epididymal
▁321
▁surveillance
▁luteal
▁158
▁resistant
▁pharmacokinetic
▁15%.
ergen
ignificant
▁splenectomy
▁synthase
▁(7
onuclease
▁contamination
receptors
arone
▁nonsignificant
thmatic
▁EPSPs
▁explored
▁CCK
▁lengthen
▁competing
▁arbor
▁remin
thalidone
-6)
▁diseases
(1)
▁amin
obut
▁poorer
▁sleeping
atinum
▁silic
▁ICP
afloxacin
ortal
▁Aden
▁(0.2
▁corne
psin
-4.5
▁conductance
▁avian
▁cited
▁persis
ocomial
▁magnesium
methylene
▁54
ofen
odium
▁bloc
▁cloning
significant
lastoma
▁stric
▁amel
▁predic
▁construc
▁substrates
▁glycosyl
▁85%
▁Measurements
▁systemic
▁scro
uvate
▁granule
unar
-(1
▁4.
▁histamine
▁FFA
irradiation
▁phagocytosis
▁increments
▁GH
▁bending
▁PF
idating
tenti
▁bones
▁aneuploid
▁2.1
12).
▁competent
▁BMD
▁dial
▁hep
▁dopaminergic
adminis
ocrin
itary
▁ae
▁nM
▁reduc
▁1:
▁spray
oreg
▁migrate
initi
▁regimens
▁0.71
▁fluctu
▁(60%)
▁interv
▁atherosclerosis
▁recombinants
▁qualit
▁antidepressant
▁12%,
atized
▁depress
▁deter
▁tetan
▁ligated
Ile
▁18%
▁Thirteen
▁constituents
xanthine
▁descriptions
▁communications
/1
▁nonfatal
▁consciousness
006
▁bromide
aminob
▁strand
oA
▁forebrain
▁Lyme
oflav
▁Bacteroides
▁adduc
▁pharmacy
▁clus
pread
▁BA
▁PAH
▁epilep
idation
500
▁inappropriate
▁COPD
onor
enriched
xide
▁1.07
tetr
▁CaCl
▁shor
▁unil
gans
▁nerves
▁mRNAs
▁ADH
Hodgkin
▁amino
enicill
oreactivity
▁CABG
▁110
▁dissection
▁uterus
▁(85%)
▁TCR
▁awak
▁coping
emetic
▁swabs
▁hypocal
▁comprising
▁tumour
▁Statistical
endazole
▁1.36
siological
▁diameters
inducible
▁257
▁6.5
▁87%
▁(52
-20%
▁randomised
▁intracellularly
▁chromatography
▁propofol
accharide
▁myc
treatment
▁ketoconazole
21.
▁pravastatin
▁(11
▁caudal
▁shifts
▁43
normally
▁molar
▁(90%
▁tear
rele
▁membranes
ilical
21
▁overload
▁trachea
▁apoE
▁cefaclor
▁11.2
tism
otrexate
▁grafted
▁hospitalization
▁fibrosis
valine
ighted
▁positioning
emius
▁Retrospective
frontal
▁heavi
lactate
▁ruptures
39
▁sclerotherapy
▁anes
▁63%
▁Sout
▁lorazepam
azole
▁psittaci
oneu
vedilol
▁osmolality
rotoxin
▁valproate
▁axillary
enters
▁reflec
▁rises
▁Invent
brile
asal
umbers
▁cholecystokinin
tagog
▁35%
▁(20
coh
30)
ietic
▁examines
2;
▁multis
▁evidenced
acid
▁Prolong
exponential
▁cardiomyopathy
7;
cellular
▁glycosaminoglyc
produc
▁unm
▁2',
▁perinatal
▁recruit
neu
▁nylon
sensitivity
▁cardiomy
▁antero
▁reflexes
lym
▁(82
▁lymphocyte
▁desensitization
65
▁Antim
urations
itoneally
ducing
usp
releasing
▁obstruc
▁worms
▁DS
glial
▁novo
▁quadrup
▁incontinence
obac
▁granulomas
▁sampl
▁polysomn
ocyte
athyroid
▁pellets
neonatal
▁gastr
yridine
▁352
27
▁fibrils
▁pollen
-1+
▁trabecular
▁promoting
amido
▁participating
▁0.0
CHO
administration
▁Tn
NV
▁interne
▁atten
▁volunteers
81
▁menopausal
ofib
oskeletal
estive
▁cytotoxicity
▁goats
▁quantitation
reflex
▁17
▁polymyxin
▁WGA
▁schizophrenia
CNS
▁Myocardial
taz
▁intermedi
▁stimulatory
▁cil
▁determines
▁chondroitin
idol
▁hypertensives
▁preserving
▁30%,
tubulin
▁650
▁lactate
▁allosteric
▁-6
▁gly
▁phrenic
filaments
ogenicity
▁Postoperative
▁presentations
▁Behavioral
▁flora
▁inducer
irds
▁mesenchymal
▁Large
▁78%
▁immunoprec
▁ACE
▁histidine
oxid
fat
▁Tc
icides
opam
▁hydrolysis
▁agglutinin
▁habits
▁CPB
apanese
▁hypoxia
▁hepatitis
oxygen
▁afl
siella
▁genesis
▁accep
▁Sephadex
rocyte
▁parasympathetic
apine
▁confluent
▁angiography
▁Dietary
▁Cooperative
▁19%
▁MRSA
▁spectroscop
▁112
androgen
▁SDS
osides
▁enzymatic
▁calories
▁mucous
▁56
▁lactating
tia
thi
▁181
▁splenocytes
▁183
macroglobulin
fron
▁athle
.0
▁adenocarcin
LU
▁bronchial
anate
▁lethal
▁radioactivity
▁detergent
oblast
▁colic
▁clamping
▁caregi
▁exce
3]
ocular
▁2.1%
▁cystitis
▁Obs
▁HS
▁pelvis
IIIa
6%
▁oxide
▁infants
▁PD
▁particulate
▁Natl
▁buccal
▁tissue
▁gradi
▁tol
SOD
▁serological
▁genomes
▁scalp
▁(23
▁departments
▁harves
angerhans
▁blacks
▁Subs
▁fractions
▁waking
▁diabetic
lives
ching
▁8-
▁1990
reasts
▁Alzheimer
permissive
▁investigator
tivation
olec
▁cigaret
▁antacids
▁disruption
▁2,
ensitization
▁multiparous
▁dilat
▁hormonal
▁elicits
ufficient
▁CFU
▁shel
plasia
▁enhanced
▁35-
▁horiz
▁stiffness
median
▁neuromuscular
▁kb
▁exacerbate
▁gout
imetic
rhea
▁aspiration
ADP
▁Dise
(1,4,5)
▁recipients
▁90%
▁208
-96
▁0.89
▁curettage
▁18%,
▁paral
▁Hear
▁sensitivity
▁unsaturated
5]
parative
▁microvilli
▁psychotherapy
▁preincubated
odds
▁1989,
ormone
▁radicals
▁fused
▁deviations
▁molecule
▁loci
▁ultraviolet
valent
▁Reduc
yclo
▁dynorphin
10).
▁ODC
▁polypeptide
▁influenz
▁assesses
iuria
▁baroreceptor
1:
omat
▁appendix
▁Basal
rone
▁(4-
ylephrine
adenoma
▁anastomoses
▁12%
▁170
▁Prac
▁paradig
ymptomatic
▁qualitatively
▁immunogenic
opre
▁hyperthyroid
-9
▁determination
▁iodine
▁NaCl
▁clones
▁280
olesterol
fibr
▁isoenzyme
▁haplotypes
astases
spective
ionine
▁tetrodotoxin
atidyle
▁occasional
▁constitutively
▁paradoxical
▁perone
portun
GlcNAc
tite
▁seb
▁recombination
▁wearing
nitrophenyl
▁fluxes
▁Epid
copic
▁scinti
▁lys
▁3
▁differen
▁granules
natal
▁positives
▁immunoreactive
thal
ellular
dU
▁Subsequently
▁lifest
▁AUC
gthen
▁hypercalciuria
PGA
▁ricin
▁LDL
▁EA
▁soybean
▁detrimental
▁Tolerance
osus
actin
sian
▁extremity
WBC
tric
▁IA
▁rearrangement
1.
diagn
▁interneurons
umbered
▁trachomatis
▁(2
endri
▁(42
70)
▁RIA
▁490
▁amygdal
▁pathological
▁ellip
▁ure
▁hydroxyp
otid
▁197
▁conjunction
▁9.4
▁0.1,
▁33-
▁auditory
amous
▁Veterans
▁laboratory
▁Trials
VH
69
▁9-
▁arrhythmias
hypertensive
▁lymph
▁elastic
▁midbrain
▁deposited
▁ambulatory
▁tumorigenic
GH
▁shrin
▁implants
2%
▁ethnicity
ranolol
vasive
angi
▁capillaries
▁PN
▁stenosis
▁stimulus
▁attenuated
▁phospho
▁(1.2
oxine
▁14
▁acne
▁polysaccharide
cysteine
▁rostral
▁subpop
▁permits
ogeny
▁sha
rinary
ithium
▁myocardial
▁Aspirin
▁discom
glyc
stimulated
▁0.02)
▁(62
icep
▁definitive
▁dextro
▁TDI
▁buspirone
▁favorably
▁idi
▁cavity
▁synov
▁Computed
▁ACh
▁20)
▁mAb
mortem
▁supra
enem
▁Steroid
sized
▁metatarsal
oagulation
▁perception
▁anastomosis
▁streptococcal
▁reversibly
▁dilation
▁peric
▁tolerate
▁nutritional
ginine
▁conformation
▁dismut
▁arteriolar
ilol
▁diffraction
▁dermis
IGF
▁22,
▁sph
170
▁phorbol
▁308
▁(8
▁buc
▁vulgaris
▁Outcome
-2.
▁(69%)
▁nephrectomy
▁polyclonal
erine
▁Swed
▁55
▁nitroprusside
uthen
nosis
▁chamb
lasses
-1000
ompan
adm
▁professionals
ystic
alact
▁difficul
▁saturable
acterial
lyl
▁angl
odg
▁cyclosporine
itone
umented
rogesterone
icardi
vertebral
reactive
▁lysine
▁hypothyroid
▁distress
▁integrin
▁neurolep
▁20.
▁pulmonary
▁276
▁Risk
▁phosphodies
▁reveals
restric
▁CRF
traction
▁299
▁cephalexin
▁MCF
▁hypogonad
otroph
▁1988.
plants
▁oes
16)
-[3
▁interruption
22
▁Stro
▁arterioles
▁proximal
▁transfect
▁micelles
▁perfused
▁supernatant
PGE
athic
-5,
▁observers
glut
▁inflammatory
▁exhibited
▁originating
▁Asn
▁synchronized
echan
▁chloro
▁mong
▁tetrac
▁progression
▁43%
▁medullary
▁otitis
▁95
▁isoniazid
opecia
uded
▁sut
▁unexpectedly
▁frozen
glutamyl
▁gallst
oes
▁7.7%
▁convulsions
▁dobutamine
▁averaged
▁enox
▁2)
gely
charomyces
▁hepatectomy
▁28-
oreal
examin
▁oriented
▁suppressing
▁percutaneous
VT
▁Abdominal
mation
▁antid
▁investigators
oneph
▁(50%
▁treatments
/24
onitis
▁carcin
▁Biopsies
lun
▁breathing
▁widespread
▁Capsaicin
▁guanylate
tch
▁Scale
▁extrac
uin
▁2%
▁renders
▁Examination
▁(99
unctions
▁colchicine
▁Eco
▁dizziness
▁primed
▁deduced
motor
▁gangl
-1;
▁nadi
5)
▁1.38
acchar
200
ionate
▁3.9
5%
RD
▁achieves
turnal
▁elective
▁afferent
DNA
CRP
▁solids
▁favors
▁210
opathology
till
000
smoking
▁reversing
▁beneficial
▁42,
▁acetone
▁linole
▁corresponded
▁NPH
▁(1.5
▁differe
▁176
▁spirometric
▁cisplatin
▁sonic
▁9.7
▁expec
▁erythrocyte
▁oxygen
99
▁pharyngitis
▁arising
hormone
▁histi
▁fertility
▁12.0
▁(4.6
merc
imazole
▁(39
▁methionine
▁typhimurium
▁avoidance
▁constitute
▁cervix
▁radioactive
entgen
▁polymerases
▁anteced
inesterase
ochemical
▁bombesin
▁hypoventilation
▁50%
▁NSAIDs
olerant
onomic
▁ischemia
▁flexion
▁nephrotoxicity
▁preload
▁optimum
ATP
arb
▁clu
▁microvessel
▁proteoglycan
▁Cardiac
▁(68%)
isomer
▁conges
▁infarct
▁endobronchial
▁thym
▁glucuron
▁1960
▁(35
▁paternal
▁concordance
▁vagin
oglobulin
▁decub
▁electrophoresis
▁vitamin
▁complexed
▁insertions
onad
trypsin
▁cryptorchidism
rophilic
▁positioned
▁competence
▁standardization
▁capsule
▁tet
▁nucleus
▁reproducible
▁consequently
▁laryngeal
▁citrate
▁cDNA
▁thymus
residue
▁Indi
▁catecholamines
▁hematoma
▁acidosis
▁knife
ifed
▁diagnostic
17
▁hypoglycemic
▁mumol
5),
sities
▁exceeding
mokers
▁maturity
▁parturition
▁underway
85
▁megakary
threshold
urc
aind
sorption
▁PAP
catalyzed
glucuron
phs
▁dendri
botic
▁unidentified
▁sigmoid
▁1.66
▁locomotor
▁reacts
▁chlamydial
▁oedema
oproliferative
▁7.
activated
▁2.5-
ortic
turition
▁vag
directed
entif
isole
▁polypeptides
▁depressed
onography
▁xanthine
▁hypogonadism
▁gyrus
jec
▁CNS
▁ejaculation
entile
▁inadequ
▁inhibin
illance
▁schizophren
▁41.5
▁thrombotic
▁homeostasis
▁UV
▁bleeding
▁sciatic
▁16%
▁maturation
▁pharmacological
▁isotope
▁chlo
▁androstenedione
▁FT
sied
azin
▁papillary
▁DNase
▁PAI
▁itraconazole
Au
▁234
▁6,
▁fist
ellum
sorbed
▁Hib
▁correc
▁0.5,
partic
yloid
▁catabolic
fasting
▁pathway
▁recycling
▁blockade
olution
▁semin
prandial
▁degraded
▁5.7
▁brady
▁stimulator
▁elas
nisolone
▁mammals
▁eicos
▁oocytes
▁Biochem
▁Combining
▁ND
incubated
)2
enicillin
▁portions
▁urinalysis
lamy
▁MG
▁Tissue
▁fibros
▁preven
▁DNAs
opeptides
odiaz
therapeutic
▁olig
iper
▁efficacious
▁excl
▁pseudop
▁recru
▁interference
▁percentile
▁penile
▁deox
epin
▁serotonin
iotensin
92
▁23,
ayers
▁stimulation
olateral
.0)
▁bilirubin
▁chromosomes
unts
▁discriminate
▁Fram
▁pathogenic
ococci
▁lungs
▁assembled
mmol
▁retic
▁determinants
olol
▁stromal
MLP
▁0.24
▁ciprofloxacin
▁empiric
vicular
▁anastom
▁nodule
▁predictor
▁duplex
▁660
omiting
▁masked
▁brush
▁60-
▁autonomic
▁owing
▁diarrhoea
▁hypotension
▁voiding
potassium
▁carbox
imurium
▁remission
adder
▁inters
edle
▁corpus
▁lute
uates
▁plaster
▁occurring
▁marrow
▁arom
▁136
usively
▁circumflex
▁[125
▁promo
guan
▁folding
▁tegmental
TG
▁0.49
▁Somatic
▁positional
ustion
anic
▁noninvasive
ivac
▁nitric
▁Epidemiologic
omes
▁cured
▁effectiveness
onstric
▁swab
utaneous
amol
▁GST
▁micromolar
▁appreciably
▁anterograde
▁transplants
lactamase
▁streptokinase
▁trend
Tyr
rever
udin
▁VH
60
▁(31
▁modest
▁defects
▁manipulation
▁hydrophilic
▁trigg
▁LTB
▁MMC
▁litter
.2)
▁psor
11,
▁paraventricular
▁carotid
vation
▁constipation
▁coronary
MTV
rolog
ophore
▁lobe
▁oxidative
othiaz
▁infiltrating
▁chlor
▁nutrients
▁regained
▁polarity
mitoyl
roscopy
▁4.5
ulitis
▁tubular
-3.5
infection
▁fulmin
▁70%.
pecific
▁reversal
▁Morph
venous
▁parental
especially
omycin
▁lipolysis
▁preterm
▁trache
imid
amic
▁Subjects
calor
onuclear
▁5.1
▁Samples
sess
▁LDH
▁crystalline
▁ESR
▁Plas
▁.01)
▁(95
▁glyc
lated
▁titers
▁locus
▁Progesterone
▁onc
▁fentanyl
▁wk
▁zymosan
adian
▁Absolute
▁hybridoma
▁responders
▁7.3
▁poin
teroidal
▁Laser
apo
mong
▁overe
▁reasonably
▁(7.4
▁tox
lline
alene
▁60,
▁ingested
▁10.
▁microU
▁projected
▁inadequate
hepatitis
▁312
acting
▁kidne
▁retin
ceptions
▁feces
▁mamm
▁retinoic
▁bacitracin
▁sacrificed
▁hyperthyroidism
▁4.1
▁GABA
▁interc
letion
stress
▁methacholine
▁precipitated
▁phosphorylation
▁transpos
▁adul
▁1987.
▁GE
buterol
▁suscepti
▁extravas
onucle
▁practitioner
▁enrol
14,
▁reticul
olesterolemic
trib
▁starvation
▁21,
▁OH
▁vulg
4,5)
▁extracorporeal
▁palli
▁Inventory
▁branched
▁TEA
▁51%
▁succinate
▁manufacturer
▁centrifug
▁commerc
▁unstimulated
▁crude
1-2
urons
▁inflow
▁epilepsy
▁PMS
▁isoenzymes
▁10(-7)
▁abstinence
▁proliferation
▁(45
▁morphometric
▁treadmill
▁paren
onide
plete
▁borderline
ensi
▁triglycerides
▁norepinephrine
iliated
▁nickel
▁beating
▁vivo
▁0.14
▁Assess
.7.
▁actinomycin
trically
indol
▁(5-
▁barrier
▁55%
10-
▁triacylglycerol
▁0.7
▁lacking
2+/
articular
.4
▁28)
▁replication
▁diethyl
▁bupivacaine
▁16.
▁83%
PaO
allikrein
▁unres
▁alcoholic
▁onset
▁murmurs
▁tetanus
1,
iplin
▁Individuals
stem
▁[35
▁Bmax
rophenol
▁additive
▁antidepress
sive
▁3;
▁uptake
omn
▁(1988)
▁acetyl
TPA
▁whereby
▁lens
▁rati
phic
▁(0.9
▁1.56
amide
comitant
▁intrap
▁implying
ayed
▁15,
▁10(-5)
▁promising
▁extrinsic
▁enlar
▁automated
▁Strep
▁parenchym
aventricular
▁rhythmic
▁simultaneous
▁progenitor
difference
▁HDL
▁Engl
▁dental
ositive
tional
▁couples
▁1.18
▁identifying
▁appraisal
▁anxiety
monophosphate
kelet
▁stimul
aturation
orrhea
osomes
▁polyps
▁8
▁attainment
ostatin
romedial
▁phon
▁pericardial
ographies
potential
▁irritation
▁tubercle
3%)
ternational
thre
▁anae
▁denat
▁CEA
rometry
▁undetectable
▁cones
▁oligos
limiting
▁reas
▁nucleotide
▁(49%)
alian
▁catheter
▁sterol
creatinine
lytic
▁monitored
▁chronic
+/-
▁0.09
▁prepubertal
▁Hyd
▁serotonergic
▁undetected
overed
▁comprise
▁subfractions
rogenic
peri
000)
itin
metabol
▁hypotheses
occus
▁phe
140
▁interfere
▁ulcers
density
▁specialist
▁VP
reasing
0.6
tenolol
EPs
▁nicardipine
▁apne
ogens
▁vinblastine
▁cran
▁practic
▁stably
uccess
dihydrop
entified
▁tac
▁translational
entan
olytic
▁compensated
▁punch
8-
ocortical
▁encomp
tiary
▁(5)
▁denser
▁Eight
▁microscopy
▁etoposide
▁suction
▁neuropathic
lective
.1%)
▁bronchitis
▁potassium
▁FD
roximately
▁facial
▁NADH
▁favored
▁requi
▁77%
imaging
▁estimating
▁salts
embryonic
▁cerv
oling
▁DF
▁evaluating
▁accelerated
▁(3%)
trig
▁granulocyte
▁analytical
▁arrhythmic
▁intake
▁biased
secondary
▁aging
▁7
glycer
▁Twenty
productive
ritical
rof
-10)
elves
▁alopecia
▁vesti
▁stratum
▁rost
icardium
44,
▁morbidity
▁16%,
CAP
spectrum
▁discomfort
romatosis
▁Immunohist
▁classifications
dopa
fractionated
tle
▁discrimin
▁beha
entric
orubicin
▁Diff
▁tritium
▁emergent
▁cadmium
▁1984
▁0.30
▁embry
ongest
▁daltons
▁detrusor
▁CDC
tioned
▁hypertonic
ocaine
▁prescribing
▁peptide
fibrin
▁PLP
▁Gly
▁RP
44
▁quantitative
vely
▁periodon
▁RSA
.1%
▁hypot
ulence
afibrate
▁246
▁twin
▁1)
▁0.33
0.7
▁segreg
oxidation
▁Stroke
pir
▁suture
▁injected
responders
valence
▁superiority
23187
▁lysis
▁larvae
▁autoreg
▁synchronous
mates
▁Regular
microglobulin
trients
▁HMG
▁fibrinolytic
▁27
▁aggregation
▁virion
ovastatin
▁rhin
azep
HCV
-0.
▁Hispanic
▁anhydrase
▁deem
noradrenaline
ylene
▁Antic
▁5'
wake
▁hGH
▁obliter
▁adhe
ressive
▁cultured
esthetized
▁seques
▁reagent
▁skeletal
▁0.27
▁receptor
▁Clinic
▁0.64
ergency
ammon
oalveolar
▁undergoes
operiod
▁3.4%
▁Decreases
▁subpopulation
ografts
▁thyroiditis
▁100-
▁immunization
▁latex
trical
12-
▁epileptic
trous
▁lax
ROS
▁lisinopril
▁PG
▁solub
▁concanavalin
Gal
▁suggestive
EA
embedded
▁cannula
▁chel
roitin
▁rickets
▁postinjury
organization
▁lidocaine
▁235
fraction
plication
natally
▁seizures
89
▁isoforms
ganese
▁ata
▁alcohol
-48
▁systolic
▁phenotypes
othal
▁274
▁develops
▁subun
▁organism
▁Glyc
EAE
▁augmenting
proven
▁piroxicam
▁preferential
▁virions
▁impairs
▁pathophy
ensities
▁diges
▁shorten
atite
▁arteriovenous
▁anomalous
▁broth
▁synap
▁bronchoscopy
▁dentin
▁risks
anazol
mature
▁1.9
▁thresholds
▁(10(
▁undetermined
.6%)
▁rhythms
▁anatomic
▁methodological
▁146
▁unstable
▁prospective
odil
Ins
▁ack
▁agonist
anin
▁sphe
vus
▁methimazole
▁excretion
▁Dex
▁parv
ectasis
▁constr
▁testicular
▁diploid
▁Vitamin
▁warfarin
ospasm
▁colos
8+
Cs
▁immunoblot
formations
▁dermal
▁cef
(0.
▁aeros
▁188
▁rearrangements
▁neurite
▁lyso
▁decisions
▁fibrinogen
▁supine
▁morphogenesis
▁conjunctiv
ventilation
▁incontin
▁elic
▁curriculum
▁CMV
▁calibr
▁tablets
bromo
vember
▁focusing
atids
▁benzodiaz
neoplastic
▁retention
▁aeruginosa
▁1.19
OA
weeks
▁polyp
effects
▁glial
luding
-1,
▁predis
CFU
hene
▁cooling
▁neutrophil
▁5.8%
▁perfusate
▁bladders
▁thymocytes
▁nursing
▁surgeons
apsulated
▁Preliminary
▁influx
trol
assisted
meg
▁extremities
okine
▁piper
oreceptor
▁ICAM
.6,
▁5
▁inhaler
roxicam
▁0.00
odop
▁infancy
▁ester
▁EDTA
plicated
▁62%
▁hereditary
▁prostacyclin
0%),
▁rifampin
bility
▁monomer
▁pathology
endocrine
▁metabolites
▁750
▁nm
▁initiate
conjug
▁transmembrane
▁contras
▁compares
▁antinoc
-15
▁persistently
▁humoral
▁blister
ulses
▁progen
▁46%
1%)
▁Plasma
▁inward
▁kallikrein
▁recognizing
▁carriers
-(2-
▁inflammation
versely
▁pregnant
▁spasm
▁catabolism
▁assessments
▁preparation
▁heterosexual
▁myeloid
▁synthe
▁utero
Hg
▁immunofluores
▁resum
▁genomic
chool
▁sulf
omotion
▁monthly
▁normalized
▁anesthetized
tially
ectom
ifugation
▁doxorubicin
▁sacc
ocin
▁PCR
lived
▁17-
▁intracellular
▁keratin
▁EEG
▁inducible
ronate
▁macromolecular
tures
▁[2
cessive
erence
▁nonsmokers
▁emphasized
tructural
▁periodontal
ymptom
amethoxazole
plies
▁absorbable
▁mening
embry
assi
▁4)
▁Tyr
▁ischaemia
▁peroxidase
avirus
imol
▁lethality
]-
-24
macropha
rometer
▁3-
▁thir
▁conclusive
▁bilayers
▁pneum
▁disappearance
▁intracoronary
Kd
▁0.22
▁97
755
osensory
▁1.15
▁decarboxylase
▁resorption
▁diabetics
▁lecithin
▁ceph
▁reticulum
▁microgra
▁ACTH
▁appra
▁mitochondria
▁cirrhotic
▁determinant
smokers
isal
▁RR
▁(199
▁38
ermal
▁secrete
esin
▁TIA
▁affecting
oidal
▁medial
▁implanted
▁paired
▁endothelial
▁dairy
▁hydroxylation
2+-
ylline
▁9%
▁enzyme
▁favoring
▁carbonate
▁(2)
▁INH
ACh
▁ulcer
▁bumetanide
▁0.2-
illation
▁contral
ospinal
▁5.4%
▁retrogradely
▁diagnos
▁meniscal
▁attributable
Ev
▁predomin
▁adsorption
▁Statis
▁centres
ailure
toxin
▁hapten
▁(10%
▁twitch
▁skeleton
iagn
▁1/
otonic
tions
▁roentgen
▁endocarditis
ymmetric
▁66
▁junctional
moking
ystitis
▁tolerant
▁knee
▁30%.
▁paralysis
▁peritonitis
▁Sleep
(-)
▁clinically
▁abr
▁mature
▁addi
▁betamethasone
▁Proc
▁hig
adenosine
▁plasminogen
▁DD
benzyl
▁monensin
▁overnight
omatis
▁effusion
obarbital
▁retinoids
tomy
▁aryl
▁21%
-8.
▁quartile
▁microinjection
ophilus
oxifen
▁Ala
vascular
▁parathyroid
▁tonsillar
▁nonrandomized
▁ascorbic
amilies
parag
henyl
▁ole
antigens
▁multil
▁neuropsych
▁Exercise
agastrin
olone
▁430
▁inhal
umulative
96
▁photoperiod
▁rods
▁microp
58
▁biosynthe
▁cholest
Cys
▁distension
ecia
▁transaminases
82
▁tonic
▁(20%).
▁cyclical
▁1981
▁antiser
▁atrial
▁polyethylene
▁persisted
▁homologous
tocopherol
▁FITC
▁1.
ochrom
▁sham
robic
▁lymphoblastic
▁unipolar
▁LPS
ochem
▁goat
▁acin
ometrically
▁examiners
80
tally
▁ACI
eradish
▁uncl
luc
fied
icidal
▁comprised
7,
▁(1.7
rophen
grees
▁(0.6
▁swit
▁barb
▁disseminated
RR
omia
▁conflicting
▁elec
▁cellul
▁8.7
▁0.13
▁discharges
▁thiol
daily
▁109
▁fecal
▁subtype
uestion
▁Increas
▁provid
▁ceftriaxone
▁aden
▁halves
lamyd
yron
anadate
▁miscar
▁BL
pressing
▁adjustment
ucl
▁0.81
▁allergic
▁docum
▁nif
▁ablation
▁examinations
competitive
▁PIP
sies
erebro
ispanics
▁decreasing
▁psychosocial
epam
ilization
▁0.99
▁Differences
glucosidase
▁lymphatic
▁tyros
▁SBP
affected
▁disadvan
peptide
▁quin
▁0.03
lomethasone
▁stripe
ocamp
anide
minal
▁AK
▁cholec
5.
▁dramatically
▁50%,
erum
▁trunk
▁120
▁17,
▁etiology
▁distorted
▁reserpine
▁CRH
▁dorsolateral
▁herpes
▁60%.
▁pep
acyclin
▁modulates
amphen
▁leukotriene
▁manifestations
/34
xiety
Ts
▁desm
reactivity
phosphates
▁primate
5-
▁44-
strand
apatite
▁Sera
▁posttrans
rometh
▁arachid
growth
ylyl
▁belie
▁fixation
▁cortisol
▁exceptionally
rk
namic
▁subdi
itals
▁yielding
▁leucine
olum
▁nevi
▁fertilization
▁absorbed
▁neuro
▁PSA
▁PGE
▁uninfected
▁hypox
schemic
▁proceeds
▁nebul
▁atropine
▁impulse
▁symp
oplasia
patient
herent
▁hydrolys
▁varic
etence
▁carpal
hap
▁athlete
▁Efficacy
▁homoz
▁techniqu
▁chym
▁elevated
▁adolescence
▁torsion
appropriate
alas
▁gating
▁immunologically
tilled
▁basophils
pulse
opal
▁bronchi
▁maneuvers
▁laminin
▁endogenous
▁tracts
▁harvested
▁remo
▁32%
▁modalities
▁longus
odic
ensin
▁BMI
▁additionally
▁kainate
▁intron
ocarcinoma
▁grafting
cein
itamin
▁thereafter
tinu
▁supple
▁castration
▁acceptance
lycerol
7.
▁metatar
tition
calorie
enan
▁ureth
▁endings
▁4-
▁delays
gangl
,000
▁194
ertion
inated
▁perip
IU
▁bowel
SBP
hyde
ifferentiated
▁unaltered
▁identifiable
▁Delayed
stimulation
▁severity
▁suppor
▁streptozotocin
compartment
affinity
▁11-
▁0.8
ometh
paren
▁insomnia
▁complication
▁OA
tens
▁IgA
▁IGF
rophenyl
issive
teryl
▁translocation
▁galactose
▁positivity
▁stain
▁neurom
▁arachidonic
▁inconclusive
ivation
▁tracing
.0%
▁msec
amid
▁whey
diagnosed
transferase
etitive
▁cirrhosis
▁labeled
yclic
selective
optimal
▁1976
ocial
▁dithi
▁capsid
▁unmodified
SDS
elic
▁2),
ocalcin
▁sarcoplasmic
tep
▁(88%)
obases
▁acini
388
anese
▁infrared
ticle
▁ICa
▁77
▁90%,
▁scre
▁hemo
ogra
▁HSP
▁Median
▁Eleven
oides
▁Longer
▁spro
ongue
▁serogroup
imodipine
▁synthetic
▁(16
throm
▁advan
▁absorptiometry
achol
rangements
▁amphetamine
▁thi
▁Acute
gus
▁iliac
ticularly
▁gyr
HbA
▁relapses
▁haplotype
onine
▁hepar
▁MT
▁10)
▁experiencing
▁unexpl
rans
▁tymp
-2.5
▁suspic
▁enterocolitis
▁hCG
▁choline
opathological
▁aberrant
▁capsaicin
▁nicot
▁lysates
▁referrals
▁exocrine
tectomy
▁initiated
semin
▁rash
▁antibiotics
estrogen
Bs
-7)
▁dialys
▁8.1
methoxy
▁potentiate
athe
▁lactobacilli
▁DVT
▁superf
▁1.06
▁-0.8
zard
ept
▁fragmentation
2),
▁graft
▁naloxone
esic
▁monke
rotic
▁hydrochloride
HN
▁82
▁CAH
phosphorylated
▁nonsteroidal
hepar
nthe
terolog
jac
luores
▁hepatomegaly
▁treatable
▁thiaz
▁ultrason
otox
▁reveal
▁273
▁splanchnic
▁aimed
otom
▁residual
ocytes
omers
Pt
zyme
▁formalin
▁6.
herol
immun
▁introduc
▁damaging
parathyroidism
▁undergoing
▁posth
▁Rif
aminop
▁complications
▁Findings
yramine
▁vertebral
feeding
▁CB
▁kit
GF
epithelial
ogenesis
▁chimer
84
▁ICI
▁caries
▁9.8
responsiveness
ensitized
▁mesenteric
▁implantation
▁GV
▁capacities
takes
▁wards
50)
▁Enal
▁encompassing
ithelial
▁accumulated
▁Recom
▁indis
estern
▁exudate
▁(3
zinc
▁uniquely
▁epidemic
▁synaptosomes
inflammatory
▁antisecretory
utin
▁multin
▁(1%
▁substanti
▁acros
▁6.1
ocysteine
phosphamide
▁GVHD
▁contractile
▁viewing
maximal
▁medications
▁nonpregnant
▁bioavailability
tin
ipolar
▁mcg
▁nitrogen
▁filament
▁propria
▁thallium
cervical
otherapeutic
▁prognosis
▁nons
razosin
▁controlling
▁Muscle
▁adjusting
▁regulations
bacter
▁analys
▁enhancement
▁0.05),
▁tomographic
▁Actin
0%;
▁hernias
violet
▁permeable
▁consultant
▁205
▁fibrob
▁preoperatively
▁glycoprotein
▁eighth
▁morphologic
▁hirsutism
5-0.
▁8)
rinone
▁subacute
tracted
▁tolu
▁Whole
▁fungal
RH
cryst
▁starch
▁likelihood
irubinemia
▁Depression
▁sebaceous
▁isoproterenol
▁0.04
▁nitro
▁5000
▁MDI
▁(12.5
▁disper
hig
eptin
▁packed
▁hypercalcemia
gut
▁25%.
▁adrenocortical
formerly
▁kcal
▁APC
▁grip
▁postoperative
gluc
▁psychiat
▁cardiomegaly
▁spermat
▁4-6
▁fourteen
▁13.2
▁52%
▁menstrual
atell
trisphosphate
tense
▁recognizes
▁parame
▁serially
nowled
-6
▁benzodiazepines
▁0.07
:1
▁infectious
▁0.01),
tilb
▁0.65
▁(9
300
tened
orbent
rase
rogra
▁surviv
utroph
▁fibroblast
toc
tile
▁smears
▁Doppler
guanine
▁16
▁0.5%
▁acquisition
▁tRNA
▁ganglioside
▁gentamicin
Ta
▁0.20
▁11.6
▁NADPH
▁placent
▁submuc
lact
partum
opic
▁fibrill
▁cryp
▁5.9
▁expectations
▁proteoglyc
▁deoxyrib
Fc
▁chromosome
▁moieties
rofen
▁dissected
atches
▁ascorbate
essment
▁bisoprolol
▁Subjec
0-
▁fec
▁electrodes
▁cervical
▁depletion
▁mutants
▁degeneration
▁protamine
▁interventions
ulon
synthe
▁herb
▁cobalt
▁carries
▁displ
▁tubulin
atase
▁GFR
geal
▁conclusions
▁functioning
▁200-
▁immunocomp
▁schem
▁ile
▁physicians
▁positively
tages
▁Fewer
▁protracted
00-
▁mitochondr
▁exchanger
▁aspir
tility
conditioned
▁sumatriptan
fused
▁progressed
ffin
▁challen
▁7.2,
▁neuron
cyt
▁transcripts
nucle
▁vitre
▁deemed
▁Continuous
▁valve
▁chromosomal
tigu
ocated
jury
▁-9
▁discon
▁GHRH
▁hydrolase
▁Urinary
rometric
ectable
▁Ventricular
▁leukemia
▁extracts
▁ipratropium
glutination
▁12-
▁neurones
▁pH
tents
▁Kupffer
racene
▁opac
▁mitochondrial
▁Accordingly
▁premenopausal
▁-12
▁Pulmonary
5%.
▁jaw
▁breakthrough
▁drugs
90,
esity
immuno
olipid
▁stabilization
-6-
▁degranulation
▁compensatory
idym
▁felodipine
▁gamma
▁phentolamine
▁arrhy
9%
▁ointment
▁salvage
omyces
▁hams
tigo
▁intestinal
tance
eptid
▁gangli
▁coval
ritic
▁viral
operatively
▁11.0
▁therapeu
oblastoid
teroides
▁genome
▁staining
97
▁LAD
▁radioiod
▁ejection
▁compensation
▁clinical
sored
▁bup
▁conjugated
amethonium
vaccin
▁adnex
▁decades
▁routinely
▁EBV
▁inhibitory
▁irrit
▁3',
▁NAD
▁metaphase
▁PE
▁ventral
▁conto
▁1.32
▁284
▁intrathecal
▁seizure
▁anticonvul
inamide
▁Incidence
DTPA
▁FU
▁antin
▁3.7
▁carin
▁biphasic
roso
▁healing
▁0.57
oderm
▁40%
▁lymphadenopathy
▁9,
apse
▁lysate
▁lipoprotein
▁codons
▁azithromycin
▁anesthetic
-3-
▁172
▁lactation
▁histone
osts
▁ischem
yrib
▁genic
VIP
olab
88
rati
▁transported
▁hypoglyc
83
arum
▁chan
adily
tants
▁diet
iloride
▁untrained
▁inadvertent
▁PPD
▁serine
▁genitourinary
▁ips
▁noncom
▁lenses
▁sinusitis
▁seropositive
▁REM
▁probing
▁cutaneous
▁clotting
▁percentages
▁gastroenteritis
ulous
▁0.83
▁benzyl
▁concom
ochondrial
▁anomalies
-52
▁Whereas
inely
▁soy
ipital
▁Available
▁endometrial
▁PTS
▁(2%)
▁spacer
semb
thyroid
ropriate
iodine
▁mimic
▁elicit
imetidine
▁assays
▁1.5
▁anomal
▁estrogen
▁analysed
▁phenomena
targe
ritis
▁kd
▁antihistamines
▁-0.0
▁discontinuation
▁200
azolium
▁inconsistent
▁exploratory
48
▁complementary
▁lasted
▁Likewise
▁flanking
▁Progression
▁uninter
edding
TRH
▁osteocalcin
▁0.60
ethyl
▁ferritin
▁5,
3'-
▁Thr
▁drainage
▁40.
▁socio
▁choleste
▁ramipril
▁deletion
phyloc
uccessful
▁Severe
hepatic
▁acad
▁inoc
anuary
geneic
▁amelior
luded
▁Reflex
▁21
▁thickness
▁pathways
▁fluidity
fibrozil
▁scattering
▁123
▁unbound
labeled
▁antimic
arms
▁Gs
▁Induction
▁pigment
▁3000
▁incom
▁Peak
▁Treatment
▁cohorts
▁hapl
eck
▁relaxant
▁promptly
▁centrifugation
fected
▁oint
▁surgically
upuncture
▁microscope
▁ketanserin
▁SPECT
examination
▁flexor
▁calcification
inescence
PPP
▁acquiring
requency
hetamine
aethylammonium
ocortex
▁compositions
▁logistic
▁-0.
▁precursors
arous
▁acces
▁photon
▁OV
7,000
▁mononucleosis
▁0.79
▁secreted
conc
ffer
ocardi
▁chromatin
▁erythema
▁fasting
▁depleted
arterial
azol
▁punct
haem
carinic
phosph
fem
▁disposal
▁schizophrenic
retion
▁leakage
▁pharm
anserin
▁postulated
▁34
▁Adenosine
▁mum
▁progeny
romed
▁antenatal
▁uric
▁allele
▁syphilis
▁blast
(2-
orrheic
▁plates
▁hormone
▁lateral
ducible
.3%
-50
ureth
asive
▁exhaustion
titut
Tc
atellite
▁vasodilation
▁Inhibition
toid
▁Fluores
AH
▁piglets
▁cyclo
roscopic
▁denervated
▁rodents
▁vascul
47
▁ophthal
▁permeabilized
▁0.5).
entical
encl
▁102
ivacaine
▁5%,
deriv
atchard
5;
▁agarose
▁RFLP
dL
▁7-
▁steadily
▁HM
▁facilit
▁prescribed
ibrate
▁continuation
▁structural
▁transfected
▁1:1
zation
atous
osoma
ylated
uride
▁endoscopy
ograp
▁detects
zotocin
▁alkyl
▁stimuli
▁dimer
▁reagents
▁transp
▁mating
ucose
cycline
▁incubating
▁20
▁actively
iary
dependence
urin
▁colonies
▁275
▁transc
(2+
mM
▁subunit
omyelitis
acer
▁reticular
▁bif
▁peroxidation
▁hemorrhagic
▁fluores
▁vWF
▁(50
3%
aterally
▁3.2%
teria
bac
▁lymphokines
▁Prevention
▁indication
8).
▁chemo
italopram
bronchial
▁sows
▁6.9
,000)
dalton
positive
MG
▁ternary
ocks
NH
omal
▁microf
otamine
inoc
DH
▁transiently
▁Subst
▁0.95
▁lor
109
▁1,
▁odds
▁diminution
opramide
iline
▁specimen
ejun
▁(37
▁intense
▁accidents
ogenous
▁diversity
ighting
▁tympan
▁10(-1
▁projecting
acrine
-1.0
▁carbamazepine
obarb
▁contour
▁nocturnal
▁2.8%
osomal
▁lutein
,3
iodothyronine
▁considerations
generating
▁(1.3
▁aortic
▁variously
molecular
▁HCC
▁concentrations
ectomy
▁wheezing
▁gonococcal
▁Dip
▁pyro
▁1990.
tomas
openia
ELISA
▁blockers
roat
▁perim
inopril
enic
▁Failure
▁gallbladder
▁radiological
▁Biochemistry
▁baroreflex
▁macrophage
thood
▁Saccharomyces
▁neuropeptides
tation
▁(49
▁blocker
primed
▁cirrh
▁phosphoprotein
▁leukocytosis
assays
▁28
▁physically
▁genit
▁granular
lactating
▁trophob
▁adducts
enhanced
▁occult
sion
▁stiff
▁(40%
ziness
otassium
▁Approximately
▁spermatozo
magglutinin
▁tilt
▁flour
▁85%,
▁parietal
thymidine
▁alcoholics
antibodies
bronch
▁79
▁adenoma
astom
▁internalization
▁nodal
▁micrograms
▁testes
▁1.6-
▁EDRF
ABP
6%)
▁induce
▁1991.
-300
▁Rating
▁ileum
dehyde
▁Breast
▁elu
▁reti
▁ganglionic
▁thromboses
ceived
▁esophageal
reement
▁levamisole
kinase
olam
▁perif
uebec
tise
▁parie
▁phosphate
▁0.50
▁Increases
▁secretagog
▁gloves
polyacrylamide
▁worsening
▁visualization
▁cloned
▁affec
▁Partial
▁1989.
orec
ture
umping
▁differentially
2%)
rosine
americ
▁infective
▁ulcerative
▁72-
grams
attern
▁reticulocyte
▁abbreviated
▁microns
▁amenorrhea
▁0.98
▁epitope
▁subjective
-1.7
▁jejun
▁morphologically
iparous
▁osteoc
-10
▁proes
▁relieved
▁retinopathy
▁Symptom
▁113
retic
atibility
▁lineage
▁GTP
▁Organization
xin
▁Taken
▁subclinical
▁(0%
▁0.05)
▁endemic
▁sedim
acin
rendipine
▁insignificant
.3.
omical
▁amiloride
▁genotypes
▁inactivation
activation
▁collec
▁immunoassay
▁1
vaginal
▁GA
abdominal
▁articular
ifferentiation
▁synthetase
▁creatinine
notic
▁linoleic
▁93%
▁duplication
6).
▁Prevalence
▁oxy
▁sarcolem
▁0.025
▁reflex
▁reentr
arean
93
▁acrome
quid
▁(5.3
acial
adrenoceptors
icacy
▁cholesteryl
▁deprived
ogaster
▁disturbance
azem
etirizine
posure
▁heme
▁proteases
▁carbachol
▁dentate
▁oligodend
▁3.8
▁Gynec
▁panc
▁resolving
▁restenosis
▁amyloid
▁intakes
ncy
▁(-)
▁swelling
▁canc
▁Few
▁oestradiol
istal
▁methylation
▁resultant
quam
▁biases
▁Tric
▁superim
▁Animals
eight
ionized
▁dilated
anking
▁sensitizer
▁parenteral
tructed
▁infrequ
▁saphenous
▁Tox
▁levodopa
▁lumb
▁capsular
7).
▁infil
▁regar
▁Caucas
▁axonal
▁endurance
ellae
7)
▁nasopharynx
▁acidification
▁Biol
▁59
anthrene
▁islets
▁gonad
▁foods
▁microtubule
▁sore
▁furthermore
▁adrenocortic
▁slopes
▁200,000
▁ery
▁assayed
▁midline
▁mitosis
▁pell
quamous
▁benz
▁clearance
▁determinations
4)
-80
▁168
ALT
▁anion
luent
▁porcine
▁glucosamine
ipramine
lofen
dii
tic
▁confounders
▁chorio
▁tumorigen
-2
▁cereal
▁0.51
▁10(-9)
▁electrical
existing
planchnic
▁(32
hexyl
fentanil
▁potenti
▁lith
▁278
▁freeze
conventional
▁disrup
▁cyan
▁rhesus
▁beef
▁vicinity
iomas
▁(36%)
▁rGH
▁congestion
acylglycerol
▁disulfide
▁schist
▁leaflet
▁schedules
▁stu
otting
▁prostaglandin
uated
▁colloid
athioprine
61
▁gluten
▁(1989)
▁Infusion
▁3.5
chol
kD
ioma
▁nore
▁sustain
▁abd
atrial
▁dissoci
▁cartilage
▁spectro
udine
▁fores
thickness
tropin
ecre
▁delaying
▁submaximal
oxicillin
▁hens
▁periv
▁dioxide
▁Repe
▁evoke
excluding
▁carbohydrate
▁lysozyme
▁divertic
▁amlodipine
▁80%.
sulfate
ensitivity
▁membranous
▁enhance
▁NH
▁hepat
▁Secondary
IH
▁derangement
protein
romised
olization
▁fetal
▁Seventeen
lox
-1).
atening
dUrd
▁malaria
ancies
▁cream
▁unco
▁tauro
▁denaturation
▁ventricle
▁chemistry
▁Prospective
▁steroid
imination
▁relieving
olecular
▁bioassay
▁epidemiologic
aceous
▁quantit
▁congestive
tionally
lood
chlo
▁70.
▁stere
▁incidence
▁5)
▁50
▁caregivers
lli
myrist
ituit
▁spectroscopy
▁receptive
▁morphology
▁hyperactivity
▁neph
▁recurrent
▁metered
physiological
▁eluted
▁germinal
lymphocyte
▁recombinant
▁(48
colem
6;
▁adolescent
▁23%
igarette
▁Examin
▁resusc
▁oncogenes
▁arthritis
▁137
▁collab
▁Caucasians
▁discharge
▁mIU
▁parenchymal
▁waveform
VAS
▁cleaved
▁quinine
dle
▁myristate
injury
synaptic
▁prazosin
▁Gluc
▁microbiologic
Ba
▁durable
▁rotational
▁100,000
tical
▁injuries
cephalus
responding
▁ECG
▁doxycycline
HRP
▁PU
itidine
▁responsiveness
aryn
ropo
▁bronchoalveolar
▁1(
▁bacteriophage
identified
▁anionic
odone
▁tooth
▁nosocomial
▁Optimal
opr
opoly
▁influences
▁parotid
▁metast
izine
olase
tur
▁conduc
▁vacuoles
▁resour
▁comprehensive
▁alumin
glutamate
▁disclosed
▁reversed
▁comparisons
gestational
▁testis
▁occurrences
imentin
ondon
▁(-0.
▁nmol
▁maintaining
▁miti
-0
▁mg
▁crystals
▁adrenergic
obase
oxygenase
▁umb
generation
▁spon
▁rRNA
▁ana
90)
▁-0.4
oconazole
oncogene
Km
vitamin
▁macromolec
▁exocytosis
uracy
▁pallid
▁prednisone
/3
endix
▁phosphoinositi
hydrox
atched
BT
▁eccentric
tality
▁pressures
aturated
▁hemolytic
▁agglutination
▁metabol
▁contamin
othione
▁relaxations
▁1988
▁regen
▁stimulating
▁transferrin
▁76%
opes
▁atelectasis
▁Identif
▁plasm
-31
▁(0
▁sarcolemmal
.5
yelinated
▁0.34
▁Braz
▁duplic
▁underestim
▁MRF
▁germin
▁antec
agonist
▁mediast
phospholipid
▁calorie
▁transfection
▁statis
▁deficient
▁reliability
▁gynecological
▁pim
▁messenger
▁structured
▁kain
▁antagonists
125
blinded
▁590
▁asymp
roxic
▁traumatic
phenyl
▁linearly
esophageal
▁exponentially
▁pollicis
▁dipyridamole
▁coincided
▁underst
▁scientif
▁mitotic
blocker
▁11
▁arthro
-17
tif
▁antisera
rectomy
arge
▁osteoporosis
ceptive
▁macros
▁attitudes
▁cataly
▁orthostatic
▁hydrolyzed
▁atopy
▁ipr
▁nulliparous
opharmac
▁13
▁fluoxetine
idin
▁ductal
▁Maximal
▁trich
1);
▁IDDM
atosis
▁neoplas
helix
▁spike
▁functionally
▁EG
othreitol
▁kits
▁electrom
▁Candida
▁cisternae
▁digestive
▁codon
▁urticaria
▁nucleic
enec
▁29
▁pharmac
platin
ysto
▁investigations
▁(33%
uality
-9)
chloro
▁(92
oea
▁gases
▁FGF
aemic
▁puncture
linded
▁24
▁reflux
ausea
omann
▁opi
▁thiop
▁lumbar
▁tetracycline
▁granul
▁solvent
formyl
▁cardiovascular
▁mesen
▁effluent
▁excit
Hyp
-72
subs
▁prevented
▁undiagnosed
60)
▁LT
spar
▁superfusion
▁deficit
▁infertility
lycemic
ontal
▁277
▁hypop
▁2.3
▁HCV
▁amide
▁9.1
▁(7%)
-[
▁TP
▁44
▁cysts
▁specificity
▁MRI
nitine
tochem
/32
▁neoplasm
▁somatosensory
-200
yzed
▁(84
deficiency
▁reoperation
▁0.02).
▁postmenopausal
▁17).
▁uncommon
▁euth
▁euk
▁lae
▁sequel
EDTA
▁efficac
glycerin
sus
▁iatrogenic
▁DEAE
▁simvastatin
arate
▁10.5
▁molecules
▁monkey
▁(-)-
▁prophyl
/1000
erent
▁dosage
▁ureteral
▁plateau
▁1.13
▁suspension
fib
hCG
▁100
▁syngeneic
▁biochemical
▁algor
▁macropha
▁drip
▁Nine
▁expresses
/10
FU
imetry
5);
atible
▁dB
▁injections
▁BCG
aminated
▁adap
▁marginally
ocys
yto
uracil
▁striatum
adap
osol
▁emissions
▁angio
▁respiratory
▁caro
▁gels
▁polyc
▁(1.25
bran
hydryl
▁intra
▁fibronectin
ocrit
(2)
▁consensus
ograft
▁untreated
-19
▁GD
▁1.2
▁capability
▁incompetence
▁occl
oping
/12
▁peripher
▁lamin
▁emin
▁transverse
▁dose
terone
▁142
▁relaxants
▁circulatory
▁perit
mend
▁microb
▁dismutase
.9
▁discontinuing
▁DV
▁explants
▁BN
▁Repeated
vating
odine
▁screening
▁cytoskeleton
▁mutant
▁harmful
▁0.66
▁diary
BH
uptake
▁deline
▁microbi
rectomized
▁illus
▁isotype
▁ankle
igaret
▁AMI
▁0.000
▁yohimbine
▁choro
▁continuously
iotic
▁natri
▁bacilli
iazide
▁rhabdomy
hist
▁incision
▁warts
▁PB
▁ascites
▁amniotic
Sepharose
propanol
4+
▁dosages
▁cement
▁mediastinal
▁pyrid
▁ventric
▁fluctuations
systolic
oblasts
olesterolemia
▁compliance
▁MEDLINE
▁condensed
insensitive
▁jejunal
went
▁0.75
▁venti
▁nucleotides
▁radioimmuno
▁Electro
riages
▁mitogenic
iable
▁prolactin
▁Thoracic
pH
▁hormones
▁holo
dividual
▁LM
ucleotide
containing
▁somata
▁breeding
▁banding
▁Smoking
▁subunits
▁instability
▁prophylactic
▁termed
renal
pended
▁oesophageal
0.4
▁potent
titis
▁fluids
uridine
▁intraoperative
▁lateralis
HSV
▁heterologous
▁sulfon
▁catalyzes
nutrition
▁halved
kinetic
▁smokers
erge
▁vaccinated
▁radios
▁eczema
-35
.1)
▁sedation
ypical
etan
▁refrac
▁99
anesthetized
phil
▁illumination
▁550
▁precipitation
▁conservative
phrag
▁700
▁bypass
▁Randomized
kephal
▁Secretory
▁Haemophilus
ubation
▁FDA
▁ventilator
▁cen
isomerase
▁congenital
▁Lactobacillus
▁physiologic
▁hematuria
▁vasodil
Pu
▁cohort
Gly
dition
▁dexamethasone
utyr
▁rebound
▁1.4%
▁beclomethasone
▁thiazide
farction
conduc
razolam
dered
▁84
▁Comparing
▁abor
▁transients
erebral
aemia
▁hir
▁reperfused
dyn
▁EMA
-33
▁hyperg
▁AIDS
horm
▁GRF
▁recr
▁constituted
ureus
▁electroph
▁dyn
-3
▁333
-13
serine
rospor
▁vascular
▁marginal
thmia
-81
cemic
▁Thyroid
establ
▁1-3
availability
▁thyroglobulin
▁genetically
▁statistically
▁cytosol
▁contracep
▁refusal
▁hypertrophy
dial
▁labelled
▁prel
▁spindle
▁tetra
▁0.56
▁1,3-
erate
▁opiate
sisted
▁GSH
▁(0.3
▁70
▁satur
▁2.7%
▁transcriptase
chers
▁ultrasound
▁renin
▁kine
▁coupled
▁unfol
IgM
▁vegetables
▁inflation
anded
yrox
▁venography
acids
▁couns
▁hepatocyte
▁Serum
▁metals
▁lamb
▁indoor
▁coex
timulus
▁0.001,
▁supr
pli
ocar
▁postulate
▁carbonic
gestation
bilities
odermal
▁dressing
oprostol
overall
▁450
▁noradrenergic
ographically
▁nerve
▁192
▁averaging
▁triazolam
▁Renal
▁cyt
▁minimally
▁126
▁maternal
7]
ifug
▁14%,
▁Framingham
▁estrogenic
▁unilateral
habil
▁reversible
▁(1.4
▁tau
▁retardation
▁proliferating
▁cofactor
ieties
phthal
olestero
▁droplets
ralazine
▁interrup
+]
▁PI
▁mosquit
▁visiting
▁MgATP
▁babies
▁circumferen
▁coordinated
▁termini
xone
oprolol
tructive
▁prolongs
▁GLUT
atriptan
▁90%.
▁concurrently
▁discrep
matic
▁177
▁213
▁glomerul
9/
icine
receptor
▁Exc
▁hydroxyl
graphy
6,000
▁leukotrienes
▁clon
▁fibroblasts
isely
lebsiella
galact
▁bonds
▁benefited
▁Glucose
▁pKa
▁KD
▁enteric
▁menstr
sively
▁BP
▁PTH
keleton
▁transduc
▁histological
▁Inte
idium
hydroxyp
▁rifamp
anoid
graft
▁hybrid
1/
▁EPR
▁relaxation
▁addressing
33
WB
▁Mycobacterium
within
▁1.7%
neumon
▁preliminary
▁serologically
▁hyperpolar
▁dissolution
▁acetaminophen
▁kPa
plied
▁wean
▁supervised
▁dehydrated
alazine
osidase
ophyll
cyclic
▁curric
▁1988,
▁Wound
ungal
▁morphine
roglobulin
iron
▁stratified
ffinities
▁argues
reatine
▁autologous
▁Kine
-67
▁glut
▁depolarization
naud
tural
▁hindlimb
▁biopsied
atoma
▁ruminal
▁secretion
▁DNP
▁Thereafter
thoracic
▁gynec
▁309
▁Phosph
tig
▁soluble
▁characterize
kinje
RIF
▁(10(-6)
▁symmetrical
resolution
▁Patients
▁buffers
▁analges
▁-2
▁myot
▁1986.
▁(3.0
▁9)
▁chorionic
amino
▁depression
▁8644
erents
veness
operative
▁lumin
▁magnocellular
▁survivors
▁phenotyp
▁dementia
▁Sodium
▁surgery
thmias
▁glucocorticoids
uprofen
olysis
ithm
▁dorsal
onephritis
-66
▁classify
▁Sequ
▁15.8
▁appreciable
▁adequ
ologists
▁coagulation
▁1.01
▁.0
▁cytochromes
▁corticos
▁Apparent
▁5.8
functional
▁fertil
000,
▁declines
▁stenting
▁dispersed
7/
▁Diabetic
kely
▁mEq
▁TI
▁aureus
▁triceps
▁arteries
▁hippocampal
▁retina
▁hepatocellular
▁monomers
▁cerebellar
oretical
FN
▁elab
▁269
bladder
armac
▁blot
▁correlated
▁sour
▁HeLa
▁retinal
▁controver
▁libitum
ocine
▁analyses
oactive
opl
▁bipolar
▁ligation
▁traum
▁HBV
▁302
▁(62%)
rosemide
▁tube
▁faecal
▁helic
tein
▁0.72
▁elast
▁Carb
▁NB
proved
▁mono
▁Differen
▁2
▁nominal
▁parox
ogenously
-120
tide
quir
divided
▁Overall
orption
▁deleterious
▁duct
albuminuria
▁FE
▁45
kinson
olipids
▁thal
▁500
▁follicle
▁Cox
▁ketamine
5,000
gressive
▁ABP
emic
ipher
▁129
▁LHRH
▁transcript
▁stressed
▁38%
▁weakness
▁selectivity
keletal
▁iso
▁persisting
▁pools
▁sphinc
-10(
▁strands
▁answ
▁Holter
▁Diagn
▁allografts
ulent
▁potency
▁substantia
▁eug
turb
▁nonf
▁disrupted
▁pregnancy
anad
ioid
mAb
▁enal
▁Thin
▁67%,
▁friction
▁bivariate
choline
clonal
pretreated
▁AU
lactam
▁EGTA
gulatory
▁instillation
teric
enterolog
8),
▁Centers
▁peptid
▁CPR
▁eliminated
▁fati
▁interacting
▁cleft
6/
▁exposures
▁vertebr
eroxidase
▁42
astolic
▁acyl
dibular
▁circadian
CHD
▁hypothermic
▁hepatoma
▁nicotinamide
▁plasmid
▁clinic
tonic
dihyd
othel
▁viscosity
epines
▁3%.
▁ammonium
▁166
▁CAL
mediately
▁nitrate
▁90
▁recordings
▁summarized
▁aort
▁oxid
▁inflamed
▁glutaraldehyde
▁victims
▁liver
▁SKF
Hb
▁targeting
▁streptococcus
▁sple
▁affinities
▁folate
resting
idine
▁Epidemi
▁rehabilitation
▁(1.9
tist
Ds
▁alleles
carbox
pharmac
thio
▁resting
ially
▁cytokeratin
▁mammography
oxia
tamine
▁involvement
76
operidol
▁sarc
19)
▁560
TSH
▁inhaled
ylation
rography
▁reacted
▁recombin
LN
▁titer
▁albumin
▁establishing
▁ori
oxyrib
▁familial
ylchol
vant
▁7%
▁recruitment
▁cycling
(1,
encephal
▁Synthe
1.0
▁flas
▁residues
▁albuterol
▁abl
▁SPL
arental
insulin
truction
▁muta
ognition
illin
▁analgesics
▁bony
▁alleviate
▁clinician
▁vitamins
▁mann
▁voluntary
▁10-
▁14.5
▁butyrate
▁packing
▁embryos
▁radiotherapy
▁peers
▁CHO
tituting
concentration
▁5.7%
▁TC
▁spectrophot
▁orific
epi
▁conserved
▁1-2
▁(16%),
triphosphate
enin
▁subjected
alsy
▁cholesterol
9),
▁phosphatase
ochemically
▁patella
ughter
▁carc
romyces
▁diphosphate
▁developmentally
▁1.46
plasmin
eric
▁apical
clerosis
▁239
atesticular
▁needing
▁3,4-
idney
▁terminus
▁solitary
macrophage
▁ileal
▁chloroquine
HCO
osaminidase
▁prednisolone
ixime
▁myelinated
▁apop
▁Evid
operoxidase
cale
▁isolate
▁polymy
▁ovulated
▁60%
melan
ipid
sizing
▁balloon
icin
▁conductances
nons
▁spermatozoa
igl
globin
▁carvedilol
▁comparable
▁precur
▁physiology
▁nicotinic
▁Recommend
oglob
-800
▁7.5%
▁obstruction
▁mood
▁1.9%
▁STI
▁vesicles
▁(6)
▁dichro
opeptide
conver
▁disability
▁scars
▁Glu
▁postnatal
▁premature
▁0.46
▁0.82
▁logar
tors
▁saline
oplasm
ovulatory
▁SCC
-6.
▁immunologic
ivocal
▁247
▁debr
▁resistances
▁radiographs
chlor
▁Educ
▁phage
▁neonates
▁secretin
▁atres
ETE
▁increasingly
sectional
▁rhinovirus
onate
fusion
▁aro
▁platelet
▁28,
interferon
+,
▁stenoses
ingle
▁imposed
ulting
rates
▁8%
atent
▁prerequisite
73
ogenes
-34
▁myogenic
▁trichloroacetic
▁embolism
▁0.3
55
▁1966
▁7.6
▁ineffective
▁muscul
▁0.01).
▁abduc
adox
▁criterion
▁presenting
▁facilitation
▁secretory
▁manu
▁myocyte
▁eosinophils
▁101
▁substances
▁hypothyroidism
▁phosphor
▁infarction
leural
▁thymidine
▁trimethoprim
▁socioeconomic
olig
▁localization
ondr
▁anomaly
▁reacting
-60
diastolic
▁complaint
▁hospitalized
▁brom
▁topoisomerase
▁203
▁shifted
▁47,
ocytopenia
hydroxylation
▁intravenous
opausal
▁paroxys
alveolar
▁penicillin
numbered
▁excessive
.9%)
sA
▁laevis
otyrosine
philic
11
▁0.17
▁cetirizine
▁palsy
▁sugars
▁-7
▁Sixteen
Ns
▁polyamine
arity
21)
fate
odontic
▁inhib
▁reag
▁phenotype
oracic
ocardial
▁reperto
atrop
tained
▁9
▁nox
▁fourfold
▁immunodef
opamine
▁predicts
fluorouracil
▁rele
.2%
▁crom
▁menopause
▁ecz
mobil
▁heterozygous
▁ammonia
duc
omethacin
▁pacing
▁emo
▁Viral
oreactive
▁chimeric
▁caution
mega
▁experts
,2
▁transducer
▁neutroph
▁purified
▁restoration
lovir
▁thromboemb
▁endos
▁(15%)
64
▁slowed
▁(20%
▁147
saccharide
ycl
▁adi
ropha
▁Recent
rection
ysin
▁80
▁prednis
▁obesity
▁achievement
▁equivocal
▁propagation
▁technologies
▁spleens
▁controversial
▁chl
▁mellitus
▁bifurc
▁compressive
▁Pregn
4%)
▁macromolecules
▁overl
▁Recombinant
▁PHA
▁30%
tenosis
sequent
▁aor
▁63
▁1980
▁eligible
▁ane
▁mononucle
2+,
▁defic
▁rhythm
▁confine
▁tolerance
omatosis
▁endometri
▁Previous
RF
puts
▁malignant
uscular
▁Factors
▁postural
▁ruling
▁autosomal
enal
MV
▁tes
yses
▁9.6
▁94%
▁glia
xime
▁hydrocarbon
▁vein
enzyme
2+]
▁DBA
▁SMR
▁hybridized
thmic
▁Localization
▁deficiencies
▁abbrevi
▁apolipoprotein
hemat
-22
bodies
aminobutyric
frequency
▁serotypes
lining
▁Phase
riamycin
▁accordance
▁haemoglobin
233
▁papill
▁1.00
▁congr
▁emulsion
▁Transient
▁chor
ochrome
▁benzoate
-450
▁blinded
mitter
▁endometrium
▁recycl
▁prepro
▁phenobarbital
▁exert
▁vasculature
osm
▁Hg
otropin
uretics
▁crossover
13
▁rats
Glu
hesus
▁healthy
▁[32
itus
98
▁melan
▁twins
▁natriuretic
▁gastrin
▁EPO
▁7,
▁COOH
▁freezing
etine
▁journals
▁flavin
▁Recovery
trin
▁retrovirus
▁NGF
▁lapa
▁CaM
odend
▁Schwann
▁PT
▁phosphatidyle
collagen
tituted
asalazine
▁acuity
7-
▁splic
▁deple
▁Surprisingly
▁296
▁irrespective
▁pups
▁aromatic
▁malarial
abbit
olpidem
▁defibr
▁(2,
junctional
▁potentiated
▁demonstrating
▁256
▁(197
osac
▁HbA
▁characteris
▁defec
▁psoriasis
▁remn
▁electrocardi
tagland
▁(1%)
▁CGRP
ntolamine
▁reviewing
▁(29
▁68,
▁CSA
▁advances
ophys
▁5.4
orporeal
▁carcinogenic
▁archite
▁limbic
/10(
▁validity
▁granulosa
▁shear
▁6.7%
▁(94
▁secretions
▁proton
▁resuscitation
▁dehiscence
▁constructs
▁warrant
▁outlined
glutin
rief
▁malnutrition
▁glycolysis
physeal
▁tomography
hydroxys
▁fivefold
amicin
plenic
immunized
translational
ecan
▁18,
▁atria
ograms
▁valine
ureas
iatric
▁RAS
▁ulc
▁hered
▁intest
oconjug
▁lactic
▁chond
inatal
omotor
▁0.35
▁(8%
oxone
▁1/2
6.
▁anatomical
adecan
▁weaker
tensive
ocul
▁tumors
▁sonography
▁effec
oceptor
▁decade
▁atopic
-18
▁RV
Ci
▁IgM
▁analgesia
retest
▁AFP
ittac
▁Elevated
otrophs
▁0.6
▁diclofenac
orating
oblastic
▁thrombi
ffec
▁incomp
▁Thy
hydr
▁PMNs
▁excreted
▁ureter
▁thrombo
▁mediated
▁dyst
planch
lamydia
▁1.2%
▁cytoplasm
▁inducing
ygen
kinesia
▁regain
virus
▁topo
▁fibrin
▁Neurop
▁0.001)
▁ruptured
blastine
antagon
PAC
▁Bec
oids
▁2.0
▁neurotensin
▁AO
▁myeloma
rocal
itating
apid
yel
orphin
▁(5%)
▁Bacter
▁determining
-27
adrenoceptor
▁theta
/8
▁0
oscop
▁specialized
▁elucidate
▁peroxide
AO
▁seas
5%,
SAID
▁Prel
▁(10
partate
▁20%,
▁activates
▁multicenter
▁deferen
▁manufac
oscopy
▁nystatin
ofluores
▁antimicrobial
-25
0.00
▁leukemias
aryl
▁(24%)
▁0%,
organisms
ilic
teroid
▁300-
▁savings
arrh
ranged
emak
▁uro
▁escal
▁Maximum
▁Survival
▁recor
▁antidepressants
▁171
▁adver
heres
▁antioxidants
▁surge
phosphorylation
omere
▁recipient
▁HL
▁4.3%
▁pyramidal
▁meal
▁5.6
▁hepatocytes
▁corneal
▁bundles
▁adhered
▁Experimental
▁actin
tact
▁oval
▁hsp
▁Intravenous
▁ribonucle
isters
▁2/
▁disposable
.7
▁asymptomatic
▁phosph
▁allergen
▁epithelial
▁6.0
▁aerobic
▁74
▁practitioners
pired
gement
▁phenylalanine
▁dyslipid
▁antagon
rotid
▁latencies
ymp
▁pars
▁zinc
▁78
▁6),
▁0.15
▁ongoing
▁accessibility
▁tape
▁pyruvate
▁subpopulations
▁0.12
tonin
▁Peripheral
▁1000
/4
▁phenyl
ifers
▁ulnar
▁typh
adone
▁covariates
oxybenz
▁collaterals
oreductase
24
CAH
▁CAD
▁intact
▁absorp
▁subtypes
plantable
▁pea
▁splenic
4]
▁attending
▁atheros
casein
▁Eff
▁substantially
▁5-10
▁neon
bacco
▁infrequently
▁reciprocal
atified
▁sulfonylurea
▁histology
▁vesicular
▁naproxen
orpor
▁terminals
▁CM
atab
▁cats
▁orthoped
▁7.0
▁Forty
▁(3)
▁Calc
▁analogs
▁heterodim
▁papillomavirus
▁abscesses
▁chemotaxis
▁corticotropin
endothelial
ifedipine
▁ferrous
▁(125
onam
▁fluorescein
▁5.0
▁cGMP
Pen
▁seiz
BAL
▁emphyse
▁phenytoin
pendence
▁suspected
▁1983
ygo
▁suppres
bular
▁(4.8
▁respec
▁(54
▁compounds
▁cG
concentr
▁21-
▁Glut
▁prevalent
▁carcinoma
▁3)
▁0.54
▁pathogenesis
▁[3
facturing
▁2-
▁53%
▁postre
▁adequately
▁111
▁weaning
▁10.4
▁placement
placebo
▁HAM
▁bedtime
elong
erose
echanical
ocalization
butyrate
▁fru
▁donor
▁-10
▁striatal
▁contradictory
ropion
▁susceptibility
▁lability
-85%
utaneously
▁titres
▁warran
ervative
itively
▁bic
▁probes
▁prenatal
1.2
▁Chlamydia
▁ultrasonography
ovascular
▁normotensive
▁describ
▁emotions
▁heterogeneity
▁72
▁inver
His
▁microsomes
▁lysosomal
▁subclasses
wk
▁ipsilateral
▁82%
▁quinidine
▁inad
▁14,
▁hemodynamics
▁71
meth
▁attemp
5,
▁scin
▁1,000
oselective
▁immersion
▁worsen
zine
▁apoA
▁calf
(4
gian
▁phyl
orepinephrine
velength
▁thyroid
plast
ophores
▁nonoperative
▁retrograde
▁-0.3
▁fallopian
▁maximally
35
▁correlates
▁Specificity
▁cephalosporins
▁Responses
tris
▁cava
▁Surgical
▁urea
▁utilizing
▁0.9
▁0.91
vein
▁pI
▁CIN
taken
▁benzo
▁1,25
▁naf
▁strengthening
▁synapses
▁nausea
antoin
trate
▁counterparts
▁exudative
tene
scheduled
ymal
robial
▁dihyd
ocon
erop
▁demonstrates
▁Radi
athiop
▁smoking
▁10%,
▁49,
▁0.94
▁uncoup
oblastoma
iant
▁Dental
▁interventional
▁angina
ectin
▁tumor
72
▁urography
▁comparative
EPO
▁carrier
sors
▁anaerob
ffeine
▁xyl
▁cotransport
▁endocrine
CoA
omagn
▁97%
▁cephal
▁LC
▁rigorous
▁adhering
idic
untary
▁Tiss
▁hypog
ositi
▁yearly
▁hamster
▁Combinations
▁gestation
▁upstream
▁prerequ
▁filtration
bruary
lamin
▁rup
apeptide
▁Krebs
▁contraceptives
▁tow
olip
nitro
▁intram
coated
▁ADP
mide
▁inhibitors
timulation
▁solute
oxyp
amus
▁3.4
▁inferred
▁categorized
Bay
▁postprandial
ocyanate
▁kHz
▁undertaken
▁1990,
▁progenitors
osmolar
▁exaggerated
tec
subunit
placement
▁mineral
▁114
▁digesti
▁anis
uspid
portant
vaccinated
▁179
▁monocytes
▁infarctions
▁loos
crib
▁HBsAg
eclampsia
▁anaerobic
▁constellation
ocarb
▁neurological
▁interim
▁improving
▁reper
▁myrist
▁gelatin
upus
▁methylene
▁recessive
conversion
contrast
biotic
▁induces
▁jaund
▁Lipid
ynaptic
adequ
ereb
flurane
▁50,000
resis
▁abruptly
▁cholinergic
▁190
▁182
▁abortion
▁RB
tailed
▁intensely
phrine
xyl
▁indicative
▁segregation
Gy
▁hemorrhage
▁predisposition
tative
▁rehabil
▁stratification
▁75-
▁Diagnostic
▁chemotactic
▁Concomitant
cys
▁serolog
▁estradiol
95
▁regis
▁Adequate
hexidine
▁sarcoid
▁helical
▁0.8%
▁ketoacid
▁inversion
ardized
▁90-
▁sampled
▁5.5%
▁2,4-
▁Eighty
▁DHA
▁relapsed
.3
ycardia
GnRH
▁metabolic
32
00)
▁proline
AIDS
▁arter
▁lesions
▁nights
▁(1),
osum
▁ison
▁Glc
▁septal
▁yielded
▁(40
▁somatostatin
▁tendencies
▁occupancy
▁inspiratory
7%
aminase
▁356
▁evaluable
itance
▁CSF
acquired
▁insec
▁Physical
▁trends
fetoprotein
▁lipoproteins
aced
▁hypothetical
▁scrotal
regulation
▁macrophages
azoline
▁keratinocytes
▁Magnetic
▁brevis
▁Subsequent
▁maneu
▁58%
▁tolerability
▁immunohist
▁reperfusion
▁overlapping
itability
EDL
edded
poor
▁retard
29
▁0.25
DHT
▁297
apeutic
▁ionophore
▁cataract
▁heterogene
▁unexplained
queous
acet
junction
ilibr
anavalin
▁0.06
▁impair
verages
▁planar
.10
mum
▁Prol
enteritis
lobin
▁249
▁mercury
▁ethanol
▁visceral
▁eradication
▁strategies
▁degradation
▁hydrolysate
▁0.28
▁stools
▁granuloma
-7,
▁aflatoxin
▁233
▁singlet
▁allograft
▁immunoblotting
ygotes
▁contrac
amines
▁90.
▁hydrop
▁destro
▁53
achn
▁leukemic
▁hyperther
confirmed
▁PEF
sial
▁premise
▁aneurysm
▁compromise
atoxin
ANP
odialysis
ocyst
olved
▁145
▁Alz
▁dominance
amycin
illar
▁heparin
▁carboxylase
▁lep
▁dendrites
▁reproductive
▁pound
▁salbutamol
uantitative
chym
anat
▁traits
▁PRP
Ra
▁amo
▁bulb
▁carb
▁siblings
▁obstetric
▁irreversibly
▁198
▁fascic
▁distal
+-
▁4.5%
▁14.
▁wrist
ubiqu
nithine
itonin
▁iodide
heric
lusion
▁antagonistic
-40%
▁consis
essive
viral
Lys
bA
▁normalization
tronic
▁mutagenesis
▁adherent
urate
electro
▁9.9
▁fron
▁intrapartum
fatal
accharides
▁biologic
▁pefloxacin
▁Feeding
incidence
▁polys
diss
-7.
▁insoluble
▁lymphoblastoid
kic
▁homogenates
orough
osom
▁sten
▁emesis
Dawley
▁commiss
▁(1.0
▁hydrogen
▁benzoyl
apride
▁warr
▁-20
(-)-
▁codeine
▁inhibiting
fluores
▁6).
idity
▁immunobl
▁undere
▁surgeries
▁28%,
carboxy
▁readings
▁artery
▁218
▁arrhythmia
ovalent
▁phenol
zoster
robenz
rangement
▁psychiatric
▁agar
monstr
▁neuroleptic
▁rhy
tomycin
▁reinforcement
openhagen
▁reactivation
tage
wenty
▁dib
▁cuff
▁beliefs
▁aldehyde
▁dele
itriptyline
▁serotoninergic
▁HP
phyl
▁velocities
▁presynaptic
▁mutagenic
▁innervated
▁neocortex
▁1.30
▁ANP
indings
▁1.3-
▁Mediterranean
▁Copenhagen
otone
▁spontaneous
75
▁valproic
▁27%
▁0.62
oung
-21
▁steers
methylation
▁homogene
▁vaccine
▁Injection
▁cholinesterase
▁micros
▁acidic
gradely
▁Older
osine
▁hygiene
26
resc
▁mim
▁appropriately
▁alcoh
▁peroxis
▁mRNA
▁hysterectomy
▁calcitonin
▁52%,
▁(89%)
yanodine
▁Grade
▁unwanted
▁3'-
▁nonc
▁Lp
▁poliovirus
sts
▁anore
▁localized
osclerotic
▁multic
▁104
strual
cyte
▁equine
▁0.001).
ichia
▁wee
▁193
▁traction
▁mediator
▁thio
onset
▁PBL
ophasic
▁prostagland
▁81
▁bacterium
▁ischemic
▁3.
▁Geor
▁Extensive
▁Neither
▁Gonad
▁audit
▁13,
▁720
▁concer
▁epidermis
▁confers
▁cation
▁mA
▁tablet
osyn
▁fluoro
▁prescriptions
▁acupuncture
vian
52
▁phyto
▁nurses
▁transfusions
▁oleate
opulmonary
▁erythropo
▁malignancies
▁VL
▁differed
▁(3.8
otent
mineral
▁intrad
specified
▁chromatographic
resistance
enone
▁Kd
▁protocols
▁initiating
▁(75
▁3.2
sar
acement
▁unaffected
▁muc
▁PCI
oratory
2,
▁monolayer
▁immunocyt
▁NG
▁paradox
▁exhaus
▁intrav
2+.
PGF
:0
hop
▁ate
▁pipette
▁lysed
ischemic
eak
▁detecting
▁migraine
▁119
Mg
opyran
omatous
▁NN
▁cystic
▁vicin
.2,
▁fractional
▁56%,
hemoglobin
phosphate
▁relied
▁MN
▁weighted
-3,
PSP
unctional
2+)
▁Enalapril
▁cerevis
▁1970
▁dextran
▁RF
▁islet
▁paralle
▁toxin
ullary
etween
▁pollic
▁manifested
▁endoscopic
▁TNF
▁1.21
▁excessively
ogl
▁implicated
oprec
coag
▁MBP
▁quanti
▁subgroups
epid
▁neuropil
▁omega
waves
▁pall
urea
nRH
▁intraperitoneal
▁pancreatitis
ygdal
▁measles
▁3/
onit
▁colonic
▁alkal
reported
▁predictors
▁autoantibody
mL
occal
▁diarr
▁Histological
▁corticosteroid
8%)
▁substrate
▁cramp
asthmatic
-88
▁excitation
▁(1000
▁murmur
▁introns
uresis
▁immunore
▁lipase
▁oxalate
▁bacteria
cyst
▁ewes
000.
▁vaccination
▁pyraz
▁exogenous
BMI
ocarcin
▁glutamic
▁Arterial
angiotensin
▁Amino
chase
▁somatic
odies
▁crest
▁childhood
activities
▁apomorphine
▁prescription
helial
▁dehydro
▁correspon
▁4-5
trone
imethyl
▁unpredictable
sives
▁xylitol
▁antihist
▁transmitted
▁27,
9;
-1.6
linic
▁TA
▁9.3
▁intim
-90%
▁valpro
▁binds
omegalovirus
▁mandibular
▁(97
activating
▁enrich
adecanoyl
▁HPV
▁mandatory
▁astrocytes
▁etretinate
MH
traumatic
chid
rague
▁potentials
▁recurred
aise
▁10(6)
LISA
▁spiral
▁polyaden
▁flunarizine
ipar
▁replicate
initiated
▁clustered
▁arabin
▁DG
/30
▁metoclopramide
▁oestrogen
▁trout
-600
▁Phen
▁Tumor
-38
▁inducers
▁enteral
ophren
anis
glycoprotein
ecal
▁objec
▁31%
24)
odal
arbox
▁cortex
▁sexually
▁nadir
lyte
▁acetate
▁skinfold
▁collecting
▁transection
rozen
▁neurop
roids
▁deficiency
▁developmental
iterranean
eminal
▁bradyc
▁(6-
▁indo
▁tendency
aortic
▁outbreaks
▁HB
arcoma
▁281
▁ampicillin
scherichia
▁durations
onvul
injection
▁regulation
▁TG
gm
antial
ylamide
abain
▁muscle
▁(26
oprol
▁FMLP
▁posttreatment
▁Ace
▁decayed
▁(17
othelial
▁AII
dotoxin
▁sepsis
▁exploration
▁RNA
▁(14
oventricular
▁(16%)
▁pharmacologic
▁lec
tral
.6%
▁ribosome
lude
▁diminished
▁37.5
▁4.0%
▁swim
galy
▁specificities
▁(70
▁oxygenation
▁resul
classified
▁42%
▁fracture
▁unusually
ofil
inemic
▁blotting
▁ald
▁thermodynamic
▁interpretations
▁(200
▁excre
osclerosis
umetanide
eliac
0%)
▁doubling
greater
▁pituitary
-100%
▁histopath
platelet
▁cooper
▁cooperative
▁infiltrates
ejection
▁2.3%
▁stimulated
▁laminae
▁Nit
▁dilatation
-100
▁bovine
tiazem
▁thermo
▁VV
-43
▁autoimmune
▁pem
thysm
▁LMW
▁induration
▁kary
▁cuts
fiber
▁melanomas
▁modif
▁antich
▁10(3)
perature
▁Consequently
▁0.90
▁hyperb
/7
umerous
ifferenti
▁spermidine
▁Immun
physe
▁kinases
▁polymers
▁biop
▁monol
▁tach
▁polymorph
ercul
▁throat
▁abilities
pregn
▁blastoc
▁3.8%
▁89
flamm
▁assessment
-1)
▁tubercul
14.
▁naive
▁PLC
▁199
▁HBs
ocycline
▁accumulation
▁lipoxygenase
▁PID
▁(2%
oronary
▁.1
▁preventive
▁ET
▁promotes
serum
▁anxio
promoting
tyl
-201
UV
▁Recep
Ti
acked
▁inositol
idovudine
▁calor
▁Melan
▁trials
▁mycoplasma
▁proce
thase
▁nascent
Ace
yroxine
▁80%,
cine
hydrop
▁twofold
▁cerebral
▁epinephrine
▁microsp
ustained
regulated
▁repression
▁phagocytes
▁patches
plemented
▁diuretics
▁ganglion
▁TNP
▁12.5
▁incis
▁groove
▁Membrane
▁inhibit
▁cmH
▁leprosy
▁adjusted
▁deterioration
0.1
▁intraper
▁cations
▁Fraction
▁inflamm
▁108
PEG
ximide
▁centrally
▁atyp
convul
ociation
loxacin
labeling
▁afferents
▁inbred
▁Compared
MDA
▁ultras
▁cromoglycate
roblasts
pendym
▁tricyclic
▁10%.
▁intensive
▁glycosylation
▁haemorrh
TCA
▁fetuses
▁0.6%
ADA
gated
▁1.10
/18
▁phenotypic
45
▁behavioural
▁prosthetic
▁origins
57
mannose
▁(400
uoden
▁Consistent
▁ingestion
▁DBP
▁fulminant
-6,
▁(198
▁endoscop
▁Benz
hentic
18)
▁pathophysiology
▁wors
▁calculi
▁organs
▁NI
▁tritiated
thiazide
▁avidin
▁ranged
cycl
▁4.8%
▁prolongation
▁2-4
▁confirmation
.2%)
jected
▁lessened
▁incid
weighted
▁observational
▁proteins
▁wavelength
rological
Ls
uccin
tiguous
▁oocyte
▁recur
28
▁factorial
▁saphen
▁epidemi
▁(10(-5)
▁photoreceptor
▁chromium
▁stimulants
▁overestimate
▁augmented
.5%)
roline
▁pronounced
▁multiv
▁4.3
11.
terologous
▁intran
▁CVD
▁EB
apamil
▁2,3-
PLC
▁GF
surgical
▁hemodynamic
▁previ
▁FV
▁ranging
▁jugular
▁Adherence
▁suckling
▁1.35
25
▁intrinsic
▁exhibits
▁Screening
3).
▁vaccinia
▁physiological
▁(45%)
▁histochemical
▁purity
rous
▁gastritis
SMC
▁stent
▁propranolol
TCR
▁pharmacists
opped
▁appetite
Fs
▁GABAergic
▁exhibit
▁0.45
▁Staphyloc
olesterole
OHDA
▁frog
▁markedly
differentiated
▁corpuscular
acetate
▁LV
▁enzym
▁pacemaker
idase
ocrine
lora
▁microgram
otrophic
▁Nuclear
▁rigorously
▁Suc
paired
▁saliv
PDE
▁notic
▁100%
etidine
afe
▁modestly
omain
▁excretory
▁trigeminal
▁physician
▁tuber
▁(0.1
gulation
tryptophan
▁cholecystectomy
▁isolates
▁recons
tinent
ilin
▁241
▁chol
▁dams
oste
▁nitrendipine
▁17.3
propyl
▁classified
▁vomiting
-64
▁eminence
▁83
▁asymmetric
▁elimination
▁hyperp
▁(5.1
ventricular
▁phosphorus
▁mimicked
▁affinity
▁meals
ichloro
crist
omod
▁electrochemical
▁8.3%
acr
▁9.
▁cytosolic
▁kerat
▁1987,
▁spp
▁succes
ostat
adren
▁Drug
indolol
▁dispersion
gesic
▁presumed
▁TSH
800
▁7.2%
RNP
▁7.5
▁strom
ysts
NK
▁reactions
epsia
▁prolif
ritin
▁aldosterone
▁antagonize
▁dP
▁contiguous
▁9.5
▁analgesic
▁oximetry
▁11.8
pirin
tually
▁Sensitivity
▁PaCO
▁beds
▁14.8
uminum
▁empirical
▁numb
▁mutated
osporin
▁6
osacral
genital
▁1.48
▁0.26
▁3.3
▁embol
▁coenzyme
ocortic
▁revised
▁physiotherapy
▁irrever
▁postinjection
▁vigorous
▁sodium
▁33
▁inhibits
▁diabetes
mittent
▁(34
▁sulfur
▁adults
ogel
▁hazard
obacterium
▁survived
verbal
▁Initi
▁antithrombin
benefit
mostly
▁mU
▁laser
▁vesicle
6)
andida
2318
ovol
▁0.42
▁stom
▁glucose
▁antim
▁purification
iliac
omegaly
▁envelop
titial
▁quantification
.8%)
choles
▁noc
▁transcrip
▁ANG
▁tendon
▁supplemental
-0.5
increased
▁blin
CAM
phosphor
andard
yocardial
ofl
▁(19
LH
▁bouts
othalamic
▁spreading
▁2.5
▁intrauterine
:30
▁assessing
▁82%,
▁dextrose
mber
▁44%
▁prox
▁fatty
ulcer
▁Cyt
▁cytosine
▁nonspecific
▁accounted
▁emotional
▁0.01,
NIH
▁Pt
▁165
▁264
pyr
rescine
BW
achnoid
kephalin
-99
▁414
▁discern
▁quoti
▁surveyed
▁400
▁eryth
▁congen
▁experim
▁cerebellum
▁extrap
▁malignancy
▁0.43
▁0.40
▁confirmatory
▁25.3
4.1
eptic
hep
▁altering
▁embryonic
▁133
▁anoxia
alic
▁CK
opause
▁clind
ulose
▁carbam
▁prostate
attered
▁ontogeny
etoprotein
HM
▁ketoacidosis
▁laparo
▁MAP
▁limbs
▁conjugation
▁polarized
sulph
:3
▁awake
▁(8%)
▁doctors
▁condyl
▁Newly
▁postoperatively
tial
▁macroscopic
▁melanoma
unsaturated
▁cellulose
▁elastin
▁Chlamyd
▁dobut
▁ABR
▁uni
acute
▁succin
▁suspicion
cepti
▁leukaemia
▁migrated
▁nonsmoking
▁diz
▁emboli
erant
dimethyl
omyel
▁hypothermia
idone
▁glomeruli
ishman
▁roset
▁TK
abilized
▁immunity
atization
▁chemotherapy
-26
▁muscular
yltransferase
▁biliary
▁comprises
▁lipophilic
▁CBA
▁resin
▁NMDA
▁thromboxane
fluo
tomies
▁Neuro
▁220
▁349
▁33%
MHC
▁98%
osylated
tium
▁Oral
▁Parameters
▁whee
▁immature
degree
▁spectrin
▁Systematic
esarean
▁lowering
▁attrib
strain
▁Individual
▁cytoch
▁catar
proline
▁(+)
Gs
▁quantitate
▁Compound
▁TS
▁transporter
▁emerg
▁validated
▁diets
▁guan
PSPs
ostatic
▁genes
▁antral
▁originate
▁76
ohyd
olipoprotein
▁1.2,
▁methodology
omorphine
dR
▁presum
▁43,
gestrel
▁feasibility
▁440
▁thrombus
ococcus
hydropyridine
▁Ery
▁reinforce
▁29%
ropyl
oplasty
ditions
dural
▁staphyloc
▁effectors
▁261
▁elbow
▁Pb
▁utilize
▁endot
▁conditioned
▁reiter
▁viable
▁0.93
▁spectra
▁1.5-
▁SOD
▁3.0
oyl
aryng
▁RS
charged
▁0,
▁haemat
▁endotoxin
▁1.7
▁follicular
▁critically
▁muscles
▁mesenchym
▁22
▁Apgar
▁analogue
▁polymorphism
▁thyrotropin
▁unsuccessful
▁epicardial
▁negatively
(7
abin
▁ascertain
▁metastatic
▁adenylate
▁Tum
oxyl
▁sulfhydryl
▁scans
inally
Asp
-7
fractions
▁atm
▁cleavage
▁dissociation
lipid
▁cylinder
weekly
▁transthoracic
▁Hypertension
▁benign
0%,
▁preservation
irubin
▁12.
▁antif
▁verification
IAA
▁microtubules
▁backgrounds
▁Combin
▁vaccines
specificity
thin
▁hybridization
0).
▁detectable
▁endometr
nary
toxicity
▁innerv
ytes
arthritis
tence
alues
▁microorganisms
rosis
16
▁326
▁varicella
▁tetr
▁ingredients
▁overlapped
▁lavage
▁sclerosis
oscopic
-12
▁surfactant
▁carbohydrates
▁grafts
▁Trp
-8-
▁PP
iplinary
iciently
isqu
49
▁hemisp
3,000
▁conformational
▁bac
▁nontoxic
eclamp
▁mannitol
▁adenovirus
-70%
▁Insulin
▁ultrastructure
nisone
▁Effic
▁[1
00
▁enrollment
rologic
▁restr
pecial
▁fold
orectal
▁covari
▁323
▁sickness
▁heterozygotes
▁insurance
PAF
▁RL
▁electrolytes
▁surgical
▁Recently
▁(63
vements
▁sca
▁parenchyma
▁sorb
▁cathepsin
HB
arynx
SEM
▁erythrocytes
▁defecation
▁lymphomas
ferrin
▁Golgi
▁vacu
heal
bumin
▁epidemiology
trast
▁SIDS
▁curet
were
▁adipos
▁demonstrable
▁58
phied
▁transluminal
havioral
▁prothrombin
lys
▁urethritis
hered
▁releasing
▁(0.4
restricted
▁Atrial
▁atr
▁apnea
▁slices
▁compli
thanolamine
Tx
▁KA
▁inoculation
ithi
▁outgrowth
▁quies
▁senes
1.5
▁juven
chloride
▁antigenic
▁nigra
▁217
pressure
predic
glucose
membrane
▁7)
/90
▁74%
tive
IIb
▁clearances
0.2
▁attenuation
▁MI
.8%
▁trypsin
▁metabolite
▁ech
▁vesic
aldehyde
▁thrombolytic
▁fibrous
▁eradicated
▁PMN
viruses
acies
▁150,
▁mt
-30
lodipine
ocholine
▁5.2%
-4,
▁GABAA
assessed
▁(93
▁expressing
RCA
▁meticulous
published
▁16.1
▁epit
eptides
▁blas
otropic
umptions
▁Eye
ardiac
▁0.77
▁stained
0/
erus
▁targeted
▁palliative
▁IGFBP
eroxide
▁challenged
4).
▁150
▁(60%
▁globular
▁radiography
▁0.41
▁nutrition
▁papilloma
secre
▁swimming
▁metoprolol
▁exag
atology
tryp
▁hazards
▁junctions
▁repetitive
▁restric
▁demographic
▁chori
gents
▁elucidated
▁vancomycin
▁visc
▁mep
uanti
▁rt
▁intraocular
opoiesis
▁jeop
▁decline
arcin
2(+)-
▁gradual
▁dye
▁scle
omerular
▁lambs
osamine
HDL
admill
▁Escherichia
22,
▁coil
plo
carbohydrate
▁212
▁surviving
intestinal
▁hypotensive
▁EcoRI
obutyl
▁(0.8
amn
▁diagnoses
▁interf
▁equilibr
4;
▁inadequately
▁cyanide
predominant
▁catalysis
▁seroton
▁BALB
▁60.
▁MH
▁0.016
unced
▁18
▁headaches
▁perforation
esium
pite
lep
▁73
00,
▁possesses
coupled
▁75
testinal
ostasis
▁strips
▁outflow
▁detec
tically
▁hypercapnia
▁umbilical
▁insufficiency
▁subdivided
otericin
tidine
heavy
▁universally
▁coeruleus
▁tubule
adherent
▁anticoagulant
▁NMR
▁Subjective
▁abscess
oxazol
▁serotype
▁1.5%
▁swallow
▁suppressed
▁exis
▁mediating
affec
▁microtub
▁phagocytic
▁(43
aline
▁connective
fed
▁(0.5
20.
occlusion
▁reactive
rected
tent
▁leu
optic
▁empirically
▁Thir
▁93
alciparum
oclonal
imbr
oarth
-50%
▁intercellular
ipr
▁nephrotic
nate
▁occlusion
▁radionucl
menstrual
▁Estrogen
▁ect
▁lowered
▁Adh
▁0.19
▁verapamil
▁influenza
▁Epidemiological
roxyprogesterone
ylase
▁Pseudomonas
▁Barrett
▁extraction
▁profound
▁indirectly
▁visits
iferous
▁opson
aned
ylate
▁sporadic
▁benzene
CBF
▁mastoid
timate
CCK
▁12)
ystectomy
▁39%,
▁convul
-40
▁activated
ygous
▁bismuth
▁cough
anoids
▁hippocamp
irradiated
oacetic
▁thoracic
▁underestimated
▁presumably
▁spind
▁allevi
▁1600
cotic
NAc
▁cocaine
▁TM
gold
roscopically
otoxin
▁TGF
fluoro
bino
▁pig
▁tibia
▁deoxyribonucle
▁175
▁endonuclease
iodarone
▁interfer
ecutive
▁soleus
▁permeability
▁thorac
▁bilaterally
▁daytime
vival
▁270
▁microbial
▁unrestricted
-75
▁41%
▁0.75,
▁spectrometry
▁cytochalasin
▁preferen
▁synergistically
▁Baseline
▁fluoride
▁Carotid
▁inoculated
(+)
atients
▁contraceptive
▁Antibodies
▁irritable
▁antifungal
▁gilts
▁aggressive
plen
▁CST
▁tubules
▁transformants
▁selectively
converting
▁strain
tiz
trates
▁5%
ucle
itr
▁PGI
▁tuberc
illion
▁(97%)
ductase
450
▁Diets
▁sulbactam
▁cAMP
toph
▁0.87
▁colliculus
▁proges
▁threonine
▁larval
▁hybridomas
▁aggregated
▁steep
▁manganese
▁follic
25).
▁HV
ece
▁mutation
▁Replacement
alc
▁2.2
▁hyal
▁reviewed
▁accounting
▁seronegative
▁4.9
ensitive
▁aggre
▁hydroxy
▁extre
▁fasted
▁bronchodilator
▁nephron
▁hypertrophic
▁(77%)
diol
▁(5.0
▁HCl
tested
3.
▁ligands
▁3.6%
▁glauc
ometrial
▁stren
organic
▁nonin
▁abnormalities
▁hydration
2).
▁clothing
ystokinin
itudinal
▁simplex
▁hypo
▁polycystic
plications
▁organisms
rospinal
▁trophic
▁94
dense
▁4000
▁HI
▁66%
▁regulating
▁monoamine
▁thems
physiologic
▁hematopoietic
▁stool
▁61
▁sunlight
▁Changing
▁propionate
▁Adverse
▁0.44
respective
▁preferentially
▁toxins
▁CAP
▁birthweight
tRNA
iliar
▁invariably
glycerol
▁CAPD
▁lymphocytic
ipro
▁TD
▁occupational
iability
▁methotrexate
eled
▁anhydr
▁1.26
volving
omized
13.
▁37
▁hemopoietic
▁isotonic
cyclo
▁isomer
▁worm
suppres
▁2.9
▁arachidonate
▁asymmetry
▁allelic
olism
▁186
▁Disorders
153
gative
erts
▁tissues
▁cytometry
▁mesang
plasts
▁synapse
▁specialists
odopsin
▁compete
itol
▁mast
▁outlet
▁amygdala
▁hyperox
▁obstetr
▁exagger
▁deliveries
lycemia
▁semen
▁exons
▁verbal
itoneal
surface
▁VT
▁Phe
▁65
▁preschool
affin
▁0.5
▁glutathione
▁neurogenic
igible
alcip
titutes
economic
▁unlabeled
▁palpable
2)
▁Protein
▁hypere
▁sinus
▁permissive
▁1986
30
▁reinfection
:2
▁carcinomas
omatic
icients
cemia
▁nec
▁tamoxifen
▁platinum
▁Retro
.7%
▁prescrib
iodo
▁Purified
osage
effective
▁RU
▁decarbox
▁acinar
▁weighing
▁localize
▁margins
▁triamcinolone
▁triphosphate
ucleated
▁Recurrent
tory
▁causation
nish
▁lymphaden
▁subf
▁managing
▁7.1
▁immunode
▁actuarial
▁CoA
onance
iclovir
▁postsynaptic
▁Together
BV
romes
odiazepine
▁Experim
▁Coronary
▁(250
adapted
▁LFA
GFR
ivariate
▁cere
▁10,
ostigmine
▁globulin
coronary
enol
▁barium
ogenetic
▁solubilized
algia
▁cytology
phorbol
▁nedocromil
▁inversely
▁vasopressin
▁penetration
ordant
opian
iruses
▁acetic
▁mammalian
othi
achial
ocol
unately
▁flap
▁restor
unting
▁neonatal
▁bolus
▁kinetic
bindin
▁deprivation
▁transcription
▁IVC
▁acqui
▁sensitiz
▁0.59
ogenic
▁6.3
▁demyel
▁6%
▁DSM
arachnoid
▁2.5,
▁toxicity
▁targe
▁intercourse
▁56,
▁retarded
exposed
usions
▁hypother
▁dodecyl
▁lactose
▁spines
amet
ranean
+.
▁pregn
▁EIA
▁oral
▁infar
▁depr
▁(1990)
erin
tococcus
▁encouraged
▁incorporation
tices
▁20,
seud
▁forsk
cholate
▁seasonal
▁CHF
▁transplantation
▁brisk
▁LH
▁thigh
▁Urine
▁cephalospor
▁isot
▁ubiquit
▁WK
enzymes
Rs
sant
▁collic
okinase
dIns
EBV
▁globin
emin
▁ICU
▁(84%)
ported
dA
▁afterload
▁140
inol
otriene
▁344
▁monoclonal
▁erythropoietin
▁constriction
▁impaired
▁255
ologous
▁pressor
▁paraffin
▁Klebsiella
▁mortality
2.
▁artic
▁quinacrine
▁ethnic
▁tric
▁investigating
▁displaced
▁Different
▁hemat
▁Intracellular
ustif
▁gyn
together
urys
stolic
▁femur
▁wound
▁154
▁aerosolized
▁simulated
▁Afric
▁fulf
▁580
▁2.
▁4%
▁chemically
▁hypnotic
oporosis
▁Wistar
▁antic
▁biotin
▁130
▁simian
▁infiltration
▁EPSP
▁Authors
perme
acil
▁TCA
▁devoid
▁MV
oxo
▁aggregates
▁stepwise
▁CML
▁identically
▁heparan
odynamic
▁Leuk
▁misoprostol
▁latency
needle
nals
▁disabling
▁castrated
▁84%
RB
▁arrhythm
roin
ffinity
cardi
▁amplified
2'-
▁amitriptyline
▁incubation
cros
orenal
▁10(-8)
plicity
yrid
87
▁(12
▁intravenously
▁ejac
▁caud
▁hybrids
prisingly
▁retinol
licular
▁315
▁reabsorption
LPS
gmental
▁pneumoniae
▁sequenced
▁challenges
2(
ughters
▁fractures
▁cryst
▁Trial
▁0.1%
▁lowers
▁glucocortic
▁Leukotriene
derly
compared
▁(32%)
▁cortic
▁eluc
▁bathing
▁desirable
▁fura
▁11)
atient
▁unex
▁avoiding
▁spores
▁45%
▁monoxide
▁Perc
▁PH
llate
▁(60
▁bleomycin
▁Willebrand
▁antib
▁pathogens
▁RII
▁dysrhythmias
vul
▁replic
▁alkalin
rosal
▁monit
▁coordination
▁elemental
specifically
▁8.5
▁279
▁derm
▁2'-
illus
-1.5
▁1.16
lyc
▁dias
▁Respon
▁lymphocytosis
14
▁8-12
▁6.8
▁questionnaires
▁zym
▁Excluding
▁characterized
▁harb
▁affective
▁deaths
▁hydrophobic
▁depolarizing
▁resected
▁distor
therapy
▁Flu
▁worsened
▁alternating
ocytic
▁47%
bearing
otin
▁subtle
▁PAF
onary
▁0.52
▁acetonide
ipine
tizing
tensin
ews
illaries
roprusside
tigmine
▁digoxin
▁14%
ometr
▁invasiveness
▁10(-3)
▁ovary
▁natriuresis
▁pathogen
sided
tose
▁62
lometh
▁adenocarcinoma
▁127
▁discontinued
▁drain
tized
▁inotropic
▁strep
▁subcutaneously
▁hairs
▁carnitine
▁uridine
▁ELISA
▁promin
▁oxidized
derived
ylic
▁Veter
adine
-4.
▁19.
phetamine
▁Simultaneous
▁PCOS
▁-15
▁cognitive
▁CBF
▁lupus
tocin
▁mitogen
▁Histologic
▁sickle
71
▁psychophysical
kelihood
3-4
▁30
▁arth
▁retroviral
▁dermat
▁anesthe
▁chronotropic
ethylene
▁lasting
DPAT
lysis
▁epsilon
▁glycosylated
osterone
▁Conventional
34
▁lovastatin
▁(80%
▁tracer
▁plantar
plic
▁cotinine
▁mmol
▁BT
▁88%
▁Plasm
methyl
▁hyperpolarizing
▁contracture
thms
ubilized
electron
▁hypoxanthine
▁24%
▁myosin
-70
▁adhesive
▁glucone
stro
▁surrogate
hea
urnal
▁0.18
▁circulating
▁Reduction
▁Sulf
rolateral
testosterone
ields
-78
▁cure
▁0.55
aturity
▁multivariate
odip
▁quotient
pirone
obronchial
▁Langerhans
▁nondis
deple
▁rearranged
lue
▁intrac
romic
▁reactivity
▁antioxidant
▁veterans
▁autocrine
▁biochemically
itic
▁malformations
minis
▁nonselective
▁LMWH
ipril
▁pulse
▁enhancer
▁trypan
▁meningitis
azepam
▁glycol
ogeneic
aryngeal
▁dichroism
▁Lym
▁endocytosis
86
▁polarization
▁neomycin
sensitive
▁ganglia
▁triti
▁intercal
▁4.7
116
▁[14
Barr
▁blots
CSF
VL
modified
▁diuretic
▁psi
oxygenation
▁cephalosporin
▁headache
▁confirming
▁axon
▁reductase
▁descending
▁sero
▁derange
aminoglyc
▁deletions
▁expectancy
▁polymorphisms
18
▁6.7
▁indications
▁consul
▁rejection
▁ascribed
▁extras
vix
performance
▁horm
rhy
▁transcriptional
▁glycine
tomized
acholine
▁entero
▁(7.2
▁baths
▁terat
▁adversely
▁stringent
osal
▁Apo
▁95%,
▁heating
▁periphery
▁gastrocnemius
▁vulnerable
trophy
▁sulfoxide
▁dips
loid
▁abnormally
▁stabilized
opolysaccharide
▁dysfunction
▁resonance
▁1.04
ealand
▁sput
Gl
▁glutamine
oreceptors
31
0,000
▁halothane
▁interfering
.3%)
otopic
▁correspondence
odular
▁60
▁rostr
▁(0.25
rophyll
▁androgens
▁0.08
arent
▁hamsters
▁IAP
▁cocul
ulph
▁casein
▁possessing
▁prophylaxis
icated
osyl
reases
oxetine
▁ASA
▁91%
caro
▁instrum
▁cisapride
phosphatid
NGF
-1.1
otypes
▁Cancer
▁declined
▁reproduc
▁DL
▁pregnancies
41
▁Intensive
▁puberty
▁Stress
▁heterogeneous
finding
▁compe
▁seminiferous
progestin
900
▁0.69
▁shif
▁Additional
▁homogen
▁relating
▁venules
rostagland
▁overview
▁inability
onyl
▁emergence
23
▁(4.0
▁(18%)
▁morphological
▁unfav
▁uncom
▁340
▁intrag
▁15%
▁10.2
▁acyclovir
atoid
▁SHR
▁TT
▁impulses
amagnetic
▁assay
▁furosemide
▁117
▁solubilization
-1.2
▁contraception
▁colpos
▁laminar
isoxazole
▁Americ
anyl
▁Bone
2/
▁micron
▁Cys
▁formaldehyde
▁PPV
yoto
mole
▁systematically
▁possi
▁thrombolysis
▁asymme
▁exhibiting
enil
▁herp
othyroid
▁epitopes
▁modulation
oxane
▁50%.
yro
▁meth
ospecific
tir
▁wash
▁distric
▁1.24
▁yr
▁57
coup
▁parasites
▁dystrophy
▁immobil
▁GS
▁229
▁monkeys
▁contraind
corticosterone
25,
▁schiz
▁tertiary
▁5.2
▁6%)
▁subcellular
▁SPF
Phe
▁uteri
allium
▁theore
pG
ventive
avail
eprazole
▁basal
▁infrequent
▁anxiolytic
exc
▁196
▁ventilated
▁vagotomy
▁gonadal
▁minimize
▁dehyd
▁stratif
topril
-3)
▁dissolved
yster
▁athletes
ococcal
cents
▁cytometric
average
▁ascending
▁irrigation
▁disturbances
▁cyclase
▁problematic
4-2
▁73%
▁Tran
▁plastic
▁methylated
▁luteinizing
▁interacted
-)-
BK
▁identif
vive
▁nuclease
▁tracheal
▁protective
▁dopamine
assium
olamine
restingly
▁dialysate
▁anticoagulation
3),
▁androgenic
schem
▁Preincubation
▁isovol
▁subjec
GABA
-16
romethyl
▁behavi
▁coded
▁72%
