compared
achnoid
bacco
ovalent
▁socioeconomic
▁fecal
▁(10(-6)
26
▁alp
▁ammonia
mortem
▁scle
mined
odular
9).
tified
▁glycolytic
organism
rease
adder
onucl
▁BSA
CRP
ocytosis
▁IBS
ussion
▁uteri
▁Basal
-79
▁defects
▁anesthetized
▁mucos
▁myeloid
▁CML
ochromatosis
inflammatory
▁contractility
▁nuclease
versus
▁600
Glc
tine
▁plateau
▁perfused
ollagen
IIIa
oselective
rospor
▁coincident
▁73%
▁Gonad
osin
Rs
▁cisapride
▁gallst
menopausal
▁posti
ogenously
▁lipid
cyt
perg
uestionnaire
▁analgesia
▁corticosteroid
▁51%
800
methylation
ittac
▁Obs
▁electrophoresis
ineal
▁azathioprine
89
▁arti
▁286
▁TC
1),
lyb
deple
▁ances
▁clus
ometr
▁clonidine
osid
▁breakthrough
▁RBC
▁132
▁(4.0
▁Few
▁transposition
abain
▁RNAs
ints
▁phosphorylated
▁unde
▁Fib
▁sphing
▁notic
advan
▁70%.
▁transformants
▁pyruvate
1).
▁dithiothreitol
▁referrals
▁multin
▁titer
▁appendic
▁cGy
poor
pir
▁Tg
▁hyperpolarizing
▁disulf
conversion
▁principally
▁superoxide
induced
▁hospitalized
▁lesion
▁dermat
▁Vitamin
▁infused
▁hormones
▁atenolol
▁strokes
▁displaying
glycero
▁interpretations
47
ensitized
otrop
▁potentials
▁methimazole
▁ventral
▁55%
▁vaccin
ometrial
endothelial
arone
mentation
atitis
▁.001)
llate
▁leukocytosis
▁follicle
eprazole
▁repres
amethyl
▁bonding
resting
▁fibrin
▁incontinence
▁(20
▁Assess
▁fracture
athione
▁etoposide
▁inactive
ecre
▁residual
carbox
▁twitch
▁amel
RH
▁indis
▁Dex
▁-7
amide
piratory
▁Neu
▁gating
▁foci
▁untrained
▁antitumor
▁5.2
▁calf
▁targe
malignant
▁sensitized
▁oligonucleotide
▁cocaine
1210
▁circumference
▁EMA
molality
▁multic
aminases
▁344
omatosis
▁dentin
serum
methyl
▁203
olarization
▁immobilization
▁Dental
▁homogeneity
▁chemot
▁endot
▁effector
▁calmodulin
rotid
anadate
▁biphasic
amilton
taining
roxen
▁(82
pyrene
▁benzodiazepine
ilution
▁glycolysis
▁abnormally
oscop
▁GABA
▁metaphase
IU
▁Pseud
omain
cein
ocortic
.7%
▁upd
adenosine
restingly
-16
eak
▁achieves
▁examines
29
▁Eighteen
▁74%
▁92
▁28
▁(0.5
▁GABAergic
▁preparations
▁septal
▁lithium
▁diurnal
▁0.01).
vedilol
▁retinal
▁fasted
those
▁sciatic
otox
ubular
▁salbutamol
perfused
▁HSV
▁benign
Cer
▁carbonyl
oides
▁emo
▁116
toph
▁disturbances
▁prostate
diastolic
▁bisoprolol
▁lymphadenopathy
▁quinolones
tagland
keletal
achn
imetidine
▁Gluc
▁amplification
▁resemble
▁Inde
▁denatured
valvular
▁withdrawn
▁eryth
▁PPD
▁0.16
▁distinctly
Kd
esti
▁thermo
▁1.75
▁consequently
▁menopausal
▁antic
▁injur
▁laparotomy
suppres
▁insufficiency
▁transients
▁wk
▁ecz
olem
eric
indol
graphy
enoic
titis
tents
▁supr
kines
▁abolish
▁Cardi
▁constitutes
▁diverged
odend
▁0.5
ologic
.8%)
▁ganglia
▁postulated
▁PMNs
▁intras
▁furosemide
▁diabetic
▁tubercle
▁adi
▁occlusion
▁(1),
lycemia
▁asbest
▁persists
▁(1)
▁exchan
▁undetermined
▁vaccinated
▁micron
▁nude
ulinemia
▁stent
aline
ectom
▁atherosclerosis
▁GS
▁pups
▁disposition
▁Stress
▁(69%)
oretic
▁hypoglycemic
▁colonoscopy
▁SLE
diabetic
ispanic
▁tetr
▁BAL
▁diets
amental
▁exceptionally
▁leukaemia
▁cisplatin
▁pefloxacin
▁Amino
▁9-
▁unaltered
wes
▁Amin
▁socio
1;
▁125
54
▁househ
▁283
tory
▁forskolin
▁25
tact
altered
▁choline
▁71%
erad
▁rup
alveolar
umptions
▁transcript
micro
▁implicated
iary
▁vaginal
▁prescriptions
▁contraceptives
avir
▁categorized
anin
▁epinephrine
osan
MLP
azepam
▁histories
▁1.4%
▁metals
lycer
▁OT
thym
▁Likewise
▁cava
▁52
▁undetected
colem
icin
▁agonists
▁Coronary
▁127
▁palsy
▁pacemak
▁intrav
tilled
▁4.5
tative
vae
▁whee
▁(92
▁46
▁0.10
tectable
▁triglyceride
/10
▁visceral
▁Kupffer
aneously
▁benzyl
▁21.
▁chan
▁parasympathetic
oxal
trous
▁lipoprotein
omann
ylchol
▁5.5
iol
▁sugars
▁consis
plast
▁spp
+,
▁Successful
▁mite
▁quantified
▁depolarizations
dihydroxyvitamin
▁labeling
▁4-5
▁46%
▁adap
▁Tox
ocarcin
▁infarc
▁rodents
onidine
▁0.12
guing
Rb
roglobulin
▁epsilon
▁kinases
ostatic
▁expres
▁duplex
▁anoxic
thio
▁(15
▁nore
▁interacted
arying
▁lamina
▁MMC
▁PTCA
▁superiority
▁oss
welling
hern
obases
SDS
brids
▁streptococcus
ishman
▁Groups
enec
▁TI
pirone
▁exercising
▁preload
▁apical
▁splen
▁msec
▁splenocytes
▁AFP
alsy
olip
▁deline
▁uncoup
▁conduc
▁acetaminophen
formin
▁430
▁viability
dyle
amphetamine
▁1979
▁ovine
▁accumbens
▁attemp
▁transferase
▁41%
▁reproductive
▁(8%)
▁nulliparous
▁centr
▁trig
▁fluctu
▁subcutaneous
uplex
▁urinary
▁(1.2
▁certainty
▁journals
idin
▁repetitive
4,5-
▁evaluable
opoiesis
otrypsin
▁amines
globin
▁HTLV
▁emulsion
▁verapamil
coag
▁choroid
▁antid
/12
▁0.05
▁dex
▁cadmium
antagon
▁disturbed
▁aminoglyc
▁PGE
▁typhimurium
▁Rates
thel
robic
▁skinfold
oreg
▁interim
▁affinity
▁Mycobacterium
atonin
▁Evid
moking
7-
▁microscop
▁susceptibility
lymphocyte
▁symp
▁inappropriate
▁conflicting
▁polysaccharide
▁0.77
▁antiviral
▁mV
▁indicative
▁54%
himbine
▁keratinocytes
▁1%.
▁hepatitis
primed
▁exceeding
▁phenotypic
▁Relative
obase
▁malnutrition
omyosin
▁1.4
▁2.5%
▁obesity
▁compares
mortal
adone
▁1).
▁paroxys
▁biotin
▁hypoglycemia
▁Statistically
4.1
▁melanomas
▁chorio
entanyl
coup
aginal
▁ascertain
Ta
▁pyramidal
▁adulthood
▁5.6%
-2.5
▁palate
▁adherent
▁exud
anate
determined
▁synthetase
▁340
▁antecedent
▁physiological
▁curric
▁perikary
▁phrenic
▁atelectasis
▁Identif
▁embol
esthe
▁VP
secreting
▁isotype
▁0.00
▁VO
▁vasopressin
▁radionuclide
▁verte
tructural
▁amyloid
oglyc
▁GRF
myristate
▁24,
▁diuretic
▁4.2%
▁(16%)
▁shunt
▁tuber
▁68,
▁irradi
▁phenytoin
erb
nisolone
▁Conversely
▁deposited
timum
▁enlargement
arthritis
▁Indi
2]
▁CBF
ecutive
▁cef
▁450
clin
▁Glyc
▁193
00
▁detrimental
▁ischemic
▁hyperlipidemia
▁posttreatment
▁46,
▁(40%
▁acute
▁overestimated
▁instability
▁Graves
▁PLP
▁jejun
odialysis
▁diaz
10),
urium
937
▁monoclonal
▁subclass
▁excretory
▁leukotriene
▁asymmetry
▁tubular
▁fluoroquin
itidine
▁90.
▁tran
▁electrophoretic
▁Asn
▁(41%)
▁Calcium
▁tachy
▁obese
reactive
▁hypotonic
▁guanine
▁seropositive
44,
amethoxazole
tiary
▁recordings
trone
ifferentiated
▁luteinizing
/18
▁premenopausal
ignant
▁ewes
▁malignancies
ervative
carinic
▁LC
dibular
admium
▁isometric
▁(3.8
▁accessibility
▁postnatally
orated
lob
▁duodenal
▁surgeons
▁waveform
▁mutation
▁Oste
▁preferentially
enteritis
tives
kele
▁maneu
ilep
▁anticoag
cryst
▁renders
▁spectroscopy
▁273
idic
▁warts
omat
piration
▁databases
▁vancomycin
▁(99
▁microcirc
converting
▁Ringer
pended
6;
▁pigment
▁soleus
▁23
▁structurally
▁cremaster
▁myristate
▁Combin
▁Bac
▁DTH
Cu
uled
kDa
▁Streptococcus
▁rhythms
uccess
▁enanti
▁adrenal
nRH
▁homology
▁congestion
uride
▁extracts
▁RU
41
▁menses
▁exocytosis
▁depletion
▁1984
▁Chlamyd
▁ulcer
▁10(8)
▁excitation
▁(39
▁taurine
ervated
lective
▁warran
▁Subjects
▁50%
Ki
▁digestibility
abies
normally
-65
▁intranasal
▁-0.6
▁disulfide
abbit
uridine
▁transverse
▁elective
▁aberrant
▁stimulants
▁kD
▁leukemias
atum
▁flexion
▁150-
apeutic
▁tryptophan
▁bicuculline
▁5%.
▁Ib
▁reacts
▁disapp
▁hypothe
▁posth
▁tryptic
▁hypertrophic
▁Stroke
▁proportional
▁cortical
▁0.1
osts
▁ischaemia
▁apoA
▁occult
ucas
▁cartil
tant
▁metabolized
▁21
▁carcinogenesis
▁geniculate
compart
▁SIDS
tically
hexidine
▁splenomegaly
▁PIP
▁Randomized
▁limbs
▁conserved
phenyl
▁Addition
▁217
entia
ignificant
▁0.49
▁levamisole
▁(4
went
▁9,
rangements
▁babo
▁DBP
▁4.8
-10)
tenosis
-8.
omonas
▁39%
▁adducts
▁1985
▁overlapped
▁pentobarbital
ilts
esic
▁thrombolysis
oride
▁OKT
▁uncontrolled
openia
onyl
▁(63%)
tracellular
coupled
blockers
▁indo
▁accumulated
▁ethnicity
▁247
ocin
GTP
▁preoptic
▁hens
▁Magnetic
▁chromatography
▁0.005)
3),
▁polyclonal
HCl
▁histologically
anesthetized
sych
▁occlusive
▁sutures
▁lamb
▁enriched
catal
▁ganglioside
ischemic
▁adenoid
▁comprehen
▁wedge
▁thymidine
▁tubulin
▁erythromycin
dIns
heric
▁CVD
▁epit
▁ero
dC
-2.
ovine
2318
▁cytosine
▁lis
▁antimicrobial
▁undergo
rocy
opulation
sors
▁OA
▁kinase
▁refractory
▁protoc
hea
▁nominal
▁postoperative
rophenol
▁papillary
▁assay
▁intraper
▁recessive
▁immunotherapy
itability
sparing
▁multicenter
▁PMA
▁pell
▁TNP
endi
31,
economic
androgenic
▁bacterium
-43
▁(1990)
▁cosmetic
▁surrogate
trients
▁duct
havi
ystag
▁1:
▁mosa
▁Afric
quisition
0.6
folate
▁salvage
rected
▁hydration
▁reticulocyte
▁mucous
▁5.5,
▁enrollment
▁repertoire
vice
▁NI
ytes
▁aqueous
oneph
▁ejac
▁breaths
tency
roph
aemia
▁regulate
opa
-300
▁systolic
▁intox
▁(67
IDDM
olesterole
8)
▁numb
▁cotrans
▁82%
EMG
39
ysto
▁Apgar
ifers
▁57%
ceptive
atally
ethoxy
▁MCV
▁carcin
uvate
luent
▁(0
olates
ducing
clerotic
▁alcoholics
▁gemfibrozil
▁Clinical
opamine
▁molecule
ucine
alasin
ogra
▁conception
▁(6
gol
▁subend
▁basolateral
▁blotting
herence
4),
scop
▁genetically
▁attenuating
▁(93
▁Monoclonal
▁catheter
terminal
bred
▁dismut
▁Samples
ococcal
▁neoplasia
plenic
▁(19
▁supplementation
oea
12
ropyl
▁suppor
▁cataly
labeled
▁Immunobl
▁(1,
▁pathology
18,
hered
▁Dys
proteins
▁elevation
▁550
▁cereal
▁tetrodotoxin
▁durations
dered
57
tized
▁NADH
▁agglutin
sants
▁1600
▁moderately
▁Morph
▁contributes
▁detec
ipril
0-
▁0.5%
▁viruses
alc
sensitive
▁17.8
▁3/
raconazole
▁obstructions
▁supervised
▁vesicle
▁fertile
▁Recovery
▁hap
▁gonadal
▁(80
resistance
terol
▁cancers
▁serosal
leukin
▁photon
-18
▁102
▁Recommend
▁expenditure
▁exposures
▁0.15
chlo
▁favors
▁polymorphic
▁postinjury
▁satisfactorily
▁instruc
cytochrome
▁polyunsaturated
000.
osoma
cinolone
▁avian
kling
3%
trop
2'-
roblasts
▁suppression
▁phospholipase
▁analogue
▁1.1
rhea
▁methacholine
▁biopsied
irubin
▁inhibin
▁rheumatoid
▁epileptic
▁osteoarthritis
▁2.5
▁headache
▁intest
▁anaesthesia
▁immunod
▁estradiol
▁transluminal
▁balloon
1:
ficial
zard
▁FU
bral
▁7
▁outpatients
▁bile
▁resemb
▁codon
▁0.60
▁Conventional
▁traum
▁anoxia
ocrin
6%
resid
▁ribosomes
▁ventilated
▁uniquely
▁enzymes
7/
▁perone
ichloro
.00
vate
dine
▁83%
tizing
▁Brain
▁exacerbations
iasis
kephalin
endorphin
▁territ
jug
medicated
eclamp
▁190
▁neurites
tetric
atid
▁nitrendipine
▁reagents
viruses
65
▁causative
▁harves
▁ATPase
Dawley
▁hypothesize
▁8-12
▁ocular
▁chromat
▁agglutinin
▁bFGF
▁projecting
amus
▁KCl
mature
icine
▁penile
▁rhythmic
▁repro
stained
▁stal
methoxy
tinent
▁31%
▁vaccines
▁weakened
antoin
amid
▁microf
▁glu
▁91
glycerol
▁mM
▁surfact
▁endpoints
oalveolar
scher
▁cofactor
▁urine
abdominal
▁suture
▁Activation
NK
▁normals
000)
▁motone
▁discontinuing
▁pathogenic
▁unfractionated
▁neuron
▁clinics
adders
127
▁PMS
perfusion
▁isoproterenol
orphin
▁infra
anoids
▁enroll
▁neutralized
proline
▁1,25-(
▁Exc
ncies
▁Glc
▁7.7
▁liposomes
▁abrup
▁IGFBP
▁deficiencies
geal
ventricular
▁(29
▁multil
▁LH
▁BCG
▁maturity
frontal
▁6%
angerhans
hydration
severe
administration
▁dendrites
▁carbohydrates
roscopy
▁MM
▁thymic
▁medically
▁PN
▁titration
▁bronchoconstric
▁hypophys
▁Aden
▁goat
▁digestion
ardias
▁Tumor
minis
84
▁dyspepsia
▁spines
iminary
galactosidase
heximide
▁persist
mRNA
olis
erated
acylglycerol
enicill
otransferase
ylcholine
▁neuroblastoma
Tu
▁injected
chloride
▁airflow
-198
▁correlate
▁cytosol
▁231
▁Nutrition
5%,
▁flap
▁backbone
trient
osensory
▁cations
▁Immun
▁transthoracic
▁49
50).
▁absorbance
uric
amyl
▁responder
▁APC
▁aggression
▁inguinal
▁dete
▁ultrastructural
▁SPF
▁oligos
▁nonsmokers
olesterolemia
▁prazosin
▁AUC
tivities
▁13%
▁IgA
quine
▁ECGs
endri
▁autonomic
▁sphincter
osyltransferase
▁proportions
▁mucin
kephal
sives
▁opson
idone
enzymes
adily
▁immortal
tonic
dominal
▁locus
ognitive
jun
SMR
tomies
▁isch
▁epithelia
roscopically
▁nonsteroidal
ofil
▁PTS
▁cones
artum
▁suggestive
▁curet
-(2-
▁subtypes
▁bacterio
▁acupuncture
▁randomized
occi
▁atri
tomas
vail
1/
▁112
olgi
▁serotype
▁OD
▁bleomycin
▁juvenile
▁8.
ocardial
-9
▁bilayer
imodipine
▁lacks
indings
▁encomp
▁Diabetes
▁Therapy
erating
▁physicians
▁9.2
▁cytochalasin
▁pyl
albuminuria
▁33
▁solitary
▁anxio
▁dib
▁undetectable
▁transcriptional
▁sequel
▁monoamine
0,
purified
ostigmine
▁Hyp
partic
▁mediate
▁UDP
▁sheath
coh
toc
visc
▁ventricle
▁Ace
inducible
▁duoden
▁ICAM
lamin
onam
▁moiety
▁visualized
▁0.56
▁coval
▁oleic
▁isop
▁objec
▁synergistically
-38
▁nuclei
▁300
eces
ophosphate
▁7.3
gian
▁dietary
▁87%
▁trache
▁paroxysmal
▁leucine
▁hypercap
reatine
▁adriamycin
▁stimulus
Daw
▁167
▁aspec
anic
▁dams
hort
itant
herol
5),
▁8.5
▁fulminant
▁bim
DPAT
▁homocysteine
clerosis
ressive
▁2.4%
00,
▁polysomn
▁reversible
aryn
▁alprazolam
▁SMR
▁fibrosis
significant
▁Calc
▁freshly
▁Concentrations
ylamide
▁gyn
▁immersion
▁poin
▁eti
apid
ATPase
▁kits
▁mediating
▁coagulation
CHO
▁CBA
▁bladder
torchid
▁exponential
▁retin
76
▁specificity
▁postinjection
▁233
▁distor
tipation
▁(32%)
▁218
▁modestly
▁substitutions
▁transplant
▁cobal
inhib
▁avid
GMP
ductive
creatinine
deficient
▁cooperative
▁margins
olus
acyclin
▁soy
ositol
▁anomalies
arrh
mAb
▁hypoth
▁oxygenation
▁21%
verages
Ox
▁cerebral
▁cytos
▁lipase
ocap
▁reticul
▁insufficient
61
▁95
▁potentiate
▁aneuploid
▁lysed
ofol
heat
▁ison
junction
ycin
▁scintigraphy
▁Chlamydia
tabol
fatal
-6)
▁1,25
gradely
▁feasible
▁vasoconstrictor
▁277
▁transfected
▁starch
▁propria
▁cytosolic
▁anastom
▁specimens
▁extrap
idation
▁thre
▁induc
▁RNA
▁immun
▁bronchospasm
▁145
▁750
▁MHC
▁acin
▁strands
▁paradig
▁Eleven
4,
ochemical
ELISA
▁mutagenicity
triphosphate
▁30%.
mur
▁venography
▁parv
▁15.8
▁cyc
rehen
anazol
3-
▁ves
▁abscesses
▁eicos
phenylalanine
ietic
▁anes
Phe
▁185
ograft
▁1.09
▁Gly
PGF
▁immunore
▁thrombosis
(+)-
aminase
ellae
partum
-4.
▁squamous
▁polys
visual
ophren
eared
ferrin
rolase
dihydro
▁spacer
▁idiopathic
copic
▁attain
igenic
▁1),
▁18.
▁aneurysm
▁stres
▁multivariate
▁subdural
▁mesenchymal
portant
igaret
▁mutations
▁voluntary
choles
jac
ganese
▁tRNA
▁40-
systolic
▁reser
neph
ysts
▁postsynaptic
osome
▁2.1
▁calor
casein
▁phon
hydro
▁Benz
rological
▁Strep
ophen
adian
▁denervated
:30
▁outward
▁dimers
ioid
olum
0.2
▁ovary
▁ICa
▁undergoing
▁12.
▁neon
▁pathogens
▁endo
▁suscepti
PAP
reased
andard
pig
▁flora
▁internalization
male
▁spectroscop
nutrition
5;
▁electrostatic
82
▁HBs
-7,
▁Chrom
▁quantify
▁isozyme
▁Incidence
▁comple
▁glutamate
▁haemorrh
5%).
ucleated
▁SHR
gression
pendent
▁ejaculation
▁refrac
94
hyp
▁transfect
▁slices
▁(2
▁EE
▁20
▁mann
HB
▁anaerobic
▁0.35
terase
▁amiodarone
▁pyro
▁VL
▁arter
orec
alas
▁29%
oscopy
▁mucus
pore
erable
glutinin
▁9.7
▁surfactant
▁MG
▁reconstituted
▁physiology
▁repression
▁epidural
▁acros
▁pollen
▁infants
▁105
▁3.4
encl
stimulation
▁normotensive
▁islet
athiop
▁16.
tochemistry
▁serotoninergic
▁natriuretic
▁deuter
luc
▁prosthesis
▁lipolysis
4]
osacral
▁colpos
▁subfractions
ariate
▁shor
%),
▁atheros
▁activator
▁preceding
urate
▁Pb
▁agar
▁93%
▁(4.6
▁relapse
histamine
convulsive
▁oes
odone
▁tended
▁loci
▁(4%)
▁FS
▁tendons
ivary
▁swelling
▁theophylline
200
27
-5.
▁resolving
queous
▁phenomena
▁antiv
▁spinal
▁Thereafter
antigen
▁nip
▁ingu
8,
▁incubated
▁displaced
violet
tigmine
rati
▁(5.0
▁puber
▁obstructive
▁VV
cus
▁neuroleptic
etal
clinical
occlusion
▁eighth
▁yearly
▁pravastatin
ganglionic
▁histology
▁leukocytes
paired
▁sulfon
▁protr
▁allyl
POA
▁Parkinson
▁(90%)
acements
▁duc
▁encephal
▁shorten
▁ampicillin
▁56%
odia
▁1/
▁(4.8
.6%
▁graf
▁ultim
▁perc
▁formulations
lamy
▁tritiated
▁.01).
umping
rinone
▁gag
oxygenase
estrogen
-35
▁SPECT
▁5.
isoxazole
▁diastolic
embryonic
itamin
▁Scale
▁1.45
▁lymphokine
▁octa
vely
Mg
▁colliculus
▁artery
▁270
▁derange
▁hams
▁91%
hepatic
adine
urin
▁85%
▁Tiss
▁dissoci
rogra
fos
▁GAD
▁120
▁CCl
sufficient
yto
▁jaund
opoly
epsia
odip
tochem
▁migrated
trically
baseline
SOD
▁colorectal
▁hematoma
ilus
▁sero
tember
▁3-
roxicam
▁neutropenia
idating
▁symme
▁vagotomy
heal
▁cytokine
▁1986
▁biosynthesis
▁61%
▁400
▁thorac
▁Diagnostic
oflav
▁-10
▁haemorrhage
lusion
▁268
▁desatur
thre
▁ascer
▁atria
▁resultant
▁deleterious
▁42%
inone
hig
▁strand
▁128
igand
▁corpus
otroph
▁hippocampal
puts
▁arrhythm
termined
▁examin
▁magnesium
aluation
▁inflamed
▁follicular
BH
▁fertility
havioral
▁ack
▁Thi
ovol
▁18
▁saturated
▁oxid
oreal
endocrine
▁determinant
▁(56
1-1
iodarone
▁thio
▁4%
▁capillaries
aturated
tations
-8)
urrent
▁feasibility
operoxidase
▁saturable
trip
▁ethn
▁dP
▁(75
▁CGRP
omod
▁injections
▁nonsignificant
▁hydrophilic
▁Lys
▁0.72
ergy
ventil
▁echocardiogram
otropic
urgical
aturation
4).
▁staphyloc
orepinephrine
bacter
OHDA
▁deterior
selec
modulin
▁0.76
▁neuraminidase
▁275
▁bac
itro
inamide
omegal
▁hsp
▁pollicis
TN
▁Hodgkin
▁conditioning
▁endoplasmic
▁operon
▁exudate
▁monit
▁biopsies
enol
yclic
erving
▁tachyc
▁neurom
▁1987
ipheral
11
▁CFU
▁synthesis
▁vascul
cephalic
imens
▁synapses
ochondr
▁specification
amet
▁Platelet
▁dendritic
▁protocols
atation
▁adrenocortical
▁Duc
▁Fourteen
▁Escherichia
▁90-
▁Reduction
▁cholesteryl
▁(3),
/10(
maximal
▁superf
▁RPE
▁latent
phal
▁000
▁diaphragm
enin
inase
▁myotub
▁168
ionine
.7
▁lactating
subs
▁radioimmuno
▁acidification
▁acetylcholine
arcin
▁phenylalanine
▁Forty
gA
maleimide
▁ligated
diagnosed
▁EPO
▁locomotion
▁7.8
▁12.5%
▁visc
▁antidepress
4;
erge
▁diuresis
sectional
▁hybridomas
▁logistic
▁primates
▁Adverse
▁278
xime
▁bloc
idazole
▁algor
17,
▁carbohyd
▁immunocompetent
▁modif
▁inversion
▁uninter
▁oxidase
▁hrs
▁reciprocal
istal
pharyngeal
:1)
rostened
ept
▁Urine
▁colonic
▁4.8%
▁coenzyme
.9%)
▁prostagland
oxamine
▁47%
▁kHz
▁varic
phosphorylated
▁prolongs
▁modulating
0.
-30
▁cloned
▁tach
▁CAP
▁1.8
▁duplic
▁exudates
▁prevail
▁investigations
atell
adication
▁intraven
▁ORF
NB
ubicin
9.
▁bronchodil
thick
▁hapl
▁synov
▁relapsed
▁bip
▁hyperb
▁progn
azin
▁TEA
▁twofold
▁apne
antigens
-1.
carbon
▁1-2
▁Ear
▁hir
▁Cd
▁conjugation
▁molar
adherent
▁influx
▁clarify
▁inser
▁ganglion
▁.00
duction
uncture
TG
▁sonography
▁183
▁synaptic
▁radiolab
▁lumin
▁Respiratory
otopic
tance
▁transcription
-5,
▁alcoholic
▁menstrual
▁Phy
araldehyde
▁microgram
▁ternary
▁synthesize
tidine
▁Plas
▁Routine
▁hCG
opharm
rhy
▁encompassing
kinetic
▁cholest
▁0.98
emius
▁hysterectomy
▁retinol
▁celiac
▁complementary
ioma
▁specificities
ritis
▁granul
geons
▁purified
tir
▁transmural
▁polymorphisms
▁conjugates
cyclo
othyroid
▁thrombo
▁fentanyl
▁crossover
▁stool
▁depres
roxic
▁permissive
▁lyso
▁reperfusion
▁viral
physe
▁MoAb
▁psychomotor
▁homogeneous
▁LPS
▁astrocytes
▁nif
▁entero
▁sexes
adequ
terminus
▁phosphoinositi
▁48
▁sarcoma
owever
▁insuff
▁Effic
▁correlating
▁42
ixation
lobin
HV
▁6).
▁2.3%
▁tymp
▁motoneurons
▁inversely
▁thi
▁initiating
▁overlapping
▁proceeds
▁beha
▁dosing
▁scarring
▁Trial
ospasm
imeth
▁monkeys
▁274
ubertal
▁plasminogen
▁discontinuation
acycl
atibility
▁brach
▁192
olesterolemic
▁MgATP
▁thiaz
stress
▁0.11
ochemically
▁Angiotensin
clonal
▁Plasm
lobulin
▁bismuth
Ra
/9
▁danazol
▁similarities
▁cerevisiae
▁shear
hesus
schem
▁amniotic
▁panc
5]
▁collateral
limb
-7.
prol
▁ulcers
▁secretion
ithromycin
▁projections
othre
umbens
clamp
▁ovariectomized
▁fluor
▁dilat
▁decarbox
▁defic
▁terminated
▁lymphaden
▁amylase
iatum
acyl
▁1991
▁augmenting
olymer
vivors
▁prophylaxis
eptid
+/-
uminal
tization
0.9
arose
obac
▁(13
oblastic
▁radiography
▁1960
▁rRNA
▁AO
▁invasive
▁nephro
phyrin
notic
ospor
conventional
▁3.
▁reac
▁vimentin
tally
▁myometr
▁1.7%
plantable
SHR
▁8.8
33
▁(10(-7)
▁5'-
ancre
▁opioid
▁drainage
▁acces
▁strep
▁appreciably
▁inges
▁suckling
▁Seventeen
radi
%).
▁[14
▁bulb
▁psittac
▁5
▁similarity
▁DNase
▁20-
▁serine
▁LS
▁erythema
embran
hydroxyphenyl
RCA
▁herb
HDL
▁positives
onium
▁basal
▁complexed
tase
▁elevate
▁0.1%
ystolic
▁negatives
responsiveness
carotene
▁meningitis
▁2.3
▁2%.
▁steroids
▁solvents
▁mitotic
ocyanate
▁justif
▁autocrine
vival
▁crystall
▁unequ
irds
▁hydroxyp
▁chemotherapy
▁8.2
▁Absolute
ritten
-14
▁regis
resistant
Ls
▁vasodil
▁concurrently
▁lactic
▁placebo
▁(70
▁smear
▁paradox
sities
▁0.90
▁COPD
▁consequent
▁Intra
opro
▁hereditary
weed
educed
▁dialysate
▁(71%)
spar
▁chromosome
▁(-0.
▁archite
▁35%
▁seb
▁falciparum
▁respec
▁DBA
▁9
potential
▁1%
organic
▁0.06
▁0.23
ositive
assay
▁dermis
omorphine
▁antisera
▁progeny
▁repeats
▁fibrous
2%
ithine
▁poten
▁proline
▁nM
▁capacities
▁retardation
bloc
ohnson
▁recognizes
▁AII
lysin
▁bic
meter
positive
actin
▁incubations
▁cephalosporin
▁Protein
▁3.9
hydrox
▁50-
epine
▁GFR
uality
DV
thoracic
zoster
qui
▁3.5
urgery
ulae
▁clinicians
▁positional
▁postprandial
▁toxin
▁phenotype
kinase
orrh
Hep
ulose
▁intran
▁biliary
tein
▁64%
hap
▁intral
edle
assessed
▁unnecess
▁appendix
essional
-75
chlor
▁IK
▁diltiazem
xone
enoid
uran
acerb
▁luteal
▁NIH
2(
▁LMW
▁glomerul
▁dairy
▁bedtime
▁134
▁autosomal
▁meperidine
▁mobilization
▁FcR
PDE
optimal
▁practitioner
▁146
-0
itin
▁hippocampus
▁somatostatin
ults
Ts
▁vege
▁cationic
oradi
riamycin
▁stimulator
dic
▁prepubertal
zyme
tened
esides
▁Screening
▁sympathetic
oblastoid
imolar
▁81
▁6.7
▁seques
▁follicles
▁(42
eliac
▁candidiasis
▁deferens
▁alkal
▁measurable
otine
▁extremities
▁2.1%
▁fractionated
▁GV
▁Statistical
▁occurrence
DH
▁Sera
▁Sensitivity
▁steroidogenesis
15
▁0.07
ASA
▁jugular
otor
▁Mortality
▁pec
77
▁stimul
▁CAD
tection
-40
▁swine
▁cytometric
▁67%
▁diges
0,000
▁ruptures
odipine
adenomas
▁gangli
dose
tropine
▁276
▁Hear
▁morphology
fentanil
▁myo
ylation
▁14.8
-1;
MTV
▁dehydrated
▁Epidemiological
▁recons
glycoprotein
adm
clic
▁paradoxical
▁acetone
illaries
▁(25%
6),
othal
androsterone
▁pathway
▁GI
▁tas
▁strips
opathological
▁averaging
peptide
▁hyste
▁administered
▁tolerated
▁purification
▁monolayer
▁Transi
▁metoprolol
phen
▁deprivation
iplinary
▁sequentially
▁mammalian
posable
▁collaterals
▁200,
▁70
▁biopsy
▁0.91
▁oligodend
▁filaments
▁1.24
entile
acids
onuclear
▁monkey
obarb
▁proteins
▁hemorrhagic
iliac
▁cmH
othyronine
thmias
xanthine
▁anatomy
etween
▁papilloma
▁membranes
uprofen
ovascular
▁CHD
▁phag
▁3-4
benefit
-45
▁TRH
ece
5%),
▁psycho
▁xanthine
▁intrinsic
incidence
inopril
issive
terious
▁PEFR
ofluores
cardi
▁modeled
▁conclusive
▁5.7
▁zym
▁lactose
▁ciliary
ctive
▁Eighty
tructive
▁saliva
▁sarcoid
16)
▁Factors
Cs
▁stepwise
tropin
▁170
lysis
romycin
▁Rats
vents
▁allograft
▁adduct
▁thiazide
▁suppres
▁activating
▁cyanide
▁Tx
▁bupivacaine
▁valve
▁yielding
▁Insulin
▁colitis
▁gradi
▁10)
▁coping
▁derangement
strain
lasses
▁299
▁manifested
▁transi
8).
▁cytology
tec
▁immunodef
evoked
▁cate
▁absorpti
benzyl
ventilation
▁keratin
dihyd
▁dimethyl
▁0.18
▁(9%)
▁filament
▁haplotypes
▁30-
▁MK
▁1987.
▁maternal
▁adenosine
▁reflex
▁staging
▁oxytocin
tel
▁thickening
▁introduc
▁paired
cells
.5
▁scanning
▁methylene
threatening
▁sequelae
▁63%
osclerotic
▁1,2-
▁matur
▁constructs
firmed
▁7.
chloro
▁syndromes
▁neuropathic
▁Gyn
▁sonic
▁DG
▁hypers
ejection
astatin
tivated
▁172
▁criterion
ropathy
ocrine
oprec
oretically
▁myosin
crist
orectal
▁179
▁Animals
▁transmitter
▁hypocalcemia
▁86
▁antipsychotic
▁suppos
▁(-)-
glycine
asthmatic
▁supernat
▁ductal
▁Simultaneous
▁fractions
unsaturated
▁nodules
▁progenitors
▁pyrophosphate
▁endogenous
▁detecting
GH
▁microb
odeoxy
8%)
▁lysine
▁bioassay
▁steadily
▁genitourinary
▁Injury
▁abor
maximum
▁specifying
▁(2%)
▁GH
▁Bacillus
▁Hep
▁sclerosis
▁scl
▁Serum
▁Survival
▁thyroiditis
▁anesthe
▁derm
▁Localization
▁syncy
▁amput
▁pharmacokinetic
▁22,
linded
▁predic
▁retrie
oling
▁Biol
▁quinidine
MW
▁1,000
▁seasonal
uoden
adin
▁droplets
▁IgE
-9)
▁naproxen
exy
▁(37
competitive
duced
▁percentages
▁melatonin
uculline
▁bene
▁valine
▁lifest
▁substituted
▁actin
▁thrombocyt
▁methylation
▁.0
oprost
▁stripping
▁tris
▁predisposition
abd
irub
-5)
fir
▁28%,
▁abstinence
▁209
▁ND
uctose
toid
ivacaine
▁indexes
▁predicts
▁bronchodilator
▁dynorphin
▁prednisolone
sodium
▁prevalent
▁aspartate
▁Epidemi
esium
▁pharmacologic
emak
(2)
▁diame
▁pA
buride
▁ambient
ophor
2/
lasts
▁20.
▁carriers
wk
▁inactivated
▁hyperlipid
▁insec
▁2,3-
▁turnover
oporosis
▁restenosis
agic
▁tac
▁induce
▁differentiation
▁isotonic
fec
▁agglutination
iae
▁simult
▁osmotic
▁parac
▁uterine
▁aerobic
4/
itively
Hb
thase
▁estimating
rotal
tectomy
▁hypercalciuria
▁ofloxacin
etent
nitro
▁longitudinal
DTPA
ocomial
olet
▁spontaneously
▁Wistar
▁LTB
▁nodal
▁questionnai
ospinal
▁0.26
1.1
▁actu
64
▁Finnish
▁catecholamine
urons
mercap
oproterenol
vating
▁glutamine
▁aerob
13.
glutination
▁(60%)
153
▁analogs
roprus
▁Epstein
oracic
▁colonization
anad
▁pathophy
▁crystals
▁osteoc
4.
▁trophob
▁EF
▁aneup
▁serially
▁originated
1-
LG
▁confounding
yel
▁15%
floxacin
▁Invent
▁Adequate
thmatic
emin
▁premature
▁microsp
▁(2.6
▁bipolar
controlled
opoietic
▁mAb
▁preliminary
▁antral
imazole
tigo
▁superv
atient
▁1.5-
tam
bronchial
▁sten
▁SRIF
▁anions
▁CDDP
▁endings
▁ingestion
▁2).
onance
▁cohorts
▁(24%)
reasts
.4%
ocrom
▁(2),
500
▁sham
▁secretin
▁FSH
thirds
▁circulatory
▁RR
sian
8]
▁effic
▁interferon
▁splenectomy
▁pep
lastoma
▁gastrocnemius
ectable
▁dissec
▁progest
11,
▁intracranial
▁meiotic
oyl
▁intermittent
9),
▁Median
▁rehabilitation
▁vitamin
▁22)
▁fluoro
pressure
▁selectively
▁prenatal
rogenic
ymptomatic
otyp
CRF
▁reinforcement
fron
itre
▁manufac
▁eradicated
▁disclosed
▁deficits
▁trigeminal
▁hemodialysis
umetanide
▁peaked
▁acad
▁fibronectin
▁periodontal
▁hydrolysis
sue
▁standardization
▁intensive
▁1)
athioprine
othreitol
▁diarr
ociated
▁intake
amn
▁235
luores
▁mU
▁postin
fication
▁opi
▁tracheal
▁(22
▁atten
ipital
oncogene
▁selenium
▁lumb
acil
▁0.34
oste
▁contracture
erant
▁pneumococcal
5%
▁aids
▁dextrose
▁5.4%
▁tracer
erate
osum
-7)
.7%)
▁asbestos
▁humoral
stim
▁dus
kD
▁(0.2
▁1-
odop
▁larval
▁thromboemb
▁orally
▁contex
ocated
tability
▁infectious
▁intercal
▁ascorbate
▁ANF
▁arginine
bearing
▁poli
▁albic
▁lecithin
physiologic
ographies
versal
rophen
▁differed
▁0.84
lyte
uptake
acti
▁mosaic
▁Infection
▁electrode
▁parental
▁96%
ventive
▁bathing
oag
▁myocytes
▁haemodynamic
▁promotes
clo
ressing
▁displacement
limiting
▁lining
▁Diabe
▁diarrhoea
▁radiologists
-1.3
tense
▁neonatal
▁competence
ullary
proliferative
allik
▁confluent
▁encompass
▁antero
▁synthe
chymal
▁enti
▁acyl
IgE
▁regurg
▁57
lyc
▁cycloheximide
▁polarization
▁nebulizer
▁accel
oplastic
thanolamine
▁AH
▁13,
PMN
iversity
tabl
▁agarose
ipar
▁soybean
▁cervix
▁homogenates
opha
ilum
acet
illus
asic
thrombotic
▁pouch
▁Glut
▁superficial
▁experim
▁(3%)
▁trigg
▁HCl
ller
▁fla
▁confirming
▁Membrane
▁Trp
▁adenylyl
oplasma
▁hyal
heres
▁isot
pendence
utaneous
omotion
▁muc
▁succes
▁96
▁plasmid
▁myopathy
▁coded
lodipine
▁preincubated
▁1.9%
eroxidase
▁polyc
ovarian
▁bacteriuria
▁normo
▁discontinued
ocytochemistry
▁fungal
ensi
▁gm
▁ether
▁graft
▁hypertensive
feeding
▁(1).
▁rigor
-29
▁4.1
▁1-4
oventricular
blastine
▁pKa
tomy
▁allergy
▁heterosexual
▁transplantation
▁irradiation
▁homogenate
▁maturation
▁pertussis
▁differs
▁glycerol
▁60
▁rheumatic
▁assayed
▁0.4%
ococci
▁oscillations
▁2',
▁carcinogen
atment
▁incorporation
▁progenitor
▁phosphorylase
▁microU
▁choles
▁supplemented
-60
▁concentrations
achial
(2+)-
ograms
19)
▁7%,
▁PAI
dii
▁fulmin
▁subjective
ritin
▁Bacter
▁cocul
▁assays
▁ventricular
▁reductions
▁unsuitable
▁dementia
6-
▁duplication
▁bup
▁1.04
▁iodide
▁(1987)
▁GMP
aminobutyric
87
▁GABAA
▁Sepharose
▁surgically
▁cDNAs
▁GST
abilized
anyl
▁proliferate
▁Subs
▁phentolamine
▁peptic
▁goiter
troduction
▁unilateral
▁ICI
▁comprised
▁beverages
▁285
cellulose
tent
▁incis
▁Depending
▁joints
gic
▁cholesterol
▁agonist
▁(89%)
▁2.5,
siveness
rachial
▁Tn
siology
monophosphate
▁antithrombin
arrhythmic
▁allergens
▁12)
▁complication
▁exudation
▁Willebrand
▁Saccharomyces
endix
▁morphologically
reducing
▁TSH
▁17.7
▁gingival
osac
ocysteine
▁Rb
otent
▁thyroxine
▁reviewing
▁penetration
95%
eruleus
oratory
▁hamster
▁angina
▁amygdal
▁19,
ylephrine
asions
▁182
▁Elevated
troph
▁3)
iterranean
▁VH
▁0.02).
LISA
▁linoleic
▁cyclo
2+-
ophore
placebo
erally
▁6
▁gynecological
▁10(4)
9)
▁somatosensory
▁buspirone
▁pneumonia
▁Investig
EAE
▁2,
▁recirc
▁chromosomal
▁rickets
▁Continu
diagn
▁phosphatidyle
inergic
cAMP
▁CK
tic
ifferenti
activating
partate
▁32
thrombin
▁warfarin
uscular
ethylene
tails
ulses
▁gonadotrop
.3.
/24
deoxy
▁inverted
▁secretagogues
▁erythroid
▁(3
SAID
yzed
▁anaesthe
▁encoun
▁Intensive
ods
▁prono
▁ejection
▁-1
▁incid
▁6.2
▁0.05),
▁excitability
kinson
▁bran
▁elongated
▁allelic
7).
▁HBsAg
tero
▁3000
▁malign
▁pacing
▁fibrinolytic
▁2.7
ensities
▁influenz
▁excre
utin
▁nicotine
fortable
▁anteced
▁anesthetic
mostly
▁clamp
macropha
responders
70)
▁Recom
▁0.40
orenal
▁grafting
tig
▁amelior
▁recurrences
pectively
▁0.19
▁injecting
▁castration
uretics
▁microscopy
atified
ocyan
▁DHEA
50)
▁retard
▁unin
hydryl
▁codons
▁steroid
azep
▁elec
▁GE
▁valves
▁DSM
acting
3]
urosporine
20.
sA
▁nonsur
▁thyro
▁distension
▁ADA
▁prophyl
galact
toli
▁Interestingly
pA
ithelial
▁substantia
hydroxyd
particularly
urine
▁definitive
▁26.5
▁pooled
▁anticholinergic
▁immunized
▁surgical
▁coeruleus
▁sti
▁ribonucle
▁GER
▁multim
otomy
▁Growth
▁influencing
ronate
▁cloning
▁phosph
▁forebrain
▁accumulation
▁neurop
▁0
arcoma
▁sput
▁(36
otre
▁antibiotic
odynamic
▁neuropsych
▁hypoxanthine
▁doubled
▁outbreaks
▁cerv
▁ramipril
itoneally
opecia
▁modulate
▁hairy
▁overestimate
aminop
▁assis
▁fum
▁37%
▁Thy
▁worms
▁CN
apanese
▁3.5,
▁(5%
▁1:1
▁subjected
▁parity
▁distric
ovir
▁defec
▁traumatic
▁paraventricular
▁perin
▁adduc
reduced
▁HBV
▁saliv
▁carvedilol
▁cochlear
▁transitional
▁5),
aerobic
nitine
othiaz
▁capillary
▁Milk
▁grafted
tained
▁(31
olipid
▁thallium
▁cerebrovascular
▁washout
▁Modified
▁saline
dor
▁(0.8
▁alkaline
▁1.56
HCO
▁elastin
▁denat
▁nitrogen
▁disadvantage
▁cessation
EPO
▁preserving
ported
▁thyroidectomy
▁discharge
▁disappearance
-26
1]
▁hematologic
▁0.64
▁specialty
▁phagocytic
▁119
▁Fifty
▁sterol
▁Bam
2).
▁Highly
▁increments
▁overload
▁troponin
93
▁aggregates
▁interventional
▁vertigo
obut
▁reproducible
▁fractionation
▁PKC
NIDDM
▁crom
▁distinguishing
0%,
embrane
▁Lym
oneu
▁stenosis
2.1
tisone
▁6.8
otriene
▁acutely
▁contiguous
▁arose
oung
▁incom
microglobulin
uliar
▁flexor
ludes
▁simian
enopus
▁mEq
▁protease
tomycin
▁Crohn
▁10%
▁vitro
▁ACE
▁ischem
▁discom
▁glucagon
ameter
▁retrogradely
▁UT
fine
▁efferent
posure
▁expectancy
ochrome
orpor
ocytes
▁cystic
.5.
thi
0),
oplas
birth
▁constitutive
▁biased
▁kinetic
rophic
▁1,25(
▁critically
mediately
amphen
▁Systemic
▁deletion
▁8)
▁monocyte
▁organism
rents
▁concurrent
▁Swed
examination
hips
▁myeloperoxidase
iesis
▁NK
▁methyl
▁chym
▁adenovirus
▁anaesthetized
ometers
erver
▁subun
▁ascending
▁amino
omized
▁16-
enzyme
pyruvate
▁HC
▁produc
lys
▁Neurop
urred
▁fibroblasts
▁harvested
▁15-
trin
oxin
▁recombin
▁hypothermia
immuno
75
▁incomplete
▁remodeling
onary
▁dichroism
▁labelled
ocriptine
▁interfere
▁(4.3
▁sonographic
▁pediatric
▁trophoblast
▁0.67
▁Bec
▁sarc
▁polym
lact
echan
Gs
▁ovari
olytic
▁293
▁indomethacin
▁84
▁photoperiod
▁Asp
versely
ocl
cence
2(+)-
▁lysate
▁programmed
▁antin
contrast
vian
agin
-32
ereb
rein
▁tyrosine
▁clindamycin
▁Entero
▁hapten
▁1.0
▁screened
rologic
▁phosphates
▁plasmids
▁adop
▁Maximum
▁16%,
▁vena
▁degranulation
▁prostacyclin
▁continuation
▁hygiene
▁Inhib
▁contour
▁ambulation
▁lipoxygenase
responding
▁helix
▁Sprague
▁fluores
▁intraluminal
▁resembled
▁resuscitation
▁fibroblast
▁attrac
zymes
▁neonates
▁scre
Ca
parag
irone
▁hyperbil
▁vitre
▁39,
▁holo
▁Inventory
▁Severe
▁17-
▁splic
▁connective
▁radiographs
▁23,
fluorouracil
▁innerv
urea
▁dentate
▁aort
▁sagittal
▁collagen
▁51
▁reserpine
▁abnormal
▁arteriolar
▁tetrap
▁UTI
oxo
trodotoxin
▁anaemia
▁counterparts
ifug
▁NB
▁alanine
▁stimulate
▁pylori
gland
▁immuno
anthine
illary
▁27,
▁ranitidine
▁perikarya
▁differing
esophageal
▁1.11
▁concomitant
▁enzyme
▁117
14)
eryth
-1.4
▁degran
yridamole
oglut
▁ESR
▁NMDA
▁lability
▁139
▁6.5%
▁7.6
▁carbonate
▁emphasized
tub
▁biologic
▁Intracellular
▁-12
▁dB
▁underst
▁enlarge
▁intram
diabe
▁(1.6
▁inhibiting
-2.0
▁pate
ophils
▁HCC
▁vagus
▁sows
▁kain
▁Lyt
onvul
oxetine
▁hyperactivity
▁90%,
sant
affec
▁currents
eradish
▁anesthetics
▁pipette
▁subcutaneously
▁thalamic
▁persisted
ectomies
adecan
▁detrusor
▁(0.9
▁alve
▁evacuation
enters
achid
atrial
▁eradic
▁recurred
iuria
Ig
▁oval
▁1.07
umerous
tillation
▁20%,
amisole
titution
▁gland
5).
tors
glutamyl
ervoir
▁glomeruli
▁amphetamine
▁accelerated
razolam
▁hypercal
waves
retin
▁Alzheimer
onegative
oglob
fluoro
LH
chin
reported
itus
cessive
▁obstetrical
epam
▁cytometry
▁phagocytes
▁denti
vitamin
▁phosphate
▁inh
▁5)
vus
▁musculoskeletal
▁awak
▁retic
aptic
crimin
▁1.15
opramide
onazole
▁lact
▁8.4
orrhea
rometry
▁sedim
idov
▁101
▁pharmacists
▁159
ropha
AVP
▁spermat
▁causal
▁lectins
▁pharmacokine
tivity
trophy
▁locomotor
propyl
GnRH
▁uridine
VH
▁rabb
▁diuretics
odermal
phragm
▁bowel
▁reversal
▁epidermal
apeptide
loidy
▁tricyclic
pirin
anking
▁vWF
▁78
fractionated
▁.1
alues
▁positively
▁randomization
▁gum
▁fluids
/30
▁perit
▁Hb
▁wee
▁serologically
▁residue
mia
▁spasm
▁TK
▁86%
▁103
odopa
▁saphen
▁67
▁biom
acetyl
▁26
▁147
▁doubling
▁114
▁thymus
bile
ogenic
onate
olateral
ticular
▁wheezing
▁genital
▁successive
▁carc
▁17
▁photoreceptor
▁dischar
▁Mn
obutyl
6.
▁rostral
▁synap
▁plas
▁Surgery
thle
ylene
▁nadir
▁ventric
▁viscer
▁atopic
▁systemic
ergency
adal
gressive
otoxin
gans
▁prosthe
▁extracorporeal
▁AML
▁buc
5/
▁Binding
▁amoxicillin
▁couns
▁kidne
aethylammonium
▁1000
▁persisting
embedded
.2%
▁9.
coated
▁chel
▁elast
▁preceded
▁40%
glycer
▁axial
▁enkephalin
▁varicella
▁amputation
sepithelial
ulitis
▁advan
▁primers
▁pulmonary
▁FDA
▁4.7%
▁elong
▁0.000
jec
▁5.0
▁1.2,
▁psychophysical
BAL
mannose
▁decreased
▁Effec
MH
▁uncomplicated
▁phe
▁hybridoma
▁nephrotic
enkephalin
ANF
▁underestim
▁Concentr
▁exer
▁necrosis
▁homogen
▁psychotherapy
oprim
armac
▁deviations
▁manifestations
▁hepatocyte
▁impairment
blast
10
▁tetrac
▁amygdala
▁optimum
▁insertion
▁admissions
ospecific
▁neurolep
▁worsened
AFP
▁biosynthe
▁sialic
▁simplified
▁adipos
erents
▁signaling
▁epididymal
▁Dip
▁0,
▁mitogen
▁lem
algia
▁50,000
▁kcal
▁Cul
▁264
▁mixtures
▁fibrob
tep
restricted
▁diagnose
▁5.3
▁Surprisingly
▁reentr
▁79
▁capsules
▁arthroscopy
▁rods
▁deferen
▁neoplasm
▁disturbing
aceous
biased
▁indus
osteroids
▁compe
▁Doppler
.2%)
atinine
▁nonm
▁clonal
▁outlet
▁47
▁routinely
▁Reduc
63
▁acceptor
opeptide
▁methanol
▁doses
▁glycosylation
▁quenching
▁microv
cretion
▁5.5%
▁Immunohist
▁EPSPs
▁patency
▁tolu
lood
isolated
encephal
▁sugges
▁analogues
ochondrial
▁depolarization
▁androgen
ardipine
orbol
disc
▁diagnoses
▁sterile
▁hyperox
▁satis
▁amounted
▁215
▁adversely
▁0.82
▁commiss
▁bicarbonate
▁exploratory
15.
▁ammon
▁androgens
▁accid
ophores
eeding
▁70%
▁peritoneal
▁allogeneic
▁100
liters
▁0.17
agit
▁spas
▁hybridization
▁descending
▁venti
▁pmol
▁ipr
▁prostatic
ospitals
operidol
▁nonp
▁linkage
ygotes
aminoglyc
terin
▁3%
▁(21
▁-5
ectomy
▁6.1
▁stools
▁seizure
tinu
inol
▁ambul
.1,
▁amin
▁implant
hydrop
estig
▁Exposure
▁electr
acholine
▁confers
▁peroxidation
oprolol
-81
▁lorazepam
▁Tissue
▁0.7,
▁hazards
endazole
▁repolarization
infection
▁55-
▁psychosis
▁physici
Gly
ocarcinoma
abec
▁prolactin
▁perce
▁methodology
TGF
taken
▁depolarized
haled
adic
▁10%.
▁cytologic
▁22%,
▁loos
▁attenu
sistent
▁Pulmonary
▁8
▁hexa
▁primed
▁interacts
▁0.13
▁AMP
organisms
▁scin
▁lumbar
▁malaria
biotic
tum
▁efficacious
▁onset
▁embryonic
▁exacerbate
adrenoceptors
3'-
▁regimens
▁topical
23
▁cows
▁tremor
▁abd
▁centres
ternational
▁88
▁classify
▁tuberculosis
▁HL
▁10(3)
helix
▁topoisomerase
▁sickness
▁GHRH
▁3.8%
▁inadequ
▁142
▁expressing
▁(5.3
▁antibody
5%)
▁hypogonad
▁transferrin
▁biochemical
▁promp
▁avail
▁Enzyme
ostomy
idney
▁proteoglycans
▁1.35
▁0.45
▁membrane
PAC
▁receptor
▁modulated
blood
▁pulsatile
▁1989.
onomic
vular
uronium
ocyanin
▁hydrox
▁contamination
▁60-
▁22
▁propionate
▁cytolytic
PGE
▁chemotactic
▁neurologic
▁circumflex
▁66%
▁immunobl
▁therapies
udin
-100%
▁centrifugation
▁radioactive
▁135
▁30,
▁transp
▁moieties
lated
0%),
rays
▁4;
▁stained
▁nitrous
tral
entif
▁dosages
▁illus
▁immobil
▁eryt
eroxide
▁subgroup
▁Mice
▁Higher
▁IU
▁devised
orbent
▁ankle
.10
▁2.4
▁irregularities
▁abnormality
140
▁undere
▁infarctions
▁31,
imid
▁PTH
ensin
rowing
ecretory
leuk
▁preeclampsia
ecu
▁Thir
▁CIN
▁covalent
▁tol
▁pretreatment
centered
▁therapeutic
▁PEF
▁FFA
ethyl
▁analges
▁compartment
▁diagnos
▁Salmonella
▁sulbactam
▁motility
▁Flu
oten
deriv
▁5'
▁16
▁radioiod
▁nifedipine
PAT
atening
natal
▁metabolically
-600
▁enzym
▁43
upus
▁hazard
caro
▁foetal
▁erosion
▁Biopsies
antial
▁ovulation
.9
tured
25,
▁constriction
▁PET
▁Recep
charged
▁Phen
▁CRP
▁rectum
▁insulin
▁colic
terolog
▁56,
▁hydrophob
▁epidemiologic
▁ipsilateral
▁discriminate
tical
▁0.01),
▁cran
lep
▁mening
-1)
ylated
▁gyr
terologous
▁decreas
atriptan
▁caud
▁Americ
▁3.7
▁reinfection
▁electrolyte
▁93
▁hindlimb
▁vacuoles
yoto
▁normalization
▁0.016
▁favourable
▁Aspirin
▁apoB
antagonist
▁methotrexate
▁ionized
▁inherent
daily
▁imaging
▁(14
▁Assessment
▁epilep
amate
▁Increas
▁9)
Au
-)-
▁transiently
▁inducers
▁FK
disciplinary
▁awa
▁Optimal
▁suprac
▁lysozyme
▁uncom
▁appropriately
▁.05)
ikary
▁intub
nec
Km
▁retroviral
▁asymptomatic
▁arrhythmias
▁1969
▁radiological
fractions
opo
▁Antibody
▁6.9
oppler
▁angiotensin
▁catechol
ungal
NAc
anat
▁microvessel
kinje
▁prostatitis
▁streptozotocin
▁sickle
▁stratif
▁fasting
▁phenobarbital
▁collic
▁examinations
▁50,
▁237
5)
cine
tumor
obronchial
ocaine
▁preventive
atical
nitros
▁gradients
entan
▁factorial
▁inconsistent
▁graded
▁49,
▁intractable
usively
▁NADP
anavalin
lycerol
▁aldehyde
▁mortality
lec
▁voiding
▁7.9
▁precur
▁augmentation
▁aromatase
▁0.09
▁Initi
tiguous
▁damaging
-96
▁bronchodilators
▁excessively
▁rupture
▁mediated
meg
▁(89
▁mononucle
▁peptid
ugular
▁dextran
▁judged
▁150
iscal
▁tiss
▁(85%)
/6
▁hydrolyzed
1%
sorb
tilis
▁Multiple
emble
tise
▁manu
▁.01)
▁perivascular
NH
ratic
'-
COP
osine
▁hormone
▁atopy
110
▁interpre
▁proteases
▁bromocriptine
▁pelvic
▁mitral
lod
▁spikes
▁confound
naud
▁Plasma
▁ouabain
▁transfection
▁repressor
▁15,
onuclease
▁Pseudomonas
▁rabbit
early
olase
(1)
▁interventions
urk
▁Copenhagen
▁anemia
▁dissemin
▁isoprenaline
▁polymy
-22
▁1.18
▁11%
▁unrecognized
namic
adap
▁simultaneous
929
▁illustrate
▁microsomes
▁NMR
gment
emia
imaging
▁(250
-1
▁catheterization
▁epicardial
▁wt
▁enzymatic
▁biochemically
▁dysfunction
glucose
helium
▁-0.4
▁sperm
▁cardiac
stin
▁Eco
itance
meth
▁regained
▁insomnia
hemical
▁uremic
TRH
▁lacto
operative
▁106
drug
▁nicotinic
▁(1.0
▁potencies
opril
reasing
▁reoperation
ecyl
10-
▁1.12
▁solubility
▁45
▁111
▁enrich
▁perfusion
sorption
▁foc
▁granular
8),
▁(16
▁CDC
fal
ostatin
pine
▁fractures
▁Mast
ocyst
▁randomised
▁morphologic
inj
ystatin
▁chlo
▁phenotypes
▁periphery
▁Staphyloc
▁TCR
▁physi
▁vestibular
orax
▁Comparison
adrenoceptor
▁anae
dU
▁ultraviolet
▁fibre
▁recipients
productive
▁(5.1
-450
▁titr
cents
▁stimulant
▁7.5
▁transducer
atellite
▁succinate
▁vanadate
uitable
sus
▁irreversible
▁irrigation
▁disadvan
▁maneuvers
▁vagal
▁0.81
▁AGA
▁universally
▁relapses
▁FMLP
promoting
▁fluidity
▁conductance
embry
▁occl
▁Lp
▁abnormalities
83
wann
imide
▁26%
ogenes
▁recor
imentin
LDL
siella
▁ration
operatively
▁Combination
▁dendri
▁disturbance
ACTH
▁thrombi
▁6.0
▁leprosy
▁hypokal
▁actuarial
omyel
oxic
▁-0.0
ygo
icidal
▁doxorubicin
ystic
uria
▁Preincubation
▁bradyc
▁mimic
▁cylinder
▁endocardial
amethonium
opre
himb
nai
▁33%
▁relieve
▁merit
▁rhinitis
▁hGH
▁hypokalemia
-10
hydraz
▁scans
▁inhaler
rescine
▁resonances
▁precursor
▁datab
teroid
ocys
▁restor
▁revised
ominant
▁endemic
▁97
▁succinyl
▁CRF
▁rodent
▁neuronal
▁50%,
enil
odiazepine
ovastatin
romy
3-4
▁permeabilized
sively
▁clon
▁nicot
omyces
▁80,
trogen
▁(500
ticle
iparous
administered
anthrene
▁tonic
▁(75%)
▁neph
▁atrophy
▁Pharmac
▁statistic
olig
▁Michaelis
▁analyzing
▁antigen
onor
anav
ustained
injury
▁15%.
xual
▁predominant
▁menstruation
▁envelop
▁nondis
▁illumin
▁EPR
tran
▁0.2
-5
lymer
▁employing
▁24)
▁avoidance
▁corticosterone
▁nig
▁perinatal
▁homoz
▁bladders
lowering
▁vasodilatation
▁urethral
▁transduction
▁secrete
truc
▁behavioral
▁relaxants
gents
ducible
▁metastasis
▁MMS
▁exchanger
otonic
enching
▁serolog
▁abscess
▁NM
▁CAL
▁LDH
▁microm
▁expiratory
▁121
▁(49
▁autoreg
▁4.
PKC
cyclic
▁clu
▁ketanserin
▁122
▁outflow
▁derivatives
▁piglets
▁PaCO
▁detects
-]
▁rhy
▁30
plasty
atural
▁hypertro
rophilic
▁microbi
▁80%,
▁recurrent
quid
odopsin
PMA
iprofloxacin
▁microliters
▁PID
▁defibr
▁neuropath
icul
anese
horm
▁173
weighted
▁condensed
▁5000
-200
▁acetyl
▁threefold
tive
3%)
gran
tensin
▁suction
▁dichro
▁posi
opathy
▁chronotropic
▁hydroxylation
achol
phthal
▁polymerase
▁demyel
▁androgenic
▁inbred
▁intravenous
▁sucrose
▁20)
HF
NMDA
oclonal
▁histochemical
▁limb
licular
▁Leydig
GSH
▁alleles
▁0.2,
▁unreliable
13
iruses
▁glucose
-25
▁selec
▁inactivation
CBF
▁equivalents
▁NaCl
velength
▁transepithelial
▁41
BMI
▁200,000
ections
▁Seventy
linic
abin
▁carbachol
ophil
orac
pregn
erebral
▁ICP
dense
stem
▁BMI
▁inhal
▁guanosine
00)
▁constipation
astine
arum
▁adjusting
nosis
▁250
▁0.7
▁lumen
▁oocyte
▁Levels
▁grains
▁logar
gluc
66
▁cyclospor
▁delays
▁ae
▁0.88
zot
▁BW
▁CaM
▁genotype
▁slowing
bromo
▁methionine
▁cytochromes
▁natriuresis
▁intraoperative
▁transient
pecially
othi
ulants
▁bilaterally
▁1983
▁resol
entical
▁1.17
▁(78%)
▁nox
▁Neuro
▁MBP
TPA
▁fetal
▁oncogene
▁homolog
▁33-
▁morbidity
▁GDP
21
▁clues
▁nonc
ranolol
▁antifungal
▁aspirin
oxid
▁440
▁sensitivities
▁glucocorticoids
▁19.
vity
▁correlations
▁fibrinogen
▁(84
▁glycosylated
(6
yx
onin
▁0.86
unced
tif
▁chondrocytes
▁arises
▁Asi
▁uric
▁reiter
henyl
▁lympho
▁0.05%
▁gastro
▁epidemic
▁lymph
▁154
elic
▁asparag
essel
▁2000
▁enteric
BK
▁neurons
0.8
rendipine
▁emerg
▁extremity
ochemistry
inhibition
3,000
▁persis
Ep
▁newborns
▁herni
▁5-
▁rati
▁proton
▁sple
acr
tagog
▁occlusions
ayed
▁(95
▁brid
atoxin
▁1988.
▁Langerhans
▁Phe
▁ileal
▁(79
▁1.13
▁7.5%
.7.
▁apprec
roitin
membrane
▁9.3
amines
▁500,
pretreated
▁fibrillation
▁anesthesia
romal
erop
▁underestimated
▁fatty
▁underg
▁0.42
▁examining
Tyr
electron
▁0.93
IgM
▁adiposity
▁rGH
arental
▁lengthen
zine
▁platinum
▁80-
▁glycogen
▁prolonged
▁medulla
OH
▁docum
▁summarized
inic
▁intrauterine
apeu
reactivity
▁yiel
arynx
10)
▁remarkably
▁ASA
▁ile
▁dips
▁EEG
▁simulated
▁cytomegalovirus
▁dorsal
▁analytical
▁discrepancy
▁glia
▁16.1
▁salts
▁verbal
HM
crip
▁3'
▁eczema
muscle
arial
erin
▁0%
-8,
tead
▁proliferating
▁Carb
▁antihist
▁suicidal
▁sulfonylurea
▁pharyng
oA
▁dehydro
▁36
▁Pretreatment
olamine
▁cranial
oinositi
emetic
▁mildly
▁sinus
▁aberr
▁Tum
▁Outcome
ysin
▁births
▁metabolite
▁exogenous
toxicity
yanodine
avail
phyloc
PPP
oskeletal
▁pollic
tics
50
▁creatinine
nithine
▁undertaken
▁11.5
toxic
▁ligation
▁organisms
venous
tested
▁SCH
▁ploidy
▁clot
▁proliferative
▁252
aryng
00-
▁esophageal
▁macromolec
▁microelectro
▁stu
▁carbonic
ustif
▁dilation
imurium
▁methodologies
raine
kely
wenty
▁Ala
▁carboxy
amel
ductase
▁perioperative
owel
▁pallid
▁reproducibility
ogeny
▁clinically
spectrum
▁remin
▁3,4-
3).
eptin
▁2,4-
▁0.025
▁virtu
▁tachycardia
itum
▁facilit
▁gastr
hemagglutinin
▁Haem
▁234
nitrophenyl
3+
ulcer
lymphocytes
▁[35
▁hypercalcemia
lovir
▁constric
crystall
-4
▁prednisone
8-
ocytic
iplin
tris
▁esterase
atest
▁ana
▁EA
▁anomal
▁308
tential
▁Synthe
▁desaturation
▁chorionic
▁68
▁fathers
monary
▁commercially
▁synovial
▁internally
▁pathological
▁25%.
arean
▁diarrh
dihydroxy
▁22%
▁latex
▁MAbs
▁unsaturated
▁sphinc
▁colos
▁1.01
▁fric
epti
spectively
▁FGF
▁0.80
▁guanylate
strual
▁neoplas
▁nitroprusside
lline
coronary
ophysiological
▁endos
▁16%
▁0.01
▁determinants
-48
▁cyclical
albumin
elec
▁glucone
▁rotational
▁206
tention
▁insertions
▁puberty
icep
▁4.7
▁ulceration
acted
tene
PaO
▁0.8%
uracy
▁mono
▁solvent
▁rhesus
▁radiographic
▁castrated
▁21-
▁isomer
▁linole
▁sebaceous
▁prognostic
salt
ffer
▁implanted
▁PEG
▁nasal
EGF
▁4.3
▁nonin
▁40
bran
flammatory
▁kinetics
teric
conjugated
450
▁ulc
▁heavier
▁addic
▁noradrenergic
▁stimulating
▁esophag
▁chondroitin
▁enrolled
25).
▁3.0
▁prostaglandins
▁facilitation
luding
▁weaning
▁alters
othelial
▁(68%)
nucleotide
▁shrin
▁secretory
oluble
▁hypother
▁memb
▁(44
▁cytoch
athyroid
deficiency
iability
phine
▁Failure
▁Lact
ofl
▁explants
▁microspheres
▁eukaryotic
quamous
▁histi
98
▁catalytic
fetoprotein
lymph
▁AIDS
benzo
▁kine
chym
thymidine
ostasis
▁bilateral
▁37
▁atypical
angiotensin
▁vibration
▁demographic
▁carcinogenic
▁marrow
56
▁albuterol
ucle
▁4.6
▁163
▁eosinophils
▁82
▁adolescent
▁eradication
okine
Gy
▁abl
▁-0.5
▁amp
▁vertebr
▁hydrocarbon
▁spectrin
▁protamine
▁transection
▁10.0
CSF
▁Biophys
ncy
/5
▁thyroglobulin
▁valvular
osamine
▁PCR
▁adip
▁(10%
▁regimen
▁stationary
semin
▁retarded
▁1.3-
▁spirometry
▁isoenzymes
▁Glucose
parative
uccessful
▁lytic
▁CHO
HRP
▁glycosaminoglyc
▁VIP
▁NN
0.4
lethal
▁enrichment
▁Whereas
▁thrombus
▁LD
teroids
▁bism
▁glial
▁afferents
opressin
▁262
▁platelets
aminergic
▁beads
timulus
ensory
▁collagenase
▁8.0
ytoin
usually
olization
▁subf
▁adjuvant
▁8.1
▁diluted
aventricular
itrate
▁daltons
▁inoc
ocusing
▁reversing
▁0.38
minal
▁comprising
▁catalyzed
-1.6
oplasty
▁Viral
▁irrig
▁acqui
▁transcribed
▁mutagenic
▁illumination
+/
tension
tigu
IgG
.1%
ilol
300
▁(26
▁Abdominal
omycin
▁antim
▁biosynthetic
releasing
▁immobilized
▁(1
▁171
inally
▁mRNA
▁titrated
▁incidence
▁WK
▁iat
guanine
▁carcinogens
etus
▁microtubule
▁stoichiometry
▁cramp
▁potenti
vaccination
▁equilibr
▁unil
affin
▁infec
▁qualit
▁inapp
▁(20%
▁phle
▁comparisons
▁Beta
aterally
▁endocrine
▁MIC
ygdal
▁discrimin
Leu
brile
▁8-
▁Hyd
▁vesicles
▁angio
▁Lactobacillus
▁quiescent
▁breeding
▁multiv
▁retinopathy
▁vomiting
▁intravenously
▁anemic
2+.
othane
▁comprise
▁133
▁desm
▁(94
0.00
iodine
ongue
.8%
▁pector
▁differentiating
▁discontinu
▁10.7
trates
▁peptides
▁umb
▁immunohist
▁Caucasians
aryotic
▁18-
▁9.4
rences
▁Suc
reases
▁TNF
▁attrib
vessel
▁Abnormalities
▁halothane
▁elevating
▁xylitol
▁endoscopic
ocytopenia
▁antich
▁vertebral
rometer
containing
▁untreated
▁8644
▁(97
▁Smoking
▁2.
PTH
▁intakes
arous
▁1.6-
-2.2
▁livers
▁allosteric
▁epidemi
▁rectif
▁trypan
▁laminin
▁4-
▁adverse
▁glucuron
▁sigma
▁antigenic
▁SKF
▁familial
▁lipophilic
ntolamine
▁crystalline
hydr
phospholipid
▁muscarinic
▁60,
uronic
▁passages
cis
▁endometr
▁activators
18)
-3.0
▁unfav
▁oligosaccharide
initi
trus
▁sph
▁cellul
atching
▁operative
▁reactivity
conver
ulant
trimester
▁autologous
▁thyroid
9%
sess
▁triazolam
tate
▁mellitus
-4,
▁presently
▁outpatient
olesterol
▁Prac
ureas
▁perforation
▁islets
▁resul
stab
▁reacted
cad
▁controver
▁catar
▁conjunctiv
▁165
▁CABG
▁monos
▁fibr
eminal
▁Extr
(-)
▁(72
▁myocardium
▁fulf
▁arteriosus
protein
▁Krebs
▁exag
thma
▁generalized
▁streptococci
▁stratified
▁PLA
ethylmaleimide
▁cochle
vices
▁(36%)
▁Prol
▁fibres
▁erg
.1
▁mitomycin
▁palp
▁immunocyt
▁rearrangements
▁(15%)
▁antibiotics
oplasmic
venty
alciparum
NGF
7%)
▁trimester
▁intrap
▁epithel
▁PAP
▁analysed
▁chloro
▁discrep
tte
▁papillomavirus
▁parturition
gthen
▁ascorbic
▁impairs
TCR
▁disseminated
▁plaque
▁primiparous
▁monolayers
▁labial
▁curative
▁cotransport
jected
▁ADP
▁tandem
median
▁bacterial
azone
▁cyclosporin
otropin
illi
yramine
▁noncom
anine
physeal
▁morphine
▁conges
-2,
▁reacting
isqu
▁emergent
▁unres
▁sulf
▁interne
-11
tants
▁acyclovir
cutaneous
▁GTP
▁1.3
▁analogous
▁protons
kerat
▁phleb
▁granule
▁antec
▁contamin
▁subpop
▁airway
▁endoc
▁granulomas
▁serological
-(1
atab
thymic
▁therapists
ymmetric
▁biology
▁(95%
ibrate
edocromil
olam
turb
▁lidocaine
MHC
7;
▁responsive
▁unid
▁cyclooxygenase
macrophage
▁deli
▁proteolytic
▁Electron
onatal
omatic
hormonal
fraction
▁1.36
riton
omyelitis
itic
▁streptococcal
▁Secondary
▁contras
▁granuloma
▁demonstration
▁unipolar
ervical
38
▁triglycer
▁Evaluation
ogenesis
unctions
▁linearly
▁antithrombotic
stimulating
trast
▁(67%)
▁extraction
▁velocities
▁kallikrein
▁(2-
▁isoelectric
▁fractional
▁selen
planch
▁psi
▁27%,
▁leukemia
▁interf
oxine
▁symmetrical
-2).
▁3).
isters
▁Inte
mental
▁theoretically
▁Evidence
inositol
strand
▁distin
.0,
ervations
▁unchanged
▁mec
▁0.8
:3
▁satisfactory
▁androstenedione
▁neo
▁enzymic
unctional
▁inflamm
siologic
▁255
▁latencies
▁statistically
▁PaO
62
▁physiologic
mide
▁mitochondr
romes
imentation
▁myel
ocor
iagn
▁segregation
azolium
cture
echanical
▁solub
▁gastrin
▁whey
▁indefinite
▁reticulum
mented
▁endonuclease
▁confined
▁occupancy
atine
tubulin
▁mitochondrial
▁nylon
▁hemisp
▁transmitted
▁addi
ensitization
▁77%
▁Ventricular
eptidase
traction
▁Retro
▁64
▁compartments
▁resour
▁etiologies
lycero
▁(0.3
▁raphe
Ci
▁determinations
ohns
alact
exis
▁serogroup
▁antigens
ureus
▁inotropic
-34
ergic
▁elicit
▁positivity
▁prognosis
▁vegetable
ucl
▁4,
versity
embers
▁lec
▁irrever
▁prolongation
▁triggering
/10(6)
esarean
▁demonstrates
opam
▁sprin
▁gamma
▁cysteine
▁innervation
▁affec
▁0.001)
▁elucidate
▁8%
▁identifiable
▁basophils
▁necrotic
▁-0.7
fied
▁stric
▁(0.0
ococcus
53
▁(10(-5)
▁endothelin
▁(90%
▁suppressive
(1
▁11.6
▁Longer
▁leucocytes
demic
thmia
▁GSH
▁acet
▁80
▁exacerb
▁chloramphenicol
▁metabolites
▁vicinity
▁drin
hyd
▁0.6%
▁shortened
▁metatar
merc
▁sulfonyl
yridine
▁incremental
▁periodon
ulsive
illation
▁neutralization
▁provoked
rosemide
▁reflux
lication
▁ischaemic
▁proximal
▁6.4
yrin
triglycer
▁efficacy
smoking
▁FF
▁arthritis
▁sulph
hydroxydopamine
trophin
produc
ardized
▁4.6%
▁CCK
▁challen
▁Sequence
▁2-5
ilibr
tions
▁49%
▁relap
ionic
▁-0.8
▁malignant
▁discomfort
▁0.30
▁triam
▁shedding
receptors
▁phospho
▁quantif
▁competitively
▁LVH
aind
▁resear
▁189
ophilus
▁1500
▁48%
▁cured
▁revascular
▁1.00
▁10(5)
cholic
▁substrate
▁muM
renaline
▁previ
struc
▁polyamine
▁Gs
▁dyes
ectin
▁ester
▁amn
▁ultrasound
▁Consequently
▁200-
▁concordance
▁rumen
▁PRA
▁ventricles
▁mmol
▁germin
▁quin
▁neoplasms
tivation
▁carotid
-67
▁155
▁substitu
▁exhibits
▁renovascular
▁phyto
igarette
iotics
derly
▁14%
▁85
▁excretion
years
angl
▁ach
▁(2.5
thood
chol
cysteine
stolic
▁isoform
▁peritonitis
▁quoti
yocardial
103
▁1.26
▁Preliminary
14
▁synerg
▁requi
onography
▁investigator
19
veolar
atidyle
▁aluminum
▁oxy
▁(58%)
(3
orphine
permine
ACh
dUrd
▁Factor
▁medial
▁putative
▁assessments
▁EG
▁acidic
dipine
lesion
79
▁lymphomas
▁mating
▁14.5
▁homozygous
▁3
producing
▁plasmin
rox
▁scaven
▁inferred
surgical
▁80.
agonist
▁hypogonadism
▁propensity
▁proximity
-28
▁pentoxifylline
▁serology
▁GFAP
dens
▁propranolol
▁surgeon
tion
▁plasm
▁6.3
▁corticosteroids
▁starvation
▁exerts
▁devoid
▁stratum
▁Sodium
▁trabecular
phasic
▁grise
▁empirically
▁(63
▁cimetidine
▁Infusion
▁28)
▁lor
cellent
tinguishable
▁osteoporotic
▁dissociation
Hodgkin
dopa
▁resis
▁Acet
▁oxym
▁quantitation
▁deviation
10,
brain
▁intimal
▁Treatment
▁corpuscular
allikrein
rever
▁vaccinia
▁criter
▁construc
▁nasopharynx
parous
botic
▁glycol
▁Statis
▁prophylactic
▁0.70
etence
▁recognizing
▁Enal
▁systematically
▁Prevention
▁phosphorus
▁practiced
HSV
▁deoxy
▁nonspecific
▁Consid
▁MW
▁antibodies
+.
(-)-
▁8.7
ymp
▁supple
▁87
▁impedance
▁cigarettes
luded
roxim
▁rhodopsin
▁retur
▁appreciable
olones
criptional
▁cephalosporins
▁neutroph
▁Apo
▁gout
phot
▁cytotoxicity
▁60.
oblastoma
acrylamide
▁drip
HCV
▁prostaglandin
18
kage
▁retention
▁1.2
▁clones
azolam
ifedipine
▁yohimbine
rosy
icillin
athic
▁4)
itone
▁pla
▁pyr
▁rIL
▁INH
▁neomycin
▁Thirteen
▁1.08
▁(+)-
▁KD
.6
erum
▁3',5'-
genic
▁scinti
▁chromatin
kelihood
optic
▁intubation
▁lymphocytosis
ocyte
▁Clinic
▁bradykinin
trations
▁(62%)
▁institu
81
indole
▁transcripts
▁transduc
rotein
pecific
▁EGF
▁effec
▁6%,
chool
▁pellets
▁Estimates
▁NF
▁ultrastructure
synaptic
▁107
▁unexpectedly
▁heifers
ensitivity
▁glyc
ritical
▁immunosuppres
robial
▁oriented
▁ventilation
▁tolerability
therapeutic
greater
72
▁infarction
▁Delayed
oxidation
▁isotope
gestational
▁testosterone
▁excluding
▁NH
▁rats
▁PBL
▁chow
MV
▁feline
uted
▁Doses
▁interv
uronal
▁radioligand
▁cascade
▁impair
-2-
▁saphenous
hydroxyp
▁severity
▁Depression
0.3
▁incubation
▁mcg
▁cesarean
tilage
▁diseased
60
▁1-3
▁Ninety
ANP
BW
retion
▁rash
▁Kine
▁anticoagulation
▁0.5).
▁etretin
▁attendant
▁1,
▁tubes
▁casein
(2
▁Comparative
▁conclu
▁proliferation
SEM
▁microtub
▁lowering
▁Estim
.1%)
effec
▁mannose
ronchial
▁selectivity
ruc
▁Renal
▁1.25
▁gly
sul
▁5%
▁1.02
▁degen
▁intramuscular
ADA
▁infiltrates
gestrel
heavy
▁parame
▁naive
▁Tyr
▁Previously
9-
▁concomitantly
▁1.4-
▁dithi
anol
▁prevalence
arrhy
▁Caucasian
urane
▁[2
▁ribs
-50%
▁carcinomas
etoprotein
▁0.89
▁strains
▁Adh
▁Behavioral
▁infrequent
▁chimer
▁daytime
▁elongation
▁Subsequent
▁Individuals
uin
chid
activated
▁tyros
▁predictor
2,000
fibrozil
▁cytogenetic
▁epitope
GFR
▁rejection
▁cefaclor
1-4
▁Oc
Nase
▁257
▁90
▁hep
▁tomography
25
oconazole
ermal
trac
iceptive
▁regression
oglobulin
▁resuscitated
ipolar
▁suppressed
absorption
▁Enalapril
oidal
▁proteoglyc
tox
▁diethyl
▁antacids
▁appraisal
DHT
▁ovarian
ionate
enolone
▁branched
▁attenuation
imbr
▁clinician
▁outgrowth
▁analgesic
▁infections
▁mitosis
▁initiation
lip
omers
▁cann
▁pectin
▁40,000
▁sequencing
▁euth
▁segmental
▁occluded
▁hypotensive
onitis
▁deliveries
▁Regarding
▁postmortem
blind
▁impaired
.6,
▁exis
▁144
97
▁mitochondria
▁morphometric
▁cleft
▁localized
nthe
▁weighted
▁cerebrospinal
▁1.16
▁ald
tite
enal
hers
4-
rocal
▁Maximal
▁oint
▁BV
▁fructose
nish
▁MV
▁chemo
▁isoniazid
CABG
valine
▁chec
oxicillin
onephritis
▁bouts
▁coex
▁scalp
▁malformations
▁prerequisite
▁glutathione
▁somata
sions
▁macrom
▁Oral
▁([3
bic
▁methodological
▁fascic
▁mutants
▁dizziness
injection
▁ventrolateral
unctiv
▁1.6%
▁arising
platin
▁Patient
ulline
gmental
phil
▁HM
-52
ographically
uble
30,
▁Cyt
▁Simult
▁Progesterone
▁embry
▁redistribution
▁sut
plantation
▁immunologic
mandibular
omegaly
▁24%,
▁8%,
▁uter
▁IGF
▁felodipine
▁mitogenic
▁comprises
▁freezing
▁hepat
▁blot
schemic
233
▁intensities
▁oximetry
▁0.08
▁prevalences
▁retrospectively
▁eosinophil
▁messenger
▁Biochemistry
▁genome
▁manifestation
inoc
3/
▁Prevalence
▁(150
ofib
▁4.0
▁RP
▁BMD
▁cerevis
▁phosphatase
▁mIU
▁oxidation
▁(-)
osage
▁deaminase
▁Km
▁0.50
▁gluten
▁suppressing
▁cytoskeletal
▁Leu
▁localize
pretation
▁binds
▁progressively
▁wean
angi
▁Isolated
apo
amphenicol
▁phage
amido
omal
▁renin
▁reticular
▁chloride
▁40,
▁presynaptic
epin
▁injec
▁conformations
IFN
▁Triton
▁identi
▁acidosis
▁herp
testosterone
sequent
PCR
▁221
trypsin
aminidase
▁antagonistic
▁Engl
hetamine
otamine
▁[32
cious
▁ophthal
▁35-
▁cytoplasmic
azem
▁macroscopic
▁(1/
entanil
▁sclero
▁euthyroid
hene
oretical
▁fluconazole
▁markers
▁CHF
▁polymyxin
▁3.1
▁physiologically
▁surrog
olipids
▁nitric
tak
▁2.0
tage
▁predicting
▁utero
▁heavi
▁constitute
▁PHA
lox
▁intestine
▁Fischer
▁0%,
uppres
entricular
arachnoid
▁2)
▁Approximately
enicillin
▁dispersion
divid
▁emphasize
▁hygi
▁antioxidant
▁glucocorticoid
amethasone
▁anticonvulsants
▁(12.5
▁autop
▁antinoc
chlorothiazide
▁assessing
▁10.8
▁nmol
pharose
erence
▁deoxyrib
▁131
ilization
▁carbam
▁solit
▁chromaffin
▁136
chicine
-8-
▁70-
osylation
▁whereby
▁myot
▁elicited
ogaster
▁gangl
▁accessory
▁hybrids
▁antidepressants
odies
▁groove
▁nutrient
▁cG
▁20,000
roth
▁blockade
▁(+)
▁50
▁NIDDM
rance
▁CU
▁30%
▁supra
▁ventilator
quit
▁trachea
▁HCV
▁EI
▁altering
▁sacr
▁vulgaris
esicular
▁TMP
▁lep
AO
▁spontaneous
▁chlamydial
aterals
▁comparative
▁degraded
▁carboxyl
▁RNase
▁tenderness
▁immunoassay
▁inad
osynthe
▁negatively
ocar
▁hepatocellular
ture
▁Scatchard
▁mesenchym
▁84%
▁econ
▁relevance
▁hydrolase
plying
▁Hg
olism
▁spre
▁0.87
▁trimethoprim
uspid
▁augmented
▁choro
▁162
▁antidepressant
omiting
▁(1.3
▁distrib
▁Breast
insulin
▁gp
▁cardiovascular
smokers
amole
▁neurob
onad
▁12.0
mittent
▁CAH
▁lactation
▁genotypes
25)
erose
ministration
therapy
umbered
▁granulosa
▁sarcoplasmic
▁fourfold
operiod
▁implants
▁SOD
▁200
▁rhabdomy
▁0.36
▁albuminuria
▁contractions
stole
▁kd
certain
36
alian
▁Purified
dR
▁impulse
operated
▁iatrogenic
▁infectivity
▁reversibly
-800
▁adsorption
▁precipitation
roma
▁DNP
▁studi
▁dyspnea
▁Histological
ropo
iflu
increased
▁calorie
▁favorably
icardial
guan
▁pathogen
peak
▁microM
rography
▁Leuk
▁skeletal
▁intermedi
ralfate
usate
▁137
ampl
.4%)
▁urtic
▁amph
▁positioning
EPs
▁186
▁cen
▁Responses
epid
▁Nons
▁yolk
ipramine
catalyzed
▁hippocamp
.6%)
tokinase
▁ADR
▁Transient
▁10.
▁fec
▁sputum
▁titers
▁horseradish
▁256
▁ionomycin
uretic
▁psychiatric
opar
(3)
▁2-4
▁exons
2.
▁perfor
▁pepsin
▁Lymph
80)
▁secretagog
▁cytoskeleton
▁mediastinal
▁VAS
▁acceleration
▁89
▁donors
▁glandular
▁valu
▁48-
oil
tually
lytic
▁LFA
▁polymorph
▁gon
▁lith
itudinal
▁(50
▁appra
-36
▁coordination
immunoreactive
▁estrous
▁messen
ylyl
omerular
▁computerized
▁elimin
▁0.22
▁OC
▁radiotherapy
irc
▁secreted
▁Tryp
▁carboxylase
▁caries
▁leth
▁Kd
▁menstr
cellular
▁hydrolys
▁bronch
▁2
osaminidase
▁TS
▁19
▁autoradiography
rostaglandin
▁homeostasis
▁AMI
▁proteinuria
▁radioactivity
BMD
irradiation
▁PAH
▁tumorigen
▁79%
lamyd
▁hyperplasia
▁nigra
affected
▁vaccination
▁predominance
▁0.01)
▁adolescence
▁antioxid
▁substitution
▁Fewer
▁metastatic
▁hepatotoxicity
▁Immuno
vember
2,
▁thirds
▁20.5
▁retina
▁spike
icardium
▁.000
170
▁lipoproteins
▁deem
▁tetra
blocking
▁25,
▁targeting
▁promoter
▁10.2
▁pressures
trition
▁subjec
▁retinoic
perme
▁qualitative
▁12%,
▁adjus
TCA
▁synthesized
▁196
▁0.74
glut
▁bacteri
▁chambers
rometric
▁characteris
blinded
▁Measurements
▁zinc
▁Alz
▁ulcerative
1)
▁hematopoietic
ichia
▁metr
▁Ure
7]
▁glioma
1.2
calor
▁allele
▁prospective
▁1.5
▁cartilage
omegalovirus
tronic
▁hypere
▁cytochrome
▁SCLC
▁syncope
▁fragmentation
▁13.2
▁(40
▁89%
▁4
▁Candida
▁1.44
▁bacteremia
▁stratification
ophilic
ffin
▁leuc
▁potentiated
▁phi
▁meningococcal
glutamate
ejun
ylline
2.2
▁abduc
▁apoprotein
▁pem
▁mammography
▁Differen
▁1.33
esity
▁(69
trum
imetry
okinase
▁ultracentr
▁leuk
▁exogenously
▁hemat
▁triphosphate
cycline
▁silica
▁psor
▁ligands
▁transplanted
▁(28%)
▁spi
▁lectin
▁249
otom
inemia
fat
▁hemorrhage
▁pathogenesis
▁(35
oglobin
▁correc
sia
thickness
▁HPV
▁depressive
▁28.
▁abr
iological
▁prel
esthetized
▁LPL
▁nonsurgical
uantitative
▁lesioned
60)
prising
▁3.6
diagnosis
▁compositions
ituit
▁aden
tration
▁restric
▁expon
▁hypertension
selective
dial
▁vulg
▁reas
▁anxiolytic
▁resembles
▁erythemat
▁resection
respectively
lyce
▁diploid
▁adrenergic
▁abrog
pituitary
▁ACh
intestinal
essation
▁DEAE
▁budesonide
▁Retrospective
▁polycystic
idate
▁brevis
▁exhibited
▁vasoconstric
▁900
sion
▁fetus
▁schedules
▁topically
▁hyperplastic
aturity
▁118
glucosidase
▁cycling
▁BMT
▁hypnotic
phosphatase
▁(10
▁tritium
asive
▁lys
▁reproduc
ifugation
stro
▁calcitonin
▁ureter
▁crosso
▁follic
phosphatid
▁adenylate
voltage
▁aneurys
phrag
▁115
▁endurance
ometh
5'-
4,5)
leu
▁keto
▁LN
▁confir
Ba
22,
utions
▁0.79
omagn
ipine
▁globulin
▁conto
adrenergic
▁mutant
▁esters
ifed
▁30%,
edding
(2-
▁Diets
myr
▁compart
▁symptomatic
▁viscosity
▁brom
hexyl
▁microscope
▁myofibr
▁(24
6)
fiber
23187
▁iodine
▁afl
▁Arterial
▁polarity
-4-
ystitis
gene
▁concom
▁7-
▁269
▁calcification
▁sulfhydryl
irradiated
▁overt
glyc
trib
april
HIV
37
-72
▁amenorrhea
▁postpartum
▁ANG
▁noninvasive
▁Exercise
-4)
myc
allium
utaneously
ymal
▁carcinoma
▁3.2
▁6.6
▁halves
▁thir
▁intoxication
▁spermatozo
▁90%
odil
▁discriminant
adren
▁preterm
duce
-[
ulators
▁ultrac
▁supernatant
▁arthro
excluding
▁urticaria
propanol
▁polymer
▁mug
▁hypothalamus
▁lavage
▁(1989)
▁cic
▁5.1
▁(100
▁angiogram
▁tib
▁muscul
ardia
▁(400
▁tissues
tus
nons
▁fossa
▁fluc
▁acne
▁triamcinolone
▁recombinant
▁disruption
▁pericardial
▁sequential
▁(7%)
0).
▁intrad
regulation
amol
▁HDL
yste
▁Adding
igl
polar
▁pleural
▁quotient
▁dissociated
50.
initiated
amilies
▁hypothermic
▁0.62
▁laparo
▁lateral
activation
uppression
▁acuity
▁beats
▁presentations
ypass
▁provid
▁symptomatology
▁hydroly
▁plots
▁+/-
▁feces
▁tubule
▁hydrop
GlcNAc
▁multis
trate
▁Ia
amycin
▁1,25-
untary
▁congenital
▁pelvis
agittal
▁Consistent
▁resistant
▁RII
▁juven
▁quantit
▁polyacrylamide
omatous
▁measles
▁unsuccessful
distal
▁headaches
▁mutagenesis
▁tetracycline
▁hypothalamic
tib
▁deox
▁toxicity
cyte
▁elab
▁supplemental
phosph
umption
▁MAP
▁arterioles
▁excised
▁noxious
opeptides
concentr
▁chromium
▁inorganic
▁Repe
oprotein
▁-0.3
▁0.27
▁potent
ortic
▁34
alkyl
adminis
▁cardio
▁simvastatin
▁pulmon
49
▁progesterone
infected
▁onc
▁investigating
▁schiz
olac
▁myoglobin
▁splice
▁pneumoniae
-[3
▁hepatectomy
▁incub
▁pregnancies
▁evaluating
▁fas
▁embryos
haem
▁complexes
urospor
▁yielded
onucle
▁tric
▁1986.
▁17.3
▁biologically
▁elu
▁800
▁barb
14.
▁adenocarcinomas
▁(84%)
▁(43
osteroid
▁Throm
▁genomic
▁obstetric
▁dobut
▁characterize
▁98
▁inoculation
▁averaged
Trp
▁2/
▁Histologic
▁cytotox
▁mononuclear
▁condyl
▁intrac
asal
▁ultrasonic
actam
▁digoxin
▁HB
Ti
▁regenerating
▁aerosolized
▁nal
▁consecu
▁sequenced
▁collec
enriched
▁interp
▁adenoma
(+)
phosphorylation
▁glycos
opus
esin
specified
odgkin
▁10(-8)
▁mandi
▁benzodiazepines
atients
ordination
lactam
isole
▁inhibits
▁muscular
▁filtration
▁glomerular
▁hemodynamics
mercapto
tium
▁pH
▁parenchym
▁connec
▁inten
▁pectoris
▁autoantibody
▁monol
▁ole
tensives
faction
▁pati
galy
▁nodular
▁0.0001).
astases
▁NP
FEV
▁fron
rals
tality
▁hemolytic
▁(1988)
▁241
▁hyperglycemia
acterial
▁cDNA
▁efflux
ipr
▁menopause
lactams
renic
▁reag
▁instrumented
▁(0.25
▁bilirubin
▁vagin
▁Postoperative
growth
▁pyram
opyr
2-
▁postnatal
▁prescrib
▁centrifug
iably
RIF
imetic
▁0.02)
▁morbid
iptine
estim
mild
yrid
▁vasoactive
tering
GABA
ulence
▁somat
▁intraocular
▁inability
▁hemorrh
ected
▁mutans
▁phosphatid
▁lobes
nitroso
▁lessened
▁allergenic
hicle
▁TCA
▁sorting
articular
acute
atoid
▁Medicare
hydroxylase
▁apolipoprotein
▁Symptom
acid
▁parathyroid
▁quantitated
▁Specifically
RNP
▁ultras
12-
▁exceeded
▁mAbs
▁lethal
roscop
▁intrathe
▁iod
▁anhydrase
anide
tation
▁stimulates
▁choleste
mobil
▁implic
▁Chronic
▁posture
▁Significantly
▁depended
▁(80%
oblasts
atology
dil
aturia
▁(140
rement
▁conformation
▁appendicitis
▁substanti
▁superimposed
mL
adrenaline
tRNA
▁calculi
▁62
▁pall
emias
otericin
▁renal
apsulated
▁85%,
CDD
arate
ercul
▁utilization
▁RI
▁ciprofloxacin
▁164
identified
▁ileum
▁subpopulations
▁penicillin
effectiveness
▁projec
rophob
oxia
▁kPa
▁mediates
▁formalin
▁(6)
▁ducts
rested
▁Incubation
▁deposits
▁metastases
blocker
ochem
atite
▁-0.
idol
▁TCDD
▁triacylglycerol
▁coincided
ymptom
▁stabilization
orporation
▁laparoscopy
stimulated
gnetic
▁ventricul
▁hybridized
▁autoantibodies
▁optimally
▁transplants
▁overe
▁transmembrane
▁ketoacid
▁weakly
▁immunoglobulin
divided
2),
▁LAD
▁macrophage
▁nucleoside
▁inhibitor
▁unresponsive
▁practic
99
▁chromosomes
▁synapt
▁codeine
▁compli
▁(125
▁hamsters
▁(1000
lyl
▁58%
upuncture
▁strom
toxin
▁mesangial
pontaneous
▁296
▁Antim
▁80%
obacillus
▁reactive
▁PLC
▁psoriasis
▁mucosa
osomes
zinc
▁75
▁81%
reening
▁hemodynamic
▁hyperthyroidism
▁deple
▁(10(
▁phenylephrine
▁aberrations
▁phorbol
otropy
phs
▁palli
▁arb
▁(76%)
-5'-
▁uncl
20
▁galact
▁enlar
▁Fifteen
dT
▁indeterminate
-6
osterone
edema
-70%
onorgestrel
▁procollagen
emide
▁teratogenic
idem
cemia
responsive
▁repor
organization
▁303
▁metformin
▁elicits
ighteen
▁74
regn
▁afferent
lix
▁immunoreactive
▁69
▁semen
NMR
▁ultrason
keleton
-20%
▁fibrils
▁pathways
▁saturating
parathyroid
▁regulates
▁erythropo
▁placenta
▁fluorescent
▁organelles
▁NSAIDs
▁DVT
ostic
▁resin
ATP
▁IUD
▁uro
▁implying
▁14%,
▁metic
▁proteoglycan
yrox
▁ferrous
▁HPLC
BSA
▁radiolabeled
▁spati
▁(27
▁65%
▁recom
▁degradation
tages
ophyll
CNS
▁cleaved
enteric
▁psychopathology
CoA
lym
performance
▁fertilization
tryptophan
ogenous
▁pulses
urc
esia
▁nitro
▁(1.5
sibly
▁reapp
▁heterozygous
▁50%.
inesterase
▁scientif
▁-2
ields
ecal
▁homogene
▁alb
▁serotonergic
400
trig
▁gels
▁electromy
▁segreg
▁localization
independent
▁hypocal
▁Risk
▁prodrug
▁alleviate
▁promoters
▁100%.
▁neuropathy
▁depleted
rosis
▁10(-1
▁respir
tence
▁denervation
onine
anoid
tingu
▁twins
▁evaluations
▁antagonists
amino
▁Depart
7.
ocalization
ontal
otoxicity
▁selective
▁recombination
hemoglobin
▁narrowing
incub
▁rifampin
▁104
▁testes
▁cryp
▁27%
truction
icardi
▁Replacement
MDA
urban
▁11.2
▁autoanti
pril
▁paren
▁contaminated
▁vivo
▁sympath
44
▁(0.4
ventional
iciencies
▁histones
▁1.10
▁frontal
romic
▁mRNAs
▁depolar
Ni
▁7%
▁vasculature
▁expec
tituting
▁mammals
tyl
▁cardiopulmonary
▁endocrin
.4
▁predominantly
▁congestive
▁157
5.
▁baroreceptor
olated
▁monomer
▁unlabeled
▁Hib
▁78%
osyn
▁diffus
rectomy
▁0.75,
▁arrhythmic
▁elastic
▁cytoplasm
magglutinin
FSH
adequate
averine
▁endoscop
▁223
90,
lies
4%)
▁bicycle
rogenesis
▁paternal
▁monocytes
glia
▁resembling
▁subtilis
▁incision
▁SDS
▁inflow
▁lamellar
tracheal
▁199
▁chol
▁HS
cyst
atous
ylate
▁monovalent
▁cephal
atized
immune
ithi
▁52%
dies
▁Experiments
▁predis
▁tumours
eration
RIA
▁pI
▁(34
▁CI
azol
arbonate
]-
usp
▁catabolism
▁0.3%
mend
▁129
sac
ilic
▁PGA
▁hormonal
▁transgenic
▁stoichi
▁evol
▁11,
-10(
▁gestational
▁diacylglycerol
ignific
▁hepatomegaly
▁75%
ulmonary
ivac
▁intraperitoneal
▁reservoir
▁immunoglobulins
▁adequ
▁7)
▁striatum
▁favoring
▁phagocytosis
▁clamping
aminophen
▁polyethylene
erebro
▁wavelength
▁1/2
▁BH
▁phosphorylation
VIP
▁distorted
▁Myocardial
Ly
monstr
▁243
▁precipitated
▁nephrectomy
▁11
▁Accordingly
subunit
▁desensitization
roso
▁Cooperative
▁0.97
▁acinar
utroph
▁microns
▁perip
▁spind
▁distal
▁17.1
"-
kground
▁55
▁virion
▁microbial
▁exce
▁dopaminergic
▁-3
▁Feeding
hemolytic
▁Cumulative
▁33%,
▁alkyl
▁hemolysis
mokers
ainide
etidine
▁considerations
-10.
▁scars
▁187
utyr
▁parap
▁35
▁bioavailability
ximal
▁Hz
▁benzene
oconstric
▁micros
▁hetero
▁variants
▁galactose
tist
4%
▁mep
▁clotting
▁Experiment
8%
▁NG
▁prostheses
6%)
▁10.4
perature
▁parat
kilobase
Pa
oderm
macroglobulin
▁Sertoli
▁regurgitation
avoid
.2
▁[3
▁tryp
▁DF
▁jaundice
▁bradycardia
grees
▁prematurity
▁2.2
ituitary
▁concanavalin
▁Lipid
tenti
▁220
▁4.9
▁Meas
accharide
▁exhaus
etitive
phadex
▁13-
▁immunogenic
isal
▁coughing
▁individualized
bilities
▁myrist
▁proceeded
▁1.05
▁junctional
▁virulent
▁arteriography
▁heterozygotes
▁infusion
▁carbohydrate
rotic
▁allogra
52
▁downstream
soluble
▁spon
▁ectopic
▁NR
▁LM
▁HSP
▁bony
▁hypertensives
targe
enten
▁76%
▁correlated
▁remission
availability
▁dissolved
.8
tribution
▁colectomy
▁microorganisms
▁10(6)
▁5.9
substituted
kine
▁speculation
molar
opausal
approximately
cotic
▁lar
tomized
▁aeruginosa
▁gallbladder
▁4.4
▁uncovered
stranded
▁Raynaud
▁morb
▁bronchoscopy
▁prolif
otherap
▁Golgi
17
▁superim
▁Computed
otherapeutic
▁20%.
▁endoscopically
ailure
▁radios
▁guan
IAA
▁oils
▁poorer
▁MH
▁modulation
rague
▁colonies
▁direc
osal
cade
▁migrating
▁adipocytes
▁pea
▁0.05)
▁Drosophila
▁0.59
operox
▁sodium
prandial
indolol
▁conduction
▁kainate
▁SBP
▁aggregated
eptide
▁24
▁58
▁MAb
▁(45%)
▁Ultras
▁megakary
otassium
▁6),
vic
▁extrinsic
vul
▁EBV
ausea
▁junctions
▁catalase
▁0.6
▁-15
▁mannitol
▁hyperpolar
▁10.5
isol
▁affinities
▁anticonvulsant
idis
▁ubiquitin
▁midbrain
▁ineffective
▁ulnar
muc
▁10-
▁discharges
▁bactere
▁shortening
▁(9
▁topo
▁paralleled
tenolol
▁macromolecules
▁propagation
/1000
▁phy
▁4).
valent
oxybenz
▁enrol
imin
▁infancy
▁Antic
3.
dip
hCG
▁corne
▁possessing
/3
▁tes
▁0.29
induc
▁fluorescence
▁subc
oxane
▁heterogeneity
otoxic
▁resto
▁nonresponders
ositi
▁subclinical
▁contral
▁autoradi
▁mercury
▁Stu
estradiol
tens
▁sial
▁transfusion
▁oxidative
exin
oblast
olestero
▁denaturation
▁0.001,
▁solute
.3
▁intracor
▁0.14
▁1.03
lamp
▁(=
anuary
otrexate
▁0.25
▁1.19
aund
ipit
▁acco
▁Kup
▁Epidemiologic
inum
▁NADPH
▁Centers
▁EB
▁deform
▁baro
▁mitogens
▁allergic
▁100,
▁MRI
spective
▁catalysis
▁thresholds
.3%)
ogens
lebsiella
immun
▁reti
zation
olab
▁Increasing
▁aggregation
Barr
seud
5,
gia
▁DD
▁somatic
▁PB
▁kerat
▁(41
gth
rophenyl
▁paradigm
▁nodule
▁cerebellar
▁Hypertension
gesia
▁transported
▁parox
▁oste
izin
synthe
▁TPA
-21
functional
▁PV
ogenicity
▁mell
trating
▁0.55
▁inositol
▁spermatozoa
▁leukotri
▁irritable
▁infarct
yrib
▁10(9)
planchnic
alcip
▁edema
▁ketoconazole
▁latency
▁yeast
▁100,000
▁Indo
▁investigators
nary
coun
▁Newly
▁plex
▁pharmac
▁postoperatively
CAH
▁20,
▁0.94
▁thromboembolism
▁Biochem
▁hydrochloride
ulon
Pu
▁dialysis
lycemic
▁attitu
▁electroly
▁descriptive
parathyroidism
▁subunits
obarbital
▁colchicine
▁regulator
▁tidal
odine
▁bif
diol
ocomp
▁88%
▁sphingomyel
▁dehydrogenase
▁peroxidase
▁microorganism
pyr
▁PCA
▁multiparous
porting
7)
▁ointment
▁8,
▁phasic
▁cataract
▁mammary
elan
▁unex
edic
▁Recombin
erox
▁hypot
000,
▁exon
▁ecological
▁heterodim
▁blinded
▁PCO
TNF
-80
▁0.5-
▁pts
▁1.06
esting
▁0.66
measured
lora
-1.2
alp
throm
predominant
▁Ps
pinephrine
▁invari
▁prerequ
ertion
▁12-
▁lumbosacral
apine
▁goats
▁libitum
acetate
oic
▁orch
▁monotherapy
▁ceftriaxone
▁hypertonic
▁nonsmoking
ROS
zotocin
▁Bronch
▁-4
▁microscopic
▁eug
opathology
ophylline
▁lute
▁hydroxy
▁12%
lue
imidine
▁pS
▁standardi
▁0.001
▁oligonucle
effects
(2+
2+/
▁adhe
▁persistently
▁0.001).
roin
fused
▁synergistic
▁respondents
▁hairs
▁crest
▁rises
▁swab
▁[1
▁diarrhea
▁omeprazole
onc
▁ACI
▁0.33
▁76
▁variability
titudes
▁72
apamil
▁ara
WBC
▁chond
carbohydrate
tioned
▁orthoped
▁detectable
21.
▁1.9
▁59%
▁underwent
▁61
▁240
etine
34
▁roentgen
Cys
▁immunosorbent
▁enlarged
▁43%
▁brainstem
▁adnex
▁cardiomy
▁(38
▁mathem
32
▁CaCl
▁endometrium
tophan
▁ablation
▁antagonist
▁lysosomal
roline
.9%
pressing
▁horiz
cholesterol
▁bypass
-90%
hion
imination
▁fluxes
naph
olol
▁hyperthermia
butyl
▁preferen
▁threonine
▁(77%)
▁condens
athetic
astatic
▁substrates
▁somn
▁chor
▁aureus
▁stiffness
molec
▁actinomycin
▁1990
▁tibia
▁carp
repres
2)
ropath
idium
▁phosphor
cepti
lysine
▁throm
▁nociceptive
▁Comparisons
assi
▁imipramine
▁WHO
▁relaxant
orin
▁metronidazole
▁intracerebral
▁sarcolem
chemical
▁aeros
lactating
▁LAK
pH
electro
ulatory
▁pneumon
▁100%
▁Subsequently
73
idespread
fibr
▁COOH
▁endothelial
thmic
thms
▁ket
▁(46
▁(18%)
▁cleavage
redoxin
Ala
▁Laboratory
▁adequately
chers
irubinemia
▁norepinephrine
ilical
▁intermediates
▁glycoprotein
▁cardi
phila
▁alginate
ostr
▁NAD
▁recruited
-1,
▁cation
squ
▁1.6
▁backgrounds
virus
▁Tc
estions
isomer
▁modifying
▁dox
opharynx
uris
genital
▁asymp
otri
tro
▁dissection
▁muta
▁tumour
gesterone
▁electrom
▁Previous
7),
ortal
heum
▁neutrophil
▁(25%)
▁adipose
itonin
ediatric
▁sensitiz
▁oxalate
cnemius
tailed
▁neurotensin
▁discontinuous
▁truncated
2;
▁BK
▁immunity
▁torsion
▁350
▁bumetanide
phosphon
▁melanoma
gus
bility
▁epithelium
imethyl
▁electrochemical
▁gonadotroph
▁Increases
▁Stimulation
gangl
▁bronchial
▁(62
▁10(-10)
22
▁enalapril
oposide
neoplastic
▁intolerance
▁specimen
cortisone
▁apnea
▁infiltrating
▁indications
▁focal
▁Diagn
▁asthma
▁ruptured
pulse
▁44
▁lymphocytes
▁Schwann
iatric
prisingly
▁77
omial
▁3.5%
▁hypop
/100
12.
▁effusion
▁[(
▁Sulf
quired
▁thromboembolic
50/
▁349
▁axonal
▁PBMC
▁([
onit
▁ANP
2%)
▁hepatocytes
rophy
▁PDGF
othione
iclovir
▁pancreatic
▁presumed
▁HLA
▁xyl
▁infiltration
0%)
0.5
▁mandibular
▁estrogenic
classified
▁captopril
osidase
promazine
▁incontin
tradiol
iciently
▁oedema
▁309
▁libr
▁(17
arbox
erican
▁endocytosis
▁phenyl
▁residues
▁treadmill
▁necrotizing
sies
▁38%
-3.
▁sinusoidal
▁2.9
125
▁bombesin
specifically
48
▁ligand
kinin
▁hydrocortisone
▁inhibitors
▁Experim
▁consul
ticularly
ecan
▁toxins
▁concep
utable
▁arachidonate
aric
12,
▁92%
▁vigorous
▁definite
2+,
▁phenol
▁antenatal
iphene
▁dialys
▁interstitial
▁cystitis
▁problematic
omere
▁streptokinase
▁functionally
▁aneurysms
▁lax
▁subdivided
▁inadequate
0%).
dia
(1,4,5)
▁spectrophot
▁reliability
▁6.7%
ypro
▁adhesion
▁encephalopathy
▁TG
sulf
▁19-
ylase
▁expresses
estive
▁sedative
▁Pertussis
▁MF
▁metabolic
▁veins
ocortical
▁intercourse
roscopic
▁OV
phor
1.0
▁rearrangement
▁212
▁deposition
▁CRH
▁fungus
▁cerebellum
▁conjugate
▁bronchi
teroides
▁debr
urrence
▁cutaneous
▁ethanol
mol
▁DNAs
risk
▁basilar
▁Combined
▁additive
ovulatory
SMC
▁blots
▁subtype
95
▁formulation
▁enamel
moderate
▁anticonvul
▁miti
▁citrate
▁osm
ecia
▁aspiration
▁facilitated
▁progestin
▁1982
▁permeation
ocular
ithin
▁adhering
▁hypoxic
▁vitamins
odiaz
otrophic
▁(12
moid
▁streptoc
roprusside
▁25%
adjusted
▁amlodipine
▁ductus
▁68%
ocytoma
▁histamine
▁luminal
rof
▁63
▁masked
▁Improved
ocellular
▁poisoning
▁ascorb
▁HbA
▁slows
▁mucosal
uginosa
▁amplitudes
vated
HLA
▁BP
▁pyraz
▁0.03
depleted
▁epidemiological
titute
▁caffeine
▁intracellularly
▁defective
▁melanogaster
▁ranged
ilized
▁0.3
▁erythrocyte
▁Pneum
.3%
▁formaldehyde
▁VE
▁pretreated
▁Mild
erent
▁bilayers
▁respiratory
▁obstruction
▁allo
opause
▁thoracic
▁olfactory
▁Estrogen
▁coated
▁mumol
▁encodes
▁tetanus
▁MAO
/90
▁metabolism
sibility
▁2),
▁nucleic
▁wors
▁inpatients
58
teryl
▁blu
roids
▁myocardi
:2
▁cyst
▁95%.
▁anastomosis
ucose
▁solubilized
▁constituted
valence
▁gastric
tide
▁neutrophils
▁transporter
▁lysates
proved
▁ELISA
ordin
alities
▁infil
alic
rangement
Glu
130
encephalon
▁(88%)
▁slopes
▁interacting
ylic
tosis
▁nephritis
▁responders
▁(0.
butamol
5-
▁Patients
▁ank
▁supine
▁commerc
▁IDDM
▁longus
▁99%
▁lactulose
▁validated
adrenal
▁Findings
concentration
tia
▁irregular
hemo
▁thrombin
ploid
nucle
▁38
▁chemotaxis
sAg
0.1
▁electrically
ivariate
▁traction
▁15.
▁nephropathy
▁induction
▁manipulation
▁RV
tetradecanoyl
enyl
▁regain
▁degeneration
▁tonsillar
leural
ranged
▁uv
▁(2)
▁0.28
ysm
ergen
▁epithelial
▁isoflurane
8;
▁hered
enan
▁oxide
▁9.6
▁nebul
▁counseling
▁TDI
yroid
crib
▁extensor
▁statis
turnal
yrene
▁capsid
▁65
▁subunit
▁bronchoalveolar
vertebral
plate
-6-
tocop
▁secreting
till
▁histologic
▁43,
▁sensory
▁158
affinity
▁migraine
1.5
▁clearance
▁excision
▁98%
turally
▁proce
▁tubules
,000
▁sacc
▁fluoxetine
▁virions
▁glucosamine
illin
▁cardiomyopathy
idovudine
oreactive
▁TM
▁allografts
rength
▁gynec
▁Disease
▁optic
lipid
▁endothelium
▁smears
▁estrogen
-5-
▁novo
▁exerted
▁vicin
chrom
farction
tility
▁adhered
osclerosis
▁TGF
▁preoperatively
tilb
▁pools
-50
3,
ritish
orsal
▁serotypes
Gal
▁endocardi
▁haloperidol
▁0.25%
directed
▁lymphoblastic
aethyl
lamydia
▁cyan
invasive
▁competi
graft
▁312
iline
▁fenoterol
▁hematocrit
▁53
▁18.3
kade
▁endoscopy
▁stenoses
erance
▁predictors
nowled
▁enteral
ophag
▁fluorescein
▁gases
▁NGF
▁disposable
▁sulphate
▁characterizes
▁diazepam
▁dilution
▁PW
pregnant
▁deprived
▁2.9%
▁227
▁Hispanic
▁increas
▁intracoronary
cancer
▁interrup
-23
5%.
▁borderline
▁preoperative
continu
titu
▁PGI
▁establ
▁benzoyl
▁attributable
▁inver
▁extrac
▁blocker
▁10(
6,
okinetic
▁280
▁heteroz
▁LTD
opi
▁endometrial
▁dystrophy
▁converting
econd
▁lapa
▁abbrevi
▁anhydr
▁struc
onset
-100
▁noc
▁bactericidal
ociation
▁peroxis
elong
EDTA
▁Tran
mTc
▁acoustic
▁fibrill
▁8.9
▁FD
keto
▁adver
▁tympan
ellar
▁caudal
mitter
receptor
▁tetan
romatosis
▁umbilical
▁32%
85
ipid
▁DMSO
▁MN
▁itraconazole
▁soluble
▁inconclusive
▁syphilis
▁spectro
assays
aggreg
120
▁DMP
▁jejunum
▁amo
▁1987,
▁paralysis
▁triflu
▁Myc
bac
EI
▁venom
ropriately
▁(300
mum
▁97%
▁333
▁intron
▁11.0
eded
americ
▁insensitive
▁MgCl
trial
▁expulsion
prin
▁integrin
▁acquiring
gative
▁MCF
▁promo
▁intravascular
vaginal
▁239
▁hemo
▁occupational
▁termed
▁kidney
itoring
▁hypothal
ADP
▁28%
▁0.5,
▁efficac
▁enhancing
▁transaminase
16
▁irrespective
8.
▁pim
▁Acute
▁cystein
▁circumst
osarcoma
▁sulfur
▁Purkinje
:1
▁diagnosing
elvic
▁160
▁glycoproteins
▁purine
▁insom
rogenase
▁bacteriophage
▁isomers
▁Prel
associated
▁ECG
PAF
▁44%
▁triti
▁Sixty
▁galanin
▁6-
▁atropine
▁650
▁bromide
▁29
quam
▁ect
oleucine
-2
opr
▁kidneys
▁5,
roxy
▁(32
▁trac
uanti
iferous
▁(60
▁pancreas
▁glycemic
▁Cs
▁cereb
▁CTL
▁digested
▁aro
▁(30
▁(75%
▁GnRH
ixime
▁TB
▁MPO
olipoprotein
▁precursors
drome
▁1
▁perox
oresis
linking
▁14,
▁Ig
▁dyst
tric
▁immunoblotting
▁rabbits
▁theta
▁deficit
▁(1%)
▁Bone
CCK
OA
)],
melan
anserin
▁evaluates
glutin
brom
umulative
▁strepto
▁lymphoma
▁decayed
▁sediment
umbers
▁0.61
▁Efficacy
otypes
▁electrodes
▁originating
▁tablets
quinone
thromb
▁hematuria
▁hypothetical
exercise
opulmonary
▁catab
▁ethylene
ophila
▁Spontaneous
▁uncommon
▁lutein
eptic
▁abolished
▁0.7%
viral
▁Measure
▁epilepsy
dehyde
/4
▁ventilatory
▁Positive
▁terat
▁monophosphate
▁490
▁ure
aryl
otides
▁transfusions
etaz
▁300-
▁heterogene
▁108
temperature
tissue
▁4.5%
▁fati
▁(198
HIAA
▁0.95
tamine
▁WGA
▁dilatation
icides
ycardia
iazide
▁SPL
thyl
▁hydrophobic
fected
motic
Sepharose
▁favored
lux
▁sucralfate
▁placental
▁nutritional
▁cistern
▁heel
▁perfusate
▁vasodilation
etition
▁vascular
▁vincristine
96
▁Twelve
▁Staphylococcus
▁aldosterone
odal
▁testicular
yrosine
▁1.7
▁regar
▁bronchitis
titutes
▁unrelated
▁contracep
▁immunofluores
ropine
▁myc
▁inducing
▁cis
ffec
teral
▁lowers
▁antisecretory
cytes
▁irradiated
rospinal
▁anis
facturing
▁65%,
▁immunological
ognition
▁modalities
▁relaxations
bumin
▁experimentally
▁iden
-1.1
resist
▁neoplastic
admill
▁29,
exposure
ycline
▁conditioned
ighted
kets
50,
▁lamin
▁syngeneic
▁standardized
▁minus
plastic
▁erythematosus
mitters
▁7,
ximum
▁3;
▁negligible
ronch
▁simplex
▁genit
▁ketamine
akary
▁enox
▁radiograph
▁1981
jective
.0%
▁Respon
▁0.0
▁gonad
▁adhesive
▁neuroendocrine
▁kilobases
▁alternating
▁grading
▁42,
▁pyrimidine
▁cerebro
▁9.5
▁virul
▁extensively
▁genic
▁Chan
▁exaggerated
▁emphyse
▁virulence
echn
▁minimally
▁mutated
▁MLC
atible
▁phenotyp
▁possesses
▁absorptiometry
junctional
▁LT
▁stringent
▁mesen
▁BN
▁mutagen
fluores
AIDS
▁prospectively
planted
▁niacin
polyacrylamide
▁hydroxyl
olitis
▁mimicked
.1)
▁0.99
▁(5%)
▁infrequently
▁7.2
inyl
opian
olone
▁pigs
▁dobutamine
▁(0.6
tening
▁modality
▁hypertrophy
▁degenerative
▁fibros
gestin
▁uterus
▁1986,
▁differe
loon
gated
▁arterial
geneic
▁isolate
▁40.
▁21,
▁pituitary
▁palmitate
▁reductase
▁fatigue
▁Nineteen
▁TIA
▁antioxidants
▁abstin
occus
▁inflammatory
▁tendon
▁Arter
pinal
▁eluc
▁ery
▁0.44
▁0.2%
IgA
▁cultured
▁progression
atoma
▁canine
▁cholec
▁antagonism
vaccinated
relaxation
illar
epines
▁2.7%
74
▁RIA
▁(1.25
▁discus
▁13
▁1966
urys
flanking
▁17.
aryngeal
▁Systolic
▁trach
▁gonorrh
reast
ocul
8+
tocopherol
59
ocrit
ologous
▁prednis
uterine
▁nucleotide
ulla
ritic
▁100-
▁seminal
▁deficient
▁0.69
1-2
-8
▁developmental
accharides
▁inward
▁ovaries
[3
▁cadaver
▁immunization
tional
otin
lining
LR
iotensin
▁levodopa
▁Combinations
900
▁transaminases
▁precordial
idym
▁(+/-
▁chickens
▁elevated
▁ventil
▁inducible
▁neuromuscular
nine
▁PF
▁serologic
veness
▁tibial
▁birthweight
▁venous
▁ionophore
▁extrav
acial
▁descrip
▁infiltrate
atectomy
▁PMN
Lys
overall
athy
▁dimeric
translated
▁spherical
tryp
idated
▁alopecia
silon
▁HMG
loxacin
▁adolescents
▁7.4
▁identif
▁30.
▁dodecyl
dependently
leb
rozen
▁adenomas
▁norfloxacin
▁ips
▁(4-
gesic
rocyte
essive
▁contraceptive
▁degrad
▁calves
▁permits
▁morphological
erative
turition
▁inactiv
andida
▁Metabol
▁erythrocy
ophy
-99
▁hepatic
▁ECM
▁palpable
▁Physicians
▁0.54
▁arrhythmia
▁eosin
▁vacu
▁aggres
▁angiographic
tituted
residue
tis
-0.
▁tamoxifen
▁eliminating
▁compounds
ffinity
▁lambs
▁preferential
ygous
▁0.52
▁0.9%
motor
▁blunted
▁glutamic
ergenic
▁nitrite
▁macrophages
▁macropha
▁helical
▁adaptive
▁erythropoietin
▁singleton
▁submaximal
562
▁69%
▁2.5-
▁influenza
ocycline
▁epididym
▁progestogen
▁dosage
▁54
▁atrial
(1,
▁spleen
600
ocardi
▁diabetics
24
vive
jury
▁53%
gely
▁antiser
▁(25
lastic
▁infusions
▁canc
lebrand
ithium
aldehyde
▁pars
▁complications
▁elucidated
tially
▁febrile
benz
-27
ortical
▁Improvement
▁Thr
▁covariates
▁(28
▁(5
▁epiderm
▁RA
▁immunos
▁placent
renol
▁quantitatively
incubated
estis
68
▁subpopulation
▁ABR
HN
thin
retic
▁undergoes
▁membranous
▁duodenum
▁anatomical
▁amide
▁suppresses
▁resected
/2
+]
▁behavioural
▁esophagus
▁aortic
▁12,
▁activates
glucuronidase
xyl
▁glyburide
▁tolerate
ffe
▁artifact
▁receptors
ragment
azole
-3,
▁metered
▁vertebrate
depr
92
▁substances
▁triceps
▁Injection
CHD
sensitivity
4)
▁preexisting
▁promin
din
▁thalamus
PHA
▁0.05).
▁rostr
▁aromatic
cortic
Ds
▁barium
▁upstream
▁fmol
▁aor
posterior
tiz
LN
▁methadone
KD
-1).
▁ascribed
▁lymphoid
▁thereafter
dL
▁misoprostol
trical
oxifen
▁0.83
opyran
saccharide
▁cyt
letion
▁oestrogen
BV
ymme
▁(4)
▁ech
▁overex
phylaxis
▁harb
renal
▁salivary
▁Steroid
▁questionnaires
▁waking
rates
flurane
▁symptom
rele
otting
▁tau
▁seizures
▁enzymatically
acquired
▁naloxone
▁lymphatic
▁IgG
▁histological
▁develops
▁arterio
▁azithromycin
▁lactate
sible
▁1988
rine
▁progressed
▁Tris
hospital
standardized
▁antipsych
▁10(-6)
▁monomeric
▁contrac
▁0.21
IIb
plementation
▁paralle
▁quantitate
▁anion
▁dissected
menstrual
predic
(5
▁EDTA
▁immunoblot
▁.001).
▁subcellular
▁(33
uclear
▁lymphocyte
▁blin
▁ovid
▁deformities
antibodies
▁assemb
atif
▁inoculum
▁kDa
molecular
▁lam
-40%
bisphosphate
30)
▁myeloma
▁fixation
▁endotracheal
▁immunoprecipit
needle
-1),
tussis
▁sorb
▁coronary
▁hemorrhages
edded
bly
▁IFN
vaccin
▁synaptosomes
▁inhibited
lational
oactive
adenoma
6).
rane
▁tertiary
▁kappa
odg
▁retrograde
▁1991.
▁opiate
▁orific
▁cortisone
▁adren
transferase
▁sexually
ocamp
orbid
-1.0
▁enl
imol
▁dehyd
tructed
▁etiology
▁Infants
▁cys
▁Hyper
▁Caps
▁lenses
▁IIb
7,
▁trichloroacetic
▁phospholipid
▁pene
▁ligament
▁229
▁45%
▁pharmacy
▁estrogens
loro
▁mediator
▁lymphocytic
cholate
▁13.9
▁bursts
omethyl
▁chymotrypsin
▁POMC
.5%
enic
▁unco
▁probes
▁rectal
etan
▁microtubules
ypical
dimethyl
▁eminence
▁boutons
tur
▁polymers
▁chlorpromazine
▁glands
▁femoral
gm
▁piroxicam
rae
▁reflexes
urones
plemented
▁benzo
retro
▁exert
▁VLDL
▁predictive
▁(60%
▁72%
▁flanking
verbal
titude
tition
▁adsorbed
Lac
▁cytokines
▁unusually
▁Meth
▁antagon
▁plexus
▁197
▁neuropeptide
▁capsaicin
yrate
piper
▁10(7)
▁weighed
▁Prospective
▁95%
▁amitriptyline
▁otitis
90)
tries
▁cil
▁epidermis
11.
phoresis
▁Functional
lofen
▁resorption
▁neurotrans
FU
▁evidenced
atase
▁1964
oxim
trover
cephal
urther
▁uninfected
tetra
ynaptic
ophysical
▁instillation
▁asthmatic
▁attenuated
▁alteration
▁melan
▁astro
▁remod
sorbed
phosphate
▁myocardial
▁succin
▁infertility
Hg
vix
pli
▁vesic
▁favorable
osition
▁hepatoma
andros
▁effectors
opathic
▁differentially
▁Increased
pran
specificity
▁.05).
▁intrathecal
▁anatomic
700
▁DH
▁pulsed
NSAID
5,000
▁adrenoceptor
onas
▁caro
9%)
▁ions
ischem
-78
▁dihydropyridine
▁cac
phorbol
▁ovalbumin
▁hepatotoxic
▁oncogenes
▁atherosclerotic
mortality
▁abdominal
yclo
▁neurogenic
choline
▁unexpl
▁posttrans
labelled
▁analgesics
-66
▁anticoagulant
▁90%.
loid
▁alterations
12).
charomyces
tyrosine
▁effluent
▁diphen
plants
▁soma
8,000
▁phyl
▁deterioration
▁GVHD
ophys
▁anat
▁immunoprec
orporeal
umented
IH
cessively
Fs
▁competent
scherichia
ubs
▁arth
▁ketone
0%
uating
▁3%.
hydropyridine
▁striatal
▁stimulation
▁glucocortic
serine
▁5.4
▁Cells
ochle
▁rota
▁mesenteric
▁cavity
▁1.
▁seroton
▁aryl
▁submandibular
aldosterone
▁weaker
▁respiration
▁chloroquine
▁pellet
▁10
ordance
ffinities
lax
▁ambulatory
▁hypon
ellular
▁fluo
▁(86%)
▁infar
▁14.
▁gentamicin
▁2.6%
▁laboratories
▁bundles
▁pineal
opped
▁CoA
▁11-
+)-
▁flas
ipitation
cemic
▁spleens
▁splicing
agas
occal
▁bovine
▁progen
▁hypog
▁subgroups
restric
uodenal
▁2%
▁sensitization
uccin
40)
omeric
100
▁gonadotropin
tures
▁allergen
▁remn
phosphates
▁irritant
▁Hepatic
facial
▁hydroxylase
▁dors
▁dorsolateral
▁Effects
▁HER
dotoxin
▁stabilized
antibody
▁Caucas
▁delaying
▁Combining
idase
titial
ameters
▁roset
▁pharmacological
sied
▁chimeric
dle
oblas
▁declines
▁sedation
▁quail
▁Natl
feron
,000)
▁reconstitution
▁emergence
▁Bmax
acrine
tocin
▁axons
24,
tism
otide
▁glycosyl
▁195
▁sulfoxide
55
▁RS
irectional
▁surveyed
▁phospholipids
▁forearm
▁hyperther
▁differenti
▁emptying
orotic
▁carbox
▁leukocyte
▁trich
▁epitopes
▁correspondingly
▁sinusitis
▁dor
ongest
ucleotide
rogesterone
▁classifications
▁diameters
▁156
phyl
▁Pt
vascular
3)
▁argues
oxygen
▁provoke
vation
▁covari
▁0.41
▁disper
▁smokers
erus
-3
▁neurological
▁genomes
▁44-
ctomy
ellum
bodies
▁Possible
▁malabsorption
osyl
▁2.8%
▁stimulatory
▁25-
▁resonance
electric
▁arachid
▁diclofenac
roxyprogesterone
rolateral
lac
▁papill
iteal
▁swit
▁aeti
razosin
▁triad
▁3'-
tracted
oplasia
▁Holter
▁submuc
▁3.6%
▁limbic
▁24-
ometri
utyryl
hans
▁periv
▁Phosph
▁constituents
▁erythrocytes
▁necro
▁sca
ughter
▁0.04
ordant
▁(3-
▁sci
osides
ondr
▁cep
▁secretions
▁inhibit
▁clind
▁excitatory
▁organs
tionally
pharmac
▁5).
psych
▁caregi
▁0.51
▁dentures
omethacin
▁transforming
▁SCC
amicin
▁130
▁Stro
▁labile
-7
.0
▁Veterans
▁abundant
▁osmolality
▁IB
▁pulp
▁GLUT
▁typh
-6,
▁endometri
▁regeneration
▁ppm
▁responsiveness
▁catalyzes
xate
▁cysts
▁flunarizine
Gi
▁catheters
▁disrupted
▁EGTA
ranean
▁angi
▁pyrid
▁dele
▁dioxide
▁enhancer
▁acr
insensitive
chond
▁parasite
odic
▁reperto
▁LMWH
▁vesti
▁hyperthyroid
ducts
ubation
mitoyl
▁thrombotic
▁regulated
omical
▁alcoh
▁2-3
▁referral
▁owing
▁Neph
9,
▁angiography
▁Lyme
▁disabling
▁OH
▁(5.8
oprol
▁creatine
▁conservatively
roat
▁elic
▁articular
▁12.5
▁(72%)
▁ketoacidosis
▁apex
conjug
▁cathe
▁CSF
▁EcoRI
▁3,
▁divergence
35
▁techniqu
▁14-
otone
▁femur
▁interleukin
▁REM
▁0.001),
omotor
ometrically
▁termini
ietin
▁myelinated
oproliferative
tinguish
▁nec
▁3',
gag
▁rehabil
▁questionnaire
average
▁immunostaining
▁cumulative
▁1.5%
▁HRP
▁fibers
0.7
fusion
▁schizophren
▁dopamine
ivation
▁Testing
eclampsia
▁intracellular
▁centrally
▁dextro
neu
atropium
▁neurite
▁isolates
▁3.3
▁infertile
▁Taken
obacterium
▁Topical
neumon
▁caudate
▁reactivation
▁59
▁peptide
▁preservation
▁invasiveness
▁hyponatremia
▁orthostatic
overed
▁lisinopril
fib
▁incompletely
phosphor
▁echocardi
resis
▁Haemophilus
▁cervical
▁musc
▁absorp
▁lineage
MN
hydroxylation
oprote
▁7.0
▁(3)
▁pore
▁0.01,
ammonium
▁elastase
ammon
▁atrium
isopropyl
1%)
46
▁fused
▁solubilization
cristine
▁Significant
▁terminals
dividual
lasting
▁adenocarcinoma
▁offspring
91
▁4.3%
▁(31%)
▁(50%)
ranial
▁0.65
mega
▁amine
15)
322
▁iso
arginine
reness
▁hypothyroidism
▁histone
romised
▁parotid
uvant
▁reinfor
51
TSH
omies
14,
▁lupus
▁(76
▁validity
▁anionic
▁Geor
▁quadrup
▁Comparing
▁atyp
▁unfol
ameth
▁extracellular
▁indirectly
▁ori
▁7.1
▁autoimmune
▁inflammation
▁implantation
▁94%
▁cohort
▁ophthalm
▁caloric
▁supplements
▁resusc
▁(1.9
▁pyridoxine
▁inspiratory
▁thal
▁proteolysis
0)
▁dihyd
ydig
aemic
▁parie
sulfate
▁60%
ration
olysis
▁Subjec
▁cyto
▁thymocytes
▁Dose
▁nonf
▁TcR
▁InsP
RNA
▁3.8
▁confirmatory
▁preven
▁leukemic
▁zoster
▁unpredictable
')2
▁mycobacter
▁spindle
lier
osus
avage
▁inoculated
▁2.6
▁Laser
▁abdomen
▁regulating
▁phospholip
ronectin
▁cirrhotic
▁9%
▁3.7%
▁termination
80
▁compressive
▁seroconverted
intensity
▁monomers
tively
▁myelin
▁dysp
▁tuberc
▁cholecystokinin
▁0.0001)
▁Adherence
▁diabe
▁insignificant
▁8.6
ditional
▁convul
▁exten
olerance
▁lobe
▁malignancy
▁smo
consuming
▁intestinal
▁17,
▁kary
▁0.1,
ilateral
▁cros
▁nutrients
timulation
ureth
▁13.3
▁dismutase
▁nadi
▁tracts
▁persistence
▁gluc
▁Cys
▁mice
ocortex
▁pK
▁arous
dent
oxyrib
▁broth
▁inhalation
▁unstimulated
timate
▁ureth
▁228
▁1989,
filaments
rosophila
oconjug
▁capsule
iotic
eal
hydramine
▁Recurrent
obl
▁10%,
▁percentile
▁asymmetric
▁monitored
sulfamethoxazole
▁pHi
▁Glu
▁4000
rocytes
▁194
▁gonococcal
▁10(-4)
ymethyl
6/
▁DP
astric
onide
tiveness
▁LDL
▁serum
▁carpal
▁tox
▁COS
▁(8
ficially
▁clomiphene
▁immature
▁readings
▁observational
ochrom
vac
▁bp
▁cigaret
▁arousal
▁coag
▁tubercul
▁mmHg
▁CEA
Hu
olec
oscopic
▁subcl
▁amplified
atchard
▁AChE
▁satur
▁hypotension
▁glutaraldehyde
▁indi
either
▁differen
7,000
▁reagent
40
.5,
▁constituent
alanine
▁ribosome
▁embryo
▁210
hyde
ulph
▁CMV
▁reversed
▁parenteral
▁62%
odon
▁pneum
aspartate
69
150
▁dehydration
▁Surgical
▁hyperg
▁elemental
▁euk
ayers
▁ultrastruc
▁thiop
aortic
▁inhibition
▁-9
bular
▁mesang
opeptidase
tempor
▁ATP
▁catecholamines
▁adherence
▁Compared
▁benz
▁clom
EG
▁(15%
▁puncture
▁sacrificed
adox
▁(23
establ
▁60%.
▁grouped
▁digesti
▁cyclic
▁obli
▁ibuprofen
▁aerosol
▁fumarate
otid
▁attainment
▁Proc
ALT
▁necrop
▁(1:
▁Specificity
helical
asses
▁overweight
▁CAT
▁Lung
▁sulfate
▁exhaustion
▁PRL
▁unidentified
▁cobalt
▁protec
▁unstable
▁chewing
▁alk
▁excreted
uting
388
▁athe
▁drinkers
/20
▁ow
▁usefulness
10.
expressed
▁LHRH
▁titres
assium
▁0.63
▁ovulated
▁11.8
obacter
▁brady
▁arteries
▁natri
▁osteoporosis
▁spectrometry
▁neuros
bladder
oxazole
azoline
▁molec
▁kb
inescence
epithelial
▁neutralizing
▁acetate
▁decarboxylase
trated
▁noradrenaline
azosin
teroidal
▁undergone
7%
▁Decreases
▁94
▁restraint
▁antiserum
▁nevi
30
▁identically
opres
teine
▁athle
▁thromboxane
1/2
ozo
▁unbound
▁RL
lives
▁herpes
▁Measurement
▁unaffected
▁Biopsy
▁95%,
aternal
-20
▁10(-3)
▁Intravenous
▁80%.
rostagland
▁stromal
▁covalently
▁Nit
▁corresponded
opropyl
▁0.4
▁urodynamic
▁branching
▁insoluble
▁diffuse
tural
▁nephron
▁auditory
earance
▁dermal
▁dimer
formations
86
exposed
▁sampled
▁Thin
▁adrenocortic
4+
▁ICU
▁primate
adecanoyl
▁adul
▁corneal
▁equimolar
▁emboli
▁aided
-1-
ectomized
relations
WB
▁rotavirus
0%.
▁6)
▁polyaden
▁therapeu
▁rigorous
▁astrocy
tious
ervo
opsy
PSP
▁demonstrating
▁HAM
ithm
anding
PV
▁labelling
▁Sephadex
▁electrolytes
corrected
▁cirrhosis
▁Perc
supplemented
rofen
▁110
patients
▁progres
▁Ade
-13
▁(199
azepine
▁39
)2
▁postural
▁doxazosin
ompan
▁evoked
Thr
▁uniformly
▁6,
▁Epid
▁rifamp
88
▁potentiation
▁-6
tebral
omn
HETE
oprostol
ocompatibility
enia
42
▁alveolar
LU
▁isoforms
▁hyperch
▁Changing
loride
▁suppressor
▁amyl
▁leu
▁700
keratin
▁preincubation
▁ane
▁66
▁(47
▁BALB
DNA
▁exhibiting
asone
ogeneic
▁tic
traumatic
▁cellulose
▁peri
elves
▁translational
▁emin
▁dividing
▁laminae
▁motif
▁elevations
▁synchronous
▁WBC
▁complementation
▁histidine
rostenedione
▁cornea
pont
▁70.
▁qualitatively
▁shif
▁retrospective
▁TP
▁susceptible
▁peripheral
uestion
▁Peripheral
ialysis
▁electrocardi
idne
iodo
▁heterologous
ginine
▁uni
▁parenchymal
▁micrograms
▁guinea
vastatin
acetic
▁stripe
▁(50%
ponin
▁12
▁angioplasty
▁grafts
yron
iatic
▁introns
▁1.21
▁plaques
▁Surve
uling
oligo
▁splenic
aminob
▁illnesses
▁platelet
▁nitrate
▁practitioners
▁EIA
▁spro
▁ratios
▁tet
▁embolism
▁36%
▁18,
▁granules
▁Mg
▁visualization
▁99
▁abortive
reflex
▁5.6
▁9.9
▁Inhibition
▁schem
+)
▁steers
▁(10.
eptides
▁transformations
Ace
▁hypox
▁classifying
▁obser
▁molecules
▁0.02
mediated
▁solids
▁elution
▁23%
▁nontoxic
▁LR
▁preschool
▁digestive
▁unwanted
▁sampl
▁murmur
onstric
▁205
rosal
▁ultr
▁15
▁parietal
▁56
myocardial
-13-
▁0.05,
▁membran
physiological
▁Plate
▁elas
centr
unar
▁intra
-1.5
▁Bacterial
2+
▁Thyroid
▁equivocal
▁0.2-
gulation
▁granulocytes
immunized
▁coordin
▁bolus
ziness
LV
myrist
grams
▁uptake
▁isozymes
▁MCA
▁0.
race
▁densities
agonists
▁quinine
▁terminus
oproteins
▁hypoxia
▁polymorphism
▁innervated
alate
▁SEM
▁attained
ionyl
monella
▁nonselective
▁axillary
▁unselected
flamm
▁3.2%
istar
-6.
▁splanchnic
▁microvascular
▁postmenopausal
▁rhe
▁perme
▁infrequ
▁phosphoryl
/8
hepatitis
openhagen
▁compensatory
▁tauro
▁SG
orbidity
iliated
▁demonstrable
nee
acin
rinary
▁recurrence
▁antis
▁nitroglycerin
▁hydroph
tolerance
▁vesicular
orubicin
▁glycine
:4
ffeine
▁frog
▁Acad
▁incompetence
▁sedimentation
▁spor
▁triglycerides
▁cyclase
▁181
▁nondiabetic
ogenetic
▁endocarditis
▁sclerotherapy
▁schizophrenia
▁silic
ACA
▁Melan
▁intercellular
▁thems
otrophs
attern
▁contrib
▁obstetr
▁(3.0
▁initiate
▁communic
▁gestation
▁AVP
osylated
▁cortex
▁omega
▁pancreatitis
SBP
▁nonex
▁16,
▁10(-5)
ivered
▁arteriovenous
▁congen
testinal
timal
tice
▁1.2%
▁equi
▁263
▁antide
iodothyronine
CFU
▁151
▁imaged
▁nm
▁sati
▁adenine
▁folate
LTS
meas
▁lacked
▁tendencies
-125
-2)
▁cromoglycate
phetamine
-201
▁estrus
▁lesions
-1000
▁immunogenicity
▁ubiqu
▁granulocyte
▁hypo
▁75-
apular
.0)
▁0.005).
ovis
entral
▁asymme
iloride
▁10,000
oplasm
▁AK
▁SMC
▁midazolam
▁deletions
ygen
78
▁IA
▁decreasing
ophageal
▁valpro
▁PAF
▁[125
▁Experimental
▁188
MSH
▁CNS
▁heterogeneous
▁reper
▁antif
▁dye
▁208
▁chemically
ancomycin
▁naf
entified
▁RAS
▁internalized
▁mL
▁apomorphine
▁reflec
▁109
▁8.3
▁metabol
▁haemat
▁electroph
phage
▁mesenchyme
▁ionic
▁polypeptides
▁circulating
▁semin
▁6.
▁accounted
▁transpor
▁polypeptide
▁Nine
▁gastroenteritis
xiety
▁benzodiaz
psin
▁inducer
/-
ocine
amylase
▁quanti
atids
▁deduced
▁hemisphere
▁cortisol
uracil
▁pathologic
▁flashes
▁nipple
plasma
▁(11
taz
▁201
/7
▁ipratropium
▁instrum
,2
▁esophagitis
▁diffic
▁glut
conditioned
▁(45
▁autopsy
▁ultrasonography
1);
ohyd
▁cardiople
▁198
0.0
▁prescribed
▁weighing
▁stimuli
▁subarachnoid
lactamase
▁Kinetic
▁hydrolysate
glial
▁theore
▁ascites
▁biop
▁dispersed
▁fimbr
potassium
▁laryngeal
itriptyline
▁maximally
▁polymerization
thiazide
uresis
71
▁translocation
▁heme
tensity
▁cla
▁fertil
▁pathophysiology
oxide
▁123
ilin
▁0.9
glucosamine
takes
▁quies
tisol
emory
▁hyperins
▁5.8
▁conjunctivitis
▁influenzae
▁TA
▁Abnormal
▁140
▁carnitine
respective
▁salmon
▁possi
athe
▁cholinergic
▁cirrh
▁261
▁olig
isite
▁oocytes
▁amiloride
▁blister
-3-
▁unrel
alazine
▁Urinary
plas
oside
▁forsk
bronch
rene
examin
▁valproic
carb
▁1200
▁gilts
▁sphe
fate
43
▁accumulate
▁warr
▁stren
lop
▁albumin
▁180
▁gangliosides
ovirus
rosine
▁porcine
▁empir
▁NaF
▁intraepithelial
▁schist
▁deficiency
reas
▁withdrew
▁disrup
▁reabsorption
▁stimulated
Hyp
▁perturbation
▁propor
oceptor
▁CG
▁xen
▁retinoids
▁baroreflex
▁Elec
▁valproate
▁yr
▁2.8
carboxy
▁malate
▁psychosocial
▁rheum
▁pressor
▁discharged
-15
romed
105
▁10(-7)
incubation
metabol
-17
-400
▁113
atories
▁salic
tetr
tococcus
▁induces
ubiqu
atrop
urement
uates
▁PCP
olecular
▁hyperp
▁monke
▁apo
▁ethyl
▁sensi
28
▁promptly
▁immunocomp
▁glycer
▁thiol
▁83
PSPs
▁dexamethasone
imus
-88
viron
LPS
▁gyrus
▁receptive
/1
▁quantification
rotoxin
▁infective
▁diminished
dialysis
▁isoenzyme
▁chorion
▁permeability
ealand
plasia
yro
▁cuff
▁HeLa
▁Various
▁hemag
▁monensin
pation
▁Tolerance
▁potassium
▁0.71
generation
▁cytotoxic
▁markedly
-3)
oxyl
▁0.20
▁terfenadine
▁75%,
apatite
▁pacemaker
portion
▁saturation
sisted
▁scrotal
▁ingested
▁chl
▁replic
phic
▁opioids
▁1.2-
within
▁contralateral
▁dilated
▁radiologic
▁incomp
▁hypotheses
▁thermodynamic
▁(49%)
dural
0/
.5%)
razole
▁quinacrine
▁Cardiovascular
▁rhin
enem
▁frac
▁fluoride
▁rebound
oterol
adex
▁extras
▁adminis
▁alkali
▁evolutionary
▁conjugated
izine
tolerated
umably
▁(18
imetric
conduc
▁divertic
▁150,
▁insemin
weekly
osm
2+]
▁Complications
thyroid
ourinary
roximately
▁RFLP
▁carbamazepine
▁acids
▁antagonized
exchange
▁blockers
kelet
1.
▁Fetal
▁resec
▁eluted
▁haemoglobin
▁1989
▁28,
▁reliably
▁gelatin
▁prothrombin
▁enhances
▁(70%
▁contractile
▁2-
▁FN
odds
▁homologous
-90
death
▁HF
siological
▁prosthetic
embr
▁percutaneous
▁potency
▁TT
▁unrestricted
regulated
oxan
▁0.48
▁prescribing
▁10(-9)
▁mosquit
▁alkylating
▁5%,
31
atosis
▁18%,
▁prol
traum
aminated
▁larvae
amuscular
▁cAMP
▁(200
▁calibr
▁inclusions
fts
▁Removal
inephrine
▁mechanically
▁Differences
▁nonlinear
▁0.43
▁oestradiol
3.1
▁HCO
tial
HPLC
▁toge
▁acetic
▁inhaled
-12
▁metast
▁facet
▁depr
pG
▁166
▁6.5
adiol
▁worsening
tryptamine
▁LV
▁3.4%
oreceptor
▁ODC
tiazem
▁exclusion
rowth
▁ACTH
▁nocturnal
▁correlates
oxygenation
▁34%
▁plantar
▁152
astolic
transformed
iferative
dition
estion
▁unexplained
-19
▁improves
▁leakage
▁cholinesterase
▁apparatus
▁Rout
globulin
▁ars
▁Sixteen
(4
epi
▁32%,
ografts
▁adjustments
▁immunode
▁analyses
▁osteopenia
▁testis
▁seronegative
▁assessed
▁(197
obenz
ympathetic
▁globin
▁0.46
▁perif
ystokinin
▁healed
▁palmit
tensive
▁psoriatic
urnal
triglycerid
oate
▁doxycycline
▁1970
▁polyp
xia
hypertensive
70
cys
▁evid
▁serotonin
ifferen
▁heparan
▁hypoxemia
▁posed
▁contracted
▁confirms
▁enal
▁audi
▁fetuses
▁cGMP
▁cutoff
▁37.5
oagulation
DG
arterial
▁mA
▁differentiate
terone
▁inhibitory
▁DHT
▁glauc
▁LTC
▁jejunal
▁folding
▁plotting
pain
fluo
helial
Bs
▁fulfilled
▁hipp
leucine
VLDL
▁tumor
▁coli
▁284
▁subsets
▁contraception
cribed
▁wards
utyric
sive
▁gradual
alb
▁vasodilator
▁subdi
▁4.2
21)
▁lysis
▁fores
uron
▁interc
▁septum
plen
apride
▁adrenaline
sial
tron
▁depolarizing
glucuron
▁microvilli
▁transcriptase
▁antiarrhythmic
▁constitutively
▁gastritis
yroxine
PRL
▁Subcutaneous
▁summ
▁thyrotropin
▁antimic
▁mediast
romethyl
9]
▁calcium
▁eccentric
▁Atrial
IGF
hydroxy
▁27
ynthe
feren
▁differentiated
9;
▁contraction
sulph
ingers
▁19%
▁arteri
▁recr
tiv
▁ischemia
▁tumors
▁difficul
▁blasts
itoneal
totic
▁40%,
▁glomer
yses
▁cortic
▁PDE
▁177
▁Subjective
hep
▁metoclopramide
▁chronically
▁hydrogen
▁pseudop
▁neutrop
▁hepar
▁overestim
▁proteinase
▁0.58
ximide
▁impulses
oporotic
▁haplotype
▁acini
▁17%
▁Vmax
opolysaccharide
▁dipyridamole
▁dihydro
trol
inducing
▁devi
▁tricuspid
▁paral
▁tec
▁endarterectomy
▁73
▁anomaly
ethanol
▁capsular
▁0.57
teria
▁maxillary
▁marginally
difference
▁interfer
▁chromatographic
▁(48
▁dias
▁neurones
▁afterload
▁cyclosporine
surgery
▁conformational
ylcholinesterase
▁incubating
▁germinal
▁Electro
derived
▁sorbitol
oxif
▁septic
▁accep
acental
▁PGF
▁Antibodies
filtration
▁297
▁31
▁asial
▁cotinine
▁560
▁unclear
udation
Cy
▁transcrip
▁EDRF
▁HI
▁blas
▁coh
ipro
▁senes
▁lovastatin
udine
▁71
vant
butyrate
▁(54
osomal
entgen
orption
▁nonpregnant
individual
▁chamb
encephalic
▁discon
riched
▁planar
▁mediators
sero
Fc
▁nonfatal
▁ferric
▁NSAID
isomerase
▁proteinases
oflurane
▁anomalous
19.
tetrahydro
▁Cardiac
▁remo
phrine
secre
▁11.
▁radionucl
▁reflecting
▁corticos
▁14
▁Diabetic
▁kinin
3;
atches
▁nedocromil
▁substantially
▁lysosomes
▁40%.
▁extre
▁hypothesized
▁(1.4
▁(0.1
▁cytokeratin
▁Cox
▁ornithine
▁thrombolytic
▁exocrine
▁dermatitis
osocial
▁transloc
▁milder
▁0.24
▁124
▁arachidonic
▁divalent
45
▁cathepsin
activities
▁alloster
▁protracted
ocyt
-24
▁phosphodies
tices
gestation
Tc
▁urokinase
aicin
▁hirsutism
▁peric
▁1988,
▁adjustment
▁calcified
plates
▁EMG
▁246
▁chlor
▁dysplasia
▁priming
buterol
▁DCA
romyces
▁agon
000
▁FEV
▁haem
▁swabs
WK
romedial
▁213
▁Older
▁replication
▁(5-
▁sepsis
▁quantitative
▁9.0
odium
farin
ths
▁phosphatidyl
▁endocervical
▁histopath
▁hypothyroid
▁nasopharyngeal
▁suspensions
▁176
FGF
67
▁hemoglobin
▁recruitment
▁ceph
▁thromb
▁peroxide
pecies
▁stroma
▁TATA
▁murine
▁ADH
mmol
ETE
▁paraffin
▁trypsin
▁315
androgen
treated
▁Pregn
▁nausea
▁oxidized
▁intrag
phosphamide
▁24%
▁empiric
▁Examination
▁emesis
orrhage
▁nucleotides
orrheic
▁albicans
enhanced
athered
osom
▁trabec
erule
▁cellular
helin
▁axon
thanol
orh
▁medullary
▁IgM
▁redox
▁heparin
oreceptors
convul
▁nucleus
topril
▁lipids
▁staining
▁indicators
▁precipit
▁reduc
▁newborn
▁crude
▁cholera
▁circadian
▁zymosan
▁radiol
▁0.78
oxone
ogl
▁thym
otypic
▁chlorhexidine
alene
▁(7
-70
▁hospitalization
▁urea
▁donor
yronine
▁cardiomegaly
▁bir
▁immunologically
▁fung
90
▁conjunction
1,
▁pige
▁Extensive
▁microsomal
▁homose
▁1980
▁conjug
▁pM
▁gonadotrophin
▁dibutyryl
▁0.47
▁fistula
▁10,
▁pancre
enterolog
▁infrared
lude
▁midline
▁interneurons
▁radicals
▁IVC
methionine
▁vein
▁airways
▁cooperativity
▁MRSA
▁phos
▁PSA
ordial
▁decreases
▁regen
CDC
▁allevi
idine
▁adenocarcin
▁Radi
tual
▁20%
osol
▁combin
▁arrhy
▁Registry
▁elimination
ographs
▁particulate
filament
▁295
▁pyel
▁originate
treatment
▁irritation
▁singlet
▁CsA
▁supernatants
proven
▁ferritin
▁Intr
injected
glycerin
▁neuropeptides
othel
CAT
▁126
▁atmosp
▁nephrotoxicity
▁anterograde
▁carcass
▁endotoxin
bA
▁inters
▁erythro
▁13.
▁lymphokines
▁aorta
umbar
▁(5)
▁500
▁faecal
▁transpos
▁myof
▁junction
▁iliac
▁Barrett
▁cruc
▁Fc
iosis
▁chicks
▁nosocomial
▁prostatectomy
astom
▁synthase
acchar
▁parasites
▁18%
irradi
tin
▁parenchyma
▁contradictory
▁detergent
▁47,
▁0.75
ughters
▁nicardipine
comitant
ropriate
ditions
sizing
▁ammonium
▁Thirty
▁ribosomal
